<unk>	0
<s>	0
</s>	0
s	-3.26919
▁the	-3.44121
.	-3.48865
,	-3.53364
▁a	-3.94305
▁and	-4.08556
▁of	-4.15095
▁to	-4.19352
'	-4.27857
▁is	-4.44286
br	-4.47737
▁/>	-4.50995
t	-4.53473
▁in	-4.56302
▁	-4.56619
<	-4.57064
▁it	-4.74214
▁I	-4.78214
▁that	-4.86866
▁this	-5.01873
ed	-5.04633
ing	-5.09754
-	-5.23106
▁was	-5.25112
d	-5.2641
▁movie	-5.31125
▁for	-5.34632
▁film	-5.36497
▁with	-5.37231
▁as	-5.48603
y	-5.49963
▁but	-5.56801
ly	-5.57052
▁on	-5.60225
▁The	-5.61351
▁(	-5.62081
▁be	-5.68264
▁you	-5.69324
▁"	-5.70314
▁not	-5.75177
▁are	-5.75697
e	-5.76759
▁his	-5.79636
▁have	-5.80696
er	-5.81782
"	-5.86938
▁he	-5.87425
▁one	-5.9089
)	-6.02734
▁all	-6.03023
▁by	-6.03453
▁an	-6.05051
n	-6.0558
re	-6.07157
▁who	-6.0756
▁at	-6.10441
al	-6.12647
▁like	-6.13188
▁so	-6.1384
m	-6.1432
▁from	-6.15338
▁they	-6.21371
I	-6.21794
▁her	-6.22144
▁out	-6.23348
a	-6.25489
▁about	-6.27707
▁has	-6.28587
▁or	-6.31011
▁just	-6.31275
r	-6.32186
in	-6.35223
▁It	-6.35432
o	-6.35882
c	-6.3682
▁can	-6.40696
p	-6.41531
▁some	-6.44478
▁good	-6.47031
▁more	-6.4844
es	-6.49001
!	-6.51257
▁very	-6.52824
The	-6.53147
▁A	-6.53781
?	-6.5405
▁up	-6.55782
▁me	-6.57395
▁what	-6.5755
▁time	-6.57809
i	-6.58655
l	-6.59638
▁would	-6.60226
or	-6.61942
▁she	-6.62532
▁there	-6.62831
▁see	-6.62901
▁when	-6.63968
▁no	-6.63986
▁story	-6.66749
▁re	-6.6818
▁really	-6.68376
le	-6.68828
▁S	-6.69692
▁had	-6.70176
ve	-6.7149
an	-6.71549
▁their	-6.71657
▁even	-6.71693
A	-6.7196
▁only	-6.73039
▁if	-6.73144
b	-6.7433
▁were	-6.75191
▁which	-6.75218
▁my	-6.75315
k	-6.76142
u	-6.76434
ar	-6.76469
on	-6.76501
▁than	-6.7829
S	-6.79702
▁B	-6.80517
:	-6.81026
▁do	-6.8168
f	-6.82606
...	-6.83591
▁we	-6.84601
ll	-6.84975
▁much	-6.85041
▁will	-6.87946
▁been	-6.89359
▁into	-6.89559
▁get	-6.89983
it	-6.90862
ic	-6.91023
▁F	-6.91995
▁-	-6.92064
ur	-6.92295
▁This	-6.9362
▁him	-6.93819
g	-6.94229
▁great	-6.95324
▁way	-6.95525
▁other	-6.95724
▁well	-6.95794
▁bad	-6.96555
en	-6.96685
▁people	-6.97233
▁because	-6.97598
▁make	-6.98131
▁over	-7.01437
th	-7.01551
h	-7.02428
▁first	-7.02699
ri	-7.03444
▁made	-7.04486
▁most	-7.05626
▁also	-7.06667
▁them	-7.06952
▁could	-7.07861
ra	-7.08347
se	-7.09052
el	-7.10406
▁end	-7.10826
▁know	-7.10838
ion	-7.11982
▁character	-7.1211
ter	-7.12144
▁think	-7.12188
il	-7.12215
▁how	-7.12322
▁any	-7.13925
▁don	-7.14551
▁too	-7.15606
▁un	-7.16344
▁show	-7.18444
▁He	-7.19445
v	-7.20474
▁love	-7.22384
;	-7.2239
▁plot	-7.22497
as	-7.22552
▁watch	-7.22572
▁seen	-7.22856
E	-7.23189
▁characters	-7.23488
▁life	-7.25193
and	-7.25735
▁C	-7.25829
▁But	-7.25911
ro	-7.26881
ch	-7.26929
▁de	-7.2699
▁being	-7.27182
▁i	-7.27423
ent	-7.27504
able	-7.27883
▁two	-7.28753
▁never	-7.28882
▁'	-7.28989
This	-7.29362
▁R	-7.29501
▁And	-7.29513
).	-7.29662
▁M	-7.30765
lo	-7.30867
▁where	-7.31278
T	-7.31688
li	-7.31795
▁P	-7.32105
▁little	-7.32549
▁after	-7.32801
▁go	-7.32813
▁many	-7.32852
▁acting	-7.33319
▁off	-7.33358
ation	-7.33608
un	-7.34347
▁T	-7.34381
▁then	-7.34399
▁did	-7.35729
/	-7.36755
▁does	-7.37029
▁best	-7.37072
at	-7.37432
▁ever	-7.37626
▁G	-7.37835
▁man	-7.3815
▁movies	-7.38192
▁say	-7.39196
ir	-7.41147
▁better	-7.41879
▁b	-7.42051
▁In	-7.42317
▁W	-7.42339
D	-7.42998
ity	-7.43876
▁your	-7.4409
▁scene	-7.44401
ate	-7.44744
man	-7.45631
),	-7.45973
C	-7.46971
B	-7.46977
the	-7.47044
ce	-7.47207
▁should	-7.47221
▁back	-7.48791
▁E	-7.49049
et	-7.49244
O	-7.49322
ive	-7.49332
▁real	-7.50329
▁films	-7.50608
M	-7.50832
▁still	-7.51206
w	-7.51384
less	-7.51823
▁<	-7.52426
▁through	-7.52696
▁There	-7.53179
est	-7.53273
▁st	-7.53391
▁scenes	-7.53458
ul	-7.53588
▁such	-7.54742
▁here	-7.55967
ie	-7.56247
ne	-7.56484
▁work	-7.56643
ck	-7.57229
▁something	-7.57564
ers	-7.58403
am	-7.58592
▁c	-7.58868
id	-7.59092
ist	-7.59573
ment	-7.60573
▁director	-7.60853
▁find	-7.61881
▁D	-7.62003
▁thing	-7.62668
▁lot	-7.63034
ver	-7.6309
▁those	-7.63398
▁part	-7.63955
▁doesn	-7.64038
▁years	-7.64215
im	-7.64374
▁actors	-7.6446
▁watching	-7.64946
▁its	-7.65161
me	-7.65294
▁these	-7.66108
is	-7.66207
z	-7.66438
▁H	-7.67074
▁didn	-7.67169
▁K	-7.6738
P	-7.67581
▁g	-7.67899
▁want	-7.69007
▁few	-7.69258
us	-7.69261
▁down	-7.69769
▁old	-7.69947
▁point	-7.69984
▁same	-7.70194
ol	-7.7054
G	-7.71134
▁look	-7.71683
▁cast	-7.72613
um	-7.7266
co	-7.73343
la	-7.73664
ia	-7.74094
▁d	-7.74122
ies	-7.74187
▁before	-7.74531
▁funny	-7.74533
▁If	-7.74766
ant	-7.74905
▁though	-7.74952
▁p	-7.75256
▁going	-7.75526
▁makes	-7.7654
▁actually	-7.76589
▁while	-7.76711
ine	-7.76903
ish	-7.77316
▁bit	-7.77494
▁own	-7.78117
ting	-7.7874
▁every	-7.78779
de	-7.78912
ty	-7.79023
na	-7.79279
▁nothing	-7.79467
▁why	-7.79473
▁fact	-7.79794
▁new	-7.7989
ad	-7.80438
▁again	-7.81439
ry	-7.81736
ma	-7.8242
L	-7.82643
▁thought	-7.8283
▁feel	-7.83093
▁w	-7.83489
▁around	-7.83496
be	-7.83902
R	-7.83903
▁&	-7.84114
▁another	-7.84342
te	-7.84428
ig	-7.84614
▁original	-7.85103
ge	-7.85239
▁pretty	-7.85989
▁v	-7.86203
▁enough	-7.86273
▁quite	-7.8628
▁She	-7.86546
▁far	-7.86839
up	-7.8732
▁got	-7.87827
▁co	-7.88187
▁give	-7.88889
ness	-7.8894
▁long	-7.89012
▁seems	-7.89411
▁script	-7.89421
▁19	-7.89608
▁world	-7.89657
▁take	-7.89763
pe	-7.8986
▁right	-7.90029
▁horror	-7.90093
▁action	-7.90388
▁young	-7.90498
--	-7.907
ally	-7.90769
▁hard	-7.9124
▁us	-7.91478
▁So	-7.91862
to	-7.91879
▁role	-7.91923
▁between	-7.92289
▁things	-7.92302
hi	-7.92931
▁series	-7.94352
▁De	-7.94602
▁O	-7.9471
▁may	-7.94799
▁sp	-7.96186
▁kind	-7.96462
▁come	-7.96714
▁family	-7.9717
▁must	-7.97211
▁sh	-7.97348
▁now	-7.97487
W	-7.97774
▁whole	-7.97845
▁saw	-7.9895
▁always	-7.99013
▁least	-7.99016
▁place	-7.99522
one	-7.99655
▁2	-7.99826
▁J	-7.99889
▁am	-7.99942
▁con	-7.99992
ful	-8.01171
▁almost	-8.01304
▁performance	-8.01353
▁both	-8.02009
▁interesting	-8.0204
K	-8.02311
▁L	-8.02406
ted	-8.02543
▁ch	-8.02846
▁done	-8.03277
▁music	-8.03565
▁reason	-8.03592
▁screen	-8.03845
son	-8.03859
ag	-8.0388
▁believe	-8.03905
he	-8.03989
▁comedy	-8.04101
ated	-8.05048
▁big	-8.05181
▁isn	-8.05462
▁minutes	-8.05479
▁Ma	-8.055
ca	-8.05689
▁last	-8.05724
om	-8.06023
▁gets	-8.06075
▁You	-8.06085
▁fun	-8.06845
▁might	-8.0727
▁r	-8.07325
▁guy	-8.07836
▁without	-8.07874
▁f	-8.07905
min	-8.08057
▁help	-8.0807
ance	-8.083
ta	-8.08665
age	-8.08916
ni	-8.08988
H	-8.09522
▁girl	-8.09761
▁idea	-8.09839
▁since	-8.0985
ti	-8.10122
x	-8.10131
▁put	-8.10143
no	-8.10175
▁anything	-8.10485
▁Re	-8.10538
▁woman	-8.10756
ke	-8.10973
sh	-8.11629
▁book	-8.11698
▁dis	-8.11776
▁They	-8.12674
▁under	-8.12714
▁rather	-8.13428
▁audience	-8.14273
ling	-8.14293
▁La	-8.14534
ac	-8.149
N	-8.14916
op	-8.14937
▁car	-8.15099
▁found	-8.15229
▁set	-8.15244
It	-8.15915
▁Ha	-8.15926
▁We	-8.15951
▁times	-8.16008
oo	-8.16885
▁probably	-8.16946
ian	-8.1713
▁away	-8.17152
▁TV	-8.18078
▁play	-8.18487
▁worth	-8.18661
▁sure	-8.18859
▁N	-8.18893
F	-8.18977
▁making	-8.19017
▁use	-8.19253
ner	-8.1927
ain	-8.19285
ton	-8.19395
▁Ca	-8.19583
▁To	-8.19586
▁l	-8.19751
▁e	-8.19861
▁course	-8.19892
tion	-8.19937
ha	-8.20072
▁ex	-8.20115
▁mo	-8.20427
ster	-8.20545
ous	-8.20764
▁worst	-8.21196
ap	-8.21324
tic	-8.21519
▁sense	-8.21702
Y	-8.21861
1	-8.21896
▁read	-8.22001
▁day	-8.22034
▁pre	-8.22348
▁ha	-8.2269
▁main	-8.22767
▁let	-8.22884
(	-8.22912
po	-8.24037
▁anyone	-8.24065
▁trying	-8.24081
3	-8.24357
▁For	-8.24386
ard	-8.24437
▁mind	-8.2459
▁goes	-8.24784
▁version	-8.24898
ud	-8.24991
if	-8.25036
▁different	-8.25108
▁high	-8.25454
act	-8.25524
▁job	-8.25846
▁ending	-8.26392
▁Le	-8.26418
ot	-8.2644
▁What	-8.26557
ber	-8.26561
7	-8.26836
▁fan	-8.26949
▁keep	-8.27122
▁10	-8.27182
bo	-8.27355
".	-8.27523
▁seem	-8.27791
her	-8.27936
pp	-8.281
▁V	-8.28319
▁As	-8.28333
▁Ho	-8.28381
▁played	-8.28585
▁po	-8.28731
mo	-8.28854
▁our	-8.29078
▁American	-8.29429
▁yet	-8.30068
ba	-8.30109
▁comes	-8.30287
▁each	-8.30302
end	-8.30361
ee	-8.30468
▁money	-8.30738
▁pro	-8.30895
▁short	-8.30948
▁DVD	-8.31055
ious	-8.31391
der	-8.31529
▁Be	-8.31543
▁Ba	-8.31606
▁That	-8.3171
▁recommend	-8.31838
▁rest	-8.31857
▁actor	-8.31876
▁true	-8.31965
ho	-8.31976
per	-8.32124
8	-8.32251
red	-8.32349
▁start	-8.32413
ru	-8.32539
5	-8.32605
U	-8.32713
▁year	-8.32764
▁No	-8.32995
▁looks	-8.33114
▁fl	-8.33142
▁second	-8.33309
▁having	-8.34133
mi	-8.34344
▁enjoy	-8.34551
",	-8.34733
▁looking	-8.35019
▁father	-8.35161
▁understand	-8.35265
▁home	-8.35312
ake	-8.35719
▁half	-8.36082
▁said	-8.36317
dy	-8.36413
▁John	-8.36462
▁effects	-8.36485
ow	-8.36597
▁wasn	-8.36721
▁watched	-8.36908
▁star	-8.36945
2	-8.37024
▁low	-8.37037
▁together	-8.37142
▁else	-8.37383
▁nice	-8.37501
▁head	-8.37832
ever	-8.38115
4	-8.38231
▁especially	-8.38234
▁less	-8.38568
▁special	-8.38573
▁takes	-8.38706
▁someone	-8.38935
▁com	-8.39025
pi	-8.39053
▁shot	-8.39198
▁wife	-8.39248
▁plays	-8.39354
▁left	-8.39539
out	-8.39598
▁name	-8.39662
va	-8.39885
▁three	-8.40148
lu	-8.40346
▁need	-8.40622
▁later	-8.40686
▁men	-8.40905
▁sound	-8.41043
▁St	-8.41182
ism	-8.41521
▁Do	-8.41643
."	-8.41865
ence	-8.4219
▁Mar	-8.42375
▁excellent	-8.42618
▁himself	-8.42618
▁ma	-8.42637
▁everything	-8.42744
9	-8.42776
ward	-8.42932
▁Lo	-8.4321
▁war	-8.43234
ary	-8.43358
▁hope	-8.43707
▁o	-8.43801
▁house	-8.43894
▁face	-8.43986
▁lack	-8.44184
▁classic	-8.44188
ell	-8.4433
▁murder	-8.44639
ub	-8.44797
▁beautiful	-8.45283
▁U	-8.45481
▁care	-8.45641
ick	-8.45849
6	-8.46052
▁mean	-8.46099
▁human	-8.46281
▁remember	-8.46313
ut	-8.4645
▁Al	-8.46723
ring	-8.4688
▁3	-8.47208
▁attempt	-8.47225
em	-8.47253
▁production	-8.47286
nd	-8.47294
▁tell	-8.476
ak	-8.47646
▁boy	-8.47708
▁camera	-8.47826
▁piece	-8.47826
▁during	-8.4803
▁line	-8.48208
▁used	-8.48398
ven	-8.48416
▁tr	-8.48909
ably	-8.49023
fi	-8.4929
che	-8.49292
ating	-8.49303
▁close	-8.49345
▁wrong	-8.49477
▁shows	-8.49952
ving	-8.50074
▁poor	-8.50207
▁When	-8.5024
▁heart	-8.50265
▁black	-8.50284
ect	-8.50317
V	-8.50548
▁live	-8.50585
▁everyone	-8.50626
▁simply	-8.51098
▁night	-8.51124
▁once	-8.51191
▁seeing	-8.5127
▁An	-8.51288
land	-8.51518
In	-8.51596
0	-8.5172
ler	-8.51777
▁Not	-8.51895
ab	-8.52161
▁wonderful	-8.52287
▁Bo	-8.52404
gg	-8.52563
▁art	-8.52668
▁completely	-8.52693
rn	-8.5277
▁death	-8.52811
▁couple	-8.53022
▁sex	-8.53216
▁1	-8.53327
▁picture	-8.53718
gen	-8.53738
▁ta	-8.53933
▁di	-8.53935
▁person	-8.54028
com	-8.54106
all	-8.5437
ite	-8.54418
▁top	-8.54481
ach	-8.54503
mon	-8.54554
ice	-8.54739
▁act	-8.54935
▁Car	-8.55282
▁kids	-8.55423
mer	-8.55505
▁until	-8.55595
▁hand	-8.55751
▁won	-8.55902
▁full	-8.55972
▁along	-8.56195
▁stupid	-8.56266
▁One	-8.56485
▁supposed	-8.56533
ath	-8.56576
for	-8.56995
▁--	-8.57035
▁small	-8.57275
ff	-8.5737
▁laugh	-8.57507
go	-8.5829
▁My	-8.58322
▁try	-8.58572
cy	-8.58573
▁turn	-8.58846
▁However	-8.59057
▁either	-8.59176
▁Man	-8.59668
▁boring	-8.59771
▁light	-8.60048
▁THE	-8.60067
▁sort	-8.60097
ng	-8.60147
▁given	-8.60233
▁truly	-8.60364
▁title	-8.60487
▁cr	-8.6065
▁Co	-8.60676
▁become	-8.60948
ens	-8.61174
▁Pa	-8.61215
▁Hollywood	-8.61272
▁friend	-8.61479
▁came	-8.61501
▁video	-8.61566
▁mis	-8.61649
▁felt	-8.6172
▁perfect	-8.61863
we	-8.61919
king	-8.61971
bi	-8.61974
▁women	-8.62172
▁run	-8.62226
▁follow	-8.62484
!!!	-8.62596
▁school	-8.62698
tch	-8.62768
di	-8.6313
tri	-8.63141
▁performances	-8.6332
old	-8.63682
▁awful	-8.64034
▁flick	-8.64051
ture	-8.64404
▁getting	-8.65222
▁All	-8.65226
od	-8.6532
▁instead	-8.65542
▁friends	-8.65582
av	-8.65617
ger	-8.65885
▁kill	-8.65955
▁moments	-8.6639
▁example	-8.66524
▁en	-8.66609
▁cinema	-8.66647
▁often	-8.6669
qu	-8.66966
da	-8.6707
▁case	-8.67238
▁Li	-8.67561
▁budget	-8.67735
ble	-8.68032
▁wonder	-8.68208
▁playing	-8.68318
▁strong	-8.68449
▁entire	-8.68716
▁however	-8.68722
▁problem	-8.6874
▁itself	-8.68774
▁episode	-8.68907
io	-8.68969
▁Even	-8.69057
▁stand	-8.69464
▁Mr	-8.69585
do	-8.6976
▁drama	-8.69823
▁dark	-8.70249
▁style	-8.70315
▁Di	-8.70393
▁side	-8.7066
▁Mo	-8.70713
side	-8.70923
ical	-8.71012
▁terrible	-8.71407
fully	-8.71933
▁past	-8.72197
lin	-8.72234
j	-8.72375
▁early	-8.72414
▁next	-8.72751
▁experience	-8.72812
tro	-8.7284
lie	-8.72911
▁fa	-8.73022
▁lines	-8.73038
▁Ar	-8.73103
▁Da	-8.73592
▁Some	-8.73641
▁deal	-8.73694
by	-8.73744
gu	-8.73771
▁fight	-8.73868
▁ho	-8.739
▁late	-8.74035
und	-8.74061
but	-8.74298
▁direction	-8.7432
▁cut	-8.74354
▁worse	-8.74456
▁mother	-8.74458
▁couldn	-8.74633
▁game	-8.74638
ning	-8.74672
▁doing	-8.74677
ise	-8.74904
aw	-8.74927
▁final	-8.74946
ey	-8.75205
ten	-8.75249
▁feeling	-8.75283
▁review	-8.75387
▁dialogue	-8.75502
▁entertaining	-8.7552
!!	-8.7553
tor	-8.75608
▁amazing	-8.75667
▁Tr	-8.75685
▁gives	-8.75757
cu	-8.75902
ack	-8.76002
▁Well	-8.76105
▁hit	-8.76417
▁j	-8.76519
▁against	-8.76646
▁guess	-8.76717
use	-8.7676
▁stars	-8.7721
uc	-8.7731
light	-8.77417
▁beginning	-8.77432
▁Me	-8.77461
▁per	-8.77571
ped	-8.77792
▁dead	-8.77795
like	-8.77848
▁kid	-8.77897
▁killer	-8.78087
▁view	-8.78209
▁At	-8.78241
ker	-8.78356
▁becomes	-8.78512
▁absolutely	-8.78577
tra	-8.78591
con	-8.78682
▁waste	-8.7873
▁went	-8.78867
▁definitely	-8.79041
▁lost	-8.79212
par	-8.79334
▁fine	-8.79424
time	-8.79567
▁voice	-8.79571
▁gr	-8.79839
rr	-8.79869
▁children	-8.79947
▁lead	-8.80091
ide	-8.80182
ugh	-8.80421
If	-8.80449
▁stop	-8.80971
▁maybe	-8.81124
espite	-8.81226
ue	-8.81254
wi	-8.81269
▁seemed	-8.81773
▁ba	-8.81922
▁written	-8.81934
▁learn	-8.81952
▁War	-8.82434
▁already	-8.82883
▁favorite	-8.82887
▁fall	-8.82926
▁child	-8.83053
han	-8.83085
There	-8.83154
▁ask	-8.83192
▁viewer	-8.83364
▁hi	-8.83413
ug	-8.83629
os	-8.83922
▁wish	-8.83939
ney	-8.8394
▁wanted	-8.83956
▁His	-8.84075
▁sad	-8.84124
ip	-8.84606
ook	-8.84651
ex	-8.84835
led	-8.84859
ial	-8.85319
▁change	-8.85408
ley	-8.85428
▁type	-8.8554
J	-8.85559
rie	-8.85613
▁New	-8.85863
port	-8.85924
▁win	-8.85954
▁Sa	-8.86154
▁humor	-8.86282
ay	-8.86395
▁call	-8.86415
▁brilliant	-8.86503
▁question	-8.86503
▁several	-8.86503
▁inter	-8.8654
▁loved	-8.86621
▁Se	-8.86679
▁save	-8.86712
▁self	-8.86892
▁Ka	-8.87024
10	-8.87197
▁although	-8.87302
▁lives	-8.87369
▁totally	-8.87498
▁expect	-8.87608
▁liked	-8.87749
▁genre	-8.87874
▁walk	-8.87876
AN	-8.87895
▁Ra	-8.87896
lic	-8.88039
▁Dr	-8.88074
▁rent	-8.88125
wa	-8.88151
▁pa	-8.88191
*	-8.88243
▁relationship	-8.88462
my	-8.88559
▁Of	-8.88564
lan	-8.88807
▁Bu	-8.88993
▁matter	-8.89058
▁blood	-8.89256
▁evil	-8.89257
of	-8.8944
▁Har	-8.89509
▁Don	-8.89632
▁strange	-8.89672
▁fans	-8.8971
▁son	-8.89746
▁sub	-8.90012
uck	-8.90535
ai	-8.9069
den	-8.90695
▁Ne	-8.90717
our	-8.90736
▁brother	-8.91073
▁qu	-8.91151
▁quality	-8.9127
▁talk	-8.91272
▁mu	-8.91324
▁Po	-8.91331
nny	-8.91358
▁novel	-8.91481
▁hero	-8.91759
bu	-8.92053
▁writing	-8.92088
▁turns	-8.92129
▁fe	-8.92273
▁number	-8.92293
▁town	-8.92363
les	-8.92736
▁based	-8.92889
▁Jo	-8.93059
▁today	-8.93242
▁daughter	-8.93326
ping	-8.93406
▁tries	-8.93604
▁moment	-8.93628
▁certainly	-8.93782
ang	-8.9379
▁enjoyed	-8.93861
▁4	-8.93865
▁stuff	-8.93988
▁talent	-8.94147
▁break	-8.94421
▁starts	-8.94531
▁par	-8.94579
▁gave	-8.94793
▁history	-8.94797
▁th	-8.94998
bb	-8.95051
▁interest	-8.95081
!)	-8.95231
▁leave	-8.95914
RE	-8.96088
▁du	-8.96177
▁behind	-8.96491
▁stay	-8.96554
line	-8.96579
▁After	-8.96678
▁perhaps	-8.9692
▁themselves	-8.9692
▁la	-8.97055
▁others	-8.97062
ile	-8.97118
▁horrible	-8.97352
▁score	-8.97353
▁group	-8.97569
▁Y	-8.9762
low	-8.97792
▁ne	-8.98097
way	-8.98249
▁etc	-8.98287
ple	-8.9832
▁Th	-8.98483
▁chance	-8.98521
ition	-8.9859
▁decent	-8.98714
ga	-8.98753
▁deliver	-8.98877
▁level	-8.99097
pre	-8.99168
▁Gra	-8.99176
▁wants	-8.99239
▁How	-8.99258
▁able	-8.99262
▁pass	-8.99428
▁realize	-8.99678
▁twist	-8.99759
▁finally	-8.99804
What	-8.99826
▁ten	-9.00033
▁ago	-9.00147
▁deep	-9.00229
▁Michael	-9.00392
mm	-9.00405
▁stories	-9.00426
▁open	-9.00493
▁throughout	-9.00526
▁situation	-9.00649
▁dream	-9.00649
▁guys	-9.00784
▁hate	-9.00953
ier	-9.00984
▁took	-9.01031
▁called	-9.01132
▁With	-9.01175
▁Un	-9.01311
▁myself	-9.01322
▁Also	-9.0135
▁cop	-9.01547
▁obvious	-9.01617
▁girls	-9.01733
▁white	-9.01773
▁actress	-9.01836
▁bring	-9.01845
▁thinking	-9.0266
nch	-9.02845
19	-9.03127
▁hour	-9.0316
▁age	-9.032
▁pay	-9.03208
▁5	-9.03216
▁Du	-9.03257
AL	-9.03258
▁heard	-9.03348
▁pick	-9.03445
▁involved	-9.0359
▁simple	-9.03597
▁slow	-9.03718
▁fo	-9.03846
ator	-9.04051
▁eyes	-9.04272
▁comic	-9.04279
cre	-9.04289
▁Go	-9.04292
▁die	-9.04333
day	-9.0441
▁figure	-9.04522
▁cheap	-9.04523
▁order	-9.04728
▁works	-9.04804
▁present	-9.04815
▁happen	-9.04863
▁cannot	-9.04923
▁happened	-9.0493
▁soon	-9.05026
▁told	-9.05092
ize	-9.05097
▁effort	-9.05221
▁ridiculous	-9.05455
▁complete	-9.05543
ized	-9.05545
ities	-9.05843
▁20	-9.0609
air	-9.06166
pa	-9.06397
▁days	-9.06695
▁add	-9.06953
▁Sp	-9.07007
▁Wa	-9.07028
not	-9.07172
▁extremely	-9.07237
▁sit	-9.07278
ren	-9.07352
▁weak	-9.07358
que	-9.07751
▁result	-9.07828
▁form	-9.07995
▁parts	-9.08115
▁Cr	-9.0829
▁da	-9.08332
!<	-9.08544
ible	-9.08697
▁visual	-9.08793
▁crap	-9.08837
▁obviously	-9.08961
▁room	-9.09081
AR	-9.09154
▁directed	-9.09205
▁hear	-9.09261
ric	-9.09309
▁hilarious	-9.09767
▁highly	-9.09919
ON	-9.09979
▁Na	-9.1
▁musical	-9.10011
▁hold	-9.10018
▁Paul	-9.10028
hy	-9.10063
▁Then	-9.10138
▁non	-9.10202
▁husband	-9.10258
▁opinion	-9.10258
▁killed	-9.10268
▁allow	-9.10277
▁Robert	-9.10396
▁song	-9.104
▁Ri	-9.10408
▁roles	-9.10477
▁violence	-9.10504
▁ca	-9.10588
ade	-9.10727
▁female	-9.10751
▁career	-9.10772
▁alone	-9.11024
▁manage	-9.11488
▁yourself	-9.11496
▁writer	-9.11518
▁near	-9.11744
▁value	-9.11745
OR	-9.11806
▁sexual	-9.11884
▁class	-9.11932
▁sequel	-9.11995
▁similar	-9.11995
▁Or	-9.12032
▁comment	-9.12052
ki	-9.1209
▁gra	-9.12223
▁power	-9.12283
▁happens	-9.1229
ka	-9.12303
lock	-9.12326
▁plan	-9.12381
▁released	-9.12421
▁modern	-9.12497
ER	-9.12588
▁While	-9.12597
▁Con	-9.12689
▁Com	-9.12768
ham	-9.12905
▁adult	-9.13003
▁grow	-9.13006
▁annoying	-9.13137
▁personal	-9.13197
▁zombie	-9.13255
▁important	-9.13508
▁police	-9.13509
▁speak	-9.13511
ily	-9.13541
▁El	-9.13777
▁running	-9.13793
▁sequence	-9.13812
▁Gu	-9.14001
▁image	-9.14044
▁drive	-9.14046
▁mention	-9.14206
istic	-9.14271
▁explain	-9.14274
▁serious	-9.14405
▁cover	-9.14493
gh	-9.14553
....	-9.14749
▁include	-9.15045
die	-9.15064
gi	-9.15267
▁offer	-9.15517
▁clich	-9.15565
▁imp	-9.15573
▁em	-9.15577
az	-9.15637
gan	-9.15645
so	-9.15664
art	-9.15739
▁British	-9.15822
!"	-9.15894
▁Just	-9.159
rry	-9.16023
▁possible	-9.16083
▁Her	-9.16128
▁Pe	-9.16319
▁started	-9.16354
▁team	-9.16393
But	-9.16421
200	-9.16467
▁focus	-9.16606
▁body	-9.16665
▁shown	-9.1671
▁usual	-9.1675
▁attention	-9.16868
▁box	-9.16899
▁due	-9.16968
ov	-9.17147
▁wouldn	-9.17208
▁Why	-9.17239
ran	-9.17427
▁bar	-9.17442
▁looked	-9.17509
▁English	-9.17659
▁exactly	-9.1766
well	-9.17731
▁gun	-9.17807
▁pe	-9.17851
▁count	-9.17905
▁subject	-9.17925
▁local	-9.18191
▁thriller	-9.18262
▁dance	-9.1835
▁theater	-9.18391
▁hu	-9.18486
▁episodes	-9.18505
▁Sha	-9.18589
▁fast	-9.18656
▁knew	-9.18725
▁discover	-9.1873
ned	-9.18791
▁sw	-9.189
▁Sh	-9.18917
▁middle	-9.18993
▁gore	-9.19129
▁James	-9.19262
▁Mor	-9.19586
▁Su	-9.19589
▁particularly	-9.19664
▁Tom	-9.19671
▁free	-9.19878
▁doubt	-9.20075
▁disappointed	-9.20171
▁Cl	-9.20205
▁events	-9.20288
who	-9.20329
▁buy	-9.20353
▁future	-9.20355
▁God	-9.20522
▁saying	-9.20789
▁opening	-9.20816
▁na	-9.20985
▁single	-9.20994
ically	-9.2104
So	-9.2133
▁stage	-9.21354
▁across	-9.21439
right	-9.21447
▁surprise	-9.21475
▁four	-9.21599
▁remain	-9.21716
▁large	-9.2174
▁Ben	-9.21796
▁documentary	-9.21997
▁su	-9.22187
▁nu	-9.22241
▁season	-9.22293
len	-9.22503
▁villain	-9.22546
▁huge	-9.22585
▁romantic	-9.22824
▁honest	-9.22824
▁sent	-9.22858
▁clearly	-9.22913
▁miss	-9.23007
▁super	-9.2301
▁living	-9.23104
▁sometimes	-9.23112
pri	-9.2329
▁coming	-9.23366
au	-9.23457
▁trans	-9.23532
▁known	-9.23562
▁feature	-9.23628
▁taken	-9.23691
▁return	-9.23708
▁somewhat	-9.2373
cent	-9.23783
yn	-9.23882
▁detail	-9.23946
▁turned	-9.24037
▁cool	-9.24131
▁Vi	-9.24138
▁sister	-9.2423
▁taking	-9.24267
▁air	-9.24477
▁Oscar	-9.24512
kin	-9.24528
ord	-9.24556
▁Je	-9.24597
▁shots	-9.24844
▁pull	-9.2486
▁wait	-9.25046
▁se	-9.25135
▁week	-9.25188
▁prove	-9.25195
▁talking	-9.2565
▁cinematography	-9.25653
ute	-9.2572
?)	-9.25801
▁clear	-9.26426
▁difficult	-9.26517
▁predictable	-9.2654
ush	-9.2655
▁country	-9.26561
▁William	-9.26623
▁jokes	-9.26713
▁Lee	-9.26881
▁tale	-9.26883
▁songs	-9.26927
And	-9.27082
ok	-9.27132
own	-9.2731
lar	-9.27371
▁easily	-9.27389
ump	-9.27537
▁Lu	-9.27646
▁dialog	-9.27666
▁silly	-9.27683
▁reality	-9.27742
▁eye	-9.27827
▁nearly	-9.27837
▁fit	-9.27926
▁enjoyable	-9.2815
gar	-9.28315
▁usually	-9.28403
▁Cha	-9.28476
off	-9.28545
▁says	-9.28563
▁message	-9.28596
▁create	-9.28643
▁word	-9.28675
▁hours	-9.28711
nder	-9.28735
▁fantastic	-9.2886
▁happy	-9.28882
▁cause	-9.28904
▁realistic	-9.28932
pro	-9.28984
▁provide	-9.29157
▁meet	-9.29303
uch	-9.29322
▁straight	-9.29454
▁German	-9.29486
▁mess	-9.29551
▁respect	-9.2961
▁perform	-9.29734
▁odd	-9.2977
▁post	-9.30031
▁appears	-9.30242
▁truth	-9.30353
▁fi	-9.30394
▁fr	-9.30396
▁Che	-9.30399
ative	-9.30594
▁Now	-9.30622
▁decided	-9.30678
▁hell	-9.30683
▁Pro	-9.30769
▁emotion	-9.30785
▁admit	-9.30956
▁release	-9.31048
▁supporting	-9.31053
▁Peter	-9.31056
▁viewing	-9.31081
▁York	-9.31259
▁major	-9.31503
▁Jack	-9.31519
men	-9.31579
▁cap	-9.31636
head	-9.31744
ST	-9.31827
▁finish	-9.32174
▁scary	-9.32418
ek	-9.32451
ung	-9.32594
ette	-9.3261
▁Richard	-9.32631
which	-9.3267
▁critic	-9.32772
▁suspense	-9.32788
▁giving	-9.32788
▁above	-9.32795
▁Sam	-9.32839
")	-9.32842
▁def	-9.32911
▁fire	-9.32915
ew	-9.32916
▁emotional	-9.32962
work	-9.32987
▁Mc	-9.33042
cl	-9.33136
uff	-9.33193
ina	-9.33427
▁Bill	-9.33466
▁none	-9.33636
▁rock	-9.33722
▁finds	-9.33741
▁producer	-9.33779
▁except	-9.33864
▁toward	-9.33904
ze	-9.33907
▁words	-9.33958
mate	-9.33962
▁material	-9.34028
▁beyond	-9.34028
▁animation	-9.34029
▁crime	-9.3403
iff	-9.34094
cial	-9.34167
▁George	-9.34341
▁attack	-9.34346
▁among	-9.3438
▁David	-9.34514
▁Fi	-9.34562
▁victim	-9.34654
▁rating	-9.34732
▁spend	-9.34755
rate	-9.34797
▁typical	-9.34969
▁entertainment	-9.34999
▁King	-9.35015
vis	-9.35181
▁begins	-9.35183
▁Col	-9.35237
▁suffer	-9.35285
▁remind	-9.3529
iz	-9.35434
▁surprised	-9.35559
▁drug	-9.35602
▁check	-9.35603
My	-9.3613
▁including	-9.36198
▁cat	-9.36236
ties	-9.3626
▁7	-9.36261
▁Who	-9.36417
▁suggest	-9.36556
▁monster	-9.36557
▁color	-9.36599
▁certain	-9.36816
▁US	-9.37008
TH	-9.37056
▁actual	-9.37143
▁television	-9.37199
▁aspect	-9.372
▁problems	-9.37265
▁seriously	-9.37355
ane	-9.37442
▁nor	-9.37563
▁moving	-9.37589
▁begin	-9.37615
▁touch	-9.37664
▁setting	-9.37684
▁secret	-9.37845
▁agree	-9.37852
▁standard	-9.37899
▁appear	-9.37939
jo	-9.37995
▁mix	-9.38172
▁dog	-9.38199
▁tells	-9.38375
▁80	-9.38514
▁herself	-9.38822
▁previous	-9.38822
▁easy	-9.38823
▁upon	-9.39107
▁tried	-9.39167
lor	-9.39186
rated	-9.39248
▁exp	-9.39416
▁soundtrack	-9.39478
▁shame	-9.39484
▁whether	-9.39487
▁superb	-9.39619
▁Ta	-9.39651
▁On	-9.39678
▁romance	-9.39808
▁Dan	-9.39894
▁Chi	-9.40004
▁imagine	-9.4014
▁famous	-9.4014
▁camp	-9.40143
▁train	-9.40208
▁sets	-9.40332
▁storyline	-9.40341
▁please	-9.40401
▁killing	-9.40411
▁cartoon	-9.40472
▁Disney	-9.40473
▁magic	-9.40482
▁lose	-9.40526
▁list	-9.40538
▁showing	-9.40683
▁brought	-9.40806
▁contain	-9.40806
▁named	-9.40884
▁move	-9.41045
▁rate	-9.41068
▁particular	-9.41093
▁mostly	-9.41135
▁appeal	-9.4114
▁period	-9.4114
▁bunch	-9.4114
▁throw	-9.41257
▁bi	-9.41548
lum	-9.41735
za	-9.41765
▁treat	-9.41785
▁trouble	-9.41812
▁reveal	-9.41816
qui	-9.41818
ory	-9.41822
▁aren	-9.41836
▁editing	-9.4215
▁weird	-9.42157
▁match	-9.42204
▁forget	-9.42251
▁dull	-9.42335
IN	-9.4235
▁falls	-9.42387
?"	-9.42572
lon	-9.42867
nce	-9.42909
▁Bar	-9.42952
He	-9.42983
▁pace	-9.43142
▁Will	-9.4332
lay	-9.43642
▁working	-9.43671
ik	-9.43683
▁elements	-9.43726
ration	-9.43842
long	-9.43855
over	-9.43883
▁im	-9.44054
▁overall	-9.44091
▁atmosphere	-9.44201
▁potential	-9.44201
▁Am	-9.44203
▁Although	-9.44287
▁Wal	-9.4431
▁consider	-9.44332
ppy	-9.44386
ING	-9.45289
▁Te	-9.45396
▁lame	-9.45558
▁greatest	-9.4557
▁accept	-9.45592
▁footage	-9.45592
▁needs	-9.45885
▁Mon	-9.45951
▁battle	-9.45957
▁30	-9.45984
▁using	-9.46035
▁success	-9.46087
gue	-9.46153
ging	-9.46273
▁soldier	-9.46295
▁leads	-9.46544
▁background	-9.46649
▁mistake	-9.46649
▁front	-9.4665
ja	-9.46719
▁male	-9.46725
▁Can	-9.46889
▁Cor	-9.46981
▁Star	-9.47002
▁accent	-9.47008
▁capture	-9.47024
▁exception	-9.47096
▁gone	-9.47156
▁unique	-9.47359
▁parents	-9.47364
▁appreciate	-9.47444
▁anyway	-9.47492
▁America	-9.47669
▁sleep	-9.47716
▁choice	-9.47716
▁basically	-9.47746
▁8	-9.47751
▁continue	-9.47796
▁shoot	-9.47826
har	-9.47999
▁believable	-9.48075
▁project	-9.48075
▁became	-9.48075
▁comments	-9.48108
▁expected	-9.48175
▁issue	-9.482
▁suck	-9.48213
ah	-9.48385
▁French	-9.48435
▁five	-9.48462
▁within	-9.4859
▁write	-9.48623
ray	-9.4865
▁wear	-9.48653
even	-9.48662
▁Oh	-9.48762
▁dumb	-9.48799
▁effect	-9.48946
tual	-9.48957
▁minute	-9.49004
▁convincing	-9.49158
▁control	-9.49158
ES	-9.49239
▁pure	-9.49358
▁concept	-9.49523
▁screenplay	-9.49553
ev	-9.49647
ship	-9.49706
▁Unfortunately	-9.49746
this	-9.49835
read	-9.49888
▁kept	-9.49895
war	-9.50217
▁Japanese	-9.50253
▁street	-9.50254
▁masterpiece	-9.50254
▁business	-9.50258
▁ran	-9.50299
▁dramatic	-9.50364
▁means	-9.50364
▁avoid	-9.5042
To	-9.50531
▁poorly	-9.50559
look	-9.50579
▁development	-9.50658
ram	-9.50679
▁Joe	-9.50774
▁apparently	-9.50809
▁credit	-9.50907
▁sequences	-9.50918
▁Scott	-9.50989
▁design	-9.50989
▁taste	-9.50997
▁Ke	-9.50999
▁pr	-9.51
▁city	-9.51024
▁viewers	-9.5114
▁Maybe	-9.51191
▁Cu	-9.51308
▁k	-9.51311
▁public	-9.5136
▁society	-9.5136
▁Si	-9.51384
▁Gar	-9.51533
▁haven	-9.51724
ong	-9.5175
▁space	-9.51767
▁effective	-9.51788
▁notice	-9.51802
▁portray	-9.51991
▁mystery	-9.52107
▁jump	-9.52125
sure	-9.52179
af	-9.52221
EN	-9.52252
▁premise	-9.52479
ttle	-9.52485
play	-9.52496
wn	-9.52524
▁social	-9.52734
▁leaves	-9.52741
▁force	-9.5277
▁remake	-9.52856
▁Jane	-9.52904
00	-9.52924
emp	-9.52965
▁Mac	-9.53219
▁describe	-9.53232
▁political	-9.53232
An	-9.53249
▁nature	-9.53258
▁term	-9.5342
▁NOT	-9.53629
You	-9.53657
key	-9.53788
▁direct	-9.53908
One	-9.5393
▁normal	-9.54001
▁land	-9.54179
▁Ed	-9.54226
▁copy	-9.54303
▁earlier	-9.54373
▁average	-9.54377
▁yes	-9.54493
▁era	-9.54543
▁bother	-9.54627
▁Ros	-9.54702
▁cheesy	-9.54756
▁date	-9.54808
▁En	-9.55138
▁animal	-9.55145
▁catch	-9.55347
▁fear	-9.55358
LE	-9.55368
▁band	-9.55395
▁student	-9.55527
▁popular	-9.5553
▁trip	-9.55556
▁slasher	-9.55915
▁extra	-9.55984
All	-9.56299
▁escape	-9.56304
▁suit	-9.56339
When	-9.56433
▁somehow	-9.56442
▁joke	-9.56444
▁By	-9.56514
▁reviews	-9.56579
▁sign	-9.56699
▁rich	-9.56716
▁master	-9.56791
▁fair	-9.56896
▁plane	-9.57009
Overall	-9.57089
oon	-9.57112
▁opera	-9.57188
now	-9.5721
ace	-9.57313
▁successful	-9.57319
▁Ni	-9.57364
▁meaning	-9.57375
▁OK	-9.57377
▁Pre	-9.57558
ien	-9.57577
ept	-9.5771
▁sea	-9.57756
van	-9.57839
▁general	-9.57889
other	-9.57931
▁70	-9.58112
▁impressive	-9.58285
▁sat	-9.58406
▁mar	-9.58412
▁mad	-9.58432
▁cute	-9.5845
▁flat	-9.58501
▁*	-9.58654
get	-9.58761
▁stick	-9.58842
▁Van	-9.58856
▁spirit	-9.5907
▁occasion	-9.5907
▁concern	-9.59071
iness	-9.59179
▁hair	-9.59308
ino	-9.5931
▁memorable	-9.59472
▁costume	-9.59474
▁Wood	-9.59479
▁interested	-9.59491
▁state	-9.595
vin	-9.5958
▁9	-9.59598
mar	-9.59626
form	-9.59738
▁third	-9.59876
▁sweet	-9.59881
De	-9.59901
▁brain	-9.59924
▁gay	-9.59983
▁creepy	-9.60019
vol	-9.60192
▁step	-9.60288
▁shock	-9.60484
rough	-9.60544
atic	-9.60557
▁various	-9.60687
▁Most	-9.60808
▁perfectly	-9.60898
▁Frank	-9.61097
▁psycho	-9.61099
star	-9.61334
▁acted	-9.61374
with	-9.61485
fu	-9.61562
▁moral	-9.61929
nal	-9.6204
▁pl	-9.6215
▁grand	-9.62221
▁brings	-9.62252
▁meets	-9.62254
▁Movie	-9.62331
▁water	-9.62336
▁answer	-9.62338
▁forward	-9.62618
▁casting	-9.62658
▁Good	-9.62696
ana	-9.62732
▁reading	-9.62738
For	-9.6275
▁track	-9.62794
▁incredibly	-9.63161
▁positive	-9.63161
▁amount	-9.63161
▁hot	-9.63342
▁lover	-9.63441
▁painful	-9.63537
▁steal	-9.63586
▁hands	-9.63649
▁sick	-9.6371
▁features	-9.63831
▁First	-9.63915
car	-9.63955
▁decides	-9.63979
ified	-9.6399
row	-9.63999
▁IMDb	-9.64
▁further	-9.64
▁clever	-9.64001
▁needed	-9.6411
▁outside	-9.64121
wo	-9.64188
▁quickly	-9.64211
ju	-9.64223
Ha	-9.64377
▁Ann	-9.64388
▁warn	-9.64466
▁forced	-9.64684
rew	-9.64726
▁record	-9.64846
▁worked	-9.64886
▁indeed	-9.6489
▁deserve	-9.65016
▁laughs	-9.65046
▁90	-9.65232
▁adventure	-9.65271
▁approach	-9.65271
▁computer	-9.65271
▁fiction	-9.65271
▁wrote	-9.65271
▁roll	-9.65292
fa	-9.65437
▁cry	-9.65473
▁tear	-9.65486
▁portrayal	-9.65518
▁From	-9.65669
▁visit	-9.65701
▁Film	-9.65711
▁plain	-9.65728
▁Like	-9.65785
ix	-9.66107
field	-9.66158
round	-9.66171
▁expecting	-9.66172
▁Hu	-9.66236
▁writers	-9.66241
▁door	-9.66288
▁unlike	-9.66318
▁bored	-9.66458
▁possibly	-9.66558
▁nudity	-9.66559
▁Christmas	-9.6656
▁credits	-9.66657
▁total	-9.66748
▁ruin	-9.67
▁paint	-9.67081
▁leading	-9.67138
▁anti	-9.67175
▁fantasy	-9.67426
▁studio	-9.67426
▁claim	-9.67455
▁fu	-9.67628
▁Yes	-9.67779
▁player	-9.67822
▁eventually	-9.67863
▁familiar	-9.67985
▁meant	-9.68043
▁portrayed	-9.6818
▁older	-9.6829
▁beat	-9.68694
▁doctor	-9.68742
▁prison	-9.68749
▁girlfriend	-9.68761
▁lady	-9.68798
▁filmmakers	-9.68834
▁6	-9.68868
ax	-9.68939
▁crazy	-9.69185
▁fails	-9.69236
LY	-9.69309
▁missed	-9.69402
▁deserves	-9.6945
▁Other	-9.69634
▁purpose	-9.70075
▁Italian	-9.70077
▁circ	-9.70085
nne	-9.70085
▁skill	-9.7016
mark	-9.70205
wer	-9.70388
▁spent	-9.70469
▁dress	-9.70527
▁store	-9.70543
▁Mu	-9.70544
▁appearance	-9.70566
▁office	-9.70579
▁badly	-9.70579
▁mood	-9.70615
ization	-9.70625
▁mere	-9.70818
▁Sch	-9.70844
▁powerful	-9.70936
▁ghost	-9.70974
▁natural	-9.70974
Re	-9.70997
▁bur	-9.71064
▁eat	-9.71074
▁whom	-9.71093
▁porn	-9.71114
▁blow	-9.71129
▁missing	-9.71134
▁wall	-9.71154
lam	-9.7121
ez	-9.71356
▁location	-9.71427
▁exist	-9.71467
▁common	-9.715
lm	-9.71583
▁mental	-9.71751
how	-9.71811
▁fairly	-9.7187
▁slightly	-9.71882
▁trash	-9.71884
boo	-9.71898
hu	-9.71978
▁scare	-9.72033
▁unfortunately	-9.72038
▁directing	-9.72157
▁wasted	-9.72163
▁Here	-9.72204
▁Gi	-9.72253
▁talented	-9.72372
▁members	-9.72383
▁soul	-9.72436
board	-9.7248
▁spot	-9.725
where	-9.72803
▁Park	-9.72849
▁Bro	-9.7286
▁mass	-9.73094
▁support	-9.7311
movie	-9.73141
▁following	-9.73234
▁accident	-9.73257
▁achieve	-9.73257
▁plenty	-9.73258
▁culture	-9.7326
cur	-9.73371
▁draw	-9.73528
▁basic	-9.73693
▁married	-9.73721
▁Black	-9.73721
▁red	-9.73742
▁telling	-9.74009
▁rap	-9.74027
▁destroy	-9.74185
▁disc	-9.74203
oe	-9.74207
ED	-9.74407
▁sorry	-9.74578
▁kick	-9.74687
▁crew	-9.7474
top	-9.75053
▁World	-9.75122
▁struggle	-9.75122
▁amusing	-9.75124
Be	-9.75135
▁South	-9.75135
▁chase	-9.75246
part	-9.75269
▁mini	-9.75275
▁OF	-9.75294
ease	-9.75322
▁15	-9.75348
▁pop	-9.7554
▁tend	-9.75553
▁reach	-9.75564
▁search	-9.75594
place	-9.7566
▁Ga	-9.75808
▁Per	-9.75822
night	-9.75975
▁decide	-9.76053
▁subtle	-9.76074
▁impression	-9.76091
▁six	-9.76112
▁baby	-9.76113
dom	-9.76125
▁apart	-9.76131
▁Still	-9.76186
▁Indian	-9.76437
▁serve	-9.76551
▁Harry	-9.76695
▁moves	-9.76702
▁Dead	-9.76804
room	-9.76986
▁represent	-9.77023
▁desire	-9.77031
▁ball	-9.77032
▁bull	-9.77135
▁leg	-9.77182
▁pan	-9.7726
OW	-9.7736
▁fake	-9.77398
▁complex	-9.77503
▁criminal	-9.77503
▁wild	-9.77514
lly	-9.77614
▁fighting	-9.77778
hood	-9.77961
nie	-9.78005
▁sing	-9.78342
▁created	-9.78347
win	-9.78356
▁died	-9.78368
▁scream	-9.78472
▁Great	-9.78474
▁Instead	-9.78495
▁pain	-9.78576
We	-9.78826
cap	-9.78857
▁Watch	-9.7891
▁intelligent	-9.7896
▁tension	-9.78967
cut	-9.79006
▁artist	-9.79062
▁share	-9.79128
▁entirely	-9.79131
▁develop	-9.79246
▁compared	-9.79276
log	-9.79389
▁Love	-9.79447
▁brief	-9.7945
▁mid	-9.79493
izing	-9.79563
▁inside	-9.79725
▁manner	-9.79771
▁drag	-9.79869
▁bizarre	-9.79943
▁sci	-9.79949
▁whatever	-9.80033
▁cur	-9.80034
▁listen	-9.80126
▁rip	-9.80201
▁depth	-9.80439
wood	-9.8045
▁cost	-9.80525
▁charming	-9.80548
some	-9.80676
▁recently	-9.80818
▁charm	-9.80826
▁complain	-9.80935
▁language	-9.80935
▁travel	-9.80935
▁regard	-9.80937
▁Christian	-9.80958
▁laughing	-9.8101
▁Night	-9.81164
▁recent	-9.81286
▁former	-9.81325
▁biggest	-9.81435
▁pathetic	-9.81436
▁commit	-9.81437
▁tough	-9.81582
▁Mad	-9.81666
▁scar	-9.81931
▁college	-9.81938
Ch	-9.81997
▁pointless	-9.82398
▁caught	-9.82443
▁limit	-9.82443
▁solid	-9.82463
▁younger	-9.82464
▁ground	-9.82495
▁hyp	-9.82618
▁god	-9.82753
▁difference	-9.8295
▁glad	-9.82954
▁Ju	-9.83046
▁bus	-9.83074
No	-9.83136
La	-9.83344
▁genuine	-9.8346
▁involving	-9.83461
▁million	-9.83461
▁Angel	-9.83477
house	-9.83517
▁luck	-9.83536
making	-9.83592
▁continu	-9.83859
Do	-9.83932
▁chemistry	-9.83973
▁conclusion	-9.83973
▁beauty	-9.83974
▁test	-9.84134
most	-9.84183
▁mentioned	-9.8424
▁ability	-9.84298
▁50	-9.84427
▁waiting	-9.84559
▁exciting	-9.85007
▁ill	-9.85023
can	-9.8508
Not	-9.85233
▁shooting	-9.85372
▁technical	-9.85528
▁author	-9.85528
▁horse	-9.85529
▁hunt	-9.85574
▁Mary	-9.85686
Le	-9.85723
▁produced	-9.85841
▁proper	-9.85905
▁stunning	-9.86051
▁consist	-9.86064
▁mark	-9.86078
▁singing	-9.86218
▁send	-9.86284
▁Ki	-9.86347
▁entertain	-9.86446
hol	-9.8656
▁marriage	-9.86578
▁earth	-9.86578
▁Tim	-9.86682
sky	-9.86715
▁wide	-9.86849
cid	-9.86849
▁Ex	-9.869
Ho	-9.86956
▁leaving	-9.87107
▁otherwise	-9.87107
▁involve	-9.87125
▁disturbing	-9.87284
▁changed	-9.87468
till	-9.87594
▁impossible	-9.87639
▁revenge	-9.87639
▁awesome	-9.87639
▁folk	-9.87639
▁cult	-9.87644
▁barely	-9.87644
▁Lin	-9.87648
▁party	-9.87808
▁carry	-9.87893
▁rid	-9.88017
you	-9.88031
▁animated	-9.88174
▁longer	-9.88229
▁immediately	-9.88238
▁relate	-9.883
Some	-9.88431
ox	-9.88467
▁narrative	-9.88711
▁scientist	-9.88711
▁succeed	-9.88711
▁Smith	-9.88712
ball	-9.88762
▁genius	-9.89252
▁suspect	-9.89252
▁innocent	-9.89252
▁minor	-9.8926
▁adaptation	-9.89294
▁tradition	-9.89795
▁western	-9.89797
▁Martin	-9.8986
▁affect	-9.89915
▁Big	-9.90125
Don	-9.90135
phe	-9.90301
▁loose	-9.90343
▁loud	-9.90345
▁display	-9.90386
▁alien	-9.90421
▁Jim	-9.90654
Mar	-9.90721
▁build	-9.90832
▁filled	-9.90875
▁creature	-9.90891
▁mysterious	-9.90891
▁building	-9.9095
▁suddenly	-9.9104
void	-9.91208
▁key	-9.91335
▁considered	-9.91367
▁violent	-9.91443
▁convince	-9.91443
▁road	-9.9145
▁random	-9.91453
▁improv	-9.91475
writer	-9.91514
▁Nor	-9.9186
▁decade	-9.92006
▁insult	-9.92015
▁gag	-9.92022
▁ship	-9.92028
After	-9.92073
▁Chan	-9.92199
▁Pri	-9.92202
▁Mil	-9.92433
▁dig	-9.92434
▁company	-9.92558
▁trailer	-9.92558
▁intention	-9.92559
▁require	-9.92563
▁hoping	-9.92605
▁sitting	-9.92671
▁Hi	-9.92703
▁rare	-9.92824
itz	-9.92843
Co	-9.92902
▁temp	-9.93139
▁40	-9.93174
▁spoil	-9.93178
▁gang	-9.93219
***	-9.9334
▁exploit	-9.93384
▁plus	-9.93424
▁ski	-9.93673
▁idiot	-9.93685
▁science	-9.93709
▁pu	-9.93805
Well	-9.94053
▁climax	-9.94252
▁conflict	-9.94252
▁drunk	-9.94252
▁Charlie	-9.94253
▁excuse	-9.94253
▁cross	-9.94257
▁content	-9.94262
......	-9.94301
rang	-9.94424
▁element	-9.94469
ison	-9.94656
▁Boy	-9.94808
▁journey	-9.94824
▁neither	-9.94824
▁Paris	-9.94838
▁Ken	-9.94979
▁Allen	-9.95249
▁Mel	-9.95381
▁dancing	-9.95399
▁incredible	-9.95399
▁literally	-9.95399
▁managed	-9.95442
▁Ger	-9.95619
▁Perhaps	-9.95688
▁Best	-9.95762
▁warm	-9.9579
▁historical	-9.95987
▁High	-9.95991
▁witness	-9.96004
First	-9.96094
▁hang	-9.96115
that	-9.9623
▁pun	-9.96239
▁happening	-9.96329
▁absurd	-9.96558
▁desperate	-9.96558
▁program	-9.96558
▁London	-9.96558
▁failed	-9.96582
▁Jeff	-9.96599
▁House	-9.96643
▁somewhere	-9.9676
▁gem	-9.96783
▁utterly	-9.96848
▁lab	-9.96865
▁Director	-9.96925
▁enter	-9.97019
▁Every	-9.97111
▁system	-9.97143
▁unbelievable	-9.97143
▁vampire	-9.97143
▁clean	-9.97145
▁month	-9.97148
▁reference	-9.97156
Ma	-9.97221
**	-9.97233
CH	-9.97502
▁humour	-9.97731
▁fresh	-9.97733
▁weren	-9.97859
▁cinematic	-9.97865
▁rule	-9.97888
▁drop	-9.98083
▁ST	-9.98151
▁60	-9.98157
▁sell	-9.98177
Fi	-9.98248
▁100	-9.98287
▁terrific	-9.98323
▁smart	-9.98325
▁heavy	-9.98327
▁starring	-9.98438
▁push	-9.98455
▁sport	-9.98462
▁hide	-9.98475
▁pack	-9.98627
▁garbage	-9.98918
▁gorgeous	-9.98918
▁sight	-9.98918
▁fashion	-9.98918
▁silent	-9.98919
▁presence	-9.98923
▁cold	-9.99124
just	-9.99173
RA	-9.99189
▁drawn	-9.99214
On	-9.99317
▁Rob	-9.99393
▁Sure	-9.99452
▁suppose	-9.99603
▁trick	-9.99613
more	-9.99779
▁laughable	-9.998
Al	-10.0011
▁military	-10.0012
▁opportunity	-10.0012
▁survive	-10.0012
▁occur	-10.0012
▁Earth	-10.0012
▁interview	-10.0013
▁dad	-10.0022
▁equally	-10.003
▁teen	-10.0035
▁Ve	-10.0041
▁reaction	-10.0073
▁edge	-10.0079
back	-10.0098
▁noir	-10.0133
▁detective	-10.0134
▁creative	-10.0134
▁discuss	-10.0134
▁disappointment	-10.0135
▁addition	-10.0137
▁expression	-10.0139
▁added	-10.0177
▁Sho	-10.0177
▁Stewart	-10.0195
▁mouth	-10.0195
▁damn	-10.0195
▁clue	-10.0196
▁Chris	-10.0204
▁nowhere	-10.0212
ection	-10.0216
▁constantly	-10.022
ising	-10.0233
▁ride	-10.0239
▁presented	-10.0242
▁bought	-10.0257
▁terror	-10.0257
▁brutal	-10.0257
▁tragic	-10.0257
▁fail	-10.0275
OT	-10.0281
▁factor	-10.0305
▁burn	-10.0314
▁individual	-10.0319
▁serial	-10.0319
▁promise	-10.0319
▁join	-10.0319
▁graphic	-10.032
▁Adam	-10.032
▁race	-10.0326
▁arm	-10.0334
▁ultimately	-10.0341
▁Steve	-10.0343
illa	-10.0347
▁law	-10.0357
▁Day	-10.0361
▁rob	-10.0373
▁neighbor	-10.0381
▁bomb	-10.0382
▁chose	-10.0385
raw	-10.0402
VE	-10.0407
▁handle	-10.0423
▁Dick	-10.0428
than	-10.0434
▁depict	-10.0436
▁West	-10.0439
▁century	-10.0444
▁likable	-10.0444
▁relative	-10.0444
▁sum	-10.0454
berg	-10.0455
▁soft	-10.0461
▁laughed	-10.0468
▁officer	-10.0469
▁prop	-10.0474
▁sexy	-10.0502
▁physical	-10.0507
▁protagonist	-10.0507
▁Kelly	-10.0509
boy	-10.0517
▁makers	-10.0522
▁gold	-10.0538
▁Christ	-10.0551
▁scenery	-10.0562
▁encounter	-10.0571
▁imagination	-10.0571
▁outstanding	-10.0571
▁Tony	-10.0572
▁joy	-10.0572
▁Jones	-10.0573
▁cameo	-10.0575
UN	-10.0577
▁Yet	-10.0591
ability	-10.0595
▁generally	-10.0633
rrow	-10.0635
▁vision	-10.0635
▁essential	-10.0635
▁available	-10.0635
▁compelling	-10.0635
▁Rock	-10.0635
▁favourite	-10.0636
▁hurt	-10.0636
▁passion	-10.0659
▁pen	-10.0662
▁photography	-10.0672
▁thrown	-10.0679
▁developed	-10.0688
▁fault	-10.07
▁flashback	-10.07
▁Kill	-10.0752
▁attract	-10.0759
▁rape	-10.076
▁channel	-10.0765
▁prefer	-10.0765
▁expectations	-10.0765
▁raise	-10.0766
▁boyfriend	-10.0767
▁alive	-10.0775
▁thrill	-10.0778
▁motion	-10.0784
worth	-10.0793
▁stereotype	-10.083
▁double	-10.083
▁fellow	-10.0832
▁clothes	-10.0837
Oh	-10.0842
▁teenager	-10.0844
▁See	-10.0852
▁City	-10.0866
EL	-10.0875
AY	-10.088
▁touching	-10.089
▁remote	-10.0896
▁AND	-10.0896
▁frame	-10.09
▁disappointing	-10.0918
▁Pol	-10.0919
budget	-10.0924
year	-10.0927
under	-10.0959
▁Christopher	-10.0962
▁government	-10.0962
▁Bruce	-10.0962
▁affair	-10.0962
▁information	-10.0962
▁giant	-10.0963
▁formula	-10.0963
▁gangster	-10.0966
▁Only	-10.0974
▁seven	-10.0975
▁fill	-10.099
▁Ste	-10.0995
OO	-10.0997
▁slowly	-10.1006
▁okay	-10.1029
▁Where	-10.1029
▁torture	-10.103
miss	-10.1056
That	-10.1059
▁flow	-10.1064
blo	-10.1067
▁phone	-10.1069
▁Mill	-10.1079
dding	-10.1081
▁beautifully	-10.1094
▁accurate	-10.1096
▁negative	-10.1096
▁object	-10.1096
▁reflect	-10.1096
▁comedies	-10.1097
▁sadly	-10.1097
▁highlight	-10.1106
what	-10.1111
▁Ray	-10.1128
▁Part	-10.1131
life	-10.1136
▁teacher	-10.1141
▁Arthur	-10.1149
▁connect	-10.1155
▁disappear	-10.1163
▁segment	-10.1163
▁surround	-10.1163
▁smile	-10.1163
▁epic	-10.1164
▁impact	-10.117
▁mom	-10.1178
▁surprisingly	-10.1194
▁shocking	-10.1197
film	-10.1202
ular	-10.1203
good	-10.1205
▁considering	-10.1215
law	-10.1218
lip	-10.1224
▁fascinating	-10.1231
▁tragedy	-10.1231
▁machine	-10.1231
▁disgust	-10.1231
▁blame	-10.1233
▁fell	-10.1235
▁prof	-10.1237
▁angle	-10.1239
ridge	-10.1279
▁Another	-10.129
▁progress	-10.13
▁correct	-10.13
▁Sci	-10.1303
▁fool	-10.1314
▁professional	-10.1315
azz	-10.1323
▁Nick	-10.1324
▁shop	-10.1326
friend	-10.1328
▁confused	-10.1369
▁length	-10.1369
▁thoroughly	-10.1369
▁naked	-10.1369
ography	-10.1369
▁intense	-10.1369
▁nasty	-10.1369
▁safe	-10.137
▁Miss	-10.1372
▁mine	-10.1379
▁base	-10.1387
US	-10.1404
▁partner	-10.1404
▁Though	-10.1405
▁explanation	-10.1438
▁intelligence	-10.1438
▁current	-10.1438
▁Life	-10.1439
▁court	-10.1441
▁legend	-10.1442
▁attractive	-10.1444
stood	-10.1447
▁paid	-10.1457
lace	-10.1458
▁impressed	-10.1465
▁wise	-10.1466
down	-10.1477
▁appeared	-10.1507
▁behavior	-10.1508
▁Thank	-10.1508
grade	-10.1509
▁protect	-10.1513
OL	-10.1535
▁lesson	-10.1648
▁People	-10.165
▁process	-10.165
▁pleasant	-10.165
▁latter	-10.165
▁Green	-10.165
▁initial	-10.165
ET	-10.1651
▁seemingly	-10.1651
lash	-10.1652
though	-10.1663
ella	-10.1673
▁justice	-10.1674
▁Russian	-10.1721
▁symbol	-10.1721
▁Charles	-10.1721
▁Louis	-10.1722
▁broke	-10.1722
▁redeeming	-10.1747
▁photograph	-10.1752
▁extreme	-10.1755
▁vote	-10.1757
east	-10.1791
construct	-10.1793
▁research	-10.1793
▁inspired	-10.1793
▁flaws	-10.1793
▁center	-10.1795
▁Story	-10.1799
▁bright	-10.1808
▁Bob	-10.183
▁putting	-10.1831
▁filmmaker	-10.185
▁commercial	-10.1865
▁decision	-10.1865
▁experiment	-10.1865
▁hospital	-10.1865
▁industry	-10.1865
▁twice	-10.1865
▁knowledge	-10.1865
▁Blood	-10.1865
▁superior	-10.1865
▁loving	-10.1866
▁boss	-10.1868
▁apartment	-10.1873
▁demon	-10.1902
point	-10.191
▁Alan	-10.1915
▁Show	-10.192
Now	-10.1937
▁influence	-10.1938
▁funniest	-10.1938
▁martial	-10.1938
▁intended	-10.1938
▁combine	-10.1939
Please	-10.194
▁1950	-10.1941
Man	-10.1978
▁moved	-10.1979
screen	-10.1982
▁Ram	-10.1992
▁spoiler	-10.2004
▁member	-10.2005
▁recognize	-10.2012
▁Hitler	-10.2012
▁blind	-10.2012
▁model	-10.2012
▁forgotten	-10.2013
lick	-10.2016
▁held	-10.2017
▁chill	-10.2018
▁market	-10.2022
▁18	-10.2025
▁station	-10.2033
▁tape	-10.2037
▁introduced	-10.2046
style	-10.2067
▁bath	-10.2083
▁unusual	-10.2086
▁Roger	-10.2086
ombie	-10.2087
▁ya	-10.2102
▁artistic	-10.2104
▁sun	-10.2107
▁apparent	-10.2122
Of	-10.2123
▁thin	-10.213
While	-10.2131
▁craft	-10.2135
▁Anyway	-10.2135
▁convey	-10.2161
▁Nothing	-10.2161
▁leader	-10.2169
▁nobody	-10.2172
▁Fox	-10.2175
▁witch	-10.2176
▁punch	-10.2186
▁Ko	-10.2199
▁ignore	-10.2236
▁whatsoever	-10.2236
▁blue	-10.2236
▁Harris	-10.2239
Lo	-10.2243
bound	-10.225
teen	-10.225
▁hotel	-10.2251
▁Too	-10.2267
▁Steven	-10.2271
▁cla	-10.2276
▁Because	-10.2312
▁freak	-10.2312
▁Street	-10.2312
▁crash	-10.2312
▁Girl	-10.2312
▁Dark	-10.2312
▁Batman	-10.2312
▁bank	-10.2313
Before	-10.2314
▁hint	-10.2314
▁invest	-10.2316
UR	-10.2316
▁Two	-10.2324
▁quick	-10.2358
▁Kid	-10.2378
▁Chinese	-10.2388
▁guilt	-10.2388
▁quiet	-10.2388
▁childhood	-10.239
▁utter	-10.2427
face	-10.2429
▁repeated	-10.2437
▁rarely	-10.244
uous	-10.245
▁weapon	-10.2465
▁instance	-10.2465
???	-10.2467
▁logic	-10.2471
▁woods	-10.2471
mill	-10.2504
&	-10.2516
With	-10.2516
▁Eli	-10.2538
▁Taylor	-10.2542
▁pilot	-10.2542
▁belief	-10.2543
▁eight	-10.2544
▁Grant	-10.2545
▁aware	-10.2545
▁Morgan	-10.2546
▁Davis	-10.2546
▁assume	-10.255
▁holes	-10.2551
▁elect	-10.2561
▁began	-10.2567
▁pair	-10.2582
▁arrive	-10.2605
▁attitude	-10.262
▁central	-10.262
▁unexpected	-10.262
▁drink	-10.262
▁connection	-10.263
▁nation	-10.2634
▁personality	-10.2639
▁Mark	-10.2647
▁host	-10.2649
▁featur	-10.2662
Fran	-10.2681
▁1980	-10.2699
▁breath	-10.2699
▁CGI	-10.2699
▁tired	-10.27
▁desert	-10.27
▁rescue	-10.27
▁trust	-10.2701
▁flying	-10.2703
▁price	-10.2705
▁collection	-10.2705
▁Very	-10.2706
▁Brad	-10.2706
▁anymore	-10.271
▁Young	-10.2716
arian	-10.272
▁Robin	-10.2722
▁absolute	-10.274
▁Kar	-10.2758
▁Matt	-10.2765
▁teenage	-10.2766
▁afraid	-10.2779
▁wooden	-10.2779
Even	-10.2799
▁compare	-10.2807
▁fate	-10.2808
▁Jud	-10.2809
OK	-10.281
▁Jean	-10.282
▁delightful	-10.2859
▁Brian	-10.2859
▁flash	-10.2862
▁loss	-10.2862
▁hook	-10.2864
depend	-10.2865
▁dying	-10.2867
Finally	-10.287
Je	-10.2923
▁employ	-10.2939
▁energy	-10.2939
▁twenty	-10.2939
▁mild	-10.2939
▁speech	-10.2939
▁church	-10.2939
▁disaster	-10.2939
▁explore	-10.2941
▁everybody	-10.2943
▁wit	-10.2948
▁Jackson	-10.2949
▁Andrew	-10.2953
TER	-10.2992
▁product	-10.3012
▁Japan	-10.302
▁mediocre	-10.3021
▁perspective	-10.3021
▁suicide	-10.3021
▁England	-10.3021
▁tight	-10.3021
▁judge	-10.3021
▁chick	-10.3042
▁confusing	-10.3102
▁1970	-10.3102
▁kidnap	-10.3103
▁France	-10.3103
▁Prince	-10.3104
turn	-10.3105
▁commentary	-10.311
▁singer	-10.3126
▁Hill	-10.316
pol	-10.3165
ology	-10.3167
▁adapt	-10.318
▁Dur	-10.3185
▁engaging	-10.3185
▁birth	-10.3185
▁anybody	-10.3193
▁establish	-10.3198
▁theatre	-10.3199
▁11	-10.3224
▁Burt	-10.3238
break	-10.3251
How	-10.3258
John	-10.3264
ollywood	-10.3267
▁Douglas	-10.3268
▁Stephen	-10.3268
▁knock	-10.3268
▁satisfy	-10.3268
▁abandon	-10.3268
▁target	-10.3268
▁memory	-10.3269
▁Jason	-10.3269
▁Western	-10.3269
▁dollar	-10.3269
▁print	-10.3269
▁attend	-10.3271
Okay	-10.3272
▁friendship	-10.3273
▁surprising	-10.3314
▁bill	-10.3319
Jo	-10.3346
▁distract	-10.3352
▁window	-10.3353
▁Roy	-10.3354
▁Little	-10.3356
▁Danny	-10.336
ILL	-10.3361
▁paper	-10.3364
eau	-10.3369
▁stuck	-10.3375
▁tree	-10.3376
▁recall	-10.3403
▁path	-10.3421
▁express	-10.3429
▁Shakespeare	-10.3437
▁awkward	-10.3437
▁community	-10.3437
▁comparison	-10.3437
▁technique	-10.3437
▁regular	-10.3437
▁refuse	-10.3438
▁comedic	-10.3438
▁Both	-10.3439
▁dangerous	-10.3439
▁Kong	-10.3451
▁buff	-10.3454
▁finest	-10.3457
▁gotten	-10.3458
▁teach	-10.3479
body	-10.3484
▁army	-10.3495
▁actresses	-10.3499
Although	-10.3505
▁bottom	-10.3523
▁spectacular	-10.3523
▁melodrama	-10.3523
▁possess	-10.3523
▁VHS	-10.3523
made	-10.3523
▁becoming	-10.3524
▁forgive	-10.3527
▁curious	-10.3527
▁produce	-10.354
▁rise	-10.3548
Just	-10.3591
▁document	-10.3607
▁intriguing	-10.3609
▁unnecessary	-10.3609
▁regret	-10.3609
▁angry	-10.361
▁Santa	-10.361
▁born	-10.3611
▁Jerry	-10.3612
▁tune	-10.3614
▁thus	-10.3631
▁North	-10.3673
▁pretentious	-10.3696
▁psychological	-10.3696
▁Keaton	-10.3696
▁independent	-10.3696
▁crowd	-10.3696
▁unknown	-10.3701
▁winning	-10.3704
▁heroine	-10.3715
▁Out	-10.3728
▁humanity	-10.3736
▁challenge	-10.3784
▁necessary	-10.3784
▁strength	-10.3784
▁choose	-10.3784
▁hidden	-10.3784
▁broad	-10.3784
▁club	-10.3784
,000	-10.3784
▁dozen	-10.3784
▁flesh	-10.3784
▁load	-10.3785
▁movement	-10.3797
▁threaten	-10.3797
▁Lady	-10.3808
▁Julie	-10.3821
especially	-10.3857
▁predict	-10.3865
graph	-10.3868
▁contrast	-10.3872
▁Hank	-10.3873
▁earn	-10.3873
▁Time	-10.3876
▁robot	-10.3877
Anyone	-10.3878
▁abuse	-10.3888
spiring	-10.3912
away	-10.3943
▁range	-10.3956
▁THIS	-10.3961
▁appropriate	-10.3961
▁hundred	-10.3961
▁insight	-10.3961
▁religious	-10.3961
▁Australia	-10.3961
▁patient	-10.3961
▁shadow	-10.3961
▁practical	-10.3962
▁study	-10.3962
▁gross	-10.3962
▁stunt	-10.3963
▁root	-10.3963
Second	-10.3964
▁anywhere	-10.3977
TV	-10.3979
▁arch	-10.3983
▁Cho	-10.3988
▁Game	-10.4002
American	-10.4038
▁favor	-10.405
Why	-10.4051
▁account	-10.4051
▁creating	-10.4052
▁Gene	-10.4053
defin	-10.4061
nky	-10.4066
fight	-10.413
director	-10.4137
▁confront	-10.4142
▁routine	-10.4142
▁Horror	-10.4142
▁driving	-10.4142
▁Everything	-10.4142
▁charge	-10.4142
▁Daniel	-10.4143
▁kiss	-10.4144
eigh	-10.4144
▁transform	-10.4145
SPOILERS	-10.4148
▁food	-10.415
▁somebody	-10.4159
▁McC	-10.4161
cepti	-10.4207
▁depressing	-10.4234
▁Spanish	-10.4234
▁wound	-10.4234
▁guard	-10.4234
▁Albert	-10.4235
▁pleasure	-10.4235
▁Lord	-10.425
▁13	-10.4252
▁debut	-10.4273
▁charisma	-10.4327
▁corrupt	-10.4327
▁memories	-10.4327
▁device	-10.4327
▁Which	-10.4327
▁failure	-10.4327
▁comfort	-10.4327
▁Henry	-10.4327
▁expert	-10.4328
▁Clark	-10.4329
▁media	-10.4332
▁rush	-10.4337
▁crack	-10.4337
▁wedding	-10.4342
▁African	-10.4343
VERY	-10.435
▁Stone	-10.4357
q	-10.4407
▁Tarzan	-10.442
▁conversation	-10.442
▁rubbish	-10.442
▁structure	-10.442
▁praise	-10.442
▁incident	-10.442
▁nightmare	-10.442
▁ladies	-10.442
▁Jesus	-10.4421
▁Moore	-10.4421
▁speed	-10.4423
▁summer	-10.4423
weight	-10.4425
▁insane	-10.4433
▁Once	-10.4448
▁gain	-10.4462
▁12	-10.4496
father	-10.4505
hearted	-10.4509
▁manipulat	-10.4515
▁technology	-10.4515
▁remarkable	-10.4515
▁Lynch	-10.4515
▁White	-10.4515
▁stretch	-10.4515
▁condition	-10.4515
▁admire	-10.4515
▁stock	-10.4515
▁refer	-10.4515
▁Space	-10.4518
▁addict	-10.452
although	-10.4534
▁bigger	-10.4534
▁constant	-10.4571
▁fame	-10.4574
▁skip	-10.4587
However	-10.4604
▁civil	-10.461
▁embarrassing	-10.461
▁evidence	-10.461
▁thousand	-10.461
▁engage	-10.461
▁morning	-10.461
▁blonde	-10.461
50	-10.461
▁proceed	-10.461
horn	-10.4611
▁ugly	-10.4612
▁Everyone	-10.4615
▁Simon	-10.4618
▁tie	-10.4692
▁accomplish	-10.4706
▁lesbian	-10.4706
▁terribly	-10.4706
▁separate	-10.4706
▁junk	-10.4706
▁floor	-10.4706
▁pretend	-10.4706
▁Kevin	-10.4708
▁Nazi	-10.4709
▁wave	-10.4717
▁trade	-10.4733
▁rival	-10.4803
▁shallow	-10.4803
▁satire	-10.4803
▁Victoria	-10.4804
rust	-10.4831
▁grace	-10.4837
▁bland	-10.4845
▁skin	-10.4862
dimensional	-10.4872
▁chop	-10.4895
▁grab	-10.4896
▁Canadian	-10.4901
▁nonsense	-10.4901
▁surreal	-10.4901
▁virtual	-10.4901
▁village	-10.4901
▁context	-10.4901
▁empty	-10.4901
▁mask	-10.4905
▁Julia	-10.4906
▁Asian	-10.4934
illian	-10.4952
▁realise	-10.4971
▁environment	-10.5
▁gratuitous	-10.5
▁ordinary	-10.5
▁unfunny	-10.5
▁Freddy	-10.5
▁unfold	-10.5
▁Cinema	-10.5
▁Wayne	-10.5
▁crappy	-10.5
▁source	-10.5
▁subplot	-10.5001
▁opposite	-10.5002
▁witty	-10.5006
▁shape	-10.5009
▁European	-10.501
▁humorous	-10.5014
ONE	-10.5057
▁specific	-10.51
▁Washington	-10.51
unintentional	-10.51
conscious	-10.51
▁Gordon	-10.51
▁harsh	-10.51
▁pacing	-10.5101
▁quote	-10.5101
▁command	-10.5102
▁revolv	-10.5102
ological	-10.5103
▁underrated	-10.5109
ENT	-10.5118
▁Walter	-10.5125
▁spell	-10.5129
▁intellectual	-10.5201
▁responsible	-10.5201
▁magnificent	-10.5201
▁significant	-10.5201
▁wanna	-10.5201
▁colour	-10.5201
▁lawyer	-10.5201
▁green	-10.5202
▁gift	-10.5202
▁Pitt	-10.5204
▁peace	-10.5204
▁task	-10.5204
▁yell	-10.5206
▁majority	-10.5221
▁Jackie	-10.5223
▁repeat	-10.5239
▁faith	-10.5257
▁page	-10.5271
▁Those	-10.5303
▁gonna	-10.5303
▁therefore	-10.5303
▁Since	-10.5306
▁mile	-10.5309
▁angel	-10.5309
▁Luke	-10.5314
▁statement	-10.5316
▁naive	-10.5325
▁Eric	-10.5337
aunt	-10.5355
▁scr	-10.5356
▁Barr	-10.5364
▁collect	-10.5398
▁Jennifer	-10.5406
▁contrived	-10.5406
▁excited	-10.5406
▁generation	-10.5406
▁advance	-10.5406
▁welcome	-10.5406
▁slap	-10.5407
▁priest	-10.5407
▁YOU	-10.5407
▁demand	-10.5407
▁strip	-10.5407
▁boat	-10.5408
▁Roman	-10.5411
▁cheer	-10.5412
▁ancient	-10.551
▁degree	-10.551
▁mountain	-10.551
▁politics	-10.551
▁MGM	-10.551
class	-10.5512
▁clip	-10.5519
▁cash	-10.5528
▁proud	-10.5535
vision	-10.5537
▁sake	-10.5546
▁Vietnam	-10.5616
▁authentic	-10.5616
▁Francis	-10.5616
▁trilogy	-10.5616
▁dubbed	-10.5616
▁strike	-10.5616
▁switch	-10.5616
▁demonstrat	-10.5616
▁edited	-10.5616
▁prevent	-10.5616
▁educat	-10.5618
▁spoke	-10.5619
Also	-10.5621
▁treatment	-10.5631
voca	-10.5657
Greg	-10.5709
▁Academy	-10.5722
▁festival	-10.5722
▁radio	-10.5722
▁scenario	-10.5722
▁Nancy	-10.5722
▁dreadful	-10.5722
▁intrigue	-10.5722
▁bond	-10.5724
▁amateurish	-10.5726
▁sitcom	-10.5731
▁14	-10.574
▁text	-10.5745
▁pile	-10.5758
▁****	-10.5763
▁ultimate	-10.5791
▁explosion	-10.583
▁combination	-10.583
▁distinct	-10.583
▁families	-10.583
▁football	-10.583
▁horribly	-10.583
▁saving	-10.583
▁crude	-10.583
▁marry	-10.585
story	-10.5874
finitely	-10.5932
▁danger	-10.5936
▁Hitchcock	-10.5938
▁numerous	-10.5938
▁service	-10.5938
▁vehicle	-10.5938
▁Superman	-10.5938
▁corny	-10.5938
▁lousy	-10.5938
▁honor	-10.5939
▁Johnny	-10.5939
▁wrap	-10.5939
▁handsome	-10.5943
▁Edward	-10.5945
▁Alex	-10.5951
▁dislike	-10.5957
95	-10.5988
▁revolution	-10.6048
▁MOVIE	-10.6048
▁sympathetic	-10.6048
▁Anderson	-10.6049
▁brave	-10.6049
ville	-10.6049
▁existence	-10.6053
▁upset	-10.6066
▁unfortunate	-10.6121
▁photo	-10.6159
▁Cinderella	-10.6159
▁Festival	-10.6159
▁glimpse	-10.6159
▁irritating	-10.6159
▁Thomas	-10.6159
▁qualities	-10.6159
▁convict	-10.6159
▁bodies	-10.6159
▁parody	-10.6159
▁slave	-10.616
▁uncle	-10.616
▁awake	-10.6161
▁tele	-10.6162
▁stink	-10.6168
▁introduce	-10.622
jack	-10.6253
▁Murphy	-10.6272
▁offensive	-10.6272
▁theatrical	-10.6272
▁primar	-10.6272
▁reject	-10.6272
▁sharp	-10.6273
▁kung	-10.6275
▁Trek	-10.6279
From	-10.6281
▁Wild	-10.6284
▁depiction	-10.6286
Star	-10.6298
▁bore	-10.6307
▁annoy	-10.6325
▁creep	-10.6345
▁Lugosi	-10.6385
▁advice	-10.6385
▁built	-10.6385
▁foreign	-10.6385
▁scale	-10.6385
something	-10.6396
nvisible	-10.6423
Wow	-10.6442
▁amateur	-10.6497
Halloween	-10.65
▁Anthony	-10.65
▁Russell	-10.65
▁alcohol	-10.65
▁execution	-10.65
▁frequent	-10.65
▁Tracy	-10.65
▁balance	-10.65
▁border	-10.65
▁baseball	-10.6501
written	-10.6512
▁Europe	-10.6604
▁surf	-10.6616
▁THAT	-10.6616
▁unrealistic	-10.6616
▁executed	-10.6616
▁fabulous	-10.6616
▁motivation	-10.6616
▁narration	-10.6616
▁stomach	-10.6616
▁Wonder	-10.6617
▁cruel	-10.6617
▁Mitch	-10.6617
▁Mike	-10.6617
▁native	-10.6618
▁Ryan	-10.6618
▁worthwhile	-10.6619
▁select	-10.6622
▁finger	-10.6623
▁Music	-10.6632
▁Long	-10.6647
▁faithful	-10.667
▁semi	-10.6671
▁multi	-10.6733
▁Joseph	-10.6734
▁prior	-10.6735
▁invite	-10.6737
▁Brown	-10.6737
▁Jimmy	-10.6737
▁Irish	-10.6738
including	-10.6748
Chris	-10.675
▁whil	-10.6822
girl	-10.6849
▁associate	-10.6853
▁atrocious	-10.6853
▁evident	-10.6853
▁frankly	-10.6853
▁identity	-10.6853
▁religion	-10.6853
▁treasure	-10.6853
▁Pacino	-10.6853
▁tedious	-10.6854
▁Lewis	-10.6854
▁jerk	-10.6854
▁emerge	-10.6855
▁Sadly	-10.6855
▁Eddie	-10.6857
▁Emma	-10.6871
▁grew	-10.6873
existent	-10.6899
▁oppos	-10.6972
▁frightening	-10.6974
▁interpretation	-10.6974
▁unconvincing	-10.6974
▁1930	-10.6974
▁veteran	-10.6974
▁Nichol	-10.6974
▁vague	-10.6974
▁glass	-10.6974
▁forgettable	-10.6974
▁zero	-10.6974
▁wander	-10.6975
▁screw	-10.6975
▁multiple	-10.6975
▁Sky	-10.6976
▁outfit	-10.6977
▁solve	-10.6977
▁slip	-10.6982
*****	-10.6989
Three	-10.7
▁tea	-10.7005
▁contemporary	-10.7096
▁convention	-10.7096
▁asleep	-10.7096
▁nominated	-10.7096
▁erotic	-10.7096
▁spoof	-10.7096
▁Again	-10.7096
▁position	-10.7096
▁defeat	-10.7098
ographic	-10.7098
▁anime	-10.71
▁link	-10.7101
▁section	-10.7104
Michael	-10.7114
▁argument	-10.7219
▁excitement	-10.7219
▁inspiration	-10.7219
▁marvelous	-10.7219
▁promising	-10.7219
▁capital	-10.7219
▁comedian	-10.7219
▁destin	-10.722
▁Philip	-10.7221
▁Power	-10.7223
▁sword	-10.7224
▁expose	-10.7226
▁criticism	-10.7228
known	-10.7232
called	-10.7293
▁auto	-10.7325
▁international	-10.7344
▁obsessed	-10.7344
▁uninteresting	-10.7344
▁Sinatra	-10.7344
▁department	-10.7344
▁yeah	-10.7344
▁Seagal	-10.7344
▁contract	-10.7344
▁Evil	-10.7344
▁creator	-10.7344
▁cultural	-10.7344
▁Dream	-10.7344
▁false	-10.7344
▁surface	-10.7345
▁preview	-10.7347
ripped	-10.7415
title	-10.7448
IGHT	-10.7471
▁mirror	-10.7471
▁substance	-10.7471
▁1960	-10.7471
▁Bettie	-10.7471
▁stumble	-10.7471
▁Sunday	-10.7471
▁jail	-10.7471
▁heaven	-10.7472
▁blend	-10.7472
▁river	-10.7473
▁stalk	-10.7481
Watch	-10.7494
▁equal	-10.7561
▁benefit	-10.7599
▁category	-10.7599
▁consequence	-10.7599
▁Barbara	-10.7599
▁Chaplin	-10.7599
▁Jewish	-10.7599
▁subtitles	-10.7599
Meanwhile	-10.7599
▁forgot	-10.7602
view	-10.7607
while	-10.7621
Another	-10.7626
▁assassin	-10.7729
▁Saturday	-10.7729
▁Universal	-10.7729
▁obnoxious	-10.7729
▁refreshing	-10.7729
▁werewolf	-10.7729
▁jungle	-10.7729
▁Sidney	-10.7729
▁gather	-10.7729
▁ironic	-10.7729
▁arrest	-10.773
▁prime	-10.7735
Good	-10.7756
▁Broadway	-10.786
▁disbelief	-10.786
▁happiness	-10.786
▁storytelling	-10.786
▁Holmes	-10.786
▁gritty	-10.786
ification	-10.786
▁Patrick	-10.786
▁Rachel	-10.786
▁afternoon	-10.786
▁Year	-10.786
▁moron	-10.7861
Yeah	-10.7861
▁twin	-10.7864
▁harm	-10.7883
Arthur	-10.7889
stead	-10.7906
▁Africa	-10.7971
▁according	-10.7994
▁landscape	-10.7994
▁sympathy	-10.7994
▁loyal	-10.7994
▁height	-10.7994
▁Wilson	-10.7994
▁risk	-10.8001
▁merit	-10.8007
▁Luci	-10.8011
plot	-10.8028
▁President	-10.8129
▁gruesome	-10.8129
▁10/10	-10.8129
▁propaganda	-10.8129
▁reputation	-10.8129
▁struggling	-10.8129
▁Columbo	-10.8129
▁access	-10.8129
▁Hoffman	-10.8129
▁error	-10.8129
▁worry	-10.8129
▁lonely	-10.8129
▁corner	-10.8129
▁motive	-10.813
▁bird	-10.813
▁nine	-10.8135
▁Victor	-10.8264
▁California	-10.8266
▁LOVE	-10.8266
▁description	-10.8266
▁sensitive	-10.8266
▁trapped	-10.8266
▁Texas	-10.8266
▁Oliver	-10.8266
▁network	-10.8266
phrase	-10.8266
▁official	-10.8266
▁Child	-10.8266
▁contact	-10.8266
▁Donald	-10.8267
Spirit	-10.8277
tude	-10.84
ibility	-10.8405
▁jealous	-10.8405
▁mainstream	-10.8405
▁universe	-10.8405
▁dirty	-10.8405
▁excess	-10.8405
▁overcome	-10.8405
▁sudden	-10.8507
▁dinosaur	-10.8545
▁guarantee	-10.8545
▁introduction	-10.8545
▁ludicrous	-10.8545
▁resemble	-10.8545
Titanic	-10.8545
▁devil	-10.8546
umbling	-10.8546
▁Camp	-10.8547
▁Plus	-10.8549
world	-10.8584
except	-10.8584
drama	-10.86
impos	-10.8639
▁homosexual	-10.8688
Obviously	-10.8688
▁8/10	-10.8688
▁climb	-10.8688
▁divorce	-10.8688
▁encourage	-10.8688
▁hysterical	-10.8688
▁purchase	-10.8688
▁subsequent	-10.8688
▁terrifying	-10.8688
▁1990	-10.8688
▁Dawson	-10.8688
▁illustr	-10.8688
▁Bourne	-10.8688
▁essence	-10.8688
▁Devil	-10.8688
▁amazed	-10.8688
▁method	-10.8688
▁address	-10.8689
▁shark	-10.8689
▁strict	-10.8689
▁Count	-10.869
▁split	-10.869
▁betray	-10.8691
▁Phil	-10.87
▁Branagh	-10.8833
▁breathtaking	-10.8833
▁triumph	-10.8833
provoking	-10.8833
▁Michel	-10.8833
▁teeth	-10.8833
▁Brothers	-10.8833
▁borrow	-10.8833
▁damage	-10.8833
▁Cooper	-10.8833
▁spark	-10.8834
▁maintain	-10.8834
▁queen	-10.8835
▁vast	-10.8836
▁health	-10.8837
▁advise	-10.8837
▁sale	-10.8849
▁Captain	-10.898
▁Karloff	-10.898
▁imaginative	-10.898
▁overwhelm	-10.898
▁slapstick	-10.898
▁tremendous	-10.898
▁prince	-10.898
▁goofy	-10.898
▁timing	-10.898
▁About	-10.8981
▁pitch	-10.8981
▁minimal	-10.8981
▁guest	-10.8981
▁tongue	-10.8982
▁cringe	-10.8983
▁Susan	-10.8983
▁severe	-10.8998
▁India	-10.9016
Things	-10.9036
▁threat	-10.9107
hether	-10.9127
▁poignant	-10.913
▁stereotypical	-10.913
▁variety	-10.913
▁racist	-10.913
▁throat	-10.913
▁Claire	-10.913
▁uniform	-10.913
▁status	-10.913
▁behave	-10.913
▁basis	-10.9131
▁Blue	-10.9132
▁Hawk	-10.9139
▁arriv	-10.916
▁EVER	-10.9243
▁magazine	-10.9281
▁supernatural	-10.9281
▁communicat	-10.9281
▁pursue	-10.9281
▁inhabit	-10.9281
▁anticipat	-10.9281
▁buddy	-10.9281
▁dubbing	-10.9281
▁courage	-10.9281
▁chief	-10.9281
▁lazy	-10.9281
▁Brenda	-10.9281
▁ANY	-10.9281
▁Old	-10.9283
▁Denis	-10.9306
▁plea	-10.9354
▁Jessica	-10.9435
▁cannibal	-10.9435
▁ourselves	-10.9435
▁sinister	-10.9435
▁stylish	-10.9435
▁montage	-10.9435
▁beloved	-10.9435
▁concert	-10.9435
▁flawless	-10.9435
▁widow	-10.9435
nspector	-10.9435
▁Brando	-10.9435
▁changing	-10.9435
▁measure	-10.9435
▁swear	-10.9435
▁General	-10.9435
▁extent	-10.9436
Antonio	-10.9441
▁float	-10.9444
zzy	-10.9503
ologist	-10.9554
▁cloth	-10.9575
▁Lundgren	-10.9591
▁ensemble	-10.9591
▁private	-10.9591
▁sacrifice	-10.9591
▁confess	-10.9591
▁enormous	-10.9591
▁plastic	-10.9591
▁profound	-10.9591
▁disagree	-10.9591
▁irony	-10.9591
▁heavily	-10.9591
▁Davies	-10.9591
▁Nightmare	-10.9591
▁trauma	-10.9591
▁Picture	-10.9591
▁virus	-10.9591
▁blah	-10.9591
▁spiritual	-10.9591
▁cousin	-10.9591
▁smoke	-10.9591
▁Satan	-10.9593
▁lift	-10.9593
Anyway	-10.9645
appreciat	-10.9712
Sullivan	-10.975
▁franchise	-10.975
▁fulfill	-10.975
▁horrific	-10.975
▁Dennis	-10.975
▁detract	-10.975
▁splendid	-10.975
▁Virgin	-10.975
▁assistant	-10.975
▁sneak	-10.975
▁Secret	-10.975
▁thumb	-10.975
▁Friend	-10.975
▁funnier	-10.975
▁Phillip	-10.975
▁extend	-10.975
▁sink	-10.9754
craft	-10.9806
when	-10.9807
direct	-10.9809
Excellent	-10.9911
▁Especially	-10.9911
▁competent	-10.9911
▁dynamic	-10.9911
▁executive	-10.9911
▁extraordinary	-10.9911
▁journalist	-10.9911
▁principal	-10.9911
▁resolution	-10.9911
▁disguise	-10.9911
▁explicit	-10.9911
▁parallel	-10.9911
▁summary	-10.9911
▁Planet	-10.9911
▁plague	-10.9911
▁School	-10.9911
▁Friday	-10.9911
▁dentist	-10.9911
▁Blair	-10.9911
▁cabin	-10.9912
▁ensue	-10.9913
horror	-10.997
Absolute	-11.0075
▁Lloyd	-11.0075
▁Spielberg	-11.0075
▁blatant	-11.0075
▁practice	-11.0075
▁vivid	-11.0075
▁Matthau	-11.0075
▁thirty	-11.0075
▁breasts	-11.0075
▁Summer	-11.0075
▁enemy	-11.0075
▁guide	-11.0075
▁Wendy	-11.0076
▁Besides	-11.0076
▁Strange	-11.008
Consider	-11.0097
Director	-11.0137
Paul	-11.0139
▁impress	-11.0164
▁redeem	-11.0181
enthusiast	-11.0242
▁Fulci	-11.0242
▁complicated	-11.0242
▁corpse	-11.0242
▁knife	-11.0242
▁outrageous	-11.0242
▁redemption	-11.0242
▁security	-11.0242
▁sleazy	-11.0242
▁Curtis	-11.0242
▁Widmark	-11.0242
▁endearing	-11.0242
▁sketch	-11.0242
nuclear	-11.0242
▁liberal	-11.0242
▁ticket	-11.0242
Character	-11.0242
▁mechanic	-11.0242
▁snake	-11.0242
▁Uncle	-11.0242
▁cheese	-11.0242
Hamlet	-11.0242
▁gentle	-11.0243
Unfortunately	-11.0306
SPOILER	-11.04
▁reminiscen	-11.0411
▁servant	-11.0411
▁suspend	-11.0411
▁uncomfortable	-11.0411
▁Church	-11.0411
▁respond	-11.0411
▁tribute	-11.0411
▁credibility	-11.0411
▁crisis	-11.0411
▁Arnold	-11.0411
▁Greek	-11.0411
bidden	-11.0411
▁adopt	-11.0412
▁resort	-11.0412
▁Reeve	-11.0413
▁Brosnan	-11.0584
▁Mexican	-11.0584
▁compassion	-11.0584
▁horrendous	-11.0584
▁immense	-11.0584
▁installment	-11.0584
▁necessarily	-11.0584
▁portrait	-11.0584
▁pregnant	-11.0584
▁virgin	-11.0584
▁Felix	-11.0584
▁Family	-11.0584
▁smooth	-11.0584
▁enhance	-11.0584
▁Channel	-11.0584
▁credible	-11.0584
Spoiler	-11.0584
▁scheme	-11.0584
▁Brooks	-11.0584
▁Sarah	-11.0584
▁nomination	-11.0584
▁afford	-11.0584
▁eager	-11.0584
Personally	-11.0584
▁Lumet	-11.0584
▁ultra	-11.0584
▁creation	-11.0585
▁shift	-11.0586
▁Skip	-11.0618
wife	-11.0655
phone	-11.0661
▁Carpenter	-11.0759
▁Dolph	-11.0759
▁Rochester	-11.0759
▁advantage	-11.0759
▁aforementioned	-11.0759
▁atmospheric	-11.0759
▁obsession	-11.0759
▁Flynn	-11.0759
▁destruction	-11.0759
▁intensity	-11.0759
▁Korean	-11.0759
▁editor	-11.0759
▁digital	-11.076
▁disappoint	-11.0807
▁Griffith	-11.0938
▁Lincoln	-11.0938
▁astonishing	-11.0938
▁blockbuster	-11.0938
▁brilliance	-11.0938
▁caricature	-11.0938
▁gripping	-11.0938
▁innocence	-11.0938
Remember	-11.0938
▁Margaret	-11.0938
▁Canada	-11.0938
▁Ollie	-11.0938
▁dinner	-11.0938
▁wreck	-11.0938
▁Laura	-11.0938
▁portion	-11.0939
llusion	-11.0957
piece	-11.1015
▁fianc	-11.1051
▁disturb	-11.1058
▁response	-11.112
▁restaurant	-11.112
Brazil	-11.112
▁relentless	-11.112
▁turkey	-11.112
▁investigate	-11.112
clusive	-11.112
▁urban	-11.112
▁striking	-11.112
▁function	-11.112
▁whale	-11.112
▁chuckle	-11.112
▁sheriff	-11.112
▁Woman	-11.112
▁tiny	-11.112
▁steam	-11.112
▁firm	-11.112
struck	-11.1129
Steve	-11.1134
▁reviv	-11.1157
▁Mexico	-11.1305
▁Ralph	-11.1305
▁alternate	-11.1305
▁companion	-11.1305
▁confirm	-11.1305
▁confusion	-11.1305
▁identify	-11.1305
▁infamous	-11.1305
▁superficial	-11.1305
▁survivor	-11.1305
▁soccer	-11.1305
▁Gabriel	-11.1305
▁Stanley	-11.1305
▁reduced	-11.1305
▁Golden	-11.1305
▁fortune	-11.1305
▁drum	-11.1306
Robert	-11.1389
David	-11.1389
▁unpleasant	-11.1493
▁Kubrick	-11.1493
▁NEVER	-11.1493
▁accused	-11.1493
▁artificial	-11.1493
▁captivating	-11.1493
▁contribute	-11.1493
▁frustrating	-11.1493
▁pseudo	-11.1493
▁relevant	-11.1493
▁evoke	-11.1493
▁instantly	-11.1493
▁investigation	-11.1493
▁underground	-11.1493
*1/2	-11.1493
▁Alexander	-11.1493
▁Gandhi	-11.1493
▁Hudson	-11.1493
▁Sellers	-11.1494
▁Israel	-11.1494
▁nurse	-11.1494
Maybe	-11.1581
sexual	-11.1581
▁snap	-11.1622
▁Hamilton	-11.1686
▁backdrop	-11.1686
▁exercise	-11.1686
▁frustrated	-11.1686
▁inevitable	-11.1686
▁metaphor	-11.1686
▁president	-11.1686
▁slaughter	-11.1686
▁unwatchable	-11.1686
▁7/10	-11.1686
▁Matrix	-11.1686
▁lovable	-11.1686
▁racism	-11.1686
▁micro	-11.1686
▁Ghost	-11.1686
▁homage	-11.1686
▁absence	-11.1686
▁2001	-11.1686
▁BBC	-11.1686
▁Actor	-11.1686
▁drown	-11.1686
▁Kirk	-11.1686
▁habit	-11.1724
ogie	-11.1777
▁Manhattan	-11.1882
▁Stanwyck	-11.1882
▁Timothy	-11.1882
▁WWII	-11.1882
▁choreography	-11.1882
▁exchange	-11.1882
▁league	-11.1882
▁unbelievably	-11.1882
▁expensive	-11.1882
▁glorious	-11.1882
▁happily	-11.1882
▁participat	-11.1882
conceived	-11.1882
▁attached	-11.1882
▁casual	-11.1882
▁hippie	-11.1882
▁2006	-11.1882
▁blank	-11.1882
▁relax	-11.1882
Right	-11.1889
Writer	-11.1901
historic	-11.1909
Though	-11.1977
respect	-11.1977
script	-11.1983
OUT	-11.2013
▁Godzilla	-11.2082
▁Muslim	-11.2082
▁adequate	-11.2082
▁appalling	-11.2082
▁controversial	-11.2082
▁custom	-11.2082
▁increasingly	-11.2082
▁newspaper	-11.2082
▁recruit	-11.2082
▁sophisticated	-11.2082
Beautiful	-11.2082
▁scratch	-11.2082
▁Dixon	-11.2082
Honestly	-11.2082
▁suburb	-11.2082
Further	-11.2082
dragged	-11.2114
dropping	-11.2165
developed	-11.2181
▁Dorothy	-11.2286
▁automatic	-11.2286
▁implausible	-11.2286
▁importance	-11.2286
▁professor	-11.2286
▁puppet	-11.2286
▁territory	-11.2286
▁unforgettable	-11.2286
▁uninspired	-11.2286
▁GOOD	-11.2286
▁Muppet	-11.2286
▁fifteen	-11.2286
▁library	-11.2286
▁Soldier	-11.2286
▁population	-11.2286
▁Doctor	-11.2286
▁Vincent	-11.2286
▁ambition	-11.2286
▁cardboard	-11.2286
▁jewel	-11.2287
▁slice	-11.2294
Season	-11.2297
Perhaps	-11.2389
>	-11.2494
▁Carradine	-11.2494
▁Catholic	-11.2494
▁acclaim	-11.2494
▁elaborate	-11.2494
▁fundamental	-11.2494
▁illogical	-11.2494
▁publish	-11.2494
▁worried	-11.2494
▁believing	-11.2494
▁precious	-11.2494
▁stellar	-11.2494
▁arrange	-11.2495
Richard	-11.2602
▁Goldberg	-11.2707
▁Kurosawa	-11.2707
▁Rukh	-11.2707
▁celluloid	-11.2707
▁gimmick	-11.2707
