<unk>	0
<s>	0
</s>	0
s	-2.77831
▁	-2.85027
▁the	-3.50713
▁a	-3.54091
,	-3.63779
t	-3.87656
▁and	-3.9029
▁of	-4.00889
-	-4.16279
ing	-4.18878
ly	-4.22222
▁.	-4.25886
y	-4.31886
▁to	-4.32986
▁'	-4.39148
ed	-4.59461
e	-4.71089
▁in	-4.72885
▁is	-4.74345
▁it	-4.83112
▁tha	-4.84446
d	-5.04357
▁with	-5.22026
▁an	-5.32306
▁film	-5.35493
▁movie	-5.43291
▁be	-5.44605
▁for	-5.48126
▁as	-5.64061
▁its	-5.66299
▁thi	-5.66351
'	-5.66507
▁on	-5.69341
n	-5.85118
▁you	-5.86917
▁but	-5.89133
er	-5.8937
▁n	-5.96865
al	-5.99883
▁by	-6.0867
▁not	-6.10143
a	-6.12142
▁one	-6.13526
▁more	-6.14029
▁so	-6.15493
▁like	-6.18868
▁than	-6.21644
▁has	-6.24888
bout	-6.26129
es	-6.26518
▁his	-6.26566
le	-6.26726
m	-6.27214
▁from	-6.27216
▁`	-6.29634
▁all	-6.29805
▁no	-6.30829
▁un	-6.31112
r	-6.31632
▁are	-6.31973
o	-6.32363
▁or	-6.32828
able	-6.35206
▁character	-6.39489
have	-6.39493
ity	-6.40169
▁most	-6.418
▁who	-6.42761
ir	-6.44033
ce	-6.44276
▁-	-6.45425
on	-6.46208
▁good	-6.49022
ve	-6.49159
▁make	-6.49406
▁out	-6.50252
▁at	-6.51097
c	-6.51305
p	-6.53374
▁story	-6.56258
ness	-6.58286
▁c	-6.5859
▁i	-6.58764
▁some	-6.59477
▁whi	-6.60036
ch	-6.60573
▁too	-6.60582
..	-6.61057
▁into	-6.62345
▁up	-6.64013
▁any	-6.64682
▁time	-6.66747
ion	-6.68531
if	-6.68602
re	-6.68962
▁real	-6.70516
)	-6.73143
b	-6.74591
i	-6.74662
▁just	-6.76171
▁funny	-6.79917
▁comedy	-6.81659
(	-6.82475
▁even	-6.82555
▁what	-6.84283
▁your	-6.84838
▁see	-6.8549
▁well	-6.85547
▁will	-6.85839
▁can	-6.85948
▁performance	-6.86082
en	-6.86732
▁love	-6.88226
▁bad	-6.88958
▁man	-6.89123
out	-6.89172
▁way	-6.90162
▁do	-6.90195
▁much	-6.90253
l	-6.92054
▁doe	-6.92628
f	-6.92941
`	-6.93431
less	-6.93598
g	-6.94256
▁he	-6.94271
▁over	-6.94319
ic	-6.94808
▁en	-6.96234
in	-6.96338
▁little	-6.97851
▁work	-6.98259
▁every	-6.99091
ies	-6.99508
▁life	-7.0075
thing	-7.01545
▁feel	-7.02144
an	-7.03114
very	-7.03665
▁look	-7.04371
▁go	-7.04786
ation	-7.05426
▁watch	-7.06863
k	-7.07189
age	-7.07869
▁best	-7.09104
▁de	-7.11841
h	-7.12005
ough	-7.1322
▁been	-7.1327
ry	-7.13577
u	-7.14979
▁us	-7.15003
.	-7.1551
▁great	-7.15902
th	-7.17508
▁through	-7.17986
or	-7.18098
▁new	-7.19638
▁re	-7.19738
▁b	-7.19743
▁we	-7.20022
▁get	-7.213
ful	-7.21537
one	-7.22643
se	-7.22858
▁never	-7.23257
▁director	-7.23797
▁other	-7.24573
▁humor	-7.26075
▁seem	-7.26209
▁there	-7.26711
▁action	-7.26801
▁audience	-7.26892
▁was	-7.28137
▁something	-7.29427
ll	-7.30246
▁ra	-7.30731
▁heart	-7.31349
▁her	-7.31876
▁plot	-7.32339
w	-7.32658
way	-7.34966
▁take	-7.35361
▁how	-7.3578
self	-7.36179
▁cast	-7.36309
▁year	-7.36802
ous	-7.37802
▁would	-7.37969
▁made	-7.38106
ar	-7.38465
▁laugh	-7.386
▁come	-7.38758
▁own	-7.39554
▁drama	-7.41659
▁may	-7.41875
▁two	-7.42246
▁hard	-7.42602
▁down	-7.43513
▁sense	-7.43611
▁off	-7.4386
▁charm	-7.44646
▁wo	-7.44736
▁human	-7.45661
ra	-7.45853
ial	-7.45929
▁long	-7.45961
us	-7.46037
▁fun	-7.46123
ment	-7.46745
▁give	-7.48118
uch	-7.48808
▁self	-7.48955
ould	-7.49635
▁visual	-7.49807
▁worth	-7.50183
▁actor	-7.50403
▁better	-7.50917
ish	-7.53492
▁people	-7.53908
tic	-7.54074
▁when	-7.5536
▁far	-7.55374
ur	-7.55534
▁thing	-7.55682
est	-7.5586
▁g	-7.56033
▁first	-7.56035
time	-7.56086
▁ever	-7.57831
▁should	-7.58396
▁both	-7.58855
cause	-7.58984
▁entertaining	-7.60364
ther	-7.60724
▁moment	-7.61637
▁end	-7.61854
▁old	-7.62167
to	-7.62761
▁ca	-7.63347
▁script	-7.63487
▁still	-7.63493
▁often	-7.64149
▁world	-7.64802
il	-7.64882
▁acting	-7.64985
▁emotional	-7.65541
ue	-7.6602
other	-7.66473
▁picture	-7.66896
▁show	-7.67415
▁kind	-7.68243
▁being	-7.68418
▁beautiful	-7.68864
▁under	-7.69234
it	-7.69497
▁scene	-7.69754
▁lack	-7.69759
▁star	-7.70539
▁wh	-7.70553
▁big	-7.70612
:	-7.70648
ter	-7.71379
▁screen	-7.71695
lso	-7.71897
▁p	-7.72363
▁interesting	-7.72583
▁point	-7.74934
ally	-7.75011
ten	-7.7523
▁pre	-7.76675
▁idea	-7.76692
▁dialog	-7.76935
▁sweet	-7.77654
▁hollywood	-7.77762
▁them	-7.77763
at	-7.7791
▁full	-7.78049
▁my	-7.78137
v	-7.78457
is	-7.7868
▁keep	-7.79339
▁few	-7.79606
those	-7.80327
▁after	-7.80329
▁thriller	-7.81176
man	-7.8166
▁wors	-7.81867
▁original	-7.81915
minutes	-7.8332
▁find	-7.84127
▁him	-7.84146
▁me	-7.84262
ism	-7.84628
▁piece	-7.84643
▁enjoy	-7.84647
ro	-7.85143
▁back	-7.85823
▁deep	-7.86372
▁high	-7.87233
▁romantic	-7.87255
▁art	-7.87263
▁tale	-7.87318
▁might	-7.87517
▁know	-7.87774
▁compelling	-7.88055
▁turn	-7.88532
▁family	-7.88849
▁talent	-7.89797
▁bit	-7.90258
up	-7.90522
ie	-7.90559
▁care	-7.9117
▁ultimate	-7.91317
▁dis	-7.91323
▁want	-7.91374
▁ye	-7.91435
▁dull	-7.919
▁mater	-7.91923
▁clever	-7.9215
men	-7.92362
▁cinema	-7.92375
▁she	-7.93197
▁less	-7.93366
▁fascinat	-7.93838
ne	-7.93884
▁filmmaker	-7.93903
▁again	-7.9408
▁surprising	-7.94122
el	-7.94204
▁had	-7.94302
ant	-7.94373
▁need	-7.94414
the	-7.94474
▁mind	-7.94691
ri	-7.9498
▁ma	-7.95106
▁become	-7.95271
▁almo	-7.9529
ren	-7.96267
▁hour	-7.96344
▁lot	-7.96642
▁smart	-7.96761
▁mov	-7.97124
fore	-7.9753
x	-7.98001
▁young	-7.98733
▁documentary	-7.99084
▁perfect	-7.99275
▁our	-7.99659
▁think	-7.9972
▁energ	-7.99981
▁part	-8.00833
▁right	-8.01835
▁flick	-8.02448
▁were	-8.02497
▁american	-8.02775
▁con	-8.03214
quite	-8.0371
▁direction	-8.04406
▁h	-8.04737
▁experience	-8.04834
ers	-8.04841
of	-8.05187
▁music	-8.05315
▁w	-8.05494
tween	-8.05563
ent	-8.05669
▁subject	-8.05883
ate	-8.0596
▁dark	-8.06528
▁half	-8.06912
▁comic	-8.07767
▁place	-8.08136
/	-8.08476
▁light	-8.08799
▁fail	-8.09142
ring	-8.09545
▁set	-8.09597
▁here	-8.10505
ol	-8.10576
▁low	-8.10988
▁rich	-8.1115
▁mak	-8.1126
▁war	-8.11587
▁deliver	-8.11816
▁theater	-8.11848
ng	-8.12339
fi	-8.12362
iz	-8.12673
ling	-8.12904
▁live	-8.13053
▁sad	-8.13193
;	-8.13527
▁fresh	-8.13528
▁offer	-8.13853
▁style	-8.14151
▁leave	-8.14369
▁k	-8.14437
▁spirit	-8.14476
▁child	-8.14638
ian	-8.15694
▁memor	-8.16671
0	-8.17036
▁day	-8.17199
▁direct	-8.17558
▁special	-8.17635
▁where	-8.18209
▁fan	-8.18232
▁leas	-8.18298
▁feature	-8.1876
ive	-8.19412
▁warm	-8.19423
▁rare	-8.1991
ul	-8.20383
▁fine	-8.20453
▁strong	-8.2069
▁kids	-8.2076
▁interest	-8.21063
▁cinematic	-8.21132
day	-8.21169
▁run	-8.21912
z	-8.21939
▁manage	-8.21944
▁genre	-8.22182
▁short	-8.22184
▁viewer	-8.22215
▁play	-8.22371
▁simpl	-8.2249
▁act	-8.22869
▁power	-8.22872
▁cliché	-8.22938
▁near	-8.22985
▁works	-8.23494
and	-8.23818
▁face	-8.23849
▁entertainment	-8.24102
▁sta	-8.24349
musing	-8.24479
▁actual	-8.24911
▁histor	-8.25149
▁pro	-8.25546
▁summer	-8.25633
▁remarkabl	-8.25634
▁powerful	-8.25707
▁though	-8.25742
▁suspense	-8.26021
▁eye	-8.26163
▁car	-8.26351
ver	-8.26478
ious	-8.26516
▁co	-8.26609
ated	-8.27079
▁engaging	-8.2736
▁honest	-8.27998
▁solid	-8.28052
▁cliche	-8.28071
ard	-8.28074
▁ha	-8.28353
▁quirk	-8.28799
▁intelligent	-8.28837
▁wonderful	-8.29246
la	-8.29357
▁al	-8.29568
ge	-8.2969
▁m	-8.29728
ine	-8.29737
▁intelligen	-8.29974
▁twist	-8.30062
▁together	-8.30182
▁put	-8.30459
▁same	-8.30839
▁video	-8.30975
▁complete	-8.31245
id	-8.31799
▁three	-8.32071
off	-8.32315
▁sex	-8.32498
▁effect	-8.32568
▁f	-8.32627
▁ho	-8.32794
▁narrative	-8.3291
▁serious	-8.32959
▁say	-8.33036
ance	-8.33235
▁bo	-8.33389
▁head	-8.33629
▁dramatic	-8.34317
ither	-8.34393
istic	-8.34832
around	-8.35025
▁flat	-8.35316
cy	-8.35354
▁screenplay	-8.35464
ma	-8.35565
ble	-8.35819
▁predictabl	-8.36031
▁did	-8.36132
▁di	-8.36275
▁classic	-8.36409
▁effort	-8.36653
▁lead	-8.36755
▁last	-8.37269
be	-8.38203
▁level	-8.38515
son	-8.38605
▁enjoyabl	-8.38926
▁final	-8.38958
▁tell	-8.38968
▁image	-8.38986
▁prett	-8.39483
▁bring	-8.39618
▁odd	-8.39852
▁whole	-8.39874
▁filmmak	-8.40261
▁small	-8.40302
▁pleasure	-8.40591
▁satisfying	-8.40819
ily	-8.4156
me	-8.41893
▁attempt	-8.42123
▁romance	-8.42147
▁true	-8.42486
▁dumb	-8.43047
▁fair	-8.43078
▁past	-8.43139
▁tru	-8.43224
om	-8.43304
▁silly	-8.43524
ical	-8.43658
em	-8.44162
low	-8.44258
▁title	-8.44504
ist	-8.44541
▁opera	-8.44948
co	-8.4519
▁stuff	-8.45397
▁feeling	-8.45424
ary	-8.4545
▁call	-8.4567
▁1	-8.45751
▁wit	-8.45848
pe	-8.4614
▁br	-8.46167
▁sound	-8.46485
mise	-8.46614
hing	-8.46692
▁horror	-8.4683
▁hilarious	-8.4683
minute	-8.46875
▁fall	-8.46893
▁shot	-8.4694
▁sure	-8.47189
▁jo	-8.47198
▁create	-8.47416
▁nice	-8.47559
▁genuine	-8.48286
▁tone	-8.48325
▁done	-8.48528
▁modern	-8.49269
▁grand	-8.49269
▁hand	-8.4963
▁view	-8.4966
▁portrait	-8.49764
easy	-8.49773
▁start	-8.49793
▁prove	-8.49817
▁mean	-8.49905
▁waste	-8.50281
ner	-8.50439
▁moral	-8.50527
ck	-8.50605
▁ex	-8.50651
ud	-8.50704
▁project	-8.50762
▁surprise	-8.50762
long	-8.51087
▁melodrama	-8.51264
▁dead	-8.51285
▁certain	-8.51769
▁per	-8.52008
▁trying	-8.52127
▁flaw	-8.52305
ure	-8.52462
▁seri	-8.52575
▁slow	-8.52686
ac	-8.52909
lin	-8.52951
▁stud	-8.53109
▁sequel	-8.53696
▁painful	-8.53848
▁mess	-8.54091
▁problem	-8.54333
▁strange	-8.54333
stead	-8.54335
▁since	-8.54545
ot	-8.54611
▁artist	-8.54701
▁treat	-8.54856
▁culture	-8.5539
▁wild	-8.554
ory	-8.55448
▁matter	-8.5592
▁let	-8.56277
2	-8.56464
▁writer	-8.56837
▁pop	-8.56872
▁entire	-8.56965
1	-8.57033
▁adventure	-8.57076
▁use	-8.57256
ile	-8.57297
▁los	-8.57323
▁obvious	-8.575
▁particular	-8.575
tion	-8.57688
▁cheap	-8.58037
▁line	-8.58073
mo	-8.584
▁familiar	-8.5843
for	-8.5844
▁sequence	-8.58578
▁po	-8.5875
▁j	-8.58823
special	-8.58896
▁formula	-8.59122
▁sea	-8.59126
▁delightful	-8.59178
▁dream	-8.59218
▁hero	-8.59341
▁clear	-8.59523
▁fantas	-8.60161
probabl	-8.60189
▁happen	-8.60808
▁side	-8.60909
old	-8.61066
▁situation	-8.61326
▁usual	-8.6133
▁touching	-8.61375
▁coming	-8.61987
▁bor	-8.62034
▁super	-8.62209
▁hold	-8.62254
▁adult	-8.62447
▁understand	-8.62462
all	-8.62571
ab	-8.62682
▁second	-8.62706
▁bar	-8.63374
▁19	-8.63435
funny	-8.635
▁exercise	-8.63579
▁ver	-8.63646
▁subtle	-8.63796
▁imaginati	-8.63997
▁must	-8.64234
▁tv	-8.6443
gg	-8.64448
▁middle	-8.64726
▁storytell	-8.64762
▁help	-8.64771
▁gorgeous	-8.65303
▁hit	-8.65386
▁slap	-8.65515
line	-8.65532
▁stor	-8.65754
▁remain	-8.66469
iness	-8.66509
▁bland	-8.66515
ever	-8.66819
▁sentimental	-8.66867
▁hav	-8.67017
▁intrigu	-8.67038
each	-8.673
▁black	-8.67664
▁stand	-8.67937
▁goe	-8.68088
▁already	-8.68245
▁detail	-8.68256
▁rock	-8.68274
▁force	-8.68293
▁soul	-8.6909
rate	-8.69154
▁sub	-8.69274
▁expect	-8.69358
▁easi	-8.69447
▁pl	-8.69636
▁role	-8.69661
▁cold	-8.70216
▁grow	-8.70372
▁message	-8.70762
▁writ	-8.70991
▁reason	-8.71079
▁add	-8.71126
▁recent	-8.71349
▁li	-8.71349
▁brilliant	-8.71543
▁deserve	-8.71605
etic	-8.71624
▁believ	-8.71668
▁terrific	-8.71923
▁thoughtful	-8.71968
▁slight	-8.72046
ice	-8.72048
un	-8.72201
▁sp	-8.72247
▁ro	-8.7225
um	-8.7247
▁myster	-8.72522
▁thought	-8.72715
sive	-8.72717
espite	-8.72881
▁simple	-8.73032
▁girl	-8.73331
▁french	-8.73768
▁camera	-8.73786
▁nor	-8.73933
▁present	-8.74268
▁gri	-8.74577
▁edit	-8.74689
▁gentle	-8.75047
▁weird	-8.75687
▁complex	-8.75857
▁concept	-8.76088
▁du	-8.76127
▁fill	-8.76332
▁woman	-8.76476
▁inter	-8.76681
▁crime	-8.76784
▁cha	-8.76905
▁left	-8.76974
▁reveal	-8.76975
▁word	-8.76978
▁historical	-8.77011
▁ne	-8.77023
▁open	-8.77028
wise	-8.77081
do	-8.77184
sh	-8.77455
▁joy	-8.77471
▁insight	-8.77552
▁straight	-8.77626
▁else	-8.77644
▁game	-8.77777
▁seat	-8.78077
▁comedi	-8.78153
▁possibl	-8.78288
▁death	-8.78306
▁impossibl	-8.78597
▁ending	-8.78693
▁quiet	-8.78948
▁stupid	-8.7895
▁guy	-8.78951
▁beaut	-8.78951
▁men	-8.79144
▁utter	-8.79601
▁mood	-8.79879
▁wonder	-8.80235
▁inside	-8.80254
▁beyond	-8.80285
▁traged	-8.80288
▁ride	-8.80338
lly	-8.80604
hop	-8.80827
▁wal	-8.80866
▁10	-8.80974
▁miss	-8.81147
ia	-8.81157
▁extreme	-8.8164
▁relationship	-8.8164
▁above	-8.81641
▁impressive	-8.82006
▁form	-8.82027
▁da	-8.82076
▁jokes	-8.82292
▁amount	-8.82325
mon	-8.82361
▁passion	-8.82402
▁emotion	-8.82524
cent	-8.82647
▁mr	-8.82772
▁late	-8.8284
▁contriv	-8.82991
ton	-8.83043
▁ugly	-8.83051
▁qualit	-8.83222
▁execut	-8.83421
▁credit	-8.83635
▁favor	-8.83709
▁change	-8.83769
▁drag	-8.83826
▁dog	-8.83861
▁main	-8.83944
end	-8.84043
▁refreshing	-8.8406
▁tir	-8.84362
▁welcome	-8.84409
▁allow	-8.84475
▁mi	-8.84496
▁gener	-8.84765
▁v	-8.84829
▁none	-8.84871
▁tear	-8.8515
▁believe	-8.85369
ior	-8.85502
rous	-8.85545
▁teen	-8.85648
fashioned	-8.85775
▁delight	-8.85788
▁excellen	-8.85822
▁jack	-8.8584
ating	-8.85905
▁large	-8.86362
▁capture	-8.86419
▁personal	-8.86491
▁social	-8.86538
▁soap	-8.86541
fer	-8.86546
▁huge	-8.86548
▁home	-8.8656
once	-8.8676
itting	-8.86955
▁mark	-8.87113
▁four	-8.87256
▁suffer	-8.87257
▁awful	-8.87266
ho	-8.87503
▁book	-8.87747
go	-8.87791
▁debut	-8.8798
▁different	-8.8798
▁thorough	-8.8798
▁found	-8.87984
▁earnest	-8.87996
▁fast	-8.88112
▁va	-8.88172
▁psychological	-8.88234
▁sha	-8.8844
▁element	-8.88711
▁cop	-8.89008
▁com	-8.89117
▁pr	-8.89165
▁water	-8.89206
▁oscar	-8.89446
▁magic	-8.89453
▁pull	-8.89472
▁cool	-8.89527
ize	-8.89556
▁boy	-8.8956
▁pac	-8.89669
▁thrill	-8.89905
▁quick	-8.90187
▁question	-8.90217
▁promise	-8.90228
▁gag	-8.90271
pping	-8.90288
year	-8.90417
ael	-8.90701
▁political	-8.9072
▁success	-8.90859
▁unique	-8.90933
▁version	-8.90944
▁animation	-8.90947
▁mo	-8.90954
▁sort	-8.9097
screen	-8.91154
▁theme	-8.91251
▁writing	-8.91346
▁mix	-8.91448
▁sit	-8.91559
▁recommend	-8.91685
led	-8.91692
▁violen	-8.91866
gent	-8.91947
▁bare	-8.92092
▁mar	-8.92312
com	-8.92338
▁kid	-8.92376
▁vision	-8.92461
▁parent	-8.92469
▁close	-8.92786
▁taste	-8.93318
▁inventive	-8.9356
▁touch	-8.93569
▁count	-8.93694
ane	-8.9396
rong	-8.94059
rap	-8.94071
msel	-8.94251
▁fe	-8.94416
▁sharp	-8.94751
▁vivid	-8.94756
▁pa	-8.94937
oo	-8.95086
▁break	-8.95206
loud	-8.95219
ey	-8.95241
▁appealing	-8.95268
▁engross	-8.95531
▁actress	-8.95532
▁tedious	-8.95534
▁now	-8.95669
▁ta	-8.95802
▁pay	-8.96083
▁fact	-8.96256
▁equal	-8.96319
▁imagine	-8.96319
▁purpose	-8.96319
▁name	-8.96378
▁la	-8.96394
▁red	-8.96424
▁natural	-8.9643
▁ja	-8.96577
ung	-8.96835
▁thin	-8.96898
▁runn	-8.9699
▁grace	-8.97038
gi	-8.9704
▁cent	-8.97094
é	-8.97112
▁sustain	-8.97112
▁damn	-8.97113
ise	-8.97325
▁pass	-8.97402
▁fight	-8.9742
▁inspir	-8.97517
mer	-8.97627
▁provide	-8.97651
▁ru	-8.97731
abilit	-8.97732
▁master	-8.97849
▁sensitiv	-8.97901
▁brain	-8.97913
▁wait	-8.97959
▁appeal	-8.97998
▁pe	-8.98235
▁pretentio	-8.98585
director	-8.98598
▁examin	-8.98698
hearted	-8.98719
friend	-8.98758
▁brit	-8.98796
▁creative	-8.98875
▁manner	-8.98897
j	-8.99058
▁creepy	-8.99078
right	-8.99335
▁ambitious	-8.99532
ball	-8.99589
▁pure	-8.99709
▁step	-9.00004
▁dur	-9.00198
▁unexpected	-9.00351
ide	-9.00579
▁na	-9.00594
▁top	-9.00602
▁important	-9.00832
▁winning	-9.00991
▁ben	-9.0111
conscious	-9.01178
▁john	-9.01184
▁decent	-9.01277
▁sc	-9.01346
▁bla	-9.01976
▁delicate	-9.02011
▁occasional	-9.02011
budget	-9.02011
▁respect	-9.02011
next	-9.02011
beat	-9.02141
▁cap	-9.0247
fel	-9.02581
▁unsettl	-9.02851
▁deal	-9.02863
movie	-9.02988
ph	-9.03306
▁terribl	-9.03598
▁walk	-9.03662
▁blood	-9.04049
ral	-9.04534
▁major	-9.04568
▁ga	-9.04697
▁career	-9.04733
▁general	-9.04778
ves	-9.04827
▁2	-9.05301
▁craft	-9.05404
▁follow	-9.05416
▁sign	-9.05416
▁satir	-9.05431
ought	-9.06169
▁ear	-9.06188
▁succeed	-9.06285
▁value	-9.06338
▁mich	-9.06347
▁monster	-9.06348
like	-9.06445
▁score	-9.0652
▁shape	-9.06655
que	-9.06806
par	-9.06842
▁plays	-9.06912
▁involv	-9.0696
▁attention	-9.07164
ney	-9.07205
▁production	-9.07248
▁road	-9.07293
▁class	-9.07457
▁approach	-9.08047
▁stylish	-9.0806
▁standard	-9.08087
▁mis	-9.08115
▁truth	-9.08198
▁episode	-9.0824
▁rip	-9.08356
lan	-9.08538
▁undeniabl	-9.0894
▁period	-9.0894
▁crowd	-9.08985
▁convincing	-9.09151
▁journ	-9.09216
▁nature	-9.09362
▁lo	-9.09364
▁cute	-9.09382
▁heavy	-9.09676
▁skill	-9.0977
▁tragic	-9.09841
▁pace	-9.10076
▁got	-9.10207
pid	-9.10226
ite	-9.10332
ock	-9.10396
▁begin	-9.10751
▁epic	-9.10751
▁endear	-9.10753
▁future	-9.10755
▁figure	-9.1085
▁perform	-9.10906
▁intense	-9.11219
ze	-9.11357
life	-9.11474
▁rhythm	-9.11668
▁provocati	-9.11668
▁remember	-9.11684
▁shallow	-9.11753
over	-9.11799
▁read	-9.11996
▁manipulati	-9.12095
▁cut	-9.1222
▁depth	-9.12267
work	-9.12383
▁cinematograph	-9.12594
▁working	-9.12652
▁successful	-9.12685
▁rest	-9.12692
▁dry	-9.12877
▁list	-9.1291
▁non	-9.12912
▁franc	-9.13102
ier	-9.13219
▁serve	-9.13274
▁consider	-9.13381
▁sci	-9.13466
▁difficult	-9.13528
▁uneven	-9.1353
▁ju	-9.13532
▁goof	-9.13708
key	-9.13789
▁event	-9.13794
▁edge	-9.14059
▁sever	-9.14151
▁ill	-9.14443
▁fear	-9.14451
▁spiritual	-9.14472
▁combin	-9.14473
▁tension	-9.14474
hood	-9.14475
by	-9.14625
▁dro	-9.14648
▁reward	-9.14832
▁offen	-9.15354
focus	-9.15424
▁mediocr	-9.15424
▁poignan	-9.15424
▁reality	-9.1545
▁funni	-9.15464
▁effective	-9.15488
▁tries	-9.15719
▁hip	-9.15729
pt	-9.15762
▁try	-9.15773
za	-9.15832
told	-9.16311
▁drive	-9.1639
▁bull	-9.16426
▁mere	-9.16957
top	-9.16966
▁sh	-9.17183
▁l	-9.17222
▁masterpiece	-9.17356
▁confus	-9.17357
▁colorful	-9.17422
▁paint	-9.17447
▁poorly	-9.17689
til	-9.17716
iv	-9.17901
▁free	-9.18173
▁adaptation	-9.18337
▁robert	-9.18337
▁affection	-9.18338
▁smile	-9.18388
▁chance	-9.18465
own	-9.18521
▁witt	-9.18548
▁reach	-9.18556
▁sympath	-9.18719
▁fire	-9.18868
▁scary	-9.18956
▁9	-9.19006
qui	-9.19089
▁excit	-9.19114
▁structure	-9.19327
▁york	-9.19327
▁motion	-9.19358
try	-9.19476
▁wise	-9.19692
ether	-9.19841
▁realize	-9.1998
ence	-9.20065
▁hope	-9.20203
▁accomplish	-9.20327
▁couple	-9.20327
▁exact	-9.20347
▁flash	-9.20361
▁disney	-9.20372
▁spy	-9.20547
cross	-9.20563
▁storyline	-9.20577
▁remind	-9.2058
some	-9.2071
▁stage	-9.20854
▁highly	-9.20896
▁gone	-9.2109
▁superficial	-9.21337
▁definite	-9.21337
▁frame	-9.21349
▁convention	-9.2135
▁potential	-9.21359
▁single	-9.21442
though	-9.21576
mark	-9.21653
ache	-9.21931
▁absolute	-9.22357
▁univers	-9.22358
▁pleasant	-9.22359
▁complicat	-9.22366
▁gift	-9.22373
▁animated	-9.22522
▁total	-9.2255
▁endless	-9.22864
▁depressing	-9.22954
grat	-9.23141
ible	-9.23279
▁appear	-9.23289
▁extraordinar	-9.23388
uous	-9.23422
▁mu	-9.23502
▁empt	-9.23613
▁faith	-9.23648
▁stay	-9.23762
▁hole	-9.23885
▁chill	-9.24034
▁hell	-9.24165
▁frustrating	-9.2443
▁win	-9.24431
▁meditati	-9.24431
▁burn	-9.24432
▁money	-9.24454
evil	-9.24543
▁lu	-9.24555
▁base	-9.24679
▁par	-9.24743
ler	-9.24758
▁elegant	-9.25022
▁chees	-9.25115
▁wear	-9.25148
semble	-9.25354
stream	-9.25483
▁secret	-9.25483
dimension	-9.25483
▁sexual	-9.25484
▁mid	-9.25484
▁overcome	-9.25484
tribute	-9.25497
▁davi	-9.25883
act	-9.25919
▁balance	-9.26152
▁toward	-9.26509
▁female	-9.26547
▁annoy	-9.26547
▁carrie	-9.26623
▁insightful	-9.26667
down	-9.26792
mong	-9.26808
▁wish	-9.26861
enty	-9.27036
▁post	-9.27081
core	-9.27232
ven	-9.27517
▁apparent	-9.27622
▁deft	-9.27639
▁bu	-9.27645
▁please	-9.2767
▁bitter	-9.27823
▁excite	-9.27853
▁date	-9.27887
▁imaginative	-9.27911
▁thank	-9.28373
▁clar	-9.28414
▁twi	-9.28443
▁ka	-9.28507
▁imp	-9.28568
▁color	-9.28654
▁horribl	-9.28709
▁sophisticat	-9.28709
▁spielberg	-9.28709
▁alien	-9.2871
▁ridiculous	-9.28716
hilar	-9.28718
▁god	-9.294
▁tur	-9.2949
▁meaning	-9.29553
▁poor	-9.29587
min	-9.29681
▁incredibl	-9.29808
▁sketch	-9.29808
▁target	-9.29808
▁awkward	-9.29808
▁minor	-9.29813
▁intimate	-9.29814
land	-9.29895
▁bi	-9.30017
indulgen	-9.30048
▁share	-9.30097
▁tr	-9.3049
▁song	-9.30531
where	-9.30692
live	-9.30745
▁somewh	-9.30839
▁contemporar	-9.30919
▁cartoon	-9.30919
▁triumph	-9.30919
▁process	-9.30921
▁steven	-9.30928
▁school	-9.30978
▁number	-9.31132
▁playful	-9.3114
▁issue	-9.31223
▁produce	-9.31299
▁fr	-9.31508
▁tri	-9.31629
▁forget	-9.31689
▁wood	-9.31735
▁roll	-9.31799
whi	-9.31931
▁considerabl	-9.31953
▁except	-9.32041
▁fest	-9.32043
▁plain	-9.32043
▁gross	-9.32043
▁mild	-9.32045
taking	-9.32063
▁trick	-9.32101
▁person	-9.32112
▁suck	-9.32159
▁lame	-9.32354
▁avoid	-9.32535
▁suit	-9.3259
▁fl	-9.3272
▁entertain	-9.32744
▁cross	-9.32916
▁urban	-9.32918
ash	-9.33054
▁sand	-9.33153
▁release	-9.33179
▁novel	-9.33188
▁paper	-9.33188
▁supposed	-9.33227
witch	-9.33603
ley	-9.33766
▁construct	-9.33907
▁slopp	-9.33978
war	-9.34117
▁vari	-9.3412
fac	-9.34151
mas	-9.34164
▁astonishing	-9.34328
▁brutal	-9.34328
▁striking	-9.34328
▁trouble	-9.34328
▁result	-9.34328
▁critic	-9.34329
▁demand	-9.34331
▁pain	-9.34357
▁intrigue	-9.34367
▁night	-9.34372
▁blue	-9.34385
made	-9.34471
▁wind	-9.35143
▁throw	-9.35199
▁pan	-9.35348
▁fla	-9.35389
dom	-9.35393
▁drea	-9.35418
▁frequent	-9.35491
▁amazing	-9.35491
▁remake	-9.35491
▁return	-9.3555
▁ste	-9.35676
▁apart	-9.35779
▁poet	-9.35793
eath	-9.35877
io	-9.35967
ski	-9.36076
▁trip	-9.36142
▁ii	-9.36291
tive	-9.36322
▁fit	-9.36363
▁hate	-9.36568
lone	-9.36644
▁design	-9.36667
▁tiresome	-9.36668
ki	-9.37016
▁case	-9.37431
▁cho	-9.37531
▁test	-9.37618
▁die	-9.37765
▁conviction	-9.37858
▁damage	-9.37859
▁living	-9.37859
▁sandler	-9.37869
▁relie	-9.37914
▁fur	-9.37981
ival	-9.38157
dition	-9.38183
▁cultur	-9.3841
chang	-9.38575
▁gun	-9.38576
▁lou	-9.3859
ckney	-9.38663
void	-9.38881
▁shin	-9.38928
▁conclusion	-9.39075
company	-9.3908
▁observation	-9.39099
▁broad	-9.39174
▁bright	-9.39186
▁superb	-9.39316
▁abilit	-9.39369
▁doing	-9.39405
▁room	-9.39552
▁chilling	-9.39626
▁sincere	-9.39695
▁enter	-9.39772
side	-9.39876
zy	-9.3994
▁shock	-9.40012
▁pal	-9.40088
aid	-9.40158
▁authentic	-9.40229
▁accept	-9.40282
▁aspect	-9.40282
▁stunning	-9.40282
▁indie	-9.40309
▁chemi	-9.40332
▁term	-9.40347
▁fel	-9.40529
▁mother	-9.40582
head	-9.40665
▁gut	-9.40886
▁seek	-9.41375
▁emerge	-9.41383
▁absurd	-9.41461
▁langu	-9.41517
▁voice	-9.41517
▁amateurish	-9.41526
▁inept	-9.41533
▁marvelous	-9.41544
▁punch	-9.41676
▁fish	-9.41718
▁bod	-9.41889
▁200	-9.41913
provok	-9.41931
au	-9.41966
▁cla	-9.42275
▁sch	-9.42293
▁creat	-9.42372
▁struggle	-9.42493
writ	-9.42545
▁battle	-9.42767
▁incoheren	-9.42767
▁opportunit	-9.42767
▁breathtaking	-9.42774
▁modest	-9.42806
▁mor	-9.42833
▁masterful	-9.42883
▁sho	-9.43408
▁ages	-9.43432
▁bore	-9.43529
corn	-9.43602
▁ko	-9.43634
ese	-9.43659
given	-9.43683
▁draw	-9.43771
▁dim	-9.44019
▁escape	-9.44033
▁meandering	-9.44033
▁park	-9.44155
▁green	-9.44183
era	-9.442
▁im	-9.44271
▁desperate	-9.44382
▁sleep	-9.44382
▁realistic	-9.44402
▁talk	-9.4451
stick	-9.44648
good	-9.44663
▁20	-9.44957
▁strike	-9.45315
affirm	-9.45315
▁rivet	-9.45316
▁sick	-9.45318
▁engage	-9.45321
▁disast	-9.45325
▁achievement	-9.45372
ake	-9.45467
▁doubt	-9.45578
ship	-9.45768
▁determin	-9.46325
▁product	-9.46568
▁virtu	-9.46602
▁heartwarming	-9.46613
▁limit	-9.46724
omb	-9.46877
▁achieve	-9.46884
max	-9.46997
▁bear	-9.47173
▁guilty	-9.47245
▁discover	-9.47272
▁studio	-9.47383
▁refus	-9.47451
▁explor	-9.47622
▁foot	-9.4771
▁front	-9.47713
▁text	-9.47776
▁shame	-9.47875
▁absorb	-9.47929
▁mesmeriz	-9.47929
▁positive	-9.47929
▁routine	-9.47929
▁scream	-9.47929
▁strain	-9.47929
▁substance	-9.47929
▁impact	-9.47941
▁crisp	-9.48052
▁spark	-9.48089
▁exploit	-9.48132
gal	-9.4815
▁fare	-9.48313
▁skin	-9.48426
▁party	-9.48501
ami	-9.48691
necessar	-9.48789
▁guess	-9.48876
▁house	-9.48948
▁pack	-9.49042
typical	-9.49262
▁challeng	-9.49262
▁cruel	-9.49262
▁derivative	-9.49262
▁embarrass	-9.49262
▁previous	-9.49263
▁concern	-9.49263
▁frank	-9.49263
▁yarn	-9.49265
▁maintain	-9.49271
ture	-9.49288
▁root	-9.49321
▁weight	-9.49364
▁sapp	-9.49497
▁document	-9.49623
▁politic	-9.49683
▁necessar	-9.49738
▁rush	-9.49754
ged	-9.50097
▁unlike	-9.50115
▁state	-9.50268
▁develop	-9.50413
▁shoot	-9.50464
national	-9.50566
▁ideal	-9.50598
▁commercial	-9.50614
▁vital	-9.50619
hem	-9.50679
▁inspiration	-9.50785
▁award	-9.50791
▁x	-9.50892
▁exploitati	-9.50918
lf	-9.51109
▁load	-9.5125
▁dazzl	-9.515
▁law	-9.51514
▁90	-9.51825
ich	-9.51859
▁move	-9.51982
▁consistent	-9.51984
▁admirabl	-9.51984
▁improve	-9.51984
▁rank	-9.51986
▁match	-9.51998
▁logic	-9.52072
▁catch	-9.52118
▁screenwriter	-9.52257
▁ago	-9.52444
▁deni	-9.52494
ward	-9.52681
ped	-9.52735
lect	-9.52748
phy	-9.52781
▁gay	-9.52783
▁plott	-9.52785
▁christ	-9.52973
grade	-9.52981
handed	-9.532
▁weak	-9.53233
▁disappointing	-9.53243
▁behind	-9.53372
▁convince	-9.53372
▁glimpse	-9.53372
▁answer	-9.53374
▁diver	-9.53449
▁attraction	-9.53557
▁poetic	-9.5356
▁devastating	-9.53774
▁member	-9.53782
▁ab	-9.53893
▁pi	-9.54021
▁vi	-9.54062
▁pun	-9.54153
▁loss	-9.54231
▁length	-9.54355
▁america	-9.54493
▁sa	-9.54501
pleas	-9.54635
▁week	-9.54642
cur	-9.54701
mble	-9.54763
▁sheer	-9.54777
▁computer	-9.54781
▁unusual	-9.54781
eck	-9.54832
▁movement	-9.54844
▁tender	-9.54908
ife	-9.55061
thin	-9.55063
▁cost	-9.55275
izar	-9.55367
▁personalit	-9.55391
search	-9.55518
▁pic	-9.55566
tuck	-9.55687
▁layer	-9.55809
▁fu	-9.55879
night	-9.56151
▁record	-9.5621
▁villain	-9.5621
▁essential	-9.5621
▁friendship	-9.5621
▁murder	-9.56211
▁craz	-9.56215
mouth	-9.56216
▁pathetic	-9.5622
▁push	-9.56325
▁pit	-9.56501
▁band	-9.56528
▁bother	-9.56676
ddy	-9.56691
▁forgettabl	-9.56705
light	-9.57197
▁wash	-9.572
▁hom	-9.57426
hic	-9.57459
ode	-9.57622
pac	-9.57644
▁spectac	-9.57655
satisfie	-9.57659
▁metaphor	-9.57659
▁protagonist	-9.57659
▁sink	-9.57663
▁japan	-9.57672
▁grant	-9.57761
oon	-9.58045
▁je	-9.58056
reek	-9.58077
▁kill	-9.58113
▁promising	-9.58312
natured	-9.58475
place	-9.58488
mind	-9.58507
uff	-9.58753
▁sav	-9.58786
▁chan	-9.58881
▁bored	-9.58888
▁scor	-9.58999
how	-9.59037
▁technical	-9.59129
▁drug	-9.5913
▁evocati	-9.59131
▁spectacular	-9.59133
▁render	-9.59204
▁impression	-9.59205
mill	-9.59221
▁fashion	-9.59228
drama	-9.59284
▁ground	-9.59343
▁hot	-9.59373
▁camp	-9.59378
▁exceptional	-9.59821
nast	-9.59832
▁embrace	-9.59834
▁ask	-9.59857
star	-9.60474
▁street	-9.60622
▁represent	-9.60622
▁spook	-9.60622
▁support	-9.60622
▁eventual	-9.60625
▁transform	-9.60626
▁patien	-9.60627
▁breath	-9.60641
▁equi	-9.60701
▁source	-9.60739
▁proper	-9.609
▁spin	-9.60974
▁pile	-9.60994
▁laz	-9.60995
▁comedic	-9.61003
tory	-9.61025
press	-9.61129
rk	-9.6144
bod	-9.61517
▁includ	-9.61539
atic	-9.6191
witt	-9.61942
▁pat	-9.61942
pan	-9.62036
▁suggest	-9.62137
▁recycl	-9.62137
▁freak	-9.62146
▁haunt	-9.62149
▁stock	-9.6215
▁resist	-9.62155
▁south	-9.62155
▁sitcom	-9.62165
▁sensual	-9.62192
▁brow	-9.62299
▁sports	-9.62396
brid	-9.6241
▁raci	-9.62617
9	-9.62767
▁happ	-9.62974
nal	-9.63658
▁op	-9.63663
▁bottom	-9.63675
▁identity	-9.63675
▁predecessor	-9.63675
▁surviv	-9.63675
▁build	-9.63676
▁business	-9.63677
▁credib	-9.63677
▁exquisite	-9.6368
▁choice	-9.637
▁funnie	-9.63725
▁lyric	-9.63832
▁celebrat	-9.63982
▁crap	-9.63995
▁bond	-9.64043
▁awe	-9.64122
▁mur	-9.64153
▁fat	-9.6428
fall	-9.64323
▁clo	-9.6452
▁inspire	-9.64561
▁hu	-9.64684
shed	-9.64819
▁hi	-9.65089
▁idio	-9.65182
gain	-9.65206
▁profound	-9.65238
▁college	-9.65238
▁measure	-9.65238
field	-9.65239
▁false	-9.6524
▁unimaginative	-9.65241
▁check	-9.65247
▁condition	-9.65281
▁repetitive	-9.65288
▁development	-9.65307
▁pick	-9.65357
regard	-9.6542
card	-9.65448
▁bold	-9.65478
▁zon	-9.65739
perfect	-9.65784
lid	-9.65858
▁offering	-9.65992
fest	-9.66181
▁fiction	-9.66249
wave	-9.66251
▁prim	-9.66623
▁tin	-9.6664
▁pet	-9.66654
suspect	-9.66825
▁animal	-9.66825
▁obnoxious	-9.66825
▁stomach	-9.66825
▁vulgar	-9.66825
▁group	-9.66825
▁retrea	-9.66826
▁nuance	-9.66826
▁destin	-9.66827
▁kick	-9.66828
▁space	-9.66834
▁rise	-9.66924
▁torture	-9.66946
mber	-9.67052
▁chase	-9.67226
clas	-9.67227
ncy	-9.67248
▁pair	-9.67346
back	-9.6747
▁raw	-9.67558
▁grown	-9.67587
hour	-9.67597
bel	-9.67599
dash	-9.67687
hold	-9.67718
▁joke	-9.67772
▁behav	-9.67846
▁instan	-9.67865
▁lesson	-9.67868
▁speak	-9.6787
▁excu	-9.68006
saw	-9.68026
▁portray	-9.68188
▁save	-9.68213
sake	-9.68259
▁tough	-9.68361
▁conflict	-9.68438
▁ignor	-9.68438
▁sight	-9.68438
▁wicked	-9.68438
▁unpleasant	-9.68438
track	-9.68442
▁forgot	-9.68459
▁artificial	-9.68469
▁fake	-9.6849
▁gang	-9.68494
▁desire	-9.6851
▁trash	-9.68514
▁girls	-9.68641
▁labor	-9.68739
▁raise	-9.68927
▁heav	-9.69
▁belly	-9.6908
▁innocen	-9.69297
turn	-9.69345
lor	-9.69624
lip	-9.69644
five	-9.69689
▁bag	-9.69796
▁web	-9.69878
eur	-9.69886
▁cat	-9.69934
▁scratch	-9.70078
▁strength	-9.70078
▁folk	-9.70078
control	-9.70078
▁adam	-9.70079
▁banal	-9.70081
▁excess	-9.70082
▁ponder	-9.70096
stand	-9.70167
▁pitch	-9.70237
▁dragon	-9.70452
▁exist	-9.70463
buck	-9.70473
▁phon	-9.70481
▁shocking	-9.70491
▁vin	-9.70496
▁frida	-9.70681
log	-9.70738
uit	-9.71247
ug	-9.71324
▁prop	-9.7146
competent	-9.71501
zing	-9.71553
▁wannabe	-9.71744
▁industr	-9.71745
▁loose	-9.71745
▁georg	-9.71745
▁east	-9.71747
▁pretend	-9.71748
▁philosophical	-9.71755
▁splendid	-9.71759
▁trapp	-9.71763
charge	-9.71777
▁winner	-9.71779
induc	-9.71789
▁glor	-9.7179
▁disappoint	-9.71847
▁shameless	-9.7187
▁insane	-9.71874
▁comment	-9.71885
nder	-9.71918
per	-9.71961
▁fatal	-9.72019
▁trans	-9.72025
▁vibrant	-9.7205
lib	-9.72076
▁smug	-9.72094
▁eloquent	-9.72121
▁violent	-9.72124
ade	-9.72193
▁ball	-9.72232
his	-9.72486
▁humorous	-9.72488
▁service	-9.72545
▁anti	-9.7258
sky	-9.72587
▁distinguish	-9.72633
▁gradua	-9.72643
together	-9.7274
▁science	-9.72915
ator	-9.73181
bound	-9.73279
▁empath	-9.73439
▁enormous	-9.73439
▁intricate	-9.73439
▁perspective	-9.73439
▁victim	-9.73439
▁visceral	-9.73439
▁photograph	-9.73439
▁unfold	-9.7344
▁buoy	-9.73443
▁relative	-9.73445
▁proceed	-9.73446
▁merit	-9.73452
▁simul	-9.73453
strict	-9.73479
▁wide	-9.73516
arrow	-9.73554
▁linger	-9.73563
▁hopeful	-9.73566
▁king	-9.73669
▁wry	-9.73943
▁tradition	-9.74034
▁grie	-9.7413
▁lose	-9.74131
▁creativ	-9.7427
▁charisma	-9.74295
unch	-9.74336
▁stick	-9.7438
video	-9.74558
original	-9.74563
room	-9.74592
udic	-9.74639
▁crush	-9.74858
kin	-9.7513
cale	-9.75139
▁relentless	-9.75163
▁constant	-9.75164
▁learn	-9.75164
▁food	-9.75164
▁surface	-9.75164
▁requir	-9.75169
▁content	-9.75172
▁aim	-9.75178
▁machine	-9.75235
▁gold	-9.75401
▁dv	-9.75429
▁stereotype	-9.75507
▁serv	-9.75663
▁beat	-9.75708
▁mixed	-9.75795
▁televis	-9.75866
ody	-9.75941
▁sum	-9.75982
difference	-9.75997
▁matur	-9.76137
▁sun	-9.76221
▁stop	-9.76232
▁persona	-9.76282
▁tu	-9.76849
▁digital	-9.76918
▁irritating	-9.76918
▁similar	-9.76918
▁channel	-9.76918
▁chopp	-9.76919
▁silli	-9.76919
▁stunt	-9.76923
▁beginning	-9.76926
▁father	-9.76955
▁blend	-9.76992
▁season	-9.77025
rgh	-9.77078
▁poke	-9.77192
▁nonsens	-9.77286
▁fam	-9.77346
ern	-9.77361
ament	-9.77364
▁crude	-9.77466
▁corn	-9.77524
wan	-9.77526
▁rent	-9.77806
▁affa	-9.77846
▁decades	-9.77935
hew	-9.78015
▁soon	-9.78071
▁jam	-9.78224
▁intens	-9.78253
convincing	-9.78282
▁forgive	-9.78326
style	-9.78408
▁transcend	-9.78587
▁famili	-9.78655
▁drown	-9.78704
▁william	-9.78704
▁moviegoer	-9.78712
▁convey	-9.78715
▁priv	-9.78729
nick	-9.78769
▁mention	-9.78844
lace	-9.79125
▁dare	-9.79295
▁land	-9.7936
esque	-9.79412
▁community	-9.7944
zo	-9.79765
▁assured	-9.80227
iro	-9.80355
▁leg	-9.80376
numbing	-9.8046
▁frustration	-9.80522
▁holiday	-9.80522
▁professional	-9.80522
▁public	-9.80522
▁uplift	-9.80522
▁teacher	-9.80523
▁kiddie	-9.80525
▁gangster	-9.80525
▁giant	-9.80533
characterization	-9.80535
▁accent	-9.80536
▁glorious	-9.8055
▁indian	-9.80552
▁trite	-9.80574
▁accessib	-9.80577
▁absurdit	-9.80604
▁distance	-9.80617
▁sara	-9.80644
▁intention	-9.80644
▁setting	-9.80698
▁fantastic	-9.80713
hand	-9.80786
▁expectation	-9.80788
pro	-9.80827
▁collect	-9.80908
▁describe	-9.81023
hang	-9.81315
▁aver	-9.81473
take	-9.81665
rence	-9.82078
look	-9.82189
mper	-9.8231
bill	-9.82325
▁affecting	-9.82373
▁elevate	-9.82373
▁endeavor	-9.82373
▁plodding	-9.82373
encourag	-9.82374
▁flavor	-9.82374
▁precious	-9.82374
ette	-9.82387
▁queen	-9.82388
conceiv	-9.82414
▁price	-9.82418
▁team	-9.82436
▁trade	-9.82465
▁disguise	-9.82604
▁hack	-9.82622
immer	-9.82648
▁bow	-9.82666
▁office	-9.82783
position	-9.82833
new	-9.82996
stein	-9.8302
▁clums	-9.83029
▁white	-9.8316
nded	-9.83255
mination	-9.83333
▁attract	-9.83488
killer	-9.8368
atur	-9.83925
▁qu	-9.84121
school	-9.84159
orrow	-9.84187
▁wa	-9.84197
appropriate	-9.8426
▁irresistibl	-9.8426
▁knock	-9.84261
▁frightening	-9.84261
▁urge	-9.84269
▁cynic	-9.84272
▁shake	-9.84288
▁slo	-9.84341
action	-9.84478
▁stir	-9.84486
cope	-9.84501
▁insult	-9.84646
▁steal	-9.84671
▁pian	-9.84679
tract	-9.84795
▁handl	-9.84931
▁hair	-9.85046
rry	-9.85104
▁dir	-9.8522
gree	-9.85418
▁appreciate	-9.85744
▁appa	-9.85771
▁insulting	-9.85797
▁mc	-9.86081
ogue	-9.86087
valu	-9.86094
▁captivating	-9.86183
▁horrifying	-9.86183
▁inevitabl	-9.86183
▁pretension	-9.86183
▁vague	-9.86183
▁cohesi	-9.86184
▁junk	-9.862
craft	-9.86215
▁display	-9.86221
▁lush	-9.86222
▁string	-9.86231
well	-9.86239
▁thematic	-9.86256
boy	-9.86268
▁aimless	-9.86294
▁murk	-9.86303
▁tick	-9.86304
▁apl	-9.86308
utter	-9.86349
▁came	-9.86375
recover	-9.86394
▁dub	-9.86535
▁chao	-9.86787
produc	-9.8735
▁sell	-9.87391
▁express	-9.87622
fire	-9.87814
▁phone	-9.87839
▁generate	-9.87925
▁lived	-9.88013
▁increas	-9.88144
▁report	-9.88144
▁succumb	-9.88144
▁unabashed	-9.88144
▁clima	-9.88144
▁finish	-9.88144
▁wedding	-9.88146
▁spell	-9.88147
▁intoxicating	-9.88148
▁blade	-9.88161
▁ticket	-9.88178
▁curious	-9.8818
▁type	-9.88194
▁sensational	-9.88201
▁luck	-9.8823
power	-9.88281
▁nerve	-9.88305
anger	-9.88374
▁travel	-9.88441
▁talking	-9.88534
ection	-9.88815
▁por	-9.88843
play	-9.88904
▁pu	-9.88985
▁significant	-9.89058
▁inde	-9.89153
▁poli	-9.89237
▁cann	-9.89307
▁auto	-9.89464
taken	-9.89663
bed	-9.89715
▁confident	-9.89742
aged	-9.89775
▁finding	-9.90044
predictabl	-9.901
▁reli	-9.90123
▁delicious	-9.90144
▁enthusiasm	-9.90144
▁graphic	-9.90144
▁heartbreaking	-9.90145
▁lump	-9.90145
▁crass	-9.90151
vas	-9.90153
erotic	-9.90156
enchant	-9.90158
▁receiv	-9.90168
▁third	-9.90225
▁ordina	-9.90263
▁icon	-9.90328
born	-9.90431
blown	-9.90484
▁gar	-9.90592
▁drawn	-9.90606
▁explore	-9.90615
▁unfor	-9.90837
▁spen	-9.90934
charismatic	-9.91162
rium	-9.91197
done	-9.91243
ham	-9.91244
gger	-9.91247
▁passionate	-9.91311
▁notice	-9.91459
▁traditional	-9.91472
▁reading	-9.9148
nan	-9.91722
▁smarter	-9.92109
▁outrageous	-9.92185
cheek	-9.92185
▁slack	-9.92185
▁preachy	-9.92186
orient	-9.92187
▁example	-9.92188
▁nightmar	-9.9219
▁pale	-9.92195
▁infus	-9.92196
▁cloying	-9.92212
knowledge	-9.92299
▁dud	-9.92335
rew	-9.92442
▁forceful	-9.92453
▁lik	-9.92472
ino	-9.92477
▁bri	-9.92562
weight	-9.92579
wood	-9.92586
▁eat	-9.92663
▁cover	-9.92667
▁fra	-9.92731
lam	-9.92732
▁pol	-9.92787
▁topic	-9.92855
app	-9.92857
▁jar	-9.92901
▁endur	-9.92977
▁brothers	-9.93236
lady	-9.93453
▁jolt	-9.93484
▁inte	-9.93564
▁endure	-9.94243
▁disgust	-9.94268
▁peculiar	-9.94268
▁treasure	-9.94268
▁unfortunate	-9.94268
▁introduc	-9.94268
▁muddle	-9.94268
▁comfortabl	-9.94268
▁technolog	-9.94268
▁pulp	-9.94269
▁blank	-9.94269
▁grab	-9.94269
enni	-9.94274
▁sister	-9.94279
▁spite	-9.94309
▁teenager	-9.94387
▁pleasing	-9.944
ourse	-9.94415
▁terri	-9.94462
▁warn	-9.94537
jerk	-9.94556
▁portrayal	-9.94595
derbe	-9.94649
spirit	-9.9483
sweet	-9.94833
▁demonstrate	-9.95518
mission	-9.95832
▁musical	-9.9594
aught	-9.96127
ease	-9.96253
etto	-9.9626
▁atmospher	-9.96298
▁courage	-9.96332
igni	-9.96373
▁possibilit	-9.96396
▁sensibilit	-9.96396
▁ambition	-9.96396
▁blockbuster	-9.96396
▁immense	-9.96396
▁landscape	-9.96396
▁revenge	-9.96396
▁thousand	-9.96396
▁reflect	-9.96396
▁remote	-9.96396
▁fierce	-9.96396
▁foul	-9.96396
current	-9.96397
valent	-9.96401
▁niche	-9.96403
▁handsome	-9.96441
function	-9.96443
▁sour	-9.96492
▁scot	-9.96492
▁genial	-9.96513
evolve	-9.96532
▁revelat	-9.96595
▁generation	-9.96667
▁tim	-9.96692
▁nowhere	-9.96752
▁wilde	-9.96761
▁factor	-9.9686
▁improvis	-9.96865
▁reci	-9.97077
book	-9.97092
hill	-9.97248
▁artistic	-9.97417
▁unlik	-9.97646
▁fate	-9.97881
flu	-9.97887
orous	-9.97911
▁male	-9.97922
bul	-9.98208
▁earth	-9.98318
▁gre	-9.98403
▁resonan	-9.98512
aggressive	-9.9857
▁encounter	-9.9857
▁inherent	-9.9857
▁sneak	-9.9857
▁stoop	-9.9857
▁stink	-9.9857
▁abandon	-9.9857
▁random	-9.9857
▁commit	-9.9857
▁admire	-9.98571
▁literar	-9.98573
▁accurate	-9.98574
▁vampire	-9.98578
▁theatrical	-9.98584
▁digni	-9.98617
▁market	-9.9863
▁luna	-9.98631
▁bigger	-9.9873
▁graceful	-9.98775
▁fir	-9.98805
rating	-9.98855
aware	-9.98935
▁dust	-9.99019
▁larger	-9.99123
ridd	-9.99173
nerv	-9.99228
▁spring	-9.99881
▁moo	-9.99996
▁fanci	-10.0005
▁tap	-10.0028
▁touche	-10.0029
tain	-10.0038
▁scar	-10.0041
▁snow	-10.0079
▁escapis	-10.0079
▁experiment	-10.0079
▁flims	-10.0079
▁rehash	-10.0079
▁uncomfortabl	-10.0079
▁resource	-10.0079
▁arrive	-10.0079
▁sugar	-10.0079
▁revolution	-10.0079
flinch	-10.0079
intellectual	-10.008
▁lift	-10.0081
▁liberati	-10.0082
▁sober	-10.0082
giving	-10.0082
leak	-10.0083
▁enthusiastic	-10.0084
▁daring	-10.0091
▁paul	-10.0095
▁uninspir	-10.0095
▁gritt	-10.0095
lock	-10.0097
▁creation	-10.0102
▁smooth	-10.0105
▁shooting	-10.0118
▁witless	-10.0126
▁amused	-10.0133
▁witness	-10.0146
▁bone	-10.0147
▁dose	-10.0157
▁happi	-10.017
board	-10.0175
notch	-10.0182
▁leav	-10.0209
▁continu	-10.021
▁skip	-10.0236
▁player	-10.0251
▁celebrate	-10.0261
▁ya	-10.0273
▁sparkl	-10.0279
▁sentiment	-10.0282
▁sor	-10.0285
▁cult	-10.03
taneous	-10.0305
▁despair	-10.0306
▁thumb	-10.0306
sophomor	-10.0306
▁dismiss	-10.0306
▁cheer	-10.0307
▁distaste	-10.0308
▁italian	-10.0308
▁surf	-10.0308
▁angst	-10.031
▁korea	-10.0311
▁translat	-10.0313
▁spot	-10.0315
shift	-10.0315
▁square	-10.0316
consum	-10.0317
▁buff	-10.0319
▁neat	-10.0328
▁fearless	-10.0331
obs	-10.0345
▁alleg	-10.0348
▁buy	-10.0364
▁uncom	-10.0391
hat	-10.0395
luster	-10.0409
▁shadow	-10.0414
▁bang	-10.0422
discover	-10.0422
▁van	-10.0434
▁essen	-10.0436
▁tight	-10.0458
empti	-10.0499
luc	-10.05
than	-10.0502
▁bog	-10.0532
q	-10.0533
▁compassion	-10.0536
▁recognize	-10.0539
▁relevan	-10.0539
▁teeth	-10.0539
dispos	-10.0539
▁astounding	-10.0539
▁tongue	-10.0539
▁immediate	-10.054
sweep	-10.054
▁splash	-10.054
▁clueless	-10.0545
▁settle	-10.0546
▁path	-10.0566
▁pub	-10.0571
addle	-10.0596
▁reasonabl	-10.0614
expressive	-10.0621
veni	-10.0622
▁adventur	-10.0628
▁broke	-10.0635
ilk	-10.0642
gem	-10.0647
▁kissing	-10.0648
promising	-10.065
ado	-10.0656
girl	-10.0674
▁stu	-10.072
upper	-10.0732
▁neg	-10.0732
quent	-10.0761
▁psycholog	-10.0775
gnific	-10.0777
▁distincti	-10.0777
▁baffl	-10.0777
▁reference	-10.0777
▁wondrous	-10.0777
▁perverse	-10.0777
▁exotic	-10.0777
▁jim	-10.0777
evin	-10.0778
penetra	-10.0778
▁wander	-10.0778
▁fluff	-10.0779
empower	-10.078
▁depiction	-10.0782
▁blow	-10.0783
igan	-10.0784
▁device	-10.0784
▁improbab	-10.079
▁angel	-10.0791
▁expression	-10.0793
▁rough	-10.08
▁moviemak	-10.0809
▁race	-10.0811
▁pomp	-10.0813
▁soulless	-10.0817
▁visit	-10.0839
bad	-10.0842
riety	-10.0857
cute	-10.0861
▁pleasur	-10.0864
▁beach	-10.0867
▁nation	-10.0881
nia	-10.0886
lob	-10.0907
berg	-10.091
▁mel	-10.0952
▁played	-10.0961
speci	-10.0965
alan	-10.0969
forward	-10.0975
▁juic	-10.0981
laborat	-10.099
▁impress	-10.1007
ndi	-10.1011
▁attracti	-10.1014
▁fa	-10.1015
▁area	-10.1016
▁terrif	-10.102
▁alternate	-10.1021
▁collapse	-10.1021
▁enthrall	-10.1021
▁extravagan	-10.1021
▁melanchol	-10.1021
▁substanti	-10.1021
▁spoof	-10.1021
cisive	-10.1021
▁spider	-10.1021
daughter	-10.1021
drum	-10.1021
▁clean	-10.1022
▁cheat	-10.1023
loving	-10.1023
▁chops	-10.1026
▁lend	-10.1028
▁basic	-10.1028
▁cutting	-10.103
▁contrivance	-10.103
▁mont	-10.1062
▁outside	-10.1065
▁lee	-10.1068
unk	-10.1069
▁overwhelming	-10.1089
▁host	-10.1106
▁spend	-10.1107
▁lie	-10.1111
▁mile	-10.1113
▁carve	-10.1135
▁aching	-10.1173
dden	-10.1174
▁mistake	-10.1179
▁clumsi	-10.1183
▁lust	-10.1184
▁myth	-10.121
▁jon	-10.122
allen	-10.1222
latter	-10.1245
▁commun	-10.1252
▁african	-10.1271
▁alternative	-10.1271
▁dickens	-10.1271
▁evok	-10.1271
▁excruciating	-10.1271
▁instinct	-10.1271
▁connection	-10.1271
▁nichol	-10.1271
▁illuminat	-10.1271
▁impersona	-10.1271
▁slug	-10.1271
▁existential	-10.1271
▁imitation	-10.1272
▁squander	-10.1272
▁hallmark	-10.1272
▁popular	-10.1273
▁undercut	-10.1274
▁boast	-10.1275
▁conceit	-10.1275
▁harm	-10.1276
▁coheren	-10.1277
▁common	-10.1277
▁plane	-10.1277
tholog	-10.1279
▁journalis	-10.1284
▁broom	-10.1297
▁brave	-10.1302
sumpt	-10.1304
▁resolut	-10.1318
comprehensi	-10.1331
▁carry	-10.1332
▁overwr	-10.1339
▁startl	-10.1341
▁timeless	-10.1341
▁lad	-10.1352
▁bel	-10.1367
responsib	-10.1377
say	-10.1379
▁tit	-10.1393
alyze	-10.1395
wrenc	-10.1399
▁replac	-10.1418
agi	-10.1421
enha	-10.1437
▁complexit	-10.1455
brand	-10.1462
cann	-10.1463
faith	-10.1465
world	-10.1465
lond	-10.148
ttent	-10.1482
▁husband	-10.1527
fabric	-10.1527
▁establish	-10.1527
▁exceeding	-10.1527
▁window	-10.1527
▁barbers	-10.1527
▁expens	-10.1527
▁convenien	-10.1528
▁flower	-10.1528
plo	-10.1528
▁location	-10.1528
▁lurid	-10.1528
barrel	-10.1529
▁whimsical	-10.1529
▁grav	-10.1533
writer	-10.1535
tolerable	-10.1535
▁marri	-10.154
▁eeri	-10.154
▁revelation	-10.155
button	-10.1552
▁candy	-10.1552
▁police	-10.1552
▁slick	-10.1553
▁weav	-10.1565
▁90-	-10.1565
▁divi	-10.1568
predict	-10.157
▁motivate	-10.1571
▁scare	-10.1582
opper	-10.1586
wallow	-10.1589
▁shre	-10.16
rote	-10.1637
▁marti	-10.1644
▁depress	-10.1653
list	-10.1656
▁entr	-10.1666
oli	-10.1691
vention	-10.1722
inspir	-10.1723
plu	-10.1733
half	-10.1743
▁belong	-10.1757
▁presen	-10.1759
▁reg	-10.1765
hai	-10.179
▁phenomen	-10.1791
▁assassin	-10.1791
▁english	-10.1791
▁height	-10.1791
▁tremendous	-10.1791
▁companion	-10.1791
▁contradict	-10.1791
▁monoton	-10.1791
▁warrior	-10.1791
▁fool	-10.1791
▁definiti	-10.1791
▁fluid	-10.1791
prise	-10.1791
▁extend	-10.1791
▁morning	-10.1792
eudo	-10.1793
▁creature	-10.1795
▁toilet	-10.1805
▁ironic	-10.1808
biograph	-10.1816
▁blast	-10.1832
older	-10.184
lph	-10.1844
▁precise	-10.1845
kind	-10.1845
chel	-10.185
▁surreal	-10.1853
▁bigge	-10.1856
▁lau	-10.1859
more	-10.187
bak	-10.187
shap	-10.1888
▁hum	-10.1892
▁bir	-10.1927
glorifi	-10.193
▁fee	-10.1948
▁salt	-10.196
▁flam	-10.1972
▁amuse	-10.1995
number	-10.2026
▁coll	-10.2029
▁gla	-10.2034
▁hamm	-10.204
▁potent	-10.2056
▁obligat	-10.2061
▁cruci	-10.2061
▁dangerous	-10.2061
▁nostalgi	-10.2061
▁sublime	-10.2061
▁swim	-10.2061
▁hugh	-10.2061
▁sudden	-10.2061
▁ingenious	-10.2061
▁expert	-10.2061
▁eviden	-10.2061
▁dreadful	-10.2061
▁safe	-10.2061
▁advan	-10.2062
▁screw	-10.2063
▁border	-10.2063
▁doze	-10.2063
base	-10.2063
▁populat	-10.2064
frai	-10.207
▁feat	-10.207
▁disappointment	-10.207
▁burie	-10.2075
▁deception	-10.2076
yam	-10.2078
▁rapid	-10.2083
▁glass	-10.2102
▁informati	-10.2104
imit	-10.2113
▁surrounding	-10.2123
▁lane	-10.2124
▁artful	-10.2138
▁cellul	-10.2143
▁earn	-10.2149
▁integr	-10.2174
angle	-10.2174
▁intermi	-10.2189
▁guilt	-10.2204
rade	-10.221
rid	-10.2216
▁slic	-10.222
▁bree	-10.2232
▁miser	-10.2248
▁poe	-10.2248
▁bli	-10.2249
trip	-10.229
▁crack	-10.2319
dead	-10.2322
▁ambigu	-10.2323
▁decepti	-10.2323
worth	-10.2323
▁spli	-10.2335
▁narrat	-10.2336
▁splend	-10.2336
discipline	-10.2339
shakespeare	-10.2339
▁dynamic	-10.2339
▁eccentric	-10.2339
▁surrender	-10.2339
▁comparison	-10.2339
▁societ	-10.2339
▁trailer	-10.2339
▁ghost	-10.2339
▁spike	-10.2339
▁chick	-10.2339
▁implausib	-10.2339
▁newcomer	-10.2339
▁roger	-10.2339
▁puzzl	-10.2339
▁profan	-10.2339
▁fuzz	-10.234
▁due	-10.2341
▁spontane	-10.2341
▁hideous	-10.2342
guide	-10.2343
▁swing	-10.2349
▁raunch	-10.235
acious	-10.2358
▁jaw	-10.2362
▁dozen	-10.2372
▁ruin	-10.2377
elling	-10.2381
▁adolescent	-10.2384
▁rela	-10.2388
▁arm	-10.2388
▁meat	-10.2393
▁cry	-10.2397
▁chris	-10.2414
rvin	-10.2414
wake	-10.2422
ndon	-10.2433
trust	-10.2446
▁continue	-10.2458
▁spic	-10.2465
zan	-10.2469
▁spr	-10.249
▁stretche	-10.2497
▁extra	-10.2521
ux	-10.2529
00	-10.2553
▁dra	-10.2562
ular	-10.2582
▁tast	-10.2582
▁tackl	-10.2582
▁screenwrit	-10.2583
▁slee	-10.2586
spare	-10.2595
heard	-10.261
▁observ	-10.2616
▁marvel	-10.2619
forgettabl	-10.2622
caricature	-10.2624
corporate	-10.2624
▁efficien	-10.2624
▁showcase	-10.2624
▁supreme	-10.2624
▁unbelievabl	-10.2624
▁unfulfill	-10.2624
▁vietnam	-10.2624
affected	-10.2624
▁inviting	-10.2624
▁hopkins	-10.2624
▁paranoi	-10.2624
▁disturb	-10.2624
▁unintentional	-10.2625
fidel	-10.2625
▁honor	-10.2625
▁attitude	-10.2625
▁environment	-10.2625
▁diversion	-10.2626
plete	-10.2629
▁trifl	-10.2635
▁smok	-10.2641
lia	-10.2644
▁skillful	-10.2648
▁bon	-10.2658
bled	-10.2662
bear	-10.2667
▁effortless	-10.2691
▁daw	-10.2706
▁hel	-10.2711
caust	-10.272
wear	-10.2721
rising	-10.2725
tep	-10.2731
▁objectiv	-10.2736
radic	-10.2746
▁appl	-10.2747
▁radi	-10.2774
▁qua	-10.2779
▁leon	-10.2796
wit	-10.2819
loc	-10.2828
▁maker	-10.285
pped	-10.2854
bodie	-10.2881
aries	-10.2896
rowd	-10.2908
nova	-10.2917
▁psycho	-10.2918
satisfact	-10.2918
▁account	-10.2918
▁chuckle	-10.2918
▁inexplicabl	-10.2918
▁misogyn	-10.2918
▁reput	-10.2918
▁benefit	-10.2918
▁incessant	-10.2918
▁smack	-10.2919
▁shrewd	-10.2919
▁bank	-10.2919
▁organi	-10.2919
▁regret	-10.2919
▁store	-10.2919
▁flesh	-10.2919
▁aspire	-10.292
▁cram	-10.292
▁seven	-10.2921
▁explosion	-10.2922
▁circu	-10.2924
▁mush	-10.2925
▁christian	-10.2925
▁swoo	-10.2925
▁speed	-10.2925
arine	-10.293
femini	-10.2933
▁order	-10.2933
▁stylistic	-10.2935
american	-10.2938
▁ego	-10.294
▁tree	-10.2944
▁hopeless	-10.2948
▁useless	-10.2976
▁won	-10.299
▁primar	-10.2993
▁creep	-10.3014
▁sac	-10.3023
lash	-10.3031
kum	-10.3034
▁characteristic	-10.3038
▁savor	-10.3048
▁dia	-10.3055
▁refresh	-10.3068
▁send	-10.3079
▁subtl	-10.3084
▁garb	-10.3095
ripp	-10.3118
▁conce	-10.3125
oid	-10.3129
▁documentari	-10.3134
▁cell	-10.3152
lice	-10.3161
mart	-10.3165
▁lower	-10.3183
▁wil	-10.3187
pez	-10.3191
vary	-10.3207
▁hype	-10.3207
▁artific	-10.3219
▁quest	-10.3221
articulate	-10.3222
▁academ	-10.3222
▁adequate	-10.3222
▁controvers	-10.3222
▁enigma	-10.3222
▁guarantee	-10.3222
▁inhabit	-10.3222
▁miracle	-10.3222
▁stroke	-10.3222
▁iranian	-10.3222
▁robin	-10.3222
rhaps	-10.3222
▁locale	-10.3224
▁background	-10.3224
cook	-10.3224
▁collective	-10.3226
▁admit	-10.3231
▁idiotic	-10.3233
chines	-10.3234
▁innovation	-10.3234
▁insi	-10.3241
view	-10.3249
▁decided	-10.3251
▁dawn	-10.3252
▁marginal	-10.3253
text	-10.3256
through	-10.3261
▁arch	-10.3266
▁whims	-10.3269
▁mala	-10.3282
▁sel	-10.3287
▁slip	-10.3289
unter	-10.3312
truck	-10.3343
▁include	-10.3344
▁gui	-10.3358
▁mental	-10.338
tured	-10.3381
▁eve	-10.3393
▁neo	-10.3403
▁stereotyp	-10.3472
undan	-10.3485
▁eva	-10.3507
▁severe	-10.3526
▁import	-10.3531
▁intima	-10.3532
▁multi	-10.3534
▁conjure	-10.3534
▁deliberate	-10.3534
▁scenario	-10.3534
▁uncertain	-10.3534
▁author	-10.3534
▁choose	-10.3534
claim	-10.3534
▁bracing	-10.3534
▁built	-10.3534
▁interview	-10.3536
twenty	-10.3537
▁harv	-10.3537
▁gasp	-10.3537
stray	-10.354
▁resonance	-10.3558
rude	-10.3561
sync	-10.3561
▁redeem	-10.3564
▁arc	-10.3567
bum	-10.3593
education	-10.3594
rash	-10.3595
free	-10.3595
▁teenage	-10.3598
wash	-10.3608
▁tend	-10.3614
▁thrown	-10.3614
▁arn	-10.3614
▁corner	-10.3617
▁hoot	-10.362
▁edg	-10.362
▁colli	-10.3642
▁stil	-10.3655
▁grind	-10.3666
inent	-10.3711
terior	-10.3725
▁somebod	-10.3738
▁sacrifice	-10.3745
▁pie	-10.3756
croo	-10.3764
fist	-10.3774
risk	-10.3785
▁manu	-10.3797
earth	-10.3816
▁uncomm	-10.3816
putting	-10.3816
estim	-10.3819
hrill	-10.3827
▁squa	-10.3843
opic	-10.3846
ozen	-10.3854
▁irrelevan	-10.3857
envelop	-10.3857
▁caution	-10.3857
▁chabrol	-10.3857
▁complain	-10.3857
▁contribution	-10.3857
▁employ	-10.3857
▁flourish	-10.3857
▁illustrat	-10.3857
▁mechanic	-10.3857
▁preposterous	-10.3857
▁aesthetic	-10.3857
▁subculture	-10.3857
▁holo	-10.3857
▁symbol	-10.3857
▁costume	-10.3857
▁wrapp	-10.3857
wreck	-10.3857
▁literal	-10.3857
▁irony	-10.3857
▁court	-10.3858
▁atrocious	-10.3858
▁confront	-10.3858
▁bubb	-10.3858
▁clinic	-10.3858
▁unbearabl	-10.3859
▁weep	-10.386
▁gear	-10.3861
▁contain	-10.3862
▁review	-10.3865
▁wound	-10.3868
▁borrow	-10.3871
▁bridge	-10.3875
▁sincer	-10.3882
▁martial	-10.3889
calm	-10.3895
ville	-10.3928
rative	-10.393
house	-10.3937
▁199	-10.3946
pack	-10.3956
donn	-10.3956
▁gall	-10.3956
▁provid	-10.3966
run	-10.3994
lab	-10.4009
ification	-10.4017
▁kiss	-10.4045
cam	-10.4054
▁redundan	-10.4055
▁desperat	-10.4098
ourne	-10.41
pinn	-10.4126
▁revel	-10.4133
▁jol	-10.4137
mak	-10.4139
▁remin	-10.415
▁compos	-10.4167
layer	-10.4175
▁understate	-10.418
▁satiric	-10.4186
laud	-10.4188
consequen	-10.4189
▁obsession	-10.419
▁junior	-10.419
▁harsh	-10.419
▁arrest	-10.419
dropping	-10.419
▁german	-10.419
▁tatter	-10.4191
▁legend	-10.4193
▁beast	-10.4194
▁pow	-10.4196
▁fellow	-10.4196
pulsive	-10.4197
▁yearning	-10.4199
print	-10.42
▁owe	-10.4201
▁fright	-10.4202
destructive	-10.4221
▁listen	-10.4231
lunch	-10.4235
▁bomba	-10.4237
▁barry	-10.424
watt	-10.4243
▁gap	-10.4249
uel	-10.4266
▁bump	-10.4272
form	-10.4282
▁loser	-10.4291
length	-10.4293
meaning	-10.4295
familiar	-10.4295
marine	-10.4314
ddie	-10.4318
anta	-10.4323
▁resemble	-10.4328
▁swe	-10.4387
▁misfir	-10.4392
▁sim	-10.4435
▁crud	-10.4443
inder	-10.445
kies	-10.4471
▁exposit	-10.4474
ella	-10.4477
motivat	-10.4477
assive	-10.4483
went	-10.4486
▁statu	-10.4488
sucker	-10.4499
▁harr	-10.4525
▁distract	-10.4529
▁minimal	-10.4535
hibit	-10.4535
▁claustrophobi	-10.4535
▁criminal	-10.4535
▁fabulous	-10.4535
▁inject	-10.4535
▁rambling	-10.4535
progress	-10.4535
▁condescen	-10.4535
▁hollow	-10.4535
▁insistent	-10.4535
▁immatur	-10.4535
▁jealous	-10.4535
▁brush	-10.4535
▁concentrat	-10.4535
▁jazz	-10.4535
▁jump	-10.4535
itude	-10.4535
▁holm	-10.4535
▁chord	-10.4535
▁gender	-10.4535
▁mike	-10.4535
▁smash	-10.4536
▁literat	-10.4536
▁triangle	-10.4536
▁trace	-10.4537
▁communicat	-10.4538
▁department	-10.4538
▁roman	-10.4539
▁fragment	-10.454
joint	-10.454
ecc	-10.4542
cia	-10.4548
▁fredd	-10.455
▁atmospheric	-10.4551
▁transcenden	-10.4558
call	-10.4561
▁scat	-10.4564
▁compromis	-10.4564
▁machi	-10.4569
▁savage	-10.4575
▁cere	-10.4596
▁prevent	-10.4599
▁seren	-10.462
▁fuss	-10.4636
▁reel	-10.4641
▁cob	-10.4647
fiction	-10.4662
construct	-10.4664
concept	-10.4665
▁capabl	-10.4676
▁coma	-10.4685
▁jer	-10.4751
▁blin	-10.4752
▁wis	-10.477
exit	-10.4778
expos	-10.4794
ersp	-10.482
rick	-10.4827
odge	-10.4831
▁inconsisten	-10.4869
▁broo	-10.4875
▁clue	-10.4882
xploitati	-10.4887
knack	-10.4892
▁circumstan	-10.4892
▁dishonest	-10.4892
▁exaggerat	-10.4892
▁fulfill	-10.4892
▁hundred	-10.4892
▁perceptive	-10.4892
▁schmaltz	-10.4892
▁discern	-10.4892
▁obscure	-10.4892
▁narcissis	-10.4892
▁subplot	-10.4892
▁hook	-10.4892
▁venture	-10.4892
▁fond	-10.4893
▁demented	-10.4894
▁independent	-10.4894
▁million	-10.4894
▁crawl	-10.4898
▁abuse	-10.4898
concert	-10.4899
▁tart	-10.4899
▁uh	-10.4905
▁sag	-10.4911
▁oh	-10.4922
▁assembl	-10.4943
▁evan	-10.4952
ilty	-10.4958
▁parable	-10.4959
▁struggl	-10.4971
mask	-10.4974
format	-10.4976
ijin	-10.4978
▁nav	-10.4985
▁heat	-10.499
▁justify	-10.4993
rill	-10.5
▁rolli	-10.5025
▁counter	-10.503
▁styl	-10.504
important	-10.5049
sentimental	-10.505
▁elegan	-10.5052
film	-10.5052
break	-10.5058
mme	-10.5066
▁cock	-10.5067
▁defi	-10.5072
▁lazi	-10.5123
shot	-10.5136
omical	-10.5137
▁fri	-10.5146
▁legal	-10.5197
wai	-10.5219
congr	-10.5229
cut	-10.5239
▁cris	-10.5242
▁innovati	-10.5253
▁curio	-10.5256
▁terror	-10.526
mpire	-10.5261
servati	-10.5262
▁argument	-10.5262
▁club	-10.5262
▁eight	-10.5262
▁exuberan	-10.5262
▁metropoli	-10.5262
▁proficien	-10.5262
▁sword	-10.5262
▁athlete	-10.5262
▁practice	-10.5262
▁chief	-10.5262
league	-10.5262
▁bread	-10.5262
▁snip	-10.5262
▁threat	-10.5262
▁double	-10.5262
▁inescapabl	-10.5262
▁maddening	-10.5262
▁prison	-10.5262
▁blatant	-10.5263
▁peak	-10.5263
▁reckless	-10.5263
▁sickening	-10.5263
▁derive	-10.5263
▁reign	-10.5263
▁auteu	-10.5265
▁urgent	-10.5265
▁rival	-10.5266
righteous	-10.5267
sensitivit	-10.5267
▁charl	-10.527
▁clocks	-10.527
lusive	-10.5276
▁smi	-10.5278
▁tax	-10.5279
▁soft	-10.5288
▁reaction	-10.5288
▁lull	-10.5289
▁torn	-10.5289
sai	-10.5289
▁boat	-10.5305
▁merc	-10.5306
▁stif	-10.533
▁captur	-10.534
▁swan	-10.5341
▁dope	-10.5353
tech	-10.5358
▁gel	-10.5369
▁brav	-10.537
▁veer	-10.543
vall	-10.5432
▁jagge	-10.5436
dependen	-10.5436
▁loneli	-10.5439
▁helm	-10.5488
gun	-10.5509
eeming	-10.551
achiev	-10.5549
dah	-10.5559
solution	-10.5575
▁compar	-10.5594
bust	-10.5604
stopp	-10.5605
hallow	-10.5612
▁cloth	-10.5633
piration	-10.5642
truct	-10.5646
▁neighbor	-10.5647
▁psyche	-10.5647
incarnation	-10.5647
▁anguish	-10.5647
▁conspirac	-10.5647
▁ethnic	-10.5647
▁individual	-10.5647
▁participant	-10.5647
▁separate	-10.5647
▁categor	-10.5647
destroy	-10.5647
▁drunk	-10.5647
▁mexic	-10.5647
▁groan	-10.5647
▁error	-10.5647
▁reject	-10.5647
gram	-10.5647
▁clown	-10.5647
▁invite	-10.5648
▁keen	-10.5648
voca	-10.5649
▁normal	-10.565
▁debate	-10.5653
▁payoff	-10.5659
meets	-10.5665
oursel	-10.5669
▁student	-10.5673
▁ravi	-10.5681
▁weakness	-10.5687
▁existen	-10.5721
▁strip	-10.5733
defin	-10.5747
▁parad	-10.5762
▁sacrific	-10.5781
▁bug	-10.5816
▁decade	-10.5816
▁scari	-10.5837
fuel	-10.5846
joke	-10.5864
cultur	-10.5865
porn	-10.5866
interesting	-10.5868
fare	-10.5868
talent	-10.5875
will	-10.5877
▁integrat	-10.5883
▁provoke	-10.5912
lung	-10.5986
▁analy	-10.5995
cue	-10.6006
ovi	-10.6008
▁philosoph	-10.6045
flop	-10.6045
▁arbitrar	-10.6047
▁conspicuous	-10.6047
▁gimmick	-10.6047
▁grotesque	-10.6047
▁ingredient	-10.6047
▁specific	-10.6047
▁traffic	-10.6047
▁system	-10.6047
▁enlighten	-10.6047
▁insignifican	-10.6047
▁enhance	-10.6047
▁emphasis	-10.6047
▁acclaim	-10.6048
▁suppl	-10.6048
▁seduc	-10.6048
▁pathos	-10.6049
▁anchor	-10.6049
▁smear	-10.6049
▁pedest	-10.6049
▁hurt	-10.605
▁demons	-10.605
▁molest	-10.6053
ennes	-10.6053
▁milk	-10.6053
rose	-10.6056
▁brook	-10.6057
▁rerun	-10.6057
scend	-10.6062
▁lev	-10.6062
ifying	-10.6064
▁chest	-10.6067
▁lar	-10.6074
▁vain	-10.6079
inking	-10.608
assum	-10.6085
relate	-10.6091
htick	-10.6098
▁frag	-10.61
▁paradi	-10.6119
vid	-10.6123
generat	-10.6146
▁uncle	-10.6146
▁assur	-10.6147
sca	-10.616
▁viv	-10.616
ronic	-10.6186
plate	-10.6244
iac	-10.6257
aga	-10.6265
▁brother	-10.6292
▁affl	-10.6299
sympath	-10.63
blood	-10.6301
fight	-10.6301
▁pill	-10.6311
▁mol	-10.6316
▁vac	-10.6325
opa	-10.6335
withstand	-10.6353
99	-10.6377
▁mode	-10.6454
judgment	-10.6464
▁backdrop	-10.6464
▁bruckheimer	-10.6464
▁exasperat	-10.6464
▁negative	-10.6464
▁obsessive	-10.6464
▁optimis	-10.6464
▁squeeze	-10.6464
▁attack	-10.6464
▁elizabeth	-10.6464
▁hypnotic	-10.6464
▁liberti	-10.6464
▁kahlo	-10.6464
▁trope	-10.6464
rospect	-10.6464
▁loop	-10.6464
▁loath	-10.6465
▁consequence	-10.6465
▁admitted	-10.6467
▁reef	-10.6467
▁medium	-10.6467
▁adorabl	-10.6469
▁concoction	-10.6469
▁physic	-10.6472
▁interminabl	-10.6472
▁unknow	-10.6478
▁assume	-10.648
▁vol	-10.6486
model	-10.6491
▁package	-10.6492
atric	-10.6492
kilt	-10.6495
▁vig	-10.6497
▁vein	-10.65
▁goofi	-10.6501
▁mcdo	-10.6509
▁devote	-10.651
▁snap	-10.6535
▁jell	-10.655
tail	-10.6555
▁noticeabl	-10.6558
ruff	-10.6567
▁hall	-10.658
rupt	-10.6588
attan	-10.6592
▁rape	-10.6642
arter	-10.6658
ooper	-10.6695
▁blo	-10.6748
tub	-10.6749
brow	-10.6751
▁overuse	-10.6756
watch	-10.6758
hasti	-10.6763
▁shu	-10.6775
▁derri	-10.6792
▁moron	-10.6795
reward	-10.6802
▁define	-10.6809
▁aff	-10.6867
▁captivate	-10.6898
▁conversation	-10.6898
▁elbow	-10.6898
▁transport	-10.6898
▁valiant	-10.6898
delusion	-10.6898
▁assault	-10.6898
▁matinee	-10.6898
▁pepper	-10.6898
▁europe	-10.6898
▁procedur	-10.6898
▁casual	-10.6898
▁repell	-10.6898
▁feather	-10.6899
ological	-10.6899
▁kinetic	-10.6899
▁accident	-10.6899
esteem	-10.6899
▁awaken	-10.69
lient	-10.69
▁subtext	-10.6901
▁bath	-10.6901
▁retro	-10.6901
▁virtuos	-10.6902
▁audi	-10.6903
▁audacious	-10.6903
▁stagger	-10.6904
eptic	-10.6907
▁ethic	-10.6908
litter	-10.6908
▁possess	-10.691
▁courageous	-10.6912
▁bruc	-10.6912
▁distraction	-10.6915
▁temp	-10.6915
cumbers	-10.6915
entional	-10.6916
▁jew	-10.6919
▁dramatiz	-10.6919
hekh	-10.6919
▁bounc	-10.6926
▁nail	-10.6926
▁crackle	-10.6929
istress	-10.6932
▁unconv	-10.6939
▁patch	-10.694
entist	-10.6944
timid	-10.6964
▁rott	-10.6989
rail	-10.7019
▁featur	-10.7022
▁fizz	-10.7057
▁tune	-10.7057
▁refu	-10.7062
▁hust	-10.7103
▁confiden	-10.7142
▁significan	-10.7142
rocit	-10.7197
▁ferr	-10.7209
member	-10.7228
effect	-10.7233
cast	-10.7235
▁precis	-10.726
▁fanc	-10.7279
vating	-10.7281
zene	-10.7294
▁stifl	-10.7313
▁innu	-10.732
china	-10.7322
▁geni	-10.733
underst	-10.7334
▁wallo	-10.7336
note	-10.7339
depre	-10.7351
stitut	-10.7351
jumb	-10.7352
eign	-10.7352
uzz	-10.7352
▁convolut	-10.7353
▁hypocri	-10.7353
▁schneider	-10.7353
▁conduct	-10.7353
▁crank	-10.7353
▁disquieting	-10.7353
▁economic	-10.7353
▁infectious	-10.7353
▁practical	-10.7353
▁speculati	-10.7353
▁subtitle	-10.7353
▁unrelenting	-10.7353
▁corrupt	-10.7353
▁grasp	-10.7353
▁rigor	-10.7353
▁influence	-10.7353
▁mountain	-10.7353
▁scoop	-10.7353
▁bask	-10.7353
▁emphasize	-10.7353
accid	-10.7353
▁farcical	-10.7353
▁leather	-10.7353
▁rubb	-10.7353
▁fault	-10.7353
▁mourn	-10.7353
▁western	-10.7353
▁tarant	-10.7353
▁detach	-10.7353
▁insecur	-10.7353
digest	-10.7354
▁attach	-10.7354
▁dedicat	-10.7355
inister	-10.7355
▁israel	-10.7355
▁riot	-10.7355
nourish	-10.7356
▁rumination	-10.7356
12-	-10.7357
▁hart	-10.736
▁jumble	-10.736
ordan	-10.736
▁harris	-10.736
▁pollut	-10.7363
▁defian	-10.7363
▁damon	-10.7363
▁hotel	-10.7365
▁maj	-10.7367
▁glu	-10.7369
promot	-10.7373
▁flail	-10.7373
▁ooz	-10.7373
▁hyper	-10.7381
▁jona	-10.7395
▁distan	-10.7397
▁boundar	-10.7397
preserv	-10.7404
numer	-10.7415
ensure	-10.7424
▁michel	-10.7425
▁schm	-10.7429
abbi	-10.743
▁budd	-10.745
▁faci	-10.7487
▁carpe	-10.7489
hip	-10.7541
▁etc	-10.7542
▁demonstrat	-10.7546
▁brillian	-10.7619
nny	-10.7642
existent	-10.7647
▁suitabl	-10.77
▁fix	-10.7712
realize	-10.7719
nonsens	-10.7729
doubt	-10.773
game	-10.7732
child	-10.7735
tape	-10.7749
▁dear	-10.7756
▁blu	-10.779
▁repetiti	-10.7814
▁access	-10.7815
▁anticipat	-10.7829
associat	-10.7829
▁ancient	-10.7829
▁calculat	-10.7829
▁encompass	-10.7829
▁irreparabl	-10.7829
▁italicize	-10.7829
▁jaglom	-10.7829
▁plagu	-10.7829
▁principal	-10.7829
▁slim	-10.7829
▁suffocat	-10.7829
▁technique	-10.7829
▁demographic	-10.7829
▁misanthrop	-10.7829
fifteen	-10.7829
▁stitch	-10.7829
▁substitute	-10.7829
▁clunk	-10.7829
▁librar	-10.7829
▁spiff	-10.7829
▁pump	-10.7829
▁lobby	-10.7829
▁leap	-10.7829
▁steam	-10.7829
▁media	-10.783
▁tank	-10.783
▁sermon	-10.783
pulse	-10.783
▁loyal	-10.7831
▁robust	-10.7831
▁terrorist	-10.7832
▁flashback	-10.7832
▁sneer	-10.7832
hump	-10.7834
▁flip	-10.7838
▁crave	-10.7841
▁recall	-10.7841
▁odor	-10.7842
▁aisle	-10.7843
▁plung	-10.7847
▁bluster	-10.7847
▁month	-10.7849
▁glum	-10.7849
▁undermin	-10.7851
▁seal	-10.7858
▁foll	-10.7859
hitchcockian	-10.786
dium	-10.7866
hammer	-10.7873
appearing	-10.7876
kov	-10.7937
nette	-10.7944
▁bogg	-10.7978
▁sloppi	-10.7986
phant	-10.8004
▁redundanc	-10.8029
zel	-10.8068
▁predic	-10.8088
embrac	-10.8089
▁devo	-10.8108
ckles	-10.8159
garde	-10.8162
describ	-10.8195
road	-10.8209
later	-10.8223
umbling	-10.8234
ective	-10.8249
ground	-10.8252
balance	-10.8257
natural	-10.8258
deserve	-10.8258
comedy	-10.8269
camp	-10.8278
▁uncon	-10.8287
▁tang	-10.8318
reak	-10.8319
▁unimagina	-10.8328
▁monument	-10.8329
▁exhaust	-10.8329
▁zipp	-10.8329
critiqu	-10.8329
▁deprav	-10.8329
▁histrionic	-10.8329
▁meticulous	-10.8329
▁piercing	-10.8329
▁reassuring	-10.8329
▁signpost	-10.8329
▁unapologetic	-10.8329
▁unmentionable	-10.8329
▁victori	-10.8329
▁rhapsodi	-10.8329
▁schizo	-10.8329
▁crummy	-10.8329
▁morbid	-10.8329
▁responsibilit	-10.8329
▁accumulate	-10.8329
▁expand	-10.8329
▁tactic	-10.8329
▁discord	-10.8329
▁silver	-10.8329
▁mount	-10.8329
▁amoral	-10.8329
▁cathar	-10.8329
▁ugli	-10.833
▁terminal	-10.833
▁candid	-10.833
▁lecture	-10.833
broil	-10.8331
▁consol	-10.8332
▁burge	-10.8332
▁tempting	-10.8333
▁pander	-10.8334
ympto	-10.8337
▁ballistic	-10.8337
▁bias	-10.8339
▁21	-10.8342
▁drain	-10.8346
udgeon	-10.8347
▁pax	-10.8352
▁sew	-10.8354
▁laid	-10.8355
▁100	-10.8355
awd	-10.8357
▁react	-10.8359
mugg	-10.8361
▁floo	-10.8364
ledge	-10.8379
▁antoni	-10.8383
▁maca	-10.8389
▁clash	-10.8394
▁compa	-10.8403
▁protect	-10.841
▁creepi	-10.8453
▁expose	-10.8468
flatter	-10.8469
▁cheesie	-10.8511
awk	-10.8525
▁sorr	-10.8539
▁stretch	-10.8558
▁tack	-10.8581
▁pai	-10.8605
▁resembl	-10.8681
▁devastat	-10.8702
sack	-10.8734
▁rh	-10.8749
▁sport	-10.8766
figur	-10.8797
sleep	-10.8813
wind	-10.8815
white	-10.8819
▁monst	-10.8824
flick	-10.8825
limit	-10.8831
▁basi	-10.884
know	-10.8849
▁intellect	-10.8855
▁miscalculat	-10.8855
▁brawn	-10.8855
▁chicago	-10.8855
▁choreograph	-10.8855
▁contrast	-10.8855
▁interpret	-10.8855
▁kitchen	-10.8855
▁orchestrat	-10.8855
▁sabotage	-10.8855
▁shriek	-10.8855
▁elicit	-10.8855
▁insufferabl	-10.8855
▁philip	-10.8855
▁didactic	-10.8855
▁hysteri	-10.8855
▁pitiful	-10.8855
▁multiple	-10.8855
▁churn	-10.8855
▁cleav	-10.8855
trospective	-10.8855
▁prince	-10.8855
▁round	-10.8856
▁pluck	-10.8856
▁yawn	-10.8856
▁amaze	-10.8856
▁address	-10.8856
▁peek	-10.8856
▁roug	-10.8856
▁echo	-10.8856
▁impart	-10.8856
sleaz	-10.8856
aniel	-10.8856
▁scientist	-10.8857
broad	-10.8857
adorn	-10.8857
▁schlock	-10.8857
▁padd	-10.8858
▁propos	-10.8859
▁julia	-10.8861
medical	-10.8863
▁sweat	-10.8863
▁curve	-10.8864
kno	-10.8864
▁indicati	-10.8864
▁intact	-10.8867
aggra	-10.8867
▁griev	-10.8869
▁highlight	-10.887
urgeo	-10.8872
▁retain	-10.8876
▁hide	-10.8877
inoche	-10.8877
worn	-10.8878
luke	-10.8881
crib	-10.8881
laugh	-10.8884
llusion	-10.8885
▁menac	-10.8894
▁lew	-10.8895
erox	-10.8903
▁update	-10.8916
grant	-10.8924
lick	-10.8928
implicit	-10.894
scient	-10.8961
▁hurr	-10.8972
religio	-10.9006
duck	-10.9013
ritter	-10.903
▁miserabl	-10.9059
aunt	-10.9102
cooper	-10.9118
▁flabb	-10.9123
rches	-10.9127
▁oversta	-10.9132
▁deserv	-10.9187
▁object	-10.9194
avish	-10.9216
▁overwhelm	-10.9256
▁devi	-10.9257
ridge	-10.9277
▁comprehen	-10.9283
oldi	-10.929
▁tea	-10.9363
oast	-10.9382
▁stylist	-10.9386
intention	-10.9398
dream	-10.9402
compelling	-10.9404
▁contemplati	-10.9411
▁camouflag	-10.9411
▁disintegrat	-10.9411
▁dutiful	-10.9411
▁explode	-10.9411
▁fundamental	-10.9411
▁infatuat	-10.9411
▁inquisitive	-10.9411
▁megaplex	-10.9411
▁prejudice	-10.9411
▁principle	-10.9411
▁retaliat	-10.9411
▁solemn	-10.9411
▁excel	-10.9411
▁accuse	-10.9411
▁grateful	-10.9411
▁scandal	-10.9411
▁adher	-10.9411
▁command	-10.9411
▁siege	-10.9411
opher	-10.9411
▁impos	-10.9411
▁travail	-10.9412
▁banter	-10.9412
▁impulse	-10.9412
▁knee	-10.9412
tute	-10.9413
▁spotlight	-10.9413
ibal	-10.9413
▁sanctimonious	-10.9413
boiler	-10.9413
▁compulsive	-10.9413
▁dana	-10.9414
▁gray	-10.9414
▁bartle	-10.9415
▁hawk	-10.9415
▁competi	-10.9415
▁clamor	-10.9417
float	-10.9417
lapse	-10.9418
shatter	-10.9418
▁narc	-10.942
▁hint	-10.9421
▁greas	-10.9423
▁zeal	-10.9423
▁merge	-10.9425
▁lodg	-10.9428
▁wig	-10.9429
▁ironi	-10.9429
▁lark	-10.9429
lilo	-10.943
damm	-10.9442
▁ambiguit	-10.9443
ographic	-10.9449
▁fade	-10.9449
▁humili	-10.9457
▁masse	-10.9467
▁underscor	-10.9526
▁restrain	-10.9547
▁fixat	-10.9553
▁maze	-10.9612
digre	-10.9692
▁balanc	-10.9708
▁gib	-10.9834
ounce	-10.9963
▁depict	-10.9986
funct	-10.9987
▁audaci	-10.9997
congratulat	-10.9999
▁discuss	-10.9999
sufficient	-10.9999
▁arrogan	-10.9999
▁champion	-10.9999
▁credul	-10.9999
▁haphazard	-10.9999
▁installment	-10.9999
▁oppressive	-10.9999
▁recognizabl	-10.9999
▁thread	-10.9999
▁unblinking	-10.9999
ordinate	-10.9999
▁church	-10.9999
▁conquer	-10.9999
▁defensi	-10.9999
▁razz	-10.9999
▁volume	-10.9999
▁pearl	-10.9999
▁illogic	-10.9999
limina	-10.9999
▁kitten	-10.9999
▁unleashe	-10.9999
▁recreat	-10.9999
▁compen	-10.9999
▁contempt	-10.9999
▁pink	-11
▁kenne	-11
▁revisionis	-11
▁tendenc	-11
invigorat	-11
▁slipper	-11.0001
italize	-11.0001
▁fumble	-11.0003
▁extensi	-11.0004
ummy	-11.0005
▁acid	-11.0007
▁compassionate	-11.0008
▁calibr	-11.0009
▁hank	-11.0009
▁pipe	-11.001
ganda	-11.001
▁hitler	-11.001
▁debt	-11.0011
▁futil	-11.0018
▁schem	-11.0019
authentic	-11.0025
examin	-11.0027
satisfying	-11.0028
memor	-11.0028
family	-11.0029
russel	-11.0041
session	-11.0113
▁sooth	-11.0138
▁olive	-11.0165
▁despi	-11.0285
▁incl	-11.044
notic	-11.0445
ograph	-11.0508
▁animat	-11.051
▁disguis	-11.0545
vili	-11.0579
▁smoo	-11.0579
▁craftsm	-11.0622
quisite	-11.0623
▁revisi	-11.0623
▁hallucin	-11.0624
▁punctuat	-11.0624
▁australia	-11.0624
▁decision	-11.0624
▁freight	-11.0624
▁government	-11.0624
▁inadequate	-11.0624
▁mumbo	-11.0624
▁olivier	-11.0624
▁tabloid	-11.0624
▁thrust	-11.0624
▁unexplain	-11.0624
▁virulent	-11.0624
clutch	-11.0624
▁bewilder	-11.0624
▁kafka	-11.0624
▁merchant	-11.0624
▁tissue	-11.0624
▁wrestl	-11.0624
▁investigat	-11.0624
▁widow	-11.0624
burden	-11.0624
▁sturdi	-11.0624
▁infantil	-11.0624
▁twinkl	-11.0624
▁cherish	-11.0624
salvage	-11.0624
belief	-11.0624
▁sociolog	-11.0624
▁drink	-11.0624
drift	-11.0624
▁falter	-11.0624
▁pupp	-11.0626
▁morris	-11.0627
▁scathing	-11.063
▁presid	-11.0631
tchie	-11.0632
trott	-11.0632
▁ingenu	-11.0633
▁resent	-11.0636
▁gull	-11.0638
▁zinger	-11.064
deadening	-11.0643
clips	-11.0659
imps	-11.0682
week	-11.0692
develop	-11.0692
credit	-11.0694
human	-11.0694
character	-11.0696
rudge	-11.07
bare	-11.07
repi	-11.0712
humaniz	-11.0719
greg	-11.0751
▁advi	-11.0863
unny	-11.0875
▁resona	-11.0903
▁degrad	-11.0929
nominat	-11.1021
▁theori	-11.1022
advise	-11.1046
ounding	-11.1071
▁surround	-11.1136
▁indulge	-11.1143
▁episod	-11.1143
mpo	-11.1185
cath	-11.1193
▁margin	-11.1221
▁decide	-11.1225
reserv	-11.1235
▁hitchcock	-11.1247
▁appreciat	-11.125
▁numb	-11.1272
▁sanctimon	-11.1288
ontaine	-11.129
▁beloved	-11.1291
▁bollywood	-11.1291
▁canadian	-11.1291
▁circle	-11.1291
▁griffith	-11.1291
▁nonconformi	-11.1291
▁opposite	-11.1291
▁reducti	-11.1291
▁rodrigue	-11.1291
▁telegraph	-11.1291
▁thornberry	-11.1291
▁rigid	-11.1291
▁schaef	-11.1291
▁snail	-11.1291
precedent	-11.1291
▁muscle	-11.1291
▁tread	-11.1291
ligib	-11.1291
▁abundant	-11.1291
▁imbue	-11.1291
▁bogdan	-11.1291
▁freud	-11.1291
achron	-11.1291
▁updating	-11.1292
▁plumme	-11.1292
▁cultivat	-11.1292
▁sensu	-11.1293
▁matte	-11.1293
pawn	-11.1293
▁avant	-11.1294
▁columbi	-11.1294
austin	-11.1295
▁botch	-11.1296
▁morph	-11.1298
▁label	-11.1298
▁flee	-11.1299
igate	-11.13
▁spade	-11.13
▁trembl	-11.1301
▁taut	-11.1304
▁depart	-11.1309
ougla	-11.1328
front	-11.1403
taste	-11.1404
pretentio	-11.1408
foot	-11.1408
walk	-11.1409
hei	-11.1482
talker	-11.1593
statement	-11.1608
fecta	-11.1623
▁chim	-11.1632
izzle	-11.1789
▁burr	-11.1847
▁educat	-11.1867
euv	-11.1897
▁actua	-11.1942
▁quali	-11.1954
