{
  "version": "1.0",
  "truncation": null,
  "padding": null,
  "added_tokens": [
    {
      "id": 0,
      "content": "[PAD]",
      "single_word": false,
      "lstrip": false,
      "rstrip": false,
      "normalized": false,
      "special": true
    },
    {
      "id": 1,
      "content": "[UNK]",
      "single_word": false,
      "lstrip": false,
      "rstrip": false,
      "normalized": false,
      "special": true
    },
    {
      "id": 2,
      "content": "[CLS]",
      "single_word": false,
      "lstrip": false,
      "rstrip": false,
      "normalized": false,
      "special": true
    },
    {
      "id": 3,
      "content": "[MASK]",
      "single_word": false,
      "lstrip": false,
      "rstrip": false,
      "normalized": false,
      "special": true
    }
  ],
  "normalizer": {
    "type": "BertNormalizer",
    "clean_text": true,
    "handle_chinese_chars": true,
    "strip_accents": true,
    "lowercase": true
  },
  "pre_tokenizer": {
    "type": "Whitespace"
  },
  "post_processor": null,
  "decoder": null,
  "model": {
    "type": "BPE",
    "dropout": null,
    "unk_token": "[UNK]",
    "continuing_subword_prefix": null,
    "end_of_word_suffix": null,
    "fuse_unk": false,
    "byte_fallback": false,
    "ignore_merges": false,
    "vocab": {
      "[PAD]": 0,
      "[UNK]": 1,
      "[CLS]": 2,
      "[MASK]": 3,
      "!": 4,
      "\"": 5,
      "#": 6,
      "&": 7,
      "'": 8,
      "(": 9,
      ")": 10,
      "*": 11,
      "+": 12,
      ",": 13,
      "-": 14,
      ".": 15,
      "/": 16,
      "0": 17,
      "1": 18,
      "2": 19,
      "3": 20,
      "4": 21,
      "5": 22,
      "6": 23,
      "7": 24,
      "8": 25,
      "9": 26,
      ":": 27,
      ";": 28,
      "=": 29,
      "?": 30,
      "@": 31,
      "[": 32,
      "]": 33,
      "`": 34,
      "a": 35,
      "b": 36,
      "c": 37,
      "d": 38,
      "e": 39,
      "f": 40,
      "g": 41,
      "h": 42,
      "i": 43,
      "j": 44,
      "k": 45,
      "l": 46,
      "m": 47,
      "n": 48,
      "o": 49,
      "p": 50,
      "q": 51,
      "r": 52,
      "s": 53,
      "t": 54,
      "u": 55,
      "v": 56,
      "w": 57,
      "x": 58,
      "y": 59,
      "z": 60,
      "{": 61,
      "|": 62,
      "}": 63,
      "¥": 64,
      "¨": 65,
      "¬": 66,
      "±": 67,
      "‚": 68,
      "†": 69,
      "∂": 70,
      "√": 71,
      "he": 72,
      "the": 73,
      "in": 74,
      "an": 75,
      "re": 76,
      "and": 77,
      "on": 78,
      "ing": 79,
      "er": 80,
      "to": 81,
      "ed": 82,
      "ou": 83,
      "th": 84,
      "en": 85,
      "is": 86,
      "at": 87,
      "ar": 88,
      "as": 89,
      "of": 90,
      "le": 91,
      "al": 92,
      "st": 93,
      "or": 94,
      "it": 95,
      "se": 96,
      "ow": 97,
      "es": 98,
      "om": 99,
      "ad": 100,
      "hi": 101,
      "ac": 102,
      "wi": 103,
      "be": 104,
      "his": 105,
      "ly": 106,
      "with": 107,
      "ro": 108,
      "id": 109,
      "ll": 110,
      "ir": 111,
      "gh": 112,
      "ld": 113,
      "ch": 114,
      "sh": 115,
      "we": 116,
      "ent": 117,
      "ay": 118,
      "was": 119,
      "am": 120,
      "her": 121,
      "li": 122,
      "ut": 123,
      "ve": 124,
      "man": 125,
      "ri": 126,
      "ver": 127,
      "pe": 128,
      "un": 129,
      "she": 130,
      "for": 131,
      "up": 132,
      "ur": 133,
      "ce": 134,
      "all": 135,
      "ot": 136,
      "oun": 137,
      "that": 138,
      "ght": 139,
      "out": 140,
      "own": 141,
      "had": 142,
      "lo": 143,
      "ge": 144,
      "are": 145,
      "ther": 146,
      "ck": 147,
      "ti": 148,
      "fr": 149,
      "ter": 150,
      "mo": 151,
      "one": 152,
      "ain": 153,
      "ab": 154,
      "ap": 155,
      "him": 156,
      "op": 157,
      "ne": 158,
      "ack": 159,
      "me": 160,
      "whi": 161,
      "then": 162,
      "ho": 163,
      "ard": 164,
      "ke": 165,
      "bo": 166,
      "pl": 167,
      "fe": 168,
      "red": 169,
      "ound": 170,
      "de": 171,
      "do": 172,
      "they": 173,
      "go": 174,
      "ers": 175,
      "ag": 176,
      "ion": 177,
      "from": 178,
      "you": 179,
      "into": 180,
      "so": 181,
      "whe": 182,
      "by": 183,
      "ss": 184,
      "con": 185,
      "but": 186,
      "king": 187,
      "um": 188,
      "ould": 189,
      "fi": 190,
      "fo": 191,
      "down": 192,
      "te": 193,
      "ha": 194,
      "po": 195,
      "ide": 196,
      "other": 197,
      "il": 198,
      "gr": 199,
      "ome": 200,
      "ts": 201,
      "bl": 202,
      "ind": 203,
      "ting": 204,
      "us": 205,
      "sa": 206,
      "our": 207,
      "urn": 208,
      "wo": 209,
      "hand": 210,
      "co": 211,
      "cam": 212,
      "tr": 213,
      "--": 214,
      "qu": 215,
      "ted": 216,
      "turn": 217,
      "ul": 218,
      "back": 219,
      "way": 220,
      "not": 221,
      "them": 222,
      "wom": 223,
      "no": 224,
      "end": 225,
      "ong": 226,
      "br": 227,
      "were": 228,
      "sc": 229,
      "che": 230,
      "af": 231,
      "see": 232,
      "my": 233,
      "over": 234,
      "wh": 235,
      "et": 236,
      "peop": 237,
      "people": 238,
      "their": 239,
      "there": 240,
      "while": 241,
      "some": 242,
      "su": 243,
      "thr": 244,
      "now": 245,
      "sp": 246,
      "ast": 247,
      "woman": 248,
      "when": 249,
      "which": 250,
      "ace": 251,
      "di": 252,
      "str": 253,
      "ough": 254,
      "who": 255,
      "ex": 256,
      "tle": 257,
      "alk": 258,
      "wat": 259,
      "ight": 260,
      "ous": 261,
      "ate": 262,
      "play": 263,
      "ass": 264,
      "sel": 265,
      "went": 266,
      "two": 267,
      "pi": 268,
      "side": 269,
      "au": 270,
      "ps": 271,
      "air": 272,
      "era": 273,
      "put": 274,
      "again": 275,
      "com": 276,
      "fore": 277,
      "od": 278,
      "per": 279,
      "camera": 280,
      "sit": 281,
      "men": 282,
      "off": 283,
      "av": 284,
      "ak": 285,
      "ust": 286,
      ",\"": 287,
      "im": 288,
      "pre": 289,
      "after": 290,
      "lit": 291,
      "around": 292,
      "able": 293,
      "if": 294,
      "said": 295,
      "this": 296,
      "ward": 297,
      "have": 298,
      "el": 299,
      "self": 300,
      "dis": 301,
      "car": 302,
      "ped": 303,
      "head": 304,
      "beg": 305,
      "ess": 306,
      ".\"": 307,
      "ach": 308,
      "ine": 309,
      "cont": 310,
      "wor": 311,
      "stand": 312,
      "par": 313,
      "arm": 314,
      "ill": 315,
      "ok": 316,
      "ation": 317,
      "turned": 318,
      "room": 319,
      "cl": 320,
      "gre": 321,
      "ure": 322,
      "fl": 323,
      "ey": 324,
      "spe": 325,
      "little": 326,
      "ant": 327,
      "would": 328,
      "ite": 329,
      "cr": 330,
      "thing": 331,
      "more": 332,
      "pro": 333,
      "clo": 334,
      "der": 335,
      "dr": 336,
      "seen": 337,
      "ct": 338,
      "ic": 339,
      "shown": 340,
      "before": 341,
      "ep": 342,
      "very": 343,
      "walk": 344,
      "its": 345,
      "ang": 346,
      "ft": 347,
      "pers": 348,
      "gir": 349,
      "ol": 350,
      "hed": 351,
      "about": 352,
      "sm": 353,
      "ving": 354,
      "ame": 355,
      "door": 356,
      "girl": 357,
      "been": 358,
      "ows": 359,
      "ue": 360,
      "tor": 361,
      "ance": 362,
      "ved": 363,
      "away": 364,
      "ves": 365,
      "gl": 366,
      "ning": 367,
      "ave": 368,
      "water": 369,
      "like": 370,
      "ree": 371,
      "ick": 372,
      "contin": 373,
      "person": 374,
      "ball": 375,
      "ren": 376,
      "ses": 377,
      "another": 378,
      "ven": 379,
      "les": 380,
      "ig": 381,
      "aw": 382,
      "ins": 383,
      "run": 384,
      "age": 385,
      "through": 386,
      "ady": 387,
      "ought": 388,
      "alking": 389,
      "pr": 390,
      "light": 391,
      "upon": 392,
      "boy": 393,
      "mar": 394,
      "hold": 395,
      "pu": 396,
      "day": 397,
      "face": 398,
      "ars": 399,
      "ment": 400,
      "ath": 401,
      "open": 402,
      "hor": 403,
      "mr": 404,
      "where": 405,
      "long": 406,
      "sl": 407,
      "ful": 408,
      "time": 409,
      "hands": 410,
      "aking": 411,
      "cle": 412,
      "old": 413,
      "let": 414,
      "left": 415,
      "sto": 416,
      "sever": 417,
      "eyes": 418,
      "several": 419,
      "ried": 420,
      "set": 421,
      "ping": 422,
      "pass": 423,
      "ty": 424,
      "ink": 425,
      "sat": 426,
      "how": 427,
      "form": 428,
      "vi": 429,
      "shi": 430,
      "ble": 431,
      "could": 432,
      "sk": 433,
      "anc": 434,
      "ont": 435,
      "ish": 436,
      "sho": 437,
      "well": 438,
      "can": 439,
      "star": 440,
      "table": 441,
      "what": 442,
      "chi": 443,
      "jum": 444,
      "black": 445,
      "ence": 446,
      "tain": 447,
      "new": 448,
      "ally": 449,
      "ious": 450,
      "ake": 451,
      "oung": 452,
      "playing": 453,
      "ple": 454,
      "ste": 455,
      "ten": 456,
      "young": 457,
      "standing": 458,
      "ber": 459,
      "tion": 460,
      "continu": 461,
      "ans": 462,
      "ross": 463,
      "ated": 464,
      "front": 465,
      "bre": 466,
      "hou": 467,
      "cor": 468,
      "did": 469,
      "should": 470,
      "wind": 471,
      "xt": 472,
      "any": 473,
      "lled": 474,
      "dre": 475,
      "white": 476,
      "med": 477,
      "himself": 478,
      "hind": 479,
      "ail": 480,
      "bu": 481,
      "dd": 482,
      "bed": 483,
      "sent": 484,
      "scre": 485,
      "ru": 486,
      "jo": 487,
      "fir": 488,
      "behind": 489,
      "get": 490,
      "going": 491,
      "sitting": 492,
      "gi": 493,
      "under": 494,
      "led": 495,
      "stre": 496,
      "fin": 497,
      "board": 498,
      "hair": 499,
      "mon": 500,
      "!\"": 501,
      "bar": 502,
      "flo": 503,
      "llow": 504,
      "ds": 505,
      "right": 506,
      "just": 507,
      "ling": 508,
      "ity": 509,
      "ice": 510,
      "ather": 511,
      "will": 512,
      "still": 513,
      "em": 514,
      "house": 515,
      "cli": 516,
      "round": 517,
      "rid": 518,
      "bro": 519,
      "ser": 520,
      "appe": 521,
      "ye": 522,
      "less": 523,
      "ank": 524,
      "great": 525,
      "arge": 526,
      "gu": 527,
      "pt": 528,
      "iss": 529,
      "tre": 530,
      "ched": 531,
      "along": 532,
      "holding": 533,
      "ry": 534,
      "eld": 535,
      "lady": 536,
      "only": 537,
      "first": 538,
      "des": 539,
      "tri": 540,
      "toward": 541,
      "look": 542,
      "mor": 543,
      "dar": 544,
      "pped": 545,
      "once": 546,
      "owing": 547,
      "next": 548,
      "screen": 549,
      "night": 550,
      "has": 551,
      "ness": 552,
      "ise": 553,
      "talking": 554,
      "rest": 555,
      "even": 556,
      "sur": 557,
      "ground": 558,
      "continues": 559,
      "cks": 560,
      "cap": 561,
      "fall": 562,
      "mat": 563,
      "ist": 564,
      "dog": 565,
      "dy": 566,
      "most": 567,
      "ran": 568,
      "aring": 569,
      "begins": 570,
      "ung": 571,
      "dro": 572,
      "got": 573,
      "ared": 574,
      "say": 575,
      "land": 576,
      "lay": 577,
      "large": 578,
      "ner": 579,
      "ort": 580,
      "dri": 581,
      "hal": 582,
      "shot": 583,
      "your": 584,
      "cour": 585,
      "every": 586,
      "child": 587,
      "aid": 588,
      "bet": 589,
      "cau": 590,
      "mi": 591,
      "sw": 592,
      "mu": 593,
      "?\"": 594,
      "here": 595,
      "toge": 596,
      "together": 597,
      "ered": 598,
      "int": 599,
      "grou": 600,
      "talk": 601,
      "ni": 602,
      "wood": 603,
      "cked": 604,
      "last": 605,
      "than": 606,
      "small": 607,
      "ating": 608,
      "field": 609,
      "stru": 610,
      "min": 611,
      "across": 612,
      "ef": 613,
      "being": 614,
      "ci": 615,
      "mom": 616,
      "horse": 617,
      "cut": 618,
      "cur": 619,
      "thought": 620,
      "moment": 621,
      "coun": 622,
      "might": 623,
      "sil": 624,
      "tom": 625,
      "du": 626,
      "ching": 627,
      "ies": 628,
      "wa": 629,
      "each": 630,
      "wall": 631,
      "three": 632,
      "speaking": 633,
      "je": 634,
      "group": 635,
      "ked": 636,
      "dden": 637,
      "cat": 638,
      "ction": 639,
      "walks": 640,
      "too": 641,
      "ob": 642,
      "ose": 643,
      "ra": 644,
      "ings": 645,
      "ends": 646,
      "boat": 647,
      "good": 648,
      "cer": 649,
      "don": 650,
      "know": 651,
      "art": 652,
      "bow": 653,
      "cre": 654,
      "ale": 655,
      "low": 656,
      "against": 657,
      "arms": 658,
      "passed": 659,
      "ches": 660,
      "akes": 661,
      "ged": 662,
      "ive": 663,
      "sed": 664,
      "pan": 665,
      "feet": 666,
      "half": 667,
      "close": 668,
      "sing": 669,
      "dark": 670,
      "bi": 671,
      "app": 672,
      "fell": 673,
      "blue": 674,
      "shir": 675,
      "res": 676,
      "..": 677,
      "ssed": 678,
      "began": 679,
      "mes": 680,
      "place": 681,
      "try": 682,
      "sudden": 683,
      "floor": 684,
      "tic": 685,
      "ily": 686,
      "walking": 687,
      "inter": 688,
      "fac": 689,
      "chair": 690,
      "wr": 691,
      "high": 692,
      "cas": 693,
      "snow": 694,
      "ached": 695,
      "ents": 696,
      "found": 697,
      "gone": 698,
      "same": 699,
      "var": 700,
      "gy": 701,
      "ever": 702,
      "few": 703,
      "att": 704,
      "lead": 705,
      "leg": 706,
      "est": 707,
      "without": 708,
      "til": 709,
      "hes": 710,
      "seemed": 711,
      "top": 712,
      "running": 713,
      "slow": 714,
      "sup": 715,
      "smo": 716,
      "read": 717,
      "col": 718,
      "returned": 719,
      "moun": 720,
      "brought": 721,
      "mer": 722,
      "qui": 723,
      "puts": 724,
      "never": 725,
      "came": 726,
      "aves": 727,
      "sle": 728,
      "sun": 729,
      "add": 730,
      "fri": 731,
      "hour": 732,
      "body": 733,
      "ear": 734,
      "ened": 735,
      "wearing": 736,
      "fire": 737,
      "shirt": 738,
      "cted": 739,
      "lau": 740,
      "rent": 741,
      "az": 742,
      "ary": 743,
      "shows": 744,
      "opened": 745,
      "cu": 746,
      "perform": 747,
      "riding": 748,
      "ff": 749,
      "though": 750,
      "hu": 751,
      "these": 752,
      "shed": 753,
      "nor": 754,
      "vo": 755,
      "hel": 756,
      "heard": 757,
      "eng": 758,
      "lif": 759,
      "plac": 760,
      "si": 761,
      "pain": 762,
      "roll": 763,
      "near": 764,
      "tu": 765,
      "until": 766,
      "walked": 767,
      "four": 768,
      "bru": 769,
      "ph": 770,
      "ished": 771,
      "forward": 772,
      "ures": 773,
      "crow": 774,
      "lips": 775,
      "move": 776,
      "far": 777,
      "kne": 778,
      "pap": 779,
      "row": 780,
      "swi": 781,
      "foot": 782,
      "used": 783,
      "dif": 784,
      "work": 785,
      "various": 786,
      "onto": 787,
      "mrs": 788,
      "ready": 789,
      "ene": 790,
      "miss": 791,
      "both": 792,
      "suddenly": 793,
      "must": 794,
      "moving": 795,
      "fu": 796,
      "hur": 797,
      "rose": 798,
      "road": 799,
      "ca": 800,
      "sand": 801,
      "ering": 802,
      "much": 803,
      "home": 804,
      "mas": 805,
      "tow": 806,
      "many": 807,
      "bes": 808,
      "bot": 809,
      "stick": 810,
      "game": 811,
      "quick": 812,
      "aving": 813,
      "morning": 814,
      "moved": 815,
      "ring": 816,
      "abo": 817,
      "soon": 818,
      "danc": 819,
      "fle": 820,
      "ween": 821,
      "between": 822,
      "ced": 823,
      "outh": 824,
      "tem": 825,
      "stu": 826,
      "doing": 827,
      "women": 828,
      "ange": 829,
      "lt": 830,
      "vent": 831,
      "ster": 832,
      "hill": 833,
      "part": 834,
      "caught": 835,
      "loo": 836,
      "ign": 837,
      "towards": 838,
      "arri": 839,
      "ade": 840,
      "cho": 841,
      "river": 842,
      "does": 843,
      "goes": 844,
      "using": 845,
      "dist": 846,
      "times": 847,
      "ek": 848,
      "may": 849,
      "ash": 850,
      "crowd": 851,
      "return": 852,
      "those": 853,
      "moves": 854,
      "gym": 855,
      "father": 856,
      "ised": 857,
      "wait": 858,
      "line": 859,
      "mid": 860,
      "almost": 861,
      "stands": 862,
      "fing": 863,
      "continue": 864,
      "thre": 865,
      "outside": 866,
      "fully": 867,
      "hard": 868,
      "mb": 869,
      "life": 870,
      "something": 871,
      "ew": 872,
      "gent": 873,
      "ord": 874,
      "street": 875,
      "ces": 876,
      "swe": 877,
      "vide": 878,
      "ley": 879,
      "als": 880,
      "entered": 881,
      "lip": 882,
      "hit": 883,
      "hun": 884,
      "begin": 885,
      "reached": 886,
      "step": 887,
      "ower": 888,
      "done": 889,
      "vered": 890,
      "present": 891,
      "video": 892,
      "gave": 893,
      "ton": 894,
      "ions": 895,
      "others": 896,
      "diffe": 897,
      "lin": 898,
      "posit": 899,
      "carried": 900,
      "words": 901,
      "ters": 902,
      "main": 903,
      "team": 904,
      "cal": 905,
      "ie": 906,
      "pie": 907,
      "jumps": 908,
      "cent": 909,
      "lat": 910,
      "vis": 911,
      "stair": 912,
      "speak": 913,
      "smi": 914,
      "view": 915,
      "cess": 916,
      "rope": 917,
      "tell": 918,
      "bit": 919,
      "sid": 920,
      "mother": 921,
      "tered": 922,
      "boys": 923,
      "shots": 924,
      "looking": 925,
      "green": 926,
      "tit": 927,
      "herself": 928,
      "such": 929,
      "son": 930,
      "ince": 931,
      "think": 932,
      "iling": 933,
      "paper": 934,
      "blo": 935,
      "ctor": 936,
      "iz": 937,
      "ming": 938,
      "yard": 939,
      "pull": 940,
      "starts": 941,
      "fast": 942,
      "pri": 943,
      "ates": 944,
      "also": 945,
      "fort": 946,
      "pur": 947,
      "ways": 948,
      "word": 949,
      "above": 950,
      "care": 951,
      "squ": 952,
      "inst": 953,
      "different": 954,
      "cup": 955,
      "ken": 956,
      "sound": 957,
      "ond": 958,
      "chang": 959,
      "having": 960,
      "girls": 961,
      "takes": 962,
      "yet": 963,
      "cket": 964,
      "ship": 965,
      "leave": 966,
      "ended": 967,
      "window": 968,
      "big": 969,
      "pat": 970,
      "ase": 971,
      "pict": 972,
      "cou": 973,
      "dle": 974,
      "find": 975,
      "heav": 976,
      "shall": 977,
      "till": 978,
      "ending": 979,
      "band": 980,
      "come": 981,
      "oc": 982,
      "ud": 983,
      "met": 984,
      "dire": 985,
      "awn": 986,
      "cir": 987,
      "aps": 988,
      "val": 989,
      "press": 990,
      "break": 991,
      "gg": 992,
      "spo": 993,
      "follow": 994,
      "hat": 995,
      "lad": 996,
      "ris": 997,
      "won": 998,
      "spr": 999,
      "eye": 1000,
      "dropped": 1001,
      "fre": 1002,
      "watch": 1003,
      "leads": 1004,
      "brush": 1005,
      "mach": 1006,
      "por": 1007,
      "ately": 1008,
      "clean": 1009,
      "jump": 1010,
      "held": 1011,
      "alone": 1012,
      "mouth": 1013,
      "iled": 1014,
      "glass": 1015,
      "talks": 1016,
      "kit": 1017,
      "sof": 1018,
      "box": 1019,
      "nothing": 1020,
      "rub": 1021,
      "court": 1022,
      "minut": 1023,
      "slowly": 1024,
      "sleep": 1025,
      "gard": 1026,
      "knew": 1027,
      "ane": 1028,
      "stri": 1029,
      "covered": 1030,
      "ian": 1031,
      "mind": 1032,
      "past": 1033,
      "inside": 1034,
      "rece": 1035,
      "sea": 1036,
      "days": 1037,
      "oud": 1038,
      "offi": 1039,
      "rock": 1040,
      "throws": 1041,
      "mot": 1042,
      "nat": 1043,
      "forth": 1044,
      "gets": 1045,
      "filled": 1046,
      "bring": 1047,
      "laugh": 1048,
      "call": 1049,
      "runs": 1050,
      "horses": 1051,
      "voice": 1052,
      "bat": 1053,
      "bur": 1054,
      "ga": 1055,
      "har": 1056,
      "ms": 1057,
      "rap": 1058,
      "tree": 1059,
      "lean": 1060,
      "putting": 1061,
      "shook": 1062,
      "yellow": 1063,
      "bri": 1064,
      "fur": 1065,
      "pen": 1066,
      "told": 1067,
      "ma": 1068,
      "war": 1069,
      "dead": 1070,
      "things": 1071,
      "tory": 1072,
      "dressed": 1073,
      "full": 1074,
      "laid": 1075,
      "tly": 1076,
      "stage": 1077,
      "keep": 1078,
      "plain": 1079,
      "cond": 1080,
      "friend": 1081,
      "happ": 1082,
      "heart": 1083,
      "jack": 1084,
      "lu": 1085,
      "uring": 1086,
      "turns": 1087,
      "closed": 1088,
      "appeared": 1089,
      "struck": 1090,
      "quickly": 1091,
      "na": 1092,
      "pour": 1093,
      "shar": 1094,
      "short": 1095,
      "children": 1096,
      "legs": 1097,
      "threw": 1098,
      "cy": 1099,
      "ls": 1100,
      "ently": 1101,
      "stairs": 1102,
      "uses": 1103,
      "asked": 1104,
      "lie": 1105,
      "course": 1106,
      "cause": 1107,
      "town": 1108,
      "bor": 1109,
      "ids": 1110,
      "broke": 1111,
      "distance": 1112,
      "ned": 1113,
      "use": 1114,
      "ons": 1115,
      "ener": 1116,
      "grass": 1117,
      "els": 1118,
      "cast": 1119,
      "cross": 1120,
      "pair": 1121,
      "wild": 1122,
      "beach": 1123,
      "sub": 1124,
      "stra": 1125,
      "watching": 1126,
      "monstr": 1127,
      "captain": 1128,
      "vol": 1129,
      "carry": 1130,
      "steps": 1131,
      "glo": 1132,
      "ible": 1133,
      "hear": 1134,
      "grab": 1135,
      "mus": 1136,
      "sol": 1137,
      "chen": 1138,
      "drum": 1139,
      "certain": 1140,
      "--\"": 1141,
      "ult": 1142,
      "selves": 1143,
      "bike": 1144,
      "remain": 1145,
      "leaves": 1146,
      "why": 1147,
      "throw": 1148,
      "holds": 1149,
      "appears": 1150,
      "changed": 1151,
      "bal": 1152,
      "dance": 1153,
      "num": 1154,
      "pans": 1155,
      "sal": 1156,
      "ined": 1157,
      "thin": 1158,
      "bell": 1159,
      "appro": 1160,
      "track": 1161,
      "mix": 1162,
      "gentle": 1163,
      "port": 1164,
      "vid": 1165,
      "among": 1166,
      "ney": 1167,
      "pose": 1168,
      "bled": 1169,
      "ously": 1170,
      "start": 1171,
      "city": 1172,
      "hang": 1173,
      "ens": 1174,
      "ket": 1175,
      "plays": 1176,
      "ments": 1177,
      "machine": 1178,
      "straight": 1179,
      "fly": 1180,
      "gar": 1181,
      "ors": 1182,
      "rolled": 1183,
      "shut": 1184,
      "demonstr": 1185,
      "pool": 1186,
      "kitchen": 1187,
      "bas": 1188,
      "cri": 1189,
      "ger": 1190,
      "ither": 1191,
      "sli": 1192,
      "act": 1193,
      "unk": 1194,
      "swim": 1195,
      "dancing": 1196,
      "kiss": 1197,
      "apped": 1198,
      "redi": 1199,
      "comple": 1200,
      "ape": 1201,
      "sum": 1202,
      "ants": 1203,
      "point": 1204,
      "que": 1205,
      "getting": 1206,
      "give": 1207,
      "clips": 1208,
      "bab": 1209,
      "fair": 1210,
      "hung": 1211,
      "mis": 1212,
      "enough": 1213,
      "rode": 1214,
      "amp": 1215,
      "shes": 1216,
      "poin": 1217,
      "sure": 1218,
      "ations": 1219,
      "shoulder": 1220,
      "placed": 1221,
      "beside": 1222,
      "middle": 1223,
      "ele": 1224,
      "roof": 1225,
      "book": 1226,
      "deep": 1227,
      "clear": 1228,
      "dress": 1229,
      "stret": 1230,
      "climb": 1231,
      "swing": 1232,
      "mountain": 1233,
      "followed": 1234,
      "ah": 1235,
      "pping": 1236,
      "sim": 1237,
      "always": 1238,
      "wash": 1239,
      "coat": 1240,
      "whom": 1241,
      "comp": 1242,
      "ski": 1243,
      "finally": 1244,
      "appear": 1245,
      "looked": 1246,
      "piece": 1247,
      "instant": 1248,
      "cus": 1249,
      "tro": 1250,
      "ingredi": 1251,
      "char": 1252,
      "whole": 1253,
      "motion": 1254,
      "bus": 1255,
      "ia": 1256,
      "since": 1257,
      "fix": 1258,
      "draw": 1259,
      "drink": 1260,
      "ingredients": 1261,
      "aun": 1262,
      "bank": 1263,
      "din": 1264,
      "lis": 1265,
      "pin": 1266,
      "bey": 1267,
      "iron": 1268,
      "neck": 1269,
      "ages": 1270,
      "train": 1271,
      "noon": 1272,
      "eling": 1273,
      "pulled": 1274,
      "corner": 1275,
      "shoulders": 1276,
      "later": 1277,
      "sir": 1278,
      "hen": 1279,
      "second": 1280,
      "showing": 1281,
      "turning": 1282,
      "viol": 1283,
      "emp": 1284,
      "better": 1285,
      "arrived": 1286,
      "eas": 1287,
      "gun": 1288,
      "kni": 1289,
      "pa": 1290,
      "because": 1291,
      "lic": 1292,
      "gest": 1293,
      "gold": 1294,
      "five": 1295,
      "sail": 1296,
      "jumping": 1297,
      "lifted": 1298,
      "fer": 1299,
      "make": 1300,
      "fight": 1301,
      "quite": 1302,
      "fam": 1303,
      "lot": 1304,
      "pit": 1305,
      "sy": 1306,
      "erc": 1307,
      "weight": 1308,
      "ails": 1309,
      "hall": 1310,
      "kick": 1311,
      "pes": 1312,
      "sco": 1313,
      "sight": 1314,
      "iness": 1315,
      "vers": 1316,
      "themselves": 1317,
      "dry": 1318,
      "smiling": 1319,
      "however": 1320,
      "guy": 1321,
      "quiet": 1322,
      "cried": 1323,
      "ding": 1324,
      "mit": 1325,
      "mir": 1326,
      "name": 1327,
      "sink": 1328,
      "ual": 1329,
      "adv": 1330,
      "show": 1331,
      "raised": 1332,
      "fas": 1333,
      "kno": 1334,
      "sn": 1335,
      "stone": 1336,
      "shad": 1337,
      "vel": 1338,
      "bling": 1339,
      "trave": 1340,
      "quest": 1341,
      "pleas": 1342,
      "stead": 1343,
      "smoke": 1344,
      "aim": 1345,
      "gri": 1346,
      "tin": 1347,
      "cold": 1348,
      "brown": 1349,
      "expe": 1350,
      "started": 1351,
      "falls": 1352,
      "trying": 1353,
      "bottom": 1354,
      "knife": 1355,
      "ply": 1356,
      "rout": 1357,
      "wife": 1358,
      "shing": 1359,
      "aged": 1360,
      "anger": 1361,
      "bull": 1362,
      "direction": 1363,
      "pot": 1364,
      "sign": 1365,
      "wrest": 1366,
      "ones": 1367,
      "leaving": 1368,
      "beat": 1369,
      "below": 1370,
      "ops": 1371,
      "pret": 1372,
      "looks": 1373,
      "fingers": 1374,
      "hot": 1375,
      "ju": 1376,
      "ks": 1377,
      "whis": 1378,
      "kept": 1379,
      "fect": 1380,
      "fic": 1381,
      "throwing": 1382,
      "anced": 1383,
      "minutes": 1384,
      "ben": 1385,
      "bag": 1386,
      "kind": 1387,
      "mean": 1388,
      "dered": 1389,
      "suc": 1390,
      "clothe": 1391,
      "evening": 1392,
      "case": 1393,
      "gymn": 1394,
      "recei": 1395,
      "mur": 1396,
      "path": 1397,
      "reg": 1398,
      "arrow": 1399,
      "within": 1400,
      "wel": 1401,
      "lies": 1402,
      "oney": 1403,
      "poss": 1404,
      "myself": 1405,
      "thrown": 1406,
      "ject": 1407,
      "bent": 1408,
      "bars": 1409,
      "lord": 1410,
      "pas": 1411,
      "sen": 1412,
      "ze": 1413,
      "rel": 1414,
      "already": 1415,
      "area": 1416,
      "mem": 1417,
      "blood": 1418,
      "cts": 1419,
      "gener": 1420,
      "mand": 1421,
      "sty": 1422,
      "stir": 1423,
      "seat": 1424,
      "beam": 1425,
      "key": 1426,
      "cry": 1427,
      "drew": 1428,
      "stream": 1429,
      "performing": 1430,
      "places": 1431,
      "smile": 1432,
      "heavy": 1433,
      "spoke": 1434,
      "bing": 1435,
      "pal": 1436,
      "thered": 1437,
      "tou": 1438,
      "love": 1439,
      "camp": 1440,
      "afternoon": 1441,
      "produ": 1442,
      "sky": 1443,
      "news": 1444,
      "bottle": 1445,
      "position": 1446,
      "title": 1447,
      "dou": 1448,
      "during": 1449,
      "male": 1450,
      "rup": 1451,
      "ony": 1452,
      "tool": 1453,
      "best": 1454,
      "save": 1455,
      "comes": 1456,
      "joy": 1457,
      "knees": 1458,
      "bir": 1459,
      "dred": 1460,
      "rather": 1461,
      "edge": 1462,
      "ump": 1463,
      "ular": 1464,
      "brid": 1465,
      "picked": 1466,
      "audi": 1467,
      "trees": 1468,
      "six": 1469,
      "gro": 1470,
      "ied": 1471,
      "raf": 1472,
      "tried": 1473,
      "van": 1474,
      "ceed": 1475,
      "need": 1476,
      "aught": 1477,
      "breath": 1478,
      "hours": 1479,
      "master": 1480,
      "hundred": 1481,
      "den": 1482,
      "ny": 1483,
      "ison": 1484,
      "ashed": 1485,
      "itself": 1486,
      "bel": 1487,
      "became": 1488,
      "doctor": 1489,
      "god": 1490,
      "finished": 1491,
      "years": 1492,
      "clothes": 1493,
      "flips": 1494,
      "ham": 1495,
      "ror": 1496,
      "tw": 1497,
      "take": 1498,
      "inde": 1499,
      "reach": 1500,
      "deck": 1501,
      "scar": 1502,
      "spread": 1503,
      "exerc": 1504,
      "compan": 1505,
      "letter": 1506,
      "silence": 1507,
      "ax": 1508,
      "dir": 1509,
      "ery": 1510,
      "ames": 1511,
      "cking": 1512,
      "ards": 1513,
      "felt": 1514,
      "wards": 1515,
      "shoot": 1516,
      "serv": 1517,
      "trem": 1518,
      "intro": 1519,
      "hurried": 1520,
      "routine": 1521,
      "hop": 1522,
      "ild": 1523,
      "pack": 1524,
      "ire": 1525,
      "late": 1526,
      "padd": 1527,
      "ually": 1528,
      "want": 1529,
      "seiz": 1530,
      "shout": 1531,
      "tering": 1532,
      "net": 1533,
      "fig": 1534,
      "wore": 1535,
      "explain": 1536,
      "spect": 1537,
      "aut": 1538,
      "cab": 1539,
      "gate": 1540,
      "instru": 1541,
      "thir": 1542,
      "thus": 1543,
      "attem": 1544,
      "order": 1545,
      "hion": 1546,
      "pet": 1547,
      "gray": 1548,
      "tru": 1549,
      "sits": 1550,
      "flat": 1551,
      "medi": 1552,
      "broken": 1553,
      "country": 1554,
      ",'": 1555,
      "ba": 1556,
      "dust": 1557,
      "kn": 1558,
      "kes": 1559,
      "ler": 1560,
      "money": 1561,
      "sis": 1562,
      "spl": 1563,
      "wan": 1564,
      "sear": 1565,
      "picks": 1566,
      "chief": 1567,
      "spray": 1568,
      "music": 1569,
      "fence": 1570,
      "gaz": 1571,
      "igh": 1572,
      "zz": 1573,
      "death": 1574,
      "sage": 1575,
      "nodd": 1576,
      "cheek": 1577,
      "strong": 1578,
      "party": 1579,
      "doors": 1580,
      "passing": 1581,
      "bert": 1582,
      "friends": 1583,
      "garden": 1584,
      "bun": 1585,
      "oh": 1586,
      "scho": 1587,
      "waves": 1588,
      "thy": 1589,
      "seated": 1590,
      "lling": 1591,
      "lost": 1592,
      "plate": 1593,
      "pocket": 1594,
      "scene": 1595,
      "cheer": 1596,
      "spin": 1597,
      "spir": 1598,
      "whose": 1599,
      "players": 1600,
      "carri": 1601,
      "world": 1602,
      "prom": 1603,
      "opening": 1604,
      "skate": 1605,
      "sides": 1606,
      "gathered": 1607,
      "bs": 1608,
      "bill": 1609,
      "ets": 1610,
      "hn": 1611,
      "slo": 1612,
      "slight": 1613,
      "ann": 1614,
      "remem": 1615,
      "ased": 1616,
      "ited": 1617,
      "tive": 1618,
      "apping": 1619,
      "fold": 1620,
      "blow": 1621,
      "cover": 1622,
      "spot": 1623,
      "speed": 1624,
      "build": 1625,
      "brother": 1626,
      "tricks": 1627,
      "surround": 1628,
      "beyond": 1629,
      "bath": 1630,
      "ges": 1631,
      "kids": 1632,
      "power": 1633,
      "win": 1634,
      "anim": 1635,
      "ths": 1636,
      "ask": 1637,
      "rocks": 1638,
      "tight": 1639,
      "player": 1640,
      "compe": 1641,
      "parted": 1642,
      "didn": 1643,
      "john": 1644,
      "help": 1645,
      ",--": 1646,
      ".'": 1647,
      "lawn": 1648,
      "ride": 1649,
      "sse": 1650,
      "thick": 1651,
      "owed": 1652,
      "tire": 1653,
      "conf": 1654,
      "teen": 1655,
      "drive": 1656,
      "circle": 1657,
      "grabs": 1658,
      "swimming": 1659,
      "complete": 1660,
      "baby": 1661,
      "gs": 1662,
      "wand": 1663,
      "ute": 1664,
      "suit": 1665,
      "strum": 1666,
      "flung": 1667,
      "bowl": 1668,
      "pictures": 1669,
      "wonder": 1670,
      "rapid": 1671,
      "listen": 1672,
      "ging": 1673,
      "sus": 1674,
      "twi": 1675,
      "tail": 1676,
      "yes": 1677,
      "thro": 1678,
      "ishes": 1679,
      "arr": 1680,
      "ained": 1681,
      "goal": 1682,
      "pipe": 1683,
      "fled": 1684,
      "stop": 1685,
      "pours": 1686,
      "company": 1687,
      "bright": 1688,
      "cing": 1689,
      "event": 1690,
      "ker": 1691,
      "ition": 1692,
      "week": 1693,
      "sold": 1694,
      "poor": 1695,
      "posed": 1696,
      "drag": 1697,
      "lights": 1698,
      "given": 1699,
      "drove": 1700,
      "earth": 1701,
      "waiting": 1702,
      "picture": 1703,
      "couple": 1704,
      "further": 1705,
      "hanging": 1706,
      "bul": 1707,
      "hits": 1708,
      "haps": 1709,
      "mad": 1710,
      "mag": 1711,
      "sor": 1712,
      "wound": 1713,
      "isted": 1714,
      "shaking": 1715,
      "tee": 1716,
      "quar": 1717,
      "perhaps": 1718,
      "fallen": 1719,
      "catch": 1720,
      "hitting": 1721,
      "fashion": 1722,
      "fit": 1723,
      "fish": 1724,
      "station": 1725,
      "wide": 1726,
      "west": 1727,
      "hope": 1728,
      "fellow": 1729,
      "food": 1730,
      "immedi": 1731,
      "prep": 1732,
      "tors": 1733,
      "balls": 1734,
      "saying": 1735,
      "wooden": 1736,
      "received": 1737,
      "bad": 1738,
      "cred": 1739,
      "jour": 1740,
      "kin": 1741,
      "leng": 1742,
      "instrum": 1743,
      "aint": 1744,
      "fear": 1745,
      "strange": 1746,
      "shore": 1747,
      "silent": 1748,
      "pression": 1749,
      "fixed": 1750,
      "cig": 1751,
      "flip": 1752,
      "story": 1753,
      "ising": 1754,
      "aded": 1755,
      "excl": 1756,
      "aved": 1757,
      "pressed": 1758,
      "jumped": 1759,
      "rushed": 1760,
      "deser": 1761,
      "falling": 1762,
      "counter": 1763,
      "paint": 1764,
      "swift": 1765,
      "leaned": 1766,
      "number": 1767,
      "stretched": 1768,
      "empty": 1769,
      "possible": 1770,
      "audience": 1771,
      "ient": 1772,
      "narrow": 1773,
      "tall": 1774,
      "warm": 1775,
      "lim": 1776,
      "lied": 1777,
      "terri": 1778,
      "nose": 1779,
      "clu": 1780,
      "pushed": 1781,
      "shoes": 1782,
      "match": 1783,
      "matter": 1784,
      "interview": 1785,
      "north": 1786,
      "rolling": 1787,
      "ladies": 1788,
      "kissed": 1789,
      "indeed": 1790,
      "burn": 1791,
      "send": 1792,
      "sort": 1793,
      "offe": 1794,
      "pol": 1795,
      "safe": 1796,
      "ender": 1797,
      "rench": 1798,
      "cano": 1799,
      "office": 1800,
      "called": 1801,
      "basket": 1802,
      "pretty": 1803,
      "bridge": 1804,
      "bound": 1805,
      "rain": 1806,
      "vill": 1807,
      "asses": 1808,
      "stay": 1809,
      "ided": 1810,
      "uni": 1811,
      "cely": 1812,
      "tears": 1813,
      "usual": 1814,
      "cook": 1815,
      "exce": 1816,
      "says": 1817,
      "remained": 1818,
      "gentleman": 1819,
      "slipped": 1820,
      "school": 1821,
      "skateboard": 1822,
      "ience": 1823,
      "vac": 1824,
      "leap": 1825,
      "beaut": 1826,
      "live": 1827,
      "forgot": 1828,
      "aret": 1829,
      "pole": 1830,
      "trail": 1831,
      "prac": 1832,
      "pray": 1833,
      "lessly": 1834,
      "lands": 1835,
      "darkness": 1836,
      "expected": 1837,
      "either": 1838,
      "free": 1839,
      "hus": 1840,
      "ram": 1841,
      "ason": 1842,
      "sts": 1843,
      "ading": 1844,
      "ident": 1845,
      "force": 1846,
      "wheel": 1847,
      "consc": 1848,
      "seeing": 1849,
      "stops": 1850,
      "ances": 1851,
      "giving": 1852,
      "faced": 1853,
      "early": 1854,
      "cape": 1855,
      "wanted": 1856,
      "soldi": 1857,
      "teeth": 1858,
      "la": 1859,
      "ral": 1860,
      "tar": 1861,
      "tled": 1862,
      "thor": 1863,
      "stren": 1864,
      "aren": 1865,
      "grand": 1866,
      "indi": 1867,
      "tra": 1868,
      "trac": 1869,
      "chest": 1870,
      "mark": 1871,
      "anything": 1872,
      "clim": 1873,
      "year": 1874,
      "dogs": 1875,
      "woods": 1876,
      "faces": 1877,
      "attack": 1878,
      "speaks": 1879,
      "fortun": 1880,
      "square": 1881,
      "sharp": 1882,
      "nodded": 1883,
      "length": 1884,
      "cting": 1885,
      "ghed": 1886,
      "change": 1887,
      "liqu": 1888,
      "meet": 1889,
      "hole": 1890,
      "die": 1891,
      "diving": 1892,
      "miles": 1893,
      "fourth": 1894,
      "laughing": 1895,
      "drums": 1896,
      "bon": 1897,
      "bare": 1898,
      "lon": 1899,
      "nails": 1900,
      "twent": 1901,
      "thank": 1902,
      "belie": 1903,
      "shop": 1904,
      "ention": 1905,
      "living": 1906,
      "ably": 1907,
      "plan": 1908,
      "grave": 1909,
      "pic": 1910,
      "aked": 1911,
      "heads": 1912,
      "grey": 1913,
      "smiled": 1914,
      "stopped": 1915,
      "finishes": 1916,
      "smoo": 1917,
      "mounted": 1918,
      "flew": 1919,
      "occas": 1920,
      "fresh": 1921,
      "soft": 1922,
      "carrying": 1923,
      "swinging": 1924,
      "dinner": 1925,
      "aimed": 1926,
      "journey": 1927,
      "streng": 1928,
      "hy": 1929,
      "ial": 1930,
      "oured": 1931,
      "roy": 1932,
      "amed": 1933,
      "deal": 1934,
      "doll": 1935,
      "fied": 1936,
      "thrust": 1937,
      "glance": 1938,
      "tenn": 1939,
      "surpr": 1940,
      "lifting": 1941,
      "finger": 1942,
      "swept": 1943,
      "presently": 1944,
      "pulling": 1945,
      "shadow": 1946,
      "exercise": 1947,
      "seized": 1948,
      "bly": 1949,
      "fine": 1950,
      "harm": 1951,
      "jer": 1952,
      "jim": 1953,
      "lake": 1954,
      "pink": 1955,
      "rail": 1956,
      "sank": 1957,
      "va": 1958,
      "wave": 1959,
      "ening": 1960,
      "ists": 1961,
      "aside": 1962,
      "lying": 1963,
      "uncle": 1964,
      "moon": 1965,
      "mel": 1966,
      "hol": 1967,
      "test": 1968,
      "blind": 1969,
      "background": 1970,
      "flag": 1971,
      "cloth": 1972,
      "gives": 1973,
      "broad": 1974,
      "performs": 1975,
      "huge": 1976,
      "lifts": 1977,
      "lines": 1978,
      "crossed": 1979,
      "family": 1980,
      "success": 1981,
      "immediately": 1982,
      "twenty": 1983,
      "tennis": 1984,
      "fen": 1985,
      "gall": 1986,
      "rat": 1987,
      "taking": 1988,
      "vil": 1989,
      "inte": 1990,
      "rep": 1991,
      "aches": 1992,
      "chap": 1993,
      "wered": 1994,
      "tern": 1995,
      "coach": 1996,
      "trou": 1997,
      "else": 1998,
      "cru": 1999,
      "crack": 2000,
      "surface": 2001,
      "cutting": 2002,
      "question": 2003,
      "bene": 2004,
      "eat": 2005,
      "fro": 2006,
      "gle": 2007,
      "song": 2008,
      "vic": 2009,
      "wag": 2010,
      "real": 2011,
      "und": 2012,
      "shel": 2013,
      "hood": 2014,
      "dear": 2015,
      "coll": 2016,
      "park": 2017,
      "proper": 2018,
      "athle": 2019,
      "slid": 2020,
      "iously": 2021,
      "windows": 2022,
      "finish": 2023,
      "silver": 2024,
      "thinking": 2025,
      "general": 2026,
      "dirt": 2027,
      "climbed": 2028,
      "cro": 2029,
      "ccer": 2030,
      "daught": 2031,
      "instead": 2032,
      "ano": 2033,
      "ades": 2034,
      "lift": 2035,
      "ric": 2036,
      "apart": 2037,
      "meas": 2038,
      "soccer": 2039,
      "post": 2040,
      "exper": 2041,
      "played": 2042,
      "perfect": 2043,
      "prepar": 2044,
      "iful": 2045,
      "flu": 2046,
      "prison": 2047,
      "older": 2048,
      "final": 2049,
      "object": 2050,
      "curi": 2051,
      "doub": 2052,
      "carriage": 2053,
      "husband": 2054,
      "occasion": 2055,
      "strength": 2056,
      "fat": 2057,
      "french": 2058,
      "gue": 2059,
      "lac": 2060,
      "law": 2061,
      "pale": 2062,
      "ude": 2063,
      "ining": 2064,
      "thous": 2065,
      "engl": 2066,
      "accor": 2067,
      "rob": 2068,
      "chin": 2069,
      "shake": 2070,
      "ots": 2071,
      "locked": 2072,
      "tied": 2073,
      "noise": 2074,
      "command": 2075,
      "ical": 2076,
      "prof": 2077,
      "answered": 2078,
      "houses": 2079,
      "surf": 2080,
      "driving": 2081,
      "ively": 2082,
      "....": 2083,
      "colle": 2084,
      "figure": 2085,
      "rapidly": 2086,
      "thousand": 2087,
      "ere": 2088,
      "ears": 2089,
      "evid": 2090,
      "mil": 2091,
      "rise": 2092,
      "ured": 2093,
      "thed": 2094,
      "anch": 2095,
      "astic": 2096,
      "least": 2097,
      "itch": 2098,
      "aming": 2099,
      "utter": 2100,
      "text": 2101,
      "glad": 2102,
      "rence": 2103,
      "longer": 2104,
      "driven": 2105,
      "reading": 2106,
      "roller": 2107,
      "rising": 2108,
      "flying": 2109,
      "cabin": 2110,
      "ato": 2111,
      "cot": 2112,
      "cake": 2113,
      "farm": 2114,
      "kill": 2115,
      "rack": 2116,
      "rough": 2117,
      "stor": 2118,
      "slip": 2119,
      "vin": 2120,
      "zen": 2121,
      "inking": 2122,
      "stun": 2123,
      "state": 2124,
      "chur": 2125,
      "ties": 2126,
      "deli": 2127,
      "proceed": 2128,
      "clock": 2129,
      "glasses": 2130,
      "continued": 2131,
      "joined": 2132,
      "everything": 2133,
      "cuts": 2134,
      "occup": 2135,
      "circ": 2136,
      "summer": 2137,
      "washing": 2138,
      "drawing": 2139,
      "quietly": 2140,
      "canoe": 2141,
      "uniform": 2142,
      "interest": 2143,
      "beneath": 2144,
      "furn": 2145,
      "pow": 2146,
      "rang": 2147,
      "sence": 2148,
      "tur": 2149,
      "wing": 2150,
      "stree": 2151,
      "iting": 2152,
      "adds": 2153,
      "wear": 2154,
      "amer": 2155,
      "manner": 2156,
      "frame": 2157,
      "kee": 2158,
      "consid": 2159,
      "eping": 2160,
      "vice": 2161,
      "served": 2162,
      "guard": 2163,
      "desc": 2164,
      "count": 2165,
      "laughed": 2166,
      "nearly": 2167,
      "sticks": 2168,
      "ashing": 2169,
      "battle": 2170,
      "climbing": 2171,
      "business": 2172,
      "advanced": 2173,
      "streets": 2174,
      "eve": 2175,
      "eag": 2176,
      "hum": 2177,
      "ile": 2178,
      "mul": 2179,
      "making": 2180,
      "makes": 2181,
      "pul": 2182,
      "sou": 2183,
      "waving": 2184,
      "zed": 2185,
      "repe": 2186,
      "ory": 2187,
      "ities": 2188,
      "ford": 2189,
      "lock": 2190,
      "opposit": 2191,
      "nel": 2192,
      "neigh": 2193,
      "cool": 2194,
      "therefore": 2195,
      "sometimes": 2196,
      "pick": 2197,
      "sity": 2198,
      "rooms": 2199,
      "answ": 2200,
      "swung": 2201,
      "cream": 2202,
      "suppose": 2203,
      "phone": 2204,
      "smiles": 2205,
      "softly": 2206,
      "happy": 2207,
      "aunt": 2208,
      "conscious": 2209,
      "opposite": 2210,
      "ban": 2211,
      "ggl": 2212,
      "loud": 2213,
      "maid": 2214,
      "rag": 2215,
      "wre": 2216,
      "anx": 2217,
      "rear": 2218,
      "erly": 2219,
      "aster": 2220,
      "ashes": 2221,
      "often": 2222,
      "orn": 2223,
      "action": 2224,
      "beard": 2225,
      "wet": 2226,
      "mere": 2227,
      "grap": 2228,
      "saw": 2229,
      "tram": 2230,
      "scot": 2231,
      "someone": 2232,
      "spring": 2233,
      "exc": 2234,
      "antly": 2235,
      "mary": 2236,
      "bread": 2237,
      "rides": 2238,
      "ctions": 2239,
      "stern": 2240,
      "pieces": 2241,
      "priest": 2242,
      "burst": 2243,
      "violin": 2244,
      "spinning": 2245,
      "remember": 2246,
      "building": 2247,
      "surrounded": 2248,
      "fright": 2249,
      "kid": 2250,
      "phi": 2251,
      "lear": 2252,
      "chr": 2253,
      "chan": 2254,
      "cham": 2255,
      "upper": 2256,
      "neare": 2257,
      "plat": 2258,
      "feel": 2259,
      "dec": 2260,
      "grace": 2261,
      "suf": 2262,
      "watches": 2263,
      "coming": 2264,
      "cars": 2265,
      "ctly": 2266,
      "ica": 2267,
      "prin": 2268,
      "setting": 2269,
      "satis": 2270,
      "shoe": 2271,
      "trim": 2272,
      "cial": 2273,
      "waited": 2274,
      "minute": 2275,
      "demonstrates": 2276,
      "cigaret": 2277,
      "london": 2278,
      "daughter": 2279,
      "church": 2280,
      "fun": 2281,
      "gged": 2282,
      "mass": 2283,
      "sad": 2284,
      "south": 2285,
      "zo": 2286,
      "reli": 2287,
      "towel": 2288,
      "escape": 2289,
      "entire": 2290,
      "hers": 2291,
      "uttered": 2292,
      "rich": 2293,
      "handed": 2294,
      "notic": 2295,
      "aston": 2296,
      "expression": 2297,
      "worn": 2298,
      "cloud": 2299,
      "pushing": 2300,
      "breast": 2301,
      "bowed": 2302,
      "pulls": 2303,
      "castle": 2304,
      "bird": 2305,
      "scarcely": 2306,
      "credits": 2307,
      "vacu": 2308,
      "chapter": 2309,
      "ahead": 2310,
      "bil": 2311,
      "cow": 2312,
      "gif": 2313,
      "none": 2314,
      "race": 2315,
      "tent": 2316,
      "wish": 2317,
      "inform": 2318,
      "reco": 2319,
      "ark": 2320,
      "ital": 2321,
      "escap": 2322,
      "bered": 2323,
      "charge": 2324,
      "enter": 2325,
      "aft": 2326,
      "piano": 2327,
      "forest": 2328,
      "prince": 2329,
      "settled": 2330,
      "staring": 2331,
      "talked": 2332,
      "curtain": 2333,
      "boats": 2334,
      "single": 2335,
      "...": 2336,
      "attention": 2337,
      "kneeling": 2338,
      "beginning": 2339,
      "carefully": 2340,
      "metal": 2341,
      "breakfast": 2342,
      "queen": 2343,
      "points": 2344,
      "fighting": 2345,
      "wrestling": 2346,
      "gymnast": 2347,
      "companion": 2348,
      "attemp": 2349,
      "sister": 2350,
      "bending": 2351,
      "eight": 2352,
      "hab": 2353,
      "kay": 2354,
      "lan": 2355,
      "lane": 2356,
      "mal": 2357,
      "sadd": 2358,
      "tum": 2359,
      "isto": 2360,
      "stum": 2361,
      "orge": 2362,
      "hig": 2363,
      "entr": 2364,
      "log": 2365,
      "tim": 2366,
      "hook": 2367,
      "feat": 2368,
      "posse": 2369,
      "grow": 2370,
      "blowing": 2371,
      "scen": 2372,
      "dig": 2373,
      "dick": 2374,
      "prec": 2375,
      "slide": 2376,
      "cannot": 2377,
      "bucket": 2378,
      "join": 2379,
      "tress": 2380,
      "color": 2381,
      "teams": 2382,
      "pursu": 2383,
      "couch": 2384,
      "valley": 2385,
      "cleaning": 2386,
      "knocked": 2387,
      "passage": 2388,
      "throat": 2389,
      "vacuum": 2390,
      "equi": 2391,
      "gas": 2392,
      "hast": 2393,
      "ky": 2394,
      "mn": 2395,
      "sword": 2396,
      "tat": 2397,
      "winter": 2398,
      "waved": 2399,
      "thou": 2400,
      "ata": 2401,
      "shaving": 2402,
      "deter": 2403,
      "fier": 2404,
      "blows": 2405,
      "trunk": 2406,
      "dies": 2407,
      "process": 2408,
      "drawn": 2409,
      "aws": 2410,
      "skin": 2411,
      "tries": 2412,
      "capt": 2413,
      "laying": 2414,
      "fact": 2415,
      "painting": 2416,
      "returning": 2417,
      "gloom": 2418,
      "approach": 2419,
      "easy": 2420,
      "cheeks": 2421,
      "slope": 2422,
      "instrument": 2423,
      "exclaimed": 2424,
      "village": 2425,
      "except": 2426,
      "replied": 2427,
      "ago": 2428,
      "bour": 2429,
      "dor": 2430,
      "dge": 2431,
      "ior": 2432,
      "mess": 2433,
      "mine": 2434,
      "ners": 2435,
      "sick": 2436,
      "sses": 2437,
      "tender": 2438,
      "ina": 2439,
      "army": 2440,
      "asing": 2441,
      "adi": 2442,
      "logo": 2443,
      "feeling": 2444,
      "sole": 2445,
      "scu": 2446,
      "seems": 2447,
      "clud": 2448,
      "flow": 2449,
      "emer": 2450,
      "drop": 2451,
      "landing": 2452,
      "walls": 2453,
      "singing": 2454,
      "stepped": 2455,
      "instantly": 2456,
      "score": 2457,
      "known": 2458,
      "believe": 2459,
      "smooth": 2460,
      "preparing": 2461,
      "consider": 2462,
      "cigarette": 2463,
      "escaped": 2464,
      "ai": 2465,
      "afr": 2466,
      "hon": 2467,
      "mun": 2468,
      "pun": 2469,
      "plo": 2470,
      "pound": 2471,
      "ron": 2472,
      "rac": 2473,
      "tone": 2474,
      "reason": 2475,
      "acc": 2476,
      "lli": 2477,
      "chance": 2478,
      "tie": 2479,
      "neither": 2480,
      "means": 2481,
      "host": 2482,
      "soap": 2483,
      "handker": 2484,
      "braid": 2485,
      "spins": 2486,
      "working": 2487,
      "class": 2488,
      "prote": 2489,
      "pub": 2490,
      "skir": 2491,
      "nie": 2492,
      "super": 2493,
      "added": 2494,
      "enemy": 2495,
      "gently": 2496,
      "ordin": 2497,
      "yards": 2498,
      "happened": 2499,
      "appearance": 2500,
      "introdu": 2501,
      "search": 2502,
      "beautiful": 2503,
      "afraid": 2504,
      "handkerchief": 2505,
      "cards": 2506,
      "lam": 2507,
      "sam": 2508,
      "tong": 2509,
      "ustr": 2510,
      "indoor": 2511,
      "removes": 2512,
      "asle": 2513,
      "oms": 2514,
      "shri": 2515,
      "rifle": 2516,
      "ares": 2517,
      "tily": 2518,
      "female": 2519,
      "idea": 2520,
      "camel": 2521,
      "tran": 2522,
      "tless": 2523,
      "sidewalk": 2524,
      "afterwards": 2525,
      "iff": 2526,
      "ices": 2527,
      "letters": 2528,
      "ancy": 2529,
      "clip": 2530,
      "serve": 2531,
      "struggl": 2532,
      "bowling": 2533,
      "lower": 2534,
      "wrapped": 2535,
      "movements": 2536,
      "sweet": 2537,
      "calm": 2538,
      "sprang": 2539,
      "nature": 2540,
      "leaning": 2541,
      "announ": 2542,
      "practic": 2543,
      "individ": 2544,
      "liquid": 2545,
      "athlete": 2546,
      "answer": 2547,
      "christ": 2548,
      "scenes": 2549,
      "asleep": 2550,
      "cher": 2551,
      "da": 2552,
      "fail": 2553,
      "jud": 2554,
      "ka": 2555,
      "lly": 2556,
      "mic": 2557,
      "mower": 2558,
      "oil": 2559,
      "pay": 2560,
      "pho": 2561,
      "pisto": 2562,
      "really": 2563,
      "removed": 2564,
      "tore": 2565,
      "enjoy": 2566,
      "aled": 2567,
      "orange": 2568,
      "secre": 2569,
      "hide": 2570,
      "bear": 2571,
      "chop": 2572,
      "tired": 2573,
      "dev": 2574,
      "umb": 2575,
      "gras": 2576,
      "true": 2577,
      "died": 2578,
      "watched": 2579,
      "comfort": 2580,
      "forehead": 2581,
      "aken": 2582,
      "imag": 2583,
      "closing": 2584,
      "icy": 2585,
      "torn": 2586,
      "letes": 2587,
      "store": 2588,
      "tables": 2589,
      "firm": 2590,
      "drops": 2591,
      "bikes": 2592,
      "smoking": 2593,
      "tower": 2594,
      "hardly": 2595,
      "orders": 2596,
      "gging": 2597,
      "gloves": 2598,
      "elect": 2599,
      "mountains": 2600,
      "hotel": 2601,
      "competit": 2602,
      "limp": 2603,
      "soldiers": 2604,
      "noticed": 2605,
      "tattoo": 2606,
      "ators": 2607,
      "cand": 2608,
      "card": 2609,
      "coffe": 2610,
      "ili": 2611,
      "mill": 2612,
      "os": 2613,
      "wed": 2614,
      "reve": 2615,
      "refle": 2616,
      "regard": 2617,
      "ature": 2618,
      "asse": 2619,
      "stro": 2620,
      "itar": 2621,
      "washed": 2622,
      "vern": 2623,
      "vering": 2624,
      "fru": 2625,
      "whether": 2626,
      "convers": 2627,
      "button": 2628,
      "tea": 2629,
      "cheers": 2630,
      "sug": 2631,
      "string": 2632,
      "avo": 2633,
      "aven": 2634,
      "fty": 2635,
      "glanced": 2636,
      "stool": 2637,
      "ancing": 2638,
      "dream": 2639,
      "raz": 2640,
      "human": 2641,
      "mission": 2642,
      "stuck": 2643,
      "threat": 2644,
      "latter": 2645,
      "demonstrating": 2646,
      "spirit": 2647,
      "slightly": 2648,
      "completely": 2649,
      "trouble": 2650,
      "platform": 2651,
      "entrance": 2652,
      "public": 2653,
      "coffee": 2654,
      "conversation": 2655,
      "hut": 2656,
      "lar": 2657,
      "lap": 2658,
      "mate": 2659,
      "pon": 2660,
      "pump": 2661,
      "rum": 2662,
      "sme": 2663,
      "ying": 2664,
      "hesit": 2665,
      "resp": 2666,
      "revol": 2667,
      "lemon": 2668,
      "admir": 2669,
      "aces": 2670,
      "bee": 2671,
      "cell": 2672,
      "loose": 2673,
      "frank": 2674,
      "memor": 2675,
      "plung": 2676,
      "fet": 2677,
      "delight": 2678,
      "demand": 2679,
      "fil": 2680,
      "posing": 2681,
      "brow": 2682,
      "ety": 2683,
      "somewhere": 2684,
      "space": 2685,
      "stranger": 2686,
      "waters": 2687,
      "marched": 2688,
      "push": 2689,
      "pushes": 2690,
      "stock": 2691,
      "passion": 2692,
      "tained": 2693,
      "tense": 2694,
      "desk": 2695,
      "obli": 2696,
      "brushes": 2697,
      "papers": 2698,
      "diffic": 2699,
      "bringing": 2700,
      "volley": 2701,
      "balance": 2702,
      "kicks": 2703,
      "style": 2704,
      "paddle": 2705,
      "third": 2706,
      "prepared": 2707,
      "swiftly": 2708,
      "bree": 2709,
      "lamp": 2710,
      "page": 2711,
      "ption": 2712,
      "sar": 2713,
      "tas": 2714,
      "ug": 2715,
      "tori": 2716,
      "island": 2717,
      "attered": 2718,
      "asts": 2719,
      "lets": 2720,
      "stones": 2721,
      "shining": 2722,
      "fris": 2723,
      "onel": 2724,
      "ains": 2725,
      "dest": 2726,
      "conce": 2727,
      "indian": 2728,
      "usion": 2729,
      "saved": 2730,
      "affe": 2731,
      "seem": 2732,
      "exam": 2733,
      "disappeared": 2734,
      "armed": 2735,
      "marked": 2736,
      "ishment": 2737,
      "cliff": 2738,
      "guitar": 2739,
      "mile": 2740,
      "swings": 2741,
      "dances": 2742,
      "stuff": 2743,
      "returns": 2744,
      "visible": 2745,
      "jacket": 2746,
      "approached": 2747,
      "simply": 2748,
      "troops": 2749,
      "scores": 2750,
      "mirror": 2751,
      "bench": 2752,
      "touched": 2753,
      "raft": 2754,
      "attempt": 2755,
      "folded": 2756,
      "terrible": 2757,
      "club": 2758,
      "recog": 2759,
      "habit": 2760,
      "solemn": 2761,
      "suggest": 2762,
      "ctive": 2763,
      "danger": 2764,
      "fted": 2765,
      "gather": 2766,
      "ii": 2767,
      "ier": 2768,
      "itor": 2769,
      "jor": 2770,
      "lun": 2771,
      "lab": 2772,
      "lers": 2773,
      "oce": 2774,
      "pau": 2775,
      "pment": 2776,
      "rom": 2777,
      "som": 2778,
      "ta": 2779,
      "vate": 2780,
      "wise": 2781,
      "ouds": 2782,
      "leon": 2783,
      "level": 2784,
      "ordered": 2785,
      "separ": 2786,
      "chase": 2787,
      "weap": 2788,
      "weak": 2789,
      "weather": 2790,
      "peace": 2791,
      "ceased": 2792,
      "youth": 2793,
      "fill": 2794,
      "gry": 2795,
      "blan": 2796,
      "spent": 2797,
      "extre": 2798,
      "parts": 2799,
      "passeng": 2800,
      "blew": 2801,
      "ishing": 2802,
      "shove": 2803,
      "boarding": 2804,
      "effort": 2805,
      "effect": 2806,
      "thoughts": 2807,
      "moments": 2808,
      "raise": 2809,
      "apparen": 2810,
      "wrong": 2811,
      "supper": 2812,
      "hurry": 2813,
      "center": 2814,
      "purple": 2815,
      "ladder": 2816,
      "luck": 2817,
      "certainly": 2818,
      "pointed": 2819,
      "paused": 2820,
      "gesture": 2821,
      "sense": 2822,
      "servant": 2823,
      "trembling": 2824,
      "shouted": 2825,
      "quarter": 2826,
      "kayak": 2827,
      "determin": 2828,
      "ocean": 2829,
      "extreme": 2830,
      "boun": 2831,
      "bers": 2832,
      "bade": 2833,
      "dam": 2834,
      "ev": 2835,
      "flight": 2836,
      "faint": 2837,
      "gust": 2838,
      "ns": 2839,
      "uck": 2840,
      "vir": 2841,
      "wich": 2842,
      "ides": 2843,
      "lice": 2844,
      "ution": 2845,
      "peter": 2846,
      "pered": 2847,
      "cele": 2848,
      "allowed": 2849,
      "ckets": 2850,
      "whir": 2851,
      "depart": 2852,
      "fifty": 2853,
      "colo": 2854,
      "cock": 2855,
      "camels": 2856,
      "tray": 2857,
      "trust": 2858,
      "ula": 2859,
      "somewhat": 2860,
      "extra": 2861,
      "pile": 2862,
      "contain": 2863,
      "worth": 2864,
      "illustr": 2865,
      "flash": 2866,
      "craw": 2867,
      "brea": 2868,
      "flood": 2869,
      "desper": 2870,
      "waist": 2871,
      "colonel": 2872,
      "hills": 2873,
      "bitter": 2874,
      "officer": 2875,
      "pointing": 2876,
      "easily": 2877,
      "tools": 2878,
      "instructor": 2879,
      "truth": 2880,
      "bathroom": 2881,
      "twice": 2882,
      "forgotten": 2883,
      "surprise": 2884,
      "storm": 2885,
      "cers": 2886,
      "dom": 2887,
      "eting": 2888,
      "fli": 2889,
      "fain": 2890,
      "gal": 2891,
      "iv": 2892,
      "ired": 2893,
      "pop": 2894,
      "sig": 2895,
      "uff": 2896,
      "height": 2897,
      "inv": 2898,
      "repor": 2899,
      "atic": 2900,
      "leaf": 2901,
      "aling": 2902,
      "stared": 2903,
      "beer": 2904,
      "ries": 2905,
      "ups": 2906,
      "gear": 2907,
      "oped": 2908,
      "hore": 2909,
      "dep": 2910,
      "departed": 2911,
      "dozen": 2912,
      "sav": 2913,
      "handle": 2914,
      "comfor": 2915,
      "angu": 2916,
      "march": 2917,
      "skis": 2918,
      "darted": 2919,
      "current": 2920,
      "leading": 2921,
      "quired": 2922,
      "farther": 2923,
      "study": 2924,
      "rubbing": 2925,
      "brief": 2926,
      "pouring": 2927,
      "busy": 2928,
      "drinks": 2929,
      "sym": 2930,
      "pleasant": 2931,
      "bunch": 2932,
      "listening": 2933,
      "basketball": 2934,
      "soul": 2935,
      "saddle": 2936,
      "higher": 2937,
      "equipment": 2938,
      "pistol": 2939,
      "secret": 2940,
      "razor": 2941,
      "celebr": 2942,
      "bay": 2943,
      "base": 2944,
      "cil": 2945,
      "cav": 2946,
      "dashed": 2947,
      "ese": 2948,
      "eating": 2949,
      "nes": 2950,
      "rin": 2951,
      "sin": 2952,
      "anti": 2953,
      "eding": 2954,
      "ises": 2955,
      "ister": 2956,
      "ats": 2957,
      "stable": 2958,
      "adjust": 2959,
      "become": 2960,
      "rol": 2961,
      "shr": 2962,
      "shaw": 2963,
      "ented": 2964,
      "vey": 2965,
      "ury": 2966,
      "abrup": 2967,
      "boots": 2968,
      "plau": 2969,
      "wheels": 2970,
      "ssion": 2971,
      "butter": 2972,
      "fif": 2973,
      "backwards": 2974,
      "span": 2975,
      "pipes": 2976,
      "iment": 2977,
      "images": 2978,
      "presence": 2979,
      "clouds": 2980,
      "likely": 2981,
      "puzz": 2982,
      "morrow": 2983,
      "rested": 2984,
      "range": 2985,
      "obje": 2986,
      "pants": 2987,
      "engaged": 2988,
      "brushing": 2989,
      "receive": 2990,
      "skiing": 2991,
      "golden": 2992,
      "mitted": 2993,
      "thirty": 2994,
      "gazed": 2995,
      "eventually": 2996,
      "harmon": 2997,
      "fencing": 2998,
      "english": 2999,
      "anchor": 3000,
      "chamber": 3001,
      "gift": 3002,
      "christmas": 3003,
      "competition": 3004,
      "fruit": 3005,
      "\".": 3006,
      "bac": 3007,
      "bows": 3008,
      "east": 3009,
      "egg": 3010,
      "fav": 3011,
      "gen": 3012,
      "jar": 3013,
      "ko": 3014,
      "mist": 3015,
      "nice": 3016,
      "ray": 3017,
      "rust": 3018,
      "wine": 3019,
      "antic": 3020,
      "rele": 3021,
      "remove": 3022,
      "ert": 3023,
      "stam": 3024,
      "belt": 3025,
      "llen": 3026,
      "llows": 3027,
      "web": 3028,
      "amid": 3029,
      "ckey": 3030,
      "tip": 3031,
      "applau": 3032,
      "tele": 3033,
      "police": 3034,
      "bran": 3035,
      "spap": 3036,
      "spark": 3037,
      "exha": 3038,
      "pier": 3039,
      "comb": 3040,
      "dishes": 3041,
      "vessel": 3042,
      "stove": 3043,
      "former": 3044,
      "newspap": 3045,
      "continuously": 3046,
      "floating": 3047,
      "serves": 3048,
      "dropping": 3049,
      "cially": 3050,
      "mighty": 3051,
      "catching": 3052,
      "applies": 3053,
      "rolls": 3054,
      "pasta": 3055,
      "harry": 3056,
      "keeping": 3057,
      "mixing": 3058,
      "charac": 3059,
      "succeed": 3060,
      "stirred": 3061,
      "product": 3062,
      "reaching": 3063,
      "shooting": 3064,
      "spectators": 3065,
      "animal": 3066,
      "dragged": 3067,
      "desert": 3068,
      "wagon": 3069,
      "doubt": 3070,
      "neighbor": 3071,
      "relief": 3072,
      "captures": 3073,
      "photo": 3074,
      "bicy": 3075,
      "cul": 3076,
      "cree": 3077,
      "lor": 3078,
      "sion": 3079,
      "tun": 3080,
      "ues": 3081,
      "vast": 3082,
      "wal": 3083,
      "ines": 3084,
      "alth": 3085,
      "alle": 3086,
      "although": 3087,
      "itation": 3088,
      "itude": 3089,
      "ache": 3090,
      "robert": 3091,
      "lla": 3092,
      "shakes": 3093,
      "shape": 3094,
      "lion": 3095,
      "rick": 3096,
      "loc": 3097,
      "george": 3098,
      "mop": 3099,
      "motor": 3100,
      "apes": 3101,
      "nest": 3102,
      "meant": 3103,
      "kets": 3104,
      "bodies": 3105,
      "decor": 3106,
      "ague": 3107,
      "concer": 3108,
      "umed": 3109,
      "sau": 3110,
      "coast": 3111,
      "trans": 3112,
      "ults": 3113,
      "assist": 3114,
      "commun": 3115,
      "carpet": 3116,
      "fling": 3117,
      "crown": 3118,
      "doorway": 3119,
      "married": 3120,
      "opens": 3121,
      "ships": 3122,
      "shovel": 3123,
      "steep": 3124,
      "dread": 3125,
      "bushes": 3126,
      "boards": 3127,
      "monkey": 3128,
      "months": 3129,
      "series": 3130,
      "service": 3131,
      "mater": 3132,
      "lays": 3133,
      "knows": 3134,
      "interrup": 3135,
      "attached": 3136,
      "slept": 3137,
      "knelt": 3138,
      "crowded": 3139,
      "mbers": 3140,
      "vision": 3141,
      "rubs": 3142,
      "strike": 3143,
      "baton": 3144,
      "gentlemen": 3145,
      "potato": 3146,
      "regular": 3147,
      "deserted": 3148,
      "according": 3149,
      "rollerbl": 3150,
      "racket": 3151,
      "stunts": 3152,
      "repeated": 3153,
      "breeze": 3154,
      "apparently": 3155,
      "colored": 3156,
      "00": 3157,
      "bid": 3158,
      "cles": 3159,
      "eu": 3160,
      "ech": 3161,
      "fal": 3162,
      "kar": 3163,
      "nur": 3164,
      "osity": 3165,
      "sac": 3166,
      "wit": 3167,
      "ination": 3168,
      "anna": 3169,
      "rer": 3170,
      "recor": 3171,
      "seven": 3172,
      "wipe": 3173,
      "rosse": 3174,
      "uttering": 3175,
      "vest": 3176,
      "rib": 3177,
      "upward": 3178,
      "ghter": 3179,
      "necess": 3180,
      "hockey": 3181,
      "condu": 3182,
      "umn": 3183,
      "grown": 3184,
      "sailed": 3185,
      "brand": 3186,
      "brows": 3187,
      "sciss": 3188,
      "whate": 3189,
      "sumo": 3190,
      "sugar": 3191,
      "explo": 3192,
      "aker": 3193,
      "prevent": 3194,
      "cart": 3195,
      "clam": 3196,
      "grew": 3197,
      "cloak": 3198,
      "closer": 3199,
      "angle": 3200,
      "angles": 3201,
      "athletes": 3202,
      "stood": 3203,
      "steel": 3204,
      "steady": 3205,
      "corn": 3206,
      "ledge": 3207,
      "guess": 3208,
      "treat": 3209,
      "wax": 3210,
      "cattle": 3211,
      "raising": 3212,
      "wrapping": 3213,
      "snowy": 3214,
      "mounts": 3215,
      "laughter": 3216,
      "tub": 3217,
      "smith": 3218,
      "directly": 3219,
      "portion": 3220,
      "sleeping": 3221,
      "natur": 3222,
      "sharply": 3223,
      "subject": 3224,
      "books": 3225,
      "dressing": 3226,
      "dining": 3227,
      "tiny": 3228,
      "birds": 3229,
      "sprays": 3230,
      "arrows": 3231,
      "offered": 3232,
      "dollars": 3233,
      "lacrosse": 3234,
      "pumpkin": 3235,
      "plunged": 3236,
      "passengers": 3237,
      "comfortable": 3238,
      "',": 3239,
      "bum": 3240,
      "bends": 3241,
      "cop": 3242,
      "equ": 3243,
      "nap": 3244,
      "poured": 3245,
      "rand": 3246,
      "snat": 3247,
      "vain": 3248,
      "ys": 3249,
      "yon": 3250,
      "remark": 3251,
      "issu": 3252,
      "ashore": 3253,
      "ork": 3254,
      "iture": 3255,
      "acce": 3256,
      "wiping": 3257,
      "shru": 3258,
      "amaz": 3259,
      "velo": 3260,
      "outdoor": 3261,
      "cken": 3262,
      "del": 3263,
      "ssing": 3264,
      "conne": 3265,
      "umph": 3266,
      "fici": 3267,
      "tech": 3268,
      "polo": 3269,
      "indic": 3270,
      "sax": 3271,
      "backs": 3272,
      "note": 3273,
      "brit": 3274,
      "aff": 3275,
      "spor": 3276,
      "situ": 3277,
      "dish": 3278,
      "eyel": 3279,
      "drinking": 3280,
      "awa": 3281,
      "puff": 3282,
      "formed": 3283,
      "steam": 3284,
      "triumph": 3285,
      "landed": 3286,
      "driver": 3287,
      "cip": 3288,
      "message": 3289,
      "facing": 3290,
      "enger": 3291,
      "tube": 3292,
      "knee": 3293,
      "distant": 3294,
      "block": 3295,
      "private": 3296,
      "finding": 3297,
      "rubbed": 3298,
      "brig": 3299,
      "major": 3300,
      "mixes": 3301,
      "pinata": 3302,
      "guns": 3303,
      "gymnastic": 3304,
      "twisted": 3305,
      "explains": 3306,
      "truck": 3307,
      "remembered": 3308,
      "animals": 3309,
      "wandered": 3310,
      "perfectly": 3311,
      "occupied": 3312,
      "frisbee": 3313,
      "caval": 3314,
      "necessary": 3315,
      "whatever": 3316,
      "cous": 3317,
      "ee": 3318,
      "echo": 3319,
      "fan": 3320,
      "fred": 3321,
      "fist": 3322,
      "groom": 3323,
      "lens": 3324,
      "made": 3325,
      "nail": 3326,
      "vig": 3327,
      "wished": 3328,
      "yer": 3329,
      "york": 3330,
      "refe": 3331,
      "resol": 3332,
      "eds": 3333,
      "ouse": 3334,
      "ative": 3335,
      "oft": 3336,
      "stil": 3337,
      "sets": 3338,
      "espe": 3339,
      "wil": 3340,
      "lls": 3341,
      "chain": 3342,
      "shor": 3343,
      "wept": 3344,
      "lived": 3345,
      "vere": 3346,
      "arena": 3347,
      "tice": 3348,
      "terror": 3349,
      "oping": 3350,
      "members": 3351,
      "bob": 3352,
      "soci": 3353,
      "ques": 3354,
      "quet": 3355,
      "cheering": 3356,
      "ext": 3357,
      "oused": 3358,
      "import": 3359,
      "preci": 3360,
      "parti": 3361,
      "clas": 3362,
      "speech": 3363,
      "crou": 3364,
      "craft": 3365,
      "probab": 3366,
      "ically": 3367,
      "igin": 3368,
      "cleared": 3369,
      "please": 3370,
      "buried": 3371,
      "bedroom": 3372,
      "giant": 3373,
      "anks": 3374,
      "descri": 3375,
      "hastily": 3376,
      "mates": 3377,
      "voices": 3378,
      "sigh": 3379,
      "works": 3380,
      "hurled": 3381,
      "sandwich": 3382,
      "purpose": 3383,
      "cups": 3384,
      "german": 3385,
      "custom": 3386,
      "ironing": 3387,
      "henry": 3388,
      "pleasure": 3389,
      "steadily": 3390,
      "grim": 3391,
      "needed": 3392,
      "instruments": 3393,
      "leaped": 3394,
      "properly": 3395,
      "milk": 3396,
      "deliber": 3397,
      "powder": 3398,
      "nearer": 3399,
      "flowers": 3400,
      "ordinary": 3401,
      "memory": 3402,
      "obliged": 3403,
      "recogni": 3404,
      "illustration": 3405,
      "abruptly": 3406,
      "especially": 3407,
      "bles": 3408,
      "ded": 3409,
      "fut": 3410,
      "gin": 3411,
      "lou": 3412,
      "las": 3413,
      "list": 3414,
      "mac": 3415,
      "nut": 3416,
      "vul": 3417,
      "vague": 3418,
      "wins": 3419,
      "wake": 3420,
      "wings": 3421,
      "heat": 3422,
      "heels": 3423,
      "inn": 3424,
      "inch": 3425,
      "eness": 3426,
      "ater": 3427,
      "asc": 3428,
      "ald": 3429,
      "alarm": 3430,
      "ality": 3431,
      "stance": 3432,
      "origin": 3433,
      "sec": 3434,
      "advent": 3435,
      "acles": 3436,
      "wipes": 3437,
      "bearing": 3438,
      "gho": 3439,
      "enters": 3440,
      "ams": 3441,
      "lier": 3442,
      "limb": 3443,
      "loved": 3444,
      "tiles": 3445,
      "meat": 3446,
      "delic": 3447,
      "sob": 3448,
      "contr": 3449,
      "fol": 3450,
      "follows": 3451,
      "grat": 3452,
      "blaz": 3453,
      "wol": 3454,
      "brings": 3455,
      "spare": 3456,
      "spite": 3457,
      "common": 3458,
      "impat": 3459,
      "impul": 3460,
      "disc": 3461,
      "cler": 3462,
      "clut": 3463,
      "urely": 3464,
      "special": 3465,
      "marti": 3466,
      "vious": 3467,
      "younger": 3468,
      "corrid": 3469,
      "screw": 3470,
      "rush": 3471,
      "ridge": 3472,
      "despair": 3473,
      "surfing": 3474,
      "everyone": 3475,
      "observed": 3476,
      "cube": 3477,
      "engine": 3478,
      "tug": 3479,
      "furi": 3480,
      "temper": 3481,
      "calf": 3482,
      "squat": 3483,
      "ggle": 3484,
      "risen": 3485,
      "sharpen": 3486,
      "numer": 3487,
      "mixed": 3488,
      "climbs": 3489,
      "violent": 3490,
      "shadows": 3491,
      "possi": 3492,
      "hammer": 3493,
      "servants": 3494,
      "knit": 3495,
      "powerful": 3496,
      "suspic": 3497,
      "prayer": 3498,
      "ralph": 3499,
      "royal": 3500,
      "occasionally": 3501,
      "evidently": 3502,
      "killed": 3503,
      "furniture": 3504,
      "descended": 3505,
      "frightened": 3506,
      "information": 3507,
      "features": 3508,
      "hastened": 3509,
      "messenger": 3510,
      "accident": 3511,
      "electric": 3512,
      "demanded": 3513,
      "branches": 3514,
      "techni": 3515,
      "probably": 3516,
      "cave": 3517,
      "eves": 3518,
      "fare": 3519,
      "fancy": 3520,
      "gown": 3521,
      "gul": 3522,
      "glimp": 3523,
      "hone": 3524,
      "knot": 3525,
      "lone": 3526,
      "lace": 3527,
      "phe": 3528,
      "pom": 3529,
      "pong": 3530,
      "pace": 3531,
      "tage": 3532,
      "tape": 3533,
      "warri": 3534,
      "yo": 3535,
      "includ": 3536,
      "oned": 3537,
      "ingly": 3538,
      "thri": 3539,
      "ism": 3540,
      "isn": 3541,
      "altogether": 3542,
      "hip": 3543,
      "belong": 3544,
      "shame": 3545,
      "entering": 3546,
      "wasn": 3547,
      "unless": 3548,
      "forced": 3549,
      "urs": 3550,
      "ceiling": 3551,
      "thern": 3552,
      "meal": 3553,
      "hose": 3554,
      "dee": 3555,
      "foam": 3556,
      "fool": 3557,
      "tear": 3558,
      "ulty": 3559,
      "nobody": 3560,
      "scrap": 3561,
      "cheese": 3562,
      "myster": 3563,
      "suff": 3564,
      "strain": 3565,
      "commen": 3566,
      "image": 3567,
      "headed": 3568,
      "begun": 3569,
      "contents": 3570,
      "partic": 3571,
      "wouldn": 3572,
      "proved": 3573,
      "cleans": 3574,
      "stopping": 3575,
      "settle": 3576,
      "skating": 3577,
      "ancient": 3578,
      "joe": 3579,
      "embar": 3580,
      "treas": 3581,
      "drifted": 3582,
      "silk": 3583,
      "catches": 3584,
      "supp": 3585,
      "mercy": 3586,
      "quire": 3587,
      "sie": 3588,
      "paints": 3589,
      "stepping": 3590,
      "spoken": 3591,
      "crossing": 3592,
      "salt": 3593,
      "banks": 3594,
      "knock": 3595,
      "relax": 3596,
      "double": 3597,
      "vanished": 3598,
      "figures": 3599,
      "instructions": 3600,
      "gaze": 3601,
      "wandering": 3602,
      "polish": 3603,
      "soldier": 3604,
      "successful": 3605,
      "experience": 3606,
      "keeper": 3607,
      "eager": 3608,
      "anxious": 3609,
      "merely": 3610,
      "suffici": 3611,
      "satisfac": 3612,
      "zooms": 3613,
      "billy": 3614,
      "assem": 3615,
      "objects": 3616,
      "harmonica": 3617,
      "exhaust": 3618,
      "character": 3619,
      "rollerblading": 3620,
      "bend": 3621,
      "bones": 3622,
      "dut": 3623,
      "fate": 3624,
      "gan": 3625,
      "gay": 3626,
      "jam": 3627,
      "james": 3628,
      "mour": 3629,
      "mont": 3630,
      "sne": 3631,
      "sway": 3632,
      "theless": 3633,
      "inct": 3634,
      "intense": 3635,
      "angry": 3636,
      "andre": 3637,
      "thunder": 3638,
      "lee": 3639,
      "leather": 3640,
      "ali": 3641,
      "oring": 3642,
      "orous": 3643,
      "sequ": 3644,
      "iding": 3645,
      "shone": 3646,
      "shine": 3647,
      "washes": 3648,
      "liz": 3649,
      "managed": 3650,
      "forman": 3651,
      "forty": 3652,
      "allow": 3653,
      "oted": 3654,
      "load": 3655,
      "loaded": 3656,
      "aped": 3657,
      "oper": 3658,
      "dodge": 3659,
      "umbs": 3660,
      "fired": 3661,
      "handsome": 3662,
      "----\"": 3663,
      "backward": 3664,
      "notice": 3665,
      "scattered": 3666,
      "chef": 3667,
      "sped": 3668,
      "discovered": 3669,
      "flame": 3670,
      "proof": 3671,
      "maria": 3672,
      "martin": 3673,
      "buck": 3674,
      "understand": 3675,
      "floated": 3676,
      "guide": 3677,
      "fields": 3678,
      "effe": 3679,
      "curled": 3680,
      "silently": 3681,
      "creature": 3682,
      "chairs": 3683,
      "suppor": 3684,
      "mount": 3685,
      "nevertheless": 3686,
      "cured": 3687,
      "helps": 3688,
      "helmet": 3689,
      "engage": 3690,
      "movement": 3691,
      "missed": 3692,
      "caused": 3693,
      "sandy": 3694,
      "mask": 3695,
      "sounded": 3696,
      "patch": 3697,
      "striking": 3698,
      "officers": 3699,
      "maje": 3700,
      "born": 3701,
      "cries": 3702,
      "completed": 3703,
      "fairly": 3704,
      "trot": 3705,
      "famili": 3706,
      "travel": 3707,
      "travelled": 3708,
      "whispered": 3709,
      "touch": 3710,
      "products": 3711,
      "covering": 3712,
      "listened": 3713,
      "interviewed": 3714,
      "thorough": 3715,
      "thanks": 3716,
      "unders": 3717,
      "apartment": 3718,
      "measure": 3719,
      "curiosity": 3720,
      "multi": 3721,
      "graph": 3722,
      "fierce": 3723,
      "struggled": 3724,
      "individual": 3725,
      "volleyball": 3726,
      "scissors": 3727,
      "corridor": 3728,
      "glimpse": 3729,
      "familiar": 3730,
      "!'": 3731,
      "),": 3732,
      "aur": 3733,
      "bou": 3734,
      "bits": 3735,
      "fai": 3736,
      "iam": 3737,
      "ived": 3738,
      "jac": 3739,
      "jun": 3740,
      "ki": 3741,
      "laun": 3742,
      "mers": 3743,
      "non": 3744,
      "nown": 3745,
      "ov": 3746,
      "ox": 3747,
      "pad": 3748,
      "san": 3749,
      "vine": 3750,
      "wri": 3751,
      "incre": 3752,
      "respect": 3753,
      "arose": 3754,
      "alley": 3755,
      "escor": 3756,
      "hidden": 3757,
      "acy": 3758,
      "acle": 3759,
      "actu": 3760,
      "beating": 3761,
      "cha": 3762,
      "chasing": 3763,
      "weary": 3764,
      "ayed": 3765,
      "logs": 3766,
      "franc": 3767,
      "aband": 3768,
      "apron": 3769,
      "neat": 3770,
      "bol": 3771,
      "bold": 3772,
      "pled": 3773,
      "fog": 3774,
      "pockets": 3775,
      "ility": 3776,
      "bris": 3777,
      "checked": 3778,
      "dim": 3779,
      "perce": 3780,
      "discu": 3781,
      "control": 3782,
      "paris": 3783,
      "cling": 3784,
      "claps": 3785,
      "gree": 3786,
      "cture": 3787,
      "ican": 3788,
      "persons": 3789,
      "proud": 3790,
      "horn": 3791,
      "fulness": 3792,
      "couldn": 3793,
      "breaking": 3794,
      "rushing": 3795,
      "nights": 3796,
      "landsc": 3797,
      "switch": 3798,
      "mud": 3799,
      "curling": 3800,
      "tommy": 3801,
      "tooth": 3802,
      "obst": 3803,
      "crew": 3804,
      "alex": 3805,
      "closely": 3806,
      "bie": 3807,
      "wrap": 3808,
      "sunk": 3809,
      "helping": 3810,
      "studi": 3811,
      "lined": 3812,
      "ized": 3813,
      "sounds": 3814,
      "heaven": 3815,
      "sofa": 3816,
      "happiness": 3817,
      "unknown": 3818,
      "weights": 3819,
      "faster": 3820,
      "expect": 3821,
      "juice": 3822,
      "meanwhile": 3823,
      "palm": 3824,
      "rafts": 3825,
      "dirty": 3826,
      "trembled": 3827,
      "wondering": 3828,
      "badly": 3829,
      "practice": 3830,
      "tracted": 3831,
      "shelter": 3832,
      "prisoner": 3833,
      "guests": 3834,
      "profess": 3835,
      "cottage": 3836,
      "circles": 3837,
      "ornam": 3838,
      "excited": 3839,
      "philip": 3840,
      "decided": 3841,
      "astonishment": 3842,
      "curtains": 3843,
      "approaching": 3844,
      "scuba": 3845,
      "emerged": 3846,
      "tongue": 3847,
      "announced": 3848,
      "micro": 3849,
      "determined": 3850,
      "savage": 3851,
      "creek": 3852,
      "situation": 3853,
      "cousin": 3854,
      "\"'": 3855,
      ".--": 3856,
      "?'": 3857,
      "dried": 3858,
      "dawn": 3859,
      "ease": 3860,
      "git": 3861,
      "glit": 3862,
      "garm": 3863,
      "hula": 3864,
      "iety": 3865,
      "kins": 3866,
      "langu": 3867,
      "obey": 3868,
      "pite": 3869,
      "paid": 3870,
      "rab": 3871,
      "tap": 3872,
      "tide": 3873,
      "inc": 3874,
      "indoors": 3875,
      "ana": 3876,
      "ref": 3877,
      "tour": 3878,
      "tops": 3879,
      "ena": 3880,
      "ara": 3881,
      "arch": 3882,
      "alco": 3883,
      "alive": 3884,
      "ston": 3885,
      "stag": 3886,
      "sey": 3887,
      "secon": 3888,
      "secured": 3889,
      "roar": 3890,
      "shower": 3891,
      "weld": 3892,
      "weeping": 3893,
      "vege": 3894,
      "rig": 3895,
      "outdoors": 3896,
      "lod": 3897,
      "tile": 3898,
      "tips": 3899,
      "frag": 3900,
      "oppon": 3901,
      "boom": 3902,
      "def": 3903,
      "det": 3904,
      "solit": 3905,
      "umber": 3906,
      "haw": 3907,
      "haun": 3908,
      "haul": 3909,
      "blown": 3910,
      "indign": 3911,
      "tingu": 3912,
      "pillow": 3913,
      "performan": 3914,
      "discus": 3915,
      "oked": 3916,
      "clust": 3917,
      "flowing": 3918,
      "flower": 3919,
      "crash": 3920,
      "proje": 3921,
      "marks": 3922,
      "tened": 3923,
      "xture": 3924,
      "greater": 3925,
      "darts": 3926,
      "dying": 3927,
      "dries": 3928,
      "yourself": 3929,
      "courage": 3930,
      "knowing": 3931,
      "crept": 3932,
      "lowered": 3933,
      "shirts": 3934,
      "result": 3935,
      "hug": 3936,
      "hurt": 3937,
      "besides": 3938,
      "danced": 3939,
      "hunting": 3940,
      "visit": 3941,
      "squee": 3942,
      "heavily": 3943,
      "frequ": 3944,
      "rubber": 3945,
      "laughs": 3946,
      "brilli": 3947,
      "lux": 3948,
      "shortly": 3949,
      "wildly": 3950,
      "demonstrate": 3951,
      "paul": 3952,
      "ferred": 3953,
      "snapped": 3954,
      "whisper": 3955,
      "palace": 3956,
      "groan": 3957,
      "belly": 3958,
      "packed": 3959,
      "explaining": 3960,
      "bullet": 3961,
      "madame": 3962,
      "quarters": 3963,
      "flipping": 3964,
      "burning": 3965,
      "polly": 3966,
      "attacked": 3967,
      "fatig": 3968,
      "england": 3969,
      "proceeded": 3970,
      "keeps": 3971,
      "learned": 3972,
      "nearest": 3973,
      "possessed": 3974,
      "pursued": 3975,
      "skirt": 3976,
      "candle": 3977,
      "difficulty": 3978,
      "briefly": 3979,
      "bicycle": 3980,
      "communic": 3981,
      "interrupted": 3982,
      "important": 3983,
      "martial": 3984,
      "including": 3985,
      "multiple": 3986,
      "faith": 3987,
      "bang": 3988,
      "crest": 3989,
      "dum": 3990,
      "dav": 3991,
      "fles": 3992,
      "ffled": 3993,
      "faded": 3994,
      "hound": 3995,
      "jave": 3996,
      "jane": 3997,
      "mc": 3998,
      "mous": 3999,
      "nav": 4000,
      "pted": 4001,
      "pine": 4002,
      "rings": 4003,
      "radi": 4004,
      "sch": 4005,
      "sought": 4006,
      "sending": 4007,
      "iny": 4008,
      "onde": 4009,
      "tood": 4010,
      "tobac": 4011,
      "ende": 4012,
      "artic": 4013,
      "strode": 4014,
      "stiff": 4015,
      "hid": 4016,
      "accompan": 4017,
      "rod": 4018,
      "vehi": 4019,
      "rip": 4020,
      "owner": 4021,
      "frantic": 4022,
      "opin": 4023,
      "mechan": 4024,
      "meeting": 4025,
      "hosp": 4026,
      "boot": 4027,
      "plant": 4028,
      "plaster": 4029,
      "feather": 4030,
      "dol": 4031,
      "const": 4032,
      "quis": 4033,
      "quit": 4034,
      "ulate": 4035,
      "notes": 4036,
      "affair": 4037,
      "somehow": 4038,
      "throne": 4039,
      "diam": 4040,
      "exhi": 4041,
      "exac": 4042,
      "august": 4043,
      "mense": 4044,
      "impossible": 4045,
      "immense": 4046,
      "elbow": 4047,
      "displayed": 4048,
      "contact": 4049,
      "worse": 4050,
      "paralle": 4051,
      "clap": 4052,
      "gress": 4053,
      "flowed": 4054,
      "glory": 4055,
      "rung": 4056,
      "lighted": 4057,
      "marching": 4058,
      "horiz": 4059,
      "winds": 4060,
      "winding": 4061,
      "bush": 4062,
      "gib": 4063,
      "month": 4064,
      "bark": 4065,
      "barn": 4066,
      "emot": 4067,
      "trip": 4068,
      "trick": 4069,
      "nerv": 4070,
      "everybody": 4071,
      "mured": 4072,
      "dull": 4073,
      "supposed": 4074,
      "colour": 4075,
      "quivering": 4076,
      "stud": 4077,
      "midst": 4078,
      "changes": 4079,
      "occur": 4080,
      "risk": 4081,
      "stricken": 4082,
      "violently": 4083,
      "dryer": 4084,
      "travelling": 4085,
      "pleased": 4086,
      "bulls": 4087,
      "passes": 4088,
      "crying": 4089,
      "bottles": 4090,
      "explained": 4091,
      "searching": 4092,
      "spirits": 4093,
      "driveway": 4094,
      "twir": 4095
    },
    "merges": [
      "h e",
      "t he",
      "i n",
      "a n",
      "r e",
      "an d",
      "o n",
      "in g",
      "e r",
      "t o",
      "e d",
      "o u",
      "t h",
      "e n",
      "i s",
      "a t",
      "a r",
      "a s",
      "o f",
      "l e",
      "a l",
      "s t",
      "o r",
      "i t",
      "s e",
      "o w",
      "e s",
      "o m",
      "a d",
      "h i",
      "a c",
      "w i",
      "b e",
      "h is",
      "l y",
      "wi th",
      "r o",
      "i d",
      "l l",
      "i r",
      "g h",
      "l d",
      "c h",
      "s h",
      "w e",
      "en t",
      "a y",
      "w as",
      "a m",
      "he r",
      "l i",
      "u t",
      "v e",
      "m an",
      "r i",
      "v er",
      "p e",
      "u n",
      "s he",
      "f or",
      "u p",
      "u r",
      "c e",
      "al l",
      "o t",
      "ou n",
      "th at",
      "gh t",
      "ou t",
      "ow n",
      "h ad",
      "l o",
      "g e",
      "a re",
      "the r",
      "c k",
      "t i",
      "f r",
      "t er",
      "m o",
      "on e",
      "a in",
      "a b",
      "a p",
      "hi m",
      "o p",
      "n e",
      "ac k",
      "m e",
      "w hi",
      "the n",
      "h o",
      "ar d",
      "k e",
      "b o",
      "p l",
      "f e",
      "re d",
      "oun d",
      "d e",
      "d o",
      "the y",
      "g o",
      "er s",
      "a g",
      "i on",
      "fr om",
      "y ou",
      "in to",
      "s o",
      "w he",
      "b y",
      "s s",
      "c on",
      "b ut",
      "k ing",
      "u m",
      "ou ld",
      "f i",
      "f o",
      "d own",
      "t e",
      "h a",
      "p o",
      "id e",
      "o ther",
      "i l",
      "g r",
      "om e",
      "t s",
      "b l",
      "in d",
      "t ing",
      "u s",
      "s a",
      "ou r",
      "ur n",
      "w o",
      "h and",
      "c o",
      "c am",
      "t r",
      "- -",
      "q u",
      "t ed",
      "t urn",
      "u l",
      "b ack",
      "w ay",
      "n ot",
      "the m",
      "w om",
      "n o",
      "en d",
      "on g",
      "b r",
      "we re",
      "s c",
      "c he",
      "a f",
      "se e",
      "m y",
      "o ver",
      "w h",
      "e t",
      "pe op",
      "peop le",
      "the ir",
      "the re",
      "whi le",
      "s ome",
      "s u",
      "th r",
      "n ow",
      "s p",
      "as t",
      "wom an",
      "whe n",
      "whi ch",
      "ac e",
      "d i",
      "st r",
      "ou gh",
      "w ho",
      "e x",
      "t le",
      "al k",
      "w at",
      "i ght",
      "ou s",
      "at e",
      "pl ay",
      "as s",
      "se l",
      "w ent",
      "t wo",
      "p i",
      "s ide",
      "a u",
      "p s",
      "a ir",
      "er a",
      "p ut",
      "ag ain",
      "c om",
      "fo re",
      "o d",
      "p er",
      "cam era",
      "s it",
      "m en",
      "of f",
      "a v",
      "a k",
      "u st",
      ", \"",
      "i m",
      "p re",
      "af ter",
      "l it",
      "ar ound",
      "ab le",
      "i f",
      "sa id",
      "th is",
      "w ard",
      "ha ve",
      "e l",
      "sel f",
      "d is",
      "c ar",
      "p ed",
      "he ad",
      "be g",
      "es s",
      ". \"",
      "ac h",
      "in e",
      "con t",
      "w or",
      "st and",
      "p ar",
      "ar m",
      "i ll",
      "o k",
      "at ion",
      "turn ed",
      "ro om",
      "c l",
      "g re",
      "u re",
      "f l",
      "e y",
      "s pe",
      "lit tle",
      "an t",
      "w ould",
      "it e",
      "c r",
      "th ing",
      "mo re",
      "p ro",
      "c lo",
      "d er",
      "d r",
      "se en",
      "c t",
      "i c",
      "sh own",
      "be fore",
      "e p",
      "ver y",
      "w alk",
      "it s",
      "an g",
      "f t",
      "p ers",
      "g ir",
      "o l",
      "he d",
      "ab out",
      "s m",
      "v ing",
      "am e",
      "do or",
      "gir l",
      "be en",
      "ow s",
      "u e",
      "to r",
      "an ce",
      "v ed",
      "a way",
      "v es",
      "g l",
      "n ing",
      "a ve",
      "wat er",
      "li ke",
      "re e",
      "i ck",
      "cont in",
      "pers on",
      "b all",
      "re n",
      "se s",
      "an other",
      "v en",
      "le s",
      "i g",
      "a w",
      "in s",
      "r un",
      "a ge",
      "thr ough",
      "ad y",
      "ou ght",
      "al king",
      "p r",
      "li ght",
      "up on",
      "bo y",
      "m ar",
      "ho ld",
      "p u",
      "d ay",
      "f ace",
      "ar s",
      "m ent",
      "a th",
      "op en",
      "h or",
      "m r",
      "whe re",
      "l ong",
      "s l",
      "f ul",
      "ti me",
      "hand s",
      "a king",
      "c le",
      "o ld",
      "le t",
      "le ft",
      "s to",
      "se ver",
      "ey es",
      "sever al",
      "ri ed",
      "se t",
      "p ing",
      "p ass",
      "t y",
      "in k",
      "s at",
      "h ow",
      "for m",
      "v i",
      "s hi",
      "b le",
      "c ould",
      "s k",
      "an c",
      "on t",
      "is h",
      "sh o",
      "we ll",
      "c an",
      "st ar",
      "t able",
      "wh at",
      "c hi",
      "j um",
      "bl ack",
      "en ce",
      "t ain",
      "ne w",
      "al ly",
      "i ous",
      "a ke",
      "oun g",
      "play ing",
      "p le",
      "st e",
      "t en",
      "y oung",
      "stand ing",
      "b er",
      "ti on",
      "contin u",
      "an s",
      "ro ss",
      "at ed",
      "fr ont",
      "b re",
      "h ou",
      "c or",
      "d id",
      "sh ould",
      "w ind",
      "x t",
      "an y",
      "ll ed",
      "d re",
      "wh ite",
      "m ed",
      "him self",
      "h ind",
      "a il",
      "b u",
      "d d",
      "b ed",
      "s ent",
      "sc re",
      "r u",
      "j o",
      "f ir",
      "be hind",
      "ge t",
      "go ing",
      "sit ting",
      "g i",
      "un der",
      "l ed",
      "st re",
      "f in",
      "bo ard",
      "ha ir",
      "m on",
      "! \"",
      "b ar",
      "f lo",
      "ll ow",
      "d s",
      "ri ght",
      "j ust",
      "l ing",
      "it y",
      "i ce",
      "a ther",
      "wi ll",
      "st ill",
      "e m",
      "hou se",
      "c li",
      "r ound",
      "r id",
      "b ro",
      "s er",
      "ap pe",
      "y e",
      "le ss",
      "an k",
      "gre at",
      "ar ge",
      "g u",
      "p t",
      "is s",
      "t re",
      "che d",
      "al ong",
      "hold ing",
      "r y",
      "e ld",
      "l ady",
      "on ly",
      "fir st",
      "d es",
      "t ri",
      "to ward",
      "lo ok",
      "m or",
      "d ar",
      "p ped",
      "on ce",
      "ow ing",
      "ne xt",
      "scre en",
      "n ight",
      "h as",
      "n ess",
      "is e",
      "t alking",
      "re st",
      "e ven",
      "s ur",
      "gr ound",
      "continu es",
      "ck s",
      "c ap",
      "f all",
      "m at",
      "is t",
      "do g",
      "d y",
      "mo st",
      "r an",
      "ar ing",
      "beg ins",
      "un g",
      "d ro",
      "g ot",
      "are d",
      "s ay",
      "l and",
      "l ay",
      "l arge",
      "n er",
      "or t",
      "d ri",
      "h al",
      "sh ot",
      "you r",
      "c our",
      "e very",
      "chi ld",
      "a id",
      "be t",
      "c au",
      "m i",
      "s w",
      "m u",
      "? \"",
      "he re",
      "to ge",
      "toge ther",
      "e red",
      "in t",
      "gr ou",
      "t alk",
      "n i",
      "wo od",
      "ck ed",
      "l ast",
      "th an",
      "sm all",
      "at ing",
      "fi eld",
      "str u",
      "m in",
      "ac ross",
      "e f",
      "be ing",
      "c i",
      "m om",
      "hor se",
      "c ut",
      "c ur",
      "th ought",
      "mom ent",
      "c oun",
      "m ight",
      "s il",
      "to m",
      "d u",
      "ch ing",
      "i es",
      "w a",
      "e ach",
      "w all",
      "th ree",
      "spe aking",
      "j e",
      "grou p",
      "k ed",
      "dd en",
      "c at",
      "c tion",
      "walk s",
      "to o",
      "o b",
      "o se",
      "r a",
      "ing s",
      "end s",
      "bo at",
      "go od",
      "c er",
      "d on",
      "k now",
      "ar t",
      "b ow",
      "c re",
      "a le",
      "l ow",
      "again st",
      "arm s",
      "pass ed",
      "che s",
      "ak es",
      "g ed",
      "i ve",
      "s ed",
      "p an",
      "fe et",
      "hal f",
      "clo se",
      "s ing",
      "dar k",
      "b i",
      "ap p",
      "fe ll",
      "bl ue",
      "shi r",
      "re s",
      ". .",
      "ss ed",
      "beg an",
      "m es",
      "pl ace",
      "tr y",
      "su dden",
      "flo or",
      "ti c",
      "i ly",
      "w alking",
      "in ter",
      "f ac",
      "ch air",
      "w r",
      "hi gh",
      "c as",
      "s now",
      "ac hed",
      "ent s",
      "f ound",
      "g one",
      "s ame",
      "v ar",
      "g y",
      "e ver",
      "fe w",
      "at t",
      "le ad",
      "le g",
      "e st",
      "with out",
      "ti l",
      "he s",
      "see med",
      "to p",
      "run ning",
      "sl ow",
      "s up",
      "s mo",
      "re ad",
      "co l",
      "re turned",
      "m oun",
      "br ought",
      "m er",
      "qu i",
      "put s",
      "ne ver",
      "cam e",
      "av es",
      "s le",
      "s un",
      "ad d",
      "f ri",
      "h our",
      "bo dy",
      "e ar",
      "en ed",
      "we aring",
      "fi re",
      "shir t",
      "c ted",
      "l au",
      "ren t",
      "a z",
      "ar y",
      "sh ows",
      "open ed",
      "c u",
      "per form",
      "rid ing",
      "f f",
      "th ough",
      "h u",
      "the se",
      "she d",
      "n or",
      "v o",
      "he l",
      "he ard",
      "en g",
      "li f",
      "pl ac",
      "s i",
      "p ain",
      "ro ll",
      "ne ar",
      "t u",
      "un til",
      "walk ed",
      "f our",
      "br u",
      "p h",
      "is hed",
      "for ward",
      "ure s",
      "cr ow",
      "li ps",
      "mo ve",
      "f ar",
      "k ne",
      "p ap",
      "r ow",
      "s wi",
      "fo ot",
      "us ed",
      "di f",
      "wor k",
      "var ious",
      "on to",
      "mr s",
      "re ady",
      "en e",
      "m iss",
      "bo th",
      "sudden ly",
      "m ust",
      "mo ving",
      "f u",
      "h ur",
      "ro se",
      "ro ad",
      "c a",
      "s and",
      "er ing",
      "mu ch",
      "h ome",
      "m as",
      "to w",
      "man y",
      "b es",
      "b ot",
      "st ick",
      "g ame",
      "qu ick",
      "av ing",
      "mor ning",
      "mo ved",
      "r ing",
      "ab o",
      "so on",
      "d anc",
      "f le",
      "we en",
      "bet ween",
      "c ed",
      "ou th",
      "te m",
      "st u",
      "do ing",
      "wom en",
      "an ge",
      "l t",
      "v ent",
      "st er",
      "hi ll",
      "par t",
      "cau ght",
      "lo o",
      "ig n",
      "toward s",
      "ar ri",
      "ad e",
      "ch o",
      "ri ver",
      "do es",
      "go es",
      "us ing",
      "dis t",
      "ti mes",
      "e k",
      "m ay",
      "as h",
      "crow d",
      "re turn",
      "th ose",
      "mo ves",
      "gy m",
      "f ather",
      "is ed",
      "wa it",
      "l ine",
      "m id",
      "al most",
      "stand s",
      "f ing",
      "contin ue",
      "th re",
      "out side",
      "ful ly",
      "h ard",
      "m b",
      "li fe",
      "some thing",
      "e w",
      "g ent",
      "or d",
      "stre et",
      "c es",
      "s we",
      "v ide",
      "le y",
      "al s",
      "ent ered",
      "li p",
      "h it",
      "h un",
      "beg in",
      "re ached",
      "st ep",
      "ow er",
      "d one",
      "ve red",
      "pre sent",
      "vide o",
      "g ave",
      "t on",
      "ion s",
      "other s",
      "dif fe",
      "l in",
      "po sit",
      "car ried",
      "wor ds",
      "ter s",
      "m ain",
      "te am",
      "c al",
      "i e",
      "pi e",
      "jum ps",
      "c ent",
      "l at",
      "v is",
      "st air",
      "spe ak",
      "sm i",
      "vi ew",
      "c ess",
      "ro pe",
      "te ll",
      "b it",
      "s id",
      "mo ther",
      "te red",
      "boy s",
      "shot s",
      "loo king",
      "gre en",
      "t it",
      "her self",
      "su ch",
      "s on",
      "in ce",
      "th ink",
      "il ing",
      "pap er",
      "b lo",
      "c tor",
      "i z",
      "m ing",
      "y ard",
      "pu ll",
      "star ts",
      "f ast",
      "p ri",
      "at es",
      "al so",
      "for t",
      "p ur",
      "way s",
      "wor d",
      "abo ve",
      "c are",
      "s qu",
      "in st",
      "diffe rent",
      "c up",
      "k en",
      "s ound",
      "on d",
      "ch ang",
      "ha ving",
      "girl s",
      "t akes",
      "y et",
      "ck et",
      "shi p",
      "le ave",
      "end ed",
      "wind ow",
      "b ig",
      "p at",
      "as e",
      "pi ct",
      "c ou",
      "d le",
      "f ind",
      "he av",
      "sh all",
      "ti ll",
      "end ing",
      "b and",
      "c ome",
      "o c",
      "u d",
      "me t",
      "di re",
      "aw n",
      "c ir",
      "ap s",
      "v al",
      "pre ss",
      "bre ak",
      "g g",
      "s po",
      "fo llow",
      "h at",
      "l ad",
      "r is",
      "w on",
      "sp r",
      "ey e",
      "dro pped",
      "f re",
      "wat ch",
      "lead s",
      "bru sh",
      "m ach",
      "p or",
      "ate ly",
      "cle an",
      "jum p",
      "he ld",
      "al one",
      "m outh",
      "il ed",
      "gl ass",
      "talk s",
      "k it",
      "s of",
      "bo x",
      "no thing",
      "ru b",
      "cour t",
      "min ut",
      "slow ly",
      "sle ep",
      "g ard",
      "k new",
      "an e",
      "st ri",
      "co vered",
      "i an",
      "m ind",
      "p ast",
      "in side",
      "re ce",
      "se a",
      "day s",
      "ou d",
      "of fi",
      "ro ck",
      "thr ows",
      "m ot",
      "n at",
      "for th",
      "ge ts",
      "fi lled",
      "br ing",
      "lau gh",
      "c all",
      "run s",
      "hor ses",
      "vo ice",
      "b at",
      "b ur",
      "g a",
      "h ar",
      "m s",
      "r ap",
      "t ree",
      "le an",
      "put ting",
      "sho ok",
      "ye llow",
      "b ri",
      "f ur",
      "p en",
      "to ld",
      "m a",
      "w ar",
      "de ad",
      "thing s",
      "tor y",
      "dre ssed",
      "fu ll",
      "l aid",
      "t ly",
      "st age",
      "ke ep",
      "pl ain",
      "con d",
      "fri end",
      "h app",
      "he art",
      "j ack",
      "l u",
      "ur ing",
      "turn s",
      "clo sed",
      "appe ared",
      "stru ck",
      "quick ly",
      "n a",
      "p our",
      "sh ar",
      "sh ort",
      "child ren",
      "leg s",
      "thre w",
      "c y",
      "l s",
      "ent ly",
      "stair s",
      "u ses",
      "as ked",
      "li e",
      "cour se",
      "cau se",
      "tow n",
      "b or",
      "id s",
      "bro ke",
      "dist ance",
      "n ed",
      "u se",
      "on s",
      "en er",
      "gr ass",
      "el s",
      "c ast",
      "c ross",
      "p air",
      "wi ld",
      "be ach",
      "su b",
      "str a",
      "wat ching",
      "mon str",
      "cap tain",
      "v ol",
      "car ry",
      "ste ps",
      "g lo",
      "i ble",
      "he ar",
      "gr ab",
      "m us",
      "so l",
      "che n",
      "dr um",
      "cer tain",
      "-- \"",
      "ul t",
      "sel ves",
      "bi ke",
      "re main",
      "le aves",
      "wh y",
      "thr ow",
      "hold s",
      "appe ars",
      "chang ed",
      "b al",
      "d ance",
      "n um",
      "p ans",
      "s al",
      "in ed",
      "th in",
      "be ll",
      "ap pro",
      "tr ack",
      "mi x",
      "gent le",
      "p ort",
      "v id",
      "am ong",
      "ne y",
      "po se",
      "bl ed",
      "ous ly",
      "star t",
      "c ity",
      "h ang",
      "en s",
      "ke t",
      "play s",
      "ment s",
      "mach ine",
      "stra ight",
      "f ly",
      "g ar",
      "or s",
      "ro lled",
      "sh ut",
      "de monstr",
      "po ol",
      "kit chen",
      "b as",
      "c ri",
      "g er",
      "i ther",
      "s li",
      "ac t",
      "un k",
      "swi m",
      "danc ing",
      "k iss",
      "ap ped",
      "red i",
      "com ple",
      "a pe",
      "s um",
      "an ts",
      "po int",
      "qu e",
      "get ting",
      "gi ve",
      "cli ps",
      "b ab",
      "f air",
      "h ung",
      "m is",
      "en ough",
      "ro de",
      "am p",
      "she s",
      "po in",
      "su re",
      "ation s",
      "should er",
      "plac ed",
      "bes ide",
      "mid dle",
      "e le",
      "ro of",
      "bo ok",
      "de ep",
      "cle ar",
      "dre ss",
      "stre t",
      "cli mb",
      "sw ing",
      "moun tain",
      "follow ed",
      "a h",
      "p ping",
      "s im",
      "al ways",
      "was h",
      "co at",
      "wh om",
      "com p",
      "sk i",
      "fin ally",
      "appe ar",
      "look ed",
      "pie ce",
      "inst ant",
      "c us",
      "t ro",
      "ing redi",
      "ch ar",
      "who le",
      "mot ion",
      "b us",
      "i a",
      "s ince",
      "fi x",
      "dr aw",
      "dr ink",
      "ingredi ents",
      "a un",
      "b ank",
      "d in",
      "l is",
      "p in",
      "be y",
      "ir on",
      "ne ck",
      "ag es",
      "tr ain",
      "no on",
      "el ing",
      "pu lled",
      "cor ner",
      "should ers",
      "lat er",
      "s ir",
      "he n",
      "se cond",
      "sh owing",
      "turn ing",
      "vi ol",
      "em p",
      "bet ter",
      "arri ved",
      "e as",
      "g un",
      "k ni",
      "p a",
      "be cause",
      "li c",
      "ge st",
      "go ld",
      "fi ve",
      "sa il",
      "jum ping",
      "lif ted",
      "f er",
      "m ake",
      "fi ght",
      "qu ite",
      "f am",
      "l ot",
      "p it",
      "s y",
      "er c",
      "we ight",
      "ail s",
      "h all",
      "k ick",
      "p es",
      "s co",
      "s ight",
      "in ess",
      "ver s",
      "them selves",
      "dr y",
      "sm iling",
      "how ever",
      "gu y",
      "qui et",
      "c ried",
      "d ing",
      "m it",
      "m ir",
      "n ame",
      "s ink",
      "u al",
      "ad v",
      "sh ow",
      "ra ised",
      "f as",
      "k no",
      "s n",
      "st one",
      "sh ad",
      "ve l",
      "bl ing",
      "tr ave",
      "qu est",
      "ple as",
      "ste ad",
      "smo ke",
      "a im",
      "g ri",
      "t in",
      "co ld",
      "br own",
      "ex pe",
      "star ted",
      "fall s",
      "try ing",
      "bot tom",
      "kni fe",
      "p ly",
      "r out",
      "wi fe",
      "sh ing",
      "ag ed",
      "ang er",
      "bu ll",
      "dire ction",
      "p ot",
      "s ign",
      "w rest",
      "on es",
      "le aving",
      "be at",
      "be low",
      "op s",
      "pre t",
      "look s",
      "fing ers",
      "h ot",
      "j u",
      "k s",
      "w his",
      "ke pt",
      "fe ct",
      "fi c",
      "thr owing",
      "anc ed",
      "minut es",
      "b en",
      "b ag",
      "k ind",
      "me an",
      "de red",
      "su c",
      "clo the",
      "even ing",
      "cas e",
      "gym n",
      "rece i",
      "m ur",
      "p ath",
      "re g",
      "ar row",
      "with in",
      "we l",
      "li es",
      "one y",
      "po ss",
      "my self",
      "thr own",
      "je ct",
      "b ent",
      "b ars",
      "l ord",
      "p as",
      "s en",
      "z e",
      "re l",
      "al ready",
      "are a",
      "me m",
      "blo od",
      "c ts",
      "g ener",
      "m and",
      "st y",
      "st ir",
      "se at",
      "be am",
      "ke y",
      "cr y",
      "dre w",
      "stre am",
      "perform ing",
      "plac es",
      "smi le",
      "heav y",
      "spo ke",
      "b ing",
      "p al",
      "the red",
      "to u",
      "lo ve",
      "cam p",
      "after noon",
      "pro du",
      "sk y",
      "new s",
      "bot tle",
      "posit ion",
      "tit le",
      "d ou",
      "d uring",
      "m ale",
      "r up",
      "on y",
      "to ol",
      "be st",
      "sa ve",
      "com es",
      "jo y",
      "kne es",
      "b ir",
      "d red",
      "r ather",
      "ed ge",
      "um p",
      "ul ar",
      "br id",
      "pi cked",
      "au di",
      "tre es",
      "si x",
      "g ro",
      "i ed",
      "r af",
      "t ried",
      "v an",
      "ce ed",
      "ne ed",
      "au ght",
      "bre ath",
      "hour s",
      "mas ter",
      "hun dred",
      "d en",
      "n y",
      "is on",
      "as hed",
      "it self",
      "be l",
      "be came",
      "do ctor",
      "go d",
      "fin ished",
      "ye ars",
      "clothe s",
      "f lips",
      "h am",
      "r or",
      "t w",
      "t ake",
      "in de",
      "re ach",
      "de ck",
      "sc ar",
      "sp read",
      "ex erc",
      "com pan",
      "let ter",
      "sil ence",
      "a x",
      "d ir",
      "er y",
      "am es",
      "ck ing",
      "ard s",
      "fe lt",
      "ward s",
      "sho ot",
      "ser v",
      "tre m",
      "int ro",
      "hur ried",
      "rout ine",
      "h op",
      "i ld",
      "p ack",
      "i re",
      "l ate",
      "p add",
      "u ally",
      "w ant",
      "se iz",
      "sh out",
      "ter ing",
      "ne t",
      "fi g",
      "wo re",
      "ex plain",
      "spe ct",
      "a ut",
      "c ab",
      "g ate",
      "in stru",
      "th ir",
      "th us",
      "at tem",
      "or der",
      "hi on",
      "pe t",
      "gr ay",
      "tr u",
      "sit s",
      "fl at",
      "med i",
      "bro ken",
      "coun try",
      ", '",
      "b a",
      "d ust",
      "k n",
      "k es",
      "l er",
      "m oney",
      "s is",
      "s pl",
      "w an",
      "se ar",
      "pi cks",
      "chi ef",
      "spr ay",
      "mus ic",
      "f ence",
      "g az",
      "i gh",
      "z z",
      "de ath",
      "sa ge",
      "no dd",
      "che ek",
      "str ong",
      "par ty",
      "door s",
      "pass ing",
      "ber t",
      "fri ends",
      "gard en",
      "b un",
      "o h",
      "s cho",
      "w aves",
      "th y",
      "se ated",
      "ll ing",
      "lo st",
      "pl ate",
      "po cket",
      "sc ene",
      "che er",
      "sp in",
      "sp ir",
      "who se",
      "play ers",
      "car ri",
      "wor ld",
      "pr om",
      "open ing",
      "sk ate",
      "sid es",
      "ga thered",
      "b s",
      "b ill",
      "e ts",
      "h n",
      "s lo",
      "s light",
      "an n",
      "re mem",
      "as ed",
      "it ed",
      "ti ve",
      "ap ping",
      "fo ld",
      "bl ow",
      "co ver",
      "sp ot",
      "spe ed",
      "bu ild",
      "bro ther",
      "tri cks",
      "sur round",
      "bey ond",
      "b ath",
      "g es",
      "k ids",
      "p ower",
      "w in",
      "an im",
      "th s",
      "as k",
      "ro cks",
      "ti ght",
      "play er",
      "com pe",
      "par ted",
      "did n",
      "jo hn",
      "hel p",
      ", --",
      ". '",
      "l awn",
      "r ide",
      "s se",
      "th ick",
      "ow ed",
      "ti re",
      "con f",
      "te en",
      "dri ve",
      "cir cle",
      "grab s",
      "swim ming",
      "comple te",
      "bab y",
      "g s",
      "w and",
      "ut e",
      "su it",
      "str um",
      "fl ung",
      "bow l",
      "pict ures",
      "won der",
      "rap id",
      "lis ten",
      "g ing",
      "s us",
      "t wi",
      "t ail",
      "y es",
      "th ro",
      "is hes",
      "ar r",
      "ain ed",
      "go al",
      "pi pe",
      "fl ed",
      "sto p",
      "pour s",
      "comp any",
      "b right",
      "c ing",
      "e vent",
      "k er",
      "it ion",
      "we ek",
      "so ld",
      "po or",
      "po sed",
      "dr ag",
      "light s",
      "gi ven",
      "dro ve",
      "ear th",
      "wait ing",
      "pict ure",
      "cou ple",
      "fur ther",
      "hang ing",
      "b ul",
      "h its",
      "h aps",
      "m ad",
      "m ag",
      "s or",
      "w ound",
      "is ted",
      "sh aking",
      "te e",
      "qu ar",
      "per haps",
      "fall en",
      "cat ch",
      "hit ting",
      "fas hion",
      "f it",
      "f ish",
      "st ation",
      "wi de",
      "we st",
      "ho pe",
      "fe llow",
      "fo od",
      "im medi",
      "pre p",
      "tor s",
      "ball s",
      "say ing",
      "wood en",
      "recei ved",
      "b ad",
      "c red",
      "j our",
      "k in",
      "l eng",
      "in strum",
      "ain t",
      "fe ar",
      "str ange",
      "sho re",
      "sil ent",
      "press ion",
      "fix ed",
      "c ig",
      "f lip",
      "s tory",
      "is ing",
      "ad ed",
      "ex cl",
      "av ed",
      "pre ssed",
      "jum ped",
      "ru shed",
      "des er",
      "fall ing",
      "coun ter",
      "pain t",
      "swi ft",
      "lean ed",
      "num ber",
      "stret ched",
      "emp ty",
      "poss ible",
      "audi ence",
      "i ent",
      "n arrow",
      "t all",
      "w arm",
      "li m",
      "li ed",
      "ter ri",
      "no se",
      "cl u",
      "pu shed",
      "sho es",
      "mat ch",
      "mat ter",
      "inter view",
      "nor th",
      "roll ing",
      "lad ies",
      "kiss ed",
      "inde ed",
      "b urn",
      "s end",
      "s ort",
      "of fe",
      "po l",
      "sa fe",
      "end er",
      "ren ch",
      "can o",
      "offi ce",
      "call ed",
      "bas ket",
      "pret ty",
      "brid ge",
      "b ound",
      "r ain",
      "v ill",
      "as ses",
      "st ay",
      "id ed",
      "un i",
      "ce ly",
      "te ars",
      "us ual",
      "co ok",
      "ex ce",
      "say s",
      "remain ed",
      "gentle man",
      "sli pped",
      "scho ol",
      "skate board",
      "i ence",
      "v ac",
      "le ap",
      "be aut",
      "li ve",
      "for got",
      "are t",
      "po le",
      "tr ail",
      "pr ac",
      "pr ay",
      "less ly",
      "land s",
      "dark ness",
      "expe cted",
      "e ither",
      "f ree",
      "h us",
      "r am",
      "as on",
      "st s",
      "ad ing",
      "id ent",
      "for ce",
      "whe el",
      "con sc",
      "see ing",
      "sto ps",
      "anc es",
      "gi ving",
      "fac ed",
      "ear ly",
      "ca pe",
      "wan ted",
      "sold i",
      "tee th",
      "l a",
      "r al",
      "t ar",
      "t led",
      "th or",
      "st ren",
      "are n",
      "gr and",
      "ind i",
      "tr a",
      "tr ac",
      "che st",
      "mar k",
      "any thing",
      "cli m",
      "ye ar",
      "dog s",
      "wood s",
      "fac es",
      "att ack",
      "speak s",
      "fort un",
      "squ are",
      "shar p",
      "nodd ed",
      "leng th",
      "c ting",
      "g hed",
      "ch ange",
      "li qu",
      "me et",
      "ho le",
      "di e",
      "di ving",
      "mi les",
      "four th",
      "laugh ing",
      "drum s",
      "b on",
      "b are",
      "l on",
      "n ails",
      "t went",
      "th ank",
      "be lie",
      "sh op",
      "ent ion",
      "li ving",
      "ab ly",
      "pl an",
      "gr ave",
      "pi c",
      "ak ed",
      "head s",
      "gre y",
      "sm iled",
      "sto pped",
      "fin ishes",
      "smo o",
      "moun ted",
      "fle w",
      "oc cas",
      "fre sh",
      "sof t",
      "carry ing",
      "swing ing",
      "din ner",
      "aim ed",
      "jour ney",
      "stren g",
      "h y",
      "i al",
      "ou red",
      "ro y",
      "am ed",
      "de al",
      "do ll",
      "fi ed",
      "thr ust",
      "gl ance",
      "ten n",
      "sur pr",
      "lif ting",
      "fing er",
      "swe pt",
      "present ly",
      "pull ing",
      "shad ow",
      "exerc ise",
      "seiz ed",
      "b ly",
      "f ine",
      "h arm",
      "j er",
      "j im",
      "l ake",
      "p ink",
      "r ail",
      "s ank",
      "v a",
      "w ave",
      "en ing",
      "is ts",
      "as ide",
      "ly ing",
      "un cle",
      "mo on",
      "me l",
      "ho l",
      "te st",
      "bl ind",
      "back ground",
      "fl ag",
      "clo th",
      "gi ves",
      "bro ad",
      "perform s",
      "hu ge",
      "lif ts",
      "lin es",
      "cross ed",
      "fam ily",
      "suc cess",
      "immedi ately",
      "twent y",
      "tenn is",
      "f en",
      "g all",
      "r at",
      "t aking",
      "v il",
      "in te",
      "re p",
      "ac hes",
      "ch ap",
      "we red",
      "ter n",
      "co ach",
      "tr ou",
      "el se",
      "cr u",
      "cr ack",
      "sur face",
      "cut ting",
      "quest ion",
      "b ene",
      "e at",
      "f ro",
      "g le",
      "s ong",
      "v ic",
      "w ag",
      "re al",
      "un d",
      "she l",
      "ho od",
      "de ar",
      "co ll",
      "par k",
      "pro per",
      "ath le",
      "sl id",
      "ious ly",
      "wind ows",
      "fin ish",
      "sil ver",
      "thin king",
      "gener al",
      "dir t",
      "clim bed",
      "c ro",
      "c cer",
      "d aught",
      "in stead",
      "an o",
      "ad es",
      "li ft",
      "ri c",
      "ap art",
      "me as",
      "so ccer",
      "po st",
      "ex per",
      "play ed",
      "per fect",
      "pre par",
      "if ul",
      "fl u",
      "pr ison",
      "old er",
      "fin al",
      "ob ject",
      "cu ri",
      "dou b",
      "carri age",
      "hus band",
      "occas ion",
      "streng th",
      "f at",
      "f rench",
      "g ue",
      "l ac",
      "l aw",
      "p ale",
      "u de",
      "in ing",
      "th ous",
      "en gl",
      "ac cor",
      "ro b",
      "ch in",
      "sh ake",
      "ot s",
      "lo cked",
      "ti ed",
      "no ise",
      "com mand",
      "ic al",
      "pr of",
      "ans wered",
      "hou ses",
      "sur f",
      "dri ving",
      "ive ly",
      ".. ..",
      "col le",
      "fig ure",
      "rapid ly",
      "thous and",
      "e re",
      "e ars",
      "e vid",
      "m il",
      "r ise",
      "u red",
      "the d",
      "an ch",
      "as tic",
      "le ast",
      "it ch",
      "am ing",
      "ut ter",
      "te xt",
      "gl ad",
      "ren ce",
      "long er",
      "dri ven",
      "read ing",
      "roll er",
      "ris ing",
      "fly ing",
      "cab in",
      "a to",
      "c ot",
      "c ake",
      "f arm",
      "k ill",
      "r ack",
      "r ough",
      "s tor",
      "s lip",
      "v in",
      "z en",
      "in king",
      "st un",
      "st ate",
      "ch ur",
      "ti es",
      "de li",
      "pro ceed",
      "clo ck",
      "gl asses",
      "continu ed",
      "jo ined",
      "every thing",
      "cut s",
      "oc cup",
      "cir c",
      "sum mer",
      "wash ing",
      "draw ing",
      "quiet ly",
      "cano e",
      "uni form",
      "inte rest",
      "bene ath",
      "f urn",
      "p ow",
      "r ang",
      "s ence",
      "t ur",
      "w ing",
      "st ree",
      "it ing",
      "ad ds",
      "we ar",
      "am er",
      "man ner",
      "fr ame",
      "ke e",
      "con sid",
      "ep ing",
      "vi ce",
      "ser ved",
      "gu ard",
      "des c",
      "coun t",
      "lau ghed",
      "near ly",
      "stick s",
      "ash ing",
      "bat tle",
      "climb ing",
      "bus iness",
      "adv anced",
      "stree ts",
      "e ve",
      "e ag",
      "h um",
      "i le",
      "m ul",
      "m aking",
      "m akes",
      "p ul",
      "s ou",
      "w aving",
      "z ed",
      "re pe",
      "or y",
      "it ies",
      "for d",
      "lo ck",
      "op posit",
      "ne l",
      "ne igh",
      "co ol",
      "there fore",
      "some times",
      "pi ck",
      "sit y",
      "room s",
      "ans w",
      "sw ung",
      "cre am",
      "sup pose",
      "ph one",
      "smi les",
      "sof tly",
      "happ y",
      "aun t",
      "consc ious",
      "opposit e",
      "b an",
      "g gl",
      "l oud",
      "m aid",
      "r ag",
      "w re",
      "an x",
      "re ar",
      "er ly",
      "as ter",
      "as hes",
      "of ten",
      "or n",
      "ac tion",
      "be ard",
      "we t",
      "me re",
      "gr ap",
      "sa w",
      "tr am",
      "sc ot",
      "some one",
      "sp ring",
      "ex c",
      "ant ly",
      "mar y",
      "bre ad",
      "rid es",
      "ction s",
      "ster n",
      "pie ces",
      "pri est",
      "bur st",
      "viol in",
      "spin ning",
      "remem ber",
      "build ing",
      "surround ed",
      "f right",
      "k id",
      "p hi",
      "le ar",
      "ch r",
      "ch an",
      "ch am",
      "up per",
      "ne are",
      "pl at",
      "fe el",
      "de c",
      "gr ace",
      "su f",
      "wat ches",
      "com ing",
      "car s",
      "ct ly",
      "ic a",
      "pr in",
      "set ting",
      "sat is",
      "sho e",
      "tri m",
      "ci al",
      "wait ed",
      "minut e",
      "demonstr ates",
      "cig aret",
      "lon don",
      "daught er",
      "chur ch",
      "f un",
      "g ged",
      "m ass",
      "s ad",
      "s outh",
      "z o",
      "re li",
      "to wel",
      "es cape",
      "ent ire",
      "her s",
      "ut tered",
      "ri ch",
      "hand ed",
      "not ic",
      "ast on",
      "ex pression",
      "wor n",
      "cl oud",
      "pu shing",
      "bre ast",
      "bow ed",
      "pull s",
      "cast le",
      "bir d",
      "scar cely",
      "cred its",
      "vac u",
      "chap ter",
      "a head",
      "b il",
      "c ow",
      "g if",
      "n one",
      "r ace",
      "t ent",
      "w ish",
      "in form",
      "re co",
      "ar k",
      "it al",
      "es cap",
      "be red",
      "ch arge",
      "ent er",
      "af t",
      "pi ano",
      "fore st",
      "pr ince",
      "set tled",
      "star ing",
      "talk ed",
      "cur tain",
      "boat s",
      "sing le",
      ".. .",
      "att ention",
      "kne eling",
      "begin ning",
      "care fully",
      "met al",
      "break fast",
      "que en",
      "poin ts",
      "fight ing",
      "wrest ling",
      "gymn ast",
      "compan ion",
      "attem p",
      "sis ter",
      "b ending",
      "e ight",
      "h ab",
      "k ay",
      "l an",
      "l ane",
      "m al",
      "s add",
      "t um",
      "is to",
      "st um",
      "or ge",
      "hi g",
      "ent r",
      "lo g",
      "ti m",
      "ho ok",
      "fe at",
      "po sse",
      "gr ow",
      "bl owing",
      "sc en",
      "di g",
      "di ck",
      "pre c",
      "sl ide",
      "can not",
      "bu cket",
      "jo in",
      "tre ss",
      "col or",
      "team s",
      "pur su",
      "cou ch",
      "val ley",
      "clean ing",
      "kno cked",
      "pas sage",
      "thro at",
      "vacu um",
      "e qui",
      "g as",
      "h ast",
      "k y",
      "m n",
      "s word",
      "t at",
      "w inter",
      "w aved",
      "th ou",
      "at a",
      "sh aving",
      "de ter",
      "fi er",
      "bl ows",
      "tr unk",
      "di es",
      "pro cess",
      "dr awn",
      "aw s",
      "sk in",
      "tri es",
      "cap t",
      "lay ing",
      "fac t",
      "pain ting",
      "return ing",
      "glo om",
      "appro ach",
      "eas y",
      "cheek s",
      "slo pe",
      "instrum ent",
      "excl aimed",
      "vill age",
      "exce pt",
      "rep lied",
      "a go",
      "b our",
      "d or",
      "d ge",
      "i or",
      "m ess",
      "m ine",
      "n ers",
      "s ick",
      "s ses",
      "t ender",
      "in a",
      "ar my",
      "as ing",
      "ad i",
      "lo go",
      "fe eling",
      "so le",
      "sc u",
      "see ms",
      "cl ud",
      "fl ow",
      "em er",
      "dro p",
      "land ing",
      "wall s",
      "sing ing",
      "step ped",
      "instant ly",
      "sco re",
      "kn own",
      "belie ve",
      "smoo th",
      "prepar ing",
      "consid er",
      "cigaret te",
      "escap ed",
      "a i",
      "a fr",
      "h on",
      "m un",
      "p un",
      "p lo",
      "p ound",
      "r on",
      "r ac",
      "t one",
      "re ason",
      "ac c",
      "ll i",
      "ch ance",
      "ti e",
      "ne ither",
      "me ans",
      "ho st",
      "so ap",
      "hand ker",
      "br aid",
      "sp ins",
      "wor king",
      "cl ass",
      "pro te",
      "pu b",
      "sk ir",
      "ni e",
      "sup er",
      "add ed",
      "ene my",
      "gent ly",
      "ord in",
      "yard s",
      "happ ened",
      "appear ance",
      "intro du",
      "sear ch",
      "beaut iful",
      "afr aid",
      "handker chief",
      "c ards",
      "l am",
      "s am",
      "t ong",
      "u str",
      "in door",
      "re moves",
      "as le",
      "om s",
      "sh ri",
      "ri fle",
      "are s",
      "ti ly",
      "fe male",
      "ide a",
      "cam el",
      "tr an",
      "tle ss",
      "side walk",
      "after wards",
      "if f",
      "ic es",
      "let ters",
      "anc y",
      "cli p",
      "ser ve",
      "stru ggl",
      "bow ling",
      "low er",
      "wr apped",
      "move ments",
      "swe et",
      "cal m",
      "spr ang",
      "nat ure",
      "lean ing",
      "ann oun",
      "prac tic",
      "indi vid",
      "liqu id",
      "athle te",
      "answ er",
      "chr ist",
      "scen es",
      "asle ep",
      "c her",
      "d a",
      "f ail",
      "j ud",
      "k a",
      "l ly",
      "m ic",
      "m ower",
      "o il",
      "p ay",
      "p ho",
      "p isto",
      "re ally",
      "re moved",
      "to re",
      "en joy",
      "al ed",
      "or ange",
      "se cre",
      "hi de",
      "be ar",
      "ch op",
      "ti red",
      "de v",
      "um b",
      "gr as",
      "tr ue",
      "di ed",
      "wat ched",
      "com fort",
      "fore head",
      "ak en",
      "im ag",
      "clo sing",
      "ic y",
      "tor n",
      "let es",
      "sto re",
      "table s",
      "fir m",
      "dro ps",
      "bi kes",
      "smo king",
      "tow er",
      "hard ly",
      "ord ers",
      "gg ing",
      "glo ves",
      "ele ct",
      "mountain s",
      "hot el",
      "compe tit",
      "lim p",
      "soldi ers",
      "notic ed",
      "tat too",
      "a tors",
      "c and",
      "c ard",
      "c offe",
      "i li",
      "m ill",
      "o s",
      "w ed",
      "re ve",
      "re fle",
      "re gard",
      "at ure",
      "as se",
      "st ro",
      "it ar",
      "was hed",
      "ver n",
      "ver ing",
      "fr u",
      "whe ther",
      "con vers",
      "but ton",
      "te a",
      "che ers",
      "su g",
      "str ing",
      "av o",
      "av en",
      "ft y",
      "gl anced",
      "sto ol",
      "anc ing",
      "dre am",
      "ra z",
      "hu man",
      "miss ion",
      "stu ck",
      "thre at",
      "lat ter",
      "demonstr ating",
      "spir it",
      "slight ly",
      "complete ly",
      "trou ble",
      "plat form",
      "entr ance",
      "pub lic",
      "coffe e",
      "convers ation",
      "h ut",
      "l ar",
      "l ap",
      "m ate",
      "p on",
      "p ump",
      "r um",
      "s me",
      "y ing",
      "he sit",
      "re sp",
      "re vol",
      "le mon",
      "ad mir",
      "ac es",
      "be e",
      "ce ll",
      "lo ose",
      "fr ank",
      "me mor",
      "pl ung",
      "fe t",
      "de light",
      "de mand",
      "fi l",
      "po sing",
      "br ow",
      "et y",
      "some where",
      "sp ace",
      "str anger",
      "wat ers",
      "mar ched",
      "pu sh",
      "pu shes",
      "sto ck",
      "pass ion",
      "tain ed",
      "ten se",
      "des k",
      "ob li",
      "bru shes",
      "pap ers",
      "dif fic",
      "bring ing",
      "vol ley",
      "bal ance",
      "kick s",
      "sty le",
      "padd le",
      "thir d",
      "prep ared",
      "swift ly",
      "b ree",
      "l amp",
      "p age",
      "p tion",
      "s ar",
      "t as",
      "u g",
      "to ri",
      "is land",
      "at tered",
      "as ts",
      "le ts",
      "st ones",
      "sh ining",
      "fr is",
      "one l",
      "ain s",
      "de st",
      "con ce",
      "ind ian",
      "us ion",
      "sa ved",
      "af fe",
      "see m",
      "ex am",
      "dis appeared",
      "arm ed",
      "mar ked",
      "ish ment",
      "cli ff",
      "gu itar",
      "mi le",
      "sw ings",
      "danc es",
      "stu ff",
      "return s",
      "vis ible",
      "jack et",
      "appro ached",
      "sim ply",
      "tro ops",
      "sco res",
      "mir ror",
      "ben ch",
      "tou ched",
      "raf t",
      "attem pt",
      "fold ed",
      "terri ble",
      "clu b",
      "reco g",
      "hab it",
      "sole mn",
      "sug gest",
      "c tive",
      "d anger",
      "f ted",
      "g ather",
      "i i",
      "i er",
      "i tor",
      "j or",
      "l un",
      "l ab",
      "l ers",
      "o ce",
      "p au",
      "p ment",
      "r om",
      "s om",
      "t a",
      "v ate",
      "w ise",
      "ou ds",
      "le on",
      "le vel",
      "or dered",
      "se par",
      "ch ase",
      "we ap",
      "we ak",
      "we ather",
      "pe ace",
      "ce ased",
      "you th",
      "fi ll",
      "gr y",
      "bl an",
      "sp ent",
      "ex tre",
      "par ts",
      "pass eng",
      "ble w",
      "ish ing",
      "sho ve",
      "board ing",
      "ef fort",
      "ef fect",
      "thought s",
      "moment s",
      "ra ise",
      "app aren",
      "wr ong",
      "sup per",
      "hur ry",
      "cent er",
      "pur ple",
      "lad der",
      "lu ck",
      "certain ly",
      "poin ted",
      "pa used",
      "gest ure",
      "sen se",
      "serv ant",
      "trem bling",
      "shout ed",
      "quar ter",
      "kay ak",
      "deter min",
      "oce an",
      "extre me",
      "b oun",
      "b ers",
      "b ade",
      "d am",
      "e v",
      "f light",
      "f aint",
      "g ust",
      "n s",
      "u ck",
      "v ir",
      "wi ch",
      "id es",
      "li ce",
      "ut ion",
      "pe ter",
      "pe red",
      "ce le",
      "all owed",
      "ck ets",
      "whi r",
      "de part",
      "fi fty",
      "co lo",
      "co ck",
      "cam els",
      "tr ay",
      "tr ust",
      "ul a",
      "some what",
      "ex tra",
      "pi le",
      "cont ain",
      "wor th",
      "ill ustr",
      "fl ash",
      "cr aw",
      "bre a",
      "flo od",
      "des per",
      "wa ist",
      "col onel",
      "hill s",
      "bit ter",
      "offi cer",
      "poin ting",
      "eas ily",
      "tool s",
      "instru ctor",
      "tru th",
      "bath room",
      "twi ce",
      "forgot ten",
      "surpr ise",
      "stor m",
      "c ers",
      "d om",
      "e ting",
      "f li",
      "f ain",
      "g al",
      "i v",
      "i red",
      "p op",
      "s ig",
      "u ff",
      "he ight",
      "in v",
      "re por",
      "at ic",
      "le af",
      "al ing",
      "st ared",
      "be er",
      "ri es",
      "up s",
      "ge ar",
      "op ed",
      "ho re",
      "de p",
      "de parted",
      "do zen",
      "sa v",
      "hand le",
      "com for",
      "ang u",
      "mar ch",
      "sk is",
      "dar ted",
      "cur rent",
      "lead ing",
      "qui red",
      "far ther",
      "stu dy",
      "rub bing",
      "bri ef",
      "pour ing",
      "bus y",
      "drink s",
      "sy m",
      "pleas ant",
      "bun ch",
      "listen ing",
      "basket ball",
      "sou l",
      "sadd le",
      "hig her",
      "equi pment",
      "pisto l",
      "secre t",
      "raz or",
      "cele br",
      "b ay",
      "b ase",
      "c il",
      "c av",
      "d ashed",
      "e se",
      "e ating",
      "n es",
      "r in",
      "s in",
      "an ti",
      "ed ing",
      "is es",
      "is ter",
      "at s",
      "st able",
      "ad just",
      "be come",
      "ro l",
      "sh r",
      "sh aw",
      "ent ed",
      "ve y",
      "ur y",
      "ab rup",
      "bo ots",
      "pl au",
      "whe els",
      "ss ion",
      "but ter",
      "fi f",
      "back wards",
      "sp an",
      "pi pes",
      "im ent",
      "im ages",
      "pre sence",
      "cl ouds",
      "like ly",
      "pu zz",
      "mor row",
      "rest ed",
      "ran ge",
      "ob je",
      "pan ts",
      "eng aged",
      "brush ing",
      "rece ive",
      "ski ing",
      "gold en",
      "mit ted",
      "thir ty",
      "gaz ed",
      "event ually",
      "harm on",
      "fen cing",
      "engl ish",
      "anch or",
      "cham ber",
      "gif t",
      "christ mas",
      "competit ion",
      "fru it",
      "\" .",
      "b ac",
      "b ows",
      "e ast",
      "e gg",
      "f av",
      "g en",
      "j ar",
      "k o",
      "m ist",
      "n ice",
      "r ay",
      "r ust",
      "w ine",
      "an tic",
      "re le",
      "re move",
      "er t",
      "st am",
      "be lt",
      "ll en",
      "ll ows",
      "we b",
      "am id",
      "ck ey",
      "ti p",
      "ap plau",
      "te le",
      "po lice",
      "br an",
      "sp ap",
      "sp ark",
      "ex ha",
      "pi er",
      "com b",
      "dis hes",
      "ves sel",
      "sto ve",
      "form er",
      "new spap",
      "continu ously",
      "flo ating",
      "ser ves",
      "dro pping",
      "ci ally",
      "might y",
      "cat ching",
      "app lies",
      "roll s",
      "past a",
      "har ry",
      "keep ing",
      "mix ing",
      "char ac",
      "suc ceed",
      "stir red",
      "produ ct",
      "reach ing",
      "shoot ing",
      "spect ators",
      "anim al",
      "drag ged",
      "deser t",
      "wag on",
      "doub t",
      "neigh bor",
      "reli ef",
      "capt ures",
      "pho to",
      "b icy",
      "c ul",
      "c ree",
      "l or",
      "s ion",
      "t un",
      "u es",
      "v ast",
      "w al",
      "in es",
      "al th",
      "al le",
      "al though",
      "it ation",
      "it ude",
      "ac he",
      "ro bert",
      "ll a",
      "sh akes",
      "sh ape",
      "li on",
      "ri ck",
      "lo c",
      "ge orge",
      "mo p",
      "mo tor",
      "ap es",
      "ne st",
      "me ant",
      "ke ts",
      "bo dies",
      "de cor",
      "ag ue",
      "con cer",
      "um ed",
      "sa u",
      "co ast",
      "tr ans",
      "ul ts",
      "ass ist",
      "com mun",
      "car pet",
      "fl ing",
      "cr own",
      "door way",
      "mar ried",
      "open s",
      "shi ps",
      "sho vel",
      "ste ep",
      "dre ad",
      "bu shes",
      "board s",
      "mon key",
      "mon ths",
      "ser ies",
      "ser vice",
      "mat er",
      "lay s",
      "know s",
      "inter rup",
      "att ached",
      "sle pt",
      "kne lt",
      "crowd ed",
      "mb ers",
      "vis ion",
      "rub s",
      "stri ke",
      "bat on",
      "gentle men",
      "pot ato",
      "reg ular",
      "deser ted",
      "accor ding",
      "roller bl",
      "rack et",
      "stun ts",
      "repe ated",
      "bree ze",
      "apparen tly",
      "colo red",
      "0 0",
      "b id",
      "c les",
      "e u",
      "e ch",
      "f al",
      "k ar",
      "n ur",
      "o sity",
      "s ac",
      "w it",
      "in ation",
      "an na",
      "re r",
      "re cor",
      "se ven",
      "wi pe",
      "ro sse",
      "ut tering",
      "ve st",
      "ri b",
      "up ward",
      "ght er",
      "ne cess",
      "ho ckey",
      "con du",
      "um n",
      "gr own",
      "sa iled",
      "br and",
      "br ows",
      "sc iss",
      "wh ate",
      "su mo",
      "su gar",
      "ex plo",
      "ak er",
      "pre vent",
      "car t",
      "cl am",
      "gre w",
      "clo ak",
      "clo ser",
      "ang le",
      "ang les",
      "ath letes",
      "sto od",
      "ste el",
      "ste ady",
      "cor n",
      "led ge",
      "gu ess",
      "tre at",
      "wa x",
      "cat tle",
      "ra ising",
      "wr apping",
      "snow y",
      "moun ts",
      "lau ghter",
      "tu b",
      "smi th",
      "dire ctly",
      "por tion",
      "sleep ing",
      "nat ur",
      "shar ply",
      "sub ject",
      "book s",
      "dress ing",
      "din ing",
      "tin y",
      "bir ds",
      "spray s",
      "arr ows",
      "offe red",
      "doll ars",
      "lac rosse",
      "pump kin",
      "plung ed",
      "passeng ers",
      "comfor table",
      "' ,",
      "b um",
      "b ends",
      "c op",
      "e qu",
      "n ap",
      "p oured",
      "r and",
      "s nat",
      "v ain",
      "y s",
      "y on",
      "re mark",
      "is su",
      "as hore",
      "or k",
      "it ure",
      "ac ce",
      "wi ping",
      "sh ru",
      "am az",
      "ve lo",
      "out door",
      "ck en",
      "de l",
      "ss ing",
      "con ne",
      "um ph",
      "fi ci",
      "te ch",
      "po lo",
      "ind ic",
      "sa x",
      "back s",
      "not e",
      "br it",
      "af f",
      "sp or",
      "sit u",
      "dis h",
      "ey el",
      "dr inking",
      "aw a",
      "pu ff",
      "form ed",
      "ste am",
      "tri umph",
      "land ed",
      "dri ver",
      "ci p",
      "mes sage",
      "fac ing",
      "eng er",
      "tu be",
      "kne e",
      "dist ant",
      "blo ck",
      "pri vate",
      "find ing",
      "rub bed",
      "bri g",
      "ma jor",
      "mix es",
      "pin ata",
      "gun s",
      "gymn astic",
      "tw isted",
      "explain s",
      "tru ck",
      "remem bered",
      "anim als",
      "wand ered",
      "perfect ly",
      "occup ied",
      "fris bee",
      "cav al",
      "necess ary",
      "whate ver",
      "c ous",
      "e e",
      "e cho",
      "f an",
      "f red",
      "f ist",
      "g room",
      "l ens",
      "m ade",
      "n ail",
      "v ig",
      "w ished",
      "y er",
      "y ork",
      "re fe",
      "re sol",
      "ed s",
      "ou se",
      "at ive",
      "of t",
      "st il",
      "se ts",
      "es pe",
      "wi l",
      "ll s",
      "ch ain",
      "sh or",
      "we pt",
      "li ved",
      "ve re",
      "are na",
      "ti ce",
      "ter ror",
      "op ing",
      "me mbers",
      "bo b",
      "so ci",
      "qu es",
      "qu et",
      "che ering",
      "ex t",
      "ous ed",
      "im port",
      "pre ci",
      "par ti",
      "cl as",
      "spe ech",
      "cr ou",
      "cr aft",
      "pro bab",
      "ic ally",
      "ig in",
      "cle ared",
      "ple ase",
      "bu ried",
      "bed room",
      "gi ant",
      "ank s",
      "des cri",
      "has tily",
      "mat es",
      "vo ices",
      "si gh",
      "work s",
      "hur led",
      "sand wich",
      "pur pose",
      "cup s",
      "ger man",
      "cus tom",
      "iron ing",
      "hen ry",
      "pleas ure",
      "stead ily",
      "gri m",
      "need ed",
      "instrum ents",
      "leap ed",
      "proper ly",
      "mil k",
      "deli ber",
      "pow der",
      "neare r",
      "flow ers",
      "ordin ary",
      "memor y",
      "obli ged",
      "recog ni",
      "illustr ation",
      "abrup tly",
      "espe cially",
      "b les",
      "d ed",
      "f ut",
      "g in",
      "l ou",
      "l as",
      "l ist",
      "m ac",
      "n ut",
      "v ul",
      "v ague",
      "w ins",
      "w ake",
      "w ings",
      "he at",
      "he els",
      "in n",
      "in ch",
      "en ess",
      "at er",
      "as c",
      "al d",
      "al arm",
      "al ity",
      "st ance",
      "or igin",
      "se c",
      "ad vent",
      "ac les",
      "wi pes",
      "be aring",
      "gh o",
      "ent ers",
      "am s",
      "li er",
      "li mb",
      "lo ved",
      "ti les",
      "me at",
      "de lic",
      "so b",
      "con tr",
      "fo l",
      "fo llows",
      "gr at",
      "bl az",
      "wo l",
      "br ings",
      "sp are",
      "sp ite",
      "com mon",
      "im pat",
      "im pul",
      "dis c",
      "cl er",
      "cl ut",
      "ure ly",
      "spe cial",
      "mar ti",
      "vi ous",
      "young er",
      "cor rid",
      "scre w",
      "ru sh",
      "rid ge",
      "des pair",
      "sur fing",
      "every one",
      "ob served",
      "cu be",
      "eng ine",
      "tu g",
      "fu ri",
      "tem per",
      "cal f",
      "squ at",
      "gg le",
      "ris en",
      "shar pen",
      "num er",
      "mix ed",
      "climb s",
      "viol ent",
      "shad ows",
      "poss i",
      "ham mer",
      "serv ants",
      "kn it",
      "power ful",
      "sus pic",
      "pray er",
      "ral ph",
      "roy al",
      "occasion ally",
      "evid ently",
      "kill ed",
      "furn iture",
      "desc ended",
      "fright ened",
      "inform ation",
      "feat ures",
      "hast ened",
      "mess enger",
      "acc ident",
      "elect ric",
      "demand ed",
      "bran ches",
      "tech ni",
      "probab ly",
      "c ave",
      "e ves",
      "f are",
      "f ancy",
      "g own",
      "g ul",
      "g limp",
      "h one",
      "k not",
      "l one",
      "l ace",
      "p he",
      "p om",
      "p ong",
      "p ace",
      "t age",
      "t ape",
      "w arri",
      "y o",
      "in clud",
      "on ed",
      "ing ly",
      "th ri",
      "is m",
      "is n",
      "al together",
      "hi p",
      "be long",
      "sh ame",
      "ent ering",
      "was n",
      "un less",
      "for ced",
      "ur s",
      "ce iling",
      "ther n",
      "me al",
      "ho se",
      "de e",
      "fo am",
      "fo ol",
      "te ar",
      "ul ty",
      "no body",
      "sc rap",
      "che ese",
      "my ster",
      "su ff",
      "str ain",
      "com men",
      "im age",
      "head ed",
      "beg un",
      "cont ents",
      "par tic",
      "would n",
      "pro ved",
      "cle ans",
      "sto pping",
      "set tle",
      "sk ating",
      "anc ient",
      "jo e",
      "em bar",
      "tre as",
      "dri fted",
      "sil k",
      "cat ches",
      "sup p",
      "mer cy",
      "qui re",
      "si e",
      "pain ts",
      "step ping",
      "spo ken",
      "cross ing",
      "sal t",
      "bank s",
      "kno ck",
      "rel ax",
      "dou ble",
      "van ished",
      "fig ures",
      "instru ctions",
      "gaz e",
      "wand ering",
      "pol ish",
      "soldi er",
      "success ful",
      "exper ience",
      "kee per",
      "eag er",
      "anx ious",
      "mere ly",
      "suf fici",
      "satis fac",
      "zo oms",
      "bil ly",
      "asse m",
      "obje cts",
      "harmon ica",
      "exha ust",
      "charac ter",
      "rollerbl ading",
      "b end",
      "b ones",
      "d ut",
      "f ate",
      "g an",
      "g ay",
      "j am",
      "j ames",
      "m our",
      "m ont",
      "s ne",
      "s way",
      "the less",
      "in ct",
      "in tense",
      "an gry",
      "and re",
      "th under",
      "le e",
      "le ather",
      "al i",
      "or ing",
      "or ous",
      "se qu",
      "id ing",
      "sh one",
      "sh ine",
      "was hes",
      "li z",
      "man aged",
      "for man",
      "for ty",
      "all ow",
      "ot ed",
      "lo ad",
      "lo aded",
      "ap ed",
      "op er",
      "do dge",
      "um bs",
      "fi red",
      "hand some",
      "-- --\"",
      "back ward",
      "not ice",
      "sc attered",
      "che f",
      "sp ed",
      "dis covered",
      "fl ame",
      "pro of",
      "mar ia",
      "mar tin",
      "bu ck",
      "under stand",
      "flo ated",
      "gu ide",
      "field s",
      "ef fe",
      "cur led",
      "sil ently",
      "cre ature",
      "chair s",
      "sup por",
      "moun t",
      "never theless",
      "cu red",
      "hel ps",
      "hel met",
      "eng age",
      "move ment",
      "miss ed",
      "ca used",
      "sand y",
      "mas k",
      "sound ed",
      "pat ch",
      "stri king",
      "offi cers",
      "ma je",
      "bor n",
      "cri es",
      "comple ted",
      "fair ly",
      "tro t",
      "fam ili",
      "trave l",
      "trave lled",
      "whis pered",
      "tou ch",
      "produ cts",
      "cover ing",
      "listen ed",
      "interview ed",
      "thor ough",
      "thank s",
      "und ers",
      "apart ment",
      "meas ure",
      "curi osity",
      "mul ti",
      "grap h",
      "fier ce",
      "struggl ed",
      "individ ual",
      "volley ball",
      "sciss ors",
      "corrid or",
      "glimp se",
      "famili ar",
      "! '",
      ") ,",
      "a ur",
      "b ou",
      "b its",
      "f ai",
      "i am",
      "i ved",
      "j ac",
      "j un",
      "k i",
      "l aun",
      "m ers",
      "n on",
      "n own",
      "o v",
      "o x",
      "p ad",
      "s an",
      "v ine",
      "w ri",
      "in cre",
      "re spect",
      "ar ose",
      "al ley",
      "es cor",
      "hi dden",
      "ac y",
      "ac le",
      "ac tu",
      "be ating",
      "ch a",
      "ch asing",
      "we ary",
      "ay ed",
      "lo gs",
      "fr anc",
      "ab and",
      "ap ron",
      "ne at",
      "bo l",
      "bo ld",
      "pl ed",
      "fo g",
      "po ckets",
      "il ity",
      "br is",
      "che cked",
      "di m",
      "per ce",
      "dis cu",
      "cont rol",
      "par is",
      "cl ing",
      "cl aps",
      "gre e",
      "ct ure",
      "ic an",
      "person s",
      "pr oud",
      "hor n",
      "ful ness",
      "could n",
      "bre aking",
      "ru shing",
      "night s",
      "land sc",
      "sw itch",
      "mu d",
      "cur ling",
      "tom my",
      "too th",
      "ob st",
      "cre w",
      "ale x",
      "close ly",
      "bi e",
      "wr ap",
      "sun k",
      "hel ping",
      "stu di",
      "lin ed",
      "iz ed",
      "sound s",
      "heav en",
      "sof a",
      "happ iness",
      "unk nown",
      "weight s",
      "fas ter",
      "expe ct",
      "ju ice",
      "mean while",
      "pal m",
      "raf ts",
      "dir ty",
      "trem bled",
      "wonder ing",
      "bad ly",
      "prac tice",
      "trac ted",
      "shel ter",
      "prison er",
      "gue sts",
      "prof ess",
      "cot tage",
      "circ les",
      "orn am",
      "exc ited",
      "phi lip",
      "dec ided",
      "aston ishment",
      "curtain s",
      "approach ing",
      "scu ba",
      "emer ged",
      "tong ue",
      "announ ced",
      "mic ro",
      "determin ed",
      "sav age",
      "cree k",
      "situ ation",
      "cous in",
      "\" '",
      ". --",
      "? '",
      "d ried",
      "d awn",
      "e ase",
      "g it",
      "g lit",
      "g arm",
      "h ula",
      "i ety",
      "k ins",
      "l angu",
      "o bey",
      "p ite",
      "p aid",
      "r ab",
      "t ap",
      "t ide",
      "in c",
      "in doors",
      "an a",
      "re f",
      "to ur",
      "to ps",
      "en a",
      "ar a",
      "ar ch",
      "al co",
      "al ive",
      "st on",
      "st ag",
      "se y",
      "se con",
      "se cured",
      "ro ar",
      "sh ower",
      "we ld",
      "we eping",
      "ve ge",
      "ri g",
      "out doors",
      "lo d",
      "ti le",
      "ti ps",
      "fr ag",
      "op pon",
      "bo om",
      "de f",
      "de t",
      "so lit",
      "um ber",
      "ha w",
      "ha un",
      "ha ul",
      "bl own",
      "ind ign",
      "ting u",
      "pi llow",
      "per forman",
      "dis cus",
      "ok ed",
      "cl ust",
      "fl owing",
      "fl ower",
      "cr ash",
      "pro je",
      "mar ks",
      "ten ed",
      "xt ure",
      "great er",
      "dar ts",
      "dy ing",
      "dri es",
      "your self",
      "cour age",
      "know ing",
      "cre pt",
      "low ered",
      "shir ts",
      "res ult",
      "hu g",
      "hur t",
      "bes ides",
      "danc ed",
      "hun ting",
      "vis it",
      "squ ee",
      "heav ily",
      "fre qu",
      "rub ber",
      "laugh s",
      "bri lli",
      "lu x",
      "short ly",
      "wild ly",
      "demonstr ate",
      "pa ul",
      "fer red",
      "sn apped",
      "whis per",
      "pal ace",
      "gro an",
      "bel ly",
      "pack ed",
      "explain ing",
      "bul let",
      "mad ame",
      "quar ters",
      "flip ping",
      "burn ing",
      "pol ly",
      "attack ed",
      "fat ig",
      "engl and",
      "proceed ed",
      "kee ps",
      "lear ned",
      "neare st",
      "posse ssed",
      "pursu ed",
      "skir t",
      "cand le",
      "diffic ulty",
      "brief ly",
      "bicy cle",
      "commun ic",
      "interrup ted",
      "import ant",
      "marti al",
      "includ ing",
      "multi ple",
      "fai th",
      "b ang",
      "c rest",
      "d um",
      "d av",
      "f les",
      "f fled",
      "f aded",
      "h ound",
      "j ave",
      "j ane",
      "m c",
      "m ous",
      "n av",
      "p ted",
      "p ine",
      "r ings",
      "r adi",
      "s ch",
      "s ought",
      "s ending",
      "in y",
      "on de",
      "to od",
      "to bac",
      "en de",
      "ar tic",
      "st rode",
      "st iff",
      "hi d",
      "ac compan",
      "ro d",
      "ve hi",
      "ri p",
      "own er",
      "fr antic",
      "op in",
      "me chan",
      "me eting",
      "ho sp",
      "bo ot",
      "pl ant",
      "pl aster",
      "fe ather",
      "do l",
      "con st",
      "qu is",
      "qu it",
      "ul ate",
      "not es",
      "af fair",
      "some how",
      "thr one",
      "di am",
      "ex hi",
      "ex ac",
      "au gust",
      "men se",
      "im possible",
      "im mense",
      "el bow",
      "dis played",
      "cont act",
      "wor se",
      "par alle",
      "cl ap",
      "gre ss",
      "fl owed",
      "gl ory",
      "run g",
      "light ed",
      "mar ching",
      "hor iz",
      "wind s",
      "wind ing",
      "bu sh",
      "gi b",
      "mon th",
      "bar k",
      "bar n",
      "em ot",
      "tri p",
      "tri ck",
      "ner v",
      "every body",
      "mu red",
      "du ll",
      "sup posed",
      "col our",
      "qui vering",
      "stu d",
      "mid st",
      "chang es",
      "oc cur",
      "ris k",
      "stri cken",
      "viol ently",
      "dry er",
      "trave lling",
      "pleas ed",
      "bull s",
      "pas ses",
      "cry ing",
      "bottle s",
      "explain ed",
      "sear ching",
      "spir its",
      "drive way",
      "twi r"
    ]
  }
}