{
  "version": "1.0",
  "truncation": null,
  "padding": null,
  "added_tokens": [
    {
      "id": 0,
      "content": "[PAD]",
      "single_word": false,
      "lstrip": false,
      "rstrip": false,
      "normalized": false,
      "special": true
    },
    {
      "id": 1,
      "content": "[UNK]",
      "single_word": false,
      "lstrip": false,
      "rstrip": false,
      "normalized": false,
      "special": true
    },
    {
      "id": 2,
      "content": "[CLS]",
      "single_word": false,
      "lstrip": false,
      "rstrip": false,
      "normalized": false,
      "special": true
    },
    {
      "id": 3,
      "content": "[MASK]",
      "single_word": false,
      "lstrip": false,
      "rstrip": false,
      "normalized": false,
      "special": true
    },
    {
      "id": 4,
      "content": "[SEP]",
      "single_word": false,
      "lstrip": false,
      "rstrip": false,
      "normalized": false,
      "special": true
    }
  ],
  "normalizer": {
    "type": "BertNormalizer",
    "clean_text": true,
    "handle_chinese_chars": true,
    "strip_accents": true,
    "lowercase": true
  },
  "pre_tokenizer": {
    "type": "Whitespace"
  },
  "post_processor": {
    "type": "TemplateProcessing",
    "single": [
      {
        "Sequence": {
          "id": "A",
          "type_id": 0
        }
      }
    ],
    "pair": [
      {
        "SpecialToken": {
          "id": "[CLS]",
          "type_id": 0
        }
      },
      {
        "Sequence": {
          "id": "A",
          "type_id": 0
        }
      },
      {
        "SpecialToken": {
          "id": "[SEP]",
          "type_id": 0
        }
      },
      {
        "Sequence": {
          "id": "B",
          "type_id": 1
        }
      },
      {
        "SpecialToken": {
          "id": "[SEP]",
          "type_id": 1
        }
      }
    ],
    "special_tokens": {
      "[CLS]": {
        "id": "[CLS]",
        "ids": [
          2
        ],
        "tokens": [
          "[CLS]"
        ]
      },
      "[SEP]": {
        "id": "[SEP]",
        "ids": [
          4
        ],
        "tokens": [
          "[SEP]"
        ]
      }
    }
  },
  "decoder": null,
  "model": {
    "type": "BPE",
    "dropout": null,
    "unk_token": "[UNK]",
    "continuing_subword_prefix": null,
    "end_of_word_suffix": null,
    "fuse_unk": false,
    "byte_fallback": false,
    "ignore_merges": false,
    "vocab": {
      "[PAD]": 0,
      "[UNK]": 1,
      "[CLS]": 2,
      "[MASK]": 3,
      "[SEP]": 4,
      "!": 5,
      "#": 6,
      "$": 7,
      "%": 8,
      "&": 9,
      "'": 10,
      "(": 11,
      ")": 12,
      "*": 13,
      "+": 14,
      ",": 15,
      "-": 16,
      ".": 17,
      "/": 18,
      "0": 19,
      "1": 20,
      "2": 21,
      "3": 22,
      "4": 23,
      "5": 24,
      "6": 25,
      "7": 26,
      "8": 27,
      "9": 28,
      ":": 29,
      ";": 30,
      "<": 31,
      "=": 32,
      ">": 33,
      "?": 34,
      "@": 35,
      "[": 36,
      "\\": 37,
      "]": 38,
      "^": 39,
      "_": 40,
      "`": 41,
      "a": 42,
      "b": 43,
      "c": 44,
      "d": 45,
      "e": 46,
      "f": 47,
      "g": 48,
      "h": 49,
      "i": 50,
      "j": 51,
      "k": 52,
      "l": 53,
      "m": 54,
      "n": 55,
      "o": 56,
      "p": 57,
      "q": 58,
      "r": 59,
      "s": 60,
      "t": 61,
      "u": 62,
      "v": 63,
      "w": 64,
      "x": 65,
      "y": 66,
      "z": 67,
      "{": 68,
      "|": 69,
      "}": 70,
      "~": 71,
      "he": 72,
      "in": 73,
      "the": 74,
      "an": 75,
      "re": 76,
      "ou": 77,
      "ed": 78,
      "th": 79,
      "to": 80,
      "ing": 81,
      "at": 82,
      "on": 83,
      "er": 84,
      "as": 85,
      "and": 86,
      "is": 87,
      "en": 88,
      "ar": 89,
      "ll": 90,
      "it": 91,
      "or": 92,
      "st": 93,
      "me": 94,
      "of": 95,
      "le": 96,
      "``": 97,
      "''": 98,
      "be": 99,
      "ha": 100,
      "you": 101,
      "ow": 102,
      "se": 103,
      "id": 104,
      "ac": 105,
      "was": 106,
      "her": 107,
      "ve": 108,
      "ld": 109,
      "ro": 110,
      "she": 111,
      "gh": 112,
      "li": 113,
      "es": 114,
      "his": 115,
      "we": 116,
      "al": 117,
      "that": 118,
      "ly": 119,
      "hi": 120,
      "ay": 121,
      "wi": 122,
      "no": 123,
      "lo": 124,
      "ad": 125,
      "ut": 126,
      "my": 127,
      "all": 128,
      "ver": 129,
      "so": 130,
      "ke": 131,
      "for": 132,
      "ti": 133,
      "ri": 134,
      "ght": 135,
      "out": 136,
      "wh": 137,
      "ould": 138,
      "ch": 139,
      "ne": 140,
      "with": 141,
      "do": 142,
      "ir": 143,
      "un": 144,
      "mo": 145,
      "had": 146,
      "ce": 147,
      "co": 148,
      "sa": 149,
      "go": 150,
      "ge": 151,
      "fe": 152,
      "ent": 153,
      "ab": 154,
      "one": 155,
      "but": 156,
      "ur": 157,
      "him": 158,
      "sh": 159,
      "ok": 160,
      "up": 161,
      "red": 162,
      "ck": 163,
      "ther": 164,
      "de": 165,
      "ca": 166,
      "ter": 167,
      "ack": 168,
      "now": 169,
      "ra": 170,
      "te": 171,
      "thing": 172,
      "pe": 173,
      "oun": 174,
      "si": 175,
      "ant": 176,
      "what": 177,
      "not": 178,
      "if": 179,
      "whe": 180,
      "am": 181,
      "ain": 182,
      "us": 183,
      "od": 184,
      "ag": 185,
      "pp": 186,
      "rom": 187,
      "ust": 188,
      "have": 189,
      "said": 190,
      "way": 191,
      "they": 192,
      "ard": 193,
      "this": 194,
      "from": 195,
      "did": 196,
      "ound": 197,
      "are": 198,
      "con": 199,
      "some": 200,
      "ion": 201,
      "ind": 202,
      "own": 203,
      "fo": 204,
      "could": 205,
      "back": 206,
      "su": 207,
      "were": 208,
      "would": 209,
      "po": 210,
      "look": 211,
      "like": 212,
      "ted": 213,
      "man": 214,
      "mp": 215,
      "ill": 216,
      "ide": 217,
      "ry": 218,
      "ho": 219,
      "there": 220,
      "ough": 221,
      "wor": 222,
      "..": 223,
      "ss": 224,
      "know": 225,
      "mi": 226,
      "che": 227,
      "qu": 228,
      "just": 229,
      "bo": 230,
      "wo": 231,
      "pl": 232,
      "el": 233,
      "into": 234,
      "king": 235,
      "ex": 236,
      "ked": 237,
      "when": 238,
      "ru": 239,
      "ers": 240,
      "about": 241,
      "ace": 242,
      "la": 243,
      "any": 244,
      "ma": 245,
      "our": 246,
      "ever": 247,
      "hand": 248,
      "ally": 249,
      "then": 250,
      "see": 251,
      "yes": 252,
      "ic": 253,
      "ta": 254,
      "gr": 255,
      "get": 256,
      "them": 257,
      "want": 258,
      "your": 259,
      "over": 260,
      "time": 261,
      "led": 262,
      "et": 263,
      "end": 264,
      "sto": 265,
      "ate": 266,
      "lf": 267,
      "ast": 268,
      "ven": 269,
      "ong": 270,
      "been": 271,
      "ep": 272,
      "down": 273,
      "op": 274,
      "by": 275,
      "other": 276,
      "ni": 277,
      "ul": 278,
      "art": 279,
      "sp": 280,
      "head": 281,
      "fi": 282,
      "who": 283,
      "again": 284,
      "how": 285,
      "ment": 286,
      "urn": 287,
      "gu": 288,
      "ting": 289,
      "ous": 290,
      "more": 291,
      "ation": 292,
      "ink": 293,
      "fore": 294,
      "can": 295,
      "side": 296,
      "bl": 297,
      "nt": 298,
      "eyes": 299,
      "ine": 300,
      "than": 301,
      "tion": 302,
      "right": 303,
      "ull": 304,
      "pre": 305,
      "off": 306,
      "ist": 307,
      "ye": 308,
      "mb": 309,
      "af": 310,
      "turn": 311,
      "self": 312,
      "der": 313,
      "ought": 314,
      "new": 315,
      "pped": 316,
      "use": 317,
      "pro": 318,
      "thr": 319,
      "im": 320,
      "ess": 321,
      "per": 322,
      "om": 323,
      "hed": 324,
      "even": 325,
      "il": 326,
      "their": 327,
      "whi": 328,
      "rea": 329,
      "ved": 330,
      "na": 331,
      "br": 332,
      "arm": 333,
      "here": 334,
      "before": 335,
      "sc": 336,
      "mu": 337,
      "every": 338,
      "around": 339,
      "will": 340,
      "say": 341,
      "going": 342,
      "...": 343,
      "let": 344,
      "clo": 345,
      "vi": 346,
      "ving": 347,
      "able": 348,
      "di": 349,
      "ang": 350,
      "ct": 351,
      "day": 352,
      "tle": 353,
      "ga": 354,
      "ps": 355,
      "think": 356,
      "only": 357,
      "ade": 358,
      "where": 359,
      "through": 360,
      "gi": 361,
      "need": 362,
      "lit": 363,
      "too": 364,
      "wa": 365,
      "looked": 366,
      "ass": 367,
      "come": 368,
      "ty": 369,
      "ward": 370,
      "vo": 371,
      "room": 372,
      "face": 373,
      "gl": 374,
      "med": 375,
      "thought": 376,
      "ite": 377,
      "ick": 378,
      "read": 379,
      "should": 380,
      "away": 381,
      "still": 382,
      "after": 383,
      "long": 384,
      "ach": 385,
      "lt": 386,
      "com": 387,
      "door": 388,
      "ble": 389,
      "something": 390,
      "got": 391,
      "tr": 392,
      "well": 393,
      "sho": 394,
      "ure": 395,
      "never": 396,
      "cl": 397,
      "pa": 398,
      "ars": 399,
      "wat": 400,
      "act": 401,
      "good": 402,
      "fa": 403,
      "ten": 404,
      "jo": 405,
      "ity": 406,
      "ans": 407,
      "ree": 408,
      "beca": 409,
      "ated": 410,
      "its": 411,
      "ont": 412,
      "feel": 413,
      "light": 414,
      "asked": 415,
      "ened": 416,
      "night": 417,
      "fr": 418,
      "mar": 419,
      "sed": 420,
      "pr": 421,
      "low": 422,
      "two": 423,
      "bet": 424,
      "fir": 425,
      "ched": 426,
      "bed": 427,
      "tal": 428,
      "dis": 429,
      "ice": 430,
      "tell": 431,
      "ste": 432,
      "smi": 433,
      "made": 434,
      "ance": 435,
      "most": 436,
      "why": 437,
      "much": 438,
      "gre": 439,
      "ft": 440,
      "ig": 441,
      "car": 442,
      "ap": 443,
      "dd": 444,
      "because": 445,
      "sure": 446,
      "cle": 447,
      "take": 448,
      "knew": 449,
      "brea": 450,
      "turned": 451,
      "ning": 452,
      "little": 453,
      "call": 454,
      "bod": 455,
      "ried": 456,
      "wal": 457,
      "ort": 458,
      "make": 459,
      "cha": 460,
      "under": 461,
      "happ": 462,
      "ci": 463,
      "lie": 464,
      "mor": 465,
      "ced": 466,
      "shi": 467,
      "fin": 468,
      "may": 469,
      "ks": 470,
      "bu": 471,
      "ds": 472,
      "hel": 473,
      "ple": 474,
      "ase": 475,
      "mon": 476,
      "first": 477,
      "tor": 478,
      "men": 479,
      "gg": 480,
      "lu": 481,
      "try": 482,
      "pt": 483,
      "hu": 484,
      "body": 485,
      "ves": 486,
      "felt": 487,
      "spe": 488,
      "ser": 489,
      "ie": 490,
      "min": 491,
      "wanted": 492,
      "sit": 493,
      "stand": 494,
      "took": 495,
      "ze": 496,
      "ark": 497,
      "pull": 498,
      "comp": 499,
      "des": 500,
      "que": 501,
      "sk": 502,
      "sha": 503,
      "went": 504,
      "cont": 505,
      "sion": 506,
      "has": 507,
      "hands": 508,
      "ol": 509,
      "really": 510,
      "sur": 511,
      "ose": 512,
      "very": 513,
      "ts": 514,
      "rest": 515,
      "mis": 516,
      "les": 517,
      "used": 518,
      "ared": 519,
      "against": 520,
      "voice": 521,
      "mind": 522,
      "lea": 523,
      "put": 524,
      "ence": 525,
      "ren": 526,
      "life": 527,
      "mat": 528,
      "ish": 529,
      "though": 530,
      "ling": 531,
      "less": 532,
      "hard": 533,
      "peop": 534,
      "came": 535,
      "star": 536,
      "while": 537,
      "which": 538,
      "ready": 539,
      "left": 540,
      "dre": 541,
      "told": 542,
      "people": 543,
      "ned": 544,
      "another": 545,
      "ner": 546,
      "bro": 547,
      "ise": 548,
      "sm": 549,
      "ah": 550,
      "ph": 551,
      "last": 552,
      "cor": 553,
      "wait": 554,
      "ath": 555,
      "cr": 556,
      "cked": 557,
      "ross": 558,
      "few": 559,
      "find": 560,
      "cre": 561,
      "air": 562,
      "help": 563,
      "ful": 564,
      "ouse": 565,
      "blo": 566,
      "int": 567,
      "anything": 568,
      "chi": 569,
      "ways": 570,
      "keep": 571,
      "moment": 572,
      "being": 573,
      "hind": 574,
      "cho": 575,
      "tic": 576,
      "til": 577,
      "tra": 578,
      "fri": 579,
      "nothing": 580,
      "owed": 581,
      "set": 582,
      "str": 583,
      "behind": 584,
      "stu": 585,
      "ton": 586,
      "enough": 587,
      "toward": 588,
      "does": 589,
      "pu": 590,
      "might": 591,
      "saw": 592,
      "full": 593,
      "lau": 594,
      "run": 595,
      "old": 596,
      "part": 597,
      "ily": 598,
      "xt": 599,
      "fing": 600,
      "love": 601,
      "je": 602,
      "ies": 603,
      "ju": 604,
      "zed": 605,
      "house": 606,
      "gir": 607,
      "open": 608,
      "sound": 609,
      "beg": 610,
      "cur": 611,
      "dark": 612,
      "things": 613,
      "age": 614,
      "friend": 615,
      "tru": 616,
      "until": 617,
      "ange": 618,
      "outh": 619,
      "mer": 620,
      "app": 621,
      "maybe": 622,
      "hair": 623,
      "ff": 624,
      "those": 625,
      "place": 626,
      "care": 627,
      "ction": 628,
      "looking": 629,
      "ince": 630,
      "bab": 631,
      "hun": 632,
      "mber": 633,
      "dra": 634,
      "once": 635,
      "ear": 636,
      "wr": 637,
      "sing": 638,
      "pi": 639,
      "tre": 640,
      "bit": 641,
      "par": 642,
      "ching": 643,
      "hold": 644,
      "da": 645,
      "work": 646,
      "ped": 647,
      "ness": 648,
      "ue": 649,
      "cer": 650,
      "ses": 651,
      "both": 652,
      "girl": 653,
      "home": 654,
      "wall": 655,
      "front": 656,
      "ating": 657,
      "always": 658,
      "sen": 659,
      "oh": 660,
      "next": 661,
      "ak": 662,
      "sil": 663,
      "ms": 664,
      "ious": 665,
      "fl": 666,
      "found": 667,
      "kill": 668,
      "flo": 669,
      "sat": 670,
      "mouth": 671,
      "ja": 672,
      "inside": 673,
      "sl": 674,
      "without": 675,
      "father": 676,
      "mother": 677,
      "ken": 678,
      "shed": 679,
      "table": 680,
      "give": 681,
      "heart": 682,
      "blood": 683,
      "arms": 684,
      "woman": 685,
      "same": 686,
      "nor": 687,
      "ight": 688,
      "everything": 689,
      "ually": 690,
      "sup": 691,
      "someone": 692,
      "himself": 693,
      "heard": 694,
      "ary": 695,
      "cent": 696,
      "**": 697,
      "small": 698,
      "mean": 699,
      "wind": 700,
      "tain": 701,
      "pres": 702,
      "cour": 703,
      "trying": 704,
      "better": 705,
      "dri": 706,
      "pulled": 707,
      "cted": 708,
      "belie": 709,
      "ween": 710,
      "hear": 711,
      "kis": 712,
      "between": 713,
      "each": 714,
      "ys": 715,
      "black": 716,
      "ssed": 717,
      "seemed": 718,
      "imp": 719,
      "fam": 720,
      "ash": 721,
      "ised": 722,
      "sig": 723,
      "res": 724,
      "coun": 725,
      "since": 726,
      "smile": 727,
      "secon": 728,
      "pers": 729,
      "du": 730,
      "swe": 731,
      "deep": 732,
      "ached": 733,
      "dro": 734,
      "stre": 735,
      "qui": 736,
      "kes": 737,
      "across": 738,
      "far": 739,
      "hur": 740,
      "ob": 741,
      "pain": 742,
      "ins": 743,
      "slow": 744,
      "pping": 745,
      "myself": 746,
      "words": 747,
      "three": 748,
      "won": 749,
      "already": 750,
      "kind": 751,
      "close": 752,
      "play": 753,
      "gave": 754,
      "started": 755,
      "ows": 756,
      "almost": 757,
      "gs": 758,
      "land": 759,
      "breath": 760,
      "lot": 761,
      "quick": 762,
      "lips": 763,
      "quest": 764,
      "world": 765,
      "dont": 766,
      "years": 767,
      "sle": 768,
      "stay": 769,
      "done": 770,
      "nodd": 771,
      "must": 772,
      "stood": 773,
      "reme": 774,
      "ught": 775,
      "ot": 776,
      "ason": 777,
      "sor": 778,
      "vis": 779,
      "ane": 780,
      "dr": 781,
      "bar": 782,
      "else": 783,
      "doing": 784,
      "hell": 785,
      "okay": 786,
      "cal": 787,
      "ger": 788,
      "foll": 789,
      "pos": 790,
      "tri": 791,
      "coming": 792,
      "stop": 793,
      "tou": 794,
      "appe": 795,
      "toge": 796,
      "together": 797,
      "tried": 798,
      "war": 799,
      "name": 800,
      "walked": 801,
      "sof": 802,
      "big": 803,
      "ev": 804,
      "whis": 805,
      "ings": 806,
      "dam": 807,
      "ater": 808,
      "ank": 809,
      "step": 810,
      "minut": 811,
      "seen": 812,
      "rep": 813,
      "ene": 814,
      "dec": 815,
      "ower": 816,
      "feet": 817,
      "nodded": 818,
      "ond": 819,
      "held": 820,
      "didnt": 821,
      "ask": 822,
      "many": 823,
      "near": 824,
      "start": 825,
      "move": 826,
      "fu": 827,
      "roll": 828,
      "owing": 829,
      "water": 830,
      "dif": 831,
      "thin": 832,
      "ive": 833,
      "ek": 834,
      "these": 835,
      "times": 836,
      "real": 837,
      "gged": 838,
      "floor": 839,
      "hor": 840,
      "spo": 841,
      "tu": 842,
      "moved": 843,
      "scre": 844,
      "lar": 845,
      "wn": 846,
      "question": 847,
      "cou": 848,
      "ces": 849,
      "talk": 850,
      "yet": 851,
      "ket": 852,
      "bad": 853,
      "says": 854,
      "form": 855,
      "leave": 856,
      "mr": 857,
      "tered": 858,
      "smiled": 859,
      "gone": 860,
      "fall": 861,
      "chest": 862,
      "son": 863,
      "inter": 864,
      "ined": 865,
      "lor": 866,
      "eas": 867,
      "called": 868,
      "nu": 869,
      "cra": 870,
      "ef": 871,
      "herself": 872,
      "word": 873,
      "getting": 874,
      "fingers": 875,
      "arr": 876,
      "add": 877,
      "hour": 878,
      "needed": 879,
      "top": 880,
      "fully": 881,
      "half": 882,
      "reali": 883,
      "began": 884,
      "pri": 885,
      "ber": 886,
      "ered": 887,
      "phone": 888,
      "wer": 889,
      "ran": 890,
      "also": 891,
      "stra": 892,
      "pass": 893,
      "aced": 894,
      "lean": 895,
      "rent": 896,
      "ither": 897,
      "cas": 898,
      "ground": 899,
      "live": 900,
      "dead": 901,
      "ished": 902,
      "aring": 903,
      "shook": 904,
      "course": 905,
      "along": 906,
      "yeah": 907,
      "child": 908,
      "soon": 909,
      "ately": 910,
      "second": 911,
      "probab": 912,
      "dist": 913,
      "mes": 914,
      "plan": 915,
      "finally": 916,
      "ny": 917,
      "probably": 918,
      "pick": 919,
      "main": 920,
      "ged": 921,
      "dden": 922,
      "pret": 923,
      "past": 924,
      "cut": 925,
      "god": 926,
      "boy": 927,
      "such": 928,
      "att": 929,
      "ris": 930,
      "sudden": 931,
      "stead": 932,
      "possi": 933,
      "grab": 934,
      "cu": 935,
      "person": 936,
      "fle": 937,
      "sid": 938,
      "least": 939,
      "ently": 940,
      "happened": 941,
      "high": 942,
      "mit": 943,
      "best": 944,
      "contin": 945,
      "gri": 946,
      "sun": 947,
      "cus": 948,
      "reached": 949,
      "eye": 950,
      "great": 951,
      "pat": 952,
      "fire": 953,
      "believe": 954,
      "sorry": 955,
      "char": 956,
      "ia": 957,
      "skin": 958,
      "anger": 959,
      "stru": 960,
      "arent": 961,
      "making": 962,
      "white": 963,
      "tight": 964,
      "ster": 965,
      "later": 966,
      "cli": 967,
      "dan": 968,
      "stopped": 969,
      "cy": 970,
      "feeling": 971,
      "soft": 972,
      "idd": 973,
      "surpr": 974,
      "taking": 975,
      "ters": 976,
      "opened": 977,
      "sy": 978,
      "understand": 979,
      "list": 980,
      "hea": 981,
      "lle": 982,
      "cla": 983,
      "human": 984,
      "anyone": 985,
      "meet": 986,
      "mag": 987,
      "bus": 988,
      "family": 989,
      "remember": 990,
      "cking": 991,
      "power": 992,
      "temp": 993,
      "sleep": 994,
      "everyone": 995,
      "fight": 996,
      "idea": 997,
      "dire": 998,
      "mine": 999,
      "enti": 1000,
      "brother": 1001,
      "ls": 1002,
      "forward": 1003,
      "cat": 1004,
      "neck": 1005,
      "morning": 1006,
      "shoulder": 1007,
      "bri": 1008,
      "diffe": 1009,
      "days": 1010,
      "sli": 1011,
      "reason": 1012,
      "book": 1013,
      "happen": 1014,
      "fted": 1015,
      "oud": 1016,
      "kept": 1017,
      "glan": 1018,
      "gra": 1019,
      "comple": 1020,
      "clear": 1021,
      "vers": 1022,
      "fact": 1023,
      "fect": 1024,
      "hes": 1025,
      "dered": 1026,
      "line": 1027,
      "ided": 1028,
      "mas": 1029,
      "youn": 1030,
      "ian": 1031,
      "quickly": 1032,
      "au": 1033,
      "four": 1034,
      "vered": 1035,
      "mom": 1036,
      "thro": 1037,
      "dy": 1038,
      "gen": 1039,
      "hit": 1040,
      "pic": 1041,
      "alone": 1042,
      "guy": 1043,
      "fre": 1044,
      "onto": 1045,
      "cess": 1046,
      "gue": 1047,
      "closed": 1048,
      "walk": 1049,
      "lin": 1050,
      "quiet": 1051,
      "aw": 1052,
      "slowly": 1053,
      "hall": 1054,
      "aut": 1055,
      "mur": 1056,
      "bor": 1057,
      "ale": 1058,
      "fine": 1059,
      "met": 1060,
      "having": 1061,
      "ches": 1062,
      "thinking": 1063,
      "wrong": 1064,
      "ering": 1065,
      "emp": 1066,
      "ual": 1067,
      "nat": 1068,
      "zz": 1069,
      "tw": 1070,
      "please": 1071,
      "fill": 1072,
      "expe": 1073,
      "fell": 1074,
      "hurt": 1075,
      "bra": 1076,
      "laugh": 1077,
      "lied": 1078,
      "cold": 1079,
      "stared": 1080,
      "answer": 1081,
      "um": 1082,
      "talking": 1083,
      "dou": 1084,
      "mand": 1085,
      "vam": 1086,
      "warm": 1087,
      "watched": 1088,
      "lay": 1089,
      "hope": 1090,
      "either": 1091,
      "point": 1092,
      "prote": 1093,
      "ping": 1094,
      "minutes": 1095,
      "ended": 1096,
      "lic": 1097,
      "plain": 1098,
      "fun": 1099,
      "beaut": 1100,
      "noti": 1101,
      "matter": 1102,
      "actually": 1103,
      "certain": 1104,
      "outside": 1105,
      "ously": 1106,
      "pter": 1107,
      "wonder": 1108,
      "motion": 1109,
      "chair": 1110,
      "dad": 1111,
      "ghed": 1112,
      "ild": 1113,
      "suddenly": 1114,
      "sis": 1115,
      "cks": 1116,
      "resp": 1117,
      "gun": 1118,
      "lly": 1119,
      "lost": 1120,
      "iness": 1121,
      "standing": 1122,
      "tive": 1123,
      "ring": 1124,
      "pur": 1125,
      "guard": 1126,
      "pered": 1127,
      "guess": 1128,
      "gaze": 1129,
      "oney": 1130,
      "thre": 1131,
      "jack": 1132,
      "ones": 1133,
      "kid": 1134,
      "wood": 1135,
      "ele": 1136,
      "vie": 1137,
      "din": 1138,
      "tention": 1139,
      "fast": 1140,
      "val": 1141,
      "continu": 1142,
      "taken": 1143,
      "lad": 1144,
      "gar": 1145,
      "free": 1146,
      "vy": 1147,
      "waiting": 1148,
      "whole": 1149,
      "shir": 1150,
      "blue": 1151,
      "eld": 1152,
      "figu": 1153,
      "poin": 1154,
      "different": 1155,
      "ations": 1156,
      "pretty": 1157,
      "caught": 1158,
      "safe": 1159,
      "exact": 1160,
      "thank": 1161,
      "bot": 1162,
      "ago": 1163,
      "ship": 1164,
      "grin": 1165,
      "zing": 1166,
      "friends": 1167,
      "build": 1168,
      "gest": 1169,
      "offe": 1170,
      "kne": 1171,
      "clu": 1172,
      "instead": 1173,
      "stair": 1174,
      "burn": 1175,
      "complete": 1176,
      "case": 1177,
      "laughed": 1178,
      "die": 1179,
      "five": 1180,
      "sw": 1181,
      "death": 1182,
      "sol": 1183,
      "chapter": 1184,
      "sive": 1185,
      "rid": 1186,
      "short": 1187,
      "vampi": 1188,
      "shit": 1189,
      "scho": 1190,
      "round": 1191,
      "ming": 1192,
      "van": 1193,
      "break": 1194,
      "prom": 1195,
      "sign": 1196,
      "others": 1197,
      "simp": 1198,
      "suppo": 1199,
      "ased": 1200,
      "school": 1201,
      "mach": 1202,
      "vin": 1203,
      "action": 1204,
      "fli": 1205,
      "seat": 1206,
      "scream": 1207,
      "imag": 1208,
      "show": 1209,
      "bur": 1210,
      "legs": 1211,
      "shot": 1212,
      "looks": 1213,
      "young": 1214,
      "vel": 1215,
      "throat": 1216,
      "ky": 1217,
      "hot": 1218,
      "fort": 1219,
      "late": 1220,
      "smo": 1221,
      "reg": 1222,
      "os": 1223,
      "whispered": 1224,
      "bare": 1225,
      "har": 1226,
      "sense": 1227,
      "chang": 1228,
      "foot": 1229,
      "bring": 1230,
      "eks": 1231,
      "shad": 1232,
      "glanced": 1233,
      "ents": 1234,
      "kit": 1235,
      "cing": 1236,
      "window": 1237,
      "ons": 1238,
      "sent": 1239,
      "sex": 1240,
      "ult": 1241,
      "gy": 1242,
      "straight": 1243,
      "street": 1244,
      "happy": 1245,
      "strong": 1246,
      "va": 1247,
      "whatever": 1248,
      "brought": 1249,
      "possible": 1250,
      "tom": 1251,
      "ball": 1252,
      "cept": 1253,
      "town": 1254,
      "holding": 1255,
      "bru": 1256,
      "stepped": 1257,
      "lead": 1258,
      "thir": 1259,
      "gas": 1260,
      "inte": 1261,
      "large": 1262,
      "shut": 1263,
      "wra": 1264,
      "change": 1265,
      "vic": 1266,
      "den": 1267,
      "meant": 1268,
      "uring": 1269,
      "dream": 1270,
      "watch": 1271,
      "kiss": 1272,
      "gan": 1273,
      "appeared": 1274,
      "exactly": 1275,
      "vor": 1276,
      "ending": 1277,
      "appro": 1278,
      "shirt": 1279,
      "sever": 1280,
      "row": 1281,
      "cry": 1282,
      "quite": 1283,
      "sitting": 1284,
      "sna": 1285,
      "touch": 1286,
      "inst": 1287,
      "stro": 1288,
      "band": 1289,
      "leaned": 1290,
      "ire": 1291,
      "finger": 1292,
      "perfect": 1293,
      "watching": 1294,
      "nice": 1295,
      "als": 1296,
      "fer": 1297,
      "rel": 1298,
      "ening": 1299,
      "iful": 1300,
      "glass": 1301,
      "year": 1302,
      "realized": 1303,
      "known": 1304,
      "entire": 1305,
      "six": 1306,
      "dress": 1307,
      "bb": 1308,
      "rol": 1309,
      "ures": 1310,
      "sme": 1311,
      "moving": 1312,
      "covered": 1313,
      "ths": 1314,
      "abo": 1315,
      "ror": 1316,
      "yed": 1317,
      "exc": 1318,
      "conf": 1319,
      "running": 1320,
      "explain": 1321,
      "followed": 1322,
      "fear": 1323,
      "ants": 1324,
      "cross": 1325,
      "fur": 1326,
      "pie": 1327,
      "wel": 1328,
      "sus": 1329,
      "true": 1330,
      "pan": 1331,
      "hours": 1332,
      "sub": 1333,
      "lves": 1334,
      "job": 1335,
      "closer": 1336,
      "slid": 1337,
      "deal": 1338,
      "given": 1339,
      "several": 1340,
      "bag": 1341,
      "mbled": 1342,
      "cir": 1343,
      "continued": 1344,
      "baby": 1345,
      "grabbed": 1346,
      "attention": 1347,
      "ley": 1348,
      "shru": 1349,
      "week": 1350,
      "fice": 1351,
      "ding": 1352,
      "lan": 1353,
      "replied": 1354,
      "loved": 1355,
      "mped": 1356,
      "ctor": 1357,
      "mir": 1358,
      "chen": 1359,
      "beautiful": 1360,
      "ular": 1361,
      "tee": 1362,
      "interest": 1363,
      "oc": 1364,
      "chance": 1365,
      "yell": 1366,
      "stairs": 1367,
      "youre": 1368,
      "remain": 1369,
      "pushed": 1370,
      "ition": 1371,
      "damn": 1372,
      "aces": 1373,
      "cup": 1374,
      "trust": 1375,
      "longer": 1376,
      "eng": 1377,
      "pal": 1378,
      "bi": 1379,
      "pen": 1380,
      "beside": 1381,
      "wed": 1382,
      "ries": 1383,
      "saying": 1384,
      "road": 1385,
      "city": 1386,
      "tonight": 1387,
      "ates": 1388,
      "sear": 1389,
      "shoulders": 1390,
      "grand": 1391,
      "living": 1392,
      "reach": 1393,
      "lear": 1394,
      "lun": 1395,
      "ited": 1396,
      "cover": 1397,
      "ali": 1398,
      "lying": 1399,
      "died": 1400,
      "haps": 1401,
      "teen": 1402,
      "peri": 1403,
      "stri": 1404,
      "apart": 1405,
      "pack": 1406,
      "couple": 1407,
      "mad": 1408,
      "today": 1409,
      "perhaps": 1410,
      "rolled": 1411,
      "parent": 1412,
      "money": 1413,
      "proble": 1414,
      "slight": 1415,
      "sky": 1416,
      "using": 1417,
      "ben": 1418,
      "turning": 1419,
      "rose": 1420,
      "squ": 1421,
      "ments": 1422,
      "aged": 1423,
      "tears": 1424,
      "control": 1425,
      "thats": 1426,
      "ying": 1427,
      "cru": 1428,
      "isted": 1429,
      "serious": 1430,
      "green": 1431,
      "wasnt": 1432,
      "smell": 1433,
      "win": 1434,
      "kitchen": 1435,
      "speak": 1436,
      "pression": 1437,
      "dropped": 1438,
      "ison": 1439,
      "tin": 1440,
      "women": 1441,
      "leaving": 1442,
      "bene": 1443,
      "est": 1444,
      "por": 1445,
      "decided": 1446,
      "antly": 1447,
      "doub": 1448,
      "igh": 1449,
      "office": 1450,
      "above": 1451,
      "sister": 1452,
      "bat": 1453,
      "zy": 1454,
      "mal": 1455,
      "sort": 1456,
      "filled": 1457,
      "truth": 1458,
      "ident": 1459,
      "ung": 1460,
      "parents": 1461,
      "gotten": 1462,
      "pleas": 1463,
      "memor": 1464,
      "alex": 1465,
      "posit": 1466,
      "immed": 1467,
      "expression": 1468,
      "leg": 1469,
      "fla": 1470,
      "ders": 1471,
      "cri": 1472,
      "ining": 1473,
      "mut": 1474,
      "passed": 1475,
      "business": 1476,
      "gro": 1477,
      "obvi": 1478,
      "raised": 1479,
      "dred": 1480,
      "working": 1481,
      "shar": 1482,
      "hers": 1483,
      "anyway": 1484,
      "bas": 1485,
      "secre": 1486,
      "pressed": 1487,
      "spoke": 1488,
      "seeing": 1489,
      "raid": 1490,
      "kno": 1491,
      "box": 1492,
      "ility": 1493,
      "ging": 1494,
      "lifted": 1495,
      "stomach": 1496,
      "rac": 1497,
      "shing": 1498,
      "completely": 1499,
      "crow": 1500,
      "arri": 1501,
      "iled": 1502,
      "sar": 1503,
      "drink": 1504,
      "hen": 1505,
      "giving": 1506,
      "silence": 1507,
      "ils": 1508,
      "sou": 1509,
      "pay": 1510,
      "worry": 1511,
      "ba": 1512,
      "bright": 1513,
      "wenty": 1514,
      "twenty": 1515,
      "edge": 1516,
      "fic": 1517,
      "vent": 1518,
      "steps": 1519,
      "walking": 1520,
      "thu": 1521,
      "corner": 1522,
      "begin": 1523,
      "attack": 1524,
      "rather": 1525,
      "miss": 1526,
      "frown": 1527,
      "food": 1528,
      "staring": 1529,
      "cell": 1530,
      "guys": 1531,
      "thes": 1532,
      "em": 1533,
      "sight": 1534,
      "swi": 1535,
      "hang": 1536,
      "stone": 1537,
      "sque": 1538,
      "supposed": 1539,
      "hundred": 1540,
      "killed": 1541,
      "makes": 1542,
      "become": 1543,
      "knowing": 1544,
      "ical": 1545,
      "immedi": 1546,
      "tory": 1547,
      "wide": 1548,
      "terri": 1549,
      "sides": 1550,
      "ashed": 1551,
      "within": 1552,
      "anna": 1553,
      "hung": 1554,
      "ctive": 1555,
      "bir": 1556,
      "shout": 1557,
      "building": 1558,
      "fair": 1559,
      "wish": 1560,
      "grow": 1561,
      "picked": 1562,
      "iling": 1563,
      "changed": 1564,
      "view": 1565,
      "lla": 1566,
      "teeth": 1567,
      "sca": 1568,
      "noticed": 1569,
      "nearly": 1570,
      "ded": 1571,
      "waited": 1572,
      "ili": 1573,
      "ina": 1574,
      "yourself": 1575,
      "sighed": 1576,
      "sam": 1577,
      "rup": 1578,
      "beat": 1579,
      "girls": 1580,
      "mus": 1581,
      "afraid": 1582,
      "joh": 1583,
      "vid": 1584,
      "story": 1585,
      "upon": 1586,
      "clean": 1587,
      "thanks": 1588,
      "bow": 1589,
      "phi": 1590,
      "gold": 1591,
      "ler": 1592,
      "emb": 1593,
      "thoughts": 1594,
      "clothes": 1595,
      "towards": 1596,
      "bla": 1597,
      "couldnt": 1598,
      "concer": 1599,
      "danger": 1600,
      "easy": 1601,
      "eat": 1602,
      "sweet": 1603,
      "seem": 1604,
      "jer": 1605,
      "luck": 1606,
      "pict": 1607,
      "drive": 1608,
      "enjo": 1609,
      "plo": 1610,
      "cant": 1611,
      "wered": 1612,
      "returned": 1613,
      "trou": 1614,
      "xed": 1615,
      "fit": 1616,
      "strange": 1617,
      "ier": 1618,
      "stuff": 1619,
      "ists": 1620,
      "direction": 1621,
      "ama": 1622,
      "grou": 1623,
      "placed": 1624,
      "worked": 1625,
      "flow": 1626,
      "import": 1627,
      "kissed": 1628,
      "opp": 1629,
      "ject": 1630,
      "gray": 1631,
      "kick": 1632,
      "bling": 1633,
      "lord": 1634,
      "children": 1635,
      "convers": 1636,
      "vol": 1637,
      "gon": 1638,
      "loud": 1639,
      "minute": 1640,
      "vampire": 1641,
      "pointed": 1642,
      "telling": 1643,
      "cap": 1644,
      "key": 1645,
      "beneath": 1646,
      "order": 1647,
      "reco": 1648,
      "wife": 1649,
      "respon": 1650,
      "iddle": 1651,
      "coffe": 1652,
      "shrugged": 1653,
      "barely": 1654,
      "john": 1655,
      "board": 1656,
      "empty": 1657,
      "gging": 1658,
      "thick": 1659,
      "hey": 1660,
      "cial": 1661,
      "ions": 1662,
      "answered": 1663,
      "dar": 1664,
      "cket": 1665,
      "spot": 1666,
      "reed": 1667,
      "sts": 1668,
      "assu": 1669,
      "sometimes": 1670,
      "coffee": 1671,
      "pun": 1672,
      "tongue": 1673,
      "desk": 1674,
      "demon": 1675,
      "figure": 1676,
      "surprised": 1677,
      "sum": 1678,
      "wondered": 1679,
      "remind": 1680,
      "cheek": 1681,
      "fas": 1682,
      "ens": 1683,
      "immediately": 1684,
      "bly": 1685,
      "stup": 1686,
      "emotion": 1687,
      "knows": 1688,
      "sn": 1689,
      "problem": 1690,
      "experi": 1691,
      "bill": 1692,
      "sharp": 1693,
      "colle": 1694,
      "thor": 1695,
      "return": 1696,
      "bey": 1697,
      "middle": 1698,
      "during": 1699,
      "force": 1700,
      "heavy": 1701,
      "uni": 1702,
      "ial": 1703,
      "mid": 1704,
      "draw": 1705,
      "none": 1706,
      "rub": 1707,
      "bered": 1708,
      "ann": 1709,
      "ka": 1710,
      "lady": 1711,
      "selves": 1712,
      "port": 1713,
      "cting": 1714,
      "tar": 1715,
      "aded": 1716,
      "comfor": 1717,
      "bath": 1718,
      "ities": 1719,
      "sic": 1720,
      "iff": 1721,
      "ied": 1722,
      "sco": 1723,
      "drew": 1724,
      "gener": 1725,
      "added": 1726,
      "law": 1727,
      "earth": 1728,
      "although": 1729,
      "liked": 1730,
      "fied": 1731,
      "sand": 1732,
      "nose": 1733,
      "pas": 1734,
      "stupid": 1735,
      "rock": 1736,
      "bal": 1737,
      "finished": 1738,
      "daught": 1739,
      "months": 1740,
      "wearing": 1741,
      "tone": 1742,
      "tt": 1743,
      "capt": 1744,
      "itch": 1745,
      "sir": 1746,
      "admit": 1747,
      "conversation": 1748,
      "ute": 1749,
      "fra": 1750,
      "paper": 1751,
      "headed": 1752,
      "climb": 1753,
      "pulling": 1754,
      "however": 1755,
      "rele": 1756,
      "poli": 1757,
      "wild": 1758,
      "press": 1759,
      "anymore": 1760,
      "relie": 1761,
      "lights": 1762,
      "nick": 1763,
      "mill": 1764,
      "moun": 1765,
      "simply": 1766,
      "number": 1767,
      "cast": 1768,
      "don": 1769,
      "thed": 1770,
      "mark": 1771,
      "unt": 1772,
      "sounded": 1773,
      "inc": 1774,
      "cool": 1775,
      "famili": 1776,
      "inform": 1777,
      "trouble": 1778,
      "tall": 1779,
      "space": 1780,
      "pair": 1781,
      "sal": 1782,
      "ey": 1783,
      "lip": 1784,
      "state": 1785,
      "claim": 1786,
      "crack": 1787,
      "gor": 1788,
      "slightly": 1789,
      "gently": 1790,
      "sie": 1791,
      "except": 1792,
      "--": 1793,
      "mbered": 1794,
      "jac": 1795,
      "knees": 1796,
      "narr": 1797,
      "chu": 1798,
      "tas": 1799,
      "esca": 1800,
      "calm": 1801,
      "fro": 1802,
      "became": 1803,
      "male": 1804,
      "cep": 1805,
      "touched": 1806,
      "important": 1807,
      "wake": 1808,
      "alive": 1809,
      "cially": 1810,
      "iding": 1811,
      "offic": 1812,
      "gent": 1813,
      "ital": 1814,
      "acing": 1815,
      "cles": 1816,
      "fif": 1817,
      "sage": 1818,
      "test": 1819,
      "softly": 1820,
      "shes": 1821,
      "consid": 1822,
      "sad": 1823,
      "group": 1824,
      "morrow": 1825,
      "spent": 1826,
      "broken": 1827,
      "fold": 1828,
      "bedroom": 1829,
      "stret": 1830,
      "sounds": 1831,
      "hus": 1832,
      "pho": 1833,
      "rage": 1834,
      "jen": 1835,
      "recog": 1836,
      "jes": 1837,
      "color": 1838,
      "ahead": 1839,
      "stick": 1840,
      "prof": 1841,
      "ney": 1842,
      "phy": 1843,
      "eight": 1844,
      "sold": 1845,
      "doors": 1846,
      "check": 1847,
      "dinner": 1848,
      "surprise": 1849,
      "position": 1850,
      "brown": 1851,
      "somehow": 1852,
      "heal": 1853,
      "weeks": 1854,
      "tomorrow": 1855,
      "secret": 1856,
      "wrapped": 1857,
      "wants": 1858,
      "hy": 1859,
      "ges": 1860,
      "crazy": 1861,
      "worse": 1862,
      "espe": 1863,
      "tiny": 1864,
      "threat": 1865,
      "glad": 1866,
      "quietly": 1867,
      "ically": 1868,
      "sick": 1869,
      "somewhere": 1870,
      "conne": 1871,
      "hesit": 1872,
      "ards": 1873,
      "worth": 1874,
      "defin": 1875,
      "police": 1876,
      "deser": 1877,
      "follow": 1878,
      "doubt": 1879,
      "single": 1880,
      "col": 1881,
      "piece": 1882,
      "kids": 1883,
      "boo": 1884,
      "daughter": 1885,
      "suit": 1886,
      "especially": 1887,
      "path": 1888,
      "broke": 1889,
      "swall": 1890,
      "rad": 1891,
      "locked": 1892,
      "seconds": 1893,
      "eli": 1894,
      "field": 1895,
      "beth": 1896,
      "tired": 1897,
      "dir": 1898,
      "weak": 1899,
      "darkness": 1900,
      "worried": 1901,
      "ony": 1902,
      "flu": 1903,
      "writ": 1904,
      "pul": 1905,
      "rich": 1906,
      "vision": 1907,
      "pes": 1908,
      "remembered": 1909,
      "squee": 1910,
      "demand": 1911,
      "bull": 1912,
      "lap": 1913,
      "command": 1914,
      "area": 1915,
      "juli": 1916,
      "wore": 1917,
      "takes": 1918,
      "weap": 1919,
      "wolf": 1920,
      "io": 1921,
      "beyond": 1922,
      "sty": 1923,
      "ilt": 1924,
      "rat": 1925,
      "silent": 1926,
      "isa": 1927,
      "managed": 1928,
      "sug": 1929,
      "heat": 1930,
      "explo": 1931,
      "questions": 1932,
      "mention": 1933,
      "tree": 1934,
      "chris": 1935,
      "deli": 1936,
      "spir": 1937,
      "dev": 1938,
      "paused": 1939,
      "threw": 1940,
      "situ": 1941,
      "walls": 1942,
      "mrs": 1943,
      "trees": 1944,
      "game": 1945,
      "information": 1946,
      "means": 1947,
      "sigh": 1948,
      "huge": 1949,
      "rain": 1950,
      "cab": 1951,
      "magic": 1952,
      "wound": 1953,
      "seems": 1954,
      "appear": 1955,
      "comes": 1956,
      "dressed": 1957,
      "stare": 1958,
      "prac": 1959,
      "spread": 1960,
      "suggest": 1961,
      "expected": 1962,
      "dry": 1963,
      "oked": 1964,
      "sett": 1965,
      "lock": 1966,
      "flat": 1967,
      "ative": 1968,
      "forced": 1969,
      "distance": 1970,
      "doctor": 1971,
      "thered": 1972,
      "shaking": 1973,
      "angry": 1974,
      "ron": 1975,
      "ric": 1976,
      "fuck": 1977,
      "bre": 1978,
      "amed": 1979,
      "vice": 1980,
      "inv": 1981,
      "meeting": 1982,
      "eve": 1983,
      "spl": 1984,
      "ith": 1985,
      "forget": 1986,
      "news": 1987,
      "shu": 1988,
      "catch": 1989,
      "firm": 1990,
      "pet": 1991,
      "lier": 1992,
      "listen": 1993,
      "track": 1994,
      "event": 1995,
      "ient": 1996,
      "early": 1997,
      "party": 1998,
      "max": 1999,
      "carry": 2000,
      "playing": 2001,
      "ties": 2002,
      "agreed": 2003,
      "smiling": 2004,
      "aking": 2005,
      "crowd": 2006,
      "ably": 2007,
      "igno": 2008,
      "apo": 2009,
      "wet": 2010,
      "present": 2011,
      "dru": 2012,
      "grace": 2013,
      "rist": 2014,
      "waist": 2015,
      "jaw": 2016,
      "slam": 2017,
      "spect": 2018,
      "bs": 2019,
      "eric": 2020,
      "anim": 2021,
      "pocket": 2022,
      "mbling": 2023,
      "hide": 2024,
      "ener": 2025,
      "kni": 2026,
      "class": 2027,
      "promise": 2028,
      "mel": 2029,
      "chuck": 2030,
      "trans": 2031,
      "mate": 2032,
      "ising": 2033,
      "tel": 2034,
      "keeping": 2035,
      "chin": 2036,
      "brief": 2037,
      "clearly": 2038,
      "rela": 2039,
      "counter": 2040,
      "camp": 2041,
      "cro": 2042,
      "ousand": 2043,
      "thousand": 2044,
      "els": 2045,
      "rence": 2046,
      "surround": 2047,
      "reve": 2048,
      "pleasure": 2049,
      "tern": 2050,
      "snapped": 2051,
      "boys": 2052,
      "save": 2053,
      "agree": 2054,
      "nerv": 2055,
      "bell": 2056,
      "pis": 2057,
      "desper": 2058,
      "ances": 2059,
      "tically": 2060,
      "husband": 2061,
      "often": 2062,
      "brow": 2063,
      "mess": 2064,
      "respond": 2065,
      "desp": 2066,
      "tian": 2067,
      "born": 2068,
      "zen": 2069,
      "fut": 2070,
      "hone": 2071,
      "comfortable": 2072,
      "ign": 2073,
      "recogni": 2074,
      "lets": 2075,
      "sword": 2076,
      "below": 2077,
      "repe": 2078,
      "familiar": 2079,
      "aware": 2080,
      "hate": 2081,
      "choice": 2082,
      "survi": 2083,
      "dog": 2084,
      "expect": 2085,
      "whether": 2086,
      "further": 2087,
      "stren": 2088,
      "mission": 2089,
      "def": 2090,
      "normal": 2091,
      "ery": 2092,
      "send": 2093,
      "ham": 2094,
      "weight": 2095,
      "ible": 2096,
      "ref": 2097,
      "bottom": 2098,
      "hood": 2099,
      "mbers": 2100,
      "handed": 2101,
      "jam": 2102,
      "noon": 2103,
      "ari": 2104,
      "streng": 2105,
      "earlier": 2106,
      "definite": 2107,
      "attemp": 2108,
      "tering": 2109,
      "scent": 2110,
      "pound": 2111,
      "cher": 2112,
      "blin": 2113,
      "certainly": 2114,
      "lived": 2115,
      "bathroom": 2116,
      "mun": 2117,
      "battle": 2118,
      "crossed": 2119,
      "grinned": 2120,
      "slipped": 2121,
      "obviously": 2122,
      "missed": 2123,
      "nie": 2124,
      "stor": 2125,
      "favor": 2126,
      "evening": 2127,
      "letting": 2128,
      "pin": 2129,
      "ana": 2130,
      "team": 2131,
      "company": 2132,
      "flash": 2133,
      "situation": 2134,
      "jor": 2135,
      "asking": 2136,
      "creat": 2137,
      "shall": 2138,
      "arrived": 2139,
      "ston": 2140,
      "bottle": 2141,
      "tors": 2142,
      "hat": 2143,
      "gets": 2144,
      "asses": 2145,
      "oper": 2146,
      "natur": 2147,
      "usual": 2148,
      "jumped": 2149,
      "aled": 2150,
      "priv": 2151,
      "apparent": 2152,
      "ker": 2153,
      "apartment": 2154,
      "idence": 2155,
      "vill": 2156,
      "usually": 2157,
      "frowned": 2158,
      "za": 2159,
      "wear": 2160,
      "center": 2161,
      "cheeks": 2162,
      "snow": 2163,
      "willing": 2164,
      "carefully": 2165,
      "moon": 2166,
      "hoping": 2167,
      "muttered": 2168,
      "consc": 2169,
      "aint": 2170,
      "showed": 2171,
      "drop": 2172,
      "mary": 2173,
      "realize": 2174,
      "gentle": 2175,
      "avo": 2176,
      "hoped": 2177,
      "jon": 2178,
      "scar": 2179,
      "breathing": 2180,
      "direct": 2181,
      "unders": 2182,
      "twi": 2183,
      "lose": 2184,
      "laughing": 2185,
      "smoo": 2186,
      "glance": 2187,
      "silver": 2188,
      "jake": 2189,
      "bun": 2190,
      "queen": 2191,
      "themselves": 2192,
      "imagine": 2193,
      "ggled": 2194,
      "jump": 2195,
      "grew": 2196,
      "picture": 2197,
      "curi": 2198,
      "soul": 2199,
      "ears": 2200,
      "definitely": 2201,
      "pose": 2202,
      "seven": 2203,
      "ages": 2204,
      "super": 2205,
      "prin": 2206,
      "ager": 2207,
      "inde": 2208,
      "scra": 2209,
      "whisper": 2210,
      "brain": 2211,
      "notice": 2212,
      "offered": 2213,
      "cand": 2214,
      "despite": 2215,
      "suc": 2216,
      "master": 2217,
      "hon": 2218,
      "strength": 2219,
      "hosp": 2220,
      "lli": 2221,
      "len": 2222,
      "christ": 2223,
      "lives": 2224,
      "anti": 2225,
      "likely": 2226,
      "james": 2227,
      "scared": 2228,
      "coll": 2229,
      "captain": 2230,
      "handle": 2231,
      "base": 2232,
      "zo": 2233,
      "fresh": 2234,
      "wid": 2235,
      "metal": 2236,
      "wise": 2237,
      "beginning": 2238,
      "talked": 2239,
      "note": 2240,
      "future": 2241,
      "mac": 2242,
      "besides": 2243,
      "knife": 2244,
      "entered": 2245,
      "sla": 2246,
      "count": 2247,
      "horse": 2248,
      "aned": 2249,
      "exha": 2250,
      "simple": 2251,
      "fan": 2252,
      "easily": 2253,
      "mm": 2254,
      "formed": 2255,
      "fighting": 2256,
      "vest": 2257,
      "tail": 2258,
      "termin": 2259,
      "forehead": 2260,
      "truck": 2261,
      "pill": 2262,
      "shouted": 2263,
      "ki": 2264,
      "micha": 2265,
      "helped": 2266,
      "lyn": 2267,
      "thirty": 2268,
      "memory": 2269,
      "ethan": 2270,
      "ender": 2271,
      "sweat": 2272,
      "stayed": 2273,
      "forever": 2274,
      "allowed": 2275,
      "bing": 2276,
      "spr": 2277,
      "log": 2278,
      "idden": 2279,
      "une": 2280,
      "remained": 2281,
      "date": 2282,
      "honest": 2283,
      "music": 2284,
      "relation": 2285,
      "search": 2286,
      "tori": 2287,
      "itself": 2288,
      "aside": 2289,
      "wouldnt": 2290,
      "rely": 2291,
      "ors": 2292,
      "bel": 2293,
      "neither": 2294,
      "appo": 2295,
      "among": 2296,
      "kat": 2297,
      "needs": 2298,
      "card": 2299,
      "pale": 2300,
      "protect": 2301,
      "decis": 2302,
      "flesh": 2303,
      "mountain": 2304,
      "hill": 2305,
      "vampires": 2306,
      "david": 2307,
      "focus": 2308,
      "photo": 2309,
      "push": 2310,
      "cried": 2311,
      "brows": 2312,
      "vir": 2313,
      "sea": 2314,
      "married": 2315,
      "kets": 2316,
      "special": 2317,
      "diffic": 2318,
      "gn": 2319,
      "visit": 2320,
      "tense": 2321,
      "shadow": 2322,
      "shock": 2323,
      "tie": 2324,
      "brid": 2325,
      "emer": 2326,
      "destro": 2327,
      "jud": 2328,
      "contact": 2329,
      "falling": 2330,
      "py": 2331,
      "ledge": 2332,
      "coat": 2333,
      "dying": 2334,
      "asing": 2335,
      "afternoon": 2336,
      "hospital": 2337,
      "proper": 2338,
      "energy": 2339,
      "ained": 2340,
      "older": 2341,
      "oned": 2342,
      "mirror": 2343,
      "settled": 2344,
      "secur": 2345,
      "shake": 2346,
      "frey": 2347,
      "adam": 2348,
      "played": 2349,
      "ration": 2350,
      "invol": 2351,
      "jeans": 2352,
      "thy": 2353,
      "store": 2354,
      "wit": 2355,
      "river": 2356,
      "calling": 2357,
      "personal": 2358,
      "screen": 2359,
      "asks": 2360,
      "explained": 2361,
      "fting": 2362,
      "following": 2363,
      "bbing": 2364,
      "lou": 2365,
      "appre": 2366,
      "burst": 2367,
      "hated": 2368,
      "wanting": 2369,
      "llen": 2370,
      "conscious": 2371,
      "cole": 2372,
      "dear": 2373,
      "partic": 2374,
      "ride": 2375,
      "tray": 2376,
      "tood": 2377,
      "odd": 2378,
      "dust": 2379,
      "fool": 2380,
      "rick": 2381,
      "acc": 2382,
      "moments": 2383,
      "learned": 2384,
      "putting": 2385,
      "understood": 2386,
      "couch": 2387,
      "lies": 2388,
      "apparently": 2389,
      "speed": 2390,
      "hole": 2391,
      "stal": 2392,
      "tun": 2393,
      "dani": 2394,
      "hips": 2395,
      "pit": 2396,
      "court": 2397,
      "guards": 2398,
      "ends": 2399,
      "camer": 2400,
      "ets": 2401,
      "shower": 2402,
      "solute": 2403,
      "mage": 2404,
      "relief": 2405,
      "nel": 2406,
      "particular": 2407,
      "goes": 2408,
      "opening": 2409,
      "laught": 2410,
      "discus": 2411,
      "bear": 2412,
      "noise": 2413,
      "hanging": 2414,
      "wondering": 2415,
      "michael": 2416,
      "drove": 2417,
      "feat": 2418,
      "hunter": 2419,
      "turns": 2420,
      "pants": 2421,
      "park": 2422,
      "mble": 2423,
      "jason": 2424,
      "dance": 2425,
      "mist": 2426,
      "ises": 2427,
      "missing": 2428,
      "boat": 2429,
      "thigh": 2430,
      "reading": 2431,
      "non": 2432,
      "stuck": 2433,
      "00": 2434,
      "finish": 2435,
      "dangerous": 2436,
      "ured": 2437,
      "ines": 2438,
      "busy": 2439,
      "figured": 2440,
      "third": 2441,
      "carried": 2442,
      "escape": 2443,
      "cei": 2444,
      "ban": 2445,
      "rit": 2446,
      "ination": 2447,
      "starting": 2448,
      "dim": 2449,
      "inclu": 2450,
      "mike": 2451,
      "ya": 2452,
      "screamed": 2453,
      "books": 2454,
      "lower": 2455,
      "disappeared": 2456,
      "pub": 2457,
      "peter": 2458,
      "learn": 2459,
      "bent": 2460,
      "var": 2461,
      "summer": 2462,
      "clen": 2463,
      "shifted": 2464,
      "bodies": 2465,
      "security": 2466,
      "powerful": 2467,
      "tele": 2468,
      "wing": 2469,
      "chase": 2470,
      "cause": 2471,
      "aur": 2472,
      "button": 2473,
      "loc": 2474,
      "unless": 2475,
      "taste": 2476,
      "grip": 2477,
      "echo": 2478,
      "inking": 2479,
      "polit": 2480,
      "aid": 2481,
      "velo": 2482,
      "poor": 2483,
      "shop": 2484,
      "kin": 2485,
      "absolute": 2486,
      "satis": 2487,
      "yer": 2488,
      "nine": 2489,
      "happening": 2490,
      "inted": 2491,
      "weir": 2492,
      "net": 2493,
      "trac": 2494,
      "offer": 2495,
      "station": 2496,
      "peace": 2497,
      "mured": 2498,
      "necess": 2499,
      "murmured": 2500,
      "gate": 2501,
      "nervous": 2502,
      "speaking": 2503,
      "careful": 2504,
      "level": 2505,
      "laid": 2506,
      "hallway": 2507,
      "exam": 2508,
      "lucky": 2509,
      "hol": 2510,
      "vern": 2511,
      "blan": 2512,
      "comput": 2513,
      "vant": 2514,
      "eventually": 2515,
      "windows": 2516,
      "belong": 2517,
      "suspe": 2518,
      "pink": 2519,
      "zane": 2520,
      "ress": 2521,
      "thom": 2522,
      "country": 2523,
      "foc": 2524,
      "gust": 2525,
      "truly": 2526,
      "enter": 2527,
      "sult": 2528,
      "issu": 2529,
      "rachel": 2530,
      "fortun": 2531,
      "twisted": 2532,
      "freyja": 2533,
      "humans": 2534,
      "gif": 2535,
      "harder": 2536,
      "ara": 2537,
      "ws": 2538,
      "race": 2539,
      "thumb": 2540,
      "ko": 2541,
      "sleeping": 2542,
      "ific": 2543,
      "iz": 2544,
      "desire": 2545,
      "pow": 2546,
      "ety": 2547,
      "interrup": 2548,
      "cook": 2549,
      "comfort": 2550,
      "relationship": 2551,
      "yours": 2552,
      "tro": 2553,
      "throw": 2554,
      "syste": 2555,
      "places": 2556,
      "west": 2557,
      "aling": 2558,
      "horri": 2559,
      "yelled": 2560,
      "via": 2561,
      "blind": 2562,
      "consider": 2563,
      "rubbed": 2564,
      "grim": 2565,
      "doesnt": 2566,
      "xi": 2567,
      "chan": 2568,
      "sidered": 2569,
      "considered": 2570,
      "pushing": 2571,
      "response": 2572,
      "ices": 2573,
      "smoke": 2574,
      "leather": 2575,
      "oli": 2576,
      "wine": 2577,
      "growing": 2578,
      "swallowed": 2579,
      "glo": 2580,
      "nod": 2581,
      "lines": 2582,
      "wash": 2583,
      "accept": 2584,
      "ience": 2585,
      "spend": 2586,
      "leep": 2587,
      "geor": 2588,
      "doll": 2589,
      "message": 2590,
      "asleep": 2591,
      "apolo": 2592,
      "theres": 2593,
      "viol": 2594,
      "attered": 2595,
      "tip": 2596,
      "bother": 2597,
      "birth": 2598,
      "difficult": 2599,
      "trip": 2600,
      "gard": 2601,
      "burned": 2602,
      "rance": 2603,
      "anda": 2604,
      "brand": 2605,
      "finding": 2606,
      "hadnt": 2607,
      "laughter": 2608,
      "rough": 2609,
      "dor": 2610,
      "funny": 2611,
      "smooth": 2612,
      "ability": 2613,
      "seriously": 2614,
      "join": 2615,
      "tent": 2616,
      "share": 2617,
      "astic": 2618,
      "pray": 2619,
      "leaning": 2620,
      "burning": 2621,
      "bound": 2622,
      "allow": 2623,
      "uncle": 2624,
      "miles": 2625,
      "aching": 2626,
      "waved": 2627,
      "craw": 2628,
      "blinked": 2629,
      "forest": 2630,
      "confused": 2631,
      "obvious": 2632,
      "quar": 2633,
      "bby": 2634,
      "uh": 2635,
      "feelings": 2636,
      "hotel": 2637,
      "frea": 2638,
      "natural": 2639,
      "island": 2640,
      "presence": 2641,
      "pier": 2642,
      "paul": 2643,
      "forth": 2644,
      "anywhere": 2645,
      "sarah": 2646,
      "private": 2647,
      "clock": 2648,
      "rolling": 2649,
      "appreci": 2650,
      "fallen": 2651,
      "leng": 2652,
      "possibly": 2653,
      "song": 2654,
      "club": 2655,
      "embarr": 2656,
      "inn": 2657,
      "ica": 2658,
      "weird": 2659,
      "lled": 2660,
      "reminded": 2661,
      "stretched": 2662,
      "embarrass": 2663,
      "bul": 2664,
      "const": 2665,
      "faces": 2666,
      "fran": 2667,
      "emma": 2668,
      "frank": 2669,
      "recor": 2670,
      "lunch": 2671,
      "refle": 2672,
      "iously": 2673,
      "north": 2674,
      "post": 2675,
      "ford": 2676,
      "shadows": 2677,
      "hidden": 2678,
      "enjoy": 2679,
      "listening": 2680,
      "psy": 2681,
      "aming": 2682,
      "ading": 2683,
      "bite": 2684,
      "palm": 2685,
      "impossible": 2686,
      "comb": 2687,
      "compl": 2688,
      "suppose": 2689,
      "gage": 2690,
      "lia": 2691,
      "lared": 2692,
      "sne": 2693,
      "cabin": 2694,
      "final": 2695,
      "gling": 2696,
      "shoes": 2697,
      "blu": 2698,
      "tot": 2699,
      "cul": 2700,
      "frust": 2701,
      "directly": 2702,
      "heads": 2703,
      "prison": 2704,
      "harm": 2705,
      "believed": 2706,
      "gho": 2707,
      "whats": 2708,
      "determin": 2709,
      "cious": 2710,
      "circle": 2711,
      "las": 2712,
      "surface": 2713,
      "feels": 2714,
      "served": 2715,
      "fish": 2716,
      "tim": 2717,
      "excuse": 2718,
      "ctions": 2719,
      "jacket": 2720,
      "shoved": 2721,
      "evil": 2722,
      "dep": 2723,
      "ounced": 2724,
      "bones": 2725,
      "gru": 2726,
      "wave": 2727,
      "concern": 2728,
      "chur": 2729,
      "ior": 2730,
      "ized": 2731,
      "experience": 2732,
      "drun": 2733,
      "wea": 2734,
      "elect": 2735,
      "doorway": 2736,
      "san": 2737,
      "claimed": 2738,
      "rap": 2739,
      "demanded": 2740,
      "acher": 2741,
      "argu": 2742,
      "woke": 2743,
      "rand": 2744,
      "interested": 2745,
      "wont": 2746,
      "entrance": 2747,
      "instru": 2748,
      "cars": 2749,
      "wheel": 2750,
      "tan": 2751,
      "produ": 2752,
      "extra": 2753,
      "commun": 2754,
      "pool": 2755,
      "seth": 2756,
      "repeated": 2757,
      "climbed": 2758,
      "size": 2759,
      "mortal": 2760,
      "focused": 2761,
      "warri": 2762,
      "ners": 2763,
      "loose": 2764,
      "bility": 2765,
      "cock": 2766,
      "crying": 2767,
      "fought": 2768,
      "memories": 2769,
      "reaching": 2770,
      "public": 2771,
      "storm": 2772,
      "tech": 2773,
      "feed": 2774,
      "approached": 2775,
      "corre": 2776,
      "wished": 2777,
      "amazing": 2778,
      "rie": 2779,
      "invest": 2780,
      "inch": 2781,
      "driving": 2782,
      "clut": 2783,
      "fly": 2784,
      "az": 2785,
      "faster": 2786,
      "bast": 2787,
      "hearing": 2788,
      "roof": 2789,
      "breathe": 2790,
      "gret": 2791,
      "totally": 2792,
      "nobody": 2793,
      "shield": 2794,
      "jim": 2795,
      "warning": 2796,
      "checked": 2797,
      "decision": 2798,
      "leap": 2799,
      "ai": 2800,
      "involved": 2801,
      "slammed": 2802,
      "issa": 2803,
      "riage": 2804,
      "lowered": 2805,
      "stat": 2806,
      "aunt": 2807,
      "thrust": 2808,
      "computer": 2809,
      "trail": 2810,
      "tossed": 2811,
      "bran": 2812,
      "hip": 2813,
      "hardly": 2814,
      "beer": 2815,
      "tat": 2816,
      "muscles": 2817,
      "inno": 2818,
      "dest": 2819,
      "iers": 2820,
      "centr": 2821,
      "ceiling": 2822,
      "treat": 2823,
      "luci": 2824,
      "naked": 2825,
      "stud": 2826,
      "unable": 2827,
      "cleared": 2828,
      "wers": 2829,
      "rush": 2830,
      "bon": 2831,
      "faced": 2832,
      "faint": 2833,
      "oken": 2834,
      "stiff": 2835,
      "grass": 2836,
      "welcome": 2837,
      "glasses": 2838,
      "perfectly": 2839,
      "struck": 2840,
      "engl": 2841,
      "yal": 2842,
      "iron": 2843,
      "concerned": 2844,
      "wrist": 2845,
      "fat": 2846,
      "fac": 2847,
      "alley": 2848,
      "spell": 2849,
      "scene": 2850,
      "fist": 2851,
      "mostly": 2852,
      "stage": 2853,
      "panic": 2854,
      "aff": 2855,
      "continue": 2856,
      "ordered": 2857,
      "gree": 2858,
      "south": 2859,
      "paid": 2860,
      "respect": 2861,
      "driver": 2862,
      "heading": 2863,
      "nur": 2864,
      "cip": 2865,
      "gut": 2866,
      "image": 2867,
      "jour": 2868,
      "rested": 2869,
      "killing": 2870,
      "anted": 2871,
      "yellow": 2872,
      "occas": 2873,
      "gras": 2874,
      "gle": 2875,
      "gasped": 2876,
      "hiding": 2877,
      "ryan": 2878,
      "kicked": 2879,
      "simon": 2880,
      "buy": 2881,
      "reaction": 2882,
      "weapon": 2883,
      "bitch": 2884,
      "twice": 2885,
      "brothers": 2886,
      "blow": 2887,
      "army": 2888,
      "blade": 2889,
      "bert": 2890,
      "plate": 2891,
      "pause": 2892,
      "disappo": 2893,
      "forgotten": 2894,
      "woods": 2895,
      "general": 2896,
      "ena": 2897,
      "ell": 2898,
      "church": 2899,
      "instantly": 2900,
      "logan": 2901,
      "ache": 2902,
      "wand": 2903,
      "yard": 2904,
      "beast": 2905,
      "oured": 2906,
      "tiv": 2907,
      "limp": 2908,
      "scan": 2909,
      "report": 2910,
      "incred": 2911,
      "trave": 2912,
      "henry": 2913,
      "recei": 2914,
      "fil": 2915,
      "purpose": 2916,
      "brushed": 2917,
      "swung": 2918,
      "anno": 2919,
      "effort": 2920,
      "tur": 2921,
      "rising": 2922,
      "subject": 2923,
      "squeezed": 2924,
      "mc": 2925,
      "promised": 2926,
      "breaking": 2927,
      "risk": 2928,
      "dete": 2929,
      "history": 2930,
      "lab": 2931,
      "separ": 2932,
      "joined": 2933,
      "terrible": 2934,
      "sical": 2935,
      "han": 2936,
      "mood": 2937,
      "acy": 2938,
      "thomas": 2939,
      "pper": 2940,
      "ignored": 2941,
      "current": 2942,
      "unk": 2943,
      "lift": 2944,
      "soldiers": 2945,
      "system": 2946,
      "ague": 2947,
      "gie": 2948,
      "regard": 2949,
      "breakfast": 2950,
      "smart": 2951,
      "female": 2952,
      "pieces": 2953,
      "joe": 2954,
      "fright": 2955,
      "suff": 2956,
      "tied": 2957,
      "type": 2958,
      "lessly": 2959,
      "ution": 2960,
      "flew": 2961,
      "built": 2962,
      "honey": 2963,
      "flying": 2964,
      "ury": 2965,
      "boots": 2966,
      "proud": 2967,
      "neigh": 2968,
      "hello": 2969,
      "luke": 2970,
      "suspic": 2971,
      "emi": 2972,
      "gab": 2973,
      "daniel": 2974,
      "upset": 2975,
      "lam": 2976,
      "surely": 2977,
      "gods": 2978,
      "month": 2979,
      "folded": 2980,
      "ades": 2981,
      "cil": 2982,
      "pared": 2983,
      "claire": 2984,
      "blur": 2985,
      "descri": 2986,
      "rushed": 2987,
      "rang": 2988,
      "exist": 2989,
      "lake": 2990,
      "excited": 2991,
      "worst": 2992,
      "grey": 2993,
      "prepared": 2994,
      "absolutely": 2995,
      "yan": 2996,
      "beach": 2997,
      "ava": 2998,
      "steady": 2999,
      "responsi": 3000,
      "ense": 3001,
      "vide": 3002,
      "bloody": 3003,
      "inct": 3004,
      "iday": 3005,
      "grown": 3006,
      "soci": 3007,
      "wedding": 3008,
      "ired": 3009,
      "parking": 3010,
      "ggling": 3011,
      "tightly": 3012,
      "osite": 3013,
      "plu": 3014,
      "dreams": 3015,
      "opposite": 3016,
      "skir": 3017,
      "wooden": 3018,
      "compan": 3019,
      "jerked": 3020,
      "fault": 3021,
      "fucking": 3022,
      "eyed": 3023,
      "nes": 3024,
      "iam": 3025,
      "leaves": 3026,
      "ids": 3027,
      "indeed": 3028,
      "length": 3029,
      "addy": 3030,
      "kate": 3031,
      "mail": 3032,
      "relax": 3033,
      "curled": 3034,
      "wards": 3035,
      "mental": 3036,
      "screaming": 3037,
      "contr": 3038,
      "ulous": 3039,
      "pop": 3040,
      "bone": 3041,
      "sions": 3042,
      "eating": 3043,
      "posed": 3044,
      "shape": 3045,
      "kissing": 3046,
      "prince": 3047,
      "interesting": 3048,
      "plans": 3049,
      "tails": 3050,
      "process": 3051,
      "nature": 3052,
      "exhaust": 3053,
      "huh": 3054,
      "nights": 3055,
      "trick": 3056,
      "sophi": 3057,
      "breast": 3058,
      "dut": 3059,
      "ude": 3060,
      "wis": 3061,
      "stun": 3062,
      "shift": 3063,
      "movement": 3064,
      "slept": 3065,
      "necessary": 3066,
      "rooms": 3067,
      "golden": 3068,
      "visible": 3069,
      "engine": 3070,
      "studied": 3071,
      "touching": 3072,
      "spirit": 3073,
      "spar": 3074,
      "rob": 3075,
      "searching": 3076,
      "ile": 3077,
      "haw": 3078,
      "hungry": 3079,
      "cker": 3080,
      "emotions": 3081,
      "narrow": 3082,
      "broad": 3083,
      "yester": 3084,
      "happens": 3085,
      "rise": 3086,
      "bridge": 3087,
      "creature": 3088,
      "easier": 3089,
      "train": 3090,
      "lack": 3091,
      "ashing": 3092,
      "sip": 3093,
      "fifteen": 3094,
      "knowledge": 3095,
      "released": 3096,
      "author": 3097,
      "accident": 3098,
      "ator": 3099,
      "losing": 3100,
      "ald": 3101,
      "mistake": 3102,
      "ception": 3103,
      "caused": 3104,
      "pol": 3105,
      "narrowed": 3106,
      "hig": 3107,
      "whose": 3108,
      "een": 3109,
      "dom": 3110,
      "murder": 3111,
      "godd": 3112,
      "deeper": 3113,
      "flashed": 3114,
      "clenched": 3115,
      "joy": 3116,
      "listened": 3117,
      "gal": 3118,
      "pressing": 3119,
      "regret": 3120,
      "angel": 3121,
      "tex": 3122,
      "tea": 3123,
      "sink": 3124,
      "growled": 3125,
      "gather": 3126,
      "wy": 3127,
      "yesterday": 3128,
      "bringing": 3129,
      "vering": 3130,
      "thinks": 3131,
      "dirt": 3132,
      "fren": 3133,
      "slu": 3134,
      "del": 3135,
      "ister": 3136,
      "brad": 3137,
      "recent": 3138,
      "square": 3139,
      "isnt": 3140,
      "asy": 3141,
      "bree": 3142,
      "fix": 3143,
      "sell": 3144,
      "slo": 3145,
      "opport": 3146,
      "decide": 3147,
      "knee": 3148,
      "avoid": 3149,
      "belt": 3150,
      "jamie": 3151,
      "cloud": 3152,
      "staying": 3153,
      "spun": 3154,
      "fortunately": 3155,
      "ease": 3156,
      "bble": 3157,
      "sour": 3158,
      "eu": 3159,
      "ceed": 3160,
      "ray": 3161,
      "awk": 3162,
      "ory": 3163,
      "steel": 3164,
      "utter": 3165,
      "william": 3166,
      "hesitated": 3167,
      "animal": 3168,
      "convin": 3169,
      "favorite": 3170,
      "liz": 3171,
      "lk": 3172,
      "wings": 3173,
      "indic": 3174,
      "effect": 3175,
      "local": 3176,
      "rust": 3177,
      "smiles": 3178,
      "text": 3179,
      "orig": 3180,
      "shoo": 3181,
      "planned": 3182,
      "tightened": 3183,
      "ics": 3184,
      "shocked": 3185,
      "dere": 3186,
      "anci": 3187,
      "works": 3188,
      "opportun": 3189,
      "scrat": 3190,
      "mart": 3191,
      "landed": 3192,
      "agger": 3193,
      "weapons": 3194,
      "pleased": 3195,
      "dirty": 3196,
      "occasion": 3197,
      "fal": 3198,
      "solid": 3199,
      "college": 3200,
      "major": 3201,
      "removed": 3202,
      "eyebrows": 3203,
      "belly": 3204,
      "ggle": 3205,
      "skill": 3206,
      "entirely": 3207,
      "19": 3208,
      "closing": 3209,
      "dun": 3210,
      "carrying": 3211,
      "hurry": 3212,
      "wonderful": 3213,
      "refused": 3214,
      "rupt": 3215,
      "fant": 3216,
      "chuckled": 3217,
      "double": 3218,
      "grate": 3219,
      "ski": 3220,
      "keys": 3221,
      "hurried": 3222,
      "domin": 3223,
      "raw": 3224,
      "bye": 3225,
      "nearby": 3226,
      "eliza": 3227,
      "bastard": 3228,
      "neighbor": 3229,
      "itor": 3230,
      "drawn": 3231,
      "zi": 3232,
      "recognized": 3233,
      "shud": 3234,
      "nate": 3235,
      "showing": 3236,
      "gives": 3237,
      "awkward": 3238,
      "matt": 3239,
      "dition": 3240,
      "calls": 3241,
      "rope": 3242,
      "verse": 3243,
      "everywhere": 3244,
      "knocked": 3245,
      "worn": 3246,
      "common": 3247,
      "breathed": 3248,
      "instant": 3249,
      "theyre": 3250,
      "shared": 3251,
      "mare": 3252,
      "suggested": 3253,
      "admitted": 3254,
      "tour": 3255,
      "hug": 3256,
      "shoot": 3257,
      "saved": 3258,
      "cow": 3259,
      "drunk": 3260,
      "charge": 3261,
      "charlie": 3262,
      "smir": 3263,
      "desperate": 3264,
      "gathered": 3265,
      "dare": 3266,
      "libr": 3267,
      "plane": 3268,
      "bank": 3269,
      "warmth": 3270,
      "gift": 3271,
      "ides": 3272,
      "simi": 3273,
      "comment": 3274,
      "cele": 3275,
      "answers": 3276,
      "otherwise": 3277,
      "glow": 3278,
      "mn": 3279,
      "horror": 3280,
      "bought": 3281,
      "spoken": 3282,
      "sending": 3283,
      "giant": 3284,
      "sexy": 3285,
      "leading": 3286,
      "ax": 3287,
      "lat": 3288,
      "pregn": 3289,
      "sac": 3290,
      "stories": 3291,
      "sucked": 3292,
      "success": 3293,
      "phe": 3294,
      "requi": 3295,
      "pure": 3296,
      "meaning": 3297,
      "inging": 3298,
      "deeply": 3299,
      "buried": 3300,
      "dragon": 3301,
      "intro": 3302,
      "support": 3303,
      "chief": 3304,
      "ork": 3305,
      "pred": 3306,
      "vious": 3307,
      "serv": 3308,
      "oo": 3309,
      "ius": 3310,
      "restaur": 3311,
      "heaven": 3312,
      "aches": 3313,
      "robe": 3314,
      "heavi": 3315,
      "groaned": 3316,
      "boss": 3317,
      "emily": 3318,
      "sher": 3319,
      "tear": 3320,
      "tran": 3321,
      "amoun": 3322,
      "drawing": 3323,
      "eleva": 3324,
      "spin": 3325,
      "iting": 3326,
      "marry": 3327,
      "spill": 3328,
      "reality": 3329,
      "flight": 3330,
      "tit": 3331,
      "letter": 3332,
      "knock": 3333,
      "beauty": 3334,
      "silently": 3335,
      "zzy": 3336,
      "pictures": 3337,
      "awake": 3338,
      "helping": 3339,
      "dragged": 3340,
      "grad": 3341,
      "mming": 3342,
      "prefer": 3343,
      "stir": 3344,
      "oking": 3345,
      "written": 3346,
      "drag": 3347,
      "swear": 3348,
      "accep": 3349,
      "alarm": 3350,
      "clas": 3351,
      "mic": 3352,
      "jeff": 3353,
      "acting": 3354,
      "myster": 3355,
      "reply": 3356,
      "unted": 3357,
      "ame": 3358,
      "innocent": 3359,
      "holl": 3360,
      "fifty": 3361,
      "ignor": 3362,
      "protest": 3363,
      "tice": 3364,
      "farm": 3365,
      "faded": 3366,
      "surrounded": 3367,
      "names": 3368,
      "imagined": 3369,
      "chat": 3370,
      "rus": 3371,
      "noah": 3372,
      "aked": 3373,
      "equ": 3374,
      "training": 3375,
      "eager": 3376,
      "origin": 3377,
      "laure": 3378,
      "lace": 3379,
      "intense": 3380,
      "service": 3381,
      "pulls": 3382,
      "***": 3383,
      "hanna": 3384,
      "brush": 3385,
      "attempt": 3386,
      "lily": 3387,
      "mater": 3388,
      "toes": 3389,
      "enty": 3390,
      "passing": 3391,
      "determined": 3392,
      "cig": 3393,
      "mentioned": 3394,
      "supp": 3395,
      "americ": 3396,
      "ordin": 3397,
      "sens": 3398,
      "block": 3399,
      "waves": 3400,
      "experien": 3401,
      "angle": 3402,
      "staff": 3403,
      "vul": 3404,
      "langu": 3405,
      "aband": 3406,
      "ssing": 3407,
      "wiped": 3408,
      "horses": 3409,
      "introdu": 3410,
      "ghost": 3411,
      "spark": 3412,
      "youve": 3413,
      "holy": 3414,
      "cop": 3415,
      "angled": 3416,
      "covering": 3417,
      "physical": 3418,
      "excite": 3419,
      "loss": 3420,
      "considering": 3421,
      "milit": 3422,
      "discovered": 3423,
      "voices": 3424,
      "aim": 3425,
      "pointing": 3426,
      "stars": 3427,
      "lee": 3428,
      "travel": 3429,
      "andre": 3430,
      "winter": 3431,
      "ancient": 3432,
      "occur": 3433,
      "pressure": 3434,
      "mmed": 3435,
      "disgust": 3436,
      "drinking": 3437,
      "sliding": 3438,
      "plenty": 3439,
      "officer": 3440,
      "cot": 3441,
      "richard": 3442,
      "sin": 3443,
      "movie": 3444,
      "slip": 3445,
      "rout": 3446,
      "study": 3447,
      "scow": 3448,
      "deck": 3449,
      "expecting": 3450,
      "witch": 3451,
      "younger": 3452,
      "spec": 3453,
      "fed": 3454,
      "tips": 3455,
      "curious": 3456,
      "tes": 3457,
      "crew": 3458,
      "streets": 3459,
      "enemy": 3460,
      "opportunity": 3461,
      "ander": 3462,
      "blame": 3463,
      "serve": 3464,
      "stream": 3465,
      "honor": 3466,
      "impres": 3467,
      "dozen": 3468,
      "mered": 3469,
      "heels": 3470,
      "organ": 3471,
      "crap": 3472,
      "glared": 3473,
      "ome": 3474,
      "lted": 3475,
      "jan": 3476,
      "excitement": 3477,
      "details": 3478,
      "jared": 3479,
      "condition": 3480,
      "itched": 3481,
      "interrupted": 3482,
      "members": 3483,
      "acted": 3484,
      "problems": 3485,
      "fab": 3486,
      "tha": 3487,
      "bastian": 3488,
      "throwing": 3489,
      "named": 3490,
      "spring": 3491,
      "lightly": 3492,
      "gin": 3493,
      "commit": 3494,
      "york": 3495,
      "rot": 3496,
      "match": 3497,
      "cous": 3498,
      "setting": 3499,
      "sport": 3500,
      "option": 3501,
      "cave": 3502,
      "auto": 3503,
      "badly": 3504,
      "isting": 3505,
      "tical": 3506,
      "relaxed": 3507,
      "tension": 3508,
      "iny": 3509,
      "affe": 3510,
      "boyfriend": 3511,
      "orders": 3512,
      "christmas": 3513,
      "terror": 3514,
      "safety": 3515,
      "incre": 3516,
      "abs": 3517,
      "anne": 3518,
      "flowers": 3519,
      "vince": 3520,
      "tv": 3521,
      "stronger": 3522,
      "split": 3523,
      "ships": 3524,
      "extre": 3525,
      "tore": 3526,
      "roman": 3527,
      "dge": 3528,
      "lucas": 3529,
      "cure": 3530,
      "swept": 3531,
      "apologi": 3532,
      "cassie": 3533,
      "gain": 3534,
      "audi": 3535,
      "blond": 3536,
      "kar": 3537,
      "charm": 3538,
      "kisses": 3539,
      "sey": 3540,
      "jane": 3541,
      "george": 3542,
      "alous": 3543,
      "lfri": 3544,
      "vehi": 3545,
      "correct": 3546,
      "ilities": 3547,
      "pissed": 3548,
      "nan": 3549,
      "becoming": 3550,
      "tucked": 3551,
      "assist": 3552,
      "page": 3553,
      "writing": 3554,
      "christian": 3555,
      "ffic": 3556,
      "features": 3557,
      "million": 3558,
      "girlfri": 3559,
      "thighs": 3560,
      "tower": 3561,
      "ado": 3562,
      "jesus": 3563,
      "temper": 3564,
      "failed": 3565,
      "frame": 3566,
      "corrid": 3567,
      "tony": 3568,
      "elevator": 3569,
      "manage": 3570,
      "choose": 3571,
      "council": 3572,
      "kylie": 3573,
      "olivia": 3574,
      "stern": 3575,
      "vio": 3576,
      "rian": 3577,
      "idi": 3578,
      "grave": 3579,
      "pace": 3580,
      "nowhere": 3581,
      "silk": 3582,
      "fusion": 3583,
      "english": 3584,
      "ext": 3585,
      "norm": 3586,
      "fixed": 3587,
      "laun": 3588,
      "inha": 3589,
      "facing": 3590,
      "flames": 3591,
      "ism": 3592,
      "evidence": 3593,
      "forty": 3594,
      "gly": 3595,
      "release": 3596,
      "ridic": 3597,
      "responded": 3598,
      "leader": 3599,
      "including": 3600,
      "firmly": 3601,
      "poured": 3602,
      "nal": 3603,
      "prove": 3604,
      "bitter": 3605,
      "youll": 3606,
      "smelled": 3607,
      "liam": 3608,
      "chill": 3609,
      "sebastian": 3610,
      "porch": 3611,
      "abrupt": 3612,
      "betray": 3613,
      "massive": 3614,
      "cum": 3615,
      "snor": 3616,
      "hawk": 3617,
      "assured": 3618,
      "lots": 3619,
      "castle": 3620,
      "irrit": 3621,
      "passion": 3622,
      "restaurant": 3623,
      "eyebrow": 3624,
      "bigger": 3625,
      "furi": 3626,
      "depart": 3627,
      "amount": 3628,
      "bird": 3629,
      "result": 3630,
      "starts": 3631,
      "twel": 3632,
      "gall": 3633,
      "twelve": 3634,
      "abby": 3635,
      "riel": 3636,
      "cared": 3637,
      "similar": 3638,
      "raced": 3639,
      "backed": 3640,
      "arch": 3641,
      "blake": 3642,
      "ession": 3643,
      "neath": 3644,
      "ffe": 3645,
      "inti": 3646,
      "pot": 3647,
      "signed": 3648,
      "struggled": 3649,
      "aret": 3650,
      "swee": 3651,
      "planning": 3652,
      "chick": 3653,
      "village": 3654,
      "asha": 3655,
      "guns": 3656,
      "pleasant": 3657,
      "bang": 3658,
      "bond": 3659,
      "ivy": 3660,
      "ignore": 3661,
      "marked": 3662,
      "lovely": 3663,
      "repor": 3664,
      "upstairs": 3665,
      "machine": 3666,
      "mous": 3667,
      "due": 3668,
      "blanket": 3669,
      "julian": 3670,
      "challen": 3671,
      "powers": 3672,
      "understanding": 3673,
      "__": 3674,
      "garden": 3675,
      "asse": 3676,
      "higher": 3677,
      "difference": 3678,
      "planet": 3679,
      "marriage": 3680,
      "gripped": 3681,
      "itude": 3682,
      "slide": 3683,
      "widened": 3684,
      "french": 3685,
      "parts": 3686,
      "ripped": 3687,
      "govern": 3688,
      "fang": 3689,
      "concentr": 3690,
      "east": 3691,
      "whenever": 3692,
      "tho": 3693,
      "creep": 3694,
      "fier": 3695,
      "zes": 3696,
      "mping": 3697,
      "papers": 3698,
      "extreme": 3699,
      "pad": 3700,
      "liqu": 3701,
      "parked": 3702,
      "magn": 3703,
      "intention": 3704,
      "consu": 3705,
      "guilt": 3706,
      "uncomfortable": 3707,
      "inches": 3708,
      "oce": 3709,
      "aly": 3710,
      "bay": 3711,
      "blank": 3712,
      "urge": 3713,
      "flood": 3714,
      "snar": 3715,
      "intell": 3716,
      "cale": 3717,
      "demons": 3718,
      "courage": 3719,
      "ckets": 3720,
      "belief": 3721,
      "whom": 3722,
      "request": 3723,
      "buck": 3724,
      "jealous": 3725,
      "purse": 3726,
      "sses": 3727,
      "wen": 3728,
      "briefly": 3729,
      "reasons": 3730,
      "adjust": 3731,
      "write": 3732,
      "upper": 3733,
      "relieved": 3734,
      "underneath": 3735,
      "insisted": 3736,
      "connor": 3737,
      "settle": 3738,
      "ero": 3739,
      "enjoyed": 3740,
      "vit": 3741,
      "capable": 3742,
      "plastic": 3743,
      "wolves": 3744,
      "resting": 3745,
      "monster": 3746,
      "practically": 3747,
      "handsome": 3748,
      "warned": 3749,
      "attrac": 3750,
      "survive": 3751,
      "gorge": 3752,
      "ert": 3753,
      "accor": 3754,
      "investig": 3755,
      "startled": 3756,
      "faith": 3757,
      "vac": 3758,
      "ns": 3759,
      "resist": 3760,
      "heavily": 3761,
      "lined": 3762,
      "sole": 3763,
      "mia": 3764,
      "library": 3765,
      "stack": 3766,
      "wow": 3767,
      "rubbing": 3768,
      "raise": 3769,
      "stopping": 3770,
      "confusion": 3771,
      "illu": 3772,
      "dancing": 3773,
      "cise": 3774,
      "colo": 3775,
      "balls": 3776,
      "tless": 3777,
      "radio": 3778,
      "arily": 3779,
      "profess": 3780,
      "camera": 3781,
      "blew": 3782,
      "ras": 3783,
      "agon": 3784,
      "dropping": 3785,
      "jace": 3786,
      "cash": 3787,
      "grateful": 3788,
      "connection": 3789,
      "clay": 3790,
      "amy": 3791,
      "pour": 3792,
      "anticip": 3793,
      "meal": 3794,
      "victori": 3795,
      "bleed": 3796,
      "cass": 3797,
      "clam": 3798,
      "rules": 3799,
      "nightmare": 3800,
      "merely": 3801,
      "occup": 3802,
      "iss": 3803,
      "normally": 3804,
      "nails": 3805,
      "elizabeth": 3806,
      "whel": 3807,
      "arti": 3808,
      "issue": 3809,
      "ounce": 3810,
      "convinced": 3811,
      "forgot": 3812,
      "agent": 3813,
      "nation": 3814,
      "cture": 3815,
      "waste": 3816,
      "desc": 3817,
      "intment": 3818,
      "host": 3819,
      "emplo": 3820,
      "rear": 3821,
      "ference": 3822,
      "nia": 3823,
      "jay": 3824,
      "mani": 3825,
      "sank": 3826,
      "satisf": 3827,
      "ashes": 3828,
      "develo": 3829,
      "swir": 3830,
      "sean": 3831,
      "thri": 3832,
      "vantage": 3833,
      "thrown": 3834,
      "charac": 3835,
      "iti": 3836,
      "nut": 3837,
      "stab": 3838,
      "activ": 3839,
      "meat": 3840,
      "julia": 3841,
      "ira": 3842,
      "contain": 3843,
      "josh": 3844,
      "hint": 3845,
      "tells": 3846,
      "pounding": 3847,
      "chain": 3848,
      "idding": 3849,
      "regular": 3850,
      "created": 3851,
      "iently": 3852,
      "horrible": 3853,
      "froze": 3854,
      "appearance": 3855,
      "belle": 3856,
      "honestly": 3857,
      "ffled": 3858,
      "symp": 3859,
      "picking": 3860,
      "nathan": 3861,
      "girlfriend": 3862,
      "creatures": 3863,
      "assumed": 3864,
      "cute": 3865,
      "obli": 3866,
      "pile": 3867,
      "tunnel": 3868,
      "cad": 3869,
      "shel": 3870,
      "relu": 3871,
      "guil": 3872,
      "connected": 3873,
      "glancing": 3874,
      "princess": 3875,
      "nest": 3876,
      "chamber": 3877,
      "weekend": 3878,
      "resc": 3879,
      "nods": 3880,
      "tery": 3881,
      "stumbled": 3882,
      "military": 3883,
      "reluct": 3884,
      "distur": 3885,
      "spine": 3886,
      "bob": 3887,
      "plus": 3888,
      "fired": 3889,
      "stands": 3890,
      "overwhel": 3891,
      "custo": 3892,
      "animals": 3893,
      "wan": 3894,
      "fashi": 3895,
      "flipped": 3896,
      "object": 3897,
      "unfortunately": 3898,
      "mans": 3899,
      "scri": 3900,
      "walks": 3901,
      "section": 3902,
      "surprising": 3903,
      "orange": 3904,
      "brit": 3905,
      "cost": 3906,
      "swift": 3907,
      "lungs": 3908,
      "style": 3909,
      "bry": 3910,
      "hero": 3911,
      "appreciate": 3912,
      "fists": 3913,
      "identi": 3914,
      "destroy": 3915,
      "fierce": 3916,
      "lone": 3917,
      "freed": 3918,
      "houses": 3919,
      "ians": 3920,
      "cheer": 3921,
      "ere": 3922,
      "pregnant": 3923,
      "clan": 3924,
      "ral": 3925,
      "grabbing": 3926,
      "beating": 3927,
      "awful": 3928,
      "somebody": 3929,
      "closet": 3930,
      "changing": 3931,
      "ouds": 3932,
      "fury": 3933,
      "acle": 3934,
      "clar": 3935,
      "chairs": 3936,
      "blon": 3937,
      "ano": 3938,
      "hugged": 3939,
      "glare": 3940,
      "sequ": 3941,
      "killer": 3942,
      "loudly": 3943,
      "expen": 3944,
      "weather": 3945,
      "daddy": 3946,
      "actions": 3947,
      "damned": 3948,
      "torn": 3949,
      "bags": 3950,
      "eddie": 3951,
      "deb": 3952,
      "bella": 3953,
      "furn": 3954,
      "shell": 3955,
      "pup": 3956,
      "carol": 3957,
      "searched": 3958,
      "tender": 3959,
      "events": 3960,
      "idly": 3961,
      "distant": 3962,
      "trembling": 3963,
      "buildings": 3964,
      "clouds": 3965,
      "nic": 3966,
      "inju": 3967,
      "ishment": 3968,
      "grandmother": 3969,
      "tam": 3970,
      "enger": 3971,
      "uttered": 3972,
      "mbs": 3973,
      "access": 3974,
      "taught": 3975,
      "sensation": 3976,
      "painting": 3977,
      "tol": 3978,
      "practice": 3979,
      "washed": 3980,
      "shakes": 3981,
      "ora": 3982,
      "ocean": 3983,
      "recognize": 3984,
      "tattoo": 3985,
      "tilted": 3986,
      "grant": 3987,
      "fate": 3988,
      "height": 3989,
      "polite": 3990,
      "dged": 3991,
      "20": 3992,
      "soo": 3993,
      "spi": 3994,
      "delic": 3995,
      "owned": 3996,
      "accepted": 3997,
      "rog": 3998,
      "temple": 3999,
      "ddy": 4000,
      "meas": 4001,
      "jose": 4002,
      "american": 4003,
      "equi": 4004,
      "curtain": 4005,
      "treated": 4006,
      "language": 4007,
      "istan": 4008,
      "frozen": 4009,
      "cred": 4010,
      "clothing": 4011,
      "price": 4012,
      "gorgeous": 4013,
      "fred": 4014,
      "riley": 4015,
      "warrior": 4016,
      "damage": 4017,
      "posse": 4018,
      "harsh": 4019,
      "elbow": 4020,
      "instinct": 4021,
      "shame": 4022,
      "skull": 4023,
      "sake": 4024,
      "crou": 4025,
      "mul": 4026,
      "ency": 4027,
      "mps": 4028,
      "tugged": 4029,
      "pless": 4030,
      "towel": 4031,
      "whir": 4032,
      "lust": 4033,
      "joke": 4034,
      "cracked": 4035,
      "witness": 4036,
      "jet": 4037,
      "rocks": 4038,
      "corridor": 4039,
      "dug": 4040,
      "stranger": 4041,
      "intended": 4042,
      "spotted": 4043,
      "distrac": 4044,
      "forgive": 4045,
      "dee": 4046,
      "beck": 4047,
      "loe": 4048,
      "breeze": 4049,
      "chose": 4050,
      "shy": 4051,
      "rated": 4052,
      "ez": 4053,
      "lifting": 4054,
      "matic": 4055,
      "address": 4056,
      "idiot": 4057,
      "vibr": 4058,
      "ignoring": 4059,
      "suspected": 4060,
      "damp": 4061,
      "cream": 4062,
      "grandfather": 4063,
      "swo": 4064,
      "load": 4065,
      "delight": 4066,
      "frustration": 4067,
      "pillow": 4068,
      "judge": 4069,
      "duty": 4070,
      "pretend": 4071,
      "balance": 4072,
      "sel": 4073,
      "downstairs": 4074,
      "stepping": 4075,
      "backward": 4076,
      "suck": 4077,
      "peered": 4078,
      "ridiculous": 4079,
      "gram": 4080,
      "knot": 4081,
      "escaped": 4082,
      "priest": 4083,
      "causing": 4084,
      "smaller": 4085,
      "whoever": 4086,
      "ishing": 4087,
      "guilty": 4088,
      "government": 4089,
      "puzz": 4090,
      "various": 4091,
      "logy": 4092,
      "gabriel": 4093,
      "received": 4094,
      "stunned": 4095,
      "leans": 4096,
      "snu": 4097,
      "rode": 4098,
      "ech": 4099,
      "desperately": 4100,
      "secrets": 4101,
      "reck": 4102,
      "derek": 4103,
      "celebr": 4104,
      "oped": 4105,
      "groan": 4106,
      "ops": 4107,
      "dawn": 4108,
      "lond": 4109,
      "hissed": 4110,
      "popped": 4111,
      "dread": 4112,
      "moves": 4113,
      "havi": 4114,
      "anting": 4115,
      "mug": 4116,
      "enjoying": 4117,
      "advantage": 4118,
      "dick": 4119,
      "farther": 4120,
      "asty": 4121,
      "notes": 4122,
      "fail": 4123,
      "uc": 4124,
      "parted": 4125,
      "attacked": 4126,
      "announced": 4127,
      "begun": 4128,
      "loving": 4129,
      "soldier": 4130,
      "points": 4131,
      "sisters": 4132,
      "egg": 4133,
      "chosen": 4134,
      "pulse": 4135,
      "professor": 4136,
      "palms": 4137,
      "bes": 4138,
      "partner": 4139,
      "pride": 4140,
      "pee": 4141,
      "kered": 4142,
      "statement": 4143,
      "cloth": 4144,
      "london": 4145,
      "kend": 4146,
      "trapped": 4147,
      "vet": 4148,
      "communic": 4149,
      "abruptly": 4150,
      "ium": 4151,
      "alright": 4152,
      "aren": 4153,
      "skirt": 4154,
      "returning": 4155,
      "nurse": 4156,
      "anx": 4157,
      "ences": 4158,
      "gesture": 4159,
      "total": 4160,
      "mars": 4161,
      "nah": 4162,
      "stones": 4163,
      "cts": 4164,
      "students": 4165,
      "lim": 4166,
      "mass": 4167,
      "terrified": 4168,
      "rule": 4169,
      "explan": 4170,
      "snat": 4171,
      "drifted": 4172,
      "ladies": 4173,
      "yanked": 4174,
      "aster": 4175,
      "eled": 4176,
      "gency": 4177,
      "marks": 4178,
      "sara": 4179,
      "muscle": 4180,
      "moan": 4181,
      "chloe": 4182,
      "landing": 4183,
      "bunch": 4184,
      "exhausted": 4185,
      "painful": 4186,
      "trent": 4187,
      "purple": 4188,
      "pha": 4189,
      "ressed": 4190,
      "dogs": 4191,
      "wro": 4192,
      "lur": 4193,
      "jax": 4194,
      "curse": 4195,
      "gger": 4196,
      "hook": 4197,
      "holds": 4198,
      "particularly": 4199,
      "sensed": 4200,
      "ctively": 4201,
      "unex": 4202,
      "bled": 4203,
      "shooting": 4204,
      "bust": 4205,
      "liter": 4206,
      "falls": 4207,
      "mies": 4208,
      "signs": 4209,
      "yo": 4210,
      "birthday": 4211,
      "tort": 4212,
      "target": 4213,
      "rhy": 4214,
      "gown": 4215,
      "acknow": 4216,
      "parti": 4217,
      "mountains": 4218,
      "bits": 4219,
      "photogra": 4220,
      "los": 4221,
      "marcus": 4222,
      "ware": 4223,
      "ura": 4224,
      "aks": 4225,
      "scott": 4226,
      "project": 4227,
      "larger": 4228,
      "circum": 4229,
      "checking": 4230,
      "licked": 4231,
      "blast": 4232,
      "venge": 4233,
      "sheet": 4234,
      "glowing": 4235,
      "assa": 4236,
      "gazed": 4237,
      "impat": 4238,
      "circ": 4239,
      "blonde": 4240,
      "sweep": 4241,
      "brilli": 4242,
      "echoed": 4243,
      "pment": 4244,
      "caut": 4245,
      "snorted": 4246,
      "10": 4247,
      "cris": 4248,
      "filling": 4249,
      "trace": 4250,
      "mask": 4251,
      "eling": 4252,
      "tress": 4253,
      "ador": 4254,
      "riding": 4255,
      "glimp": 4256,
      "sounding": 4257,
      "whit": 4258,
      "agged": 4259,
      "clue": 4260,
      "colored": 4261,
      "morgan": 4262,
      "arched": 4263,
      "bench": 4264,
      "garage": 4265,
      "bullet": 4266,
      "cutting": 4267,
      "bowl": 4268,
      "jas": 4269,
      "straightened": 4270,
      "footsteps": 4271,
      "envelo": 4272,
      "embarrassed": 4273,
      "vanished": 4274,
      "packed": 4275,
      "ality": 4276,
      "chol": 4277,
      "collar": 4278,
      "likes": 4279,
      "ugly": 4280,
      "experienced": 4281,
      "wink": 4282,
      "sooner": 4283,
      "aye": 4284,
      "vided": 4285,
      "deserve": 4286,
      "ckles": 4287,
      "halfway": 4288,
      "jacob": 4289,
      "stock": 4290,
      "sofa": 4291,
      "centu": 4292,
      "according": 4293,
      "bread": 4294,
      "ino": 4295,
      "racing": 4296,
      "map": 4297,
      "tables": 4298,
      "forcing": 4299,
      "pir": 4300,
      "icy": 4301,
      "istic": 4302,
      "conclu": 4303,
      "friendly": 4304,
      "satisfied": 4305,
      "speech": 4306,
      "numbers": 4307,
      "quit": 4308,
      "devil": 4309,
      "rate": 4310,
      "dies": 4311,
      "shade": 4312,
      "distr": 4313,
      "robert": 4314,
      "matters": 4315,
      "steve": 4316,
      "session": 4317,
      "alco": 4318,
      "satur": 4319,
      "profession": 4320,
      "victoria": 4321,
      "contemp": 4322,
      "approach": 4323,
      "colla": 4324,
      "tage": 4325,
      "mumbled": 4326,
      "convince": 4327,
      "catching": 4328,
      "itation": 4329,
      "task": 4330,
      "collaps": 4331,
      "eased": 4332,
      "rab": 4333,
      "cies": 4334,
      "exit": 4335,
      "dull": 4336,
      "wrap": 4337,
      "opin": 4338,
      "throughout": 4339,
      "hunt": 4340,
      "unlike": 4341,
      "inner": 4342,
      "stall": 4343,
      "fru": 4344,
      "kal": 4345,
      "grat": 4346,
      "everybody": 4347,
      "journey": 4348,
      "lucy": 4349,
      "hal": 4350,
      "intellig": 4351,
      "destroyed": 4352,
      "insane": 4353,
      "tapped": 4354,
      "violet": 4355,
      "billy": 4356,
      "bowed": 4357,
      "trained": 4358,
      "maggie": 4359,
      "version": 4360,
      "whispers": 4361,
      "steal": 4362,
      "nik": 4363,
      "craft": 4364,
      "silly": 4365,
      "dig": 4366,
      "remaining": 4367,
      "smith": 4368,
      "remy": 4369,
      "clearing": 4370,
      "paying": 4371,
      "sway": 4372,
      "ider": 4373,
      "sniff": 4374,
      "stured": 4375,
      "painted": 4376,
      "poison": 4377,
      "caleb": 4378,
      "helpless": 4379,
      "lauren": 4380,
      "havent": 4381,
      "retri": 4382,
      "enor": 4383,
      "gestured": 4384,
      "detective": 4385,
      "lotte": 4386,
      "period": 4387,
      "reli": 4388,
      "file": 4389,
      "protection": 4390,
      "butter": 4391,
      "grinning": 4392,
      "slapped": 4393,
      "gus": 4394,
      "cooper": 4395,
      "arrange": 4396,
      "jected": 4397,
      "cam": 4398,
      "lind": 4399,
      "frightened": 4400,
      "games": 4401,
      "wrote": 4402,
      "harry": 4403,
      "surrounding": 4404,
      "responsible": 4405,
      "images": 4406,
      "athan": 4407,
      "andra": 4408,
      "progre": 4409,
      "inten": 4410,
      "member": 4411,
      "cousin": 4412,
      "decor": 4413,
      "smack": 4414,
      "content": 4415,
      "chedu": 4416,
      "pple": 4417,
      "raising": 4418,
      "nap": 4419,
      "garion": 4420,
      "challenge": 4421,
      "fabric": 4422,
      "cliff": 4423,
      "tough": 4424,
      "ppy": 4425,
      "erie": 4426,
      "sively": 4427,
      "hunting": 4428,
      "luc": 4429,
      "manner": 4430,
      "strike": 4431,
      "former": 4432,
      "guessed": 4433,
      "possibility": 4434,
      "etern": 4435,
      "sunlight": 4436,
      "ibly": 4437,
      "pattern": 4438,
      "cere": 4439,
      "swell": 4440,
      "cursed": 4441,
      "crea": 4442,
      "recently": 4443,
      "tune": 4444,
      "argue": 4445,
      "sevent": 4446,
      "seeming": 4447,
      "medic": 4448,
      "punch": 4449,
      "attend": 4450,
      "agreement": 4451,
      "link": 4452,
      "cage": 4453,
      "copy": 4454,
      "thur": 4455,
      "drug": 4456,
      "cart": 4457,
      "conven": 4458,
      "cia": 4459,
      "sim": 4460,
      "limit": 4461,
      "hitting": 4462,
      "osity": 4463,
      "jonathan": 4464,
      "tristan": 4465,
      "senses": 4466,
      "dean": 4467,
      "gos": 4468,
      "thetic": 4469,
      "charles": 4470,
      "teach": 4471,
      "vehicle": 4472,
      "bows": 4473,
      "struggling": 4474,
      "keeps": 4475,
      "mere": 4476,
      "drank": 4477,
      "holly": 4478,
      "traffic": 4479,
      "fellow": 4480,
      "bec": 4481,
      "ffed": 4482,
      "vague": 4483,
      "exclaimed": 4484,
      "pected": 4485,
      "washing": 4486,
      "anged": 4487,
      "source": 4488,
      "sharply": 4489,
      "unexpected": 4490,
      "yards": 4491,
      "choco": 4492,
      "ourselves": 4493,
      "plat": 4494,
      "dumb": 4495,
      "location": 4496,
      "discuss": 4497,
      "raven": 4498,
      "neat": 4499,
      "prepar": 4500,
      "dining": 4501,
      "greet": 4502,
      "code": 4503,
      "andrew": 4504,
      "account": 4505,
      "cara": 4506,
      "chocolate": 4507,
      "circumst": 4508,
      "stroked": 4509,
      "hmm": 4510,
      "rum": 4511,
      "crystal": 4512,
      "gran": 4513,
      "driveway": 4514,
      "ake": 4515,
      "liquid": 4516,
      "occurred": 4517,
      "cops": 4518,
      "letters": 4519,
      "vas": 4520,
      "gwen": 4521,
      "closely": 4522,
      "bothered": 4523,
      "buzz": 4524,
      "gene": 4525,
      "rin": 4526,
      "proof": 4527,
      "weve": 4528,
      "avail": 4529,
      "remo": 4530,
      "ours": 4531,
      "ret": 4532,
      "sexual": 4533,
      "hay": 4534,
      "schedu": 4535,
      "remembering": 4536,
      "louder": 4537,
      "record": 4538,
      "ais": 4539,
      "ske": 4540,
      "explanation": 4541,
      "butt": 4542,
      "beard": 4543,
      "erson": 4544,
      "blink": 4545,
      "somewhat": 4546,
      "patted": 4547,
      "thunder": 4548,
      "display": 4549,
      "thern": 4550,
      "bolt": 4551,
      "snap": 4552,
      "palace": 4553,
      "covers": 4554,
      "replaced": 4555,
      "ified": 4556,
      "attached": 4557,
      "theyd": 4558,
      "neare": 4559,
      "emon": 4560,
      "tenti": 4561,
      "rett": 4562,
      "ram": 4563,
      "stan": 4564,
      "wren": 4565,
      "sacri": 4566,
      "lightning": 4567,
      "volun": 4568,
      "ji": 4569,
      "research": 4570,
      "placing": 4571,
      "birds": 4572,
      "royal": 4573,
      "crime": 4574,
      "assume": 4575,
      "whim": 4576,
      "radi": 4577,
      "slowed": 4578,
      "doubted": 4579,
      "dollars": 4580,
      "series": 4581,
      "omed": 4582,
      "behavi": 4583,
      "casual": 4584,
      "ordinary": 4585,
      "existence": 4586,
      "alec": 4587,
      "bbled": 4588,
      "gasp": 4589,
      "therine": 4590,
      "humor": 4591,
      "design": 4592,
      "spit": 4593,
      "struction": 4594,
      "moaned": 4595,
      "character": 4596,
      "fy": 4597,
      "complic": 4598,
      "paint": 4599,
      "gregor": 4600,
      "danny": 4601,
      "strand": 4602,
      "quarters": 4603,
      "accent": 4604,
      "charlotte": 4605,
      "shine": 4606,
      "cake": 4607,
      "armed": 4608,
      "sheets": 4609,
      "fasc": 4610,
      "nodding": 4611,
      "hundreds": 4612,
      "dating": 4613,
      "chee": 4614,
      "runs": 4615,
      "evan": 4616,
      "fangs": 4617,
      "president": 4618,
      "pend": 4619,
      "mbo": 4620,
      "werent": 4621,
      "flame": 4622,
      "maid": 4623,
      "uses": 4624,
      "distracted": 4625,
      "genu": 4626,
      "material": 4627,
      "wil": 4628,
      "happiness": 4629,
      "squir": 4630,
      "previous": 4631,
      "inkled": 4632,
      "invited": 4633,
      "core": 4634,
      "noted": 4635,
      "confidence": 4636,
      "amused": 4637,
      "lands": 4638,
      "mall": 4639,
      "amanda": 4640,
      "kidding": 4641,
      "eyel": 4642,
      "social": 4643,
      "trusted": 4644,
      "squeeze": 4645,
      "tick": 4646,
      "aver": 4647,
      "grasp": 4648,
      "abandoned": 4649,
      "pockets": 4650,
      "mud": 4651,
      "esome": 4652,
      "drinks": 4653,
      "teasing": 4654,
      "fence": 4655,
      "bleeding": 4656,
      "unconscious": 4657,
      "goddam": 4658,
      "fake": 4659,
      "arette": 4660,
      "stops": 4661,
      "physic": 4662,
      "stam": 4663,
      "uce": 4664,
      "cigarette": 4665,
      "studying": 4666,
      "shore": 4667,
      "boun": 4668,
      "laughs": 4669,
      "television": 4670,
      "confident": 4671,
      "loves": 4672,
      "bomb": 4673,
      "stated": 4674,
      "grit": 4675,
      "veins": 4676,
      "eral": 4677,
      "trailed": 4678,
      "threatened": 4679,
      "alice": 4680,
      "teacher": 4681,
      "quis": 4682,
      "holiday": 4683,
      "ellie": 4684,
      "brick": 4685,
      "lon": 4686,
      "tured": 4687,
      "extremely": 4688,
      "haired": 4689,
      "paris": 4690,
      "sees": 4691,
      "zomb": 4692,
      "colin": 4693,
      "property": 4694,
      "tank": 4695,
      "drake": 4696,
      "loyal": 4697,
      "numb": 4698,
      "loaded": 4699,
      "tire": 4700,
      "sophie": 4701,
      "tend": 4702,
      "bac": 4703,
      "strode": 4704,
      "panties": 4705,
      "martin": 4706,
      "seated": 4707,
      "amber": 4708,
      "afford": 4709,
      "offering": 4710,
      "deserved": 4711,
      "genuine": 4712,
      "serge": 4713,
      "shri": 4714,
      "indi": 4715,
      "gavin": 4716,
      "original": 4717,
      "disappointed": 4718,
      "shrug": 4719,
      "wicked": 4720,
      "cali": 4721,
      "video": 4722,
      "mile": 4723,
      "prevent": 4724,
      "logical": 4725,
      "extended": 4726,
      "till": 4727,
      "nin": 4728,
      "murmur": 4729,
      "claws": 4730,
      "secure": 4731,
      "kell": 4732,
      "kay": 4733,
      "slipping": 4734,
      "dylan": 4735,
      "pon": 4736,
      "exposed": 4737,
      "suspect": 4738,
      "kevin": 4739,
      "sneak": 4740,
      "hannah": 4741,
      "exe": 4742,
      "bis": 4743,
      "uri": 4744,
      "todd": 4745,
      "maintain": 4746,
      "sters": 4747,
      "crete": 4748,
      "eleven": 4749,
      "rings": 4750,
      "rifle": 4751,
      "swing": 4752,
      "medical": 4753,
      "amuse": 4754,
      "stub": 4755,
      "finn": 4756,
      "grief": 4757,
      "bars": 4758,
      "universe": 4759,
      "wes": 4760,
      "sheriff": 4761,
      "nerves": 4762,
      "dat": 4763,
      "shots": 4764,
      "fingertips": 4765,
      "sity": 4766,
      "bren": 4767,
      "enormous": 4768,
      "centuries": 4769,
      "susan": 4770,
      "justin": 4771,
      "appears": 4772,
      "tab": 4773,
      "****": 4774,
      "freedom": 4775,
      "beam": 4776,
      "curiosity": 4777,
      "feared": 4778,
      "tape": 4779,
      "surve": 4780,
      "mum": 4781,
      "rack": 4782,
      "thousands": 4783,
      "anybody": 4784,
      "hopefully": 4785,
      "vulner": 4786,
      "rolls": 4787,
      "swallow": 4788,
      "victor": 4789,
      "background": 4790,
      "belonged": 4791,
      "dal": 4792,
      "jordan": 4793,
      "span": 4794,
      "shim": 4795,
      "rier": 4796,
      "xy": 4797,
      "izing": 4798,
      "mix": 4799,
      "invisible": 4800,
      "pand": 4801,
      "shining": 4802,
      "spending": 4803,
      "brilliant": 4804,
      "shuddered": 4805,
      "11": 4806,
      "saturday": 4807,
      "daemon": 4808,
      "expensive": 4809,
      "cruel": 4810,
      "realizing": 4811,
      "friday": 4812,
      "allowing": 4813,
      "midnight": 4814,
      "shif": 4815,
      "confir": 4816,
      "trap": 4817,
      "tions": 4818,
      "potenti": 4819,
      "ggy": 4820,
      "ize": 4821,
      "champ": 4822,
      "assass": 4823,
      "answering": 4824,
      "immortal": 4825,
      "tries": 4826,
      "jerk": 4827,
      "mph": 4828,
      "delicate": 4829,
      "univers": 4830,
      "warriors": 4831,
      "nervously": 4832,
      "roar": 4833,
      "passenger": 4834,
      "sensit": 4835,
      "cards": 4836,
      "forms": 4837,
      "nis": 4838,
      "sized": 4839,
      "deliber": 4840,
      "ticing": 4841,
      "positive": 4842,
      "collapsed": 4843,
      "kelly": 4844,
      "guests": 4845,
      "inched": 4846,
      "roo": 4847,
      "rushing": 4848,
      "rhyth": 4849,
      "shivered": 4850,
      "eighteen": 4851,
      "shorts": 4852,
      "spinning": 4853,
      "admir": 4854,
      "spray": 4855,
      "approaching": 4856,
      "mates": 4857,
      "lling": 4858,
      "summon": 4859,
      "advice": 4860,
      "aria": 4861,
      "rome": 4862,
      "constant": 4863,
      "excell": 4864,
      "adv": 4865,
      "gment": 4866,
      "mont": 4867,
      "hurting": 4868,
      "elle": 4869,
      "horiz": 4870,
      "emerged": 4871,
      "jackson": 4872,
      "shown": 4873,
      "aging": 4874,
      "choked": 4875,
      "required": 4876,
      "jeremy": 4877,
      "pher": 4878,
      "darling": 4879,
      "ature": 4880,
      "strea": 4881,
      "electri": 4882,
      "defense": 4883,
      "actual": 4884,
      "screams": 4885,
      "wrists": 4886,
      "entertain": 4887,
      "brian": 4888,
      "iona": 4889,
      "crawled": 4890,
      "sarcas": 4891,
      "virgin": 4892,
      "complex": 4893,
      "states": 4894,
      "hunger": 4895,
      "liar": 4896,
      "create": 4897,
      "proceed": 4898,
      "overhead": 4899,
      "precious": 4900,
      "exploded": 4901,
      "disappear": 4902,
      "corp": 4903,
      "bored": 4904,
      "flicked": 4905,
      "barn": 4906,
      "market": 4907,
      "crimin": 4908,
      "fairly": 4909,
      "jenny": 4910,
      "fea": 4911,
      "rare": 4912,
      "pity": 4913,
      "isy": 4914,
      "desig": 4915,
      "opinion": 4916,
      "digging": 4917,
      "rod": 4918,
      "arse": 4919,
      "scanned": 4920,
      "impressed": 4921,
      "atively": 4922,
      "alle": 4923,
      "spare": 4924,
      "ien": 4925,
      "commander": 4926,
      "vine": 4927,
      "heartbeat": 4928,
      "hammer": 4929,
      "bike": 4930,
      "leon": 4931,
      "solve": 4932,
      "basket": 4933,
      "revealed": 4934,
      "shopping": 4935,
      "soften": 4936,
      "drugs": 4937,
      "stable": 4938,
      "glit": 4939,
      "tracks": 4940,
      "zar": 4941,
      "society": 4942,
      "gul": 4943,
      "elder": 4944,
      "circumstances": 4945,
      "lately": 4946,
      "desert": 4947,
      "assure": 4948,
      "knu": 4949,
      "mixed": 4950,
      "drops": 4951,
      "informed": 4952,
      "knelt": 4953,
      "charged": 4954,
      "raged": 4955,
      "dic": 4956,
      "kyle": 4957,
      "boxes": 4958,
      "available": 4959,
      "eaten": 4960,
      "passage": 4961,
      "sunday": 4962,
      "gathering": 4963,
      "dante": 4964,
      "erica": 4965,
      "concrete": 4966,
      "matthe": 4967,
      "vier": 4968,
      "colt": 4969,
      "flick": 4970,
      "kel": 4971,
      "johnny": 4972,
      "roland": 4973,
      "uniform": 4974,
      "knight": 4975,
      "mason": 4976,
      "lover": 4977,
      "dia": 4978,
      "mack": 4979,
      "shr": 4980,
      "vast": 4981,
      "compe": 4982,
      "wounds": 4983,
      "mil": 4984,
      "devon": 4985,
      "changes": 4986,
      "addition": 4987,
      "brave": 4988,
      "resu": 4989,
      "trad": 4990,
      "ued": 4991,
      "flushed": 4992,
      "breaths": 4993,
      "sons": 4994,
      "sits": 4995,
      "chor": 4996,
      "moder": 4997,
      "jessi": 4998,
      "patient": 4999,
      "fying": 5000,
      "detail": 5001,
      "scare": 5002,
      "saving": 5003,
      "tch": 5004,
      "motioned": 5005,
      "sandwi": 5006,
      "guest": 5007,
      "shouting": 5008,
      "crash": 5009,
      "wrapping": 5010,
      "fol": 5011,
      "forming": 5012,
      "tasted": 5013,
      "dagger": 5014,
      "biting": 5015,
      "infe": 5016,
      "department": 5017,
      "dude": 5018,
      "react": 5019,
      "fog": 5020,
      "plant": 5021,
      "delicious": 5022,
      "sages": 5023,
      "dragging": 5024,
      "annoyed": 5025,
      "corners": 5026,
      "rey": 5027,
      "deny": 5028,
      "trunk": 5029,
      "credit": 5030,
      "lux": 5031,
      "orgas": 5032,
      "ats": 5033,
      "helen": 5034,
      "knocking": 5035,
      "appropri": 5036,
      "embrace": 5037,
      "bour": 5038,
      "itors": 5039,
      "amusement": 5040,
      "magaz": 5041,
      "wri": 5042,
      "terms": 5043,
      "punched": 5044,
      "cis": 5045,
      "thus": 5046,
      "appearing": 5047,
      "colors": 5048,
      "inspe": 5049,
      "sphere": 5050,
      "iture": 5051,
      "rip": 5052,
      "ifer": 5053,
      "tyler": 5054,
      "diam": 5055,
      "bride": 5056,
      "spa": 5057,
      "teased": 5058,
      "waving": 5059,
      "bris": 5060,
      "stubborn": 5061,
      "arrow": 5062,
      "brushing": 5063,
      "dave": 5064,
      "jar": 5065,
      "shaped": 5066,
      "hunters": 5067,
      "coast": 5068,
      "talent": 5069,
      "season": 5070,
      "gered": 5071,
      "ita": 5072,
      "remains": 5073,
      "julie": 5074,
      "patch": 5075,
      "glances": 5076,
      "sixteen": 5077,
      "thread": 5078,
      "conce": 5079,
      "chicken": 5080,
      "branches": 5081,
      "clary": 5082,
      "foo": 5083,
      "hid": 5084,
      "motor": 5085,
      "swam": 5086,
      "zard": 5087,
      "singing": 5088,
      "bin": 5089,
      "airport": 5090,
      "tily": 5091,
      "veled": 5092,
      "achi": 5093,
      "zach": 5094,
      "flir": 5095,
      "flowing": 5096,
      "yep": 5097,
      "behavior": 5098,
      "disbelief": 5099,
      "revealing": 5100,
      "site": 5101,
      "foolish": 5102,
      "goodbye": 5103,
      "pages": 5104,
      "edges": 5105,
      "ribs": 5106,
      "sob": 5107,
      "ideas": 5108,
      "shattered": 5109,
      "reaches": 5110,
      "milk": 5111,
      "backs": 5112,
      "cases": 5113,
      "vies": 5114,
      "kane": 5115,
      "hh": 5116,
      "miser": 5117,
      "symbo": 5118,
      "nasty": 5119,
      "quinn": 5120,
      "sparhawk": 5121,
      "reveal": 5122,
      "winked": 5123,
      "rapidly": 5124,
      "trevor": 5125,
      "weal": 5126,
      "random": 5127,
      "fashion": 5128,
      "seats": 5129,
      "satisfaction": 5130,
      "complain": 5131,
      "tighter": 5132,
      "switch": 5133,
      "sentence": 5134,
      "kim": 5135,
      "furniture": 5136,
      "compli": 5137,
      "circles": 5138,
      "famous": 5139,
      "ridge": 5140,
      "clau": 5141,
      "thusi": 5142,
      "melissa": 5143,
      "12": 5144,
      "wishing": 5145,
      "national": 5146,
      "bart": 5147,
      "llo": 5148,
      "incredible": 5149,
      "jenn": 5150,
      "precise": 5151,
      "pistol": 5152,
      "survived": 5153,
      "oused": 5154,
      "ues": 5155,
      "threatening": 5156,
      "dealing": 5157,
      "syn": 5158,
      "jill": 5159,
      "biggest": 5160,
      "ruth": 5161,
      "begins": 5162,
      "opens": 5163,
      "shane": 5164,
      "stuffed": 5165,
      "exper": 5166,
      "effor": 5167,
      "ette": 5168,
      "whipped": 5169,
      "asted": 5170,
      "incident": 5171,
      "shifting": 5172,
      "skills": 5173,
      "backpack": 5174,
      "string": 5175,
      "cocked": 5176,
      "gang": 5177,
      "quarter": 5178,
      "remote": 5179,
      "oak": 5180,
      "furious": 5181,
      "scattered": 5182,
      "valent": 5183,
      "range": 5184,
      "crept": 5185,
      "shiver": 5186,
      "enthusi": 5187,
      "trade": 5188,
      "anxious": 5189,
      "marie": 5190,
      "clutched": 5191,
      "becca": 5192,
      "handful": 5193,
      "cupped": 5194,
      "strip": 5195,
      "argument": 5196,
      "toe": 5197,
      "habit": 5198,
      "rh": 5199,
      "minds": 5200,
      "sleeve": 5201,
      "rude": 5202,
      "matically": 5203,
      "ingly": 5204,
      "gear": 5205,
      "calmly": 5206,
      "remove": 5207,
      "happily": 5208,
      "screw": 5209,
      "puts": 5210,
      "tipped": 5211,
      "growl": 5212,
      "pear": 5213,
      "roger": 5214,
      "kicking": 5215,
      "coach": 5216,
      "provided": 5217,
      "rese": 5218,
      "spat": 5219,
      "issues": 5220,
      "refer": 5221,
      "prep": 5222,
      "signific": 5223,
      "literally": 5224,
      "duncan": 5225,
      "stretch": 5226,
      "career": 5227,
      "sidewalk": 5228,
      "grunted": 5229,
      "role": 5230,
      "arranged": 5231,
      "student": 5232,
      "impression": 5233,
      "apologize": 5234,
      "makeup": 5235,
      "learning": 5236,
      "nope": 5237,
      "ille": 5238,
      "valley": 5239,
      "joseph": 5240,
      "scen": 5241,
      "winced": 5242,
      "oil": 5243,
      "patrick": 5244,
      "emergency": 5245,
      "youd": 5246,
      "advent": 5247,
      "march": 5248,
      "exchange": 5249,
      "theart": 5250,
      "driven": 5251,
      "ii": 5252,
      "russi": 5253,
      "orn": 5254,
      "unusual": 5255,
      "athy": 5256,
      "throne": 5257,
      "emotional": 5258,
      "predic": 5259,
      "eved": 5260,
      "arrive": 5261,
      "psycho": 5262,
      "gers": 5263,
      "hum": 5264,
      "sweetheart": 5265,
      "families": 5266,
      "fruit": 5267,
      "snake": 5268,
      "miranda": 5269,
      "danced": 5270,
      "pel": 5271,
      "exer": 5272,
      "freaking": 5273,
      "tale": 5274,
      "defen": 5275,
      "climbing": 5276,
      "enemies": 5277,
      "football": 5278,
      "savan": 5279,
      "impro": 5280,
      "rowed": 5281,
      "owner": 5282,
      "sensitive": 5283,
      "cloak": 5284,
      "crossing": 5285,
      "shudder": 5286,
      "injured": 5287,
      "vement": 5288,
      "mothers": 5289,
      "gates": 5290,
      "mode": 5291,
      "individ": 5292,
      "carpet": 5293,
      "jail": 5294,
      "roared": 5295,
      "hau": 5296,
      "pig": 5297,
      "upward": 5298,
      "naturally": 5299,
      "cough": 5300,
      "marble": 5301,
      "hop": 5302,
      "aine": 5303,
      "aston": 5304,
      "fourth": 5305,
      "ville": 5306,
      "equipment": 5307,
      "lawyer": 5308,
      "rescue": 5309,
      "ceremon": 5310,
      "haven": 5311,
      "rene": 5312,
      "encer": 5313,
      "jessica": 5314,
      "lobby": 5315,
      "program": 5316,
      "alert": 5317,
      "defend": 5318,
      "based": 5319,
      "stolen": 5320,
      "mini": 5321,
      "bio": 5322,
      "hollow": 5323,
      "struggle": 5324,
      "remark": 5325,
      "term": 5326,
      "freak": 5327,
      "floating": 5328,
      "angling": 5329,
      "vity": 5330,
      "vices": 5331,
      "owe": 5332,
      "greeted": 5333,
      "recall": 5334,
      "interview": 5335,
      "cheese": 5336,
      "professional": 5337,
      "sugar": 5338,
      "wounded": 5339,
      "ducked": 5340,
      "musc": 5341,
      "gradu": 5342,
      "closest": 5343,
      "execut": 5344,
      "directions": 5345,
      "protected": 5346,
      "katie": 5347,
      "stool": 5348,
      "edward": 5349,
      "officers": 5350,
      "illumin": 5351,
      "ruin": 5352,
      "torture": 5353,
      "iest": 5354,
      "hank": 5355,
      "shortly": 5356,
      "upright": 5357,
      "alien": 5358,
      "anticipation": 5359,
      "cti": 5360,
      "crad": 5361,
      "dried": 5362,
      "separate": 5363,
      "bile": 5364,
      "guide": 5365,
      "counted": 5366,
      "fled": 5367,
      "jumping": 5368,
      "mpled": 5369,
      "sail": 5370,
      "alexander": 5371,
      "glimpse": 5372,
      "sele": 5373,
      "males": 5374,
      "heather": 5375,
      "occupied": 5376,
      "perman": 5377,
      "ashe": 5378,
      "fathers": 5379,
      "movements": 5380,
      "brut": 5381,
      "drawer": 5382,
      "ffs": 5383,
      "giggled": 5384,
      "chased": 5385,
      "unknown": 5386,
      "crowded": 5387,
      "cling": 5388,
      "lamp": 5389,
      "lucien": 5390,
      "excellent": 5391,
      "crashed": 5392,
      "duke": 5393,
      "nearest": 5394,
      "boot": 5395,
      "gil": 5396,
      "shove": 5397,
      "rail": 5398,
      "matthew": 5399,
      "arian": 5400,
      "frustrated": 5401,
      "realm": 5402,
      "glor": 5403,
      "halt": 5404,
      "idge": 5405,
      "tub": 5406,
      "oul": 5407,
      "century": 5408,
      "awesome": 5409,
      "darted": 5410,
      "aran": 5411,
      "addle": 5412,
      "curve": 5413,
      "sadness": 5414,
      "stroke": 5415,
      "rs": 5416,
      "mama": 5417,
      "jesse": 5418,
      "twin": 5419,
      "flower": 5420,
      "begged": 5421,
      "sucking": 5422,
      "strate": 5423,
      "ruined": 5424,
      "dish": 5425,
      "rumor": 5426,
      "lex": 5427,
      "bullshit": 5428,
      "bud": 5429,
      "candle": 5430,
      "deadly": 5431,
      "jewel": 5432,
      "sti": 5433,
      "rarely": 5434,
      "scout": 5435,
      "bald": 5436,
      "casually": 5437,
      "swore": 5438,
      "treas": 5439,
      "dart": 5440,
      "zza": 5441,
      "discover": 5442,
      "disappointment": 5443,
      "aron": 5444,
      "affair": 5445,
      "feather": 5446,
      "lane": 5447,
      "percent": 5448,
      "consequ": 5449,
      "yelling": 5450,
      "tara": 5451,
      "stained": 5452,
      "bore": 5453,
      "colu": 5454,
      "healthy": 5455,
      "shows": 5456,
      "comm": 5457,
      "mattered": 5458,
      "attractive": 5459,
      "heated": 5460,
      "suspicious": 5461,
      "admi": 5462,
      "snarled": 5463,
      "twisting": 5464,
      "ec": 5465,
      "frequ": 5466,
      "permission": 5467,
      "elena": 5468,
      "jai": 5469,
      "erup": 5470,
      "jean": 5471,
      "clicked": 5472,
      "complicated": 5473,
      "garrett": 5474,
      "limbs": 5475,
      "shor": 5476,
      "wandered": 5477,
      "andy": 5478,
      "tempor": 5479,
      "roy": 5480,
      "function": 5481,
      "18": 5482,
      "trash": 5483,
      "mild": 5484,
      "agony": 5485,
      "alcohol": 5486,
      "absor": 5487,
      "pretending": 5488,
      "pounded": 5489,
      "mos": 5490,
      "entry": 5491,
      "fancy": 5492,
      "adrian": 5493,
      "folks": 5494,
      "settling": 5495,
      "cleaning": 5496,
      "erin": 5497,
      "serving": 5498,
      "gid": 5499,
      "vert": 5500,
      "iga": 5501,
      "progress": 5502,
      "sten": 5503,
      "forces": 5504,
      "circled": 5505,
      "rows": 5506,
      "flashing": 5507,
      "mechan": 5508,
      "vulnerable": 5509,
      "molly": 5510,
      "university": 5511,
      "provide": 5512,
      "aline": 5513,
      "zer": 5514,
      "holden": 5515,
      "swiftly": 5516,
      "kers": 5517,
      "wire": 5518,
      "psychi": 5519,
      "accompl": 5520,
      "docu": 5521,
      "goddess": 5522,
      "aust": 5523,
      "victim": 5524,
      "sergeant": 5525,
      "sophia": 5526,
      "advan": 5527,
      "existed": 5528,
      "sharing": 5529,
      "kendra": 5530,
      "basement": 5531,
      "moist": 5532,
      "armor": 5533,
      "elbows": 5534,
      "stares": 5535,
      "posing": 5536,
      "blowing": 5537,
      "violent": 5538,
      "stole": 5539,
      "aidan": 5540,
      "leapt": 5541,
      "crouched": 5542,
      "surge": 5543,
      "spencer": 5544,
      "possessed": 5545,
      "mari": 5546,
      "babe": 5547,
      "sideways": 5548,
      "mystery": 5549,
      "sav": 5550,
      "contract": 5551,
      "screwed": 5552,
      "imper": 5553,
      "potential": 5554,
      "rena": 5555,
      "holes": 5556,
      "lawn": 5557,
      "influ": 5558,
      "affection": 5559,
      "lang": 5560,
      "gide": 5561,
      "owen": 5562,
      "mattress": 5563,
      "panick": 5564,
      "associ": 5565,
      "tessa": 5566,
      "ore": 5567,
      "dock": 5568,
      "audience": 5569,
      "flag": 5570,
      "thorough": 5571,
      "ratt": 5572,
      "movies": 5573,
      "official": 5574,
      "companion": 5575,
      "suppor": 5576,
      "individual": 5577,
      "ives": 5578,
      "director": 5579,
      "justice": 5580,
      "alter": 5581,
      "reass": 5582,
      "tradition": 5583,
      "uncertain": 5584,
      "greg": 5585,
      "scrambled": 5586,
      "scary": 5587,
      "reception": 5588,
      "attempted": 5589,
      "kinds": 5590,
      "represent": 5591,
      "swinging": 5592,
      "confirmed": 5593,
      "pilot": 5594,
      "plun": 5595,
      "healing": 5596,
      "suffer": 5597,
      "health": 5598,
      "nad": 5599,
      "tay": 5600,
      "greater": 5601,
      "chances": 5602,
      "tensed": 5603,
      "stag": 5604,
      "estab": 5605,
      "reluctantly": 5606,
      "contents": 5607,
      "arrival": 5608,
      "horizon": 5609,
      "boring": 5610,
      "photograph": 5611,
      "frowning": 5612,
      "appropriate": 5613,
      "endless": 5614,
      "inting": 5615,
      "hesitation": 5616,
      "patience": 5617,
      "mercy": 5618,
      "begging": 5619,
      "chaos": 5620,
      "therefore": 5621,
      "decent": 5622,
      "kings": 5623,
      "heli": 5624,
      "raz": 5625,
      "sets": 5626,
      "whispering": 5627,
      "swords": 5628,
      "cort": 5629,
      "blocks": 5630,
      "gideon": 5631,
      "modern": 5632,
      "signal": 5633,
      "pac": 5634,
      "adding": 5635,
      "eleg": 5636,
      "approval": 5637,
      "jess": 5638,
      "cult": 5639,
      "useless": 5640,
      "romantic": 5641,
      "lisa": 5642,
      "incl": 5643,
      "lonely": 5644,
      "waking": 5645,
      "souls": 5646,
      "grandma": 5647,
      "multi": 5648,
      "balcon": 5649,
      "darkened": 5650,
      "tate": 5651,
      "maje": 5652,
      "fields": 5653,
      "incredibly": 5654,
      "gabe": 5655,
      "clutching": 5656,
      "intent": 5657,
      "buddy": 5658,
      "worthy": 5659,
      "civi": 5660,
      "pron": 5661,
      "unsure": 5662,
      "melted": 5663,
      "assistant": 5664,
      "stress": 5665,
      "route": 5666,
      "trembled": 5667,
      "spilled": 5668,
      "impact": 5669,
      "succeed": 5670,
      "sting": 5671,
      "solved": 5672,
      "laura": 5673,
      "flies": 5674,
      "reflection": 5675,
      "classes": 5676,
      "pursu": 5677,
      "swim": 5678,
      "hooked": 5679,
      "supplies": 5680,
      "captured": 5681,
      "community": 5682,
      "anto": 5683,
      "ragged": 5684,
      "pouring": 5685,
      "somed": 5686,
      "bron": 5687,
      "traveled": 5688,
      "drown": 5689,
      "angers": 5690,
      "curved": 5691,
      "shiny": 5692,
      "salt": 5693,
      "cade": 5694,
      "constantly": 5695,
      "fascin": 5696,
      "carved": 5697,
      "sedu": 5698,
      "apple": 5699,
      "crown": 5700,
      "fairy": 5701,
      "toi": 5702,
      "blinking": 5703,
      "ully": 5704,
      "neighborhood": 5705,
      "typic": 5706,
      "expert": 5707,
      "envelope": 5708,
      "uary": 5709,
      "aries": 5710,
      "orgasm": 5711,
      "crit": 5712,
      "xic": 5713,
      "hills": 5714,
      "located": 5715,
      "magical": 5716,
      "aloud": 5717,
      "idy": 5718,
      "tons": 5719,
      "prick": 5720,
      "protective": 5721,
      "sheep": 5722,
      "useful": 5723,
      "pinned": 5724,
      "snatched": 5725,
      "straw": 5726,
      "daw": 5727,
      "vels": 5728,
      "carriage": 5729,
      "explosion": 5730,
      "prepare": 5731,
      "berry": 5732,
      "stefan": 5733,
      "attitude": 5734,
      "physically": 5735,
      "confess": 5736,
      "america": 5737,
      "violence": 5738,
      "needing": 5739,
      "moonlight": 5740,
      "sheer": 5741,
      "dipped": 5742,
      "syd": 5743,
      "cleaned": 5744,
      "attr": 5745,
      "jimmy": 5746,
      "meredith": 5747,
      "soaked": 5748,
      "asm": 5749,
      "abilities": 5750,
      "intensity": 5751,
      "knuckles": 5752,
      "thirteen": 5753,
      "gur": 5754,
      "30": 5755,
      "wipe": 5756,
      "tack": 5757,
      "monday": 5758,
      "highway": 5759,
      "false": 5760,
      "breasts": 5761,
      "hired": 5762,
      "pete": 5763,
      "werewolf": 5764,
      "lion": 5765,
      "omi": 5766,
      "photos": 5767,
      "doc": 5768,
      "alo": 5769,
      "items": 5770,
      "stark": 5771,
      "smirk": 5772,
      "imagination": 5773,
      "zel": 5774,
      "countered": 5775,
      "twist": 5776,
      "wherever": 5777,
      "lid": 5778,
      "curls": 5779,
      "bold": 5780,
      "chica": 5781,
      "establ": 5782,
      "loun": 5783,
      "ption": 5784,
      "15": 5785,
      "stiffened": 5786,
      "friendship": 5787,
      "vik": 5788,
      "dripping": 5789,
      "bubble": 5790,
      "ads": 5791,
      "mae": 5792,
      "flung": 5793,
      "quir": 5794,
      "prior": 5795,
      "mentally": 5796,
      "kha": 5797,
      "slumped": 5798,
      "declared": 5799,
      "tted": 5800,
      "ggles": 5801,
      "abor": 5802,
      "traced": 5803,
      "branch": 5804,
      "spite": 5805,
      "scowled": 5806,
      "cit": 5807,
      "cel": 5808,
      "proved": 5809,
      "contained": 5810,
      "pizza": 5811,
      "web": 5812,
      "jury": 5813,
      "eh": 5814,
      "theory": 5815,
      "jessie": 5816,
      "stirred": 5817,
      "shaft": 5818,
      "figures": 5819,
      "syl": 5820,
      "subst": 5821,
      "grimaced": 5822,
      "aph": 5823,
      "stroking": 5824,
      "planted": 5825,
      "science": 5826,
      "waters": 5827,
      "initi": 5828,
      "zoe": 5829,
      "nar": 5830,
      "servant": 5831,
      "central": 5832,
      "laptop": 5833,
      "swollen": 5834,
      "awa": 5835,
      "gym": 5836,
      "hurts": 5837,
      "fork": 5838,
      "rever": 5839,
      "itching": 5840,
      "bryn": 5841,
      "suffering": 5842,
      "unting": 5843,
      "annie": 5844,
      "revol": 5845,
      "nipple": 5846,
      "insist": 5847,
      "surprisingly": 5848,
      "sticking": 5849,
      "arrog": 5850,
      "weed": 5851,
      "clung": 5852,
      "ddled": 5853,
      "laying": 5854,
      "raging": 5855,
      "corpor": 5856,
      "trigger": 5857,
      "twins": 5858,
      "safely": 5859,
      "responsibility": 5860,
      "delive": 5861,
      "ppers": 5862,
      "lesson": 5863,
      "servants": 5864,
      "harr": 5865,
      "leo": 5866,
      "gover": 5867,
      "traveling": 5868,
      "encou": 5869,
      "device": 5870,
      "properly": 5871,
      "gripping": 5872,
      "sible": 5873,
      "estate": 5874,
      "thal": 5875,
      "custom": 5876,
      "kn": 5877,
      "reput": 5878,
      "noble": 5879,
      "maria": 5880,
      "ril": 5881,
      "gres": 5882,
      "spreading": 5883,
      "theless": 5884,
      "rhythm": 5885,
      "scarlet": 5886,
      "suite": 5887,
      "warn": 5888,
      "fourteen": 5889,
      "ada": 5890,
      "click": 5891,
      "taylor": 5892,
      "brandon": 5893,
      "dging": 5894,
      "compared": 5895,
      "shone": 5896,
      "shelf": 5897,
      "lena": 5898,
      "separated": 5899,
      "oming": 5900,
      "stain": 5901,
      "murdered": 5902,
      "zation": 5903,
      "flowed": 5904,
      "ffin": 5905,
      "united": 5906,
      "ffy": 5907,
      "sore": 5908,
      "rocked": 5909,
      "isaac": 5910,
      "flic": 5911,
      "utterly": 5912,
      "scree": 5913,
      "highly": 5914,
      "delivered": 5915,
      "unit": 5916,
      "dane": 5917,
      "fond": 5918,
      "chuckle": 5919,
      "keeper": 5920,
      "dwar": 5921,
      "ankle": 5922,
      "mounted": 5923,
      "caring": 5924,
      "jennifer": 5925,
      "sweater": 5926,
      "karen": 5927,
      "specific": 5928,
      "drained": 5929,
      "childhood": 5930,
      "occasionally": 5931,
      "educ": 5932,
      "blocked": 5933,
      "della": 5934,
      "brings": 5935,
      "uten": 5936,
      "personally": 5937,
      "meth": 5938,
      "nels": 5939,
      "daisy": 5940,
      "math": 5941,
      "tearing": 5942,
      "spirits": 5943,
      "rounded": 5944,
      "bind": 5945,
      "lump": 5946,
      "crushed": 5947,
      "dall": 5948,
      "ryder": 5949,
      "aaron": 5950,
      "nerve": 5951,
      "tier": 5952,
      "selfish": 5953,
      "ringing": 5954,
      "locks": 5955,
      "seek": 5956,
      "mond": 5957,
      "backwards": 5958,
      "strained": 5959,
      "youth": 5960,
      "crawl": 5961,
      "funeral": 5962,
      "solution": 5963,
      "balcony": 5964,
      "foreign": 5965,
      "preferred": 5966,
      "exchanged": 5967,
      "counting": 5968,
      "courty": 5969,
      "slack": 5970,
      "refuse": 5971,
      "client": 5972,
      "zie": 5973,
      "facts": 5974,
      "chicago": 5975,
      "journal": 5976,
      "continues": 5977,
      "offici": 5978,
      "jenks": 5979,
      "scars": 5980,
      "protecting": 5981,
      "cries": 5982,
      "monitor": 5983,
      "mson": 5984,
      "dreamed": 5985,
      "overwhelming": 5986,
      "sally": 5987,
      "instin": 5988,
      "smirked": 5989,
      "melan": 5990,
      "grade": 5991,
      "clever": 5992,
      "tac": 5993,
      "ix": 5994,
      "example": 5995,
      "wiping": 5996,
      "kidna": 5997,
      "wildly": 5998,
      "bbie": 5999,
      "slave": 6000,
      "eggs": 6001,
      "dex": 6002,
      "assign": 6003,
      "melo": 6004,
      "lynn": 6005,
      "adren": 6006,
      "introduced": 6007,
      "devo": 6008,
      "surren": 6009,
      "vincent": 6010,
      "employe": 6011,
      "cen": 6012,
      "bid": 6013,
      "carter": 6014,
      "repeat": 6015,
      "acknowled": 6016,
      "blown": 6017,
      "pony": 6018,
      "sought": 6019,
      "joining": 6020,
      "clin": 6021,
      "gloves": 6022,
      "exception": 6023,
      "exhaled": 6024,
      "bend": 6025,
      "booth": 6026,
      "plates": 6027,
      "stretching": 6028,
      "strangely": 6029,
      "border": 6030,
      "tops": 6031,
      "cavern": 6032,
      "volu": 6033,
      "discussion": 6034,
      "questioned": 6035,
      "oning": 6036,
      "brook": 6037,
      "staircase": 6038,
      "revenge": 6039,
      "cycle": 6040,
      "shelter": 6041,
      "ida": 6042,
      "tics": 6043,
      "panting": 6044,
      "cotton": 6045,
      "divor": 6046,
      "dragons": 6047,
      "popul": 6048,
      "____": 6049,
      "matched": 6050,
      "entering": 6051,
      "sofia": 6052,
      "magnus": 6053,
      "leads": 6054,
      "grind": 6055,
      "avoiding": 6056,
      "dressing": 6057,
      "ceive": 6058,
      "cafe": 6059,
      "controlled": 6060,
      "preparing": 6061,
      "shouldnt": 6062,
      "angels": 6063,
      "techno": 6064,
      "spider": 6065,
      "gentleman": 6066,
      "suffe": 6067,
      "anxi": 6068,
      "louis": 6069,
      "steam": 6070,
      "nett": 6071,
      "mou": 6072,
      "anxiety": 6073,
      "mili": 6074,
      "aiden": 6075,
      "recogn": 6076,
      "jude": 6077,
      "pounds": 6078,
      "mysterious": 6079,
      "heel": 6080,
      "calcul": 6081,
      "doctors": 6082,
      "successful": 6083,
      "taller": 6084,
      "slamming": 6085,
      "concentrate": 6086,
      "courtyard": 6087,
      "switched": 6088,
      "damon": 6089,
      "brace": 6090,
      "aa": 6091,
      "puzzled": 6092,
      "lighting": 6093,
      "torted": 6094,
      "directed": 6095,
      "fare": 6096,
      "oliver": 6097,
      "pod": 6098,
      "tag": 6099,
      "tren": 6100,
      "lah": 6101,
      "distri": 6102,
      "rily": 6103,
      "bottles": 6104,
      "guit": 6105,
      "spraw": 6106,
      "babies": 6107,
      "mali": 6108,
      "compet": 6109,
      "seventeen": 6110,
      "observed": 6111,
      "necklace": 6112,
      "alpha": 6113,
      "privacy": 6114,
      "ripp": 6115,
      "soothing": 6116,
      "14": 6117,
      "fits": 6118,
      "meter": 6119,
      "candy": 6120,
      "miche": 6121,
      "seed": 6122,
      "stake": 6123,
      "ros": 6124,
      "crashing": 6125,
      "native": 6126,
      "ases": 6127,
      "buttons": 6128,
      "prey": 6129,
      "grabs": 6130,
      "hopes": 6131,
      "defeat": 6132,
      "cooking": 6133,
      "structure": 6134,
      "corn": 6135,
      "flip": 6136,
      "suffered": 6137,
      "accus": 6138,
      "onel": 6139,
      "transfer": 6140,
      "schedule": 6141,
      "flickered": 6142,
      "bullets": 6143,
      "nichol": 6144,
      "ud": 6145,
      "outfit": 6146,
      "shoe": 6147,
      "squeezing": 6148,
      "bobby": 6149,
      "miracle": 6150,
      "vivi": 6151,
      "kir": 6152,
      "miserable": 6153,
      "related": 6154,
      "routine": 6155,
      "slap": 6156,
      "idently": 6157,
      "cheap": 6158,
      "breed": 6159,
      "deter": 6160,
      "bounced": 6161,
      "messages": 6162,
      "leaders": 6163,
      "visited": 6164,
      "trial": 6165,
      "sale": 6166,
      "goddamn": 6167,
      "tangled": 6168,
      "califor": 6169,
      "ik": 6170,
      "hatred": 6171,
      "velvet": 6172,
      "immediate": 6173,
      "ites": 6174,
      "degree": 6175,
      "tossing": 6176,
      "interior": 6177,
      "dreaming": 6178,
      "chasing": 6179,
      "feli": 6180,
      "monsters": 6181,
      "ginger": 6182,
      "europe": 6183,
      "aimed": 6184,
      "meg": 6185,
      "bush": 6186,
      "addic": 6187,
      "nostri": 6188,
      "bury": 6189,
      "instructions": 6190,
      "nina": 6191,
      "muffled": 6192,
      "latest": 6193,
      "charming": 6194,
      "eternity": 6195,
      "drift": 6196,
      "neg": 6197,
      "sadly": 6198,
      "asper": 6199,
      "cautiously": 6200,
      "fortune": 6201,
      "cane": 6202,
      "spor": 6203,
      "micro": 6204,
      "commanded": 6205,
      "included": 6206,
      "nail": 6207,
      "intru": 6208,
      "gam": 6209,
      "ely": 6210,
      "mbles": 6211,
      "intelligence": 6212,
      "questioning": 6213,
      "mistress": 6214,
      "muse": 6215,
      "effe": 6216,
      "smells": 6217,
      "finds": 6218,
      "engaged": 6219,
      "atest": 6220,
      "sche": 6221,
      "volunte": 6222,
      "believing": 6223,
      "sack": 6224,
      "lexi": 6225,
      "punishment": 6226,
      "damien": 6227,
      "coo": 6228,
      "seeking": 6229,
      "vable": 6230,
      "consciousness": 6231,
      "equally": 6232,
      "flashlight": 6233,
      "invitation": 6234,
      "prophe": 6235,
      "enna": 6236,
      "suits": 6237,
      "bie": 6238,
      "sorts": 6239,
      "someday": 6240,
      "ww": 6241,
      "toilet": 6242,
      "respe": 6243,
      "impressive": 6244,
      "floated": 6245,
      "flared": 6246,
      "handing": 6247,
      "swimming": 6248,
      "currently": 6249,
      "compre": 6250,
      "greatest": 6251,
      "daily": 6252,
      "comprehen": 6253,
      "operation": 6254,
      "boards": 6255,
      "grasped": 6256,
      "scratched": 6257,
      "ify": 6258,
      "manipul": 6259,
      "feeding": 6260,
      "hearts": 6261,
      "nak": 6262,
      "shoving": 6263,
      "mitch": 6264,
      "popular": 6265,
      "quired": 6266,
      "eline": 6267,
      "squad": 6268,
      "hem": 6269,
      "saman": 6270,
      "nuts": 6271,
      "insu": 6272,
      "indicated": 6273,
      "ella": 6274,
      "attering": 6275,
      "territory": 6276,
      "underground": 6277,
      "cameron": 6278,
      "hire": 6279,
      "warmed": 6280,
      "cain": 6281,
      "toby": 6282,
      "tiger": 6283,
      "descended": 6284,
      "ulously": 6285,
      "fires": 6286,
      "california": 6287,
      "scient": 6288,
      "chim": 6289,
      "legal": 6290,
      "hits": 6291,
      "crush": 6292,
      "thorne": 6293,
      "loo": 6294,
      "fen": 6295,
      "shrie": 6296,
      "regardless": 6297,
      "dared": 6298,
      "worlds": 6299,
      "tast": 6300,
      "laws": 6301,
      "engage": 6302,
      "underwear": 6303,
      "ee": 6304,
      "flee": 6305,
      "bage": 6306,
      "fleet": 6307,
      "investigation": 6308,
      "waitress": 6309,
      "phones": 6310,
      "dallas": 6311,
      "grounds": 6312,
      "dale": 6313,
      "ables": 6314,
      "species": 6315,
      "shirts": 6316,
      "ladder": 6317,
      "intently": 6318,
      "measure": 6319,
      "iana": 6320,
      "gill": 6321,
      "fever": 6322,
      "intri": 6323,
      "manager": 6324,
      "deliver": 6325,
      "frost": 6326,
      "vari": 6327,
      "13": 6328,
      "visions": 6329,
      "neil": 6330,
      "roads": 6331,
      "bump": 6332,
      "lifetime": 6333,
      "techn": 6334,
      "replace": 6335,
      "jenna": 6336,
      "gues": 6337,
      "newspa": 6338,
      "decl": 6339,
      "knob": 6340,
      "southern": 6341,
      "katherine": 6342,
      "slender": 6343,
      "glaring": 6344,
      "comforting": 6345,
      "clasped": 6346,
      "afterward": 6347,
      "sinking": 6348,
      "agents": 6349,
      "goal": 6350,
      "pierce": 6351,
      "glowed": 6352,
      "jones": 6353,
      "compound": 6354,
      "sacrifice": 6355,
      "ankles": 6356,
      "rant": 6357,
      "england": 6358,
      "require": 6359,
      "carl": 6360,
      "pretended": 6361,
      "options": 6362,
      "intimate": 6363,
      "dusty": 6364,
      "activity": 6365,
      "column": 6366,
      "cuts": 6367,
      "decisions": 6368,
      "anta": 6369,
      "platform": 6370,
      "thankfully": 6371,
      "ias": 6372,
      "crun": 6373,
      "amelia": 6374,
      "outer": 6375,
      "creating": 6376,
      "sixty": 6377,
      "newspaper": 6378,
      "dag": 6379,
      "bilities": 6380,
      "mie": 6381,
      "pitch": 6382,
      "reflected": 6383,
      "nicole": 6384,
      "jah": 6385,
      "adrenaline": 6386,
      "barrel": 6387,
      "designed": 6388,
      "prisoner": 6389,
      "slick": 6390,
      "grumbled": 6391,
      "model": 6392,
      "inevit": 6393,
      "nostrils": 6394,
      "tooth": 6395,
      "shaky": 6396,
      "atop": 6397,
      "senior": 6398,
      "darker": 6399,
      "mayor": 6400,
      "results": 6401,
      "rafe": 6402,
      "samantha": 6403,
      "jobs": 6404,
      "escort": 6405,
      "scratch": 6406,
      "callum": 6407,
      "dated": 6408,
      "mighty": 6409,
      "hut": 6410,
      "cups": 6411,
      "twitched": 6412,
      "deliberately": 6413,
      "intend": 6414,
      "groups": 6415,
      "draped": 6416,
      "hart": 6417,
      "joking": 6418,
      "persu": 6419,
      "folding": 6420,
      "wrinkled": 6421,
      "authority": 6422,
      "oping": 6423,
      "regis": 6424,
      "affected": 6425,
      "penet": 6426,
      "sydney": 6427,
      "soap": 6428,
      "monica": 6429,
      "described": 6430,
      "walker": 6431,
      "wels": 6432,
      "fears": 6433,
      "sniffed": 6434,
      "method": 6435,
      "kingdom": 6436,
      "blades": 6437,
      "ults": 6438,
      "cameras": 6439,
      "betrayed": 6440,
      "barked": 6441,
      "tims": 6442,
      "magazine": 6443,
      "posses": 6444,
      "triu": 6445,
      "active": 6446,
      "records": 6447,
      "aisle": 6448,
      "itali": 6449,
      "pted": 6450,
      "locker": 6451,
      "scor": 6452,
      "shapes": 6453,
      "matching": 6454,
      "efforts": 6455,
      "wagon": 6456,
      "ouch": 6457,
      "acles": 6458,
      "worrying": 6459,
      "dammit": 6460,
      "sunshine": 6461,
      "agne": 6462,
      "ashamed": 6463,
      "thie": 6464,
      "yle": 6465,
      "helmet": 6466,
      "weakness": 6467,
      "confirm": 6468,
      "data": 6469,
      "awe": 6470,
      "curtains": 6471,
      "comfortably": 6472,
      "zero": 6473,
      "roughly": 6474,
      "lighter": 6475,
      "squinted": 6476,
      "quo": 6477,
      "recalled": 6478,
      "relent": 6479,
      "rut": 6480,
      "protested": 6481,
      "bbling": 6482,
      "restra": 6483,
      "smoking": 6484,
      "inhaled": 6485,
      "pipe": 6486,
      "flooded": 6487,
      "arc": 6488,
      "adjusted": 6489,
      "chains": 6490,
      "prayed": 6491,
      "stif": 6492,
      "shelves": 6493,
      "mobile": 6494,
      "shallow": 6495,
      "oddly": 6496,
      "reported": 6497,
      "lieuten": 6498,
      "demanding": 6499,
      "inge": 6500,
      "produced": 6501,
      "jung": 6502,
      "stripped": 6503,
      "sang": 6504,
      "stephan": 6505,
      "describe": 6506,
      "reasonable": 6507,
      "inda": 6508,
      "dome": 6509,
      "union": 6510,
      "examined": 6511,
      "electric": 6512,
      "unlocked": 6513,
      "reputation": 6514,
      "cord": 6515,
      "rocky": 6516,
      "alled": 6517,
      "kins": 6518,
      "ceremony": 6519,
      "carm": 6520,
      "fade": 6521,
      "pine": 6522,
      "value": 6523,
      "rein": 6524,
      "humili": 6525,
      "guitar": 6526,
      "brightly": 6527,
      "delay": 6528,
      "insult": 6529,
      "veget": 6530,
      "landsca": 6531,
      "reports": 6532,
      "caroline": 6533,
      "subtle": 6534,
      "gem": 6535,
      "increasing": 6536,
      "supply": 6537,
      "sandwich": 6538,
      "suic": 6539,
      "floors": 6540,
      "vere": 6541,
      "tug": 6542,
      "zzled": 6543,
      "fortunate": 6544,
      "assault": 6545,
      "guaran": 6546,
      "parties": 6547,
      "collection": 6548,
      "player": 6549,
      "guided": 6550,
      "cah": 6551,
      "increased": 6552,
      "alongside": 6553,
      "conference": 6554,
      "assassin": 6555,
      "jonas": 6556,
      "tap": 6557,
      "flush": 6558,
      "avoided": 6559,
      "savannah": 6560,
      "flor": 6561,
      "ende": 6562,
      "whirled": 6563,
      "mock": 6564,
      "elise": 6565,
      "continuing": 6566,
      "irritated": 6567,
      "ranch": 6568,
      "shouts": 6569,
      "juice": 6570,
      "nicholas": 6571,
      "chant": 6572,
      "eva": 6573,
      "counts": 6574,
      "contempl": 6575,
      "vaguely": 6576,
      "plants": 6577,
      "psychic": 6578,
      "dishes": 6579,
      "victory": 6580,
      "blush": 6581,
      "servation": 6582,
      "zzle": 6583,
      "cushi": 6584,
      "seemingly": 6585,
      "files": 6586,
      "reward": 6587,
      "fading": 6588,
      "triumph": 6589,
      "embarrassment": 6590,
      "gritted": 6591,
      "railing": 6592,
      "colonel": 6593,
      "panicked": 6594,
      "bushes": 6595,
      "hoarse": 6596,
      "dollar": 6597,
      "assuming": 6598,
      "lick": 6599,
      "fron": 6600,
      "majesty": 6601,
      "limited": 6602,
      "stephen": 6603,
      "enne": 6604,
      "langdon": 6605,
      "sports": 6606,
      "curl": 6607,
      "gazing": 6608,
      "annoying": 6609,
      "dove": 6610,
      "victims": 6611,
      "mour": 6612,
      "suspicion": 6613,
      "gasping": 6614,
      "atic": 6615,
      "formal": 6616,
      "ffing": 6617,
      "lingering": 6618,
      "thouse": 6619,
      "tugging": 6620,
      "typical": 6621,
      "intimid": 6622,
      "witches": 6623,
      "horn": 6624,
      "acade": 6625,
      "basically": 6626,
      "sensu": 6627,
      "melt": 6628,
      "acqu": 6629,
      "spots": 6630,
      "princi": 6631,
      "lting": 6632,
      "condu": 6633,
      "propped": 6634,
      "wha": 6635,
      "determination": 6636,
      "annoy": 6637,
      "quality": 6638,
      "bark": 6639,
      "realization": 6640,
      "cabinet": 6641,
      "spear": 6642,
      "curt": 6643,
      "erection": 6644,
      "copter": 6645,
      "anth": 6646,
      "seam": 6647,
      "accur": 6648,
      "needle": 6649,
      "instinctively": 6650,
      "scoo": 6651,
      "steering": 6652,
      "haunted": 6653,
      "cured": 6654,
      "amazed": 6655,
      "clip": 6656,
      "combat": 6657,
      "mering": 6658,
      "gary": 6659,
      "western": 6660,
      "snapping": 6661,
      "grac": 6662,
      "campus": 6663,
      "peering": 6664,
      "vil": 6665,
      "toast": 6666,
      "tled": 6667,
      "minor": 6668,
      "tube": 6669,
      "jeep": 6670,
      "exasper": 6671,
      "breathless": 6672,
      "rocking": 6673,
      "diamond": 6674,
      "mented": 6675,
      "ku": 6676,
      "~~": 6677,
      "sno": 6678,
      "lizz": 6679,
      "fireplace": 6680,
      "adult": 6681,
      "cate": 6682,
      "juni": 6683,
      "nora": 6684,
      "prayer": 6685,
      "noticing": 6686,
      "dur": 6687,
      "inged": 6688,
      "butto": 6689,
      "weep": 6690,
      "caution": 6691,
      "giggle": 6692,
      "fus": 6693,
      "ona": 6694,
      "grandpa": 6695,
      "alie": 6696,
      "slit": 6697,
      "indust": 6698,
      "film": 6699,
      "nam": 6700,
      "daylight": 6701,
      "corpse": 6702,
      "buying": 6703,
      "000": 6704,
      "arguing": 6705,
      "studi": 6706,
      "defe": 6707,
      "siren": 6708,
      "angrily": 6709,
      "okes": 6710,
      "print": 6711,
      "dash": 6712,
      "cler": 6713,
      "finan": 6714,
      "fantasy": 6715,
      "tanner": 6716,
      "keen": 6717,
      "sometime": 6718,
      "frantically": 6719,
      "gentlemen": 6720,
      "toler": 6721,
      "hoo": 6722,
      "staggered": 6723,
      "poked": 6724,
      "idents": 6725,
      "leaped": 6726,
      "anytime": 6727,
      "frantic": 6728,
      "doz": 6729,
      "blankets": 6730,
      "folk": 6731,
      "confront": 6732,
      "choices": 6733,
      "breaks": 6734,
      "exciting": 6735,
      "goodness": 6736,
      "mister": 6737,
      "flinched": 6738,
      "wizard": 6739,
      "elegant": 6740,
      "package": 6741,
      "marched": 6742,
      "peaceful": 6743,
      "bothering": 6744,
      "homes": 6745,
      "suv": 6746,
      "portal": 6747,
      "eyelids": 6748,
      "pathetic": 6749,
      "ila": 6750,
      "painfully": 6751,
      "stalked": 6752,
      "striking": 6753,
      "atter": 6754,
      "secretary": 6755,
      "lashes": 6756,
      "swirling": 6757,
      "fridge": 6758,
      "guardian": 6759,
      "allie": 6760,
      "reek": 6761,
      "travis": 6762,
      "luckily": 6763,
      "avery": 6764,
      "paced": 6765,
      "destruction": 6766,
      "marshall": 6767,
      "spike": 6768,
      "ardon": 6769,
      "candles": 6770,
      "surroundings": 6771,
      "lana": 6772,
      "hound": 6773,
      "statue": 6774,
      "strangers": 6775,
      "atmo": 6776,
      "haul": 6777,
      "slightest": 6778,
      "benefit": 6779,
      "liber": 6780,
      "zack": 6781,
      "sipped": 6782,
      "gau": 6783,
      "ghosts": 6784,
      "smashed": 6785,
      "prints": 6786,
      "agers": 6787,
      "encounter": 6788,
      "stray": 6789,
      "toss": 6790,
      "xa": 6791,
      "vacation": 6792,
      "chie": 6793,
      "horrified": 6794,
      "despair": 6795,
      "fitting": 6796,
      "eves": 6797,
      "drum": 6798,
      "blocking": 6799,
      "attempting": 6800,
      "blushed": 6801,
      "steep": 6802,
      "sealed": 6803,
      "samp": 6804,
      "hopped": 6805,
      "congrat": 6806,
      "17": 6807,
      "achers": 6808,
      "mck": 6809,
      "momentarily": 6810,
      "pam": 6811,
      "throbbing": 6812,
      "tommy": 6813,
      "grocer": 6814,
      "aden": 6815,
      "valu": 6816,
      "granted": 6817,
      "dump": 6818,
      "instructed": 6819,
      "occasional": 6820,
      "som": 6821,
      "impul": 6822,
      "josie": 6823,
      "lieutenant": 6824,
      "media": 6825,
      "british": 6826,
      "mansion": 6827,
      "consumed": 6828,
      "greed": 6829,
      "isabella": 6830,
      "arts": 6831,
      "ami": 6832,
      "lunged": 6833,
      "neatly": 6834,
      "dumped": 6835,
      "licking": 6836,
      "dominic": 6837,
      "steadily": 6838,
      "jun": 6839,
      "spy": 6840,
      "ancy": 6841,
      "collect": 6842,
      "mort": 6843,
      "visiting": 6844,
      "kor": 6845,
      "polished": 6846,
      "title": 6847,
      "bund": 6848,
      "mant": 6849,
      "beaten": 6850,
      "eden": 6851,
      "fae": 6852,
      "realised": 6853,
      "clit": 6854,
      "fiona": 6855,
      "warren": 6856,
      "iter": 6857,
      "maneu": 6858,
      "elli": 6859,
      "sticks": 6860,
      "hou": 6861,
      "healed": 6862,
      "tess": 6863,
      "odds": 6864,
      "hesitate": 6865,
      "lized": 6866,
      "bliss": 6867,
      "precisely": 6868,
      "depths": 6869,
      "mara": 6870,
      "committed": 6871,
      "iley": 6872,
      "nause": 6873,
      "natalie": 6874,
      "sni": 6875,
      "miller": 6876,
      "wasted": 6877,
      "amongst": 6878,
      "distraction": 6879,
      "disgu": 6880,
      "adventure": 6881,
      "overwhelmed": 6882,
      "wry": 6883,
      "kira": 6884,
      "churn": 6885,
      "braced": 6886,
      "dozens": 6887,
      "softened": 6888,
      "status": 6889,
      "det": 6890,
      "plot": 6891,
      "aggres": 6892,
      "anya": 6893,
      "therap": 6894,
      "attracted": 6895,
      "obe": 6896,
      "shifter": 6897,
      "whore": 6898,
      "blurted": 6899,
      "ave": 6900,
      "samu": 6901,
      "internet": 6902,
      "politely": 6903,
      "wishes": 6904,
      "tile": 6905,
      "pitched": 6906,
      "temperature": 6907,
      "stabbed": 6908,
      "rebecca": 6909,
      "rights": 6910,
      "ramp": 6911,
      "expand": 6912,
      "helicopter": 6913,
      "burns": 6914,
      "pest": 6915,
      "fox": 6916,
      "flan": 6917,
      "trey": 6918,
      "ensure": 6919,
      "ishly": 6920,
      "dresser": 6921,
      "mouse": 6922,
      "fishing": 6923,
      "collected": 6924,
      "distinct": 6925,
      "ige": 6926,
      "sorrow": 6927,
      "headache": 6928,
      "repair": 6929,
      "strands": 6930,
      "washington": 6931,
      "ralph": 6932,
      "pushes": 6933,
      "gap": 6934,
      "ients": 6935,
      "vigor": 6936,
      "hyster": 6937,
      "gifts": 6938,
      "electricity": 6939,
      "hauled": 6940,
      "combination": 6941,
      "fiance": 6942,
      "coughed": 6943,
      "argued": 6944,
      "areas": 6945,
      "domen": 6946,
      "mouths": 6947,
      "sympathy": 6948,
      "smug": 6949,
      "jasmine": 6950,
      "monk": 6951,
      "transport": 6952,
      "oke": 6953,
      "edged": 6954,
      "jungle": 6955,
      "wary": 6956,
      "alan": 6957,
      "devast": 6958,
      "lance": 6959,
      "hovering": 6960,
      "sanct": 6961,
      "wallet": 6962,
      "stealing": 6963,
      "coinc": 6964,
      "isol": 6965,
      "automatically": 6966,
      "powder": 6967,
      "pacing": 6968,
      "saddle": 6969,
      "reminding": 6970,
      "nesses": 6971,
      "unique": 6972,
      "recovered": 6973,
      "pra": 6974,
      "curling": 6975,
      "izzy": 6976,
      "zone": 6977,
      "misty": 6978,
      "crimson": 6979,
      "uneasy": 6980,
      "accompan": 6981,
      "burden": 6982,
      "scoff": 6983,
      "smash": 6984,
      "crawling": 6985,
      "pent": 6986,
      "jab": 6987,
      "firing": 6988,
      "texas": 6989,
      "guarded": 6990,
      "grins": 6991,
      "graham": 6992,
      "russian": 6993,
      "tos": 6994,
      "technology": 6995,
      "seized": 6996,
      "skirts": 6997,
      "explore": 6998,
      "dol": 6999,
      "baseball": 7000,
      "ques": 7001,
      "frances": 7002,
      "earned": 7003,
      "portion": 7004,
      "appointment": 7005,
      "bearing": 7006,
      "basic": 7007,
      "disappearing": 7008,
      "fluttered": 7009,
      "patri": 7010,
      "standard": 7011,
      "significant": 7012,
      "comed": 7013,
      "glist": 7014,
      "ashley": 7015,
      "oft": 7016,
      "desperation": 7017,
      "poo": 7018,
      "wreck": 7019,
      "treasure": 7020,
      "uttering": 7021,
      "clapped": 7022,
      "sweeping": 7023,
      "seal": 7024,
      "sighs": 7025,
      "political": 7026,
      "zzed": 7027,
      "painter": 7028,
      "locking": 7029,
      "wheels": 7030,
      "av": 7031,
      "absence": 7032,
      "aven": 7033,
      "jection": 7034,
      "telephone": 7035,
      "consequences": 7036,
      "ulty": 7037,
      "shred": 7038,
      "saint": 7039,
      "mused": 7040,
      "urged": 7041,
      "pla": 7042,
      "nightmares": 7043,
      "thrilled": 7044,
      "cottage": 7045,
      "wag": 7046,
      "preston": 7047,
      "survival": 7048,
      "fulf": 7049,
      "channel": 7050,
      "quin": 7051,
      "16": 7052,
      "pout": 7053,
      "shay": 7054,
      "identity": 7055,
      "greeting": 7056,
      "hugh": 7057,
      "ritual": 7058,
      "noises": 7059,
      "leah": 7060,
      "stic": 7061,
      "coward": 7062,
      "brady": 7063,
      "surrender": 7064,
      "guessing": 7065,
      "wandering": 7066,
      "august": 7067,
      "nette": 7068,
      "inkling": 7069,
      "torso": 7070,
      "tempted": 7071,
      "hears": 7072,
      "megan": 7073,
      "framed": 7074,
      "isabelle": 7075,
      "piercing": 7076,
      "gained": 7077,
      "judgment": 7078,
      "intrigu": 7079,
      "dresses": 7080,
      "equal": 7081,
      "elabor": 7082,
      "mbl": 7083,
      "reassuring": 7084,
      "naomi": 7085,
      "curiously": 7086,
      "neighbors": 7087,
      "boston": 7088,
      "wrest": 7089,
      "leaf": 7090,
      "fet": 7091,
      "influence": 7092,
      "imagin": 7093,
      "penny": 7094,
      "hatch": 7095,
      "iden": 7096,
      "drifting": 7097,
      "sprang": 7098,
      "developed": 7099,
      "acknowledge": 7100,
      "conver": 7101,
      "wealth": 7102,
      "violently": 7103,
      "piss": 7104,
      "troops": 7105,
      "announce": 7106,
      "robin": 7107,
      "atmosphere": 7108,
      "trailer": 7109,
      "regarded": 7110,
      "era": 7111,
      "lers": 7112,
      "bou": 7113,
      "apology": 7114,
      "shuff": 7115,
      "parker": 7116,
      "adin": 7117,
      "jase": 7118,
      "lingered": 7119,
      "longing": 7120,
      "goose": 7121,
      "distract": 7122,
      "dece": 7123,
      "gile": 7124,
      "rumors": 7125,
      "fbi": 7126,
      "francis": 7127,
      "orient": 7128,
      "becomes": 7129,
      "peeked": 7130,
      "touches": 7131,
      "torch": 7132,
      "champagne": 7133,
      "humanity": 7134,
      "german": 7135,
      "cities": 7136,
      "elliot": 7137,
      "balan": 7138,
      "muscular": 7139,
      "chip": 7140,
      "sket": 7141,
      "helps": 7142,
      "ox": 7143,
      "tapping": 7144,
      "arthur": 7145,
      "slim": 7146,
      "earl": 7147,
      "receive": 7148,
      "whistle": 7149,
      "instincts": 7150,
      "treating": 7151,
      "sped": 7152,
      "bucket": 7153,
      "joey": 7154,
      "spoon": 7155,
      "skinny": 7156,
      "casting": 7157,
      "kitten": 7158,
      "theo": 7159,
      "speaks": 7160,
      "completed": 7161,
      "erupted": 7162,
      "rusty": 7163,
      "otic": 7164,
      "winning": 7165,
      "nudged": 7166,
      "shaw": 7167,
      "thumbs": 7168,
      "wider": 7169,
      "vile": 7170,
      "sliced": 7171,
      "disease": 7172,
      "bug": 7173,
      "tucker": 7174,
      "barrier": 7175,
      "gia": 7176,
      "terribly": 7177,
      "fragile": 7178,
      "zombie": 7179,
      "fifth": 7180,
      "songs": 7181,
      "vom": 7182,
      "ripping": 7183,
      "tumbled": 7184,
      "marco": 7185,
      "whip": 7186,
      "hovered": 7187,
      "unks": 7188,
      "hugging": 7189,
      "resour": 7190,
      "tax": 7191,
      "nonsense": 7192,
      "carson": 7193,
      "blouse": 7194,
      "forearm": 7195,
      "laurence": 7196,
      "lac": 7197,
      "gravel": 7198,
      "beings": 7199,
      "invite": 7200,
      "shrugs": 7201,
      "panel": 7202,
      "dizzy": 7203,
      "revel": 7204,
      "forgiven": 7205,
      "teddy": 7206,
      "destination": 7207,
      "ddle": 7208,
      "itive": 7209,
      "congratul": 7210,
      "antoni": 7211,
      "steven": 7212,
      "backing": 7213,
      "mount": 7214,
      "ribb": 7215,
      "knights": 7216,
      "stored": 7217,
      "curb": 7218,
      "disturbed": 7219,
      "suitcase": 7220,
      "advanced": 7221,
      "thanked": 7222,
      "angie": 7223,
      "bbed": 7224,
      "gleaming": 7225,
      "resent": 7226,
      "conversations": 7227,
      "sali": 7228,
      "hardened": 7229,
      "whos": 7230,
      "worries": 7231,
      "magnific": 7232,
      "rational": 7233,
      "notebook": 7234,
      "adop": 7235,
      "downtown": 7236,
      "lifts": 7237,
      "pillows": 7238,
      "inclined": 7239,
      "theyll": 7240,
      "bending": 7241,
      "chewed": 7242,
      "declan": 7243,
      "navy": 7244,
      "semi": 7245,
      "xture": 7246,
      "jealousy": 7247,
      "savage": 7248,
      "lene": 7249,
      "empire": 7250,
      "knives": 7251,
      "roses": 7252,
      "exhi": 7253,
      "possession": 7254,
      "gious": 7255,
      "freezing": 7256,
      "pry": 7257,
      "slice": 7258,
      "treatment": 7259,
      "withdrew": 7260,
      "june": 7261,
      "sandy": 7262,
      "casey": 7263,
      "itated": 7264,
      "testing": 7265,
      "troll": 7266,
      "bills": 7267,
      "admin": 7268,
      "launched": 7269,
      "anthony": 7270,
      "permanent": 7271,
      "philli": 7272,
      "glory": 7273,
      "circling": 7274,
      "cats": 7275,
      "thoughtful": 7276,
      "messed": 7277,
      "frightening": 7278,
      "capture": 7279,
      "crisp": 7280,
      "recover": 7281,
      "dding": 7282,
      "ticket": 7283,
      "alys": 7284,
      "pole": 7285,
      "ifully": 7286,
      "deserted": 7287,
      "griffin": 7288,
      "ambul": 7289,
      "joshu": 7290,
      "foun": 7291,
      "layer": 7292,
      "finishing": 7293,
      "atives": 7294,
      "imagining": 7295,
      "condo": 7296,
      "destiny": 7297,
      "chad": 7298,
      "rubber": 7299,
      "vegas": 7300,
      "duck": 7301,
      "valentine": 7302,
      "generally": 7303,
      "rak": 7304,
      "perfor": 7305,
      "dwell": 7306,
      "cells": 7307,
      "drama": 7308,
      "concentrated": 7309,
      "osing": 7310,
      "yaw": 7311,
      "retreat": 7312,
      "pota": 7313,
      "goti": 7314,
      "rung": 7315,
      "license": 7316,
      "county": 7317,
      "fulfill": 7318,
      "coin": 7319,
      "symbol": 7320,
      "bould": 7321,
      "weary": 7322,
      "hael": 7323,
      "workers": 7324,
      "smoothed": 7325,
      "madness": 7326,
      "grunt": 7327,
      "iced": 7328,
      "rating": 7329,
      "legend": 7330,
      "corrected": 7331,
      "solemn": 7332,
      "ruby": 7333,
      "emper": 7334,
      "purchase": 7335,
      "rigid": 7336,
      "explode": 7337,
      "newly": 7338,
      "schol": 7339,
      "topic": 7340,
      "pavement": 7341,
      "criminal": 7342,
      "pinched": 7343,
      "perry": 7344,
      "gic": 7345,
      "warehouse": 7346,
      "soup": 7347,
      "lazy": 7348,
      "judging": 7349,
      "refusing": 7350,
      "assho": 7351,
      "reminder": 7352,
      "pleading": 7353,
      "email": 7354,
      "terrifying": 7355,
      "bouncing": 7356,
      "teria": 7357,
      "madame": 7358,
      "accompanied": 7359,
      "medicine": 7360,
      "scanning": 7361,
      "publ": 7362,
      "deaf": 7363,
      "tests": 7364,
      "superior": 7365,
      "smoothly": 7366,
      "dimit": 7367,
      "fantastic": 7368,
      "smacked": 7369,
      "organiz": 7370,
      "explaining": 7371,
      "cran": 7372,
      "clients": 7373,
      "failure": 7374,
      "affect": 7375,
      "italian": 7376,
      "boats": 7377,
      "volume": 7378,
      "heck": 7379,
      "sch": 7380,
      "trous": 7381,
      "afri": 7382,
      "misery": 7383,
      "effects": 7384,
      "veron": 7385,
      "zombies": 7386,
      "insur": 7387,
      "regarding": 7388,
      "creepy": 7389,
      "twir": 7390,
      "troubled": 7391,
      "boom": 7392,
      "daughters": 7393,
      "sleeves": 7394,
      "elijah": 7395,
      "nas": 7396,
      "vicious": 7397,
      "packing": 7398,
      "swirled": 7399,
      "decades": 7400,
      "socks": 7401,
      "selling": 7402,
      "archer": 7403,
      "landscape": 7404,
      "impatient": 7405,
      "negoti": 7406,
      "celer": 7407,
      "valuable": 7408,
      "posure": 7409,
      "facility": 7410,
      "strict": 7411,
      "foul": 7412,
      "toms": 7413,
      "tiff": 7414,
      "clamped": 7415,
      "mers": 7416,
      "dwarf": 7417,
      "minded": 7418,
      "becky": 7419,
      "chess": 7420,
      "essenti": 7421,
      "gossip": 7422,
      "illa": 7423,
      "cans": 7424,
      "gradually": 7425,
      "scur": 7426,
      "uced": 7427,
      "phil": 7428,
      "insides": 7429,
      "services": 7430,
      "crooked": 7431,
      "chine": 7432,
      "suggestion": 7433,
      "convic": 7434,
      "hest": 7435,
      "attor": 7436,
      "average": 7437,
      "dus": 7438,
      "ponytail": 7439,
      "maddie": 7440,
      "vey": 7441,
      "tingu": 7442,
      "plunged": 7443,
      "lian": 7444,
      "jap": 7445,
      "arous": 7446,
      "witnessed": 7447,
      "bucks": 7448,
      "damaged": 7449,
      "toy": 7450,
      "dates": 7451,
      "clust": 7452,
      "cuffs": 7453,
      "arrest": 7454,
      "aer": 7455,
      "samuel": 7456,
      "oon": 7457,
      "replies": 7458,
      "tortured": 7459,
      "sober": 7460,
      "fountain": 7461,
      "eyeing": 7462,
      "sau": 7463,
      "injuries": 7464,
      "kellan": 7465,
      "tease": 7466,
      "bass": 7467,
      "sighing": 7468,
      "stunning": 7469,
      "tues": 7470,
      "spilling": 7471,
      "rences": 7472,
      "trailing": 7473,
      "aura": 7474,
      "fuel": 7475,
      "illusion": 7476,
      "dded": 7477,
      "pump": 7478,
      "cers": 7479,
      "thoroughly": 7480,
      "dimitri": 7481,
      "museum": 7482,
      "arrested": 7483,
      "pleaded": 7484,
      "shotgun": 7485,
      "mam": 7486,
      "itute": 7487,
      "perched": 7488,
      "gulf": 7489,
      "handled": 7490,
      "assion": 7491,
      "mold": 7492,
      "neut": 7493,
      "mistakes": 7494,
      "chinese": 7495,
      "envir": 7496,
      "concent": 7497,
      "temporary": 7498,
      "sunglasses": 7499,
      "performan": 7500,
      "linger": 7501,
      "piled": 7502,
      "pant": 7503,
      "customers": 7504,
      "clinging": 7505,
      "introduce": 7506,
      "melody": 7507,
      "rabbit": 7508,
      "flicker": 7509,
      "vehicles": 7510,
      "fis": 7511,
      "perfe": 7512,
      "ares": 7513,
      "onment": 7514,
      "exited": 7515,
      "ield": 7516,
      "rattled": 7517,
      "weigh": 7518,
      "roth": 7519,
      "shades": 7520,
      "prime": 7521,
      "electron": 7522,
      "personality": 7523,
      "heap": 7524,
      "discussed": 7525,
      "vation": 7526,
      "tak": 7527,
      "scale": 7528,
      "praying": 7529,
      "bak": 7530,
      "disaster": 7531,
      "sasha": 7532,
      "sici": 7533,
      "joshua": 7534,
      "storage": 7535,
      "dealt": 7536,
      "dent": 7537,
      "tempt": 7538,
      "laced": 7539,
      "enelle": 7540,
      "hector": 7541,
      "shivering": 7542,
      "smu": 7543,
      "claw": 7544,
      "warming": 7545,
      "scowl": 7546,
      "angu": 7547,
      "constru": 7548,
      "tested": 7549,
      "beep": 7550,
      "waiter": 7551,
      "assignment": 7552,
      "bee": 7553,
      "nell": 7554,
      "werewolves": 7555,
      "murdere": 7556,
      "novel": 7557,
      "kinda": 7558,
      "tilt": 7559,
      "deer": 7560,
      "init": 7561,
      "nineteen": 7562,
      "whiskey": 7563,
      "element": 7564,
      "rhys": 7565,
      "cakes": 7566,
      "mical": 7567,
      "creek": 7568,
      "foyer": 7569,
      "teaching": 7570,
      "haze": 7571,
      "aris": 7572,
      "beasts": 7573,
      "pru": 7574,
      "intelligent": 7575,
      "forb": 7576,
      "register": 7577,
      "suicide": 7578,
      "perform": 7579,
      "positioned": 7580,
      "blunt": 7581,
      "deciding": 7582,
      "independ": 7583,
      "marg": 7584,
      "kneeling": 7585,
      "cs": 7586,
      "beloved": 7587,
      "jaenelle": 7588,
      "zzling": 7589,
      "sworn": 7590,
      "hastily": 7591,
      "collap": 7592,
      "alli": 7593,
      "oma": 7594,
      "jerry": 7595,
      "loyalty": 7596,
      "profile": 7597,
      "maker": 7598,
      "choking": 7599,
      "lings": 7600,
      "dimen": 7601,
      "appreciated": 7602,
      "femin": 7603,
      "numer": 7604,
      "charges": 7605,
      "sparks": 7606,
      "article": 7607,
      "disturbing": 7608,
      "officially": 7609,
      "levels": 7610,
      "chel": 7611,
      "assigned": 7612,
      "pecu": 7613,
      "heaved": 7614,
      "annoyance": 7615,
      "theater": 7616,
      "tools": 7617,
      "vamp": 7618,
      "mitted": 7619,
      "puzzle": 7620,
      "decorated": 7621,
      "winding": 7622,
      "echoing": 7623,
      "oppon": 7624,
      "squat": 7625,
      "beds": 7626,
      "drain": 7627,
      "costu": 7628,
      "deaths": 7629,
      "inher": 7630,
      "prisoners": 7631,
      "brains": 7632,
      "junior": 7633,
      "awkwardly": 7634,
      "beau": 7635,
      "emphas": 7636,
      "annon": 7637,
      "whoa": 7638,
      "awareness": 7639,
      "blows": 7640,
      "picks": 7641,
      "solo": 7642,
      "unpleasant": 7643,
      "garath": 7644,
      "cind": 7645,
      "blazing": 7646,
      "morti": 7647,
      "tible": 7648,
      "und": 7649,
      "formation": 7650,
      "brutal": 7651,
      "slides": 7652,
      "remarked": 7653,
      "education": 7654,
      "kara": 7655,
      "coal": 7656,
      "bruises": 7657,
      "encourage": 7658,
      "divorce": 7659,
      "studio": 7660,
      "temples": 7661,
      "impatiently": 7662,
      "quer": 7663,
      "generous": 7664,
      "stove": 7665,
      "nico": 7666,
      "thump": 7667,
      "melanie": 7668,
      "garbage": 7669,
      "fain": 7670,
      "shuffled": 7671,
      "apprehen": 7672,
      "infin": 7673,
      "taxi": 7674,
      "rice": 7675,
      "passes": 7676,
      "wyn": 7677,
      "dangling": 7678,
      "belgarath": 7679,
      "50": 7680,
      "spur": 7681,
      "ula": 7682,
      "harper": 7683,
      "effic": 7684,
      "knit": 7685,
      "prospect": 7686,
      "exhaustion": 7687,
      "compliment": 7688,
      "elo": 7689,
      "friger": 7690,
      "lasted": 7691,
      "rex": 7692,
      "thoughtfully": 7693,
      "initial": 7694,
      "mead": 7695,
      "refriger": 7696,
      "cence": 7697,
      "imate": 7698,
      "plas": 7699,
      "bartender": 7700,
      "presses": 7701,
      "arrogant": 7702,
      "gag": 7703,
      "arrows": 7704,
      "anni": 7705,
      "intentions": 7706,
      "peculiar": 7707,
      "strain": 7708,
      "safer": 7709,
      "crumpled": 7710,
      "promises": 7711,
      "michelle": 7712,
      "stilled": 7713,
      "aire": 7714,
      "suffic": 7715,
      "phan": 7716,
      "differently": 7717,
      "tunnels": 7718,
      "bourne": 7719,
      "unts": 7720,
      "construction": 7721,
      "provid": 7722,
      "lucivar": 7723,
      "phr": 7724,
      "obey": 7725,
      "skyla": 7726,
      "soil": 7727,
      "offended": 7728,
      "mend": 7729,
      "philo": 7730,
      "reporter": 7731,
      "coff": 7732,
      "specul": 7733,
      "humming": 7734,
      "dess": 7735,
      "charity": 7736,
      "recru": 7737,
      "connect": 7738,
      "patiently": 7739,
      "sday": 7740,
      "lowering": 7741,
      "curves": 7742,
      "strings": 7743,
      "conclusion": 7744,
      "emperor": 7745,
      "razor": 7746,
      "concentration": 7747,
      "mole": 7748,
      "wrath": 7749,
      "micah": 7750,
      "pills": 7751,
      "lessons": 7752,
      "vlad": 7753,
      "partners": 7754,
      "sparkling": 7755,
      "cares": 7756,
      "lizzie": 7757,
      "wayne": 7758,
      "aneously": 7759,
      "accused": 7760,
      "enthusiasm": 7761,
      "stung": 7762,
      "thud": 7763,
      "inward": 7764,
      "pauses": 7765,
      "stella": 7766,
      "thrill": 7767,
      "sweaty": 7768,
      "eness": 7769,
      "ural": 7770,
      "loop": 7771,
      "mouthed": 7772,
      "bites": 7773,
      "description": 7774,
      "crushing": 7775,
      "tracking": 7776,
      "commo": 7777,
      "pearl": 7778,
      "allison": 7779,
      "folds": 7780,
      "slope": 7781,
      "aler": 7782,
      "cassidy": 7783,
      "levi": 7784,
      "releasing": 7785,
      "strap": 7786,
      "fiery": 7787,
      "wilder": 7788,
      "online": 7789,
      "strolled": 7790,
      "visitors": 7791,
      "gery": 7792,
      "phoen": 7793,
      "scal": 7794,
      "xavier": 7795,
      "indul": 7796,
      "pus": 7797,
      "twitch": 7798,
      "acceler": 7799,
      "jin": 7800,
      "dramatic": 7801,
      "population": 7802,
      "faintly": 7803,
      "luther": 7804,
      "perfu": 7805,
      "thankful": 7806,
      "discussing": 7807,
      "fashioned": 7808,
      "watches": 7809,
      "itches": 7810,
      "focusing": 7811,
      "jewelry": 7812,
      "injury": 7813,
      "shrieked": 7814,
      "iser": 7815,
      "wisdom": 7816,
      "calvin": 7817,
      "yel": 7818,
      "awhile": 7819,
      "oxy": 7820,
      "wool": 7821,
      "cherry": 7822,
      "centre": 7823,
      "thorn": 7824,
      "tones": 7825,
      "jules": 7826,
      "logic": 7827,
      "geon": 7828,
      "lantern": 7829,
      "compassion": 7830,
      "bubb": 7831,
      "lav": 7832,
      "inviting": 7833,
      "roots": 7834,
      "ambulance": 7835,
      "engers": 7836,
      "omin": 7837,
      "wax": 7838,
      "inevitable": 7839,
      "messy": 7840,
      "reacted": 7841,
      "freeze": 7842,
      "fiercely": 7843,
      "multiple": 7844,
      "chips": 7845,
      "izens": 7846,
      "tightening": 7847,
      "artist": 7848,
      "advert": 7849,
      "cookies": 7850,
      "timately": 7851,
      "resistance": 7852,
      "chand": 7853,
      "bolted": 7854,
      "sucks": 7855,
      "savor": 7856,
      "shorter": 7857,
      "chal": 7858,
      "menu": 7859,
      "slung": 7860,
      "escor": 7861,
      "retreated": 7862,
      "supper": 7863,
      "convincing": 7864,
      "cassandra": 7865,
      "oker": 7866,
      "presented": 7867,
      "irritation": 7868,
      "dashed": 7869,
      "cancer": 7870,
      "huddled": 7871,
      "hunched": 7872,
      "altogether": 7873,
      "strapped": 7874,
      "ulti": 7875,
      "overcome": 7876,
      "cracking": 7877,
      "scu": 7878,
      "exercise": 7879,
      "dazed": 7880,
      "quisite": 7881,
      "oring": 7882,
      "malcol": 7883,
      "skipped": 7884,
      "streaming": 7885,
      "zeke": 7886,
      "paperwork": 7887,
      "embarrassing": 7888,
      "sobbing": 7889,
      "scul": 7890,
      "phoenix": 7891,
      "shea": 7892,
      "attempts": 7893,
      "jade": 7894,
      "kan": 7895,
      "complained": 7896,
      "pierced": 7897,
      "aboard": 7898,
      "communication": 7899,
      "seventy": 7900,
      "skye": 7901,
      "rober": 7902,
      "northern": 7903,
      "fiction": 7904,
      "ole": 7905,
      "claiming": 7906,
      "liness": 7907,
      "madison": 7908,
      "lame": 7909,
      "rial": 7910,
      "surged": 7911,
      "barbar": 7912,
      "mono": 7913,
      "commented": 7914,
      "analy": 7915,
      "sympa": 7916,
      "delighted": 7917,
      "discre": 7918,
      "vivid": 7919,
      "registered": 7920,
      "expan": 7921,
      "dismissed": 7922,
      "limits": 7923,
      "fantas": 7924,
      "dryly": 7925,
      "fest": 7926,
      "altar": 7927,
      "prompt": 7928,
      "restless": 7929,
      "eagerly": 7930,
      "confli": 7931,
      "ored": 7932,
      "urgent": 7933,
      "furrowed": 7934,
      "concept": 7935,
      "rapid": 7936,
      "bargain": 7937,
      "rogue": 7938,
      "ups": 7939,
      "quet": 7940,
      "amid": 7941,
      "technically": 7942,
      "oblivious": 7943,
      "disco": 7944,
      "shaken": 7945,
      "slaves": 7946,
      "sweating": 7947,
      "speaker": 7948,
      "experiment": 7949,
      "antonio": 7950,
      "removing": 7951,
      "forgetting": 7952,
      "flickering": 7953,
      "rug": 7954,
      "bruised": 7955,
      "apollo": 7956,
      "cession": 7957,
      "malcolm": 7958,
      "jagged": 7959,
      "disgusted": 7960,
      "gravity": 7961,
      "gies": 7962,
      "ceded": 7963,
      "china": 7964,
      "kyrian": 7965,
      "spanish": 7966,
      "unaware": 7967,
      "rim": 7968,
      "urance": 7969,
      "partially": 7970,
      "willingly": 7971,
      "attraction": 7972,
      "parano": 7973,
      "senator": 7974,
      "ria": 7975,
      "macy": 7976,
      "patrol": 7977,
      "navi": 7978,
      "coincidence": 7979,
      "kas": 7980,
      "cursing": 7981,
      "expl": 7982,
      "angles": 7983,
      "exagger": 7984,
      "surreal": 7985,
      "mixture": 7986,
      "bray": 7987,
      "awoke": 7988,
      "darius": 7989,
      "lissa": 7990,
      "performance": 7991,
      "deput": 7992,
      "rory": 7993,
      "elean": 7994,
      "trousers": 7995,
      "absently": 7996,
      "rag": 7997,
      "cargo": 7998,
      "unbelie": 7999,
      "backseat": 8000,
      "clad": 8001,
      "canvas": 8002,
      "resolve": 8003,
      "mocking": 8004,
      "scot": 8005,
      "notion": 8006,
      "catherine": 8007,
      "flipping": 8008,
      "mira": 8009,
      "ighed": 8010,
      "bishop": 8011,
      "amaze": 8012,
      "sier": 8013,
      "manu": 8014,
      "machines": 8015,
      "blackness": 8016,
      "bil": 8017,
      "sanctuary": 8018,
      "fee": 8019,
      "tem": 8020,
      "regain": 8021,
      "minim": 8022,
      "myth": 8023,
      "quie": 8024,
      "christop": 8025,
      "nadia": 8026,
      "sunset": 8027,
      "snort": 8028,
      "brooke": 8029,
      "ires": 8030,
      "internal": 8031,
      "xim": 8032,
      "oy": 8033,
      "lilly": 8034,
      "catches": 8035,
      "financial": 8036,
      "indian": 8037,
      "chall": 8038,
      "carlos": 8039,
      "wander": 8040,
      "tad": 8041,
      "meanwhile": 8042,
      "sly": 8043,
      "berg": 8044,
      "rats": 8045,
      "closes": 8046,
      "esy": 8047,
      "sensing": 8048,
      "backyard": 8049,
      "leigh": 8050,
      "lounge": 8051,
      "dign": 8052,
      "emerald": 8053,
      "helpful": 8054,
      "gruff": 8055,
      "genuinely": 8056,
      "combined": 8057,
      "lina": 8058,
      "advance": 8059,
      "progra": 8060,
      "capital": 8061,
      "zipped": 8062,
      "dorian": 8063,
      "tia": 8064,
      "acid": 8065,
      "governor": 8066,
      "lining": 8067,
      "felix": 8068,
      "reluctant": 8069,
      "attacks": 8070,
      "meters": 8071,
      "pictured": 8072,
      "winds": 8073,
      "webs": 8074,
      "bonnie": 8075,
      "swallowing": 8076,
      "swayed": 8077,
      "drivers": 8078,
      "doubts": 8079,
      "brisk": 8080,
      "france": 8081,
      "tary": 8082,
      "elaborate": 8083,
      "downward": 8084,
      "starving": 8085,
      "score": 8086,
      "companions": 8087,
      "drunken": 8088,
      "sleepy": 8089,
      "positions": 8090,
      "senti": 8091,
      "commer": 8092,
      "bethany": 8093,
      "cons": 8094,
      "review": 8095,
      "controll": 8096,
      "posal": 8097,
      "hiss": 8098,
      "kur": 8099,
      "wee": 8100,
      "feast": 8101,
      "ceme": 8102,
      "gloss": 8103,
      "spells": 8104,
      "pris": 8105,
      "napkin": 8106,
      "henri": 8107,
      "tool": 8108,
      "admire": 8109,
      "bumps": 8110,
      "serena": 8111,
      "cemetery": 8112,
      "greek": 8113,
      "mistaken": 8114,
      "illegal": 8115,
      "laundry": 8116,
      "heir": 8117,
      "lemon": 8118,
      "dalton": 8119,
      "autum": 8120,
      "merry": 8121,
      "magnificent": 8122,
      "tires": 8123,
      "pond": 8124,
      "flashes": 8125,
      "comments": 8126,
      "pausing": 8127,
      "practical": 8128,
      "caressed": 8129,
      "citizens": 8130,
      "whimper": 8131,
      "oldest": 8132,
      "secured": 8133,
      "tremble": 8134,
      "goo": 8135,
      "disci": 8136,
      "pencil": 8137,
      "kaladin": 8138,
      "bumped": 8139,
      "dial": 8140,
      "eleanor": 8141,
      "tina": 8142,
      "ropes": 8143,
      "ani": 8144,
      "reserved": 8145,
      "yers": 8146,
      "mommy": 8147,
      "accepting": 8148,
      "dain": 8149,
      "sprawled": 8150,
      "essa": 8151,
      "axe": 8152,
      "prize": 8153,
      "filthy": 8154,
      "arte": 8155,
      "glen": 8156,
      "tended": 8157,
      "cano": 8158,
      "flex": 8159,
      "recomm": 8160,
      "goin": 8161,
      "vivian": 8162,
      "athle": 8163,
      "fighter": 8164,
      "arriving": 8165,
      "morris": 8166,
      "refrigerator": 8167,
      "ego": 8168,
      "longed": 8169,
      "unlikely": 8170,
      "blasted": 8171,
      "gren": 8172,
      "clerk": 8173,
      "pregnancy": 8174,
      "acheron": 8175,
      "sacred": 8176,
      "lovers": 8177,
      "stance": 8178,
      "inse": 8179,
      "ators": 8180,
      "hazel": 8181,
      "stew": 8182,
      "claude": 8183,
      "drey": 8184,
      "luis": 8185,
      "teenager": 8186,
      "bizar": 8187,
      "attacking": 8188,
      "acity": 8189,
      "liking": 8190,
      "immen": 8191
    },
    "merges": [
      [
        "h",
        "e"
      ],
      [
        "i",
        "n"
      ],
      [
        "t",
        "he"
      ],
      [
        "a",
        "n"
      ],
      [
        "r",
        "e"
      ],
      [
        "o",
        "u"
      ],
      [
        "e",
        "d"
      ],
      [
        "t",
        "h"
      ],
      [
        "t",
        "o"
      ],
      [
        "in",
        "g"
      ],
      [
        "a",
        "t"
      ],
      [
        "o",
        "n"
      ],
      [
        "e",
        "r"
      ],
      [
        "a",
        "s"
      ],
      [
        "an",
        "d"
      ],
      [
        "i",
        "s"
      ],
      [
        "e",
        "n"
      ],
      [
        "a",
        "r"
      ],
      [
        "l",
        "l"
      ],
      [
        "i",
        "t"
      ],
      [
        "o",
        "r"
      ],
      [
        "s",
        "t"
      ],
      [
        "m",
        "e"
      ],
      [
        "o",
        "f"
      ],
      [
        "l",
        "e"
      ],
      [
        "`",
        "`"
      ],
      [
        "'",
        "'"
      ],
      [
        "b",
        "e"
      ],
      [
        "h",
        "a"
      ],
      [
        "y",
        "ou"
      ],
      [
        "o",
        "w"
      ],
      [
        "s",
        "e"
      ],
      [
        "i",
        "d"
      ],
      [
        "a",
        "c"
      ],
      [
        "w",
        "as"
      ],
      [
        "he",
        "r"
      ],
      [
        "v",
        "e"
      ],
      [
        "l",
        "d"
      ],
      [
        "r",
        "o"
      ],
      [
        "s",
        "he"
      ],
      [
        "g",
        "h"
      ],
      [
        "l",
        "i"
      ],
      [
        "e",
        "s"
      ],
      [
        "h",
        "is"
      ],
      [
        "w",
        "e"
      ],
      [
        "a",
        "l"
      ],
      [
        "th",
        "at"
      ],
      [
        "l",
        "y"
      ],
      [
        "h",
        "i"
      ],
      [
        "a",
        "y"
      ],
      [
        "w",
        "i"
      ],
      [
        "n",
        "o"
      ],
      [
        "l",
        "o"
      ],
      [
        "a",
        "d"
      ],
      [
        "u",
        "t"
      ],
      [
        "m",
        "y"
      ],
      [
        "a",
        "ll"
      ],
      [
        "v",
        "er"
      ],
      [
        "s",
        "o"
      ],
      [
        "k",
        "e"
      ],
      [
        "f",
        "or"
      ],
      [
        "t",
        "i"
      ],
      [
        "r",
        "i"
      ],
      [
        "gh",
        "t"
      ],
      [
        "ou",
        "t"
      ],
      [
        "w",
        "h"
      ],
      [
        "ou",
        "ld"
      ],
      [
        "c",
        "h"
      ],
      [
        "n",
        "e"
      ],
      [
        "wi",
        "th"
      ],
      [
        "d",
        "o"
      ],
      [
        "i",
        "r"
      ],
      [
        "u",
        "n"
      ],
      [
        "m",
        "o"
      ],
      [
        "ha",
        "d"
      ],
      [
        "c",
        "e"
      ],
      [
        "c",
        "o"
      ],
      [
        "s",
        "a"
      ],
      [
        "g",
        "o"
      ],
      [
        "g",
        "e"
      ],
      [
        "f",
        "e"
      ],
      [
        "en",
        "t"
      ],
      [
        "a",
        "b"
      ],
      [
        "on",
        "e"
      ],
      [
        "b",
        "ut"
      ],
      [
        "u",
        "r"
      ],
      [
        "hi",
        "m"
      ],
      [
        "s",
        "h"
      ],
      [
        "o",
        "k"
      ],
      [
        "u",
        "p"
      ],
      [
        "re",
        "d"
      ],
      [
        "c",
        "k"
      ],
      [
        "the",
        "r"
      ],
      [
        "d",
        "e"
      ],
      [
        "c",
        "a"
      ],
      [
        "t",
        "er"
      ],
      [
        "ac",
        "k"
      ],
      [
        "n",
        "ow"
      ],
      [
        "r",
        "a"
      ],
      [
        "t",
        "e"
      ],
      [
        "th",
        "ing"
      ],
      [
        "p",
        "e"
      ],
      [
        "ou",
        "n"
      ],
      [
        "s",
        "i"
      ],
      [
        "an",
        "t"
      ],
      [
        "wh",
        "at"
      ],
      [
        "no",
        "t"
      ],
      [
        "i",
        "f"
      ],
      [
        "w",
        "he"
      ],
      [
        "a",
        "m"
      ],
      [
        "a",
        "in"
      ],
      [
        "u",
        "s"
      ],
      [
        "o",
        "d"
      ],
      [
        "a",
        "g"
      ],
      [
        "p",
        "p"
      ],
      [
        "ro",
        "m"
      ],
      [
        "u",
        "st"
      ],
      [
        "ha",
        "ve"
      ],
      [
        "sa",
        "id"
      ],
      [
        "w",
        "ay"
      ],
      [
        "the",
        "y"
      ],
      [
        "ar",
        "d"
      ],
      [
        "th",
        "is"
      ],
      [
        "f",
        "rom"
      ],
      [
        "d",
        "id"
      ],
      [
        "oun",
        "d"
      ],
      [
        "a",
        "re"
      ],
      [
        "c",
        "on"
      ],
      [
        "so",
        "me"
      ],
      [
        "i",
        "on"
      ],
      [
        "in",
        "d"
      ],
      [
        "ow",
        "n"
      ],
      [
        "f",
        "o"
      ],
      [
        "c",
        "ould"
      ],
      [
        "b",
        "ack"
      ],
      [
        "s",
        "u"
      ],
      [
        "we",
        "re"
      ],
      [
        "w",
        "ould"
      ],
      [
        "p",
        "o"
      ],
      [
        "lo",
        "ok"
      ],
      [
        "li",
        "ke"
      ],
      [
        "t",
        "ed"
      ],
      [
        "m",
        "an"
      ],
      [
        "m",
        "p"
      ],
      [
        "i",
        "ll"
      ],
      [
        "id",
        "e"
      ],
      [
        "r",
        "y"
      ],
      [
        "h",
        "o"
      ],
      [
        "the",
        "re"
      ],
      [
        "ou",
        "gh"
      ],
      [
        "w",
        "or"
      ],
      [
        ".",
        "."
      ],
      [
        "s",
        "s"
      ],
      [
        "k",
        "now"
      ],
      [
        "m",
        "i"
      ],
      [
        "c",
        "he"
      ],
      [
        "q",
        "u"
      ],
      [
        "j",
        "ust"
      ],
      [
        "b",
        "o"
      ],
      [
        "w",
        "o"
      ],
      [
        "p",
        "l"
      ],
      [
        "e",
        "l"
      ],
      [
        "in",
        "to"
      ],
      [
        "k",
        "ing"
      ],
      [
        "e",
        "x"
      ],
      [
        "k",
        "ed"
      ],
      [
        "whe",
        "n"
      ],
      [
        "r",
        "u"
      ],
      [
        "er",
        "s"
      ],
      [
        "ab",
        "out"
      ],
      [
        "ac",
        "e"
      ],
      [
        "l",
        "a"
      ],
      [
        "an",
        "y"
      ],
      [
        "m",
        "a"
      ],
      [
        "ou",
        "r"
      ],
      [
        "e",
        "ver"
      ],
      [
        "h",
        "and"
      ],
      [
        "all",
        "y"
      ],
      [
        "the",
        "n"
      ],
      [
        "se",
        "e"
      ],
      [
        "y",
        "es"
      ],
      [
        "i",
        "c"
      ],
      [
        "t",
        "a"
      ],
      [
        "g",
        "r"
      ],
      [
        "ge",
        "t"
      ],
      [
        "the",
        "m"
      ],
      [
        "w",
        "ant"
      ],
      [
        "you",
        "r"
      ],
      [
        "o",
        "ver"
      ],
      [
        "ti",
        "me"
      ],
      [
        "l",
        "ed"
      ],
      [
        "e",
        "t"
      ],
      [
        "en",
        "d"
      ],
      [
        "s",
        "to"
      ],
      [
        "at",
        "e"
      ],
      [
        "l",
        "f"
      ],
      [
        "as",
        "t"
      ],
      [
        "v",
        "en"
      ],
      [
        "on",
        "g"
      ],
      [
        "be",
        "en"
      ],
      [
        "e",
        "p"
      ],
      [
        "d",
        "own"
      ],
      [
        "o",
        "p"
      ],
      [
        "b",
        "y"
      ],
      [
        "o",
        "ther"
      ],
      [
        "n",
        "i"
      ],
      [
        "u",
        "l"
      ],
      [
        "ar",
        "t"
      ],
      [
        "s",
        "p"
      ],
      [
        "he",
        "ad"
      ],
      [
        "f",
        "i"
      ],
      [
        "wh",
        "o"
      ],
      [
        "ag",
        "ain"
      ],
      [
        "h",
        "ow"
      ],
      [
        "m",
        "ent"
      ],
      [
        "ur",
        "n"
      ],
      [
        "g",
        "u"
      ],
      [
        "t",
        "ing"
      ],
      [
        "ou",
        "s"
      ],
      [
        "mo",
        "re"
      ],
      [
        "at",
        "ion"
      ],
      [
        "in",
        "k"
      ],
      [
        "fo",
        "re"
      ],
      [
        "c",
        "an"
      ],
      [
        "s",
        "ide"
      ],
      [
        "b",
        "l"
      ],
      [
        "n",
        "t"
      ],
      [
        "e",
        "yes"
      ],
      [
        "in",
        "e"
      ],
      [
        "th",
        "an"
      ],
      [
        "ti",
        "on"
      ],
      [
        "ri",
        "ght"
      ],
      [
        "u",
        "ll"
      ],
      [
        "p",
        "re"
      ],
      [
        "of",
        "f"
      ],
      [
        "is",
        "t"
      ],
      [
        "y",
        "e"
      ],
      [
        "m",
        "b"
      ],
      [
        "a",
        "f"
      ],
      [
        "t",
        "urn"
      ],
      [
        "se",
        "lf"
      ],
      [
        "d",
        "er"
      ],
      [
        "ou",
        "ght"
      ],
      [
        "ne",
        "w"
      ],
      [
        "pp",
        "ed"
      ],
      [
        "u",
        "se"
      ],
      [
        "p",
        "ro"
      ],
      [
        "th",
        "r"
      ],
      [
        "i",
        "m"
      ],
      [
        "es",
        "s"
      ],
      [
        "p",
        "er"
      ],
      [
        "o",
        "m"
      ],
      [
        "he",
        "d"
      ],
      [
        "e",
        "ven"
      ],
      [
        "i",
        "l"
      ],
      [
        "the",
        "ir"
      ],
      [
        "w",
        "hi"
      ],
      [
        "re",
        "a"
      ],
      [
        "v",
        "ed"
      ],
      [
        "n",
        "a"
      ],
      [
        "b",
        "r"
      ],
      [
        "ar",
        "m"
      ],
      [
        "he",
        "re"
      ],
      [
        "be",
        "fore"
      ],
      [
        "s",
        "c"
      ],
      [
        "m",
        "u"
      ],
      [
        "ever",
        "y"
      ],
      [
        "ar",
        "ound"
      ],
      [
        "wi",
        "ll"
      ],
      [
        "s",
        "ay"
      ],
      [
        "go",
        "ing"
      ],
      [
        "..",
        "."
      ],
      [
        "le",
        "t"
      ],
      [
        "c",
        "lo"
      ],
      [
        "v",
        "i"
      ],
      [
        "v",
        "ing"
      ],
      [
        "ab",
        "le"
      ],
      [
        "d",
        "i"
      ],
      [
        "an",
        "g"
      ],
      [
        "c",
        "t"
      ],
      [
        "d",
        "ay"
      ],
      [
        "t",
        "le"
      ],
      [
        "g",
        "a"
      ],
      [
        "p",
        "s"
      ],
      [
        "th",
        "ink"
      ],
      [
        "on",
        "ly"
      ],
      [
        "ad",
        "e"
      ],
      [
        "whe",
        "re"
      ],
      [
        "thr",
        "ough"
      ],
      [
        "g",
        "i"
      ],
      [
        "ne",
        "ed"
      ],
      [
        "l",
        "it"
      ],
      [
        "to",
        "o"
      ],
      [
        "w",
        "a"
      ],
      [
        "look",
        "ed"
      ],
      [
        "as",
        "s"
      ],
      [
        "co",
        "me"
      ],
      [
        "t",
        "y"
      ],
      [
        "w",
        "ard"
      ],
      [
        "v",
        "o"
      ],
      [
        "ro",
        "om"
      ],
      [
        "f",
        "ace"
      ],
      [
        "g",
        "l"
      ],
      [
        "m",
        "ed"
      ],
      [
        "th",
        "ought"
      ],
      [
        "it",
        "e"
      ],
      [
        "i",
        "ck"
      ],
      [
        "re",
        "ad"
      ],
      [
        "sh",
        "ould"
      ],
      [
        "a",
        "way"
      ],
      [
        "st",
        "ill"
      ],
      [
        "af",
        "ter"
      ],
      [
        "l",
        "ong"
      ],
      [
        "ac",
        "h"
      ],
      [
        "l",
        "t"
      ],
      [
        "co",
        "m"
      ],
      [
        "do",
        "or"
      ],
      [
        "b",
        "le"
      ],
      [
        "some",
        "thing"
      ],
      [
        "go",
        "t"
      ],
      [
        "t",
        "r"
      ],
      [
        "we",
        "ll"
      ],
      [
        "sh",
        "o"
      ],
      [
        "u",
        "re"
      ],
      [
        "ne",
        "ver"
      ],
      [
        "c",
        "l"
      ],
      [
        "p",
        "a"
      ],
      [
        "ar",
        "s"
      ],
      [
        "w",
        "at"
      ],
      [
        "ac",
        "t"
      ],
      [
        "go",
        "od"
      ],
      [
        "f",
        "a"
      ],
      [
        "t",
        "en"
      ],
      [
        "j",
        "o"
      ],
      [
        "it",
        "y"
      ],
      [
        "an",
        "s"
      ],
      [
        "re",
        "e"
      ],
      [
        "be",
        "ca"
      ],
      [
        "at",
        "ed"
      ],
      [
        "it",
        "s"
      ],
      [
        "on",
        "t"
      ],
      [
        "fe",
        "el"
      ],
      [
        "li",
        "ght"
      ],
      [
        "as",
        "ked"
      ],
      [
        "en",
        "ed"
      ],
      [
        "ni",
        "ght"
      ],
      [
        "f",
        "r"
      ],
      [
        "m",
        "ar"
      ],
      [
        "s",
        "ed"
      ],
      [
        "p",
        "r"
      ],
      [
        "l",
        "ow"
      ],
      [
        "t",
        "wo"
      ],
      [
        "be",
        "t"
      ],
      [
        "f",
        "ir"
      ],
      [
        "che",
        "d"
      ],
      [
        "b",
        "ed"
      ],
      [
        "t",
        "al"
      ],
      [
        "d",
        "is"
      ],
      [
        "i",
        "ce"
      ],
      [
        "te",
        "ll"
      ],
      [
        "st",
        "e"
      ],
      [
        "s",
        "mi"
      ],
      [
        "m",
        "ade"
      ],
      [
        "an",
        "ce"
      ],
      [
        "mo",
        "st"
      ],
      [
        "wh",
        "y"
      ],
      [
        "mu",
        "ch"
      ],
      [
        "g",
        "re"
      ],
      [
        "f",
        "t"
      ],
      [
        "i",
        "g"
      ],
      [
        "c",
        "ar"
      ],
      [
        "a",
        "p"
      ],
      [
        "d",
        "d"
      ],
      [
        "beca",
        "use"
      ],
      [
        "su",
        "re"
      ],
      [
        "c",
        "le"
      ],
      [
        "ta",
        "ke"
      ],
      [
        "k",
        "new"
      ],
      [
        "b",
        "rea"
      ],
      [
        "turn",
        "ed"
      ],
      [
        "n",
        "ing"
      ],
      [
        "lit",
        "tle"
      ],
      [
        "c",
        "all"
      ],
      [
        "b",
        "od"
      ],
      [
        "ri",
        "ed"
      ],
      [
        "w",
        "al"
      ],
      [
        "or",
        "t"
      ],
      [
        "ma",
        "ke"
      ],
      [
        "c",
        "ha"
      ],
      [
        "un",
        "der"
      ],
      [
        "ha",
        "pp"
      ],
      [
        "c",
        "i"
      ],
      [
        "li",
        "e"
      ],
      [
        "m",
        "or"
      ],
      [
        "c",
        "ed"
      ],
      [
        "s",
        "hi"
      ],
      [
        "f",
        "in"
      ],
      [
        "m",
        "ay"
      ],
      [
        "k",
        "s"
      ],
      [
        "b",
        "u"
      ],
      [
        "d",
        "s"
      ],
      [
        "he",
        "l"
      ],
      [
        "p",
        "le"
      ],
      [
        "as",
        "e"
      ],
      [
        "m",
        "on"
      ],
      [
        "fir",
        "st"
      ],
      [
        "to",
        "r"
      ],
      [
        "m",
        "en"
      ],
      [
        "g",
        "g"
      ],
      [
        "l",
        "u"
      ],
      [
        "t",
        "ry"
      ],
      [
        "p",
        "t"
      ],
      [
        "h",
        "u"
      ],
      [
        "bod",
        "y"
      ],
      [
        "ve",
        "s"
      ],
      [
        "fe",
        "lt"
      ],
      [
        "s",
        "pe"
      ],
      [
        "s",
        "er"
      ],
      [
        "i",
        "e"
      ],
      [
        "m",
        "in"
      ],
      [
        "want",
        "ed"
      ],
      [
        "s",
        "it"
      ],
      [
        "st",
        "and"
      ],
      [
        "to",
        "ok"
      ],
      [
        "z",
        "e"
      ],
      [
        "ar",
        "k"
      ],
      [
        "p",
        "ull"
      ],
      [
        "co",
        "mp"
      ],
      [
        "d",
        "es"
      ],
      [
        "qu",
        "e"
      ],
      [
        "s",
        "k"
      ],
      [
        "s",
        "ha"
      ],
      [
        "w",
        "ent"
      ],
      [
        "con",
        "t"
      ],
      [
        "si",
        "on"
      ],
      [
        "h",
        "as"
      ],
      [
        "hand",
        "s"
      ],
      [
        "o",
        "l"
      ],
      [
        "re",
        "ally"
      ],
      [
        "s",
        "ur"
      ],
      [
        "o",
        "se"
      ],
      [
        "ver",
        "y"
      ],
      [
        "t",
        "s"
      ],
      [
        "re",
        "st"
      ],
      [
        "m",
        "is"
      ],
      [
        "le",
        "s"
      ],
      [
        "us",
        "ed"
      ],
      [
        "a",
        "red"
      ],
      [
        "again",
        "st"
      ],
      [
        "vo",
        "ice"
      ],
      [
        "m",
        "ind"
      ],
      [
        "le",
        "a"
      ],
      [
        "p",
        "ut"
      ],
      [
        "en",
        "ce"
      ],
      [
        "re",
        "n"
      ],
      [
        "li",
        "fe"
      ],
      [
        "m",
        "at"
      ],
      [
        "is",
        "h"
      ],
      [
        "th",
        "ough"
      ],
      [
        "l",
        "ing"
      ],
      [
        "le",
        "ss"
      ],
      [
        "h",
        "ard"
      ],
      [
        "pe",
        "op"
      ],
      [
        "ca",
        "me"
      ],
      [
        "st",
        "ar"
      ],
      [
        "whi",
        "le"
      ],
      [
        "whi",
        "ch"
      ],
      [
        "read",
        "y"
      ],
      [
        "le",
        "ft"
      ],
      [
        "d",
        "re"
      ],
      [
        "to",
        "ld"
      ],
      [
        "peop",
        "le"
      ],
      [
        "n",
        "ed"
      ],
      [
        "an",
        "other"
      ],
      [
        "n",
        "er"
      ],
      [
        "b",
        "ro"
      ],
      [
        "is",
        "e"
      ],
      [
        "s",
        "m"
      ],
      [
        "a",
        "h"
      ],
      [
        "p",
        "h"
      ],
      [
        "l",
        "ast"
      ],
      [
        "c",
        "or"
      ],
      [
        "wa",
        "it"
      ],
      [
        "a",
        "th"
      ],
      [
        "c",
        "r"
      ],
      [
        "ck",
        "ed"
      ],
      [
        "ro",
        "ss"
      ],
      [
        "fe",
        "w"
      ],
      [
        "f",
        "ind"
      ],
      [
        "c",
        "re"
      ],
      [
        "a",
        "ir"
      ],
      [
        "hel",
        "p"
      ],
      [
        "f",
        "ul"
      ],
      [
        "ou",
        "se"
      ],
      [
        "b",
        "lo"
      ],
      [
        "in",
        "t"
      ],
      [
        "any",
        "thing"
      ],
      [
        "c",
        "hi"
      ],
      [
        "way",
        "s"
      ],
      [
        "ke",
        "ep"
      ],
      [
        "mo",
        "ment"
      ],
      [
        "be",
        "ing"
      ],
      [
        "h",
        "ind"
      ],
      [
        "ch",
        "o"
      ],
      [
        "ti",
        "c"
      ],
      [
        "ti",
        "l"
      ],
      [
        "t",
        "ra"
      ],
      [
        "f",
        "ri"
      ],
      [
        "no",
        "thing"
      ],
      [
        "ow",
        "ed"
      ],
      [
        "se",
        "t"
      ],
      [
        "st",
        "r"
      ],
      [
        "be",
        "hind"
      ],
      [
        "st",
        "u"
      ],
      [
        "to",
        "n"
      ],
      [
        "en",
        "ough"
      ],
      [
        "to",
        "ward"
      ],
      [
        "do",
        "es"
      ],
      [
        "p",
        "u"
      ],
      [
        "mi",
        "ght"
      ],
      [
        "sa",
        "w"
      ],
      [
        "f",
        "ull"
      ],
      [
        "la",
        "u"
      ],
      [
        "r",
        "un"
      ],
      [
        "o",
        "ld"
      ],
      [
        "p",
        "art"
      ],
      [
        "i",
        "ly"
      ],
      [
        "x",
        "t"
      ],
      [
        "f",
        "ing"
      ],
      [
        "lo",
        "ve"
      ],
      [
        "j",
        "e"
      ],
      [
        "i",
        "es"
      ],
      [
        "j",
        "u"
      ],
      [
        "z",
        "ed"
      ],
      [
        "h",
        "ouse"
      ],
      [
        "g",
        "ir"
      ],
      [
        "op",
        "en"
      ],
      [
        "s",
        "ound"
      ],
      [
        "be",
        "g"
      ],
      [
        "c",
        "ur"
      ],
      [
        "d",
        "ark"
      ],
      [
        "thing",
        "s"
      ],
      [
        "a",
        "ge"
      ],
      [
        "fri",
        "end"
      ],
      [
        "t",
        "ru"
      ],
      [
        "un",
        "til"
      ],
      [
        "an",
        "ge"
      ],
      [
        "ou",
        "th"
      ],
      [
        "m",
        "er"
      ],
      [
        "a",
        "pp"
      ],
      [
        "may",
        "be"
      ],
      [
        "ha",
        "ir"
      ],
      [
        "f",
        "f"
      ],
      [
        "th",
        "ose"
      ],
      [
        "pl",
        "ace"
      ],
      [
        "ca",
        "re"
      ],
      [
        "c",
        "tion"
      ],
      [
        "look",
        "ing"
      ],
      [
        "in",
        "ce"
      ],
      [
        "b",
        "ab"
[...]
