{
  "version": "1.0",
  "truncation": null,
  "padding": null,
  "added_tokens": [
    {
      "id": 0,
      "content": "[PAD]",
      "single_word": false,
      "lstrip": false,
      "rstrip": false,
      "normalized": false,
      "special": true
    },
    {
      "id": 1,
      "content": "[UNK]",
      "single_word": false,
      "lstrip": false,
      "rstrip": false,
      "normalized": false,
      "special": true
    },
    {
      "id": 2,
      "content": "[CLS]",
      "single_word": false,
      "lstrip": false,
      "rstrip": false,
      "normalized": false,
      "special": true
    },
    {
      "id": 3,
      "content": "[MASK]",
      "single_word": false,
      "lstrip": false,
      "rstrip": false,
      "normalized": false,
      "special": true
    },
    {
      "id": 4,
      "content": "[SEP]",
      "single_word": false,
      "lstrip": false,
      "rstrip": false,
      "normalized": false,
      "special": true
    }
  ],
  "normalizer": {
    "type": "BertNormalizer",
    "clean_text": true,
    "handle_chinese_chars": true,
    "strip_accents": true,
    "lowercase": true
  },
  "pre_tokenizer": {
    "type": "Whitespace"
  },
  "post_processor": null,
  "decoder": null,
  "model": {
    "type": "BPE",
    "dropout": null,
    "unk_token": "[UNK]",
    "continuing_subword_prefix": null,
    "end_of_word_suffix": null,
    "fuse_unk": false,
    "byte_fallback": false,
    "ignore_merges": false,
    "vocab": {
      "[PAD]": 0,
      "[UNK]": 1,
      "[CLS]": 2,
      "[MASK]": 3,
      "[SEP]": 4,
      "!": 5,
      "\"": 6,
      "$": 7,
      "'": 8,
      "(": 9,
      ")": 10,
      ",": 11,
      "-": 12,
      ".": 13,
      "0": 14,
      "1": 15,
      "2": 16,
      "3": 17,
      "4": 18,
      "5": 19,
      "6": 20,
      "7": 21,
      "8": 22,
      "9": 23,
      ":": 24,
      ";": 25,
      "=": 26,
      "?": 27,
      "[": 28,
      "]": 29,
      "`": 30,
      "a": 31,
      "b": 32,
      "c": 33,
      "d": 34,
      "e": 35,
      "f": 36,
      "g": 37,
      "h": 38,
      "i": 39,
      "j": 40,
      "k": 41,
      "l": 42,
      "m": 43,
      "n": 44,
      "o": 45,
      "p": 46,
      "q": 47,
      "r": 48,
      "s": 49,
      "t": 50,
      "u": 51,
      "v": 52,
      "w": 53,
      "x": 54,
      "y": 55,
      "z": 56,
      "–": 57,
      "…": 58,
      "th": 59,
      "the": 60,
      "ed": 61,
      "an": 62,
      "in": 63,
      "er": 64,
      "to": 65,
      "at": 66,
      "re": 67,
      "is": 68,
      "on": 69,
      "ou": 70,
      "en": 71,
      "ar": 72,
      "ll": 73,
      "as": 74,
      "es": 75,
      "or": 76,
      "le": 77,
      "he": 78,
      "be": 79,
      "wh": 80,
      "it": 81,
      "ic": 82,
      "that": 83,
      "ing": 84,
      "se": 85,
      "ro": 86,
      "ve": 87,
      "jo": 88,
      "me": 89,
      "and": 90,
      "id": 91,
      "of": 92,
      "ill": 93,
      "hn": 94,
      "john": 95,
      "st": 96,
      "ha": 97,
      "ch": 98,
      "li": 99,
      "ent": 100,
      "im": 101,
      "was": 102,
      "ld": 103,
      "bo": 104,
      "you": 105,
      "no": 106,
      "al": 107,
      "ver": 108,
      "all": 109,
      "gh": 110,
      "ad": 111,
      "mar": 112,
      "lo": 113,
      "ly": 114,
      "ke": 115,
      "ri": 116,
      "who": 117,
      "ay": 118,
      "mo": 119,
      "ut": 120,
      "do": 121,
      "we": 122,
      "for": 123,
      "so": 124,
      "pe": 125,
      "co": 126,
      "ter": 127,
      "mary": 128,
      "ok": 129,
      "did": 130,
      "un": 131,
      "man": 132,
      "ab": 133,
      "ir": 134,
      "ac": 135,
      "ith": 136,
      "bill": 137,
      "am": 138,
      "will": 139,
      "him": 140,
      "her": 141,
      "ould": 142,
      "ag": 143,
      "ght": 144,
      "ho": 145,
      "ne": 146,
      "go": 147,
      "su": 148,
      "with": 149,
      "po": 150,
      "ion": 151,
      "ted": 152,
      "ich": 153,
      "have": 154,
      "ked": 155,
      "book": 156,
      "lf": 157,
      "are": 158,
      "more": 159,
      "which": 160,
      "one": 161,
      "ain": 162,
      "ther": 163,
      "ap": 164,
      "his": 165,
      "she": 166,
      "this": 167,
      "ud": 168,
      "ts": 169,
      "ever": 170,
      "us": 171,
      "ved": 172,
      "ry": 173,
      "sa": 174,
      "ave": 175,
      "up": 176,
      "they": 177,
      "not": 178,
      "by": 179,
      "em": 180,
      "self": 181,
      "lie": 182,
      "eat": 183,
      "any": 184,
      "has": 185,
      "res": 186,
      "pro": 187,
      "te": 188,
      "il": 189,
      "der": 190,
      "ca": 191,
      "tu": 192,
      "stud": 193,
      "pl": 194,
      "out": 195,
      "de": 196,
      "had": 197,
      "ce": 198,
      "con": 199,
      "ge": 200,
      "read": 201,
      "belie": 202,
      "my": 203,
      "if": 204,
      "fro": 205,
      "now": 206,
      "every": 207,
      "ex": 208,
      "ate": 209,
      "ers": 210,
      "from": 211,
      "what": 212,
      "red": 213,
      "oun": 214,
      "mu": 215,
      "student": 216,
      "sh": 217,
      "pp": 218,
      "there": 219,
      "than": 220,
      "some": 221,
      "sto": 222,
      "car": 223,
      "would": 224,
      "la": 225,
      "ves": 226,
      "ple": 227,
      "qu": 228,
      "ink": 229,
      "wer": 230,
      "pic": 231,
      "put": 232,
      "end": 233,
      "ant": 234,
      "fe": 235,
      "can": 236,
      "know": 237,
      "tom": 238,
      "ard": 239,
      "able": 240,
      "been": 241,
      "est": 242,
      "fo": 243,
      "bu": 244,
      "ough": 245,
      "ought": 246,
      "par": 247,
      "pr": 248,
      "wor": 249,
      "like": 250,
      "but": 251,
      "ru": 252,
      "ran": 253,
      "ack": 254,
      "ct": 255,
      "think": 256,
      "ie": 257,
      "ice": 258,
      "ish": 259,
      "ble": 260,
      "ft": 261,
      "ig": 262,
      "od": 263,
      "com": 264,
      "ball": 265,
      "won": 266,
      "ma": 267,
      "left": 268,
      "ight": 269,
      "ick": 270,
      "row": 271,
      "ild": 272,
      "ang": 273,
      "how": 274,
      "day": 275,
      "kes": 276,
      "ol": 277,
      "ta": 278,
      "wo": 279,
      "ally": 280,
      "himself": 281,
      "into": 282,
      "pictu": 283,
      "ous": 284,
      "tor": 285,
      "tal": 286,
      "ind": 287,
      "ess": 288,
      "pres": 289,
      "ach": 290,
      "sed": 291,
      "ul": 292,
      "ive": 293,
      "gave": 294,
      "ra": 295,
      "um": 296,
      "saw": 297,
      "bl": 298,
      "et": 299,
      "eas": 300,
      "leave": 301,
      "seem": 302,
      "boy": 303,
      "gir": 304,
      "per": 305,
      "ong": 306,
      "ast": 307,
      "ep": 308,
      "king": 309,
      "new": 310,
      "girl": 311,
      "ian": 312,
      "ound": 313,
      "way": 314,
      "too": 315,
      "about": 316,
      "your": 317,
      "should": 318,
      "tain": 319,
      "wn": 320,
      "off": 321,
      "ople": 322,
      "ur": 323,
      "ist": 324,
      "people": 325,
      "wan": 326,
      "our": 327,
      "ade": 328,
      "br": 329,
      "vi": 330,
      "ren": 331,
      "age": 332,
      "tall": 333,
      "ried": 334,
      "des": 335,
      "win": 336,
      "said": 337,
      "je": 338,
      "table": 339,
      "gr": 340,
      "ree": 341,
      "ite": 342,
      "happ": 343,
      "came": 344,
      "were": 345,
      "ans": 346,
      "ation": 347,
      "med": 348,
      "kim": 349,
      "students": 350,
      "ff": 351,
      "pt": 352,
      "ck": 353,
      "ine": 354,
      "na": 355,
      "child": 356,
      "much": 357,
      "picture": 358,
      "cat": 359,
      "ven": 360,
      "wonder": 361,
      "cl": 362,
      "ny": 363,
      "ated": 364,
      "does": 365,
      "believe": 366,
      "bought": 367,
      "por": 368,
      "thing": 369,
      "ass": 370,
      "could": 371,
      "pre": 372,
      "ten": 373,
      "fa": 374,
      "sent": 375,
      "when": 376,
      "didn": 377,
      "lly": 378,
      "bro": 379,
      "wat": 380,
      "don": 381,
      "ned": 382,
      "flo": 383,
      "sp": 384,
      "them": 385,
      "believed": 386,
      "clo": 387,
      "cted": 388,
      "dan": 389,
      "ju": 390,
      "made": 391,
      "hel": 392,
      "never": 393,
      "got": 394,
      "av": 395,
      "cor": 396,
      "har": 397,
      "ty": 398,
      "play": 399,
      "blem": 400,
      "well": 401,
      "af": 402,
      "ti": 403,
      "orrow": 404,
      "fore": 405,
      "dis": 406,
      "ily": 407,
      "om": 408,
      "sc": 409,
      "books": 410,
      "problem": 411,
      "dr": 412,
      "let": 413,
      "cle": 414,
      "kis": 415,
      "ber": 416,
      "gu": 417,
      "ped": 418,
      "ak": 419,
      "fred": 420,
      "hand": 421,
      "les": 422,
      "ear": 423,
      "tomorrow": 424,
      "fi": 425,
      "fri": 426,
      "ob": 427,
      "went": 428,
      "cla": 429,
      "ia": 430,
      "ouse": 431,
      "fer": 432,
      "sally": 433,
      "ident": 434,
      "sol": 435,
      "many": 436,
      "seems": 437,
      "desk": 438,
      "men": 439,
      "pa": 440,
      "rit": 441,
      "tr": 442,
      "ity": 443,
      "ched": 444,
      "likes": 445,
      "pear": 446,
      "appear": 447,
      "ea": 448,
      "ph": 449,
      "ison": 450,
      "before": 451,
      "come": 452,
      "eaten": 453,
      "claim": 454,
      "use": 455,
      "hit": 456,
      "san": 457,
      "under": 458,
      "cer": 459,
      "dy": 460,
      "ment": 461,
      "might": 462,
      "expe": 463,
      "last": 464,
      "sm": 465,
      "sle": 466,
      "spe": 467,
      "whe": 468,
      "want": 469,
      "dog": 470,
      "everyone": 471,
      "led": 472,
      "00": 473,
      "ced": 474,
      "over": 475,
      "ered": 476,
      "ised": 477,
      "ence": 478,
      "likely": 479,
      "cre": 480,
      "tle": 481,
      "see": 482,
      "andy": 483,
      "pol": 484,
      "buy": 485,
      "talked": 486,
      "taller": 487,
      "cut": 488,
      "jan": 489,
      "mon": 490,
      "yes": 491,
      "ase": 492,
      "cho": 493,
      "very": 494,
      "happy": 495,
      "children": 496,
      "friend": 497,
      "hat": 498,
      "mi": 499,
      "may": 500,
      "try": 501,
      "these": 502,
      "their": 503,
      "arri": 504,
      "body": 505,
      "herself": 506,
      "teach": 507,
      "whether": 508,
      "house": 509,
      "asked": 510,
      "icked": 511,
      "box": 512,
      "key": 513,
      "oney": 514,
      "bar": 515,
      "ip": 516,
      "pat": 517,
      "oked": 518,
      "get": 519,
      "pped": 520,
      "ell": 521,
      "ful": 522,
      "enough": 523,
      "ary": 524,
      "ason": 525,
      "wanted": 526,
      "fl": 527,
      "hed": 528,
      "kicked": 529,
      "money": 530,
      "sid": 531,
      "sha": 532,
      "ting": 533,
      "tru": 534,
      "most": 535,
      "sur": 536,
      "easily": 537,
      "medea": 538,
      "give": 539,
      "vin": 540,
      "met": 541,
      "work": 542,
      "after": 543,
      "time": 544,
      "jason": 545,
      "pack": 546,
      "ters": 547,
      "ames": 548,
      "must": 549,
      "cy": 550,
      "love": 551,
      "susan": 552,
      "pos": 553,
      "kissed": 554,
      "coun": 555,
      "fran": 556,
      "games": 557,
      "run": 558,
      "att": 559,
      "ace": 560,
      "believes": 561,
      "el": 562,
      "fin": 563,
      "gg": 564,
      "rew": 565,
      "loved": 566,
      "thinks": 567,
      "broke": 568,
      "ctor": 569,
      "gl": 570,
      "gil": 571,
      "rain": 572,
      "sing": 573,
      "tre": 574,
      "ving": 575,
      "room": 576,
      "whom": 577,
      "terday": 578,
      "going": 579,
      "yesterday": 580,
      "gamesh": 581,
      "gilgamesh": 582,
      "ks": 583,
      "night": 584,
      "old": 585,
      "si": 586,
      "sen": 587,
      "tried": 588,
      "ond": 589,
      "down": 590,
      "here": 591,
      "president": 592,
      "wants": 593,
      "vious": 594,
      "hor": 595,
      "long": 596,
      "nor": 597,
      "sho": 598,
      "cake": 599,
      "woman": 600,
      "easy": 601,
      "bed": 602,
      "fly": 603,
      "lou": 604,
      "ning": 605,
      "ose": 606,
      "year": 607,
      "rod": 608,
      "meet": 609,
      "aded": 610,
      "tell": 611,
      "plan": 612,
      "exam": 613,
      "ended": 614,
      "father": 615,
      "water": 616,
      "bab": 617,
      "gard": 618,
      "hen": 619,
      "ied": 620,
      "igh": 621,
      "mr": 622,
      "ris": 623,
      "sang": 624,
      "thought": 625,
      "told": 626,
      "lee": 627,
      "mother": 628,
      "need": 629,
      "anything": 630,
      "cause": 631,
      "tur": 632,
      "gets": 633,
      "park": 634,
      "present": 635,
      "smith": 636,
      "gen": 637,
      "vis": 638,
      "ise": 639,
      "because": 640,
      "door": 641,
      "eats": 642,
      "ele": 643,
      "sat": 644,
      "art": 645,
      "ics": 646,
      "poison": 647,
      "reading": 648,
      "knows": 649,
      "hun": 650,
      "mag": 651,
      "ow": 652,
      "pen": 653,
      "sun": 654,
      "wal": 655,
      "wall": 656,
      "coat": 657,
      "just": 658,
      "obvious": 659,
      "arrived": 660,
      "garden": 661,
      "ame": 662,
      "gi": 663,
      "ner": 664,
      "pi": 665,
      "pay": 666,
      "say": 667,
      "thr": 668,
      "those": 669,
      "hair": 670,
      "ket": 671,
      "good": 672,
      "iled": 673,
      "harry": 674,
      "ba": 675,
      "ben": 676,
      "che": 677,
      "mat": 678,
      "pap": 679,
      "sandy": 680,
      "vie": 681,
      "wa": 682,
      "head": 683,
      "home": 684,
      "ress": 685,
      "wood": 686,
      "pictures": 687,
      "anson": 688,
      "certain": 689,
      "surpr": 690,
      "baby": 691,
      "through": 692,
      "pu": 693,
      "pain": 694,
      "song": 695,
      "writ": 696,
      "though": 697,
      "ere": 698,
      "tou": 699,
      "stand": 700,
      "unt": 701,
      "act": 702,
      "sue": 703,
      "consid": 704,
      "build": 705,
      "party": 706,
      "ished": 707,
      "teacher": 708,
      "ator": 709,
      "care": 710,
      "dro": 711,
      "gre": 712,
      "jack": 713,
      "ling": 714,
      "squ": 715,
      "sick": 716,
      "only": 717,
      "sel": 718,
      "class": 719,
      "cri": 720,
      "dif": 721,
      "ious": 722,
      "show": 723,
      "tun": 724,
      "ze": 725,
      "int": 726,
      "beer": 727,
      "where": 728,
      "wear": 729,
      "cover": 730,
      "again": 731,
      "eating": 732,
      "comm": 733,
      "raz": 734,
      "letter": 735,
      "appeared": 736,
      "jane": 737,
      "ellen": 738,
      "fir": 739,
      "lit": 740,
      "mer": 741,
      "other": 742,
      "pian": 743,
      "ys": 744,
      "repor": 745,
      "ros": 746,
      "ide": 747,
      "soon": 748,
      "package": 749,
      "selves": 750,
      "piano": 751,
      "cal": 752,
      "eag": 753,
      "ies": 754,
      "jen": 755,
      "sam": 756,
      "ula": 757,
      "yed": 758,
      "ins": 759,
      "ited": 760,
      "bob": 761,
      "pick": 762,
      "persu": 763,
      "sleep": 764,
      "satis": 765,
      "ds": 766,
      "son": 767,
      "sal": 768,
      "became": 769,
      "whis": 770,
      "lot": 771,
      "right": 772,
      "doctor": 773,
      "myself": 774,
      "store": 775,
      "each": 776,
      "fu": 777,
      "ged": 778,
      "nif": 779,
      "ot": 780,
      "two": 781,
      "tree": 782,
      "reli": 783,
      "seen": 784,
      "loves": 785,
      "max": 786,
      "ways": 787,
      "helen": 788,
      "frank": 789,
      "cap": 790,
      "dou": 791,
      "hard": 792,
      "sy": 793,
      "ones": 794,
      "ased": 795,
      "ste": 796,
      "always": 797,
      "such": 798,
      "aph": 799,
      "dered": 800,
      "fell": 801,
      "estion": 802,
      "fool": 803,
      "tax": 804,
      "boys": 805,
      "flow": 806,
      "clear": 807,
      "senator": 808,
      "little": 809,
      "back": 810,
      "ces": 811,
      "cent": 812,
      "dest": 813,
      "fan": 814,
      "found": 815,
      "ron": 816,
      "sw": 817,
      "tion": 818,
      "arm": 819,
      "being": 820,
      "idi": 821,
      "prom": 822,
      "ready": 823,
      "please": 824,
      "working": 825,
      "bled": 826,
      "doesn": 827,
      "expect": 828,
      "expected": 829,
      "cream": 830,
      "friends": 831,
      "eager": 832,
      "bus": 833,
      "bread": 834,
      "den": 835,
      "mor": 836,
      "mic": 837,
      "pers": 838,
      "thy": 839,
      "itch": 840,
      "sever": 841,
      "often": 842,
      "ired": 843,
      "bur": 844,
      "paula": 845,
      "claimed": 846,
      "horse": 847,
      "against": 848,
      "first": 849,
      "several": 850,
      "ban": 851,
      "city": 852,
      "dri": 853,
      "dress": 854,
      "high": 855,
      "kind": 856,
      "ror": 857,
      "ue": 858,
      "ught": 859,
      "zed": 860,
      "aster": 861,
      "its": 862,
      "illed": 863,
      "liked": 864,
      "cook": 865,
      "poem": 866,
      "ushed": 867,
      "cont": 868,
      "answer": 869,
      "shakes": 870,
      "view": 871,
      "hind": 872,
      "lu": 873,
      "main": 874,
      "ps": 875,
      "spo": 876,
      "uist": 877,
      "tha": 878,
      "three": 879,
      "threw": 880,
      "inv": 881,
      "lle": 882,
      "heidi": 883,
      "behind": 884,
      "looked": 885,
      "kept": 886,
      "abb": 887,
      "used": 888,
      "story": 889,
      "butter": 890,
      "angry": 891,
      "solut": 892,
      "linguist": 893,
      "calvin": 894,
      "cup": 895,
      "chair": 896,
      "da": 897,
      "find": 898,
      "less": 899,
      "sk": 900,
      "sit": 901,
      "thes": 902,
      "ates": 903,
      "really": 904,
      "isn": 905,
      "lled": 906,
      "lear": 907,
      "set": 908,
      "str": 909,
      "look": 910,
      "whose": 911,
      "dow": 912,
      "peare": 913,
      "fect": 914,
      "make": 915,
      "window": 916,
      "jean": 917,
      "help": 918,
      "avid": 919,
      "persuaded": 920,
      "shakespeare": 921,
      "di": 922,
      "min": 923,
      "pig": 924,
      "scho": 925,
      "wr": 926,
      "xed": 927,
      "inter": 928,
      "ara": 929,
      "sta": 930,
      "ches": 931,
      "chris": 932,
      "holly": 933,
      "ately": 934,
      "question": 935,
      "news": 936,
      "person": 937,
      "school": 938,
      "ci": 939,
      "cus": 940,
      "david": 941,
      "nment": 942,
      "plo": 943,
      "spr": 944,
      "sara": 945,
      "ann": 946,
      "tony": 947,
      "ists": 948,
      "ened": 949,
      "bet": 950,
      "als": 951,
      "martha": 952,
      "sold": 953,
      "peter": 954,
      "ountain": 955,
      "muff": 956,
      "stood": 957,
      "prin": 958,
      "prou": 959,
      "ction": 960,
      "flower": 961,
      "drink": 962,
      "solve": 963,
      "police": 964,
      "rodite": 965,
      "presented": 966,
      "building": 967,
      "drove": 968,
      "aphrodite": 969,
      "destro": 970,
      "promised": 971,
      "blo": 972,
      "craz": 973,
      "ev": 974,
      "fren": 975,
      "ier": 976,
      "ken": 977,
      "ns": 978,
      "nth": 979,
      "snow": 980,
      "heard": 981,
      "joe": 982,
      "ries": 983,
      "form": 984,
      "few": 985,
      "offered": 986,
      "port": 987,
      "prefer": 988,
      "julie": 989,
      "monkey": 990,
      "cynth": 991,
      "possi": 992,
      "turned": 993,
      "publ": 994,
      "touched": 995,
      "fully": 996,
      "fanny": 997,
      "cynthia": 998,
      "ali": 999,
      "aunt": 1000,
      "bre": 1001,
      "crit": 1002,
      "fic": 1003,
      "fence": 1004,
      "game": 1005,
      "lted": 1006,
      "rel": 1007,
      "ister": 1008,
      "beat": 1009,
      "why": 1010,
      "road": 1011,
      "stre": 1012,
      "half": 1013,
      "having": 1014,
      "keep": 1015,
      "ayed": 1016,
      "cost": 1017,
      "hop": 1018,
      "aren": 1019,
      "anybody": 1020,
      "prof": 1021,
      "study": 1022,
      "brother": 1023,
      "fire": 1024,
      "slept": 1025,
      "given": 1026,
      "solution": 1027,
      "french": 1028,
      "away": 1029,
      "call": 1030,
      "cum": 1031,
      "even": 1032,
      "hour": 1033,
      "jum": 1034,
      "knew": 1035,
      "ni": 1036,
      "rat": 1037,
      "war": 1038,
      "ines": 1039,
      "intell": 1040,
      "toes": 1041,
      "ens": 1042,
      "ars": 1043,
      "become": 1044,
      "itself": 1045,
      "ham": 1046,
      "chased": 1047,
      "bot": 1048,
      "although": 1049,
      "vernment": 1050,
      "marry": 1051,
      "agon": 1052,
      "ages": 1053,
      "government": 1054,
      "stone": 1055,
      "known": 1056,
      "fol": 1057,
      "comp": 1058,
      "talk": 1059,
      "seemed": 1060,
      "brought": 1061,
      "bert": 1062,
      "handed": 1063,
      "meeting": 1064,
      "gener": 1065,
      "satisfi": 1066,
      "steve": 1067,
      "pigs": 1068,
      "din": 1069,
      "ei": 1070,
      "fond": 1071,
      "gn": 1072,
      "lic": 1073,
      "mis": 1074,
      "mber": 1075,
      "pushed": 1076,
      "rup": 1077,
      "tim": 1078,
      "tig": 1079,
      "anda": 1080,
      "ided": 1081,
      "libr": 1082,
      "almost": 1083,
      "mur": 1084,
      "ppor": 1085,
      "carved": 1086,
      "law": 1087,
      "quick": 1088,
      "igent": 1089,
      "talking": 1090,
      "black": 1091,
      "pregn": 1092,
      "clothes": 1093,
      "danced": 1094,
      "corrup": 1095,
      "speak": 1096,
      "jenny": 1097,
      "flowers": 1098,
      "muffins": 1099,
      "destroyed": 1100,
      "intelligent": 1101,
      "pregnant": 1102,
      "cked": 1103,
      "ecut": 1104,
      "five": 1105,
      "faster": 1106,
      "ger": 1107,
      "hill": 1108,
      "ipped": 1109,
      "own": 1110,
      "pri": 1111,
      "ward": 1112,
      "yor": 1113,
      "anna": 1114,
      "reme": 1115,
      "engl": 1116,
      "around": 1117,
      "ask": 1118,
      "ordered": 1119,
      "ician": 1120,
      "stat": 1121,
      "still": 1122,
      "import": 1123,
      "bother": 1124,
      "river": 1125,
      "unk": 1126,
      "dec": 1127,
      "const": 1128,
      "execut": 1129,
      "ship": 1130,
      "stopped": 1131,
      "carla": 1132,
      "part": 1133,
      "cks": 1134,
      "paper": 1135,
      "paint": 1136,
      "reliable": 1137,
      "poems": 1138,
      "york": 1139,
      "important": 1140,
      "bir": 1141,
      "bran": 1142,
      "ef": 1143,
      "fru": 1144,
      "jam": 1145,
      "jones": 1146,
      "tro": 1147,
      "ure": 1148,
      "uff": 1149,
      "yer": 1150,
      "za": 1151,
      "toge": 1152,
      "onto": 1153,
      "ica": 1154,
      "washed": 1155,
      "wee": 1156,
      "cooked": 1157,
      "acc": 1158,
      "amed": 1159,
      "gold": 1160,
      "someone": 1161,
      "ston": 1162,
      "quar": 1163,
      "take": 1164,
      "yourself": 1165,
      "ations": 1166,
      "dragon": 1167,
      "guard": 1168,
      "paul": 1169,
      "000": 1170,
      "hates": 1171,
      "papers": 1172,
      "surprised": 1173,
      "differ": 1174,
      "syn": 1175,
      "linguistics": 1176,
      "possible": 1177,
      "public": 1178,
      "jumped": 1179,
      "satisfied": 1180,
      "library": 1181,
      "remember": 1182,
      "together": 1183,
      "ath": 1184,
      "bri": 1185,
      "bbled": 1186,
      "cabb": 1187,
      "fid": 1188,
      "fun": 1189,
      "gone": 1190,
      "lar": 1191,
      "mb": 1192,
      "mn": 1193,
      "nice": 1194,
      "open": 1195,
      "sl": 1196,
      "swat": 1197,
      "ugh": 1198,
      "ating": 1199,
      "oured": 1200,
      "ition": 1201,
      "inger": 1202,
      "secre": 1203,
      "robert": 1204,
      "stick": 1205,
      "step": 1206,
      "lif": 1207,
      "adv": 1208,
      "rier": 1209,
      "amer": 1210,
      "near": 1211,
      "sub": 1212,
      "proved": 1213,
      "tee": 1214,
      "place": 1215,
      "conf": 1216,
      "convin": 1217,
      "laugh": 1218,
      "feet": 1219,
      "worked": 1220,
      "name": 1221,
      "corpor": 1222,
      "kiss": 1223,
      "elected": 1224,
      "poisoned": 1225,
      "benjam": 1226,
      "matter": 1227,
      "consider": 1228,
      "crazy": 1229,
      "critic": 1230,
      "profess": 1231,
      "quickly": 1232,
      "week": 1233,
      "cabbage": 1234,
      "secret": 1235,
      "benjamin": 1236,
      "best": 1237,
      "cess": 1238,
      "dar": 1239,
      "egg": 1240,
      "free": 1241,
      "gar": 1242,
      "hur": 1243,
      "list": 1244,
      "mil": 1245,
      "sion": 1246,
      "sister": 1247,
      "tar": 1248,
      "vo": 1249,
      "thor": 1250,
      "anim": 1251,
      "ined": 1252,
      "town": 1253,
      "review": 1254,
      "aron": 1255,
      "aspar": 1256,
      "ings": 1257,
      "rob": 1258,
      "light": 1259,
      "both": 1260,
      "log": 1261,
      "col": 1262,
      "aced": 1263,
      "agame": 1264,
      "hole": 1265,
      "pose": 1266,
      "pota": 1267,
      "ement": 1268,
      "ilt": 1269,
      "pla": 1270,
      "geor": 1271,
      "stole": 1272,
      "pra": 1273,
      "ief": 1274,
      "perfect": 1275,
      "cloth": 1276,
      "played": 1277,
      "disappeared": 1278,
      "discus": 1279,
      "guy": 1280,
      "handsome": 1281,
      "truck": 1282,
      "nora": 1283,
      "flying": 1284,
      "showed": 1285,
      "wearing": 1286,
      "commit": 1287,
      "write": 1288,
      "company": 1289,
      "english": 1290,
      "fruit": 1291,
      "syntax": 1292,
      "mnon": 1293,
      "swatted": 1294,
      "agamemnon": 1295,
      "ather": 1296,
      "bi": 1297,
      "bor": 1298,
      "dry": 1299,
      "dick": 1300,
      "fed": 1301,
      "len": 1302,
      "mus": 1303,
      "round": 1304,
      "ser": 1305,
      "sim": 1306,
      "val": 1307,
      "wro": 1308,
      "anal": 1309,
      "inno": 1310,
      "today": 1311,
      "ital": 1312,
      "seven": 1313,
      "idon": 1314,
      "colle": 1315,
      "amanda": 1316,
      "suc": 1317,
      "sul": 1318,
      "hasn": 1319,
      "ture": 1320,
      "comput": 1321,
      "anged": 1322,
      "raw": 1323,
      "girls": 1324,
      "ject": 1325,
      "happened": 1326,
      "medi": 1327,
      "cats": 1328,
      "themselves": 1329,
      "understand": 1330,
      "packages": 1331,
      "treat": 1332,
      "years": 1333,
      "henry": 1334,
      "walked": 1335,
      "woods": 1336,
      "diffic": 1337,
      "spoke": 1338,
      "sarah": 1339,
      "proud": 1340,
      "hopes": 1341,
      "bottle": 1342,
      "dinner": 1343,
      "prize": 1344,
      "fido": 1345,
      "lifted": 1346,
      "corporate": 1347,
      "professor": 1348,
      "poseidon": 1349,
      "perfectly": 1350,
      "committee": 1351,
      "wrote": 1352,
      "difficul": 1353,
      "au": 1354,
      "bag": 1355,
      "cur": 1356,
      "equ": 1357,
      "fish": 1358,
      "hon": 1359,
      "ile": 1360,
      "knif": 1361,
      "ng": 1362,
      "pho": 1363,
      "pend": 1364,
      "pie": 1365,
      "pound": 1366,
      "rich": 1367,
      "wed": 1368,
      "thief": 1369,
      "anno": 1370,
      "anne": 1371,
      "inves": 1372,
      "took": 1373,
      "rely": 1374,
      "remo": 1375,
      "oul": 1376,
      "icy": 1377,
      "rope": 1378,
      "stri": 1379,
      "station": 1380,
      "alison": 1381,
      "lob": 1382,
      "socks": 1383,
      "mans": 1384,
      "apple": 1385,
      "emplo": 1386,
      "prove": 1387,
      "deep": 1388,
      "depend": 1389,
      "confer": 1390,
      "something": 1391,
      "food": 1392,
      "world": 1393,
      "ishtar": 1394,
      "comple": 1395,
      "days": 1396,
      "talks": 1397,
      "ground": 1398,
      "ffles": 1399,
      "cloak": 1400,
      "letters": 1401,
      "phi": 1402,
      "country": 1403,
      "louis": 1404,
      "visited": 1405,
      "carefully": 1406,
      "great": 1407,
      "maxwell": 1408,
      "lucy": 1409,
      "better": 1410,
      "accident": 1411,
      "different": 1412,
      "convinced": 1413,
      "potatoes": 1414,
      "plato": 1415,
      "george": 1416,
      "knife": 1417,
      "bit": 1418,
      "big": 1419,
      "cu": 1420,
      "cing": 1421,
      "cough": 1422,
      "fit": 1423,
      "fact": 1424,
      "ient": 1425,
      "killed": 1426,
      "lon": 1427,
      "mice": 1428,
      "ness": 1429,
      "pas": 1430,
      "pass": 1431,
      "sad": 1432,
      "tw": 1433,
      "tries": 1434,
      "vol": 1435,
      "anut": 1436,
      "ina": 1437,
      "ton": 1438,
      "enjo": 1439,
      "heav": 1440,
      "white": 1441,
      "while": 1442,
      "seoul": 1443,
      "job": 1444,
      "ids": 1445,
      "char": 1446,
      "lion": 1447,
      "immedi": 1448,
      "wash": 1449,
      "young": 1450,
      "adm": 1451,
      "riet": 1452,
      "molly": 1453,
      "peanut": 1454,
      "ions": 1455,
      "placed": 1456,
      "contain": 1457,
      "everybody": 1458,
      "carol": 1459,
      "igned": 1460,
      "rown": 1461,
      "grad": 1462,
      "harriet": 1463,
      "scrat": 1464,
      "polit": 1465,
      "flat": 1466,
      "true": 1467,
      "finish": 1468,
      "six": 1469,
      "artic": 1470,
      "owl": 1471,
      "headquar": 1472,
      "songs": 1473,
      "sooner": 1474,
      "whiskey": 1475,
      "doug": 1476,
      "sitting": 1477,
      "folks": 1478,
      "either": 1479,
      "times": 1480,
      "stephen": 1481,
      "milk": 1482,
      "animals": 1483,
      "innocent": 1484,
      "lobby": 1485,
      "heavy": 1486,
      "immediately": 1487,
      "headquarters": 1488,
      "bad": 1489,
      "cli": 1490,
      "dem": 1491,
      "fried": 1492,
      "ial": 1493,
      "mind": 1494,
      "nur": 1495,
      "oc": 1496,
      "ring": 1497,
      "sch": 1498,
      "send": 1499,
      "xt": 1500,
      "ange": 1501,
      "tos": 1502,
      "reed": 1503,
      "remain": 1504,
      "beg": 1505,
      "rolled": 1506,
      "ster": 1507,
      "low": 1508,
      "peach": 1509,
      "tered": 1510,
      "aged": 1511,
      "agus": 1512,
      "sum": 1513,
      "potion": 1514,
      "ained": 1515,
      "aper": 1516,
      "dead": 1517,
      "sharon": 1518,
      "quite": 1519,
      "comes": 1520,
      "takes": 1521,
      "pressed": 1522,
      "ourselves": 1523,
      "descri": 1524,
      "jeff": 1525,
      "ption": 1526,
      "dancing": 1527,
      "harder": 1528,
      "playing": 1529,
      "scri": 1530,
      "drunk": 1531,
      "handle": 1532,
      "early": 1533,
      "appears": 1534,
      "side": 1535,
      "else": 1536,
      "norris": 1537,
      "loud": 1538,
      "visit": 1539,
      "walk": 1540,
      "bath": 1541,
      "careful": 1542,
      "ross": 1543,
      "captain": 1544,
      "learned": 1545,
      "policeman": 1546,
      "speaks": 1547,
      "brian": 1548,
      "large": 1549,
      "asparagus": 1550,
      "difficult": 1551,
      "investig": 1552,
      "coughed": 1553,
      "lobbyists": 1554,
      "bicy": 1555,
      "ded": 1556,
      "dent": 1557,
      "done": 1558,
      "fr": 1559,
      "fy": 1560,
      "fam": 1561,
      "filled": 1562,
      "fountain": 1563,
      "hu": 1564,
      "ized": 1565,
      "jess": 1566,
      "kno": 1567,
      "ls": 1568,
      "lent": 1569,
      "lind": 1570,
      "mountain": 1571,
      "race": 1572,
      "sor": 1573,
      "sof": 1574,
      "shave": 1575,
      "tas": 1576,
      "xious": 1577,
      "thir": 1578,
      "aned": 1579,
      "toy": 1580,
      "regre": 1581,
      "recomm": 1582,
      "oned": 1583,
      "oup": 1584,
      "escap": 1585,
      "leav": 1586,
      "bea": 1587,
      "meat": 1588,
      "mely": 1589,
      "star": 1590,
      "changed": 1591,
      "imag": 1592,
      "boston": 1593,
      "force": 1594,
      "terry": 1595,
      "willy": 1596,
      "herman": 1597,
      "poc": 1598,
      "ioner": 1599,
      "apart": 1600,
      "emma": 1601,
      "propos": 1602,
      "extre": 1603,
      "carmen": 1604,
      "ishes": 1605,
      "mailed": 1606,
      "angrier": 1607,
      "taken": 1608,
      "fix": 1609,
      "train": 1610,
      "mixed": 1611,
      "arrive": 1612,
      "running": 1613,
      "attent": 1614,
      "surprise": 1615,
      "considered": 1616,
      "tune": 1617,
      "roses": 1618,
      "satisfy": 1619,
      "doub": 1620,
      "morning": 1621,
      "sky": 1622,
      "called": 1623,
      "executioner": 1624,
      "computer": 1625,
      "honest": 1626,
      "complete": 1627,
      "bicycle": 1628,
      "dentist": 1629,
      "jessica": 1630,
      "linda": 1631,
      "leaving": 1632,
      "proposal": 1633,
      "extremely": 1634,
      "10": 1635,
      "12": 1636,
      "aw": 1637,
      "az": 1638,
      "ail": 1639,
      "base": 1640,
      "cand": 1641,
      "cir": 1642,
      "cking": 1643,
      "dran": 1644,
      "died": 1645,
      "ets": 1646,
      "fig": 1647,
      "finger": 1648,
      "hated": 1649,
      "iz": 1650,
      "iers": 1651,
      "ives": 1652,
      "ky": 1653,
      "kids": 1654,
      "lat": 1655,
      "lang": 1656,
      "mouse": 1657,
      "nie": 1658,
      "op": 1659,
      "py": 1660,
      "pup": 1661,
      "rus": 1662,
      "sin": 1663,
      "sand": 1664,
      "vor": 1665,
      "throw": 1666,
      "ants": 1667,
      "ances": 1668,
      "ative": 1669,
      "recor": 1670,
      "asle": 1671,
      "beth": 1672,
      "sea": 1673,
      "roof": 1674,
      "hall": 1675,
      "cher": 1676,
      "lia": 1677,
      "live": 1678,
      "life": 1679,
      "ents": 1680,
      "admi": 1681,
      "ribut": 1682,
      "fort": 1683,
      "coll": 1684,
      "accoun": 1685,
      "across": 1686,
      "hold": 1687,
      "next": 1688,
      "ude": 1689,
      "empt": 1690,
      "anyone": 1691,
      "dev": 1692,
      "reads": 1693,
      "ield": 1694,
      "press": 1695,
      "pered": 1696,
      "jewell": 1697,
      "wondered": 1698,
      "dance": 1699,
      "trave": 1700,
      "mike": 1701,
      "fluff": 1702,
      "finite": 1703,
      "rains": 1704,
      "singing": 1705,
      "examine": 1706,
      "mrs": 1707,
      "needs": 1708,
      "pire": 1709,
      "written": 1710,
      "ysis": 1711,
      "reports": 1712,
      "whispered": 1713,
      "banan": 1714,
      "sprayed": 1715,
      "monkeys": 1716,
      "hours": 1717,
      "warned": 1718,
      "murdered": 1719,
      "corrupt": 1720,
      "statue": 1721,
      "branch": 1722,
      "guardian": 1723,
      "laughed": 1724,
      "hurt": 1725,
      "analysis": 1726,
      "gradu": 1727,
      "nurse": 1728,
      "tossed": 1729,
      "escaped": 1730,
      "attention": 1731,
      "doubt": 1732,
      "drank": 1733,
      "langu": 1734,
      "asleep": 1735,
      "ributed": 1736,
      "account": 1737,
      "jeweller": 1738,
      "fluffy": 1739,
      "ake": 1740,
      "air": 1741,
      "awa": 1742,
      "bs": 1743,
      "bes": 1744,
      "eu": 1745,
      "gor": 1746,
      "grow": 1747,
      "hate": 1748,
      "ire": 1749,
      "jud": 1750,
      "kitch": 1751,
      "mir": 1752,
      "oppor": 1753,
      "paren": 1754,
      "poured": 1755,
      "ric": 1756,
      "sound": 1757,
      "slow": 1758,
      "tic": 1759,
      "tran": 1760,
      "tast": 1761,
      "vic": 1762,
      "wind": 1763,
      "ya": 1764,
      "ye": 1765,
      "yet": 1766,
      "then": 1767,
      "inten": 1768,
      "inform": 1769,
      "top": 1770,
      "rec": 1771,
      "rest": 1772,
      "reali": 1773,
      "army": 1774,
      "ese": 1775,
      "esday": 1776,
      "ley": 1777,
      "hear": 1778,
      "separ": 1779,
      "iday": 1780,
      "board": 1781,
      "vers": 1782,
      "alle": 1783,
      "doing": 1784,
      "cold": 1785,
      "terri": 1786,
      "acor": 1787,
      "actor": 1788,
      "hot": 1789,
      "suppor": 1790,
      "poin": 1791,
      "shelf": 1792,
      "same": 1793,
      "upset": 1794,
      "proof": 1795,
      "def": 1796,
      "deta": 1797,
      "carried": 1798,
      "picked": 1799,
      "feel": 1800,
      "rum": 1801,
      "rang": 1802,
      "blew": 1803,
      "maj": 1804,
      "anger": 1805,
      "taught": 1806,
      "raid": 1807,
      "bles": 1808,
      "urch": 1809,
      "viol": 1810,
      "naught": 1811,
      "pret": 1812,
      "failed": 1813,
      "watch": 1814,
      "floor": 1815,
      "clown": 1816,
      "avo": 1817,
      "plays": 1818,
      "afraid": 1819,
      "leslie": 1820,
      "solved": 1821,
      "mix": 1822,
      "france": 1823,
      "attended": 1824,
      "rained": 1825,
      "raining": 1826,
      "trees": 1827,
      "shove": 1828,
      "rodu": 1829,
      "plants": 1830,
      "turn": 1831,
      "hunted": 1832,
      "gardener": 1833,
      "baked": 1834,
      "tuna": 1835,
      "introdu": 1836,
      "covered": 1837,
      "razor": 1838,
      "jennif": 1839,
      "salmon": 1840,
      "clearly": 1841,
      "mickey": 1842,
      "looking": 1843,
      "soldier": 1844,
      "break": 1845,
      "street": 1846,
      "blackwell": 1847,
      "secretary": 1848,
      "eggs": 1849,
      "logy": 1850,
      "politician": 1851,
      "regret": 1852,
      "candid": 1853,
      "awake": 1854,
      "kitchen": 1855,
      "opportun": 1856,
      "slowly": 1857,
      "separated": 1858,
      "naughty": 1859,
      "jennifer": 1860,
      "athe": 1861,
      "bren": 1862,
      "cr": 1863,
      "cave": 1864,
      "crow": 1865,
      "dried": 1866,
      "dden": 1867,
      "dishes": 1868,
      "ech": 1869,
      "fion": 1870,
      "field": 1871,
      "gent": 1872,
      "gare": 1873,
      "ible": 1874,
      "iped": 1875,
      "jim": 1876,
      "kick": 1877,
      "land": 1878,
      "lun": 1879,
      "lines": 1880,
      "ming": 1881,
      "ply": 1882,
      "pud": 1883,
      "rad": 1884,
      "rice": 1885,
      "rabb": 1886,
      "smo": 1887,
      "sink": 1888,
      "tap": 1889,
      "van": 1890,
      "vac": 1891,
      "wiped": 1892,
      "yl": 1893,
      "theor": 1894,
      "inqu": 1895,
      "ref": 1896,
      "returned": 1897,
      "ism": 1898,
      "ared": 1899,
      "lling": 1900,
      "asha": 1901,
      "ora": 1902,
      "oro": 1903,
      "heat": 1904,
      "ities": 1905,
      "rome": 1906,
      "rock": 1907,
      "joan": 1908,
      "melted": 1909,
      "idea": 1910,
      "sty": 1911,
      "stup": 1912,
      "haven": 1913,
      "chat": 1914,
      "church": 1915,
      "liver": 1916,
      "boat": 1917,
      "nobody": 1918,
      "ala": 1919,
      "margare": 1920,
      "loaded": 1921,
      "whole": 1922,
      "movie": 1923,
      "manus": 1924,
      "acy": 1925,
      "amond": 1926,
      "hope": 1927,
      "goes": 1928,
      "sure": 1929,
      "sudden": 1930,
      "pot": 1931,
      "post": 1932,
      "appre": 1933,
      "sheil": 1934,
      "safe": 1935,
      "embar": 1936,
      "iling": 1937,
      "cavi": 1938,
      "tub": 1939,
      "plum": 1940,
      "contr": 1941,
      "expl": 1942,
      "explo": 1943,
      "shor": 1944,
      "ructed": 1945,
      "olar": 1946,
      "newsp": 1947,
      "tained": 1948,
      "offer": 1949,
      "office": 1950,
      "grand": 1951,
      "gram": 1952,
      "donated": 1953,
      "span": 1954,
      "avail": 1955,
      "corner": 1956,
      "speech": 1957,
      "getting": 1958,
      "shaved": 1959,
      "finished": 1960,
      "ggled": 1961,
      "henri": 1962,
      "needed": 1963,
      "elect": 1964,
      "cheese": 1965,
      "homework": 1966,
      "standing": 1967,
      "until": 1968,
      "squand": 1969,
      "squir": 1970,
      "intended": 1971,
      "reported": 1972,
      "salt": 1973,
      "cleared": 1974,
      "swim": 1975,
      "denied": 1976,
      "burns": 1977,
      "bank": 1978,
      "rory": 1979,
      "strong": 1980,
      "dire": 1981,
      "diamond": 1982,
      "soldiers": 1983,
      "evid": 1984,
      "general": 1985,
      "corruption": 1986,
      "decided": 1987,
      "constructed": 1988,
      "advice": 1989,
      "dark": 1990,
      "valu": 1991,
      "understands": 1992,
      "author": 1993,
      "piece": 1994,
      "strike": 1995,
      "employer": 1996,
      "london": 1997,
      "twig": 1998,
      "contains": 1999,
      "scholar": 2000,
      "remained": 2001,
      "investigated": 2002,
      "knocked": 2003,
      "beaut": 2004,
      "figu": 2005,
      "language": 2006,
      "parents": 2007,
      "violin": 2008,
      "candidate": 2009,
      "opportunity": 2010,
      "brenda": 2011,
      "crowd": 2012,
      "fiona": 2013,
      "pudd": 2014,
      "rabbit": 2015,
      "theory": 2016,
      "inquired": 2017,
      "margaret": 2018,
      "manuscri": 2019,
      "suddenly": 2020,
      "appreci": 2021,
      "sheila": 2022,
      "embarr": 2023,
      "caviar": 2024,
      "19": 2025,
      "bent": 2026,
      "brown": 2027,
      "cry": 2028,
      "cru": 2029,
      "candy": 2030,
      "dam": 2031,
      "dra": 2032,
      "dged": 2033,
      "doro": 2034,
      "eli": 2035,
      "ely": 2036,
      "fat": 2037,
      "far": 2038,
      "gan": 2039,
      "gas": 2040,
      "jill": 2041,
      "lt": 2042,
      "mid": 2043,
      "oil": 2044,
      "oak": 2045,
      "pal": 2046,
      "ses": 2047,
      "sian": 2048,
      "sna": 2049,
      "soup": 2050,
      "sasha": 2051,
      "tab": 2052,
      "test": 2053,
      "usu": 2054,
      "vir": 2055,
      "vase": 2056,
      "yell": 2057,
      "zza": 2058,
      "ance": 2059,
      "ineas": 2060,
      "resta": 2061,
      "republic": 2062,
      "resul": 2063,
      "ising": 2064,
      "arch": 2065,
      "arrest": 2066,
      "lea": 2067,
      "lead": 2068,
      "heart": 2069,
      "beef": 2070,
      "iced": 2071,
      "ically": 2072,
      "seus": 2073,
      "seum": 2074,
      "jose": 2075,
      "metal": 2076,
      "illi": 2077,
      "lies": 2078,
      "nose": 2079,
      "ady": 2080,
      "married": 2081,
      "market": 2082,
      "lodged": 2083,
      "movi": 2084,
      "ute": 2085,
      "doll": 2086,
      "docum": 2087,
      "web": 2088,
      "pet": 2089,
      "pect": 2090,
      "pelted": 2091,
      "cow": 2092,
      "uncle": 2093,
      "abroad": 2094,
      "acked": 2095,
      "suspe": 2096,
      "sugg": 2097,
      "pop": 2098,
      "ainted": 2099,
      "noticed": 2100,
      "ressed": 2101,
      "prov": 2102,
      "team": 2103,
      "ils": 2104,
      "studied": 2105,
      "cei": 2106,
      "exce": 2107,
      "museum": 2108,
      "shut": 2109,
      "shipped": 2110,
      "pper": 2111,
      "carri": 2112,
      "que": 2113,
      "ends": 2114,
      "estic": 2115,
      "built": 2116,
      "prison": 2117,
      "prescri": 2118,
      "offended": 2119,
      "urant": 2120,
      "vien": 2121,
      "wonders": 2122,
      "couldn": 2123,
      "screw": 2124,
      "problems": 2125,
      "clever": 2126,
      "paid": 2127,
      "phone": 2128,
      "phys": 2129,
      "phineas": 2130,
      "cuts": 2131,
      "janet": 2132,
      "chocol": 2133,
      "teaching": 2134,
      "barn": 2135,
      "truffles": 2136,
      "gged": 2137,
      "glad": 2138,
      "hung": 2139,
      "magaz": 2140,
      "sunday": 2141,
      "gives": 2142,
      "pizza": 2143,
      "says": 2144,
      "wait": 2145,
      "painting": 2146,
      "report": 2147,
      "ront": 2148,
      "expectations": 2149,
      "buttered": 2150,
      "dale": 2151,
      "wrong": 2152,
      "interview": 2153,
      "announ": 2154,
      "prince": 2155,
      "prouder": 2156,
      "snowed": 2157,
      "alien": 2158,
      "beaten": 2159,
      "stream": 2160,
      "murder": 2161,
      "lawyer": 2162,
      "owners": 2163,
      "statement": 2164,
      "bothers": 2165,
      "decide": 2166,
      "constant": 2167,
      "birth": 2168,
      "zabeth": 2169,
      "americ": 2170,
      "robin": 2171,
      "praised": 2172,
      "music": 2173,
      "serious": 2174,
      "succum": 2175,
      "photo": 2176,
      "removed": 2177,
      "phili": 2178,
      "cuit": 2179,
      "begin": 2180,
      "peaches": 2181,
      "description": 2182,
      "family": 2183,
      "taste": 2184,
      "recommended": 2185,
      "started": 2186,
      "imagine": 2187,
      "pocket": 2188,
      "russian": 2189,
      "cheryl": 2190,
      "intense": 2191,
      "majestic": 2192,
      "vacation": 2193,
      "stupid": 2194,
      "newspaper": 2195,
      "spanked": 2196,
      "available": 2197,
      "beautif": 2198,
      "figured": 2199,
      "dorothy": 2200,
      "elizabeth": 2201,
      "snake": 2202,
      "restaurant": 2203,
      "movies": 2204,
      "100": 2205,
      "bbl": 2206,
      "cha": 2207,
      "cab": 2208,
      "du": 2209,
      "dre": 2210,
      "die": 2211,
      "dum": 2212,
      "dia": 2213,
      "danger": 2214,
      "dressed": 2215,
      "fine": 2216,
      "gs": 2217,
      "gro": 2218,
      "gum": 2219,
      "hid": 2220,
      "io": 2221,
      "iest": 2222,
      "itor": 2223,
      "iot": 2224,
      "jer": 2225,
      "jake": 2226,
      "lvi": 2227,
      "line": 2228,
      "lady": 2229,
      "mine": 2230,
      "ology": 2231,
      "pond": 2232,
      "rist": 2233,
      "sir": 2234,
      "tes": 2235,
      "uary": 2236,
      "witch": 2237,
      "zz": 2238,
      "ane": 2239,
      "ank": 2240,
      "incl": 2241,
      "inspe": 2242,
      "tore": 2243,
      "tonight": 2244,
      "atives": 2245,
      "recoun": 2246,
      "recei": 2247,
      "outh": 2248,
      "enth": 2249,
      "ences": 2250,
      "arran": 2251,
      "argum": 2252,
      "lec": 2253,
      "height": 2254,
      "heather": 2255,
      "beans": 2256,
      "sees": 2257,
      "rog": 2258,
      "rode": 2259,
      "illy": 2260,
      "stal": 2261,
      "stru": 2262,
      "stayed": 2263,
      "stuff": 2264,
      "stances": 2265,
      "haps": 2266,
      "change": 2267,
      "christ": 2268,
      "lived": 2269,
      "lives": 2270,
      "bomb": 2271,
      "noxious": 2272,
      "along": 2273,
      "already": 2274,
      "althy": 2275,
      "marian": 2276,
      "marath": 2277,
      "marbles": 2278,
      "lost": 2279,
      "loped": 2280,
      "loaned": 2281,
      "lydia": 2282,
      "kets": 2283,
      "forgot": 2284,
      "cops": 2285,
      "tern": 2286,
      "unte": 2287,
      "aband": 2288,
      "ache": 2289,
      "ago": 2290,
      "hote": 2291,
      "hoped": 2292,
      "neut": 2293,
      "god": 2294,
      "without": 2295,
      "uses": 2296,
      "resigned": 2297,
      "caught": 2298,
      "depressed": 2299,
      "definite": 2300,
      "cel": 2301,
      "exha": 2302,
      "ateful": 2303,
      "stolen": 2304,
      "felic": 2305,
      "felt": 2306,
      "foot": 2307,
      "parcel": 2308,
      "word": 2309,
      "worry": 2310,
      "rub": 2311,
      "coming": 2312,
      "rail": 2313,
      "umpire": 2314,
      "perhaps": 2315,
      "brave": 2316,
      "brilli": 2317,
      "grateful": 2318,
      "happiest": 2319,
      "fair": 2320,
      "dana": 2321,
      "forest": 2322,
      "scient": 2323,
      "gued": 2324,
      "earth": 2325,
      "obnoxious": 2326,
      "sank": 2327,
      "mention": 2328,
      "seek": 2329,
      "buys": 2330,
      "january": 2331,
      "trying": 2332,
      "ipment": 2333,
      "elliot": 2334,
      "position": 2335,
      "runs": 2336,
      "louise": 2337,
      "sung": 2338,
      "pilot": 2339,
      "mater": 2340,
      "writer": 2341,
      "writing": 2342,
      "writers": 2343,
      "tough": 2344,
      "considers": 2345,
      "dropped": 2346,
      "green": 2347,
      "covers": 2348,
      "lettering": 2349,
      "persuade": 2350,
      "sonat": 2351,
      "whisky": 2352,
      "doctors": 2353,
      "relies": 2354,
      "sylvi": 2355,
      "fellow": 2356,
      "swam": 2357,
      "bush": 2358,
      "drives": 2359,
      "cookies": 2360,
      "contributed": 2361,
      "cupboard": 2362,
      "chairman": 2363,
      "interest": 2364,
      "blood": 2365,
      "halfway": 2366,
      "hammer": 2367,
      "folk": 2368,
      "birds": 2369,
      "branches": 2370,
      "dragons": 2371,
      "remembered": 2372,
      "funne": 2373,
      "criticism": 2374,
      "listens": 2375,
      "italy": 2376,
      "treaty": 2377,
      "equipment": 2378,
      "pounds": 2379,
      "conference": 2380,
      "volunte": 2381,
      "enjoyed": 2382,
      "admired": 2383,
      "article": 2384,
      "demon": 2385,
      "summer": 2386,
      "scribed": 2387,
      "humans": 2388,
      "sofa": 2389,
      "completely": 2390,
      "awful": 2391,
      "sincer": 2392,
      "records": 2393,
      "devoured": 2394,
      "graduate": 2395,
      "europe": 2396,
      "judge": 2397,
      "mirror": 2398,
      "information": 2399,
      "acorns": 2400,
      "defend": 2401,
      "smokes": 2402,
      "churchill": 2403,
      "contract": 2404,
      "short": 2405,
      "squander": 2406,
      "director": 2407,
      "evidence": 2408,
      "palace": 2409,
      "results": 2410,
      "carrie": 2411,
      "prescribes": 2412,
      "vienna": 2413,
      "magazine": 2414,
      "americans": 2415,
      "bbling": 2416,
      "dangerous": 2417,
      "recounted": 2418,
      "marathon": 2419,
      "hotel": 2420,
      "definitely": 2421,
      "felicia": 2422,
      "brilliant": 2423,
      "elliott": 2424,
      "sylvia": 2425,
      "volunteers": 2426,
      "ale": 2427,
      "bin": 2428,
      "bly": 2429,
      "cun": 2430,
      "cts": 2431,
      "cast": 2432,
      "cour": 2433,
      "dle": 2434,
      "dred": 2435,
      "dough": 2436,
      "dru": 2437,
      "dur": 2438,
      "elf": 2439,
      "echo": 2440,
      "fres": 2441,
      "fers": 2442,
      "fla": 2443,
      "freed": 2444,
      "fainted": 2445,
      "front": 2446,
      "gill": 2447,
      "gif": 2448,
      "gree": 2449,
      "hous": 2450,
      "iast": 2451,
      "ience": 2452,
      "ka": 2453,
      "kate": 2454,
      "karen": 2455,
      "lay": 2456,
      "mun": 2457,
      "mouth": 2458,
      "nit": 2459,
      "named": 2460,
      "ore": 2461,
      "pher": 2462,
      "pted": 2463,
      "pts": 2464,
      "poked": 2465,
      "rac": 2466,
      "smar": 2467,
      "swe": 2468,
      "scar": 2469,
      "sive": 2470,
      "spark": 2471,
      "tag": 2472,
      "tick": 2473,
      "ub": 2474,
      "uc": 2475,
      "wif": 2476,
      "wide": 2477,
      "xes": 2478,
      "yol": 2479,
      "insu": 2480,
      "iness": 2481,
      "toast": 2482,
      "tour": 2483,
      "reg": 2484,
      "rese": 2485,
      "reach": 2486,
      "ises": 2487,
      "once": 2488,
      "ouble": 2489,
      "ene": 2490,
      "assed": 2491,
      "beach": 2492,
      "becomes": 2493,
      "itted": 2494,
      "semin": 2495,
      "roger": 2496,
      "romans": 2497,
      "megan": 2498,
      "ider": 2499,
      "stacy": 2500,
      "chick": 2501,
      "also": 2502,
      "altern": 2503,
      "allow": 2504,
      "lower": 2505,
      "ayala": 2506,
      "weight": 2507,
      "weigh": 2508,
      "fortable": 2509,
      "pete": 2510,
      "unlikely": 2511,
      "unhappy": 2512,
      "irs": 2513,
      "amoun": 2514,
      "hersc": 2515,
      "agree": 2516,
      "agreed": 2517,
      "ney": 2518,
      "power": 2519,
      "apes": 2520,
      "approve": 2521,
      "appoin": 2522,
      "using": 2523,
      "usiast": 2524,
      "proclaimed": 2525,
      "tea": 2526,
      "ilar": 2527,
      "tuesday": 2528,
      "deed": 2529,
      "deal": 2530,
      "delic": 2531,
      "everything": 2532,
      "somebody": 2533,
      "stories": 2534,
      "wouldn": 2535,
      "pleased": 2536,
      "endor": 2537,
      "foxes": 2538,
      "rance": 2539,
      "comer": 2540,
      "comfortable": 2541,
      "mail": 2542,
      "icks": 2543,
      "olved": 2544,
      "wore": 2545,
      "ulars": 2546,
      "ively": 2547,
      "blan": 2548,
      "blamed": 2549,
      "shouldn": 2550,
      "bring": 2551,
      "bricks": 2552,
      "tablets": 2553,
      "graph": 2554,
      "clue": 2555,
      "sentences": 2556,
      "spent": 2557,
      "scr": 2558,
      "fright": 2559,
      "trouble": 2560,
      "dogs": 2561,
      "seeing": 2562,
      "polished": 2563,
      "teachers": 2564,
      "counter": 2565,
      "glar": 2566,
      "glass": 2567,
      "horiz": 2568,
      "longer": 2569,
      "shoes": 2570,
      "plane": 2571,
      "planted": 2572,
      "geni": 2573,
      "hundred": 2574,
      "magic": 2575,
      "penc": 2576,
      "penny": 2577,
      "giving": 2578,
      "check": 2579,
      "waffles": 2580,
      "square": 2581,
      "sleeps": 2582,
      "hardly": 2583,
      "hardest": 2584,
      "oneself": 2585,
      "burn": 2586,
      "driven": 2587,
      "higher": 2588,
      "contin": 2589,
      "spot": 2590,
      "invaded": 2591,
      "involved": 2592,
      "learn": 2593,
      "learning": 2594,
      "stairs": 2595,
      "cial": 2596,
      "relatives": 2597,
      "hoping": 2598,
      "nibbled": 2599,
      "eiform": 2600,
      "miss": 2601,
      "partic": 2602,
      "guards": 2603,
      "slid": 2604,
      "advant": 2605,
      "subject": 2606,
      "confuse": 2607,
      "vote": 2608,
      "thorough": 2609,
      "bike": 2610,
      "similar": 2611,
      "collect": 2612,
      "annoy": 2613,
      "conferred": 2614,
      "passed": 2615,
      "enjoy": 2616,
      "scratched": 2617,
      "scratches": 2618,
      "articles": 2619,
      "oculars": 2620,
      "loudly": 2621,
      "bathtub": 2622,
      "12th": 2623,
      "later": 2624,
      "puppy": 2625,
      "vored": 2626,
      "travel": 2627,
      "banana": 2628,
      "tickets": 2629,
      "tasty": 2630,
      "detached": 2631,
      "avoid": 2632,
      "mixture": 2633,
      "athena": 2634,
      "vanished": 2635,
      "squirrel": 2636,
      "darkness": 2637,
      "manuscripts": 2638,
      "embarrassed": 2639,
      "drawer": 2640,
      "fatter": 2641,
      "republican": 2642,
      "arrested": 2643,
      "physics": 2644,
      "chocolate": 2645,
      "birthday": 2646,
      "cabled": 2647,
      "received": 2648,
      "enthusiast": 2649,
      "argument": 2650,
      "marianne": 2651,
      "abandoned": 2652,
      "binoculars": 2653,
      "cuneiform": 2654,
      "during": 2655,
      "flavored": 2656,
      "sparkled": 2657,
      "wife": 2658,
      "weighed": 2659,
      "herschel": 2660,
      "delicious": 2661,
      "horizon": 2662,
      "1000": 2663,
      "400": 2664,
      "50": 2665,
      "aud": 2666,
      "atoes": 2667,
      "bas": 2668,
      "bour": 2669,
      "borrow": 2670,
      "bright": 2671,
      "cran": 2672,
      "cul": 2673,
      "cia": 2674,
      "cson": 2675,
      "camer": 2676,
      "eyes": 2677,
      "fif": 2678,
      "fought": 2679,
      "fur": 2680,
      "filing": 2681,
      "gon": 2682,
      "gers": 2683,
      "gary": 2684,
      "grew": 2685,
      "gress": 2686,
      "hy": 2687,
      "hide": 2688,
      "hired": 2689,
      "ii": 2690,
      "ither": 2691,
      "ker": 2692,
      "knight": 2693,
      "lished": 2694,
      "liday": 2695,
      "lilly": 2696,
      "map": 2697,
      "nal": 2698,
      "oliver": 2699,
      "ping": 2700,
      "pine": 2701,
      "ral": 2702,
      "rick": 2703,
      "raged": 2704,
      "rude": 2705,
      "ss": 2706,
      "sword": 2707,
      "twent": 2708,
      "ust": 2709,
      "uli": 2710,
      "wich": 2711,
      "wick": 2712,
      "thin": 2713,
      "thom": 2714,
      "ini": 2715,
      "inched": 2716,
      "error": 2717,
      "toward": 2718,
      "return": 2719,
      "reheat": 2720,
      "issu": 2721,
      "ona": 2722,
      "onions": 2723,
      "ari": 2724,
      "argued": 2725,
      "ash": 2726,
      "ashed": 2727,
      "esa": 2728,
      "order": 2729,
      "lew": 2730,
      "lebr": 2731,
      "bel": 2732,
      "beha": 2733,
      "belong": 2734,
      "begged": 2735,
      "item": 2736,
      "icago": 2737,
      "sele": 2738,
      "rot": 2739,
      "rose": 2740,
      "mel": 2741,
      "meets": 2742,
      "andrew": 2743,
      "chicago": 2744,
      "lied": 2745,
      "liber": 2746,
      "imately": 2747,
      "impossible": 2748,
      "impressed": 2749,
      "wasn": 2750,
      "alan": 2751,
      "alone": 2752,
      "ado": 2753,
      "mara": 2754,
      "maria": 2755,
      "loso": 2756,
      "loaf": 2757,
      "lying": 2758,
      "kelly": 2759,
      "rif": 2760,
      "motor": 2761,
      "uttered": 2762,
      "ween": 2763,
      "weather": 2764,
      "wealthy": 2765,
      "terrier": 2766,
      "untered": 2767,
      "irrit": 2768,
      "amused": 2769,
      "hero": 2770,
      "homer": 2771,
      "holiday": 2772,
      "net": 2773,
      "neck": 2774,
      "neigh": 2775,
      "neither": 2776,
      "gobbling": 2777,
      "super": 2778,
      "area": 2779,
      "appl": 2780,
      "sheep": 2781,
      "sauntered": 2782,
      "prote": 2783,
      "project": 2784,
      "teen": 2785,
      "tele": 2786,
      "caused": 2787,
      "cauli": 2788,
      "tucson": 2789,
      "plate": 2790,
      "plant": 2791,
      "plings": 2792,
      "dean": 2793,
      "depos": 2794,
      "depart": 2795,
      "celia": 2796,
      "celebr": 2797,
      "concl": 2798,
      "consul": 2799,
      "exist": 2800,
      "exact": 2801,
      "shir": 2802,
      "sometimes": 2803,
      "cart": 2804,
      "lake": 2805,
      "fear": 2806,
      "fewer": 2807,
      "tomatoes": 2808,
      "bully": 2809,
      "worth": 2810,
      "rumor": 2811,
      "ruction": 2812,
      "ign": 2813,
      "making": 2814,
      "taking": 2815,
      "tamara": 2816,
      "women": 2817,
      "torn": 2818,
      "ular": 2819,
      "raff": 2820,
      "blue": 2821,
      "yourselves": 2822,
      "wned": 2823,
      "offic": 2824,
      "offers": 2825,
      "winked": 2826,
      "winner": 2827,
      "jection": 2828,
      "grade": 2829,
      "grunt": 2830,
      "medal": 2831,
      "nathan": 2832,
      "wondering": 2833,
      "prefers": 2834,
      "spread": 2835,
      "jured": 2836,
      "distur": 2837,
      "omni": 2838,
      "scene": 2839,
      "clean": 2840,
      "bery": 2841,
      "phon": 2842,
      "janitor": 2843,
      "monday": 2844,
      "chosen": 2845,
      "patrick": 2846,
      "flag": 2847,
      "truman": 2848,
      "attempt": 2849,
      "single": 2850,
      "shot": 2851,
      "planned": 2852,
      "examined": 2853,
      "hunts": 2854,
      "maged": 2855,
      "magician": 2856,
      "bake": 2857,
      "surprising": 2858,
      "intimately": 2859,
      "wears": 2860,
      "reporters": 2861,
      "calcul": 2862,
      "rights": 2863,
      "otto": 2864,
      "destruction": 2865,
      "swinger": 2866,
      "burglar": 2867,
      "drive": 2868,
      "chairs": 2869,
      "helpful": 2870,
      "stakes": 2871,
      "between": 2872,
      "prints": 2873,
      "crazier": 2874,
      "evil": 2875,
      "keeps": 2876,
      "tigers": 2877,
      "effect": 2878,
      "criticized": 2879,
      "voted": 2880,
      "robbery": 2881,
      "discussion": 2882,
      "boring": 2883,
      "drying": 2884,
      "mush": 2885,
      "collection": 2886,
      "success": 2887,
      "treats": 2888,
      "equipped": 2889,
      "richard": 2890,
      "employe": 2891,
      "depends": 2892,
      "philoso": 2893,
      "charac": 2894,
      "badly": 2895,
      "mountains": 2896,
      "baseball": 2897,
      "fingerprints": 2898,
      "sandwich": 2899,
      "admire": 2900,
      "admires": 2901,
      "gorgon": 2902,
      "victim": 2903,
      "yawned": 2904,
      "terrible": 2905,
      "feeling": 2906,
      "rummaged": 2907,
      "shoveled": 2908,
      "introduce": 2909,
      "potent": 2910,
      "safely": 2911,
      "plums": 2912,
      "explained": 2913,
      "valuable": 2914,
      "authorities": 2915,
      "pudding": 2916,
      "appreciates": 2917,
      "tabs": 2918,
      "usually": 2919,
      "documents": 2920,
      "webster": 2921,
      "suggestion": 2922,
      "murderer": 2923,
      "constantly": 2924,
      "photograph": 2925,
      "philipp": 2926,
      "dumplings": 2927,
      "grocer": 2928,
      "struck": 2929,
      "material": 2930,
      "sonatas": 2931,
      "funneled": 2932,
      "gillian": 2933,
      "gift": 2934,
      "houses": 2935,
      "sweat": 2936,
      "yolk": 2937,
      "insurance": 2938,
      "seminar": 2939,
      "amounts": 2940,
      "endorse": 2941,
      "blanket": 2942,
      "pencil": 2943,
      "continu": 2944,
      "advantage": 2945,
      "bourg": 2946,
      "borrowed": 2947,
      "camera": 2948,
      "knightley": 2949,
      "twenty": 2950,
      "wickham": 2951,
      "thomas": 2952,
      "issues": 2953,
      "neighbor": 2954,
      "cauliflower": 2955,
      "deposited": 2956,
      "department": 2957,
      "celebrity": 2958,
      "exactly": 2959,
      "omnipotent": 2960,
      "philosopher": 2961,
      "500": 2962,
      "aked": 2963,
      "aking": 2964,
      "award": 2965,
      "bat": 2966,
      "bac": 2967,
      "bage": 2968,
      "cried": 2969,
      "cip": 2970,
      "craw": 2971,
      "drow": 2972,
      "dess": 2973,
      "eves": 2974,
      "eye": 2975,
      "eloped": 2976,
      "fab": 2977,
      "fast": 2978,
      "fian": 2979,
      "four": 2980,
      "fbi": 2981,
      "flies": 2982,
      "gw": 2983,
      "hi": 2984,
      "kill": 2985,
      "lin": 2986,
      "lor": 2987,
      "lam": 2988,
      "lace": 2989,
      "mas": 2990,
      "mes": 2991,
      "mbled": 2992,
      "pur": 2993,
      "signed": 2994,
      "sign": 2995,
      "tem": 2996,
      "ug": 2997,
      "uation": 2998,
      "uine": 2999,
      "vam": 3000,
      "wers": 3001,
      "ths": 3002,
      "edna": 3003,
      "anxious": 3004,
      "independ": 3005,
      "inscribed": 3006,
      "tool": 3007,
      "real": 3008,
      "relu": 3009,
      "represented": 3010,
      "reply": 3011,
      "isel": 3012,
      "ission": 3013,
      "onset": 3014,
      "ense": 3015,
      "arity": 3016,
      "arched": 3017,
      "lla": 3018,
      "lls": 3019,
      "asure": 3020,
      "ested": 3021,
      "lem": 3022,
      "least": 3023,
      "lemon": 3024,
      "helle": 3025,
      "bell": 3026,
      "itar": 3027,
      "icine": 3028,
      "icop": 3029,
      "ingly": 3030,
      "ingdale": 3031,
      "secon": 3032,
      "searched": 3033,
      "rolling": 3034,
      "veget": 3035,
      "mez": 3036,
      "meant": 3037,
      "andra": 3038,
      "ida": 3039,
      "idge": 3040,
      "ills": 3041,
      "illes": 3042,
      "strang": 3043,
      "hael": 3044,
      "chisel": 3045,
      "living": 3046,
      "ented": 3047,
      "enter": 3048,
      "improve": 3049,
      "bow": 3050,
      "nothing": 3051,
      "noise": 3052,
      "alo": 3053,
      "alous": 3054,
      "ghter": 3055,
      "mart": 3056,
      "march": 3057,
      "loren": 3058,
      "lock": 3059,
      "kevin": 3060,
      "moment": 3061,
      "moya": 3062,
      "forced": 3063,
      "soaked": 3064,
      "cot": 3065,
      "coiled": 3066,
      "copy": 3067,
      "term": 3068,
      "ung": 3069,
      "unsal": 3070,
      "unclear": 3071,
      "ables": 3072,
      "absolut": 3073,
      "actu": 3074,
      "acce": 3075,
      "acqu": 3076,
      "acula": 3077,
      "ami": 3078,
      "among": 3079,
      "hera": 3080,
      "golf": 3081,
      "gobbled": 3082,
      "gomez": 3083,
      "pole": 3084,
      "therine": 3085,
      "apsed": 3086,
      "uded": 3087,
      "ush": 3088,
      "upper": 3089,
      "upside": 3090,
      "notes": 3091,
      "respect": 3092,
      "proves": 3093,
      "probab": 3094,
      "ders": 3095,
      "catherine": 3096,
      "tuce": 3097,
      "tured": 3098,
      "tuxed": 3099,
      "cee": 3100,
      "concer": 3101,
      "convic": 3102,
      "readable": 3103,
      "belief": 3104,
      "myster": 3105,
      "iff": 3106,
      "ified": 3107,
      "excess": 3108,
      "shi": 3109,
      "shin": 3110,
      "thanked": 3111,
      "stop": 3112,
      "stor": 3113,
      "carry": 3114,
      "quilt": 3115,
      "quonset": 3116,
      "ending": 3117,
      "cannot": 3118,
      "knowled": 3119,
      "bul": 3120,
      "bubbled": 3121,
      "pared": 3122,
      "paris": 3123,
      "price": 3124,
      "rusty": 3125,
      "ctant": 3126,
      "thinking": 3127,
      "iel": 3128,
      "compl": 3129,
      "rowed": 3130,
      "intoned": 3131,
      "essay": 3132,
      "achilles": 3133,
      "rather": 3134,
      "umbre": 3135,
      "peruse": 3136,
      "perseus": 3137,
      "iana": 3138,
      "desire": 3139,
      "wine": 3140,
      "wins": 3141,
      "jewe": 3142,
      "jeeves": 3143,
      "jealous": 3144,
      "grapes": 3145,
      "happier": 3146,
      "answers": 3147,
      "medicine": 3148,
      "cky": 3149,
      "things": 3150,
      "assin": 3151,
      "assassin": 3152,
      "fax": 3153,
      "favor": 3154,
      "floated": 3155,
      "spare": 3156,
      "clock": 3157,
      "daniel": 3158,
      "helicop": 3159,
      "tighter": 3160,
      "disliked": 3161,
      "omingdale": 3162,
      "dracula": 3163,
      "lettuce": 3164,
      "kissing": 3165,
      "guitar": 3166,
      "aker": 3167,
      "fixed": 3168,
      "obtained": 3169,
      "objection": 3170,
      "trade": 3171,
      "understood": 3172,
      "small": 3173,
      "smiled": 3174,
      "spell": 3175,
      "speaking": 3176,
      "polarity": 3177,
      "boxes": 3178,
      "bars": 3179,
      "fluttered": 3180,
      "shaped": 3181,
      "surround": 3182,
      "works": 3183,
      "lovely": 3184,
      "frances": 3185,
      "attacked": 3186,
      "treasure": 3187,
      "rooms": 3188,
      "louder": 3189,
      "telling": 3190,
      "needle": 3191,
      "genuine": 3192,
      "hunting": 3193,
      "sunk": 3194,
      "walt": 3195,
      "chemic": 3196,
      "checking": 3197,
      "matches": 3198,
      "headache": 3199,
      "touch": 3200,
      "relied": 3201,
      "double": 3202,
      "senators": 3203,
      "fancy": 3204,
      "business": 3205,
      "michelle": 3206,
      "burg": 3207,
      "banished": 3208,
      "cooking": 3209,
      "contented": 3210,
      "invite": 3211,
      "situation": 3212,
      "thesis": 3213,
      "looks": 3214,
      "interrog": 3215,
      "spring": 3216,
      "princip": 3217,
      "drinking": 3218,
      "bloomingdale": 3219,
      "studying": 3220,
      "cumstances": 3221,
      "evening": 3222,
      "generally": 3223,
      "missed": 3224,
      "executed": 3225,
      "fund": 3226,
      "mbers": 3227,
      "garage": 3228,
      "logs": 3229,
      "praise": 3230,
      "discuss": 3231,
      "serv": 3232,
      "simply": 3233,
      "annoys": 3234,
      "greatly": 3235,
      "lions": 3236,
      "contained": 3237,
      "demand": 3238,
      "minded": 3239,
      "friday": 3240,
      "sorry": 3241,
      "thirst": 3242,
      "skyscr": 3243,
      "circuit": 3244,
      "circumstances": 3245,
      "sandra": 3246,
      "travelled": 3247,
      "bananas": 3248,
      "recited": 3249,
      "realize": 3250,
      "alleged": 3251,
      "supported": 3252,
      "rumbled": 3253,
      "introduced": 3254,
      "regretted": 3255,
      "gently": 3256,
      "taped": 3257,
      "refused": 3258,
      "chatted": 3259,
      "electrode": 3260,
      "swimming": 3261,
      "middle": 3262,
      "suspected": 3263,
      "provided": 3264,
      "queen": 3265,
      "hungry": 3266,
      "waiting": 3267,
      "interviewed": 3268,
      "succumb": 3269,
      "beginning": 3270,
      "beautiful": 3271,
      "jerry": 3272,
      "tessa": 3273,
      "arranged": 3274,
      "lecture": 3275,
      "neutral": 3276,
      "exhaust": 3277,
      "football": 3278,
      "fairfax": 3279,
      "interesting": 3280,
      "demonized": 3281,
      "echoed": 3282,
      "fresh": 3283,
      "niture": 3284,
      "rachel": 3285,
      "tourists": 3286,
      "appointed": 3287,
      "enthusiastically": 3288,
      "craned": 3289,
      "furniture": 3290,
      "maple": 3291,
      "rifles": 3292,
      "irritating": 3293,
      "apples": 3294,
      "conclus": 3295,
      "phonology": 3296,
      "employees": 3297,
      "victims": 3298,
      "fiancee": 3299,
      "gwen": 3300,
      "reluctant": 3301,
      "unsalted": 3302,
      "absolutely": 3303,
      "probably": 3304,
      "tuxedo": 3305,
      "umbrella": 3306,
      "surrounded": 3307,
      "chemical": 3308,
      "principal": 3309,
      "skyscraper": 3310,
      "neutralised": 3311,
      "exhaustion": 3312,
      "''": 3313,
      "11": 3314,
      "``": 3315,
      "aq": 3316,
      "aff": 3317,
      "ahead": 3318,
      "bis": 3319,
      "bing": 3320,
      "bare": 3321,
      "bond": 3322,
      "bunk": 3323,
      "banged": 3324,
      "boned": 3325,
      "cof": 3326,
      "cill": 3327,
      "cred": 3328,
      "caspar": 3329,
      "dave": 3330,
      "dated": 3331,
      "dled": 3332,
      "draw": 3333,
      "dgers": 3334,
      "diana": 3335,
      "ee": 3336,
      "fre": 3337,
      "fall": 3338,
      "face": 3339,
      "farm": 3340,
      "factor": 3341,
      "ges": 3342,
      "gun": 3343,
      "gie": 3344,
      "gian": 3345,
      "gushed": 3346,
      "hic": 3347,
      "hut": 3348,
      "hip": 3349,
      "ix": 3350,
      "ime": 3351,
      "ili": 3352,
      "ize": 3353,
      "jour": 3354,
      "jona": 3355,
      "kore": 3356,
      "las": 3357,
      "lap": 3358,
      "lora": 3359,
      "mad": 3360,
      "matt": 3361,
      "mbed": 3362,
      "nut": 3363,
      "none": 3364,
      "nations": 3365,
      "nesday": 3366,
      "oy": 3367,
      "omed": 3368,
      "pes": 3369,
      "pir": 3370,
      "pav": 3371,
      "pitch": 3372,
      "pburn": 3373,
      "rare": 3374,
      "rate": 3375,
      "rage": 3376,
      "sli": 3377,
      "sil": 3378,
      "swan": 3379,
      "snif": 3380,
      "tn": 3381,
      "tly": 3382,
      "tri": 3383,
      "tess": 3384,
      "tlet": 3385,
      "tics": 3386,
      "tired": 3387,
      "tfield": 3388,
      "tends": 3389,
      "ume": 3390,
      "ully": 3391,
      "ubert": 3392,
      "valle": 3393,
      "wid": 3394,
      "wri": 3395,
      "ware": 3396,
      "wise": 3397,
      "warm": 3398,
      "wanda": 3399,
      "xon": 3400,
      "yates": 3401,
      "zes": 3402,
      "zie": 3403,
      "zuc": 3404,
      "thur": 3405,
      "another": 3406,
      "inent": 3407,
      "indeed": 3408,
      "injured": 3409,
      "incred": 3410,
      "tower": 3411,
      "toni": 3412,
      "attor": 3413,
      "remar": 3414,
      "refer": 3415,
      "recent": 3416,
      "issue": 3417,
      "onia": 3418,
      "enem": 3419,
      "enix": 3420,
      "arcy": 3421,
      "arot": 3422,
      "llow": 3423,
      "assu": 3424,
      "asks": 3425,
      "esar": 3426,
      "ests": 3427,
      "oration": 3428,
      "held": 3429,
      "hepburn": 3430,
      "bear": 3431,
      "behave": 3432,
      "betr": 3433,
      "whipped": 3434,
      "ict": 3435,
      "selling": 3436,
      "roo": 3437,
      "rosa": 3438,
      "vehic": 3439,
      "meal": 3440,
      "oft": 3441,
      "sters": 3442,
      "stink": 3443,
      "stran": 3444,
      "stra": 3445,
      "stree": 3446,
      "haun": 3447,
      "haggled": 3448,
      "chess": 3449,
      "chines": 3450,
      "chini": 3451,
      "lix": 3452,
      "liqu": 3453,
      "entered": 3454,
      "imin": 3455,
      "waste": 3456,
      "nove": 3457,
      "alth": 3458,
      "vered": 3459,
      "ads": 3460,
      "marble": 3461,
      "lots": 3462,
      "loose": 3463,
      "keted": 3464,
      "mos": 3465,
      "moon": 3466,
      "moved": 3467,
      "uters": 3468,
      "dodgers": 3469,
      "ford": 3470,
      "sox": 3471,
      "soared": 3472,
      "peered": 3473,
      "teresa": 3474,
      "uni": 3475,
      "unts": 3476,
      "unknown": 3477,
      "manner": 3478,
      "irdre": 3479,
      "iraq": 3480,
      "aces": 3481,
      "billy": 3482,
      "billed": 3483,
      "willough": 3484,
      "hosp": 3485,
      "nel": 3486,
      "gods": 3487,
      "sulted": 3488,
      "suzie": 3489,
      "poor": 3490,
      "posed": 3491,
      "poet": 3492,
      "point": 3493,
      "therap": 3494,
      "notice": 3495,
      "emily": 3496,
      "empted": 3497,
      "tec": 3498,
      "cakes": 3499,
      "cathy": 3500,
      "caesar": 3501,
      "plans": 3502,
      "outrage": 3503,
      "deer": 3504,
      "deve": 3505,
      "devious": 3506,
      "deliver": 3507,
      "deirdre": 3508,
      "conven": 3509,
      "confir": 3510,
      "concent": 3511,
      "conserv": 3512,
      "geon": 3513,
      "excl": 3514,
      "expen": 3515,
      "exchanged": 3516,
      "erson": 3517,
      "pping": 3518,
      "carves": 3519,
      "carson": 3520,
      "carrot": 3521,
      "antically": 3522,
      "fee": 3523,
      "felix": 3524,
      "canals": 3525,
      "estab": 3526,
      "follow": 3527,
      "buzz": 3528,
      "worried": 3529,
      "iceland": 3530,
      "odys": 3531,
      "compet": 3532,
      "makes": 3533,
      "maure": 3534,
      "blond": 3535,
      "easter": 3536,
      "brushed": 3537,
      "bridge": 3538,
      "vior": 3539,
      "jected": 3540,
      "tabletop": 3541,
      "grant": 3542,
      "grass": 3543,
      "group": 3544,
      "reeked": 3545,
      "happily": 3546,
      "ational": 3547,
      "ffed": 3548,
      "ffic": 3549,
      "catch": 3550,
      "cattle": 3551,
      "wonderful": 3552,
      "clad": 3553,
      "club": 3554,
      "assist": 3555,
      "tender": 3556,
      "faith": 3557,
      "whenever": 3558,
      "broken": 3559,
      "watched": 3560,
      "watered": 3561,
      "donna": 3562,
      "spider": 3563,
      "juli": 3564,
      "gotten": 3565,
      "cora": 3566,
      "hartfield": 3567,
      "type": 3568,
      "playw": 3569,
      "dislikes": 3570,
      "disgrunt": 3571,
      "cleaned": 3572,
      "guys": 3573,
      "guests": 3574,
      "aks": 3575,
      "fiat": 3576,
      "object": 3577,
      "wentworth": 3578,
      "trim": 3579,
      "claims": 3580,
      "dying": 3581,
      "smashed": 3582,
      "smission": 3583,
      "wheat": 3584,
      "creep": 3585,
      "arriving": 3586,
      "barked": 3587,
      "bartlet": 3588,
      "flute": 3589,
      "county": 3590,
      "attributed": 3591,
      "attempted": 3592,
      "finally": 3593,
      "downtown": 3594,
      "shocked": 3595,
      "shocking": 3596,
      "flyer": 3597,
      "parker": 3598,
      "presents": 3599,
      "election": 3600,
      "maggie": 3601,
      "walking": 3602,
      "nerve": 3603,
      "pies": 3604,
      "pile": 3605,
      "pays": 3606,
      "paying": 3607,
      "paycheck": 3608,
      "bennet": 3609,
      "waved": 3610,
      "pulled": 3611,
      "writes": 3612,
      "builders": 3613,
      "jackie": 3614,
      "squee": 3615,
      "commuters": 3616,
      "rosie": 3617,
      "rosoft": 3618,
      "insist": 3619,
      "sales": 3620,
      "foolish": 3621,
      "taxes": 3622,
      "tions": 3623,
      "busy": 3624,
      "moral": 3625,
      "michael": 3626,
      "microsoft": 3627,
      "perspect": 3628,
      "itching": 3629,
      "kinds": 3630,
      "maintained": 3631,
      "invited": 3632,
      "lley": 3633,
      "string": 3634,
      "mined": 3635,
      "staffed": 3636,
      "spray": 3637,
      "muffin": 3638,
      "printed": 3639,
      "destroy": 3640,
      "blocked": 3641,
      "possibly": 3642,
      "breath": 3643,
      "critics": 3644,
      "stret": 3645,
      "costly": 3646,
      "profits": 3647,
      "nixon": 3648,
      "hamm": 3649,
      "bott": 3650,
      "talkative": 3651,
      "tromb": 3652,
      "larry": 3653,
      "slap": 3654,
      "america": 3655,
      "hurried": 3656,
      "lighted": 3657,
      "discussing": 3658,
      "fedora": 3659,
      "analy": 3660,
      "curred": 3661,
      "curtain": 3662,
      "phoenix": 3663,
      "pounded": 3664,
      "wednesday": 3665,
      "annoyed": 3666,
      "bitten": 3667,
      "pasta": 3668,
      "washing": 3669,
      "politics": 3670,
      "climbed": 3671,
      "occurred": 3672,
      "schubert": 3673,
      "began": 3674,
      "describe": 3675,
      "jefferson": 3676,
      "visiting": 3677,
      "investigating": 3678,
      "frantically": 3679,
      "famous": 3680,
      "third": 3681,
      "thirty": 3682,
      "recommend": 3683,
      "pocketed": 3684,
      "niece": 3685,
      "record": 3686,
      "holding": 3687,
      "emptied": 3688,
      "doubtful": 3689,
      "accountants": 3690,
      "sounded": 3691,
      "ticket": 3692,
      "transmission": 3693,
      "support": 3694,
      "feels": 3695,
      "pretend": 3696,
      "pretty": 3697,
      "watching": 3698,
      "avoided": 3699,
      "crimin": 3700,
      "fields": 3701,
      "gentle": 3702,
      "lunch": 3703,
      "lunched": 3704,
      "radio": 3705,
      "sinking": 3706,
      "explosion": 3707,
      "exploded": 3708,
      "grandfather": 3709,
      "crystal": 3710,
      "yelled": 3711,
      "leader": 3712,
      "dollars": 3713,
      "except": 3714,
      "announce": 3715,
      "announced": 3716,
      "alienated": 3717,
      "alienates": 3718,
      "intensely": 3719,
      "beautifully": 3720,
      "chal": 3721,
      "dream": 3722,
      "inspector": 3723,
      "stuffed": 3724,
      "christmas": 3725,
      "forgotten": 3726,
      "goddess": 3727,
      "worrying": 3728,
      "mentioned": 3729,
      "bushes": 3730,
      "sincerity": 3731,
      "sincerely": 3732,
      "alex": 3733,
      "course": 3734,
      "drugs": 3735,
      "greek": 3736,
      "kathy": 3737,
      "munched": 3738,
      "tagalo": 3739,
      "tickling": 3740,
      "reached": 3741,
      "alternate": 3742,
      "allowed": 3743,
      "dealt": 3744,
      "frightened": 3745,
      "geniuses": 3746,
      "particular": 3747,
      "audience": 3748,
      "fifteen": 3749,
      "towards": 3750,
      "behavior": 3751,
      "items": 3752,
      "select": 3753,
      "necklace": 3754,
      "consult": 3755,
      "shirts": 3756,
      "raffi": 3757,
      "successful": 3758,
      "philippines": 3759,
      "bacon": 3760,
      "lorry": 3761,
      "vampire": 3762,
      "independence": 3763,
      "lemming": 3764,
      "vegetables": 3765,
      "strangers": 3766,
      "bowl": 3767,
      "actually": 3768,
      "convict": 3769,
      "mysterious": 3770,
      "shivered": 3771,
      "knowledge": 3772,
      "jewels": 3773,
      "favorite": 3774,
      "waltzed": 3775,
      "conclusively": 3776,
      "biscuit": 3777,
      "coffee": 3778,
      "factors": 3779,
      "giants": 3780,
      "journal": 3781,
      "jonathan": 3782,
      "pavarot": 3783,
      "silver": 3784,
      "swansong": 3785,
      "sniff": 3786,
      "valley": 3787,
      "widow": 3788,
      "wriggled": 3789,
      "warehouse": 3790,
      "zucchini": 3791,
      "attorney": 3792,
      "betrayed": 3793,
      "vehicles": 3794,
      "stinks": 3795,
      "streets": 3796,
      "haunted": 3797,
      "chinese": 3798,
      "willoughby": 3799,
      "hospital": 3800,
      "outrageous": 3801,
      "concentrate": 3802,
      "conservative": 3803,
      "expensive": 3804,
      "odysseus": 3805,
      "maureen": 3806,
      "disgruntled": 3807,
      "bartlett": 3808,
      "trombone": 3809,
      "tagalog": 3810,
      "pavarotti": 3811,
      "14": 3812,
      "20": 3813,
      "200": 3814,
      "30": 3815,
      "40": 3816,
      "60": 3817,
      "70": 3818,
      "80": 3819,
      "92": 3820,
      "abo": 3821,
      "apo": 3822,
      "alike": 3823,
      "aur": 3824,
      "aquar": 3825,
      "band": 3826,
      "bun": 3827,
      "bud": 3828,
      "bla": 3829,
      "bates": 3830,
      "baker": 3831,
      "cc": 3832,
      "cou": 3833,
      "cit": 3834,
      "cro": 3835,
      "cco": 3836,
      "cate": 3837,
      "cous": 3838,
      "cation": 3839,
      "cds": 3840,
      "crown": 3841,
      "dut": 3842,
      "dir": 3843,
      "date": 3844,
      "ditch": 3845,
      "dash": 3846,
      "eg": 3847,
      "ethe": 3848,
      "effic": 3849,
      "fac": 3850,
      "fil": 3851,
      "filed": 3852,
      "flaw": 3853,
      "flew": 3854,
      "gin": 3855,
      "ging": 3856,
      "gall": 3857,
      "gran": 3858,
      "gsle": 3859,
      "grown": 3860,
      "hing": 3861,
      "hild": 3862,
      "honey": 3863,
      "ires": 3864,
      "ium": 3865,
      "iven": 3866,
      "irely": 3867,
      "ibly": 3868,
      "jig": 3869,
      "kers": 3870,
      "lab": 3871,
      "mp": 3872,
      "mac": 3873,
      "mbles": 3874,
      "nu": 3875,
      "num": 3876,
      "nine": 3877,
      "nip": 3878,
      "owe": 3879,
      "oven": 3880,
      "oting": 3881,
      "oze": 3882,
      "phe": 3883,
      "pse": 3884,
      "pad": 3885,
      "pam": 3886,
      "pne": 3887,
      "pare": 3888,
      "past": 3889,
      "pied": 3890,
      "pinched": 3891,
      "rid": 3892,
      "ray": 3893,
      "sill": 3894,
      "sher": 3895,
      "sight": 3896,
      "snor": 3897,
      "sket": 3898,
      "tv": 3899,
      "twe": 3900,
      "tted": 3901,
      "tight": 3902,
      "tage": 3903,
      "tti": 3904,
      "trail": 3905,
      "ues": 3906,
      "uce": 3907,
      "ually": 3908,
      "uck": 3909,
      "vide": 3910,
      "vaged": 3911,
      "wish": 3912,
      "wip": 3913,
      "wagon": 3914,
      "wilt": 3915,
      "xy": 3916,
      "xem": 3917,
      "yal": 3918,
      "yard": 3919,
      "zer": 3920,
      "zen": 3921,
      "zation": 3922,
      "edge": 3923,
      "edward": 3924,
      "edition": 3925,
      "edmun": 3926,
      "anor": 3927,
      "anied": 3928,
      "anci": 3929,
      "inion": 3930,
      "infl": 3931,
      "insen": 3932,
      "inconven": 3933,
      "incrimin": 3934,
      "ert": 3935,
      "erin": 3936,
      "repe": 3937,
      "relie": 3938,
      "refri": 3939,
      "reason": 3940,
      "regard": 3941,
      "recur": 3942,
      "revol": 3943,
      "reminded": 3944,
      "rejected": 3945,
      "isher": 3946,
      "issa": 3947,
      "isie": 3948,
      "onment": 3949,
      "ouds": 3950,
      "aran": 3951,
      "arer": 3952,
      "arse": 3953,
      "arts": 3954,
      "arrow": 3955,
      "arian": 3956,
      "aria": 3957,
      "arrog": 3958,
      "arthur": 3959,
      "lloy": 3960,
      "aston": 3961,
      "ors": 3962,
      "oria": 3963,
      "orange": 3964,
      "leith": 3965,
      "leigh": 3966,
      "health": 3967,
      "hetti": 3968,
      "becky": 3969,
      "whist": 3970,
      "itish": 3971,
      "itize": 3972,
      "icent": 3973,
      "ical": 3974,
      "ication": 3975,
      "sely": 3976,
      "seman": 3977,
      "sept": 3978,
      "seaf": 3979,
      "roast": 3980,
      "vey": 3981,
      "jogs": 3982,
      "mela": 3983,
      "melon": 3984,
      "andon": 3985,
      "idable": 3986,
      "illip": 3987,
      "stay": 3988,
      "state": 3989,
      "start": 3990,
      "stance": 3991,
      "stub": 3992,
      "chom": 3993,
      "chase": 3994,
      "china": 3995,
      "chili": 3996,
      "chuck": 3997,
      "ential": 3998,
      "entirely": 3999,
      "impe": 4000,
      "boss": 4001,
      "nomin": 4002,
      "alina": 4003,
      "address": 4004,
      "marti": 4005,
      "marlen": 4006,
      "location": 4007,
      "riend": 4008,
      "riot": 4009,
      "rific": 4010,
      "utes": 4011,
      "ution": 4012,
      "dozen": 4013,
      "fork": 4014,
      "fortune": 4015,
      "soy": 4016,
      "cope": 4017,
      "coward": 4018,
      "copied": 4019,
      "terror": 4020,
      "oken": 4021,
      "unusu": 4022,
      "mango": 4023,
      "ably": 4024,
      "absent": 4025,
      "aci": 4026,
      "acket": 4027,
      "accomp": 4028,
      "amuse": 4029,
      "agre": 4030,
      "agen": 4031,
      "aggress": 4032,
      "aghetti": 4033,
      "hoarse": 4034,
      "neg": 4035,
      "nephe": 4036,
      "goss": 4037,
      "sus": 4038,
      "sugar": 4039,
      "pothesis": 4040,
      "ional": 4041,
      "lfth": 4042,
      "lfriend": 4043,
      "appro": 4044,
      "approved": 4045,
      "shelly": 4046,
      "saved": 4047,
      "sail": 4048,
      "saute": 4049,
      "savaged": 4050,
      "ups": 4051,
      "upon": 4052,
      "note": 4053,
      "ember": 4054,
      "eminent": 4055,
      "respond": 4056,
      "promo": 4057,
      "process": 4058,
      "program": 4059,
      "progress": 4060,
      "teles": 4061,
      "ility": 4062,
      "cape": 4063,
      "studies": 4064,
      "pledge": 4065,
      "outcome": 4066,
      "depic": 4067,
      "decl": 4068,
      "decor": 4069,
      "death": 4070,
      "deliber": 4071,
      "delighted": 4072,
      "ceed": 4073,
      "celled": 4074,
      "confl": 4075,
      "consulted": 4076,
      "ific": 4077,
      "frog": 4078,
      "exper": 4079,
      "exists": 4080,
      "shar": 4081,
      "shann": 4082,
      "cars": 4083,
      "carnations": 4084,
      "lawn": 4085,
      "label": 4086,
      "pleas": 4087,
      "quit": 4088,
      "qual": 4089,
      "quie": 4090,
      "fected": 4091,
      "fears": 4092,
      "feared": 4093,
      "canes": 4094,
      "cancelled": 4095,
      "knowing": 4096,
      "ards": 4097,
      "ardy": 4098,
      "worm": 4099,
      "worn": 4100,
      "words": 4101,
      "worded": 4102,
      "ruined": 4103,
      "ignment": 4104,
      "compat": 4105,
      "balls": 4106,
      "ballets": 4107,
      "mao": 4108,
      "maths": 4109,
      "maisie": 4110,
      "angle": 4111,
      "angus": 4112,
      "torped": 4113,
      "essed": 4114,
      "essential": 4115,
      "raise": 4116,
      "raham": 4117,
      "umonia": 4118,
      "girlfriend": 4119,
      "perform": 4120,
      "astro": 4121,
      "shoulder": 4122,
      "british": 4123,
      "brandon": 4124,
      "rens": 4125,
      "desert": 4126,
      "winter": 4127,
      "winston": 4128,
      "jeop": 4129,
      "happen": 4130,
      "happens": 4131,
      "catnip": 4132,
      "clay": 4133,
      "clung": 4134,
      "clouds": 4135,
      "porch": 4136,
      "assignment": 4137,
      "prepared": 4138,
      "prepare": 4139,
      "fail": 4140,
      "sentence": 4141,
      "brocco": 4142,
      "flood": 4143,
      "spy": 4144,
      "spon": 4145,
      "spir": 4146,
      "spaces": 4147,
      "spoken": 4148,
      "spaghetti": 4149,
      "close": 4150,
      "closing": 4151,
      "dances": 4152,
      "jury": 4153,
      "correspond": 4154,
      "harvey": 4155,
      "blemish": 4156,
      "affect": 4157,
      "ties": 4158,
      "dislike": 4159,
      "discovered": 4160,
      "dismissed": 4161,
      "scre": 4162,
      "gulf": 4163,
      "hands": 4164,
      "claus": 4165,
      "solid": 4166,
      "pamela": 4167,
      "traci": 4168,
      "phy": 4169,
      "phants": 4170,
      "phillip": 4171,
      "special": 4172,
      "polish": 4173,
      "policy": 4174,
      "monica": 4175,
      "chopping": 4176,
      "miami": 4177,
      "mayor": 4178,
      "bara": 4179,
      "barrel": 4180,
      "bartender": 4181,
      "barbara": 4182,
      "patient": 4183,
      "flinched": 4184,
      "share": 4185,
      "truth": 4186,
      "survi": 4187,
      "final": 4188,
      "finances": 4189,
      "gloria": 4190,
      "sings": 4191,
      "sirens": 4192,
      "horror": 4193,
      "horses": 4194,
      "horrific": 4195,
      "norman": 4196,
      "shower": 4197,
      "shock": 4198,
      "shooting": 4199,
      "yearbook": 4200,
      "planet": 4201,
      "example": 4202,
      "genie": 4203,
      "visor": 4204,
      "vision": 4205,
      "visits": 4206,
      "eleanor": 4207,
      "elephants": 4208,
      "satur": 4209,
      "readings": 4210,
      "hunt": 4211,
      "magnif": 4212,
      "sunny": 4213,
      "kettle": 4214,
      "bald": 4215,
      "bakes": 4216,
      "bench": 4217,
      "chew": 4218,
      "chewed": 4219,
      "woodhouse": 4220,
      "certainly": 4221,
      "pulley": 4222,
      "pugsle": 4223,
      "painted": 4224,
      "lingered": 4225,
      "intri": 4226,
      "others": 4227,
      "eagle": 4228,
      "jennie": 4229,
      "sons": 4230,
      "furi": 4231,
      "fuzz": 4232,
      "maxime": 4233,
      "captured": 4234,
      "steak": 4235,
      "centaur": 4236,
      "armchair": 4237,
      "idiot": 4238,
      "deny": 4239,
      "driver": 4240,
      "driving": 4241,
      "cooks": 4242,
      "answered": 4243,
      "luxem": 4244,
      "thawed": 4245,
      "daily": 4246,
      "finds": 4247,
      "skated": 4248,
      "skating": 4249,
      "skills": 4250,
      "sitive": 4251,
      "settle": 4252,
      "windowsill": 4253,
      "minister": 4254,
      "minutes": 4255,
      "sprained": 4256,
      "flowering": 4257,
      "block": 4258,
      "bloomed": 4259,
      "kennel": 4260,
      "formidable": 4261,
      "preferred": 4262,
      "juliet": 4263,
      "publisher": 4264,
      "satisfies": 4265,
      "license": 4266,
      "mistaken": 4267,
      "laws": 4268,
      "quicker": 4269,
      "german": 4270,
      "gerator": 4271,
      "hills": 4272,
      "owning": 4273,
      "england": 4274,
      "bothered": 4275,
      "executive": 4276,
      "ships": 4277,
      "partway": 4278,
      "bird": 4279,
      "trove": 4280,
      "trotted": 4281,
      "stones": 4282,
      "differed": 4283,
      "opens": 4284,
      "slain": 4285,
      "nearly": 4286,
      "substances": 4287,
      "substance": 4288,
      "confident": 4289,
      "confused": 4290,
      "laughs": 4291,
      "eggplants": 4292,
      "listen": 4293,
      "listened": 4294,
      "aroni": 4295,
      "coln": 4296,
      "discussed": 4297,
      "borders": 4298,
      "leng": 4299,
      "collected": 4300,
      "computed": 4301,
      "understanding": 4302,
      "difficulties": 4303,
      "pieces": 4304,
      "pounding": 4305,
      "remove": 4306,
      "remode": 4307,
      "striped": 4308,
      "completed": 4309,
      "bites": 4310,
      "cured": 4311,
      "passen": 4312,
      "twice": 4313,
      "jobs": 4314,
      "charles": 4315,
      "admit": 4316,
      "admitted": 4317,
      "climbers": 4318,
      "sums": 4319,
      "sidewalk": 4320,
      "dedication": 4321,
      "sort": 4322,
      "soft": 4323,
      "tasted": 4324,
      "meatballs": 4325,
      "imagined": 4326,
      "morningside": 4327,
      "honesty": 4328,
      "latest": 4329,
      "opinion": 4330,
      "pupils": 4331,
      "collins": 4332,
      "collapsed": 4333,
      "holds": 4334,
      "accountant": 4335,
      "grows": 4336,
      "mira": 4337,
      "soundness": 4338,
      "transcribed": 4339,
      "tastes": 4340,
      "winds": 4341,
      "realizes": 4342,
      "versity": 4343,
      "terrific": 4344,
      "acorn": 4345,
      "defeat": 4346,
      "breakfast": 4347,
      "tapped": 4348,
      "romeo": 4349,
      "plumber": 4350,
      "explain": 4351,
      "grandma": 4352,
      "authors": 4353,
      "twigs": 4354,
      "manuscript": 4355,
      "appreciation": 4356,
      "embarrass": 4357,
      "1970": 4358,
      "cruel": 4359,
      "crusty": 4360,
      "farmer": 4361,
      "gasped": 4362,
      "midnight": 4363,
      "yelling": 4364,
      "leah": 4365,
      "leaked": 4366,
      "leaking": 4367,
      "document": 4368,
      "cows": 4369,
      "suspect": 4370,
      "suggested": 4371,
      "teams": 4372,
      "prisoners": 4373,
      "seriously": 4374,
      "succumbed": 4375,
      "philip": 4376,
      "dull": 4377,
      "hidden": 4378,
      "jerk": 4379,
      "ankles": 4380,
      "includ": 4381,
      "inspect": 4382,
      "arrange": 4383,
      "lectur": 4384,
      "stalked": 4385,
      "christine": 4386,
      "exhaled": 4387,
      "scientists": 4388,
      "scientific": 4389,
      "demonstr": 4390,
      "defendant": 4391,
      "casting": 4392,
      "smarter": 4393,
      "tagged": 4394,
      "widely": 4395,
      "register": 4396,
      "resembles": 4397,
      "chickens": 4398,
      "alternated": 4399,
      "powerful": 4400,
      "teapot": 4401,
      "frightens": 4402,
      "genius": 4403,
      "particip": 4404,
      "thoroughly": 4405,
      "travelers": 4406,
      "basket": 4407,
      "basement": 4408,
      "hypothesis": 4409,
      "iii": 4410,
      "kerry": 4411,
      "errors": 4412,
      "lewis": 4413,
      "belongs": 4414,
      "rosemary": 4415,
      "melissa": 4416,
      "liberty": 4417,
      "adores": 4418,
      "motorist": 4419,
      "supermarket": 4420,
      "telegram": 4421,
      "rumored": 4422,
      "officer": 4423,
      "official": 4424,
      "calculus": 4425,
      "driveway": 4426,
      "effectiven": 4427,
      "character": 4428,
      "characters": 4429,
      "suggestions": 4430,
      "groceries": 4431,
      "sweater": 4432,
      "continued": 4433,
      "awarded": 4434,
      "bagels": 4435,
      "drowned": 4436,
      "fabio": 4437,
      "lincoln": 4438,
      "lamp": 4439,
      "ugly": 4440,
      "lemonade": 4441,
      "second": 4442,
      "cottage": 4443,
      "accepted": 4444,
      "golfers": 4445,
      "concert": 4446,
      "excessive": 4447,
      "storm": 4448,
      "bulging": 4449,
      "complained": 4450,
      "assassination": 4451,
      "helicopters": 4452,
      "interrogated": 4453,
      "affair": 4454,
      "drawing": 4455,
      "korean": 4456,
      "pitcher": 4457,
      "tnt": 4458,
      "incredibly": 4459,
      "university": 4460,
      "therapist": 4461,
      "techn": 4462,
      "developed": 4463,
      "delivered": 4464,
      "established": 4465,
      "following": 4466,
      "competition": 4467,
      "assistant": 4468,
      "julius": 4469,
      "objective": 4470,
      "salesman": 4471,
      "perspectives": 4472,
      "stretched": 4473,
      "hammered": 4474,
      "bottles": 4475,
      "slapping": 4476,
      "analyzed": 4477,
      "washington": 4478,
      "chalice": 4479,
      "journalist": 4480,
      "1492": 4481,
      "abolished": 4482,
      "aquarium": 4483,
      "bandits": 4484,
      "ccable": 4485,
      "cousin": 4486,
      "duty": 4487,
      "ditches": 4488,
      "dashwood": 4489,
      "ethel": 4490,
      "efficient": 4491,
      "film": 4492,
      "flawed": 4493,
      "hilda": 4494,
      "macaroni": 4495,
      "number": 4496,
      "pneumonia": 4497,
      "sheriff": 4498,
      "sketch": 4499,
      "twelfth": 4500,
      "video": 4501,
      "wiping": 4502,
      "edmund": 4503,
      "ancient": 4504,
      "insensitive": 4505,
      "inconvenience": 4506,
      "incriminate": 4507,
      "refrigerator": 4508,
      "recursive": 4509,
      "arrogant": 4510,
      "lloyd": 4511,
      "semantics": 4512,
      "september": 4513,
      "seafarer": 4514,
      "melons": 4515,
      "stubbs": 4516,
      "chomsky": 4517,
      "impeccable": 4518,
      "nominated": 4519,
      "martial": 4520,
      "marlene": 4521,
      "terrorist": 4522,
      "unusual": 4523,
      "accompanied": 4524,
      "aggressive": 4525,
      "nephew": 4526,
      "gossip": 4527,
      "sauteed": 4528,
      "telescope": 4529,
      "declared": 4530,
      "decorated": 4531,
      "deliberately": 4532,
      "conflict": 4533,
      "shannon": 4534,
      "quietly": 4535,
      "compatible": 4536,
      "torpedo": 4537,
      "jeopardy": 4538,
      "broccoli": 4539,
      "spaceship": 4540,
      "correspondingly": 4541,
      "magnificent": 4542,
      "pugsley": 4543,
      "luxemburg": 4544,
      "effectiveness": 4545,
      "13": 4546,
      "18": 4547,
      "63": 4548,
      "?.": 4549,
      "ax": 4550,
      "aver": 4551,
      "aunts": 4552,
      "bou": 4553,
      "bone": 4554,
      "bable": 4555,
      "bru": 4556,
      "bra": 4557,
      "bian": 4558,
      "bound": 4559,
      "braz": 4560,
      "bits": 4561,
      "bbs": 4562,
      "cis": 4563,
      "cam": 4564,
      "cone": 4565,
      "cass": 4566,
      "cence": 4567,
      "case": 4568,
      "ckey": 4569,
      "cket": 4570,
      "cious": 4571,
      "cros": 4572,
      "cue": 4573,
      "cens": 4574,
      "cture": 4575,
      "cross": 4576,
      "ctured": 4577,
      "dp": 4578,
      "dic": 4579,
      "ding": 4580,
      "dim": 4581,
      "dun": 4582,
      "dread": 4583,
      "dish": 4584,
      "dition": 4585,
      "dings": 4586,
      "dala": 4587,
      "ees": 4588,
      "eight": 4589,
      "ezer": 4590,
      "fto": 4591,
      "fli": 4592,
      "fut": 4593,
      "fest": 4594,
      "fight": 4595,
      "fra": 4596,
      "fans": 4597,
      "gy": 4598,
      "gain": 4599,
      "gate": 4600,
      "gant": 4601,
      "gang": 4602,
      "gloves": 4603,
      "glow": 4604,
      "graham": 4605,
      "han": 4606,
      "hud": 4607,
      "hang": 4608,
      "hum": 4609,
      "hire": 4610,
      "hank": 4611,
      "iv": 4612,
      "ior": 4613,
      "iac": 4614,
      "iam": 4615,
      "iod": 4616,
      "iates": 4617,
      "irel": 4618,
      "ivan": 4619,
      "ipop": 4620,
      "ique": 4621,
      "jas": 4622,
      "jun": 4623,
      "jung": 4624,
      "jacket": 4625,
      "kit": 4626,
      "kid": 4627,
      "kful": 4628,
      "kath": 4629,
      "knit": 4630,
      "lb": 4631,
      "ler": 4632,
      "lis": 4633,
      "lus": 4634,
      "loun": 4635,
      "lard": 4636,
      "lish": 4637,
      "lum": 4638,
      "lane": 4639,
      "mal": 4640,
      "mich": 4641,
      "mate": 4642,
      "mess": 4643,
      "mpa": 4644,
      "mended": 4645,
      "master": 4646,
      "mache": 4647,
      "mandra": 4648,
      "mending": 4649,
      "np": 4650,
      "nina": 4651,
      "national": 4652,
      "os": 4653,
      "oed": 4654,
      "oat": 4655,
      "ome": 4656,
      "oly": 4657,
      "ode": 4658,
      "opp": 4659,
      "oper": 4660,
      "opt": 4661,
      "oom": 4662,
      "ogen": 4663,
      "ops": 4664,
      "ostr": 4665,
      "oscar": 4666,
      "pan": 4667,
      "pid": 4668,
      "pli": 4669,
      "pum": 4670,
      "pters": 4671,
      "piled": 4672,
      "psy": 4673,
      "plied": 4674,
      "push": 4675,
      "rics": 4676,
      "rings": 4677,
      "rina": 4678,
      "rari": 4679,
      "sme": 4680,
      "sno": 4681,
      "smu": 4682,
      "sought": 4683,
      "sack": 4684,
      "scor": 4685,
      "sched": 4686,
      "slic": 4687,
      "silly": 4688,
      "sified": 4689,
      "sburg": 4690,
      "sessed": 4691,
      "tie": 4692,
      "tra": 4693,
      "ticked": 4694,
      "tended": 4695,
      "tact": 4696,
      "task": 4697,
      "tanger": 4698,
      "tane": 4699,
      "traff": 4700,
      "tami": 4701,
      "twins": 4702,
      "ule": 4703,
      "udo": 4704,
      "uced": 4705,
      "uel": 4706,
      "uroses": 4707,
      "vain": 4708,
      "vul": 4709,
      "vine": 4710,
      "vacc": 4711,
      "vari": 4712,
      "vards": 4713,
      "wre": 4714,
      "wag": 4715,
      "wild": 4716,
      "wishes": 4717,
      "wider": 4718,
      "yers": 4719,
      "thread": 4720,
      "thum": 4721,
      "thage": 4722,
      "thunder": 4723,
      "thew": 4724,
      "theore": 4725,
      "eds": 4726,
      "edu": 4727,
      "educ": 4728,
      "inth": 4729,
      "ining": 4730,
      "inse": 4731,
      "inst": 4732,
      "inher": 4733,
      "insaw": 4734,
      "insan": 4735,
      "incre": 4736,
      "invis": 4737,
      "inste": 4738,
      "infid": 4739,
      "incorpor": 4740,
      "inside": 4741,
      "infinite": 4742,
      "inspir": 4743,
      "infuri": 4744,
      "era": 4745,
      "erill": 4746,
      "erever": 4747,
      "erna": 4748,
      "erged": 4749,
      "ernie": 4750,
      "eroom": 4751,
      "toe": 4752,
      "toed": 4753,
      "tori": 4754,
      "totle": 4755,
      "toys": 4756,
      "atic": 4757,
      "atters": 4758,
      "ature": 4759,
      "rey": 4760,
      "reve": 4761,
      "requ": 4762,
      "reput": 4763,
      "rect": 4764,
      "remed": 4765,
      "replied": 4766,
      "isy": 4767,
      "ision": 4768,
      "iscre": 4769,
      "issor": 4770,
      "isance": 4771,
      "iscill": 4772,
      "iscate": 4773,
      "istotle": 4774,
      "ons": 4775,
      "enon": 4776,
      "envi": 4777,
      "enom": 4778,
      "encoun": 4779,
      "engen": 4780,
      "enric": 4781,
      "envir": 4782,
      "arct": 4783,
      "arily": 4784,
      "armi": 4785,
      "arrang": 4786,
      "aristotle": 4787,
      "llis": 4788,
      "llent": 4789,
      "llipop": 4790,
      "asgo": 4791,
      "aspo": 4792,
      "asted": 4793,
      "asking": 4794,
      "ascri": 4795,
      "asible": 4796,
      "asbourg": 4797,
      "esther": 4798,
      "escape": 4799,
      "leen": 4800,
      "leak": 4801,
      "lefto": 4802,
      "levards": 4803,
      "hein": 4804,
      "heme": 4805,
      "heft": 4806,
      "heath": 4807,
      "healthy": 4808,
      "bey": 4809,
      "bees": 4810,
      "bets": 4811,
      "belle": 4812,
      "bears": 4813,
      "beamed": 4814,
      "becoming": 4815,
      "beaker": 4816,
      "whined": 4817,
      "whale": 4818,
      "wherever": 4819,
      "ita": 4820,
      "ites": 4821,
      "itude": 4822,
      "icor": 4823,
      "icated": 4824,
      "ications": 4825,
      "sey": 4826,
      "seam": 4827,
      "section": 4828,
      "sells": 4829,
      "rol": 4830,
      "roll": 4831,
      "robe": 4832,
      "rots": 4833,
      "robot": 4834,
      "vegas": 4835,
      "joke": 4836,
      "josh": 4837,
      "jockey": 4838,
      "mean": 4839,
      "memo": 4840,
      "mets": 4841,
      "memor": 4842,
      "andal": 4843,
      "ideas": 4844,
      "idually": 4845,
      "illeg": 4846,
      "johns": 4847,
      "stab": 4848,
      "stam": 4849,
      "stage": 4850,
      "stress": 4851,
      "states": 4852,
      "stars": 4853,
      "stiff": 4854,
      "hail": 4855,
      "habits": 4856,
      "chin": 4857,
      "chim": 4858,
      "chine": 4859,
      "chief": 4860,
      "lim": 4861,
      "lier": 4862,
      "liest": 4863,
      "lized": 4864,
      "limes": 4865,
      "ental": 4866,
      "imp": 4867,
      "impl": 4868,
      "imogen": 4869,
      "ldo": 4870,
      "bore": 4871,
      "boken": 4872,
      "bowed": 4873,
      "aling": 4874,
      "alice": 4875,
      "vera": 4876,
      "verb": 4877,
      "vert": 4878,
      "verty": 4879,
      "ghton": 4880,
      "adian": 4881,
      "admin": 4882,
      "adley": 4883,
      "addressed": 4884,
      "addled": 4885,
      "advert": 4886,
      "mark": 4887,
      "marched": 4888,
      "marks": 4889,
      "marcia": 4890,
      "loo": 4891,
      "lose": 4892,
      "locked": 4893,
      "loids": 4894,
      "loyal": 4895,
      "lollipop": 4896,
      "rio": 4897,
      "rival": 4898,
      "ribs": 4899,
      "whoever": 4900,
      "ays": 4901,
      "mode": 4902,
      "mopped": 4903,
      "utus": 4904,
      "doc": 4905,
      "dozed": 4906,
      "wel": 4907,
      "weed": 4908,
      "wept": 4909,
      "fortun": 4910,
      "forgiven": 4911,
      "soap": 4912,
      "sober": 4913,
      "soles": 4914,
      "sodi": 4915,
      "pepp": 4916,
      "peace": 4917,
      "cohen": 4918,
      "copper": 4919,
      "termined": 4920,
      "tersely": 4921,
      "unhapp": 4922,
      "unmade": 4923,
      "undoing": 4924,
      "unicor": 4925,
      "unfortun": 4926,
      "managed": 4927,
      "maniac": 4928,
      "manuel": 4929,
      "ability": 4930,
      "aberna": 4931,
      "abbey": 4932,
      "irable": 4933,
      "acid": 4934,
      "acts": 4935,
      "acup": 4936,
      "accus": 4937,
      "acknowledge": 4938,
      "amaz": 4939,
      "willa": 4940,
      "william": 4941,
      "herb": 4942,
      "herded": 4943,
      "hermes": 4944,
      "herding": 4945,
      "agna": 4946,
      "holes": 4947,
      "hopper": 4948,
      "hobbs": 4949,
      "hoboken": 4950,
      "nelia": 4951,
      "neuroses": 4952,
      "goal": 4953,
      "susp": 4954,
      "surely": 4955,
      "supper": 4956,
      "within": 4957,
      "pood": 4958,
      "pomp": 4959,
      "poverty": 4960,
      "therford": 4961,
      "aps": 4962,
      "appoint": 4963,
      "udish": 4964,
      "safer": 4965,
      "embr": 4966,
      "emerged": 4967,
      "selfish": 4968,
      "proper": 4969,
      "proctor": 4970,
      "produ": 4971,
      "proposed": 4972,
      "probable": 4973,
      "tear": 4974,
      "tears": 4975,
      "teamed": 4976,
      "text": 4977,
      "teaspo": 4978,
      "teacup": 4979,
      "derry": 4980,
      "causes": 4981,
      "outing": 4982,
      "demo": 4983,
      "detain": 4984,
      "deck": 4985,
      "detest": 4986,
      "delay": 4987,
      "demos": 4988,
      "detrim": 4989,
      "defected": 4990,
      "determined": 4991,
      "hadn": 4992,
      "cell": 4993,
      "cely": 4994,
      "ception": 4995,
      "conne": 4996,
      "conje": 4997,
      "condition": 4998,
      "geezer": 4999,
      "believing": 5000,
      "myron": 5001,
      "ify": 5002,
      "froth": 5003,
      "froze": 5004,
      "mumbled": 5005,
      "shield": 5006,
      "thankful": 5007,
      "stove": 5008,
      "carts": 5009,
      "cards": 5010,
      "carpet": 5011,
      "carthage": 5012,
      "carrots": 5013,
      "lax": 5014,
      "vesty": 5015,
      "plexy": 5016,
      "quipped": 5017,
      "pics": 5018,
      "putt": 5019,
      "putting": 5020,
      "antics": 5021,
      "antarct": 5022,
      "feasible": 5023,
      "canadian": 5024,
      "tomers": 5025,
      "estal": 5026,
      "estant": 5027,
      "buff": 5028,
      "bucket": 5029,
      "parade": 5030,
      "parake": 5031,
      "pract": 5032,
      "priscill": 5033,
      "prudish": 5034,
      "worries": 5035,
      "butcher": 5036,
      "ruin": 5037,
      "rules": 5038,
      "ruins": 5039,
      "rutherford": 5040,
      "ieved": 5041,
      "iety": 5042,
      "igan": 5043,
      "igation": 5044,
      "ignor": 5045,
      "maze": 5046,
      "machine": 5047,
      "oling": 5048,
      "olution": 5049,
      "inton": 5050,
      "ously": 5051,
      "india": 5052,
      "indiv": 5053,
      "indiscre": 5054,
      "achieved": 5055,
      "seduce": 5056,
      "ultane": 5057,
      "rator": 5058,
      "umes": 5059,
      "umbus": 5060,
      "east": 5061,
      "perjured": 5062,
      "period": 5063,
      "perature": 5064,
      "perception": 5065,
      "tooth": 5066,
      "offs": 5067,
      "urban": 5068,
      "istrator": 5069,
      "ours": 5070,
      "brings": 5071,
      "brush": 5072,
      "bradley": 5073,
      "brutus": 5074,
      "rent": 5075,
      "desired": 5076,
      "despond": 5077,
      "desires": 5078,
      "desirable": 5079,
      "winning": 5080,
      "grat": 5081,
      "grunts": 5082,
      "itect": 5083,
      "catastro": 5084,
      "venice": 5085,
      "clid": 5086,
      "clues": 5087,
      "clinton": 5088,
      "porary": 5089,
      "assigned": 5090,
      "previous": 5091,
      "fails": 5092,
      "broom": 5093,
      "nedy": 5094,
      "flown": 5095,
      "flopped": 5096,
      "spend": 5097,
      "spilled": 5098,
      "sparen": 5099,
      "spunk": 5100,
      "spends": 5101,
      "closed": 5102,
      "dancer": 5103,
      "julia": 5104,
      "helped": 5105,
      "corn": 5106,
      "correct": 5107,
      "cornelia": 5108,
      "tysburg": 5109,
      "player": 5110,
      "tip": 5111,
      "tibet": 5112,
      "discover": 5113,
      "disaster": 5114,
      "disadvantage": 5115,
      "scissor": 5116,
      "scandal": 5117,
      "drapes": 5118,
      "berne": 5119,
      "berry": 5120,
      "gue": 5121,
      "guess": 5122,
      "guide": 5123,
      "guerill": 5124,
      "pedestal": 5125,
      "akron": 5126,
      "earl": 5127,
      "earlier": 5128,
      "fied": 5129,
      "fries": 5130,
      "obser": 5131,
      "obsessed": 5132,
      "iator": 5133,
      "ferrari": 5134,
      "pail": 5135,
      "track": 5136,
      "tracy": 5137,
      "phic": 5138,
      "phenom": 5139,
      "claiming": 5140,
      "sanitize": 5141,
      "expects": 5142,
      "speeds": 5143,
      "dogged": 5144,
      "cedar": 5145,
      "overhead": 5146,
      "crew": 5147,
      "buying": 5148,
      "mona": 5149,
      "month": 5150,
      "monster": 5151,
      "months": 5152,
      "chop": 5153,
      "choir": 5154,
      "cholog": 5155,
      "friendly": 5156,
      "hattie": 5157,
      "milo": 5158,
      "bark": 5159,
      "barman": 5160,
      "barge": 5161,
      "ipus": 5162,
      "patron": 5163,
      "gettysburg": 5164,
      "flour": 5165,
      "flora": 5166,
      "shah": 5167,
      "shall": 5168,
      "trust": 5169,
      "trucks": 5170,
      "surve": 5171,
      "surgeon": 5172,
      "workers": 5173,
      "counting": 5174,
      "francis": 5175,
      "attack": 5176,
      "elity": 5177,
      "elapsed": 5178,
      "fined": 5179,
      "glasgo": 5180,
      "treated": 5181,
      "sives": 5182,
      "sensed": 5183,
      "senior": 5184,
      "shoe": 5185,
      "shook": 5186,
      "yearns": 5187,
      "rods": 5188,
      "planning": 5189,
      "risky": 5190,
      "smiths": 5191,
      "visitor": 5192,
      "doors": 5193,
      "doorway": 5194,
      "elegant": 5195,
      "walter": 5196,
      "wallpaper": 5197,
      "justin": 5198,
      "obviously": 5199,
      "pilots": 5200,
      "benef": 5201,
      "cheer": 5202,
      "cheated": 5203,
      "matters": 5204,
      "matical": 5205,
      "matthew": 5206,
      "wail": 5207,
      "waxed": 5208,
      "wails": 5209,
      "waldo": 5210,
      "headway": 5211,
      "headmaster": 5212,
      "surprises": 5213,
      "pub": 5214,
      "pull": 5215,
      "paints": 5216,
      "painfully": 5217,
      "touches": 5218,
      "careless": 5219,
      "drops": 5220,
      "drooling": 5221,
      "squid": 5222,
      "squea": 5223,
      "squatters": 5224,
      "selina": 5225,
      "classified": 5226,
      "crime": 5227,
      "zeke": 5228,
      "intends": 5229,
      "fired": 5230,
      "liters": 5231,
      "litigation": 5232,
      "merle": 5233,
      "merlin": 5234,
      "salad": 5235,
      "full": 5236,
      "capital": 5237,
      "sympa": 5238,
      "felled": 5239,
      "ronnie": 5240,
      "swing": 5241,
      "swarm": 5242,
      "promise": 5243,
      "eagerness": 5244,
      "buses": 5245,
      "morn": 5246,
      "morgan": 5247,
      "drivers": 5248,
      "highest": 5249,
      "kindest": 5250,
      "contem": 5251,
      "control": 5252,
      "contacts": 5253,
      "contestant": 5254,
      "answering": 5255,
      "luc": 5256,
      "lucill": 5257,
      "spoon": 5258,
      "spoiling": 5259,
      "invit": 5260,
      "invade": 5261,
      "invari": 5262,
      "daisy": 5263,
      "lesson": 5264,
      "skiers": 5265,
      "strating": 5266,
      "strings": 5267,
      "strasbourg": 5268,
      "helping": 5269,
      "dili": 5270,
      "interested": 5271,
      "questions": 5272,
      "questioned": 5273,
      "persons": 5274,
      "schoolhouse": 5275,
      "ciaran": 5276,
      "customers": 5277,
      "spruced": 5278,
      "princess": 5279,
      "flowered": 5280,
      "buildings": 5281,
      "evan": 5282,
      "evident": 5283,
      "evolution": 5284,
      "kennedy": 5285,
      "published": 5286,
      "alization": 5287,
      "breathe": 5288,
      "beats": 5289,
      "beatles": 5290,
      "costs": 5291,
      "costume": 5292,
      "firemen": 5293,
      "jump": 5294,
      "rats": 5295,
      "meetings": 5296,
      "generalization": 5297,
      "dina": 5298,
      "fondest": 5299,
      "mistake": 5300,
      "misses": 5301,
      "misgiving": 5302,
      "tiger": 5303,
      "librarian": 5304,
      "lawyers": 5305,
      "gerry": 5306,
      "warden": 5307,
      "annabelle": 5308,
      "decision": 5309,
      "effort": 5310,
      "frustrating": 5311,
      "joneses": 5312,
      "troops": 5313,
      "pauline": 5314,
      "syntact": 5315,
      "bribed": 5316,
      "brighton": 5317,
      "funds": 5318,
      "opened": 5319,
      "slide": 5320,
      "sticks": 5321,
      "lifesa": 5322,
      "subm": 5323,
      "subscri": 5324,
      "confront": 5325,
      "confiscate": 5326,
      "convince": 5327,
      "kisses": 5328,
      "mattered": 5329,
      "criticiz": 5330,
      "professional": 5331,
      "weekly": 5332,
      "darted": 5333,
      "darwin": 5334,
      "freely": 5335,
      "garish": 5336,
      "garbage": 5337,
      "hurric": 5338,
      "miles": 5339,
      "voice": 5340,
      "animal": 5341,
      "reviewed": 5342,
      "robbed": 5343,
      "lights": 5344,
      "color": 5345,
      "columbus": 5346,
      "potato": 5347,
      "ements": 5348,
      "plaque": 5349,
      "praises": 5350,
      "biology": 5351,
      "dryer": 5352,
      "simple": 5353,
      "simultane": 5354,
      "value": 5355,
      "innocence": 5356,
      "succeed": 5357,
      "medium": 5358,
      "auto": 5359,
      "austra": 5360,
      "cursed": 5361,
      "current": 5362,
      "honor": 5363,
      "pietro": 5364,
      "weddings": 5365,
      "annealing": 5366,
      "stripes": 5367,
      "accidentally": 5368,
      "pastor": 5369,
      "pasture": 5370,
      "passion": 5371,
      "sadder": 5372,
      "saddled": 5373,
      "volume": 5374,
      "charity": 5375,
      "charges": 5376,
      "peanuts": 5377,
      "grades": 5378,
      "flatter": 5379,
      "finishing": 5380,
      "cliff": 5381,
      "climb": 5382,
      "angela": 5383,
      "deadly": 5384,
      "scribbling": 5385,
      "briana": 5386,
      "huge": 5387,
      "hugged": 5388,
      "knocking": 5389,
      "sofia": 5390,
      "regrets": 5391,
      "beavers": 5392,
      "apartment": 5393,
      "baseman": 5394,
      "circus": 5395,
      "izens": 5396,
      "puppet": 5397,
      "rushing": 5398,
      "since": 5399,
      "seaweed": 5400,
      "hallway": 5401,
      "fortress": 5402,
      "collar": 5403,
      "empty": 5404,
      "devil": 5405,
      "gradually": 5406,
      "graduation": 5407,
      "beside": 5408,
      "euclid": 5409,
      "judy": 5410,
      "richer": 5411,
      "transparen": 5412,
      "thenes": 5413,
      "intensified": 5414,
      "recite": 5415,
      "recital": 5416,
      "realized": 5417,
      "terrified": 5418,
      "pointed": 5419,
      "points": 5420,
      "detail": 5421,
      "detaches": 5422,
      "pretended": 5423,
      "clowns": 5424,
      "mixing": 5425,
      "shoveling": 5426,
      "breaks": 5427,
      "cracked": 5428,
      "lunatic": 5429,
      "radiates": 5430,
      "styles": 5431,
      "contractor": 5432,
      "explosives": 5433,
      "shorter": 5434,
      "grammar": 5435,
      "grammatical": 5436,
      "electric": 5437,
      "squandered": 5438,
      "squirmed": 5439,
      "banker": 5440,
      "strongly": 5441,
      "decidedly": 5442,
      "valued": 5443,
      "values": 5444,
      "puddle": 5445,
      "puddings": 5446,
      "crucial": 5447,
      "damage": 5448,
      "damages": 5449,
      "damaged": 5450,
      "tabloids": 5451,
      "testing": 5452,
      "virtu": 5453,
      "virgin": 5454,
      "yellow": 5455,
      "architect": 5456,
      "dollar": 5457,
      "popular": 5458,
      "popcorn": 5459,
      "provoked": 5460,
      "exception": 5461,
      "excellent": 5462,
      "museums": 5463,
      "prisoner": 5464,
      "screwdriver": 5465,
      "chocolates": 5466,
      "gladiator": 5467,
      "hungary": 5468,
      "paintings": 5469,
      "chapters": 5470,
      "chainsaw": 5471,
      "dust": 5472,
      "dumped": 5473,
      "ankle": 5474,
      "include": 5475,
      "included": 5476,
      "structure": 5477,
      "bombs": 5478,
      "neutered": 5479,
      "rubbed": 5480,
      "railroad": 5481,
      "scientist": 5482,
      "mentioning": 5483,
      "maternal": 5484,
      "sonata": 5485,
      "funnels": 5486,
      "defendants": 5487,
      "courage": 5488,
      "drug": 5489,
      "echoing": 5490,
      "fresco": 5491,
      "greeks": 5492,
      "smart": 5493,
      "smartest": 5494,
      "scarf": 5495,
      "scarcely": 5496,
      "tickle": 5497,
      "research": 5498,
      "resembled": 5499,
      "chicken": 5500,
      "weights": 5501,
      "appointee": 5502,
      "mailer": 5503,
      "mailbox": 5504,
      "checkers": 5505,
      "spotted": 5506,
      "squirrels": 5507,
      "enthusiastic": 5508,
      "fifty": 5509,
      "rudely": 5510,
      "behaved": 5511,
      "selected": 5512,
      "melts": 5513,
      "adoes": 5514,
      "motorway": 5515,
      "holidays": 5516,
      "supervisor": 5517,
      "protect": 5518,
      "protected": 5519,
      "protects": 5520,
      "television": 5521,
      "tornadoes": 5522,
      "disturb": 5523,
      "disturbed": 5524,
      "disturbs": 5525,
      "surprisingly": 5526,
      "calculated": 5527,
      "effective": 5528,
      "mushrooms": 5529,
      "philippa": 5530,
      "continuum": 5531,
      "crawford": 5532,
      "drowning": 5533,
      "fabrics": 5534,
      "hiker": 5535,
      "hikers": 5536,
      "lama": 5537,
      "purple": 5538,
      "temperature": 5539,
      "ugliest": 5540,
      "lemons": 5541,
      "seconds": 5542,
      "idaho": 5543,
      "martin": 5544,
      "cotton": 5545,
      "acquainted": 5546,
      "acquitted": 5547,
      "excessively": 5548,
      "storeroom": 5549,
      "carrying": 5550,
      "helicopter": 5551,
      "objections": 5552,
      "businessman": 5553,
      "interrogating": 5554,
      "mindedness": 5555,
      "bingley": 5556,
      "bunker": 5557,
      "freaks": 5558,
      "fallen": 5559,
      "lasagna": 5560,
      "laps": 5561,
      "pirate": 5562,
      "slipped": 5563,
      "slips": 5564,
      "trip": 5565,
      "remark": 5566,
      "remarks": 5567,
      "reference": 5568,
      "enemy": 5569,
      "enemies": 5570,
      "assume": 5571,
      "assumed": 5572,
      "rooke": 5573,
      "strange": 5574,
      "stranger": 5575,
      "straight": 5576,
      "liquor": 5577,
      "liquid": 5578,
      "wastebasket": 5579,
      "november": 5580,
      "moscow": 5581,
      "poorer": 5582,
      "poorly": 5583,
      "confirm": 5584,
      "confirmed": 5585,
      "exclude": 5586,
      "excluded": 5587,
      "grasshopper": 5588,
      "faithfully": 5589,
      "playwright": 5590,
      "playwrights": 5591,
      "creeps": 5592,
      "creepy": 5593,
      "squeeze": 5594,
      "squeezed": 5595,
      "destroying": 5596,
      "breathless": 5597,
      "gentleman": 5598,
      "silversmith": 5599,
      "sniffs": 5600,
      "apoplexy": 5601,
      "bundle": 5602,
      "budge": 5603,
      "blair": 5604,
      "couple": 5605,
      "citizens": 5606,
      "crops": 5607,
      "dirt": 5608,
      "galler": 5609,
      "granny": 5610,
      "nuisance": 5611,
      "pseudo": 5612,
      "pamper": 5613,
      "ridden": 5614,
      "repeat": 5615,
      "relieved": 5616,
      "reasonable": 5617,
      "revolves": 5618,
      "onmental": 5619,
      "astonished": 5620,
      "whistled": 5621,
      "agreement": 5622,
      "agency": 5623,
      "suspic": 5624,
      "approval": 5625,
      "sailor": 5626,
      "depiction": 5627,
      "experts": 5628,
      "sharks": 5629,
      "pleasant": 5630,
      "quality": 5631,
      "angleton": 5632,
      "performers": 5633,
      "sponsor": 5634,
      "screamed": 5635,
      "phyllis": 5636,
      "survived": 5637,
      "intrigued": 5638,
      "length": 5639,
      "passengers": 5640,
      "embarrassing": 5641,
      "dulles": 5642,
      "including": 5643,
      "lecturing": 5644,
      "demonstrated": 5645,
      "participants": 5646,
      "characterized": 5647,
      "lamppost": 5648,
      "affairs": 5649,
      "1863": 5650,
      "axe": 5651,
      "boulevards": 5652,
      "bruce": 5653,
      "braided": 5654,
      "camped": 5655,
      "cassandra": 5656,
      "crossing": 5657,
      "crosses": 5658,
      "dungeon": 5659,
      "dreadfully": 5660,
      "dalai": 5661,
      "flip": 5662,
      "future": 5663,
      "festive": 5664,
      "fighting": 5665,
      "frame": 5666,
      "gangsters": 5667,
      "glows": 5668,
      "hudson": 5669,
      "hanging": 5670,
      "hummed": 5671,
      "ireland": 5672,
      "june": 5673,
      "jungle": 5674,
      "kitten": 5675,
      "kathleen": 5676,
      "knitting": 5677,
      "lisa": 5678,
      "luscious": 5679,
      "lounge": 5680,
      "michigan": 5681,
      "machetes": 5682,
      "mandrake": 5683,
      "oedipus": 5684,
      "oatmeal": 5685,
      "oppon": 5686,
      "optim": 5687,
      "ostrich": 5688,
      "panther": 5689,
      "pliers": 5690,
      "psycholog": 5691,
      "snooze": 5692,
      "smuggled": 5693,
      "scored": 5694,
      "schedule": 5695,
      "sliced": 5696,
      "travesty": 5697,
      "tangerine": 5698,
      "traffic": 5699,
      "vinegar": 5700,
      "vaccine": 5701,
      "wreck": 5702,
      "wagered": 5703,
      "wildwood": 5704,
      "thumb": 5705,
      "theorem": 5706,
      "educational": 5707,
      "insane": 5708,
      "increased": 5709,
      "invisible": 5710,
      "infidelity": 5711,
      "inspiring": 5712,
      "infuriated": 5713,
      "reputed": 5714,
      "remedy": 5715,
      "envied": 5716,
      "encountered": 5717,
      "engenders": 5718,
      "enrico": 5719,
      "environmental": 5720,
      "armies": 5721,
      "arrangements": 5722,
      "leftovers": 5723,
      "hefty": 5724,
      "betsy": 5725,
      "seamus": 5726,
      "memory": 5727,
      "illegal": 5728,
      "stamp": 5729,
      "statesman": 5730,
      "administrator": 5731,
      "model": 5732,
      "sodium": 5733,
      "peppy": 5734,
      "unhappiness": 5735,
      "abernathy": 5736,
      "accusation": 5737,
      "suspense": 5738,
      "poodle": 5739,
      "pompous": 5740,
      "embraced": 5741,
      "property": 5742,
      "textbook": 5743,
      "teaspoon": 5744,
      "detainees": 5745,
      "demosthenes": 5746,
      "detrimental": 5747,
      "conjectured": 5748,
      "antarctic": 5749,
      "buffy": 5750,
      "parakeets": 5751,
      "practice": 5752,
      "priscilla": 5753,
      "ignored": 5754,
      "individually": 5755,
      "indiscretions": 5756,
      "despondent": 5757,
      "catastrophic": 5758,
      "broomstick": 5759,
      "spunky": 5760,
      "scissors": 5761,
      "guerillas": 5762,
      "phenomenon": 5763,
      "patrons": 5764,
      "francisco": 5765,
      "glasgow": 5766,
      "visitors": 5767,
      "benefit": 5768,
      "carelessly": 5769,
      "sympathy": 5770,
      "swarming": 5771,
      "lucille": 5772,
      "invariably": 5773,
      "breathed": 5774,
      "misgivings": 5775,
      "syntactic": 5776,
      "lifesaver": 5777,
      "confrontations": 5778,
      "criticizes": 5779,
      "hurricane": 5780,
      "australia": 5781,
      "transparent": 5782,
      "psychologist": 5783,
      "\".": 5784,
      "'.": 5785,
      ",…": 5786,
      "1st": 5787,
      "150": 5788,
      "22": 5789,
      "29": 5790,
      "31st": 5791,
      "600": 5792,
      "97": 5793,
      "ah": 5794,
      "ald": 5795,
      "amo": 5796,
      "aut": 5797,
      "aus": 5798,
      "aqu": 5799,
      "aide": 5800,
      "axed": 5801,
      "aaron": 5802,
      "aime": 5803,
      "aires": 5804,
      "bon": 5805,
      "bal": 5806,
      "bam": 5807,
      "bil": 5808,
      "bend": 5809,
      "bie": 5810,
      "bite": 5811,
      "bones": 5812,
      "bition": 5813,
      "backed": 5814,
      "bache": 5815,
      "bility": 5816,
      "cf": 5817,
      "cad": 5818,
      "cly": 5819,
      "cany": 5820,
      "ctu": 5821,
      "cers": 5822,
      "cage": 5823,
      "cended": 5824,
      "cise": 5825,
      "cies": 5826,
      "cham": 5827,
      "cages": 5828,
      "cement": 5829,
      "cities": 5830,
      "cises": 5831,
      "dd": 5832,
      "dl": 5833,
      "dill": 5834,
      "dall": 5835,
      "dag": 5836,
      "dil": 5837,
      "dig": 5838,
      "dang": 5839,
      "dast": 5840,
      "dist": 5841,
      "dine": 5842,
      "dav": 5843,
      "dles": 5844,
      "drew": 5845,
      "dart": 5846,
      "dates": 5847,
      "dating": 5848,
      "dgy": 5849,
      "eve": 5850,
      "elo": 5851,
      "eba": 5852,
      "ecli": 5853,
      "einste": 5854,
      "ectu": 5855,
      "fted": 5856,
      "fem": 5857,
      "feat": 5858,
      "fdr": 5859,
      "fled": 5860,
      "funk": 5861,
      "flight": 5862,
      "faced": 5863,
      "fboard": 5864,
      "fash": 5865,
      "fills": 5866,
      "fumes": 5867,
      "gle": 5868,
      "git": 5869,
      "gal": 5870,
      "gut": 5871,
      "gab": 5872,
      "gus": 5873,
      "gest": 5874,
      "gig": 5875,
      "gour": 5876,
      "gine": 5877,
      "gals": 5878,
      "ginger": 5879,
      "gather": 5880,
      "glob": 5881,
      "gaw": 5882,
      "galle": 5883,
      "gala": 5884,
      "gressed": 5885,
      "gush": 5886,
      "gays": 5887,
      "gaus": 5888,
      "hin": 5889,
      "hil": 5890,
      "hond": 5891,
      "hier": 5892,
      "hanna": 5893,
      "ito": 5894,
      "iar": 5895,
      "ipo": 5896,
      "iate": 5897,
      "iable": 5898,
      "ilet": 5899,
      "iph": 5900,
      "ika": 5901,
      "jar": 5902,
      "jor": 5903,
      "jap": 5904,
      "jup": 5905,
      "jest": 5906,
      "jaw": 5907,
      "jaz": 5908,
      "jail": 5909,
      "jaime": 5910,
      "ko": 5911,
      "kan": 5912,
      "kne": 5913,
      "kang": 5914,
      "kong": 5915,
      "klee": 5916,
      "kier": 5917,
      "kward": 5918,
      "kscrew": 5919,
      "kane": 5920,
      "kini": 5921,
      "lan": 5922,
      "lve": 5923,
      "late": 5924,
      "lack": 5925,
      "lick": 5926,
      "lous": 5927,
      "lur": 5928,
      "lph": 5929,
      "licked": 5930,
      "lined": 5931,
      "lance": 5932,
      "lute": 5933,
      "ms": 5934,
      "mill": 5935,
      "mam": 5936,
      "mare": 5937,
      "mers": 5938,
      "mpic": 5939,
      "mous": 5940,
      "mist": 5941,
      "mour": 5942,
      "mation": 5943,
      "milli": 5944,
      "mallow": 5945,
      "muttered": 5946,
      "nn": 5947,
      "nat": 5948,
      "non": 5949,
      "nic": 5950,
      "nest": 5951,
      "npr": 5952,
      "nia": 5953,
      "names": 5954,
      "nies": 5955,
      "nton": 5956,
      "native": 5957,
      "oo": 5958,
      "ox": 5959,
      "oon": 5960,
      "osa": 5961,
      "omy": 5962,
      "oped": 5963,
      "othes": 5964,
      "oates": 5965,
      "ograph": 5966,
      "pon": 5967,
      "pill": 5968,
      "pha": 5969,
      "pun": 5970,
      "pion": 5971,
      "pus": 5972,
      "pred": 5973,
      "psh": 5974,
      "pink": 5975,
      "page": 5976,
      "ptable": 5977,
      "pite": 5978,
      "pfi": 5979,
      "plot": 5980,
      "panda": 5981,
      "purch": 5982,
      "pane": 5983,
      "penter": 5984,
      "packet": 5985,
      "pours": 5986,
      "rou": 5987,
      "rap": 5988,
      "rout": 5989,
      "rink": 5990,
      "rant": 5991,
      "rack": 5992,
      "rally": 5993,
      "ration": 5994,
      "rna": 5995,
      "rase": 5996,
      "ride": 5997,
      "rinth": 5998,
      "sd": 5999,
      "sf": 6000,
      "sis": 6001,
      "spl": 6002,
      "scon": 6003,
      "sard": 6004,
      "sday": 6005,
      "swo": 6006,
      "sour": 6007,
      "site": 6008,
      "swell": 6009,
      "sfer": 6010,
      "swall": 6011,
      "soften": 6012,
      "skept": 6013,
      "sport": 6014,
      "slight": 6015,
      "soul": 6016,
      "scold": 6017,
      "sses": 6018,
      "south": 6019,
      "swears": 6020,
      "spared": 6021,
      "slighted": 6022,
      "scape": 6023,
      "tat": 6024,
      "till": 6025,
      "tally": 6026,
      "tment": 6027,
      "treading": 6028,
      "tara": 6029,
      "tank": 6030,
      "tending": 6031,
      "uve": 6032,
      "uent": 6033,
      "ual": 6034,
      "uly": 6035,
      "ury": 6036,
      "ures": 6037,
      "uous": 6038,
      "uum": 6039,
      "ucer": 6040,
      "uence": 6041,
      "uents": 6042,
      "ucky": 6043,
      "uko": 6044,
      "vp": 6045,
      "vy": 6046,
      "var": 6047,
      "vas": 6048,
      "vent": 6049,
      "vod": 6050,
      "vive": 6051,
      "vation": 6052,
      "vom": 6053,
      "vity": 6054,
      "vised": 6055,
      "vary": 6056,
      "vator": 6057,
      "vital": 6058,
      "wit": 6059,
      "wand": 6060,
      "wave": 6061,
      "wil": 6062,
      "wder": 6063,
      "wend": 6064,
      "wren": 6065,
      "wary": 6066,
      "wiz": 6067,
      "wire": 6068,
      "wimp": 6069,
      "xic": 6070,
      "xand": 6071,
      "xmas": 6072,
      "xiety": 6073,
      "xual": 6074,
      "yd": 6075,
      "ypt": 6076,
      "ydr": 6077,
      "yel": 6078,
      "ypus": 6079,
      "yrinth": 6080,
      "yuko": 6081,
      "zo": 6082,
      "zy": 6083,
      "zhn": 6084,
      "zim": 6085,
      "zag": 6086,
      "zone": 6087,
      "zard": 6088,
      "zig": 6089,
      "zel": 6090,
      "zzed": 6091,
      "zards": 6092,
      "thie": 6093,
      "thick": 6094,
      "thous": 6095,
      "thed": 6096,
      "theat": 6097,
      "thedr": 6098,
      "theless": 6099,
      "thebes": 6100,
      "edit": 6101,
      "eding": 6102,
      "edgar": 6103,
      "edingly": 6104,
      "anthem": 6105,
      "anced": 6106,
      "anese": 6107,
      "ancial": 6108,
      "anita": 6109,
      "anxiety": 6110,
      "infor": 6111,
      "inever": 6112,
      "inde": 6113,
      "inally": 6114,
      "inous": 6115,
      "inet": 6116,
      "inade": 6117,
      "ination": 6118,
      "inated": 6119,
      "income": 6120,
      "invin": 6121,
      "intre": 6122,
      "inning": 6123,
      "inner": 6124,
      "inches": 6125,
      "inction": 6126,
      "insul": 6127,
      "inants": 6128,
      "infected": 6129,
      "inhabits": 6130,
      "incorrect": 6131,
      "eral": 6132,
      "erich": 6133,
      "erked": 6134,
      "erts": 6135,
      "erved": 6136,
      "erup": 6137,
      "erra": 6138,
      "erced": 6139,
      "ergy": 6140,
      "ercises": 6141,
      "erika": 6142,
      "tomary": 6143,
      "toun": 6144,
      "toby": 6145,
      "tored": 6146,
      "toled": 6147,
      "toise": 6148,
      "toiled": 6149,
      "tories": 6150,
      "tong": 6151,
      "toky": 6152,
      "tobac": 6153,
      "towel": 6154,
      "topics": 6155,
      "toilet": 6156,
      "totally": 6157,
      "ats": 6158,
      "attr": 6159,
      "atician": 6160,
      "atypus": 6161,
      "rele": 6162,
      "reim": 6163,
      "reno": 6164,
      "reag": 6165,
      "repl": 6166,
      "regg": 6167,
      "represent": 6168,
      "restr": 6169,
      "recall": 6170,
      "recess": 6171,
      "reau": 6172,
      "replaced": 6173,
      "recovered": 6174,
      "rebel": 6175,
      "refund": 6176,
      "resulted": 6177,
      "represents": 6178,
      "repainted": 6179,
      "relax": 6180,
      "revised": 6181,
      "iss": 6182,
      "isted": 6183,
      "ismans": 6184,
      "iscu": 6185,
      "onoun": 6186,
      "onest": 6187,
      "outed": 6188,
      "outs": 6189,
      "ena": 6190,
      "enes": 6191,
      "enia": 6192,
      "enced": 6193,
      "enlar": 6194,
      "encia": 6195,
      "enos": 6196,
      "engine": 6197,
      "energy": 6198,
      "armen": 6199,
      "arose": 6200,
      "arney": 6201,
      "arsons": 6202,
      "argue": 6203,
      "aroo": 6204,
      "ller": 6205,
      "aser": 6206,
      "asso": 6207,
      "asho": 6208,
      "aside": 6209,
      "aspir": 6210,
      "astoun": 6211,
      "espe": 6212,
      "ester": 6213,
      "espie": 6214,
      "ored": 6215,
      "orus": 6216,
      "orate": 6217,
      "orers": 6218,
      "orig": 6219,
      "orator": 6220,
      "leg": 6221,
      "leve": 6222,
      "levi": 6223,
      "leine": 6224,
      "lected": 6225,
      "leaf": 6226,
      "leather": 6227,
      "leona": 6228,
      "leaks": 6229,
      "legate": 6230,
      "hei": 6231,
      "hell": 6232,
      "heated": 6233,
      "hector": 6234,
      "heydr": 6235,
      "beers": 6236,
      "beard": 6237,
      "beet": 6238,
      "below": 6239,
      "belinda": 6240,
      "behold": 6241,
      "becue": 6242,
      "whal": 6243,
      "whining": 6244,
      "whites": 6245,
      "itan": 6246,
      "iter": 6247,
      "itut": 6248,
      "ittal": 6249,
      "itals": 6250,
      "itively": 6251,
      "itcase": 6252,
      "ituents": 6253,
      "ices": 6254,
      "icle": 6255,
      "iche": 6256,
      "icit": 6257,
      "icted": 6258,
      "icies": 6259,
      "icists": 6260,
      "ictions": 6261,
      "icaps": 6262,
      "inge": 6263,
      "seed": 6264,
      "sean": 6265,
      "seld": 6266,
      "seal": 6267,
      "sewer": 6268,
      "sephone": 6269,
      "semes": 6270,
      "sexual": 6271,
      "seats": 6272,
      "seller": 6273,
      "seasho": 6274,
      "roe": 6275,
      "ropo": 6276,
      "roiling": 6277,
      "rophone": 6278,
      "rolls": 6279,
      "royal": 6280,
      "ropsh": 6281,
      "veled": 6282,
      "veland": 6283,
      "vetoed": 6284,
      "jock": 6285,
      "jolly": 6286,
      "joel": 6287,
      "jogg": 6288,
      "joyed": 6289,
      "joins": 6290,
      "joined": 6291,
      "joining": 6292,
      "meg": 6293,
      "meter": 6294,
      "mete": 6295,
      "meters": 6296,
      "meals": 6297,
      "members": 6298,
      "mexic": 6299,
      "andropo": 6300,
      "ides": 6301,
      "iders": 6302,
      "idled": 6303,
      "idence": 6304,
      "illac": 6305,
      "illus": 6306,
      "illness": 6307,
      "illance": 6308,
      "johnson": 6309,
      "stem": 6310,
      "stig": 6311,
      "stip": 6312,
      "straw": 6313,
      "hare": 6314,
      "haim": 6315,
      "hailed": 6316,
      "hacked": 6317,
      "habit": 6318,
      "hazard": 6319,
      "chol": 6320,
      "chanson": 6321,
      "chances": 6322,
      "chance": 6323,
      "chene": 6324,
      "chorus": 6325,
      "liar": 6326,
      "lime": 6327,
      "lifor": 6328,
      "liam": 6329,
      "liking": 6330,
      "lips": 6331,
      "lilies": 6332,
      "lizards": 6333,
      "entary": 6334,
      "entless": 6335,
      "entire": 6336,
      "entrance": 6337,
      "iment": 6338,
      "impres": 6339,
      "impor": 6340,
      "immen": 6341,
      "impress": 6342,
      "imposition": 6343,
      "immoral": 6344,
      "imarily": 6345,
      "ldy": 6346,
      "lder": 6347,
      "ldened": 6348,
      "boo": 6349,
      "boor": 6350,
      "bores": 6351,
      "boil": 6352,
      "boise": 6353,
      "boiled": 6354,
      "booze": 6355,
      "boasted": 6356,
      "boheme": 6357,
      "boldened": 6358,
      "noon": 6359,
      "nomi": 6360,
      "nowhere": 6361,
      "nobel": 6362,
      "nomous": 6363,
      "alys": 6364,
      "alpha": 6365,
      "verse": 6366,
      "version": 6367,
      "verbs": 6368,
      "verify": 6369,
      "adly": 6370,
      "adam": 6371,
      "adul": 6372,
      "advis": 6373,
      "adition": 6374,
      "adore": 6375,
      "adoration": 6376,
      "advisor": 6377,
      "adays": 6378,
      "addles": 6379,
      "mars": 6380,
      "marri": 6381,
      "marco": 6382,
      "marion": 6383,
      "marked": 6384,
      "marge": 6385,
      "marsh": 6386,
      "marily": 6387,
      "mardi": 6388,
      "marines": 6389,
      "margar": 6390,
      "marveled": 6391,
      "loin": 6392,
      "load": 6393,
      "lope": 6394,
      "loqu": 6395,
      "logi": 6396,
      "loping": 6397,
      "lynn": 6398,
      "lynomi": 6399,
      "kel": 6400,
      "rily": 6401,
      "ripe": 6402,
      "riam": 6403,
      "rious": 6404,
      "riell": 6405,
      "riona": 6406,
      "ripid": 6407,
      "rigals": 6408,
      "riloqu": 6409,
      "ayer": 6410,
      "mom": 6411,
      "mow": 6412,
      "move": 6413,
      "moder": 6414,
      "mood": 6415,
      "moti": 6416,
      "mosqu": 6417,
      "mobi": 6418,
      "moldy": 6419,
      "uted": 6420,
      "utly": 6421,
      "utah": 6422,
      "dove": 6423,
      "dolph": 6424,
      "weap": 6425,
      "weary": 6426,
      "wealth": 6427,
      "forts": 6428,
      "forgave": 6429,
      "formed": 6430,
      "forty": 6431,
      "forgive": 6432,
      "forks": 6433,
      "forger": 6434,
      "forward": 6435,
      "forgetting": 6436,
      "soak": 6437,
      "sogg": 6438,
      "soda": 6439,
      "social": 6440,
      "soothes": 6441,
      "pea": 6442,
      "pele": 6443,
      "peten": 6444,
      "petro": 6445,
      "pegas": 6446,
      "pelt": 6447,
      "pepper": 6448,
      "coils": 6449,
      "cocky": 6450,
      "copies": 6451,
      "coons": 6452,
      "coaxed": 6453,
      "codil": 6454,
      "termin": 6455,
      "unist": 6456,
      "undis": 6457,
      "unident": 6458,
      "unwanted": 6459,
      "united": 6460,
      "unfound": 6461,
      "unexpected": 6462,
      "unden": 6463,
      "unanim": 6464,
      "unreported": 6465,
      "uncomfortable": 6466,
      "unreadable": 6467,
      "unedu": 6468,
      "unflatter": 6469,
      "unreasonable": 6470,
      "unload": 6471,
      "manag": 6472,
      "manage": 6473,
      "mansion": 6474,
      "mangoes": 6475,
      "abound": 6476,
      "absin": 6477,
      "abraham": 6478,
      "aborator": 6479,
      "iron": 6480,
      "irts": 6481,
      "irish": 6482,
      "irma": 6483,
      "iration": 6484,
      "irled": 6485,
      "aca": 6486,
      "acement": 6487,
      "acknowled": 6488,
      "acinth": 6489,
      "ithaca": 6490,
      "billion": 6491,
      "amy": 6492,
      "amphi": 6493,
      "amming": 6494,
      "amusing": 6495,
      "ammation": 6496,
      "aminants": 6497,
      "wills": 6498,
      "willow": 6499,
      "aging": 6500,
      "agers": 6501,
      "agents": 6502,
      "agrant": 6503,
      "hose": 6504,
      "hopped": 6505,
      "hoop": 6506,
      "negot": 6507,
      "necess": 6508,
      "goals": 6509,
      "gols": 6510,
      "sued": 6511,
      "suff": 6512,
      "sushi": 6513,
      "suffic": 6514,
      "suitcase": 6515,
      "withstanding": 6516,
      "pool": 6517,
      "pops": 6518,
      "poster": 6519,
      "poets": 6520,
      "potec": 6521,
      "powder": 6522,
      "polynomi": 6523,
      "tedly": 6524,
      "booked": 6525,
      "onegin": 6526,
      "aining": 6527,
      "thers": 6528,
      "apers": 6529,
      "apie": 6530,
      "apparen": 6531,
      "approves": 6532,
      "aporate": 6533,
      "histori": 6534,
      "shears": 6535,
      "shepher": 6536,
      "shelve": 6537,
      "tsin": 6538,
      "tsar": 6539,
      "usal": 6540,
      "ryan": 6541,
      "sale": 6542,
      "save": 6543,
      "saving": 6544,
      "sailing": 6545,
      "sauc": 6546,
      "saucer": 6547,
      "upstairs": 6548,
      "notwithstanding": 6549,
      "emper": 6550,
      "email": 6551,
      "emitted": 6552,
      "emboldened": 6553,
      "anymore": 6554,
      "resour": 6555,
      "resign": 6556,
      "rescue": 6557,
      "respon": 6558,
      "reserved": 6559,
      "residence": 6560,
      "propose": 6561,
      "projection": 6562,
      "proceed": 6563,
      "progressed": 6564,
      "propane": 6565,
      "teed": 6566,
      "tease": 6567,
      "teenth": 6568,
      "ilty": 6569,
      "cathedr": 6570,
      "califor": 6571,
      "tube": 6572,
      "tutori": 6573,
      "tutored": 6574,
      "tulips": 6575,
      "ples": 6576,
      "plast": 6577,
      "plined": 6578,
      "places": 6579,
      "plucky": 6580,
      "platypus": 6581,
      "outran": 6582,
      "outdone": 6583,
      "dear": 6584,
      "depar": 6585,
      "deft": 6586,
      "defect": 6587,
      "depri": 6588,
      "decei": 6589,
      "devote": 6590,
      "delegate": 6591,
      "demeter": 6592,
      "cept": 6593,
      "celon": 6594,
      "consent": 6595,
      "conced": 6596,
      "concre": 6597,
      "condem": 6598,
      "consum": 6599,
      "connie": 6600,
      "convers": 6601,
      "conrad": 6602,
      "congrat": 6603,
      "confined": 6604,
      "geome": 6605,
      "gevity": 6606,
      "readers": 6607,
      "myra": 6608,
      "myrna": 6609,
      "ifred": 6610,
      "nowadays": 6611,
      "everyday": 6612,
      "exclaimed": 6613,
      "excus": 6614,
      "exhi": 6615,
      "excit": 6616,
      "exercises": 6617,
      "existed": 6618,
      "extermin": 6619,
      "whatever": 6620,
      "ounce": 6621,
      "mug": 6622,
      "mugged": 6623,
      "shed": 6624,
      "shit": 6625,
      "shines": 6626,
      "shouting": 6627,
      "shouted": 6628,
      "shropsh": 6629,
      "thereof": 6630,
      "thereby": 6631,
      "thanks": 6632,
      "somewhat": 6633,
      "stored": 6634,
      "stock": 6635,
      "stocks": 6636,
      "stodgy": 6637,
      "stoutly": 6638,
      "card": 6639,
      "carter": 6640,
      "carpenter": 6641,
      "laid": 6642,
      "quent": 6643,
      "quate": 6644,
      "quot": 6645,
      "quake": 6646,
      "quiche": 6647,
      "pical": 6648,
      "feather": 6649,
      "feeding": 6650,
      "cano": 6651,
      "cancer": 6652,
      "canning": 6653,
      "toms": 6654,
      "ardly": 6655,
      "arduous": 6656,
      "estry": 6657,
      "estate": 6658,
      "foyer": 6659,
      "folder": 6660,
      "bulle": 6661,
      "bugs": 6662,
      "buzzed": 6663,
      "bureau": 6664,
      "buenos": 6665,
      "parted": 6666,
      "parts": 6667,
      "paration": 6668,
      "parrot": 6669,
      "parliam": 6670,
      "prise": 6671,
      "print": 6672,
      "pronoun": 6673,
      "primarily": 6674,
      "prayer": 6675,
      "worthy": 6676,
      "butler": 6677,
      "rug": 6678,
      "rule": 6679,
      "ctly": 6680,
      "ishing": 6681,
      "ishingly": 6682,
      "igenia": 6683,
      "odd": 6684,
      "comment": 6685,
      "comrad": 6686,
      "compared": 6687,
      "competen": 6688,
      "ballad": 6689,
      "balloon": 6690,
      "maur": 6691,
      "mathem": 6692,
      "mauve": 6693,
      "leftn": 6694,
      "rowave": 6695,
      "angrily": 6696,
      "howard": 6697,
      "oline": 6698,
      "tape": 6699,
      "tator": 6700,
      "wolf": 6701,
      "wobbled": 6702,
      "tortoise": 6703,
      "talismans": 6704,
      "indian": 6705,
      "indler": 6706,
      "indicted": 6707,
      "essible": 6708,
      "presence": 6709,
      "ulate": 6710,
      "ulation": 6711,
      "ulated": 6712,
      "ulty": 6713,
      "ulence": 6714,
      "ultim": 6715,
      "raits": 6716,
      "ralized": 6717,
      "umn": 6718,
      "umph": 6719,
      "umps": 6720,
      "blasted": 6721,
      "blarney": 6722,
      "etie": 6723,
      "ease": 6724,
      "easier": 6725,
      "giraff": 6726,
      "percent": 6727,
      "perately": 6728,
      "perox": 6729,
      "persephone": 6730,
      "performed": 6731,
      "astron": 6732,
      "astray": 6733,
      "astfeeding": 6734,
      "kings": 6735,
      "kingston": 6736,
      "wns": 6737,
      "offspring": 6738,
      "ural": 6739,
      "urged": 6740,
      "urinated": 6741,
      "istic": 6742,
      "istration": 6743,
      "bras": 6744,
      "brim": 6745,
      "brandy": 6746,
      "vivien": 6747,
      "vikings": 6748,
      "renounce": 6749,
      "despa": 6750,
      "descended": 6751,
      "despite": 6752,
      "desperately": 6753,
      "wintry": 6754,
      "winifred": 6755,
      "jeep": 6756,
      "jects": 6757,
      "jewish": 6758,
      "gras": 6759,
      "grave": 6760,
      "graded": 6761,
      "grills": 6762,
      "werewolf": 6763,
      "ptly": 6764,
      "inequality": 6765,
      "navy": 6766,
      "cated": 6767,
      "catriona": 6768,
      "venus": 6769,
      "cled": 6770,
      "claren": 6771,
      "clerked": 6772,
      "ports": 6773,
      "portr": 6774,
      "porarily": 6775,
      "assment": 6776,
      "prey": 6777,
      "preting": 6778,
      "preposition": 6779,
      "precise": 6780,
      "prestig": 6781,
      "preposter": 6782,
      "preparation": 6783,
      "tened": 6784,
      "faxed": 6785,
      "faust": 6786,
      "fauce": 6787,
      "brokers": 6788,
      "broadly": 6789,
      "watches": 6790,
      "donny": 6791,
      "floyd": 6792,
      "spa": 6793,
      "spain": 6794,
      "spite": 6795,
      "spine": 6796,
      "spouse": 6797,
      "spending": 6798,
      "spinning": 6799,
      "spiders": 6800,
      "clove": 6801,
      "closet": 6802,
      "closes": 6803,
      "dane": 6804,
      "dante": 6805,
      "danny": 6806,
      "dancers": 6807,
      "madeleine": 6808,
      "helps": 6809,
      "helms": 6810,
      "nevertheless": 6811,
      "corkscrew": 6812,
      "harold": 6813,
      "harris": 6814,
      "harrods": 6815,
      "harassment": 6816,
      "typed": 6817,
      "tylen": 6818,
      "typing": 6819,
      "typical": 6820,
      "afric": 6821,
      "tied": 6822,
      "tipper": 6823,
      "forever": 6824,
      "foreman": 6825,
      "foretold": 6826,
      "display": 6827,
      "disappear": 6828,
      "dismay": 6829,
      "displayed": 6830,
      "displays": 6831,
      "disagree": 6832,
      "disappoint": 6833,
      "disease": 6834,
      "scure": 6835,
      "scroo": 6836,
      "scheme": 6837,
      "scoffs": 6838,
      "scrubbed": 6839,
      "scenes": 6840,
      "drained": 6841,
      "cleans": 6842,
      "cleaver": 6843,
      "cleveland": 6844,
      "berg": 6845,
      "bertr": 6846,
      "guing": 6847,
      "gusta": 6848,
      "guilt": 6849,
      "guaran": 6850,
      "guinever": 6851,
      "guilty": 6852,
      "handbook": 6853,
      "handbag": 6854,
      "handker": 6855,
      "handicaps": 6856,
      "lesbian": 6857,
      "file": 6858,
      "obscene": 6859,
      "objected": 6860,
      "obhan": 6861,
      "obscure": 6862,
      "feroc": 6863,
      "solace": 6864,
      "solving": 6865,
      "menus": 6866,
      "path": 6867,
      "pair": 6868,
      "traged": 6869,
      "trained": 6870,
      "tracked": 6871,
      "trash": 6872,
      "tradition": 6873,
      "eath": 6874,
      "phlet": 6875,
      "phoned": 6876,
      "phrase": 6877,
      "hits": 6878,
      "cerer": 6879,
      "dyed": 6880,
      "dylan": 6881,
      "mightn": 6882,
      "smile": 6883,
      "slew": 6884,
      "sleeve": 6885,
      "specia": 6886,
      "wheel": 6887,
      "cedes": 6888,
      "cedric": 6889,
      "overthrow": 6890,
      "overgrown": 6891,
      "overjoyed": 6892,
      "seething": 6893,
      "polite": 6894,
      "polishes": 6895,
      "policies": 6896,
      "cutting": 6897,
      "mons": 6898,
      "monroe": 6899,
      "mongols": 6900,
      "chose": 6901,
      "chops": 6902,
      "chopper": 6903,
      "friendship": 6904,
      "hatche": 6905,
      "mile": 6906,
      "miro": 6907,
      "mika": 6908,
      "miriam": 6909,
      "maybe": 6910,
      "bodyguard": 6911,
      "keys": 6912,
      "barry": 6913,
      "barber": 6914,
      "barks": 6915,
      "barric": 6916,
      "barbecue": 6917,
      "barcelon": 6918,
      "ips": 6919,
      "ipes": 6920,
      "patter": 6921,
      "pattern": 6922,
      "patriot": 6923,
      "ellation": 6924,
      "fuls": 6925,
      "fluent": 6926,
      "sided": 6927,
      "sidiar": 6928,
      "shame": 6929,
      "shade": 6930,
      "shaving": 6931,
      "shapes": 6932,
      "truly": 6933,
      "surrey": 6934,
      "surfboard": 6935,
      "survive": 6936,
      "afternoon": 6937,
      "cycled": 6938,
      "susanne": 6939,
      "positively": 6940,
      "countries": 6941,
      "runaway": 6942,
      "attic": 6943,
      "attending": 6944,
      "attitude": 6945,
      "elmer": 6946,
      "elton": 6947,
      "elicit": 6948,
      "finest": 6949,
      "financial": 6950,
      "gger": 6951,
      "ggage": 6952,
      "glider": 6953,
      "trembled": 6954,
      "nightmare": 6955,
      "oldest": 6956,
      "sible": 6957,
      "sibil": 6958,
      "sierra": 6959,
      "siobhan": 6960,
      "sened": 6961,
      "sense": 6962,
      "sensibil": 6963,
      "downs": 6964,
      "horne": 6965,
      "longs": 6966,
      "longing": 6967,
      "north": 6968,
      "norma": 6969,
      "nordic": 6970,
      "normal": 6971,
      "shop": 6972,
      "shore": 6973,
      "shopped": 6974,
      "flywheel": 6975,
      "yearn": 6976,
      "yearly": 6977,
      "rodney": 6978,
      "planes": 6979,
      "exams": 6980,
      "examination": 6981,
      "examples": 6982,
      "rise": 6983,
      "rises": 6984,
      "thoughts": 6985,
      "needing": 6986,
      "turns": 6987,
      "presentation": 6988,
      "gene": 6989,
      "genes": 6990,
      "visas": 6991,
      "doorbell": 6992,
      "eleven": 6993,
      "element": 6994,
      "elevator": 6995,
      "artist": 6996,
      "poisonous": 6997,
      "hunters": 6998,
      "hunger": 6999,
      "owed": 7000,
      "penn": 7001,
      "sunba": 7002,
      "sunrise": 7003,
      "walks": 7004,
      "wallet": 7005,
      "gardens": 7006,
      "giant": 7007,
      "pipe": 7008,
      "pires": 7009,
      "pierced": 7010,
      "thrill": 7011,
      "haired": 7012,
      "goodnight": 7013,
      "babel": 7014,
      "bathed": 7015,
      "beneath": 7016,
      "chef": 7017,
      "cheating": 7018,
      "chemist": 7019,
      "match": 7020,
      "mative": 7021,
      "vietn": 7022,
      "waves": 7023,
      "waited": 7024,
      "heads": 7025,
      "headlines": 7026,
      "hometown": 7027,
      "wooden": 7028,
      "certainty": 7029,
      "puzz": 7030,
      "stands": 7031,
      "action": 7032,
      "active": 7033,
      "actress": 7034,
      "builder": 7035,
      "career": 7036,
      "drogen": 7037,
      "greg": 7038,
      "gregor": 7039,
      "squint": 7040,
      "classroom": 7041,
      "cries": 7042,
      "differs": 7043,
      "shows": 7044,
      "tunnel": 7045,
      "zebras": 7046,
      "commended": 7047,
      "commission": 7048,
      "communist": 7049,
      "merv": 7050,
      "merman": 7051,
      "mercu": 7052,
      "meryl": 7053,
      "mersey": 7054,
      "mercedes": 7055,
      "calm": 7056,
      "eagues": 7057,
      "sammy": 7058,
      "bobbie": 7059,
      "sleeping": 7060,
      "sonny": 7061,
      "salts": 7062,
      "salary": 7063,
      "salads": 7064,
      "lotion": 7065,
      "lotte": 7066,
      "fugit": 7067,
      "otter": 7068,
      "maxine": 7069,
      "caps": 7070,
      "system": 7071,
      "stew": 7072,
      "stein": 7073,
      "steal": 7074,
      "steady": 7075,
      "steaks": 7076,
      "fools": 7077,
      "backbone": 7078,
      "cents": 7079,
      "center": 7080,
      "central": 7081,
      "century": 7082,
      "ronald": 7083,
      "switch": 7084,
      "swaddled": 7085,
      "swiss": 7086,
      "swindler": 7087,
      "armour": 7088,
      "armchairs": 7089,
      "promises": 7090,
      "prominent": 7091,
      "promiscu": 7092,
      "promptly": 7093,
      "expecting": 7094,
      "dense": 7095,
      "denim": 7096,
      "mort": 7097,
      "morpho": 7098,
      "microphone": 7099,
      "microwave": 7100,
      "burse": 7101,
      "burned": 7102,
      "burlap": 7103,
      "banned": 7104,
      "dripping": 7105,
      "dresses": 7106,
      "highly": 7107,
      "highway": 7108,
      "kindly": 7109,
      "cookie": 7110,
      "contact": 7111,
      "contaminants": 7112,
      "luggage": 7113,
      "mainly": 7114,
      "spoil": 7115,
      "cupies": 7116,
      "dawn": 7117,
      "finding": 7118,
      "skin": 7119,
      "skies": 7120,
      "skins": 7121,
      "skirts": 7122,
      "sites": 7123,
      "straddled": 7124,
      "straddles": 7125,
      "jeane": 7126,
      "dime": 7127,
      "divul": 7128,
      "mines": 7129,
      "minor": 7130,
      "mining": 7131,
      "minivan": 7132,
      "internet": 7133,
      "interconne": 7134,
      "interpreting": 7135,
      "personages": 7136,
      "cible": 7137,
      "cially": 7138,
      "ciated": 7139,
      "ciplined": 7140,
      "customary": 7141,
      "davids": 7142,
      "betty": 7143,
      "drinks": 7144,
      "blocks": 7145,
      "blocking": 7146,
      "events": 7147,
      "evaporate": 7148,
      "frenzy": 7149,
      "kenny": 7150,
      "snowing": 7151,
      "snowball": 7152,
      "portraits": 7153,
      "possibility": 7154,
      "alive": 7155,
      "aliza": 7156,
      "brezhn": 7157,
      "breastfeeding": 7158,
      "critique": 7159,
      "fiction": 7160,
      "relation": 7161,
      "relating": 7162,
      "relative": 7163,
      "relentless": 7164,
      "beating": 7165,
      "keeping": 7166,
      "fireman": 7167,
      "solutions": 7168,
      "evenings": 7169,
      "jumping": 7170,
      "nike": 7171,
      "nikes": 7172,
      "rative": 7173,
      "warn": 7174,
      "warped": 7175,
      "warns": 7176,
      "intellectu": 7177,
      "ensional": 7178,
      "hamsters": 7179,
      "governments": 7180,
      "compare": 7181,
      "compound": 7182,
      "generate": 7183,
      "generation": 7184,
      "generics": 7185,
      "generative": 7186,
      "generos": 7187,
      "generously": 7188,
      "dining": 7189,
      "diners": 7190,
      "dinosa": 7191,
      "lica": 7192,
      "misha": 7193,
      "murkier": 7194,
      "blackjack": 7195,
      "speakers": 7196,
      "owns": 7197,
      "prime": 7198,
      "priate": 7199,
      "priest": 7200,
      "remembers": 7201,
      "icians": 7202,
      "bothering": 7203,
      "constituents": 7204,
      "constellation": 7205,
      "efforts": 7206,
      "troy": 7207,
      "trolls": 7208,
      "trolley": 7209,
      "trophy": 7210,
      "tropics": 7211,
      "zapotec": 7212,
      "weeks": 7213,
      "accused": 7214,
      "accessible": 7215,
      "golden": 7216,
      "goldberg": 7217,
      "goldstein": 7218,
      "quarter": 7219,
      "quarrel": 7220,
      "paulin": 7221,
      "difference": 7222,
      "publicly": 7223,
      "bribe": 7224,
      "nicely": 7225,
      "opening": 7226,
      "slay": 7227,
      "slave": 7228,
      "slamming": 7229,
      "steps": 7230,
      "stepmother": 7231,
      "stephan": 7232,
      "advised": 7233,
      "advanced": 7234,
      "nearby": 7235,
      "subjects": 7236,
      "subsidiar": 7237,
      "confess": 7238,
      "confessed": 7239,
      "convincing": 7240,
      "considerably": 7241,
      "criticize": 7242,
      "weekdays": 7243,
      "weekends": 7244,
      "darn": 7245,
      "dared": 7246,
      "darin": 7247,
      "daring": 7248,
      "garlic": 7249,
      "milena": 7250,
      "targets": 7251,
      "tarpaulin": 7252,
      "voting": 7253,
      "vogue": 7254,
      "voices": 7255,
      "thornton": 7256,
      "robins": 7257,
      "lightning": 7258,
      "colour": 7259,
      "colson": 7260,
      "geordie": 7261,
      "georges": 7262,
      "praising": 7263,
      "prawns": 7264,
      "committed": 7265,
      "bikini": 7266,
      "biograph": 7267,
      "born": 7268,
      "border": 7269,
      "dickens": 7270,
      "federal": 7271,
      "lenin": 7272,
      "lenny": 7273,
      "musgrave": 7274,
      "musicians": 7275,
      "serves": 7276,
      "simmons": 7277,
      "valencia": 7278,
      "analges": 7279,
      "college": 7280,
      "sulk": 7281,
      "compute": 7282,
      "proudly": 7283,
      "professors": 7284,
      "augusta": 7285,
      "bags": 7286,
      "cursing": 7287,
      "equal": 7288,
      "equations": 7289,
      "honked": 7290,
      "pholes": 7291,
      "photos": 7292,
      "invested": 7293,
      "investment": 7294,
      "removing": 7295,
      "strived": 7296,
      "appleton": 7297,
      "deeply": 7298,
      "conferring": 7299,
      "greatest": 7300,
      "differential": 7301,
      "biggest": 7302,
      "curious": 7303,
      "coughs": 7304,
      "fitted": 7305,
      "iently": 7306,
      "longevity": 7307,
      "passing": 7308,
      "passports": 7309,
      "twinge": 7310,
      "twirled": 7311,
      "volumes": 7312,
      "volcano": 7313,
      "whitey": 7314,
      "charge": 7315,
      "charged": 7316,
      "washes": 7317,
      "washroom": 7318,
      "youngest": 7319,
      "admiration": 7320,
      "grading": 7321,
      "scratch": 7322,
      "flattened": 7323,
      "sixty": 7324,
      "owls": 7325,
      "milkshakes": 7326,
      "clip": 7327,
      "clients": 7328,
      "frieda": 7329,
      "minds": 7330,
      "nursing": 7331,
      "nurses": 7332,
      "octop": 7333,
      "occupies": 7334,
      "angelica": 7335,
      "toss": 7336,
      "remains": 7337,
      "begun": 7338,
      "summers": 7339,
      "described": 7340,
      "scribbled": 7341,
      "scribing": 7342,
      "bathroom": 7343,
      "bathrooms": 7344,
      "frames": 7345,
      "fridge": 7346,
      "fraser": 7347,
      "fragrant": 7348,
      "human": 7349,
      "knocks": 7350,
      "sorcerer": 7351,
      "tasha": 7352,
      "escaping": 7353,
      "beaver": 7354,
      "starts": 7355,
      "starting": 7356,
      "imagines": 7357,
      "fixture": 7358,
      "trainer": 7359,
      "training": 7360,
      "attentive": 7361,
      "doubts": 7362,
      "mornings": 7363,
      "120": 7364,
      "aware": 7365,
      "awkward": 7366,
      "candle": 7367,
      "figure": 7368,
      "latin": 7369,
      "latter": 7370,
      "rush": 7371,
      "halls": 7372,
      "lifeline": 7373,
      "collars": 7374,
      "collided": 7375,
      "collaborator": 7376,
      "colleagues": 7377,
      "devour": 7378,
      "devours": 7379,
      "guardians": 7380,
      "languished": 7381,
      "languages": 7382,
      "airport": 7383,
      "euripid": 7384,
      "gordon": 7385,
      "gories": 7386,
      "gordie": 7387,
      "gorbache": 7388,
      "irement": 7389,
      "judged": 7390,
      "soundscape": 7391,
      "transfer": 7392,
      "transcribing": 7393,
      "tasting": 7394,
      "windy": 7395,
      "yeti": 7396,
      "informal": 7397,
      "informers": 7398,
      "recitals": 7399,
      "recipes": 7400,
      "realization": 7401,
      "heartedly": 7402,
      "allege": 7403,
      "supports": 7404,
      "supporting": 7405,
      "major": 7406,
      "majors": 7407,
      "violent": 7408,
      "pretzel": 7409,
      "shovel": 7410,
      "turnips": 7411,
      "politicians": 7412,
      "candidates": 7413,
      "opportunities": 7414,
      "athens": 7415,
      "crack": 7416,
      "cracy": 7417,
      "crash": 7418,
      "crashed": 7419,
      "jimmy": 7420,
      "kicks": 7421,
      "kicking": 7422,
      "landed": 7423,
      "landlor": 7424,
      "rador": 7425,
      "radish": 7426,
      "smoke": 7427,
      "smoking": 7428,
      "tapestry": 7429,
      "vanishing": 7430,
      "vacuum": 7431,
      "refrained": 7432,
      "refute": 7433,
      "refusing": 7434,
      "refuted": 7435,
      "refusal": 7436,
      "ashamed": 7437,
      "orology": 7438,
      "stupor": 7439,
      "chatter": 7440,
      "hopefuls": 7441,
      "postcards": 7442,
      "explorers": 7443,
      "newspapers": 7444,
      "grandmother": 7445,
      "grandson": 7446,
      "spank": 7447,
      "availability": 7448,
      "squirted": 7449,
      "swims": 7450,
      "directly": 7451,
      "diamonds": 7452,
      "evidences": 7453,
      "evidenced": 7454,
      "authority": 7455,
      "scholarships": 7456,
      "beauty": 7457,
      "figures": 7458,
      "appreciate": 7459,
      "1950": 7460,
      "1930": 7461,
      "1980": 7462,
      "1913": 7463,
      "1929": 7464,
      "1997": 7465,
      "brownie": 7466,
      "cruising": 7467,
      "dams": 7468,
      "damaging": 7469,
      "draft": 7470,
      "drafted": 7471,
      "gasoline": 7472,
      "midair": 7473,
      "palmer": 7474,
      "tables": 7475,
      "testify": 7476,
      "virus": 7477,
      "viruses": 7478,
      "virulence": 7479,
      "republicans": 7480,
      "result": 7481,
      "archy": 7482,
      "leaders": 7483,
      "joseph": 7484,
      "petition": 7485,
      "suspects": 7486,
      "provide": 7487,
      "provides": 7488,
      "exceedingly": 7489,
      "carriage": 7490,
      "prescribe": 7491,
      "phonetics": 7492,
      "physician": 7493,
      "physicists": 7494,
      "barnes": 7495,
      "magazines": 7496,
      "wrongdoing": 7497,
      "interviewing": 7498,
      "announcement": 7499,
      "statements": 7500,
      "american": 7501,
      "succumbs": 7502,
      "cabinet": 7503,
      "dug": 7504,
      "dieting": 7505,
      "groaned": 7506,
      "groomed": 7507,
      "ios": 7508,
      "tested": 7509,
      "witches": 7510,
      "inclined": 7511,
      "inspected": 7512,
      "receipt": 7513,
      "arguments": 7514,
      "stalin": 7515,
      "christina": 7516,
      "bombing": 7517,
      "abandonment": 7518,
      "neutralized": 7519,
      "rubber": 7520,
      "rubbing": 7521,
      "fairly": 7522,
      "earthquake": 7523,
      "positioned": 7524,
      "greenhouse": 7525,
      "greenpeace": 7526,
      "equipments": 7527,
      "defending": 7528,
      "directors": 7529,
      "castle": 7530,
      "courses": 7531,
      "druids": 7532,
      "freedom": 7533,
      "gillespie": 7534,
      "gifts": 7535,
      "greece": 7536,
      "housing": 7537,
      "racial": 7538,
      "raccoons": 7539,
      "sweetie": 7540,
      "scars": 7541,
      "tickled": 7542,
      "yolks": 7543,
      "insulted": 7544,
      "tourist": 7545,
      "tourism": 7546,
      "regulation": 7547,
      "registration": 7548,
      "seminars": 7549,
      "amount": 7550,
      "dealer": 7551,
      "endorsed": 7552,
      "blankets": 7553,
      "scraps": 7554,
      "scrapie": 7555,
      "glaring": 7556,
      "glasses": 7557,
      "pencils": 7558,
      "burnt": 7559,
      "continue": 7560,
      "advantages": 7561,
      "collecting": 7562,
      "annoying": 7563,
      "enjoyable": 7564,
      "avoiding": 7565,
      "deliciously": 7566,
      "audit": 7567,
      "audrey": 7568,
      "brightest": 7569,
      "crane": 7570,
      "hymn": 7571,
      "hyacinth": 7572,
      "hydrogen": 7573,
      "hideous": 7574,
      "pineapples": 7575,
      "belonged": 7576,
      "belonging": 7577,
      "rotten": 7578,
      "melvin": 7579,
      "adopt": 7580,
      "rifle": 7581,
      "weatherman": 7582,
      "irritations": 7583,
      "networking": 7584,
      "supervision": 7585,
      "applications": 7586,
      "teenagers": 7587,
      "telephone": 7588,
      "concluded": 7589,
      "existing": 7590,
      "shirt": 7591,
      "shirley": 7592,
      "fearful": 7593,
      "cleaner": 7594,
      "phoning": 7595,
      "flags": 7596,
      "calculate": 7597,
      "employee": 7598,
      "baseballs": 7599,
      "sandwiches": 7600,
      "grocery": 7601,
      "continues": 7602,
      "departmental": 7603,
      "batting": 7604,
      "crawl": 7605,
      "crawled": 7606,
      "crawls": 7607,
      "desserts": 7608,
      "eyeglasses": 7609,
      "fourteen": 7610,
      "lacey": 7611,
      "purse": 7612,
      "purchased": 7613,
      "puritan": 7614,
      "temple": 7615,
      "temporary": 7616,
      "temporarily": 7617,
      "vampires": 7618,
      "independent": 7619,
      "tools": 7620,
      "realised": 7621,
      "lemma": 7622,
      "vegetarian": 7623,
      "strangest": 7624,
      "entering": 7625,
      "entertained": 7626,
      "enterprise": 7627,
      "bowls": 7628,
      "aloe": 7629,
      "martian": 7630,
      "martina": 7631,
      "martini": 7632,
      "lorenzo": 7633,
      "termites": 7634,
      "actual": 7635,
      "accept": 7636,
      "acceptable": 7637,
      "acquittal": 7638,
      "golfer": 7639,
      "concerts": 7640,
      "concerns": 7641,
      "convicts": 7642,
      "mysteries": 7643,
      "shiny": 7644,
      "bulb": 7645,
      "bulge": 7646,
      "complicated": 7647,
      "complaining": 7648,
      "jewel": 7649,
      "assassinated": 7650,
      "waltzes": 7651,
      "touching": 7652,
      "springfield": 7653,
      "service": 7654,
      "demanded": 7655,
      "freshman": 7656,
      "conclusion": 7657,
      "reluctantly": 7658,
      "'',": 7659,
      "''.": 7660,
      "barely": 7661,
      "drawings": 7662,
      "frees": 7663,
      "frequent": 7664,
      "falling": 7665,
      "farmers": 7666,
      "ilians": 7667,
      "korea": 7668,
      "lasted": 7669,
      "madrigals": 7670,
      "nuts": 7671,
      "oysters": 7672,
      "pesto": 7673,
      "pirates": 7674,
      "pitchfork": 7675,
      "rarely": 7676,
      "triumph": 7677,
      "trigger": 7678,
      "warming": 7679,
      "thursday": 7680,
      "incredible": 7681,
      "referred": 7682,
      "referring": 7683,
      "recently": 7684,
      "roots": 7685,
      "mealy": 7686,
      "novel": 7687,
      "novels": 7688,
      "uniform": 7689,
      "godsend": 7690,
      "therapy": 7691,
      "developing": 7692,
      "delivering": 7693,
      "conveniently": 7694,
      "establish": 7695,
      "followed": 7696,
      "competent": 7697,
      "assistance": 7698,
      "tenderloin": 7699,
      "julian": 7700,
      "typewriter": 7701,
      "trimmed": 7702,
      "wheaties": 7703,
      "insistent": 7704,
      "perspective": 7705,
      "stretches": 7706,
      "hammers": 7707,
      "bottled": 7708,
      "slapped": 7709,
      "hurriedly": 7710,
      "analysed": 7711,
      "criminal": 7712,
      "exceptions": 7713,
      "chalky": 7714,
      "dreams": 7715,
      "inspectors": 7716,
      "goddesses": 7717,
      "alexandra": 7718,
      "particularly": 7719,
      "2002": 7720,
      "apologi": 7721,
      "bunnies": 7722,
      "budged": 7723,
      "blame": 7724,
      "couch": 7725,
      "crocodil": 7726,
      "categories": 7727,
      "dirty": 7728,
      "egypt": 7729,
      "facts": 7730,
      "factories": 7731,
      "faculty": 7732,
      "galloped": 7733,
      "granted": 7734,
      "hinges": 7735,
      "labor": 7736,
      "labyrinth": 7737,
      "labrador": 7738,
      "mpus": 7739,
      "nuclear": 7740,
      "nineteenth": 7741,
      "padlock": 7742,
      "pamphlet": 7743,
      "rides": 7744,
      "snoring": 7745,
      "snorted": 7746,
      "snorkel": 7747,
      "inflated": 7748,
      "influence": 7749,
      "inflammation": 7750,
      "repeated": 7751,
      "relief": 7752,
      "regards": 7753,
      "revolution": 7754,
      "arrows": 7755,
      "astonishingly": 7756,
      "whistle": 7757,
      "stays": 7758,
      "chuckle": 7759,
      "chuckles": 7760,
      "chuckled": 7761,
      "cowardly": 7762,
      "agrees": 7763,
      "agencies": 7764,
      "negative": 7765,
      "negatives": 7766,
      "neglected": 7767,
      "suscept": 7768,
      "appropriate": 7769,
      "sailors": 7770,
      "promoted": 7771,
      "promoters": 7772,
      "promotion": 7773,
      "programme": 7774,
      "depictions": 7775,
      "deathly": 7776,
      "experiment": 7777,
      "sharp": 7778,
      "pleases": 7779,
      "qualities": 7780,
      "astrology": 7781,
      "happening": 7782,
      "sponge": 7783,
      "spirits": 7784,
      "affecting": 7785,
      "screen": 7786,
      "patients": 7787,
      "truthful": 7788,
      "surviving": 7789,
      "saturn": 7790,
      "saturday": 7791,
      "saturdays": 7792,
      "chewing": 7793,
      "intriguing": 7794,
      "furious": 7795,
      "settlement": 7796,
      "blockage": 7797,
      "confidently": 7798,
      "lengthy": 7799,
      "remodeling": 7800,
      "remodelled": 7801,
      "remodelling": 7802,
      "passenger": 7803,
      "softball": 7804,
      "embarrassment": 7805,
      "1970s": 7806,
      "includes": 7807,
      "inspecting": 7808,
      "lecturer": 7809,
      "demonstration": 7810,
      "participate": 7811,
      "technician": 7812,
      "technology": 7813,
      "technique": 7814,
      "competitions": 7815,
      "efficiently": 7816,
      "films": 7817,
      "13th": 7818,
      "average": 7819,
      "brazil": 7820,
      "brazilians": 7821,
      "censors": 7822,
      "censored": 7823,
      "dictator": 7824,
      "dimple": 7825,
      "dimensional": 7826,
      "dishonest": 7827,
      "eighty": 7828,
      "jasper": 7829,
      "jasmine": 7830,
      "lump": 7831,
      "luminous": 7832,
      "message": 7833,
      "omelet": 7834,
      "olympic": 7835,
      "olympus": 7836,
      "operate": 7837,
      "operation": 7838,
      "pump": 7839,
      "pumped": 7840,
      "smelled": 7841,
      "smells": 7842,
      "vulgar": 7843,
      "variable": 7844,
      "variables": 7845,
      "threadbare": 7846,
      "educt": 7847,
      "insect": 7848,
      "insects": 7849,
      "instant": 7850,
      "institut": 7851,
      "inherit": 7852,
      "inherited": 7853,
      "instead": 7854,
      "incorporated": 7855,
      "incorporates": 7856,
      "reveal": 7857,
      "reveals": 7858,
      "request": 7859,
      "requirement": 7860,
      "ascribe": 7861,
      "ascribed": 7862,
      "leaky": 7863,
      "seymour": 7864,
      "meaning": 7865,
      "stabbed": 7866,
      "chimed": 7867,
      "chimney": 7868,
      "limited": 7869,
      "limits": 7870,
      "impact": 7871,
      "implicated": 7872,
      "implications": 7873,
      "advertising": 7874,
      "advertises": 7875,
      "loosened": 7876,
      "loopholes": 7877,
      "riots": 7878,
      "rioters": 7879,
      "welcome": 7880,
      "peacekeeping": 7881,
      "unicorn": 7882,
      "unicorns": 7883,
      "unfortunate": 7884,
      "unfortunately": 7885,
      "amazing": 7886,
      "amazonia": 7887,
      "appointment": 7888,
      "producer": 7889,
      "produced": 7890,
      "demolish": 7891,
      "democracy": 7892,
      "connection": 7893,
      "conditioning": 7894,
      "toothbrush": 7895,
      "gratitude": 7896,
      "tiptoed": 7897,
      "observed": 7898,
      "observers": 7899,
      "trusts": 7900,
      "surveyed": 7901,
      "surveillance": 7902,
      "attacking": 7903,
      "cheerful": 7904,
      "cheerios": 7905,
      "squeaked": 7906,
      "squeaking": 7907,
      "contemplate": 7908,
      "contemporary": 7909,
      "lucie": 7910,
      "lucrative": 7911,
      "invitation": 7912,
      "invitations": 7913,
      "diligent": 7914,
      "diligently": 7915,
      "librarians": 7916,
      "submit": 7917,
      "submitted": 7918,
      "subscribe": 7919,
      "subscription": 7920,
      "simultaneous": 7921,
      "simultaneously": 7922,
      "succeeded": 7923,
      "autonomous": 7924,
      "automobi": 7925,
      "honorable": 7926,
      "passionate": 7927,
      "emptying": 7928,
      "virtue": 7929,
      "virtually": 7930,
      "virginia": 7931,
      "gallery": 7932,
      "galleries": 7933,
      "suspicion": 7934,
      "suspicious": 7935,
      "opponent": 7936,
      "opponents": 7937,
      "optimism": 7938,
      "optimistic": 7939,
      "administrators": 7940,
      ",….": 7941,
      "amoeba": 7942,
      "autumn": 7943,
      "aqueduct": 7944,
      "bonny": 7945,
      "balkan": 7946,
      "bamboo": 7947,
      "cadillac": 7948,
      "clyde": 7949,
      "canyon": 7950,
      "champion": 7951,
      "ddt": 7952,
      "dallas": 7953,
      "dagger": 7954,
      "digitize": 7955,
      "dangers": 7956,
      "dastardly": 7957,
      "distinction": 7958,
      "davis": 7959,
      "dartmouth": 7960,
      "eloise": 7961,
      "eclipse": 7962,
      "einstein": 7963,
      "female": 7964,
      "features": 7965,
      "fashion": 7966,
      "gutter": 7967,
      "gabriell": 7968,
      "gusto": 7969,
      "giggle": 7970,
      "gourmet": 7971,
      "gathered": 7972,
      "global": 7973,
      "gawking": 7974,
      "galleon": 7975,
      "galaxy": 7976,
      "gushing": 7977,
      "gauss": 7978,
      "hinted": 7979,
      "hilary": 7980,
      "honda": 7981,
      "hierarchy": 7982,
      "ipod": 7983,
      "iphigenia": 7984,
      "jorge": 7985,
      "japanese": 7986,
      "jupiter": 7987,
      "jaws": 7988,
      "jazz": 7989,
      "knee": 7990,
      "kangaroo": 7991,
      "lousy": 7992,
      "lurid": 7993,
      "lancelot": 7994,
      "million": 7995,
      "mammal": 7996,
      "millimeters": 7997,
      "mallows": 7998,
      "natural": 7999,
      "nonsense": 8000,
      "nicest": 8001,
      "pillow": 8002,
      "punched": 8003,
      "predict": 8004,
      "pfizer": 8005,
      "purchase": 8006,
      "route": 8007,
      "raphael": 8008,
      "routine": 8009,
      "sisters": 8010,
      "splashed": 8011,
      "scones": 8012,
      "sardines": 8013,
      "swooned": 8014,
      "source": 8015,
      "swallowed": 8016,
      "softens": 8017,
      "skeptical": 8018,
      "slightest": 8019,
      "scolding": 8020,
      "tatiana": 8021,
      "ulysses": 8022,
      "variety": 8023,
      "vases": 8024,
      "ventriloqu": 8025,
      "vodka": 8026,
      "vomited": 8027,
      "wilma": 8028,
      "wendy": 8029,
      "wizard": 8030,
      "xander": 8031,
      "yeltsin": 8032,
      "zimmerman": 8033,
      "zagged": 8034,
      "zigzagged": 8035,
      "thieves": 8036,
      "thickened": 8037,
      "thousand": 8038,
      "theater": 8039,
      "editing": 8040,
      "informative": 8041,
      "index": 8042,
      "inadequate": 8043,
      "invincible": 8044,
      "intrepid": 8045,
      "insult": 8046,
      "incorrectly": 8047,
      "erupts": 8048,
      "toledo": 8049,
      "tongs": 8050,
      "tokyo": 8051,
      "tobacco": 8052,
      "attractive": 8053,
      "released": 8054,
      "reimburse": 8055,
      "reagan": 8056,
      "replacement": 8057,
      "reggie": 8058,
      "restrictions": 8059,
      "recession": 8060,
      "outside": 8061,
      "enlarged": 8062,
      "engineers": 8063,
      "armenian": 8064,
      "associated": 8065,
      "aspirin": 8066,
      "astounded": 8067,
      "especially": 8068,
      "esterol": 8069,
      "originally": 8070,
      "level": 8071,
      "heydrich": 8072,
      "beetle": 8073,
      "whales": 8074,
      "seldom": 8075,
      "sealed": 8076,
      "semester": 8077,
      "seashore": 8078,
      "joggers": 8079,
      "meteorology": 8080,
      "mexico": 8081,
      "andropov": 8082,
      "illusions": 8083,
      "stipulated": 8084,
      "strawberry": 8085,
      "habitually": 8086,
      "hazardous": 8087,
      "cholesterol": 8088,
      "cheney": 8089,
      "impression": 8090,
      "imported": 8091,
      "immensely": 8092,
      "impresses": 8093,
      "alyssa": 8094,
      "alphabet": 8095,
      "adults": 8096,
      "advisable": 8097,
      "marriage": 8098,
      "marshmallows": 8099,
      "marilyn": 8100,
      "margarita": 8101,
      "lopez": 8102,
      "moderately": 8103,
      "motivation": 8104,
      "mosquito": 8105,
      "dolphins": 8106,
      "weapons": 8107,
      "forgery": 8108,
      "forwarded": 8109,
      "soggy": 8110,
      "petrol": 8111,
      "pegasus": 8112,
      "undisciplined": 8113,
      "unidentified": 8114,
      "unfounded": 8115,
      "undeniable": 8116,
      "unanimous": 8117,
      "uneducated": 8118,
      "unflattering": 8119,
      "manager": 8120,
      "manageable": 8121,
      "absinthe": 8122,
      "acknowledged": 8123,
      "amphibian": 8124,
      "negotiate": 8125,
      "necessary": 8126,
      "suffered": 8127,
      "suffices": 8128,
      "popsicle": 8129,
      "polynomial": 8130,
      "apparently": 8131,
      "historians": 8132,
      "shepherd": 8133,
      "savings": 8134,
      "saucers": 8135,
      "emperor": 8136,
      "resources": 8137,
      "responsible": 8138,
      "projections": 8139,
      "cathedral": 8140,
      "california": 8141,
      "tutorials": 8142,
      "plastic": 8143,
      "departing": 8144,
      "deftly": 8145,
      "defective": 8146,
      "deprived": 8147,
      "deceived": 8148,
      "devotees": 8149,
      "consented": 8150,
      "conceded": 8151,
      "concrete": 8152,
      "condemned": 8153,
      "consumes": 8154,
      "conversation": 8155,
      "congratulate": 8156,
      "geometry": 8157,
      "readership": 8158,
      "excuses": 8159,
      "exhibition": 8160,
      "exciting": 8161,
      "exterminator": 8162,
      "shropshire": 8163,
      "stockbrokers": 8164,
      "quotes": 8165,
      "feathers": 8166,
      "bullets": 8167,
      "parliamentary": 8168,
      "comrades": 8169,
      "competence": 8170,
      "maurice": 8171,
      "mathematician": 8172,
      "indians": 8173,
      "ultimate": 8174,
      "giraffes": 8175,
      "peroxide": 8176,
      "astronomy": 8177,
      "despaired": 8178,
      "clarence": 8179,
      "portray": 8180,
      "precisely": 8181,
      "prestigious": 8182,
      "preposterous": 8183,
      "faustina": 8184,
      "faucet": 8185,
      "helmsman": 8186,
      "tylenol": 8187,
      "african": 8188,
      "tipperary": 8189,
      "dismayed": 8190,
      "scrooge": 8191
    },
    "merges": [
      [
        "t",
        "h"
      ],
      [
        "th",
        "e"
      ],
      [
        "e",
        "d"
      ],
      [
        "a",
        "n"
      ],
      [
        "i",
        "n"
      ],
      [
        "e",
        "r"
      ],
      [
        "t",
        "o"
      ],
      [
        "a",
        "t"
      ],
      [
        "r",
        "e"
      ],
      [
        "i",
        "s"
      ],
      [
        "o",
        "n"
      ],
      [
        "o",
        "u"
      ],
      [
        "e",
        "n"
      ],
      [
        "a",
        "r"
      ],
      [
        "l",
        "l"
      ],
      [
        "a",
        "s"
      ],
      [
        "e",
        "s"
      ],
      [
        "o",
        "r"
      ],
      [
        "l",
        "e"
      ],
      [
        "h",
        "e"
      ],
      [
        "b",
        "e"
      ],
      [
        "w",
        "h"
      ],
      [
        "i",
        "t"
      ],
      [
        "i",
        "c"
      ],
      [
        "th",
        "at"
      ],
      [
        "in",
        "g"
      ],
      [
        "s",
        "e"
      ],
      [
        "r",
        "o"
      ],
      [
        "v",
        "e"
      ],
      [
        "j",
        "o"
      ],
      [
        "m",
        "e"
      ],
      [
        "an",
        "d"
      ],
      [
        "i",
        "d"
      ],
      [
        "o",
        "f"
      ],
      [
        "i",
        "ll"
      ],
      [
        "h",
        "n"
      ],
      [
        "jo",
        "hn"
      ],
      [
        "s",
        "t"
      ],
      [
        "h",
        "a"
      ],
      [
        "c",
        "h"
      ],
      [
        "l",
        "i"
      ],
      [
        "en",
        "t"
      ],
      [
        "i",
        "m"
      ],
      [
        "w",
        "as"
      ],
      [
        "l",
        "d"
      ],
      [
        "b",
        "o"
      ],
      [
        "y",
        "ou"
      ],
      [
        "n",
        "o"
      ],
      [
        "a",
        "l"
      ],
      [
        "v",
        "er"
      ],
      [
        "a",
        "ll"
      ],
      [
        "g",
        "h"
      ],
      [
        "a",
        "d"
      ],
      [
        "m",
        "ar"
      ],
      [
        "l",
        "o"
      ],
      [
        "l",
        "y"
      ],
      [
        "k",
        "e"
      ],
      [
        "r",
        "i"
      ],
      [
        "wh",
        "o"
      ],
      [
        "a",
        "y"
      ],
      [
        "m",
        "o"
      ],
      [
        "u",
        "t"
      ],
      [
        "d",
        "o"
      ],
      [
        "w",
        "e"
      ],
      [
        "f",
        "or"
      ],
      [
        "s",
        "o"
      ],
      [
        "p",
        "e"
      ],
      [
        "c",
        "o"
      ],
      [
        "t",
        "er"
      ],
      [
        "mar",
        "y"
      ],
      [
        "o",
        "k"
      ],
      [
        "d",
        "id"
      ],
      [
        "u",
        "n"
      ],
      [
        "m",
        "an"
      ],
      [
        "a",
        "b"
      ],
      [
        "i",
        "r"
      ],
      [
        "a",
        "c"
      ],
      [
        "i",
        "th"
      ],
      [
        "b",
        "ill"
      ],
      [
        "a",
        "m"
      ],
      [
        "w",
        "ill"
      ],
      [
        "h",
        "im"
      ],
      [
        "h",
        "er"
      ],
      [
        "ou",
        "ld"
      ],
      [
        "a",
        "g"
      ],
      [
        "gh",
        "t"
      ],
      [
        "h",
        "o"
      ],
      [
        "n",
        "e"
      ],
      [
        "g",
        "o"
      ],
      [
        "s",
        "u"
      ],
      [
        "w",
        "ith"
      ],
      [
        "p",
        "o"
      ],
      [
        "i",
        "on"
      ],
      [
        "t",
        "ed"
      ],
      [
        "ic",
        "h"
      ],
      [
        "ha",
        "ve"
      ],
      [
        "k",
        "ed"
      ],
      [
        "bo",
        "ok"
      ],
      [
        "l",
        "f"
      ],
      [
        "a",
        "re"
      ],
      [
        "mo",
        "re"
      ],
      [
        "wh",
        "ich"
      ],
      [
        "on",
        "e"
      ],
      [
        "a",
        "in"
      ],
      [
        "the",
        "r"
      ],
      [
        "a",
        "p"
      ],
      [
        "h",
        "is"
      ],
      [
        "s",
        "he"
      ],
      [
        "th",
        "is"
      ],
      [
        "u",
        "d"
      ],
      [
        "t",
        "s"
      ],
      [
        "e",
        "ver"
      ],
      [
        "u",
        "s"
      ],
      [
        "v",
        "ed"
      ],
      [
        "r",
        "y"
      ],
      [
        "s",
        "a"
      ],
      [
        "a",
        "ve"
      ],
      [
        "u",
        "p"
      ],
      [
        "the",
        "y"
      ],
      [
        "no",
        "t"
      ],
      [
        "b",
        "y"
      ],
      [
        "e",
        "m"
      ],
      [
        "se",
        "lf"
      ],
      [
        "li",
        "e"
      ],
      [
        "e",
        "at"
      ],
      [
        "an",
        "y"
      ],
      [
        "h",
        "as"
      ],
      [
        "re",
        "s"
      ],
      [
        "p",
        "ro"
      ],
      [
        "t",
        "e"
      ],
      [
        "i",
        "l"
      ],
      [
        "d",
        "er"
      ],
      [
        "c",
        "a"
      ],
      [
        "t",
        "u"
      ],
      [
        "st",
        "ud"
      ],
      [
        "p",
        "l"
      ],
      [
        "ou",
        "t"
      ],
      [
        "d",
        "e"
      ],
      [
        "ha",
        "d"
      ],
      [
        "c",
        "e"
      ],
      [
        "c",
        "on"
      ],
      [
        "g",
        "e"
      ],
      [
        "re",
        "ad"
      ],
      [
        "be",
        "lie"
      ],
      [
        "m",
        "y"
      ],
      [
        "i",
        "f"
      ],
      [
        "f",
        "ro"
      ],
      [
        "no",
        "w"
      ],
      [
        "ever",
        "y"
      ],
      [
        "e",
        "x"
      ],
      [
        "at",
        "e"
      ],
      [
        "er",
        "s"
      ],
      [
        "fro",
        "m"
      ],
      [
        "wh",
        "at"
      ],
      [
        "r",
        "ed"
      ],
      [
        "ou",
        "n"
      ],
      [
        "m",
        "u"
      ],
      [
        "stud",
        "ent"
      ],
      [
        "s",
        "h"
      ],
      [
        "p",
        "p"
      ],
      [
        "the",
        "re"
      ],
      [
        "th",
        "an"
      ],
      [
        "so",
        "me"
      ],
      [
        "s",
        "to"
      ],
      [
        "c",
        "ar"
      ],
      [
        "w",
        "ould"
      ],
      [
        "l",
        "a"
      ],
      [
        "v",
        "es"
      ],
      [
        "p",
        "le"
      ],
      [
        "q",
        "u"
      ],
      [
        "in",
        "k"
      ],
      [
        "w",
        "er"
      ],
      [
        "p",
        "ic"
      ],
      [
        "p",
        "ut"
      ],
      [
        "en",
        "d"
      ],
      [
        "an",
        "t"
      ],
      [
        "f",
        "e"
      ],
      [
        "c",
        "an"
      ],
      [
        "k",
        "now"
      ],
      [
        "to",
        "m"
      ],
      [
        "ar",
        "d"
      ],
      [
        "ab",
        "le"
      ],
      [
        "be",
        "en"
      ],
      [
        "es",
        "t"
      ],
      [
        "f",
        "o"
      ],
      [
        "b",
        "u"
      ],
      [
        "ou",
        "gh"
      ],
      [
        "ou",
        "ght"
      ],
      [
        "p",
        "ar"
      ],
      [
        "p",
        "r"
      ],
      [
        "w",
        "or"
      ],
      [
        "li",
        "ke"
      ],
      [
        "b",
        "ut"
      ],
      [
        "r",
        "u"
      ],
      [
        "r",
        "an"
      ],
      [
        "ac",
        "k"
      ],
      [
        "c",
        "t"
      ],
      [
        "th",
        "ink"
      ],
      [
        "i",
        "e"
      ],
      [
        "ic",
        "e"
      ],
      [
        "is",
        "h"
      ],
      [
        "b",
        "le"
      ],
      [
        "f",
        "t"
      ],
      [
        "i",
        "g"
      ],
      [
        "o",
        "d"
      ],
      [
        "co",
        "m"
      ],
      [
        "b",
        "all"
      ],
      [
        "w",
        "on"
      ],
      [
        "m",
        "a"
      ],
      [
        "le",
        "ft"
      ],
      [
        "i",
        "ght"
      ],
      [
        "ic",
        "k"
      ],
      [
        "ro",
        "w"
      ],
      [
        "i",
        "ld"
      ],
      [
        "an",
        "g"
      ],
      [
        "ho",
        "w"
      ],
      [
        "d",
        "ay"
      ],
      [
        "k",
        "es"
      ],
      [
        "o",
        "l"
      ],
      [
        "t",
        "a"
      ],
      [
        "w",
        "o"
      ],
      [
        "all",
        "y"
      ],
      [
        "him",
        "self"
      ],
      [
        "in",
        "to"
      ],
      [
        "pic",
        "tu"
      ],
      [
        "ou",
        "s"
      ],
      [
        "to",
        "r"
      ],
      [
        "t",
        "al"
      ],
      [
        "in",
        "d"
      ],
      [
        "es",
        "s"
      ],
      [
        "p",
        "res"
      ],
      [
        "a",
        "ch"
      ],
      [
        "s",
        "ed"
      ],
      [
        "u",
        "l"
      ],
      [
        "i",
        "ve"
      ],
      [
        "g",
        "ave"
      ],
      [
        "r",
        "a"
      ],
      [
        "u",
        "m"
      ],
      [
        "sa",
        "w"
      ],
      [
        "b",
        "l"
      ],
      [
        "e",
        "t"
      ],
      [
        "e",
        "as"
      ],
      [
        "le",
        "ave"
      ],
      [
        "se",
        "em"
      ],
      [
        "bo",
        "y"
      ],
      [
        "g",
        "ir"
      ],
      [
        "p",
        "er"
      ],
      [
        "on",
        "g"
      ],
      [
        "as",
        "t"
      ],
      [
        "e",
        "p"
      ],
      [
        "k",
        "ing"
      ],
      [
        "ne",
        "w"
      ],
      [
        "gir",
        "l"
      ],
      [
        "i",
        "an"
      ],
      [
        "oun",
        "d"
      ],
      [
        "w",
        "ay"
      ],
      [
        "to",
        "o"
      ],
      [
        "ab",
        "out"
      ],
      [
        "you",
        "r"
      ],
      [
        "sh",
        "ould"
      ],
      [
        "t",
        "ain"
      ],
      [
        "w",
        "n"
      ],
      [
        "of",
        "f"
      ],
      [
        "o",
        "ple"
      ],
      [
        "u",
        "r"
      ],
      [
        "is",
        "t"
      ],
      [
        "pe",
        "ople"
      ],
      [
        "w",
        "an"
      ],
      [
        "ou",
        "r"
      ],
      [
        "ad",
        "e"
      ],
      [
        "b",
        "r"
      ],
      [
        "v",
        "i"
      ],
      [
        "re",
        "n"
      ],
      [
        "ag",
        "e"
      ],
      [
        "t",
        "all"
      ],
      [
        "ri",
        "ed"
      ],
      [
        "d",
        "es"
      ],
      [
        "w",
        "in"
      ],
      [
        "sa",
        "id"
      ],
      [
        "j",
        "e"
      ],
      [
        "t",
        "able"
      ],
      [
        "g",
        "r"
      ],
      [
        "re",
        "e"
      ],
      [
        "it",
        "e"
      ],
      [
        "ha",
        "pp"
      ],
      [
        "ca",
        "me"
      ],
      [
        "wer",
        "e"
      ],
      [
        "an",
        "s"
      ],
      [
        "at",
        "ion"
      ],
      [
        "m",
        "ed"
      ],
      [
        "k",
        "im"
      ],
      [
        "student",
        "s"
      ],
      [
        "f",
        "f"
      ],
      [
        "p",
        "t"
      ],
      [
        "c",
        "k"
      ],
      [
        "in",
        "e"
      ],
      [
        "n",
        "a"
      ],
      [
        "ch",
        "ild"
      ],
      [
        "mu",
        "ch"
      ],
      [
        "pictu",
        "re"
      ],
      [
        "c",
        "at"
      ],
      [
        "v",
        "en"
      ],
      [
        "won",
        "der"
      ],
      [
        "c",
        "l"
      ],
      [
        "n",
        "y"
      ],
      [
        "at",
        "ed"
      ],
      [
        "do",
        "es"
      ],
      [
        "belie",
        "ve"
      ],
      [
        "b",
        "ought"
      ],
      [
        "p",
        "or"
      ],
      [
        "th",
        "ing"
      ],
      [
        "as",
        "s"
      ],
      [
        "c",
        "ould"
      ],
      [
        "p",
        "re"
      ],
      [
        "t",
        "en"
      ],
      [
        "f",
        "a"
      ],
      [
        "s",
        "ent"
      ],
      [
        "wh",
        "en"
      ],
      [
        "did",
        "n"
      ],
      [
        "ll",
        "y"
      ],
      [
        "b",
        "ro"
      ],
      [
        "w",
        "at"
      ],
      [
        "d",
        "on"
      ],
      [
        "n",
        "ed"
      ],
      [
        "f",
        "lo"
      ],
      [
        "s",
        "p"
      ],
      [
        "the",
        "m"
      ],
      [
        "belie",
        "ved"
      ],
      [
        "c",
        "lo"
      ],
      [
        "c",
        "ted"
      ],
      [
        "d",
        "an"
      ],
      [
        "j",
        "u"
      ],
      [
        "m",
        "ade"
      ],
      [
        "he",
        "l"
      ],
      [
        "ne",
        "ver"
      ],
      [
        "go",
        "t"
      ],
      [
        "a",
        "v"
      ],
      [
        "c",
        "or"
      ],
      [
        "h",
        "ar"
      ],
      [
        "t",
        "y"
      ],
      [
        "pl",
        "ay"
      ],
      [
        "ble",
        "m"
      ],
      [
        "we",
        "ll"
      ],
      [
        "a",
        "f"
      ],
      [
        "t",
        "i"
      ],
      [
        "or",
        "row"
      ],
      [
        "fo",
        "re"
      ],
      [
        "d",
        "is"
      ],
      [
        "i",
        "ly"
      ],
      [
        "o",
        "m"
      ],
      [
        "s",
        "c"
      ],
      [
        "book",
        "s"
      ],
      [
        "pro",
        "blem"
      ],
      [
        "d",
        "r"
      ],
      [
        "le",
        "t"
      ],
      [
        "c",
        "le"
      ],
      [
        "k",
        "is"
      ],
      [
        "b",
        "er"
      ],
      [
        "g",
        "u"
      ],
      [
        "p",
        "ed"
      ],
      [
        "a",
        "k"
      ],
      [
        "f",
        "red"
      ],
      [
        "h",
        "and"
      ],
      [
        "l",
        "es"
      ],
      [
        "e",
        "ar"
      ],
      [
        "tom",
        "orrow"
      ],
      [
        "f",
        "i"
      ],
      [
        "f",
        "ri"
      ],
      [
        "o",
        "b"
      ],
      [
        "w",
        "ent"
      ],
      [
        "c",
        "la"
      ],
      [
        "i",
        "a"
      ],
      [
        "ou",
        "se"
      ],
      [
        "f",
        "er"
      ],
      [
        "s",
        "ally"
      ],
      [
        "id",
        "ent"
      ],
      [
        "so",
        "l"
      ],
      [
        "man",
        "y"
      ],
      [
        "seem",
        "s"
      ],
      [
        "des",
        "k"
      ],
      [
        "m",
        "en"
      ],
      [
        "p",
        "a"
      ],
      [
        "r",
        "it"
      ],
      [
        "t",
        "r"
      ],
      [
        "it",
        "y"
      ],
      [
        "ch",
        "ed"
      ],
      [
        "li",
        "kes"
      ],
      [
        "pe",
        "ar"
      ],
      [
        "ap",
        "pear"
      ],
      [
        "e",
        "a"
      ],
      [
        "p",
        "h"
      ],
      [
        "is",
        "on"
      ],
      [
        "be",
        "fore"
      ],
      [
        "co",
        "me"
      ],
      [
        "eat",
        "en"
      ],
      [
        "cla",
        "im"
      ],
      [
        "u",
        "se"
      ],
      [
        "h",
        "it"
      ],
      [
        "s",
        "an"
      ],
      [
        "un",
        "der"
      ],
      [
        "c",
        "er"
      ],
      [
        "d",
        "y"
      ],
      [
        "m",
        "ent"
      ],
      [
        "m",
        "ight"
      ],
      [
        "ex",
        "pe"
      ],
      [
        "l",
        "ast"
      ],
      [
        "s",
        "m"
      ],
      [
        "s",
        "le"
      ],
      [
        "s",
        "pe"
      ],
      [
        "w",
        "he"
      ],
      [
        "w",
        "ant"
      ],
      [
        "do",
        "g"
      ],
      [
        "every",
        "one"
      ],
      [
        "l",
        "ed"
      ],
      [
        "0",
        "0"
      ],
      [
        "c",
        "ed"
      ],
      [
        "o",
        "ver"
      ],
      [
        "er",
        "ed"
      ],
      [
        "is",
        "ed"
      ],
      [
        "en",
        "ce"
      ],
      [
        "like",
        "ly"
      ],
      [
        "c",
        "re"
      ],
      [
        "t",
        "le"
      ],
      [
        "se",
        "e"
      ],
      [
        "and",
        "y"
      ],
      [
        "po",
        "l"
      ],
      [
        "bu",
        "y"
      ],
      [
        "tal",
        "ked"
      ],
      [
        "tall",
        "er"
      ],
      [
        "c",
        "ut"
      ],
      [
        "j",
        "an"
      ],
      [
        "m",
        "on"
      ],
      [
        "y",
        "es"
      ],
      [
        "as",
        "e"
      ],
      [
        "ch",
        "o"
      ],
      [
        "ver",
        "y"
      ],
      [
        "happ",
        "y"
      ],
      [
        "child",
        "ren"
      ],
      [
        "fri",
        "end"
      ],
      [
        "h",
        "at"
      ],
      [
        "m",
        "i"
      ],
      [
        "m",
        "ay"
      ],
      [
        "t",
        "ry"
      ],
      [
        "the",
        "se"
      ],
      [
        "the",
        "ir"
      ],
      [
        "ar",
        "ri"
      ],
      [
        "bo",
        "dy"
      ],
      [
        "her",
        "self"
      ],
      [
        "te",
        "ach"
      ],
      [
        "whe",
        "ther"
      ],
      [
        "h",
        "ouse"
      ],
      [
        "as",
        "ked"
      ],
      [
        "ic",
        "ked"
      ],
      [
        "bo",
        "x"
      ],
      [
        "ke",
        "y"
      ],
      [
        "one",
        "y"
      ],
      [
        "b",
        "ar"
      ],
      [
        "i",
        "p"
      ],
      [
        "p",
        "at"
      ],
      [
        "ok",
        "ed"
      ],
      [
        "ge",
        "t"
      ],
      [
        "pp",
        "ed"
      ],
      [
        "e",
        "ll"
      ],
      [
        "f",
        "ul"
      ],
      [
        "en",
        "ough"
      ],
      [
        "ar",
        "y"
      ],
      [
        "as",
        "on"
      ],
      [
        "wan",
        "ted"
      ],
      [
        "f",
        "l"
      ],
      [
        "h",
        "ed"
      ],
      [
        "k",
        "icked"
      ],
      [
        "m",
        "oney"
      ],
      [
        "s",
        "id"
      ],
      [
        "s",
        "ha"
      ],
      [
        "t",
        "ing"
      ],
      [
        "t",
        "ru"
      ],
      [
        "mo",
        "st"
      ],
      [
        "su",
        "r"
      ],
      [
        "eas",
        "ily"
      ],
      [
        "med",
        "ea"
      ],
      [
        "g",
        "ive"
      ],
      [
        "v",
        "in"
      ],
      [
        "me",
        "t"
      ],
      [
        "wor",
        "k"
      ],
      [
        "af",
        "ter"
      ],
      [
        "ti",
        "me"
      ],
      [
        "j",
        "ason"
      ],
      [
        "p",
        "ack"
      ],
      [
        "ter",
        "s"
      ],
      [
        "am",
        "es"
      ],
      [
        "mu",
        "st"
      ],
      [
        "c",
        "y"
      ],
      [
        "lo",
        "ve"
      ],
      [
        "su",
        "san"
      ],
      [
        "po",
        "s"
      ],
      [
        "kis",
        "sed"
      ],
      [
        "c",
        "oun"
      ],
      [
        "f",
        "ran"
      ],
      [
        "g",
        "ames"
      ],
      [
        "r",
        "un"
      ],
      [
        "at",
        "t"
      ],
      [
        "ac",
        "e"
      ],
      [
        "belie",
        "ves"
      ],
      [
        "e",
        "l"
      ],
      [
        "f",
        "in"
      ],
      [
        "g",
        "g"
      ],
      [
        "re",
        "w"
      ],
      [
        "lo",
        "ved"
      ],
      [
        "think",
        "s"
      ],
      [
        "bro",
        "ke"
      ],
      [
        "c",
        "tor"
      ],
      [
        "g",
        "l"
      ],
      [
        "g",
        "il"
      ],
      [
        "r",
        "ain"
      ],
      [
        "s",
        "ing"
      ],
      [
        "t",
        "re"
[...]
