{
  "version": "1.0",
  "truncation": null,
  "padding": null,
  "added_tokens": [
    {
      "id": 0,
      "content": "[PAD]",
      "single_word": false,
      "lstrip": false,
      "rstrip": false,
      "normalized": false,
      "special": true
    },
    {
      "id": 1,
      "content": "[UNK]",
      "single_word": false,
      "lstrip": false,
      "rstrip": false,
      "normalized": false,
      "special": true
    },
    {
      "id": 2,
      "content": "[CLS]",
      "single_word": false,
      "lstrip": false,
      "rstrip": false,
      "normalized": false,
      "special": true
    },
    {
      "id": 3,
      "content": "[MASK]",
      "single_word": false,
      "lstrip": false,
      "rstrip": false,
      "normalized": false,
      "special": true
    }
  ],
  "normalizer": {
    "type": "BertNormalizer",
    "clean_text": true,
    "handle_chinese_chars": true,
    "strip_accents": true,
    "lowercase": true
  },
  "pre_tokenizer": {
    "type": "Whitespace"
  },
  "post_processor": null,
  "decoder": null,
  "model": {
    "type": "BPE",
    "dropout": null,
    "unk_token": "[UNK]",
    "continuing_subword_prefix": null,
    "end_of_word_suffix": null,
    "fuse_unk": false,
    "byte_fallback": false,
    "ignore_merges": false,
    "vocab": {
      "[PAD]": 0,
      "[UNK]": 1,
      "[CLS]": 2,
      "[MASK]": 3,
      "!": 4,
      "\"": 5,
      "#": 6,
      "$": 7,
      "%": 8,
      "&": 9,
      "'": 10,
      "(": 11,
      ")": 12,
      "*": 13,
      "+": 14,
      ",": 15,
      "-": 16,
      ".": 17,
      "/": 18,
      "0": 19,
      "1": 20,
      "2": 21,
      "3": 22,
      "4": 23,
      "5": 24,
      "6": 25,
      "7": 26,
      "8": 27,
      "9": 28,
      ":": 29,
      ";": 30,
      "=": 31,
      ">": 32,
      "?": 33,
      "@": 34,
      "[": 35,
      "\\": 36,
      "]": 37,
      "^": 38,
      "_": 39,
      "`": 40,
      "a": 41,
      "b": 42,
      "c": 43,
      "d": 44,
      "e": 45,
      "f": 46,
      "g": 47,
      "h": 48,
      "i": 49,
      "j": 50,
      "k": 51,
      "l": 52,
      "m": 53,
      "n": 54,
      "o": 55,
      "p": 56,
      "q": 57,
      "r": 58,
      "s": 59,
      "t": 60,
      "u": 61,
      "v": 62,
      "w": 63,
      "x": 64,
      "y": 65,
      "z": 66,
      "{": 67,
      "|": 68,
      "}": 69,
      "~": 70,
      "¡": 71,
      "¢": 72,
      "£": 73,
      "¤": 74,
      "¥": 75,
      "¦": 76,
      "§": 77,
      "¨": 78,
      "©": 79,
      "ª": 80,
      "«": 81,
      "¬": 82,
      "®": 83,
      "¯": 84,
      "°": 85,
      "±": 86,
      "²": 87,
      "³": 88,
      "´": 89,
      "µ": 90,
      "¶": 91,
      "·": 92,
      "¸": 93,
      "¹": 94,
      "º": 95,
      "»": 96,
      "¼": 97,
      "½": 98,
      "¾": 99,
      "¿": 100,
      "ð": 101,
      "÷": 102,
      "ø": 103,
      "ı": 104,
      "ł": 105,
      "ŋ": 106,
      "ƒ": 107,
      "ƪ": 108,
      "ə": 109,
      "ɡ": 110,
      "ɣ": 111,
      "ɪ": 112,
      "ʃ": 113,
      "ʊ": 114,
      "ʰ": 115,
      "ʳ": 116,
      "ʷ": 117,
      "ʸ": 118,
      "ˆ": 119,
      "ˇ": 120,
      "˘": 121,
      "˚": 122,
      "˛": 123,
      "ˡ": 124,
      "ˢ": 125,
      "α": 126,
      "γ": 127,
      "ι": 128,
      "μ": 129,
      "ο": 130,
      "σ": 131,
      "υ": 132,
      "φ": 133,
      "а": 134,
      "б": 135,
      "д": 136,
      "е": 137,
      "з": 138,
      "и": 139,
      "к": 140,
      "л": 141,
      "н": 142,
      "о": 143,
      "п": 144,
      "р": 145,
      "у": 146,
      "щ": 147,
      "я": 148,
      "ҩ": 149,
      "ү": 150,
      "ԃ": 151,
      "،": 152,
      "ا": 153,
      "ب": 154,
      "ة": 155,
      "ت": 156,
      "ث": 157,
      "ح": 158,
      "د": 159,
      "ر": 160,
      "ز": 161,
      "س": 162,
      "ش": 163,
      "ص": 164,
      "ع": 165,
      "ف": 166,
      "ق": 167,
      "ل": 168,
      "م": 169,
      "ن": 170,
      "ه": 171,
      "و": 172,
      "ى": 173,
      "ي": 174,
      "ټ": 175,
      "پ": 176,
      "چ": 177,
      "ک": 178,
      "ہ": 179,
      "ی": 180,
      "ے": 181,
      "۔": 182,
      "अ": 183,
      "आ": 184,
      "उ": 185,
      "ऊ": 186,
      "ए": 187,
      "औ": 188,
      "क": 189,
      "ग": 190,
      "ज": 191,
      "झ": 192,
      "ट": 193,
      "ड": 194,
      "त": 195,
      "द": 196,
      "न": 197,
      "प": 198,
      "ब": 199,
      "म": 200,
      "य": 201,
      "र": 202,
      "ल": 203,
      "व": 204,
      "श": 205,
      "स": 206,
      "ह": 207,
      "ा": 208,
      "ि": 209,
      "ी": 210,
      "ो": 211,
      "।": 212,
      "५": 213,
      "ก": 214,
      "ค": 215,
      "ง": 216,
      "จ": 217,
      "ด": 218,
      "ต": 219,
      "น": 220,
      "ป": 221,
      "พ": 222,
      "ม": 223,
      "ร": 224,
      "ว": 225,
      "ส": 226,
      "อ": 227,
      "ะ": 228,
      "า": 229,
      "เ": 230,
      "แ": 231,
      "ใ": 232,
      "ไ": 233,
      "ᄅ": 234,
      "ᄆ": 235,
      "ᄇ": 236,
      "ᄉ": 237,
      "ᄋ": 238,
      "ᄌ": 239,
      "ᄎ": 240,
      "ᅡ": 241,
      "ᅧ": 242,
      "ᅩ": 243,
      "ᅮ": 244,
      "ᅵ": 245,
      "ᆫ": 246,
      "ᆯ": 247,
      "ᆼ": 248,
      "ᵃ": 249,
      "ᵇ": 250,
      "ᵉ": 251,
      "ᵍ": 252,
      "ᵐ": 253,
      "ᵒ": 254,
      "ᵖ": 255,
      "ᵗ": 256,
      "ᵘ": 257,
      "ᵛ": 258,
      "ᶠ": 259,
      "–": 260,
      "—": 261,
      "―": 262,
      "‘": 263,
      "’": 264,
      "‚": 265,
      "“": 266,
      "”": 267,
      "„": 268,
      "•": 269,
      "․": 270,
      "…": 271,
      "›": 272,
      "‽": 273,
      "‾": 274,
      "ⁱ": 275,
      "ⁿ": 276,
      "€": 277,
      "™": 278,
      "∂": 279,
      "∫": 280,
      "⌣": 281,
      "─": 282,
      "╥": 283,
      "►": 284,
      "▼": 285,
      "▿": 286,
      "◂": 287,
      "◄": 288,
      "●": 289,
      "★": 290,
      "☆": 291,
      "☑": 292,
      "☕": 293,
      "☝": 294,
      "☭": 295,
      "☹": 296,
      "☺": 297,
      "☻": 298,
      "♡": 299,
      "♣": 300,
      "♥": 301,
      "♨": 302,
      "♪": 303,
      "♫": 304,
      "⚠": 305,
      "⚡": 306,
      "⛽": 307,
      "✊": 308,
      "✋": 309,
      "✌": 310,
      "✎": 311,
      "✗": 312,
      "✘": 313,
      "✨": 314,
      "❌": 315,
      "❝": 316,
      "❞": 317,
      "❤": 318,
      "➤": 319,
      "➳": 320,
      "⠀": 321,
      "⨾": 322,
      "、": 323,
      "。": 324,
      "》": 325,
      "『": 326,
      "』": 327,
      "【": 328,
      "】": 329,
      "ぁ": 330,
      "い": 331,
      "え": 332,
      "お": 333,
      "か": 334,
      "く": 335,
      "こ": 336,
      "し": 337,
      "す": 338,
      "た": 339,
      "ち": 340,
      "っ": 341,
      "て": 342,
      "と": 343,
      "な": 344,
      "の": 345,
      "は": 346,
      "め": 347,
      "も": 348,
      "や": 349,
      "ょ": 350,
      "よ": 351,
      "ら": 352,
      "り": 353,
      "る": 354,
      "れ": 355,
      "ろ": 356,
      "を": 357,
      "ア": 358,
      "イ": 359,
      "ウ": 360,
      "ォ": 361,
      "オ": 362,
      "ス": 363,
      "ツ": 364,
      "ト": 365,
      "ナ": 366,
      "ニ": 367,
      "ハ": 368,
      "フ": 369,
      "ホ": 370,
      "ム": 371,
      "ュ": 372,
      "ラ": 373,
      "リ": 374,
      "ル": 375,
      "ロ": 376,
      "ワ": 377,
      "ン": 378,
      "・": 379,
      "ー": 380,
      "ㅡ": 381,
      "互": 382,
      "你": 383,
      "前": 384,
      "動": 385,
      "少": 386,
      "山": 387,
      "年": 388,
      "後": 389,
      "憎": 390,
      "手": 391,
      "概": 392,
      "死": 393,
      "殺": 394,
      "田": 395,
      "発": 396,
      "的": 397,
      "相": 398,
      "自": 399,
      "裕": 400,
      "要": 401,
      "見": 402,
      "貴": 403,
      "﹏": 404,
      "！": 405,
      "（": 406,
      "）": 407,
      "，": 408,
      "＜": 409,
      "＞": 410,
      "＿": 411,
      "｀": 412,
      "ｗ": 413,
      "ﾉ": 414,
      "𝐀": 415,
      "𝐒": 416,
      "𝐕": 417,
      "𝐚": 418,
      "𝐜": 419,
      "𝐞": 420,
      "𝐢": 421,
      "𝐥": 422,
      "𝐧": 423,
      "𝐬": 424,
      "𝐭": 425,
      "𝐮": 426,
      "𝑒": 427,
      "𝒶": 428,
      "𝒽": 429,
      "𝓂": 430,
      "𝓉": 431,
      "𝓌": 432,
      "𝓘": 433,
      "𝓪": 434,
      "𝓫": 435,
      "𝓬": 436,
      "𝓭": 437,
      "𝓮": 438,
      "𝓰": 439,
      "𝓱": 440,
      "𝓲": 441,
      "𝓴": 442,
      "𝓵": 443,
      "𝓷": 444,
      "𝓸": 445,
      "𝓻": 446,
      "𝓽": 447,
      "𝓾": 448,
      "𝔀": 449,
      "𝔂": 450,
      "𝕀": 451,
      "𝕒": 452,
      "𝕔": 453,
      "𝕕": 454,
      "𝕖": 455,
      "𝕙": 456,
      "𝕚": 457,
      "𝕝": 458,
      "𝕞": 459,
      "𝕟": 460,
      "𝕠": 461,
      "𝕢": 462,
      "𝕣": 463,
      "𝕤": 464,
      "𝕥": 465,
      "𝕦": 466,
      "𝕨": 467,
      "𝗼": 468,
      "𝚎": 469,
      "𝚒": 470,
      "𝚕": 471,
      "𝚜": 472,
      "𝚞": 473,
      "𝚟": 474,
      "𝟧": 475,
      "𝟪": 476,
      "🅰": 477,
      "🆖": 478,
      "🌋": 479,
      "🍊": 480,
      "🍋": 481,
      "🍌": 482,
      "🍓": 483,
      "🍗": 484,
      "🍩": 485,
      "🍳": 486,
      "🍴": 487,
      "🎁": 488,
      "🎥": 489,
      "🎵": 490,
      "🎶": 491,
      "🎼": 492,
      "🏀": 493,
      "🐀": 494,
      "🐊": 495,
      "🐎": 496,
      "🐕": 497,
      "🐟": 498,
      "🐸": 499,
      "👉": 500,
      "👌": 501,
      "👍": 502,
      "👎": 503,
      "👏": 504,
      "👔": 505,
      "👗": 506,
      "👠": 507,
      "👢": 508,
      "👦": 509,
      "👧": 510,
      "👯": 511,
      "👳": 512,
      "👹": 513,
      "👿": 514,
      "💁": 515,
      "💉": 516,
      "💋": 517,
      "💐": 518,
      "💓": 519,
      "💔": 520,
      "💕": 521,
      "💙": 522,
      "💜": 523,
      "💦": 524,
      "💨": 525,
      "💩": 526,
      "💪": 527,
      "💬": 528,
      "💯": 529,
      "📖": 530,
      "📝": 531,
      "📱": 532,
      "📷": 533,
      "📺": 534,
      "🔖": 535,
      "🔥": 536,
      "🔫": 537,
      "🔵": 538,
      "🕗": 539,
      "🕛": 540,
      "🕞": 541,
      "🕟": 542,
      "🕠": 543,
      "🕡": 544,
      "🕥": 545,
      "😀": 546,
      "😁": 547,
      "😂": 548,
      "😃": 549,
      "😄": 550,
      "😅": 551,
      "😆": 552,
      "😈": 553,
      "😉": 554,
      "😊": 555,
      "😋": 556,
      "😌": 557,
      "😍": 558,
      "😏": 559,
      "😐": 560,
      "😒": 561,
      "😓": 562,
      "😔": 563,
      "😕": 564,
      "😘": 565,
      "😚": 566,
      "😛": 567,
      "😜": 568,
      "😝": 569,
      "😞": 570,
      "😟": 571,
      "😠": 572,
      "😡": 573,
      "😢": 574,
      "😣": 575,
      "😤": 576,
      "😥": 577,
      "😦": 578,
      "😧": 579,
      "😨": 580,
      "😩": 581,
      "😫": 582,
      "😬": 583,
      "😭": 584,
      "😰": 585,
      "😱": 586,
      "😲": 587,
      "😳": 588,
      "😴": 589,
      "😵": 590,
      "😷": 591,
      "😹": 592,
      "😻": 593,
      "🙀": 594,
      "🙅": 595,
      "🙈": 596,
      "🙉": 597,
      "🙊": 598,
      "🙌": 599,
      "🙏": 600,
      "🚦": 601,
      "🚬": 602,
      "🚶": 603,
      "th": 604,
      "in": 605,
      "an": 606,
      "er": 607,
      "ou": 608,
      "is": 609,
      "the": 610,
      "re": 611,
      "on": 612,
      "ll": 613,
      "at": 614,
      "ing": 615,
      "it": 616,
      "or": 617,
      "en": 618,
      "es": 619,
      "to": 620,
      "ed": 621,
      "as": 622,
      "ch": 623,
      "you": 624,
      "and": 625,
      "us": 626,
      "me": 627,
      "ar": 628,
      "li": 629,
      "le": 630,
      "wh": 631,
      "bu": 632,
      "ig": 633,
      "ck": 634,
      "no": 635,
      "oo": 636,
      "be": 637,
      "al": 638,
      "of": 639,
      "ay": 640,
      "st": 641,
      "am": 642,
      "id": 643,
      "all": 644,
      "ra": 645,
      "se": 646,
      "pe": 647,
      "..": 648,
      "om": 649,
      "ha": 650,
      "ve": 651,
      "ke": 652,
      "ir": 653,
      "that": 654,
      "ic": 655,
      "he": 656,
      "fu": 657,
      "so": 658,
      "are": 659,
      "bull": 660,
      "ist": 661,
      "ht": 662,
      "for": 663,
      "ad": 664,
      "um": 665,
      "ot": 666,
      "ool": 667,
      "ow": 668,
      "sch": 669,
      "ly": 670,
      "ver": 671,
      "ab": 672,
      "school": 673,
      "ter": 674,
      "ld": 675,
      "wi": 676,
      "out": 677,
      "op": 678,
      "ti": 679,
      "fuck": 680,
      "sh": 681,
      "ge": 682,
      "not": 683,
      "we": 684,
      "la": 685,
      "ma": 686,
      "my": 687,
      "co": 688,
      "one": 689,
      "ne": 690,
      "up": 691,
      "was": 692,
      "ce": 693,
      "jo": 694,
      "do": 695,
      "ent": 696,
      "ur": 697,
      "nig": 698,
      "lo": 699,
      "de": 700,
      "ger": 701,
      "but": 702,
      "this": 703,
      "tr": 704,
      "ther": 705,
      "fe": 706,
      "un": 707,
      "they": 708,
      "ust": 709,
      "bulli": 710,
      "who": 711,
      "irl": 712,
      "like": 713,
      "girl": 714,
      "mo": 715,
      "pr": 716,
      "ion": 717,
      "with": 718,
      "umb": 719,
      "nigger": 720,
      "fr": 721,
      "if": 722,
      "igh": 723,
      "im": 724,
      "dumb": 725,
      "now": 726,
      "ass": 727,
      "high": 728,
      "mus": 729,
      "lim": 730,
      "go": 731,
      "ct": 732,
      "bully": 733,
      "muslim": 734,
      "ca": 735,
      "about": 736,
      "can": 737,
      "have": 738,
      "don": 739,
      "po": 740,
      "ate": 741,
      "just": 742,
      "te": 743,
      "peop": 744,
      "ould": 745,
      "people": 746,
      "your": 747,
      "ind": 748,
      "kes": 749,
      "bullied": 750,
      "gay": 751,
      "tp": 752,
      "ill": 753,
      "//": 754,
      "http": 755,
      "rt": 756,
      "thing": 757,
      "use": 758,
      "://": 759,
      "rape": 760,
      "sa": 761,
      "ere": 762,
      "any": 763,
      "com": 764,
      "get": 765,
      "ally": 766,
      "ant": 767,
      "...": 768,
      "!!": 769,
      "ag": 770,
      "call": 771,
      "ian": 772,
      "what": 773,
      "ight": 774,
      "end": 775,
      "wor": 776,
      "con": 777,
      "ob": 778,
      "some": 779,
      "by": 780,
      "ers": 781,
      "iot": 782,
      "su": 783,
      "ta": 784,
      "bla": 785,
      "amp": 786,
      "idiot": 787,
      "she": 788,
      "ever": 789,
      "jokes": 790,
      "fa": 791,
      "ite": 792,
      "wom": 793,
      "king": 794,
      "when": 795,
      "oun": 796,
      "black": 797,
      "res": 798,
      "lam": 799,
      "il": 800,
      "say": 801,
      "ism": 802,
      "ex": 803,
      "her": 804,
      "bit": 805,
      "na": 806,
      "bo": 807,
      "them": 808,
      "ye": 809,
      "terr": 810,
      "cause": 811,
      "ess": 812,
      "ity": 813,
      "islam": 814,
      "ro": 815,
      "how": 816,
      "pp": 817,
      "ie": 818,
      "from": 819,
      "qu": 820,
      "por": 821,
      "kr": 822,
      "terror": 823,
      "ink": 824,
      "girls": 825,
      "know": 826,
      "ts": 827,
      "ho": 828,
      "chr": 829,
      "being": 830,
      "way": 831,
      "ation": 832,
      "ard": 833,
      "ty": 834,
      "had": 835,
      "mkr": 836,
      "bitch": 837,
      "ul": 838,
      "est": 839,
      "ia": 840,
      "rac": 841,
      "ev": 842,
      "because": 843,
      "ook": 844,
      "muslims": 845,
      "gu": 846,
      "ain": 847,
      "el": 848,
      "gh": 849,
      "will": 850,
      "christ": 851,
      "man": 852,
      "did": 853,
      "would": 854,
      "cr": 855,
      "every": 856,
      "right": 857,
      "fo": 858,
      "sup": 859,
      "think": 860,
      "ut": 861,
      "white": 862,
      "their": 863,
      "tion": 864,
      "why": 865,
      "christian": 866,
      "other": 867,
      "ment": 868,
      "ast": 869,
      "there": 870,
      "art": 871,
      "ac": 872,
      "day": 873,
      "ive": 874,
      "see": 875,
      "got": 876,
      "sex": 877,
      "gr": 878,
      "ide": 879,
      "our": 880,
      "red": 881,
      "ood": 882,
      "ba": 883,
      "min": 884,
      "has": 885,
      "ting": 886,
      "ous": 887,
      "tw": 888,
      "ick": 889,
      "joke": 890,
      "der": 891,
      "dis": 892,
      "own": 893,
      "ies": 894,
      "his": 895,
      "ak": 896,
      "want": 897,
      "were": 898,
      "try": 899,
      "shit": 900,
      "off": 901,
      "mad": 902,
      "port": 903,
      "iv": 904,
      "women": 905,
      "ama": 906,
      "more": 907,
      "pl": 908,
      "sel": 909,
      "ical": 910,
      "than": 911,
      "ans": 912,
      "bl": 913,
      "then": 914,
      "cl": 915,
      "br": 916,
      "only": 917,
      "again": 918,
      "act": 919,
      "too": 920,
      "ong": 921,
      "af": 922,
      "time": 923,
      "et": 924,
      "ists": 925,
      "make": 926,
      "does": 927,
      "fucking": 928,
      "ine": 929,
      "bullies": 930,
      "even": 931,
      "him": 932,
      "pre": 933,
      "men": 934,
      "ah": 935,
      "fun": 936,
      "??": 937,
      "sto": 938,
      "ny": 939,
      "ound": 940,
      "should": 941,
      "fri": 942,
      "ga": 943,
      "tal": 944,
      "never": 945,
      "ght": 946,
      "woman": 947,
      "rad": 948,
      "lit": 949,
      "called": 950,
      "these": 951,
      "friend": 952,
      "ber": 953,
      "ough": 954,
      "ish": 955,
      "ice": 956,
      "idiots": 957,
      "kill": 958,
      "look": 959,
      "really": 960,
      "year": 961,
      "tho": 962,
      "need": 963,
      "ile": 964,
      "ep": 965,
      "hate": 966,
      "fir": 967,
      "ud": 968,
      "still": 969,
      "sp": 970,
      "new": 971,
      "self": 972,
      "coun": 973,
      "ys": 974,
      "over": 975,
      "ach": 976,
      "20": 977,
      "back": 978,
      "ng": 979,
      "mu": 980,
      "its": 981,
      "ree": 982,
      "been": 983,
      "per": 984,
      "kid": 985,
      "sexist": 986,
      "ci": 987,
      "niggers": 988,
      "first": 989,
      "good": 990,
      "support": 991,
      "ry": 992,
      "read": 993,
      "bullying": 994,
      "islamic": 995,
      "ol": 996,
      "hind": 997,
      "ated": 998,
      "said": 999,
      "obama": 1000,
      "em": 1001,
      "hum": 1002,
      "https": 1003,
      "ple": 1004,
      "pro": 1005,
      "ri": 1006,
      "male": 1007,
      "twe": 1008,
      "ves": 1009,
      "love": 1010,
      "je": 1011,
      "ap": 1012,
      "ash": 1013,
      "tell": 1014,
      "stop": 1015,
      "amer": 1016,
      "also": 1017,
      "ks": 1018,
      "same": 1019,
      "ious": 1020,
      "anything": 1021,
      "terrorism": 1022,
      "young": 1023,
      "most": 1024,
      "fer": 1025,
      "....": 1026,
      "pres": 1027,
      "ence": 1028,
      "pers": 1029,
      "bad": 1030,
      "lol": 1031,
      "twit": 1032,
      "femin": 1033,
      "where": 1034,
      "wr": 1035,
      "tim": 1036,
      "lt": 1037,
      "haha": 1038,
      "ue": 1039,
      "radical": 1040,
      "against": 1041,
      "iz": 1042,
      "atch": 1043,
      "dr": 1044,
      "mar": 1045,
      "ump": 1046,
      "mean": 1047,
      "da": 1048,
      "stand": 1049,
      "those": 1050,
      "dy": 1051,
      "des": 1052,
      "ser": 1053,
      "ure": 1054,
      "har": 1055,
      "happ": 1056,
      "let": 1057,
      "reat": 1058,
      "wa": 1059,
      "ok": 1060,
      "didn": 1061,
      "racist": 1062,
      "ss": 1063,
      "twitter": 1064,
      "spe": 1065,
      "aren": 1066,
      "ving": 1067,
      "sc": 1068,
      "person": 1069,
      "human": 1070,
      "lig": 1071,
      "yes": 1072,
      "ich": 1073,
      "ug": 1074,
      "ji": 1075,
      "ways": 1076,
      "oh": 1077,
      "word": 1078,
      "life": 1079,
      "going": 1080,
      "ib": 1081,
      "ase": 1082,
      "here": 1083,
      "pa": 1084,
      "made": 1085,
      "ub": 1086,
      "tay": 1087,
      "thr": 1088,
      "real": 1089,
      "ful": 1090,
      "lie": 1091,
      "mid": 1092,
      "someone": 1093,
      "00": 1094,
      "feel": 1095,
      "into": 1096,
      "mon": 1097,
      "prob": 1098,
      "mat": 1099,
      "relig": 1100,
      "used": 1101,
      "less": 1102,
      "world": 1103,
      "ip": 1104,
      "doesn": 1105,
      "ild": 1106,
      "kat": 1107,
      "funny": 1108,
      "dle": 1109,
      "med": 1110,
      "llow": 1111,
      "racism": 1112,
      "much": 1113,
      "big": 1114,
      "come": 1115,
      "young_": 1116,
      "tayyoung_": 1117,
      "middle": 1118,
      "show": 1119,
      "god": 1120,
      "ary": 1121,
      "past": 1122,
      "female": 1123,
      "many": 1124,
      "well": 1125,
      "int": 1126,
      "ign": 1127,
      "able": 1128,
      "ren": 1129,
      "ms": 1130,
      "jihad": 1131,
      "ph": 1132,
      "sy": 1133,
      "trump": 1134,
      "bet": 1135,
      "years": 1136,
      "par": 1137,
      "ens": 1138,
      "always": 1139,
      "cy": 1140,
      "isis": 1141,
      "name": 1142,
      "ory": 1143,
      "watch": 1144,
      "could": 1145,
      "sm": 1146,
      "pt": 1147,
      "mis": 1148,
      "fore": 1149,
      "under": 1150,
      "def": 1151,
      "after": 1152,
      "very": 1153,
      "play": 1154,
      "log": 1155,
      "americ": 1156,
      "“@": 1157,
      "du": 1158,
      "ja": 1159,
      "saying": 1160,
      "down": 1161,
      "ating": 1162,
      "ually": 1163,
      "work": 1164,
      "terrorist": 1165,
      "which": 1166,
      "won": 1167,
      "friends": 1168,
      "ang": 1169,
      "stup": 1170,
      "take": 1171,
      "neg": 1172,
      "comm": 1173,
      "kk": 1174,
      "pla": 1175,
      "stupid": 1176,
      "bro": 1177,
      "old": 1178,
      "follow": 1179,
      "mem": 1180,
      "vi": 1181,
      "cra": 1182,
      "tur": 1183,
      "ought": 1184,
      "bs": 1185,
      "ww": 1186,
      "az": 1187,
      "child": 1188,
      "ft": 1189,
      "talk": 1190,
      "lu": 1191,
      "!!!": 1192,
      "war": 1193,
      "ali": 1194,
      "ask": 1195,
      "lear": 1196,
      "everyone": 1197,
      "tra": 1198,
      "making": 1199,
      "ff": 1200,
      "sha": 1201,
      "kids": 1202,
      "face": 1203,
      "start": 1204,
      "head": 1205,
      "disg": 1206,
      "isn": 1207,
      "cor": 1208,
      "bar": 1209,
      "may": 1210,
      "pect": 1211,
      "terrorists": 1212,
      "belie": 1213,
      "post": 1214,
      "che": 1215,
      "uran": 1216,
      "les": 1217,
      "ws": 1218,
      "things": 1219,
      "pret": 1220,
      "lot": 1221,
      "vo": 1222,
      "getting": 1223,
      "religion": 1224,
      "class": 1225,
      "str": 1226,
      "better": 1227,
      "di": 1228,
      "sor": 1229,
      "ual": 1230,
      "lic": 1231,
      "guy": 1232,
      "makes": 1233,
      "age": 1234,
      "disgust": 1235,
      "negro": 1236,
      "sed": 1237,
      "ins": 1238,
      "ult": 1239,
      "quran": 1240,
      "ason": 1241,
      "mal": 1242,
      "ote": 1243,
      "something": 1244,
      "sing": 1245,
      "tle": 1246,
      "aw": 1247,
      "give": 1248,
      "nothing": 1249,
      "kind": 1250,
      "keep": 1251,
      "care": 1252,
      "inst": 1253,
      "lp": 1254,
      "bc": 1255,
      "book": 1256,
      "ily": 1257,
      "disgusting": 1258,
      "doing": 1259,
      "before": 1260,
      "country": 1261,
      "prop": 1262,
      "sk": 1263,
      "humanity": 1264,
      "boy": 1265,
      "dif": 1266,
      "christians": 1267,
      "vic": 1268,
      "istan": 1269,
      "lock": 1270,
      "oup": 1271,
      "put": 1272,
      "ning": 1273,
      "gen": 1274,
      "cu": 1275,
      "ved": 1276,
      "aa": 1277,
      "inter": 1278,
      "oph": 1279,
      "find": 1280,
      "ise": 1281,
      "fight": 1282,
      "sit": 1283,
      "fact": 1284,
      "ident": 1285,
      "wrong": 1286,
      "mind": 1287,
      "ppl": 1288,
      "sin": 1289,
      "free": 1290,
      "pic": 1291,
      "teach": 1292,
      "gon": 1293,
      "india": 1294,
      "gra": 1295,
      "help": 1296,
      "!!!!": 1297,
      "member": 1298,
      "dont": 1299,
      "que": 1300,
      "group": 1301,
      "proble": 1302,
      "believe": 1303,
      "gl": 1304,
      "uc": 1305,
      "cent": 1306,
      "ned": 1307,
      "ideo": 1308,
      "xt": 1309,
      "ance": 1310,
      "trying": 1311,
      "guys": 1312,
      "anti": 1313,
      "body": 1314,
      "through": 1315,
      "ugh": 1316,
      "19": 1317,
      "sla": 1318,
      "ped": 1319,
      "ten": 1320,
      "ors": 1321,
      "mor": 1322,
      "sure": 1323,
      "io": 1324,
      "today": 1325,
      "cer": 1326,
      "car": 1327,
      "cre": 1328,
      "point": 1329,
      "ange": 1330,
      "calling": 1331,
      "col": 1332,
      "happen": 1333,
      "ven": 1334,
      "atta": 1335,
      "hell": 1336,
      "anyone": 1337,
      "yeah": 1338,
      "mom": 1339,
      "als": 1340,
      "talking": 1341,
      "fi": 1342,
      "bre": 1343,
      "while": 1344,
      "10": 1345,
      "thought": 1346,
      "tweet": 1347,
      "gy": 1348,
      "pak": 1349,
      "hi": 1350,
      "ya": 1351,
      "times": 1352,
      "ace": 1353,
      "ham": 1354,
      "ner": 1355,
      "another": 1356,
      "actually": 1357,
      "lma": 1358,
      "tions": 1359,
      "15": 1360,
      "mur": 1361,
      "differ": 1362,
      "dam": 1363,
      "ton": 1364,
      "ted": 1365,
      "yo": 1366,
      "please": 1367,
      "part": 1368,
      "colo": 1369,
      "commun": 1370,
      "12": 1371,
      "lle": 1372,
      "little": 1373,
      "lly": 1374,
      "attack": 1375,
      "pub": 1376,
      "colored": 1377,
      "son": 1378,
      "remember": 1379,
      "app": 1380,
      "told": 1381,
      "pretty": 1382,
      "sen": 1383,
      "ones": 1384,
      "ban": 1385,
      "ress": 1386,
      "sl": 1387,
      "vie": 1388,
      "news": 1389,
      "gre": 1390,
      "ces": 1391,
      "using": 1392,
      "such": 1393,
      "list": 1394,
      "gt": 1395,
      "hope": 1396,
      "azi": 1397,
      "au": 1398,
      "says": 1399,
      "hom": 1400,
      "ugly": 1401,
      "gg": 1402,
      "video": 1403,
      "bas": 1404,
      "done": 1405,
      "feminazi": 1406,
      "cur": 1407,
      "wear": 1408,
      "reason": 1409,
      "bitches": 1410,
      "ath": 1411,
      "hard": 1412,
      "non": 1413,
      "giv": 1414,
      "went": 1415,
      "vers": 1416,
      "cial": 1417,
      "oooo": 1418,
      "line": 1419,
      "ni": 1420,
      "ying": 1421,
      ":)": 1422,
      "fam": 1423,
      "around": 1424,
      "fat": 1425,
      "far": 1426,
      "liter": 1427,
      "hat": 1428,
      "pop": 1429,
      "nigga": 1430,
      "pris": 1431,
      "ble": 1432,
      "fre": 1433,
      "sorry": 1434,
      "tro": 1435,
      "long": 1436,
      "tu": 1437,
      "two": 1438,
      "matter": 1439,
      "understand": 1440,
      "gonna": 1441,
      "stat": 1442,
      "tru": 1443,
      "clo": 1444,
      "rus": 1445,
      "left": 1446,
      "ular": 1447,
      "must": 1448,
      "shut": 1449,
      "pakistan": 1450,
      "since": 1451,
      "having": 1452,
      "bra": 1453,
      "respect": 1454,
      "murder": 1455,
      "wee": 1456,
      "dd": 1457,
      "cla": 1458,
      "ught": 1459,
      "best": 1460,
      "ible": 1461,
      "dan": 1462,
      "ics": 1463,
      "ird": 1464,
      "rest": 1465,
      "nor": 1466,
      "fin": 1467,
      "anna": 1468,
      "hindus": 1469,
      "ima": 1470,
      "ready": 1471,
      "ele": 1472,
      "ically": 1473,
      "cept": 1474,
      "hindu": 1475,
      "home": 1476,
      "last": 1477,
      "zy": 1478,
      "trans": 1479,
      "law": 1480,
      "poli": 1481,
      "cho": 1482,
      "ques": 1483,
      "ations": 1484,
      "twee": 1485,
      "lat": 1486,
      "11": 1487,
      "hand": 1488,
      "literally": 1489,
      "mer": 1490,
      "ians": 1491,
      "char": 1492,
      "whole": 1493,
      "hy": 1494,
      "wish": 1495,
      "inv": 1496,
      "great": 1497,
      "loo": 1498,
      "tre": 1499,
      "etc": 1500,
      "ee": 1501,
      "sur": 1502,
      "polit": 1503,
      "mi": 1504,
      "live": 1505,
      "--": 1506,
      "ames": 1507,
      "schools": 1508,
      "ward": 1509,
      "victim": 1510,
      "tri": 1511,
      "rights": 1512,
      "ophob": 1513,
      "led": 1514,
      "ime": 1515,
      "inc": 1516,
      "ru": 1517,
      "gan": 1518,
      "came": 1519,
      "hh": 1520,
      "pon": 1521,
      "tf": 1522,
      "reg": 1523,
      "though": 1524,
      "problem": 1525,
      "lmao": 1526,
      "ball": 1527,
      "boys": 1528,
      "14": 1529,
      "comment": 1530,
      "ouse": 1531,
      "laugh": 1532,
      "oney": 1533,
      "ked": 1534,
      "itch": 1535,
      "sho": 1536,
      "ush": 1537,
      "damn": 1538,
      "tive": 1539,
      "ignor": 1540,
      "wal": 1541,
      "til": 1542,
      "colle": 1543,
      "killed": 1544,
      "race": 1545,
      "wasn": 1546,
      "__": 1547,
      "comp": 1548,
      "andre": 1549,
      "ions": 1550,
      "os": 1551,
      "beat": 1552,
      "night": 1553,
      "few": 1554,
      "run": 1555,
      "ze": 1556,
      "ters": 1557,
      "open": 1558,
      "ial": 1559,
      "enti": 1560,
      "stu": 1561,
      "ka": 1562,
      "cont": 1563,
      "ower": 1564,
      "else": 1565,
      "serious": 1566,
      "children": 1567,
      "males": 1568,
      "bur": 1569,
      "yourself": 1570,
      "hal": 1571,
      "suppor": 1572,
      "sim": 1573,
      "everything": 1574,
      "block": 1575,
      "ina": 1576,
      "state": 1577,
      "okay": 1578,
      "looks": 1579,
      "ken": 1580,
      "ably": 1581,
      "viol": 1582,
      "bi": 1583,
      "ding": 1584,
      "hor": 1585,
      "nation": 1586,
      "ities": 1587,
      "enough": 1588,
      "house": 1589,
      "bor": 1590,
      "ared": 1591,
      "both": 1592,
      "bab": 1593,
      "prison": 1594,
      "lives": 1595,
      "sound": 1596,
      "gays": 1597,
      "speak": 1598,
      "cus": 1599,
      "hon": 1600,
      "jor": 1601,
      "money": 1602,
      "si": 1603,
      "wanna": 1604,
      "isra": 1605,
      "yet": 1606,
      "bt": 1607,
      "mas": 1608,
      "pick": 1609,
      "sad": 1610,
      "uh": 1611,
      "set": 1612,
      "seen": 1613,
      "hey": 1614,
      "side": 1615,
      "next": 1616,
      "skin": 1617,
      "different": 1618,
      "insu": 1619,
      "ream": 1620,
      "ings": 1621,
      "away": 1622,
      "kh": 1623,
      "ending": 1624,
      "guess": 1625,
      "ds": 1626,
      "ear": 1627,
      "ith": 1628,
      "pun": 1629,
      "hair": 1630,
      "allow": 1631,
      "dog": 1632,
      "wait": 1633,
      "claim": 1634,
      "change": 1635,
      "press": 1636,
      "?!": 1637,
      "respon": 1638,
      "hist": 1639,
      "oc": 1640,
      "oot": 1641,
      "selves": 1642,
      "american": 1643,
      "ness": 1644,
      "ats": 1645,
      "vel": 1646,
      "pu": 1647,
      "dar": 1648,
      "ither": 1649,
      "ative": 1650,
      "cou": 1651,
      "hear": 1652,
      "ago": 1653,
      "date": 1654,
      "equ": 1655,
      "dude": 1656,
      "police": 1657,
      "gal": 1658,
      "iley": 1659,
      "ps": 1660,
      "true": 1661,
      "community": 1662,
      "wer": 1663,
      "uni": 1664,
      "unt": 1665,
      "others": 1666,
      "ents": 1667,
      "agree": 1668,
      "harass": 1669,
      "place": 1670,
      "13": 1671,
      "ced": 1672,
      "maybe": 1673,
      "land": 1674,
      "key": 1675,
      "dec": 1676,
      "educ": 1677,
      "wash": 1678,
      "until": 1679,
      "ended": 1680,
      "apo": 1681,
      "ram": 1682,
      "issu": 1683,
      "already": 1684,
      "saw": 1685,
      "dad": 1686,
      "nice": 1687,
      "lead": 1688,
      "ili": 1689,
      "ler": 1690,
      "lad": 1691,
      "stud": 1692,
      "ker": 1693,
      "bsd": 1694,
      "ane": 1695,
      "oom": 1696,
      "public": 1697,
      "bus": 1698,
      "power": 1699,
      "without": 1700,
      "family": 1701,
      "tar": 1702,
      "once": 1703,
      "coming": 1704,
      "nn": 1705,
      "lea": 1706,
      "mr": 1707,
      "paren": 1708,
      "team": 1709,
      "clear": 1710,
      "social": 1711,
      "days": 1712,
      "brother": 1713,
      "cool": 1714,
      "cult": 1715,
      "threat": 1716,
      "probably": 1717,
      ".\"": 1718,
      "dick": 1719,
      "ste": 1720,
      "found": 1721,
      "mir": 1722,
      "america": 1723,
      "females": 1724,
      "cks": 1725,
      "ality": 1726,
      "happy": 1727,
      ";&": 1728,
      "star": 1729,
      "ship": 1730,
      "president": 1731,
      "killing": 1732,
      "stra": 1733,
      "peace": 1734,
      "cted": 1735,
      "???": 1736,
      "tweets": 1737,
      "\".": 1738,
      "pay": 1739,
      "ition": 1740,
      "prom": 1741,
      "grade": 1742,
      "va": 1743,
      "ann": 1744,
      "liber": 1745,
      "abuse": 1746,
      "watching": 1747,
      "rel": 1748,
      "plain": 1749,
      "means": 1750,
      "mm": 1751,
      "miley": 1752,
      "super": 1753,
      "media": 1754,
      "light": 1755,
      "story": 1756,
      "gets": 1757,
      "words": 1758,
      "inking": 1759,
      "cons": 1760,
      "wouldn": 1761,
      "tries": 1762,
      "sexual": 1763,
      "weird": 1764,
      "mill": 1765,
      "death": 1766,
      "hur": 1767,
      "arab": 1768,
      "jews": 1769,
      "homophob": 1770,
      "dem": 1771,
      "demo": 1772,
      "listen": 1773,
      "nch": 1774,
      "gener": 1775,
      "www": 1776,
      "started": 1777,
      "looking": 1778,
      "stuff": 1779,
      "pass": 1780,
      "dra": 1781,
      "lin": 1782,
      "low": 1783,
      "might": 1784,
      "rul": 1785,
      "sick": 1786,
      "cyrus": 1787,
      "pat": 1788,
      "stay": 1789,
      "week": 1790,
      "hit": 1791,
      "sec": 1792,
      "mother": 1793,
      "blame": 1794,
      "crim": 1795,
      "gress": 1796,
      "tain": 1797,
      "vid": 1798,
      "het": 1799,
      "defin": 1800,
      "xx": 1801,
      "form": 1802,
      "den": 1803,
      "die": 1804,
      "jud": 1805,
      "themselves": 1806,
      "count": 1807,
      "cop": 1808,
      "wow": 1809,
      "rap": 1810,
      "fil": 1811,
      "val": 1812,
      "oud": 1813,
      "apolog": 1814,
      "cle": 1815,
      "thank": 1816,
      "thanks": 1817,
      "game": 1818,
      "ignorant": 1819,
      "fron": 1820,
      "turn": 1821,
      "freebsd": 1822,
      "jes": 1823,
      "full": 1824,
      "miss": 1825,
      "ko": 1826,
      "fucks": 1827,
      "iss": 1828,
      "grow": 1829,
      "party": 1830,
      "conf": 1831,
      "accept": 1832,
      "100": 1833,
      "ged": 1834,
      "zz": 1835,
      "lon": 1836,
      "rid": 1837,
      "gas": 1838,
      "hn": 1839,
      "del": 1840,
      "vir": 1841,
      "dead": 1842,
      "uring": 1843,
      "fake": 1844,
      "fair": 1845,
      "shame": 1846,
      "17": 1847,
      "each": 1848,
      "move": 1849,
      "exact": 1850,
      "happened": 1851,
      "camp": 1852,
      "mit": 1853,
      "rand": 1854,
      "omg": 1855,
      "history": 1856,
      "hot": 1857,
      "urs": 1858,
      "afr": 1859,
      "either": 1860,
      "win": 1861,
      "ene": 1862,
      "add": 1863,
      "idea": 1864,
      "lor": 1865,
      "ture": 1866,
      "exper": 1867,
      "ross": 1868,
      "wanted": 1869,
      "kash": 1870,
      ".....": 1871,
      "myself": 1872,
      "2015": 1873,
      "rect": 1874,
      "job": 1875,
      "cas": 1876,
      "sw": 1877,
      "goes": 1878,
      "pet": 1879,
      "posit": 1880,
      "pal": 1881,
      "major": 1882,
      "truth": 1883,
      "ction": 1884,
      "gamer": 1885,
      "sof": 1886,
      "comed": 1887,
      "cond": 1888,
      "religious": 1889,
      "comple": 1890,
      "needs": 1891,
      "jesus": 1892,
      "ites": 1893,
      "dev": 1894,
      "ize": 1895,
      "mil": 1896,
      "fect": 1897,
      "tely": 1898,
      "seeing": 1899,
      "eas": 1900,
      "tor": 1901,
      "cked": 1902,
      "straight": 1903,
      "cess": 1904,
      "deser": 1905,
      "nt": 1906,
      "max": 1907,
      "ants": 1908,
      "calls": 1909,
      "honest": 1910,
      "afric": 1911,
      "rep": 1912,
      "kashmir": 1913,
      "cal": 1914,
      "solu": 1915,
      "comes": 1916,
      "extre": 1917,
      "tv": 1918,
      "ited": 1919,
      "parents": 1920,
      "fan": 1921,
      "become": 1922,
      "lying": 1923,
      "deal": 1924,
      "element": 1925,
      "insult": 1926,
      "cut": 1927,
      "dou": 1928,
      "lg": 1929,
      "rob": 1930,
      "yr": 1931,
      "ars": 1932,
      "prof": 1933,
      "inste": 1934,
      "a_": 1935,
      "pra": 1936,
      "uu": 1937,
      "thinking": 1938,
      "net": 1939,
      "indian": 1940,
      "leave": 1941,
      "culture": 1942,
      "cunt": 1943,
      "wn": 1944,
      "ons": 1945,
      "allah": 1946,
      "heard": 1947,
      "fy": 1948,
      "ates": 1949,
      "moham": 1950,
      "cant": 1951,
      "wonder": 1952,
      "least": 1953,
      "month": 1954,
      "imag": 1955,
      "front": 1956,
      "aking": 1957,
      "during": 1958,
      "kar": 1959,
      "lies": 1960,
      "betwe": 1961,
      "priv": 1962,
      "tem": 1963,
      "evil": 1964,
      "sense": 1965,
      "seriously": 1966,
      "leg": 1967,
      "cuz": 1968,
      "pie": 1969,
      "sub": 1970,
      "contin": 1971,
      "between": 1972,
      "nd": 1973,
      "cover": 1974,
      "countries": 1975,
      "smh": 1976,
      "rules": 1977,
      "lan": 1978,
      "shar": 1979,
      "pped": 1980,
      "chris": 1981,
      "popular": 1982,
      "freebsdgirl": 1983,
      "worst": 1984,
      "18": 1985,
      "ese": 1986,
      "gether": 1987,
      "exist": 1988,
      "writ": 1989,
      "serv": 1990,
      "homophobic": 1991,
      "mc": 1992,
      "vote": 1993,
      "ank": 1994,
      "ret": 1995,
      "ports": 1996,
      "wants": 1997,
      "hypo": 1998,
      "\"@": 1999,
      "ju": 2000,
      "fort": 2001,
      "john": 2002,
      "experi": 2003,
      "gate": 2004,
      "sal": 2005,
      "instead": 2006,
      "16": 2007,
      "hu": 2008,
      "hood": 2009,
      "lm": 2010,
      "ards": 2011,
      "racy": 2012,
      "telling": 2013,
      "elementary": 2014,
      "33": 2015,
      "bill": 2016,
      "gn": 2017,
      "via": 2018,
      "cow": 2019,
      "thy": 2020,
      "hold": 2021,
      "gave": 2022,
      "feminism": 2023,
      "learn": 2024,
      "college": 2025,
      "kitch": 2026,
      "ues": 2027,
      "esh": 2028,
      "ider": 2029,
      "poor": 2030,
      "entire": 2031,
      "baby": 2032,
      "knew": 2033,
      "zing": 2034,
      "ised": 2035,
      "organ": 2036,
      "vious": 2037,
      ").": 2038,
      "hun": 2039,
      "sun": 2040,
      "arch": 2041,
      "half": 2042,
      "hypocr": 2043,
      "ii": 2044,
      "tt": 2045,
      "yall": 2046,
      "spre": 2047,
      "uk": 2048,
      "outh": 2049,
      "tom": 2050,
      "ley": 2051,
      "cking": 2052,
      "posed": 2053,
      "question": 2054,
      "tried": 2055,
      "kitchen": 2056,
      "living": 2057,
      "ately": 2058,
      "blood": 2059,
      "jus": 2060,
      "wad": 2061,
      "ref": 2062,
      "prot": 2063,
      "feminist": 2064,
      "daught": 2065,
      "30": 2066,
      "beli": 2067,
      "break": 2068,
      "cook": 2069,
      "kick": 2070,
      "inno": 2071,
      "thats": 2072,
      "opin": 2073,
      "minor": 2074,
      "facebook": 2075,
      "wtf": 2076,
      "att": 2077,
      "ney": 2078,
      "account": 2079,
      "kkkk": 2080,
      "status": 2081,
      "ria": 2082,
      "together": 2083,
      "soon": 2084,
      "taking": 2085,
      "heart": 2086,
      "ister": 2087,
      "prote": 2088,
      "bring": 2089,
      "crazy": 2090,
      "israel": 2091,
      "bal": 2092,
      "cat": 2093,
      "gun": 2094,
      "remind": 2095,
      "whate": 2096,
      "music": 2097,
      "safe": 2098,
      "fav": 2099,
      "appe": 2100,
      "exactly": 2101,
      "second": 2102,
      "exc": 2103,
      "prophet": 2104,
      "band": 2105,
      "foot": 2106,
      "behind": 2107,
      "thinks": 2108,
      "spread": 2109,
      "wo": 2110,
      "wat": 2111,
      "lling": 2112,
      "chang": 2113,
      "lost": 2114,
      "tly": 2115,
      "main": 2116,
      "fol": 2117,
      "cially": 2118,
      "whatever": 2119,
      "ale": 2120,
      "fl": 2121,
      "gover": 2122,
      "expect": 2123,
      "single": 2124,
      "harassment": 2125,
      "democr": 2126,
      "mohammed": 2127,
      ":(": 2128,
      "mt": 2129,
      "pus": 2130,
      "reali": 2131,
      "examp": 2132,
      "hoe": 2133,
      "later": 2134,
      "violence": 2135,
      "gar": 2136,
      "gle": 2137,
      "bunch": 2138,
      "niggas": 2139,
      "crimin": 2140,
      ".@": 2141,
      "50": 2142,
      "uses": 2143,
      "trash": 2144,
      "teen": 2145,
      "gry": 2146,
      "cing": 2147,
      "fool": 2148,
      "sat": 2149,
      "tech": 2150,
      "spi": 2151,
      "gamergate": 2152,
      "80": 2153,
      "bed": 2154,
      "ling": 2155,
      "yy": 2156,
      "ðð": 2157,
      "cannot": 2158,
      "type": 2159,
      "offic": 2160,
      "ject": 2161,
      "ky": 2162,
      "sil": 2163,
      "vot": 2164,
      "heal": 2165,
      "fear": 2166,
      "suic": 2167,
      "present": 2168,
      "teacher": 2169,
      "freed": 2170,
      "wards": 2171,
      "ctive": 2172,
      "dom": 2173,
      "pan": 2174,
      "round": 2175,
      "report": 2176,
      "chur": 2177,
      "youtu": 2178,
      "amed": 2179,
      "ade": 2180,
      "shouldn": 2181,
      "crack": 2182,
      ".”": 2183,
      "fal": 2184,
      "sent": 2185,
      "ender": 2186,
      "hahaha": 2187,
      "view": 2188,
      "anno": 2189,
      "assa": 2190,
      "destro": 2191,
      "playing": 2192,
      "ior": 2193,
      "incl": 2194,
      "china": 2195,
      "pray": 2196,
      "working": 2197,
      "const": 2198,
      "throw": 2199,
      "giving": 2200,
      "innocent": 2201,
      "fs": 2202,
      "mention": 2203,
      "groups": 2204,
      "ben": 2205,
      "mist": 2206,
      "sle": 2207,
      "thal": 2208,
      "absolu": 2209,
      "knows": 2210,
      "asked": 2211,
      "color": 2212,
      "wearing": 2213,
      "brain": 2214,
      "90": 2215,
      "bot": 2216,
      "sign": 2217,
      "treat": 2218,
      "yard": 2219,
      "itely": 2220,
      "voice": 2221,
      "political": 2222,
      "77": 2223,
      "ran": 2224,
      "top": 2225,
      "fully": 2226,
      "forget": 2227,
      "fuckin": 2228,
      "fail": 2229,
      "mental": 2230,
      "ges": 2231,
      "ki": 2232,
      "sports": 2233,
      "refer": 2234,
      "abor": 2235,
      "pose": 2236,
      "suck": 2237,
      "seems": 2238,
      "took": 2239,
      "victims": 2240,
      "wadh": 2241,
      "case": 2242,
      "fic": 2243,
      "ied": 2244,
      "thes": 2245,
      "tot": 2246,
      "coon": 2247,
      "ility": 2248,
      "space": 2249,
      "hurt": 2250,
      "lil": 2251,
      "almost": 2252,
      "term": 2253,
      "bigot": 2254,
      "ensive": 2255,
      "hatred": 2256,
      "pho": 2257,
      "riot": 2258,
      "za": 2259,
      "ald": 2260,
      "obvious": 2261,
      "blon": 2262,
      "ried": 2263,
      "freedom": 2264,
      "church": 2265,
      "fit": 2266,
      "bey": 2267,
      "rage": 2268,
      "force": 2269,
      "crit": 2270,
      "consider": 2271,
      "wadhwa": 2272,
      "40": 2273,
      "boo": 2274,
      "numb": 2275,
      "anda": 2276,
      "beha": 2277,
      "worse": 2278,
      "acc": 2279,
      "small": 2280,
      "definitely": 2281,
      "imagine": 2282,
      "gest": 2283,
      "mes": 2284,
      "xic": 2285,
      "iness": 2286,
      "lgbt": 2287,
      "govern": 2288,
      "ef": 2289,
      "food": 2290,
      "ls": 2291,
      "step": 2292,
      "haven": 2293,
      "shows": 2294,
      "allowed": 2295,
      "bh": 2296,
      "fag": 2297,
      "gang": 2298,
      "movie": 2299,
      "couldn": 2300,
      "gone": 2301,
      "ira": 2302,
      "nat": 2303,
      "vis": 2304,
      "enthal": 2305,
      "umenthal": 2306,
      "blumenthal": 2307,
      "charac": 2308,
      "eth": 2309,
      "iam": 2310,
      "vin": 2311,
      "espe": 2312,
      "alone": 2313,
      "abt": 2314,
      "books": 2315,
      "cli": 2316,
      "online": 2317,
      "stem": 2318,
      "rather": 2319,
      "club": 2320,
      "rich": 2321,
      "lesb": 2322,
      "target": 2323,
      "24": 2324,
      "ging": 2325,
      "grad": 2326,
      "nal": 2327,
      "lled": 2328,
      "nobody": 2329,
      "bullshit": 2330,
      "mag": 2331,
      "cry": 2332,
      "drop": 2333,
      "given": 2334,
      "pussy": 2335,
      "bag": 2336,
      "eli": 2337,
      "fla": 2338,
      "lar": 2339,
      "nas": 2340,
      "acting": 2341,
      "americans": 2342,
      "majority": 2343,
      "suicide": 2344,
      "bid": 2345,
      "ense": 2346,
      "shot": 2347,
      "notsexist": 2348,
      "ends": 2349,
      "father": 2350,
      "ilar": 2351,
      "dat": 2352,
      "tall": 2353,
      "iety": 2354,
      "udes": 2355,
      "honestly": 2356,
      "bb": 2357,
      "push": 2358,
      "import": 2359,
      "text": 2360,
      "clearly": 2361,
      "cour": 2362,
      "div": 2363,
      "chick": 2364,
      "soc": 2365,
      "shor": 2366,
      "system": 2367,
      "fighting": 2368,
      "green": 2369,
      "jr": 2370,
      "pot": 2371,
      "row": 2372,
      "sar": 2373,
      "cap": 2374,
      "sometimes": 2375,
      "blacks": 2376,
      "esting": 2377,
      "brown": 2378,
      "slavery": 2379,
      "comments": 2380,
      "bom": 2381,
      "ogy": 2382,
      "ris": 2383,
      "room": 2384,
      "sam": 2385,
      "ined": 2386,
      "asking": 2387,
      "raped": 2388,
      "congress": 2389,
      "plan": 2390,
      "2020": 2391,
      "produ": 2392,
      "check": 2393,
      "tention": 2394,
      "daughter": 2395,
      "example": 2396,
      "99": 2397,
      "ey": 2398,
      "fine": 2399,
      "enter": 2400,
      "liked": 2401,
      "antly": 2402,
      "supporting": 2403,
      "national": 2404,
      "pression": 2405,
      "issue": 2406,
      "government": 2407,
      "especially": 2408,
      "civ": 2409,
      "dream": 2410,
      "wing": 2411,
      "in_": 2412,
      "choo": 2413,
      "joy": 2414,
      "donald": 2415,
      "teachers": 2416,
      "choice": 2417,
      "lmfa": 2418,
      "**": 2419,
      "ech": 2420,
      "rr": 2421,
      "vs": 2422,
      "zed": 2423,
      "itu": 2424,
      "unch": 2425,
      "artic": 2426,
      "tonight": 2427,
      "born": 2428,
      "issues": 2429,
      "totally": 2430,
      "behavi": 2431,
      "85": 2432,
      "pi": 2433,
      "repub": 2434,
      "atic": 2435,
      "oof": 2436,
      "ster": 2437,
      "contr": 2438,
      "????": 2439,
      "harm": 2440,
      "athe": 2441,
      "cul": 2442,
      "nick": 2443,
      "piece": 2444,
      "dc": 2445,
      "gender": 2446,
      "names": 2447,
      "sum": 2448,
      "proud": 2449,
      "save": 2450,
      "mine": 2451,
      "strong": 2452,
      "education": 2453,
      "photo": 2454,
      "eat": 2455,
      "fall": 2456,
      "jour": 2457,
      "mich": 2458,
      "wit": 2459,
      "ond": 2460,
      "blm": 2461,
      "difference": 2462,
      "opinion": 2463,
      "course": 2464,
      "bie": 2465,
      "fans": 2466,
      "ome": 2467,
      "py": 2468,
      "zi": 2469,
      "lect": 2470,
      "mail": 2471,
      "reading": 2472,
      "feminists": 2473,
      "pedoph": 2474,
      "dark": 2475,
      "folks": 2476,
      "60": 2477,
      "m_": 2478,
      "og": 2479,
      "igno": 2480,
      "tiv": 2481,
      "facts": 2482,
      "horri": 2483,
      "maxblumenthal": 2484,
      "believ": 2485,
      "air": 2486,
      "ders": 2487,
      "rom": 2488,
      "inf": 2489,
      "adv": 2490,
      "mkr2015": 2491,
      "seem": 2492,
      "ground": 2493,
      "spec": 2494,
      "biggest": 2495,
      "barr": 2496,
      "cute": 2497,
      "av": 2498,
      "aur": 2499,
      "ku": 2500,
      "towards": 2501,
      "ooo": 2502,
      "beau": 2503,
      "rain": 2504,
      "mos": 2505,
      "suf": 2506,
      "answer": 2507,
      "pur": 2508,
      "pain": 2509,
      "attention": 2510,
      "fucked": 2511,
      "ific": 2512,
      "anymore": 2513,
      "brit": 2514,
      "punch": 2515,
      "eyes": 2516,
      "kay": 2517,
      "plo": 2518,
      "sus": 2519,
      "inn": 2520,
      "met": 2521,
      "gotta": 2522,
      "turned": 2523,
      ",,": 2524,
      "fb": 2525,
      "i_": 2526,
      "ences": 2527,
      "became": 2528,
      "explain": 2529,
      "typ": 2530,
      "offensive": 2531,
      "200": 2532,
      "misogy": 2533,
      "random": 2534,
      "retard": 2535,
      "organiz": 2536,
      "football": 2537,
      "lls": 2538,
      "youre": 2539,
      "lican": 2540,
      "pping": 2541,
      "experience": 2542,
      "annoying": 2543,
      "sir": 2544,
      "send": 2545,
      "ories": 2546,
      "outside": 2547,
      "poss": 2548,
      "ille": 2549,
      "grand": 2550,
      "defend": 2551,
      "incident": 2552,
      "african": 2553,
      "assault": 2554,
      "jm": 2555,
      "army": 2556,
      "idk": 2557,
      "ided": 2558,
      "istic": 2559,
      "certain": 2560,
      "health": 2561,
      "dir": 2562,
      "games": 2563,
      "nic": 2564,
      "vol": 2565,
      "angry": 2566,
      "level": 2567,
      "conserv": 2568,
      "amazing": 2569,
      "basically": 2570,
      "palest": 2571,
      "hus": 2572,
      "zer": 2573,
      "gue": 2574,
      "himself": 2575,
      "hahahaha": 2576,
      "happens": 2577,
      "deserve": 2578,
      "destroy": 2579,
      "republican": 2580,
      "ai": 2581,
      "thor": 2582,
      "ides": 2583,
      "ties": 2584,
      "ional": 2585,
      "hero": 2586,
      "close": 2587,
      "clothes": 2588,
      "false": 2589,
      "bat": 2590,
      "”.": 2591,
      "aming": 2592,
      "takes": 2593,
      "cru": 2594,
      "crime": 2595,
      "ized": 2596,
      "speech": 2597,
      "logy": 2598,
      "shole": 2599,
      "lady": 2600,
      ";)": 2601,
      "ik": 2602,
      "song": 2603,
      "order": 2604,
      "wife": 2605,
      "uro": 2606,
      "concer": 2607,
      "disrespect": 2608,
      "ished": 2609,
      "udi": 2610,
      "craft": 2611,
      "protect": 2612,
      "asshole": 2613,
      "mykitchen": 2614,
      "niger": 2615,
      "gov": 2616,
      "jack": 2617,
      "sounds": 2618,
      "respons": 2619,
      "spiracy": 2620,
      "choose": 2621,
      "bout": 2622,
      "dist": 2623,
      "hour": 2624,
      "chan": 2625,
      "lebr": 2626,
      "tern": 2627,
      "holy": 2628,
      "supposed": 2629,
      "luck": 2630,
      "propag": 2631,
      "mykitchenrules": 2632,
      "23": 2633,
      "gin": 2634,
      "hated": 2635,
      "mass": 2636,
      "nar": 2637,
      "swe": 2638,
      "spo": 2639,
      "engl": 2640,
      "lip": 2641,
      "iron": 2642,
      "tired": 2643,
      "attacked": 2644,
      "number": 2645,
      "horrible": 2646,
      "due": 2647,
      "hes": 2648,
      "mul": 2649,
      "mouth": 2650,
      "anger": 2651,
      "anim": 2652,
      "whites": 2653,
      "ict": 2654,
      "unless": 2655,
      "works": 2656,
      "scared": 2657,
      "following": 2658,
      "liberal": 2659,
      "months": 2660,
      "youtube": 2661,
      "sleep": 2662,
      "29": 2663,
      "sour": 2664,
      "sister": 2665,
      "chin": 2666,
      "stre": 2667,
      "trust": 2668,
      "fran": 2669,
      "looked": 2670,
      "phone": 2671,
      "fire": 2672,
      "bj": 2673,
      "bir": 2674,
      "sou": 2675,
      "tic": 2676,
      "sty": 2677,
      "dep": 2678,
      "known": 2679,
      "coo": 2680,
      "pand": 2681,
      "orig": 2682,
      "wel": 2683,
      "justice": 2684,
      "tali": 2685,
      "jewish": 2686,
      "followers": 2687,
      "awful": 2688,
      "based": 2689,
      "business": 2690,
      "justi": 2691,
      "messa": 2692,
      "cot": 2693,
      "fig": 2694,
      "sco": 2695,
      "requ": 2696,
      "reci": 2697,
      "unk": 2698,
      "agram": 2699,
      "except": 2700,
      "action": 2701,
      "correct": 2702,
      "slave": 2703,
      "regime": 2704,
      "laughing": 2705,
      "pract": 2706,
      "creat": 2707,
      "mp": 2708,
      "nu": 2709,
      "town": 2710,
      "usa": 2711,
      "faith": 2712,
      "cyber": 2713,
      "problems": 2714,
      "important": 2715,
      "pen": 2716,
      "ased": 2717,
      "convers": 2718,
      "plus": 2719,
      "mostly": 2720,
      "feeling": 2721,
      "milit": 2722,
      "gs": 2723,
      "san": 2724,
      "activ": 2725,
      "ives": 2726,
      "blue": 2727,
      "smart": 2728,
      "commit": 2729,
      "kinda": 2730,
      "million": 2731,
      "positive": 2732,
      "gum": 2733,
      "juni": 2734,
      "none": 2735,
      "onen": 2736,
      "itive": 2737,
      "search": 2738,
      "forgot": 2739,
      "hoes": 2740,
      "actual": 2741,
      "scre": 2742,
      "threaten": 2743,
      "realize": 2744,
      "cc": 2745,
      "goo": 2746,
      "hill": 2747,
      "build": 2748,
      "genoc": 2749,
      "apparen": 2750,
      "israeli": 2751,
      "\",": 2752,
      "eu": 2753,
      "han": 2754,
      "kin": 2755,
      "tin": 2756,
      "rele": 2757,
      "decl": 2758,
      "ift": 2759,
      "bye": 2760,
      "ield": 2761,
      "spir": 2762,
      "daesh": 2763,
      "000": 2764,
      "general": 2765,
      "completely": 2766,
      "absolutely": 2767,
      "journal": 2768,
      "hop": 2769,
      "qa": 2770,
      "swear": 2771,
      "west": 2772,
      "weight": 2773,
      "coz": 2774,
      "taken": 2775,
      "everybody": 2776,
      "perfect": 2777,
      "instagram": 2778,
      "glad": 2779,
      "morning": 2780,
      "response": 2781,
      "article": 2782,
      "origin": 2783,
      "junior": 2784,
      "dm": 2785,
      "sj": 2786,
      "era": 2787,
      "complain": 2788,
      "worth": 2789,
      "conver": 2790,
      "box": 2791,
      "gives": 2792,
      "dden": 2793,
      "invol": 2794,
      "regard": 2795,
      "statement": 2796,
      "blameonen": 2797,
      "includ": 2798,
      "blameonenot": 2799,
      "22": 2800,
      "blog": 2801,
      "fast": 2802,
      "ire": 2803,
      "kur": 2804,
      "ply": 2805,
      "three": 2806,
      "ona": 2807,
      "stick": 2808,
      "board": 2809,
      "host": 2810,
      "gram": 2811,
      "daily": 2812,
      "warcraft": 2813,
      "proper": 2814,
      "leader": 2815,
      "london": 2816,
      "society": 2817,
      "70": 2818,
      "din": 2819,
      "hang": 2820,
      "jer": 2821,
      "link": 2822,
      "ring": 2823,
      "wood": 2824,
      "ator": 2825,
      "liking": 2826,
      "felt": 2827,
      "meaning": 2828,
      "speaking": 2829,
      "slaves": 2830,
      "profess": 2831,
      "lesbian": 2832,
      "blameonenotall": 2833,
      "rss": 2834,
      "ert": 2835,
      "repe": 2836,
      "ada": 2837,
      "cock": 2838,
      "cep": 2839,
      "deep": 2840,
      "nah": 2841,
      "crush": 2842,
      "pressed": 2843,
      "special": 2844,
      "personal": 2845,
      "states": 2846,
      "walk": 2847,
      "earth": 2848,
      "weren": 2849,
      "student": 2850,
      "excuse": 2851,
      "character": 2852,
      "short": 2853,
      "propaganda": 2854,
      "ack": 2855,
      "bing": 2856,
      "jid": 2857,
      "mum": 2858,
      "mess": 2859,
      "sand": 2860,
      "vy": 2861,
      "feels": 2862,
      "danger": 2863,
      "normal": 2864,
      "politics": 2865,
      "abortion": 2866,
      "),": 2867,
      "huh": 2868,
      "jen": 2869,
      "pis": 2870,
      "enjoy": 2871,
      "joe": 2872,
      "sudden": 2873,
      "aint": 2874,
      "brut": 2875,
      "write": 2876,
      "crap": 2877,
      "internet": 2878,
      "happening": 2879,
      "restaur": 2880,
      "equal": 2881,
      "students": 2882,
      "cops": 2883,
      "obviously": 2884,
      "beauti": 2885,
      "bers": 2886,
      "buy": 2887,
      "iran": 2888,
      "celebr": 2889,
      "dear": 2890,
      "ages": 2891,
      "quite": 2892,
      "grown": 2893,
      "apparently": 2894,
      "b4": 2895,
      "euro": 2896,
      "jay": 2897,
      "yu": 2898,
      "esome": 2899,
      "likes": 2900,
      "whe": 2901,
      "idence": 2902,
      "near": 2903,
      "terrible": 2904,
      "hadith": 2905,
      "page": 2906,
      "share": 2907,
      "reasons": 2908,
      "finally": 2909,
      "relation": 2910,
      "bloody": 2911,
      "nasty": 2912,
      "25": 2913,
      "89": 2914,
      "eye": 2915,
      "ana": 2916,
      "rema": 2917,
      "shoo": 2918,
      "deb": 2919,
      "asses": 2920,
      "condem": 2921,
      "quick": 2922,
      "quinn": 2923,
      "fox": 2924,
      "sexism": 2925,
      "offended": 2926,
      "reality": 2927,
      "throughout": 2928,
      "appreci": 2929,
      "questions": 2930,
      "khan": 2931,
      "beautiful": 2932,
      "69": 2933,
      "_9": 2934,
      "card": 2935,
      "tren": 2936,
      "yd": 2937,
      "ining": 2938,
      "prin": 2939,
      "married": 2940,
      "posted": 2941,
      "stru": 2942,
      "easy": 2943,
      "continue": 2944,
      "sharia": 2945,
      "64": 2946,
      "ez": 2947,
      "fm": 2948,
      "fra": 2949,
      "nk": 2950,
      "ns": 2951,
      "yp": 2952,
      "ices": 2953,
      "ugs": 2954,
      "katgal": 2955,
      "awesome": 2956,
      "attacks": 2957,
      "murdered": 2958,
      "running": 2959,
      "early": 2960,
      "secular": 2961,
      "spacekatgal": 2962,
      "english": 2963,
      "aj": 2964,
      "btw": 2965,
      "ier": 2966,
      "mic": 2967,
      "eng": 2968,
      "usually": 2969,
      "often": 2970,
      "fur": 2971,
      "forced": 2972,
      "weak": 2973,
      "model": 2974,
      "herself": 2975,
      "riage": 2976,
      "changed": 2977,
      "critic": 2978,
      "multi": 2979,
      "53": 2980,
      "glo": 2981,
      "hating": 2982,
      "ration": 2983,
      "sr": 2984,
      "sci": 2985,
      "ouch": 2986,
      "wayne": 2987,
      "direct": 2988,
      "fix": 2989,
      "pakistani": 2990,
      "violent": 2991,
      "favor": 2992,
      "biden": 2993,
      "!\"": 2994,
      "84": 2995,
      "cast": 2996,
      "xo": 2997,
      "thetic": 2998,
      "asian": 2999,
      "cher": 3000,
      "belong": 3001,
      "admit": 3002,
      "lyn": 3003,
      "verse": 3004,
      "doc": 3005,
      "prim": 3006,
      "gold": 3007,
      "!!!!!": 3008,
      "man_": 3009,
      "needed": 3010,
      "tells": 3011,
      "ensitive": 3012,
      "kki": 3013,
      "voc": 3014,
      "picture": 3015,
      "colin": 3016,
      "popul": 3017,
      "educated": 3018,
      "europe": 3019,
      "cup": 3020,
      "ague": 3021,
      "taught": 3022,
      "utes": 3023,
      "didnt": 3024,
      "!!!!!!!!": 3025,
      "views": 3026,
      "faggot": 3027,
      "lmfao": 3028,
      "ael": 3029,
      "city": 3030,
      "dudes": 3031,
      "email": 3032,
      "jump": 3033,
      "psy": 3034,
      "ino": 3035,
      "proof": 3036,
      "imp": 3037,
      "shitty": 3038,
      "iving": 3039,
      "mark": 3040,
      "katie": 3041,
      "defending": 3042,
      "instant": 3043,
      "moment": 3044,
      "slut": 3045,
      "slurs": 3046,
      "judge": 3047,
      "virus": 3048,
      "minorities": 3049,
      "fas": 3050,
      "gop": 3051,
      "mate": 3052,
      "thequinn": 3053,
      "org": 3054,
      "raid": 3055,
      "shi": 3056,
      "sher": 3057,
      "ested": 3058,
      "racial": 3059,
      "crying": 3060,
      "everyday": 3061,
      "actions": 3062,
      "blow": 3063,
      "marriage": 3064,
      "played": 3065,
      "partic": 3066,
      "russ": 3067,
      "dogs": 3068,
      "behavior": 3069,
      "control": 3070,
      "israeliregime": 3071,
      "1st": 3072,
      "cit": 3073,
      "cred": 3074,
      "ek": 3075,
      "hilar": 3076,
      "iq": 3077,
      "james": 3078,
      "tl": 3079,
      "along": 3080,
      "outta": 3081,
      "cos": 3082,
      "common": 3083,
      "agend": 3084,
      "acts": 3085,
      "stopped": 3086,
      "jail": 3087,
      "tweeting": 3088,
      "lord": 3089,
      "birth": 3090,
      "ell": 3091,
      "nur": 3092,
      "xd": 3093,
      "isy": 3094,
      "ators": 3095,
      "ands": 3096,
      "igger": 3097,
      "sold": 3098,
      "till": 3099,
      "loved": 3100,
      "anyway": 3101,
      "discus": 3102,
      "office": 3103,
      "drive": 3104,
      "yoho": 3105,
      "hands": 3106,
      "langu": 3107,
      "chriswarcraft": 3108,
      "alex": 3109,
      "constantly": 3110,
      "iraq": 3111,
      "suffer": 3112,
      "chinese": 3113,
      "8_9": 3114,
      "jim": 3115,
      "bum": 3116,
      "sell": 3117,
      "future": 3118,
      "feed": 3119,
      "poin": 3120,
      "david": 3121,
      "paid": 3122,
      "created": 3123,
      "surpris": 3124,
      "blocked": 3125,
      "private": 3126,
      "mt8_9": 3127,
      "relationship": 3128,
      "thequinnspiracy": 3129,
      "hilarious": 3130,
      "86": 3131,
      ":/": 3132,
      "blam": 3133,
      "pred": 3134,
      "thous": 3135,
      "cha": 3136,
      "meant": 3137,
      "argum": 3138,
      "hai": 3139,
      "kelly": 3140,
      "doct": 3141,
      "los": 3142,
      "yea": 3143,
      "ledge": 3144,
      "kno": 3145,
      "ml": 3146,
      "ures": 3147,
      "rece": 3148,
      "ital": 3149,
      "chill": 3150,
      "mee": 3151,
      "secre": 3152,
      "pete": 3153,
      "nel": 3154,
      "trou": 3155,
      "worry": 3156,
      "ils": 3157,
      "quit": 3158,
      "racists": 3159,
      "pregn": 3160,
      "prove": 3161,
      "create": 3162,
      "huge": 3163,
      "democrats": 3164,
      "donaldtrump": 3165,
      "taliban": 3166,
      "45": 3167,
      "dri": 3168,
      "hr": 3169,
      "hv": 3170,
      "lunch": 3171,
      "wise": 3172,
      "llo": 3173,
      "aste": 3174,
      "abo": 3175,
      "suc": 3176,
      "realdonaldtrump": 3177,
      "medi": 3178,
      "situ": 3179,
      "curren": 3180,
      "simply": 3181,
      "annie": 3182,
      "dirty": 3183,
      "aign": 3184,
      "bon": 3185,
      "cam": 3186,
      "ded": 3187,
      "e_": 3188,
      "jam": 3189,
      "len": 3190,
      "vand": 3191,
      "stan": 3192,
      "stere": 3193,
      "sever": 3194,
      "secur": 3195,
      "sol": 3196,
      "coll": 3197,
      "code": 3198,
      "modi": 3199,
      "moved": 3200,
      "bother": 3201,
      "jihadi": 3202,
      "videos": 3203,
      "halal": 3204,
      "couple": 3205,
      "promot": 3206,
      "liberals": 3207,
      "campaign": 3208,
      "bible": 3209,
      "cd": 3210,
      "pc": 3211,
      "ric": 3212,
      "erz": 3213,
      "ising": 3214,
      "liar": 3215,
      "stage": 3216,
      "iding": 3217,
      "lynch": 3218,
      "tik": 3219,
      "shir": 3220,
      "cance": 3221,
      "rock": 3222,
      "pathetic": 3223,
      "phys": 3224,
      "forever": 3225,
      "sort": 3226,
      "nikki": 3227,
      "truly": 3228,
      "equality": 3229,
      "petition": 3230,
      "writing": 3231,
      "beyond": 3232,
      "michael": 3233,
      "94": 3234,
      "gi": 3235,
      "lr": 3236,
      "ered": 3237,
      "recor": 3238,
      "recent": 3239,
      "lose": 3240,
      "pos": 3241,
      "tact": 3242,
      "preach": 3243,
      "desp": 3244,
      "wake": 3245,
      "posts": 3246,
      "fresh": 3247,
      "extrem": 3248,
      "fortun": 3249,
      "source": 3250,
      "population": 3251,
      "language": 3252,
      "stereot": 3253,
      "88": 3254,
      "dating": 3255,
      "dress": 3256,
      "hen": 3257,
      "scr": 3258,
      "viv": 3259,
      "wed": 3260,
      "ids": 3261,
      "moder": 3262,
      "sugg": 3263,
      "islamophob": 3264,
      "suprema": 3265,
      "pls": 3266,
      "afraid": 3267,
      "perio": 3268,
      "izing": 3269,
      "heads": 3270,
      "aaa": 3271,
      "mista": 3272,
      "retarded": 3273,
      "screen": 3274,
      "including": 3275,
      "som": 3276,
      "intell": 3277,
      "represent": 3278,
      "ony": 3279,
      "lied": 3280,
      "upset": 3281,
      "loves": 3282,
      "girlfriend": 3283,
      "agre": 3284,
      "however": 3285,
      "blind": 3286,
      "scream": 3287,
      "watched": 3288,
      "logic": 3289,
      "mix": 3290,
      "privile": 3291,
      "66": 3292,
      "cand": 3293,
      "dare": 3294,
      "late": 3295,
      "pink": 3296,
      "rup": 3297,
      "tm": 3298,
      "tit": 3299,
      "repor": 3300,
      "allen": 3301,
      "bulling": 3302,
      "adul": 3303,
      "ability": 3304,
      "somebody": 3305,
      "boss": 3306,
      "minutes": 3307,
      "emot": 3308,
      "talked": 3309,
      "posting": 3310,
      "died": 3311,
      "negros": 3312,
      "insul": 3313,
      "acceptable": 3314,
      "soft": 3315,
      "blondes": 3316,
      "husband": 3317,
      "field": 3318,
      "gat": 3319,
      "hall": 3320,
      "mig": 3321,
      "ron": 3322,
      "sending": 3323,
      "vile": 3324,
      "ligh": 3325,
      "ket": 3326,
      "likely": 3327,
      "hindut": 3328,
      "standing": 3329,
      "yesyoure": 3330,
      "learned": 3331,
      "starting": 3332,
      "author": 3333,
      "waiting": 3334,
      "decided": 3335,
      "ridic": 3336,
      "extreme": 3337,
      "multiple": 3338,
      "agenda": 3339,
      "98": 3340,
      "bes": 3341,
      "bio": 3342,
      "hs": 3343,
      "ming": 3344,
      "piss": 3345,
      "swi": 3346,
      "ume": 3347,
      "iser": 3348,
      "rew": 3349,
      "lee": 3350,
      "nope": 3351,
      "ooz": 3352,
      "season": 3353,
      "kept": 3354,
      "aged": 3355,
      "pper": 3356,
      "christianity": 3357,
      "drunk": 3358,
      "propri": 3359,
      "grew": 3360,
      "simple": 3361,
      "comedy": 3362,
      "reply": 3363,
      "written": 3364,
      "minority": 3365,
      "possible": 3366,
      "yesyouresexist": 3367,
      "fant": 3368,
      "kit": 3369,
      "tbh": 3370,
      "tomor": 3371,
      "stal": 3372,
      "soci": 3373,
      "ford": 3374,
      "shout": 3375,
      "maga": 3376,
      "join": 3377,
      "unfortun": 3378,
      "sul": 3379,
      "brought": 3380,
      "older": 3381,
      "alive": 3382,
      "slur": 3383,
      "oooooooo": 3384,
      "treated": 3385,
      "claims": 3386,
      "announ": 3387,
      "urses": 3388,
      "karma": 3389,
      "water": 3390,
      "gradu": 3391,
      "civili": 3392,
      "ignore": 3393,
      "genocide": 3394,
      "security": 3395,
      "ae": 3396,
      "cross": 3397,
      "east": 3398,
      "moo": 3399,
      "nurses": 3400,
      "ror": 3401,
      "test": 3402,
      "anal": 3403,
      "iso": 3404,
      "iter": 3405,
      "iting": 3406,
      "ests": 3407,
      "lets": 3408,
      "comfort": 3409,
      "ilt": 3410,
      "project": 3411,
      "jaja": 3412,
      "broke": 3413,
      "barbar": 3414,
      "putting": 3415,
      "burn": 3416,
      "court": 3417,
      "yrs": 3418,
      "conservative": 3419,
      "bash": 3420,
      "dies": 3421,
      "hide": 3422,
      "ore": 3423,
      "pm": 3424,
      "wes": 3425,
      "toler": 3426,
      "usive": 3427,
      "stfu": 3428,
      "stri": 3429,
      "load": 3430,
      "ount": 3431,
      "iel": 3432,
      "porn": 3433,
      "prefer": 3434,
      "mentions": 3435,
      "......": 3436,
      "wrote": 3437,
      "doesnt": 3438,
      "syria": 3439,
      "strug": 3440,
      "sitting": 3441,
      "policy": 3442,
      "threats": 3443,
      "peaceful": 3444,
      "palestin": 3445,
      "zero": 3446,
      "period": 3447,
      "tomorrow": 3448,
      "bf": 3449,
      "vent": 3450,
      "wu": 3451,
      "yup": 3452,
      "orge": 3453,
      "hea": 3454,
      "gers": 3455,
      "trigger": 3456,
      "knowing": 3457,
      "disagree": 3458,
      "showing": 3459,
      "graph": 3460,
      "1285": 3461,
      "versity": 3462,
      "millions": 3463,
      "value": 3464,
      "mission": 3465,
      "longer": 3466,
      "?\"": 3467,
      "bow": 3468,
      "cil": 3469,
      "fed": 3470,
      "kaf": 3471,
      "attem": 3472,
      "tok": 3473,
      "shan": 3474,
      "fee": 3475,
      "ateg": 3476,
      "exp": 3477,
      "quot": 3478,
      "kills": 3479,
      "followed": 3480,
      "members": 3481,
      "complete": 3482,
      "hypocrisy": 3483,
      "protest": 3484,
      "street": 3485,
      "pissed": 3486,
      "dj": 3487,
      "pup": 3488,
      "tough": 3489,
      "xy": 3490,
      "zo": 3491,
      "ering": 3492,
      "toxic": 3493,
      "stories": 3494,
      "sem": 3495,
      "forward": 3496,
      "tray": 3497,
      "tood": 3498,
      "drama": 3499,
      "phob": 3500,
      "cares": 3501,
      "locked": 3502,
      "pics": 3503,
      "queen": 3504,
      "sikh": 3505,
      "linerz": 3506,
      "spreading": 3507,
      "official": 3508,
      "greenlinerz": 3509,
      "bieber": 3510,
      "misogyn": 3511,
      "message": 3512,
      "involved": 3513,
      "hindutva": 3514,
      "greenlinerzjm": 3515,
      "gross": 3516,
      "rd": 3517,
      "smo": 3518,
      "anime": 3519,
      "bell": 3520,
      "butt": 3521,
      "fellow": 3522,
      "frank": 3523,
      "indians": 3524,
      "context": 3525,
      "constru": 3526,
      "iet": 3527,
      "bless": 3528,
      "appropri": 3529,
      "mates": 3530,
      "inten": 3531,
      "sym": 3532,
      "aaaa": 3533,
      "rule": 3534,
      "ladies": 3535,
      "crimes": 3536,
      "a_man_": 3537,
      "riots": 3538,
      "in_black": 3539,
      "typical": 3540,
      "military": 3541,
      "citiz": 3542,
      "a_man_in_black": 3543,
      "26": 3544,
      "base": 3545,
      "camer": 3546,
      "lay": 3547,
      "ani": 3548,
      "ando": 3549,
      "select": 3550,
      "focus": 3551,
      "descr": 3552,
      "interesting": 3553,
      "hates": 3554,
      "position": 3555,
      "doubt": 3556,
      "organization": 3557,
      "hours": 3558,
      "conversation": 3559,
      "debate": 3560,
      "primary": 3561,
      "trouble": 3562,
      "21": 3563,
      "bin": 3564,
      "cist": 3565,
      "wk": 3566,
      "chance": 3567,
      "meet": 3568,
      "stree": 3569,
      "termin": 3570,
      "neither": 3571,
      "local": 3572,
      "fem": 3573,
      "useful": 3574,
      "sajid": 3575,
      "accor": 3576,
      "killer": 3577,
      "dying": 3578,
      "feelings": 3579,
      "isnt": 3580,
      "queer": 3581,
      "devil": 3582,
      "kkkkkkkk": 3583,
      "silent": 3584,
      "google": 3585,
      "further": 3586,
      "_fair": 3587,
      "lv": 3588,
      "named": 3589,
      "ping": 3590,
      "sli": 3591,
      "squ": 3592,
      "wall": 3593,
      "wol": 3594,
      "yal": 3595,
      "tha": 3596,
      "arian": 3597,
      "arrest": 3598,
      "shop": 3599,
      "lack": 3600,
      "roll": 3601,
      "babe": 3602,
      "episo": 3603,
      "design": 3604,
      "dire": 3605,
      "nerd": 3606,
      "mike": 3607,
      "babies": 3608,
      "brotherhood": 3609,
      "kashmiri": 3610,
      "pedophile": 3611,
      "thousands": 3612,
      "success": 3613,
      "sajid_fair": 3614,
      "sajid_fairooz": 3615,
      "47": 3616,
      "cis": 3617,
      "dig": 3618,
      "emo": 3619,
      "eating": 3620,
      "fill": 3621,
      "gree": 3622,
      "jz": 3623,
      "kiss": 3624,
      "sna": 3625,
      "third": 3626,
      "itor": 3627,
      "total": 3628,
      "challen": 3629,
      "user": 3630,
      "legal": 3631,
      "advoc": 3632,
      "covid": 3633,
      "loving": 3634,
      "devel": 3635,
      "tex": 3636,
      "saudi": 3637,
      "utm_": 3638,
      "discrimin": 3639,
      "cious": 3640,
      "drink": 3641,
      "ibly": 3642,
      "bigger": 3643,
      "negative": 3644,
      "religions": 3645,
      "fired": 3646,
      "homo": 3647,
      "ignorance": 3648,
      "gressive": 3649,
      "raping": 3650,
      "clean": 3651,
      "reminds": 3652,
      "brainwash": 3653,
      "bang": 3654,
      "catch": 3655,
      "egy": 3656,
      "kn": 3657,
      "pd": 3658,
      "eda": 3659,
      "bel": 3660,
      "alous": 3661,
      "stone": 3662,
      "ified": 3663,
      "tax": 3664,
      "event": 3665,
      "els": 3666,
      "jeff": 3667,
      "wont": 3668,
      "turkey": 3669,
      "hhh": 3670,
      "steal": 3671,
      "mileycyrus": 3672,
      "double": 3673,
      "responsible": 3674,
      "favorite": 3675,
      "argument": 3676,
      "pregnant": 3677,
      "vandal": 3678,
      "comfortable": 3679,
      "iy": 3680,
      "lou": 3681,
      "loud": 3682,
      "south": 3683,
      "atory": 3684,
      "bun": 3685,
      "ades": 3686,
      "uma": 3687,
      "cancer": 3688,
      "nao": 3689,
      "crow": 3690,
      "oles": 3691,
      "humor": 3692,
      "keeps": 3693,
      "fied": 3694,
      "breaking": 3695,
      "rude": 3696,
      "bila": 3697,
      "courage": 3698,
      "movement": 3699,
      "dangerous": 3700,
      "ridicul": 3701,
      "according": 3702,
      "develop": 3703,
      "01": 3704,
      "aust": 3705,
      "bay": 3706,
      "cous": 3707,
      "eh": 3708,
      "five": 3709,
      "lis": 3710,
      "pn": 3711,
      "sn": 3712,
      "sass": 3713,
      "sess": 3714,
      "van": 3715,
      "itself": 3716,
      "beating": 3717,
      "stream": 3718,
      "iced": 3719,
      "terday": 3720,
      "whose": 3721,
      "mob": 3722,
      "ived": 3723,
      "brand": 3724,
      "counts": 3725,
      "jealous": 3726,
      "appro": 3727,
      "yesterday": 3728,
      "worker": 3729,
      "version": 3730,
      "----": 3731,
      "balls": 3732,
      "1400": 3733,
      "leaders": 3734,
      "teams": 3735,
      "coward": 3736,
      "hypocrite": 3737,
      "sweet": 3738,
      "bjp": 3739,
      "whether": 3740,
      "situation": 3741,
      "avo": 3742,
      "bz": 3743,
      "cir": 3744,
      "pig": 3745,
      "tan": 3746,
      "touch": 3747,
      "ured": 3748,
      "thread": 3749,
      "reach": 3750,
      "research": 3751,
      "bud": 3752,
      "umman": 3753,
      "neigh": 3754,
      "dos": 3755,
      "united": 3756,
      "mov": 3757,
      "iled": 3758,
      "evidence": 3759,
      "amaz": 3760,
      "marry": 3761,
      "monkey": 3762,
      "lessly": 3763,
      "corona": 3764,
      "lots": 3765,
      "handle": 3766,
      "film": 3767,
      "apologize": 3768,
      "legit": 3769,
      "blonde": 3770,
      "british": 3771,
      "disrespectful": 3772,
      "secret": 3773,
      "adults": 3774,
      "lighumman": 3775,
      "bilalighumman": 3776,
      "\"?": 3777,
      "ctions": 3778,
      "kt": 3779,
      "tab": 3780,
      "ora": 3781,
      "lived": 3782,
      "amount": 3783,
      "shaming": 3784,
      "laws": 3785,
      "butts": 3786,
      "ief": 3787,
      "across": 3788,
      "aff": 3789,
      "appoint": 3790,
      "driving": 3791,
      "letting": 3792,
      "ibility": 3793,
      "matt": 3794,
      "defense": 3795,
      "worked": 3796,
      "beliefs": 3797,
      "ideology": 3798,
      "moral": 3799,
      "troll": 3800,
      "weeks": 3801,
      "openly": 3802,
      "decide": 3803,
      "comedian": 3804,
      "africa": 3805,
      "cooking": 3806,
      "87": 3807,
      "95": 3808,
      "aut": 3809,
      "ebooks": 3810,
      "gf": 3811,
      "jess": 3812,
      "pure": 3813,
      "sensitive": 3814,
      "uto": 3815,
      "inity": 3816,
      "isso": 3817,
      "chat": 3818,
      "becoming": 3819,
      "alle": 3820,
      "ica": 3821,
      "area": 3822,
      "necess": 3823,
      "doll": 3824,
      "ung": 3825,
      "limin": 3826,
      "catho": 3827,
      "contri": 3828,
      "wanting": 3829,
      "emplo": 3830,
      "confused": 3831,
      "soul": 3832,
      "figure": 3833,
      "catholic": 3834,
      "83": 3835,
      "ame": 3836,
      "fc": 3837,
      "kers": 3838,
      "mut": 3839,
      "tumb": 3840,
      "var": 3841,
      "built": 3842,
      "identi": 3843,
      "separ": 3844,
      "shoot": 3845,
      "note": 3846,
      "upon": 3847,
      "demon": 3848,
      "guts": 3849,
      "program": 3850,
      "scot": 3851,
      "logical": 3852,
      "kkk": 3853,
      "supporter": 3854,
      "picking": 3855,
      "pull": 3856,
      "ilia": 3857,
      "comedians": 3858,
      "cracker": 3859,
      "bigotry": 3860,
      "lgbtq": 3861,
      "animals": 3862,
      "shooting": 3863,
      "shirt": 3864,
      "tumblr": 3865,
      "27": 3866,
      "cracy": 3867,
      "ets": 3868,
      "flo": 3869,
      "four": 3870,
      "jj": 3871,
      "kim": 3872,
      "rum": 3873,
      "inform": 3874,
      "assh": 3875,
      "chi": 3876,
      "hali": 3877,
      "adult": 3878,
      "notice": 3879,
      "cogn": 3880,
      "caught": 3881,
      "yours": 3882,
      "fault": 3883,
      "affect": 3884,
      "funding": 3885,
      "apart": 3886,
      "jihadis": 3887,
      "train": 3888,
      "centur": 3889,
      "auto": 3890,
      "supports": 3891,
      "mascul": 3892,
      "daddy": 3893,
      "arabs": 3894,
      "growing": 3895,
      "johnny": 3896,
      "criminal": 3897,
      "large": 3898,
      "specific": 3899,
      "original": 3900,
      "restaurant": 3901,
      "movies": 3902,
      "elimin": 3903,
      "fought": 3904,
      "hm": 3905,
      "hob": 3906,
      "ibe": 3907,
      "jared": 3908,
      "vant": 3909,
      "wen": 3910,
      "ines": 3911,
      "mel": 3912,
      "budd": 3913,
      "bec": 3914,
      "raised": 3915,
      "peer": 3916,
      "former": 3917,
      "loc": 3918,
      "union": 3919,
      "compar": 3920,
      "tryna": 3921,
      "clar": 3922,
      "span": 3923,
      "spent": 3924,
      "pack": 3925,
      "creep": 3926,
      "master": 3927,
      "advice": 3928,
      "susp": 3929,
      "several": 3930,
      "unfortunately": 3931,
      "vandaliser": 3932,
      ".)": 3933,
      "gig": 3934,
      "nh": 3935,
      "nes": 3936,
      "sis": 3937,
      "info": 3938,
      "chu": 3939,
      "mexic": 3940,
      "cker": 3941,
      "amy": 3942,
      "ida": 3943,
      "sey": 3944,
      "cts": 3945,
      "posing": 3946,
      "indiv": 3947,
      "rose": 3948,
      "road": 3949,
      "quiet": 3950,
      "knowledge": 3951,
      "hadi": 3952,
      "everywhere": 3953,
      "spot": 3954,
      "basic": 3955,
      "tures": 3956,
      "politic": 3957,
      "walking": 3958,
      "skinny": 3959,
      "hearing": 3960,
      "listening": 3961,
      "definition": 3962,
      "values": 3963,
      "appear": 3964,
      "domin": 3965,
      "reported": 3966,
      "bomb": 3967,
      "believes": 3968,
      "republicans": 3969,
      "channel": 3970,
      "justify": 3971,
      "princi": 3972,
      "individ": 3973,
      "55": 3974,
      "93": 3975,
      "ect": 3976,
      "fly": 3977,
      "gga": 3978,
      "jon": 3979,
      "kne": 3980,
      "mg": 3981,
      "mot": 3982,
      "ners": 3983,
      "ray": 3984,
      "sf": 3985,
      "ute": 3986,
      "yer": 3987,
      "ita": 3988,
      "asy": 3989,
      "ander": 3990,
      "behead": 3991,
      "george": 3992,
      "mach": 3993,
      "joking": 3994,
      "deconstru": 3995,
      "whore": 3996,
      "acy": 3997,
      "ashamed": 3998,
      "........": 3999,
      "arent": 4000,
      "inside": 4001,
      "boyfriend": 4002,
      "eeee": 4003,
      "stuck": 4004,
      ";&#": 4005,
      "uuuu": 4006,
      "kicked": 4007,
      "woke": 4008,
      "mentioned": 4009,
      "data": 4010,
      "misogyny": 4011,
      "cruel": 4012,
      "science": 4013,
      "despite": 4014,
      "extremists": 4015,
      "))": 4016,
      "dance": 4017,
      "fing": 4018,
      "phe": 4019,
      "rant": 4020,
      "size": 4021,
      "andandre": 4022,
      "fucker": 4023,
      "weap": 4024,
      "jobs": 4025,
      "door": 4026,
      "ented": 4027,
      "unity": 4028,
      "within": 4029,
      "cape": 4030,
      "anyways": 4031,
      "ags": 4032,
      "somehow": 4033,
      "islamist": 4034,
      "willing": 4035,
      "utter": 4036,
      "ments": 4037,
      "accounts": 4038,
      "ideas": 4039,
      "plat": 4040,
      "haram": 4041,
      "matic": 4042,
      "players": 4043,
      "classic": 4044,
      "helped": 4045,
      "venge": 4046,
      "blocker": 4047,
      "picked": 4048,
      "brothers": 4049,
      "starts": 4050,
      "satan": 4051,
      "sarah": 4052,
      "atheist": 4053,
      "practice": 4054,
      "regardless": 4055,
      "suddenly": 4056,
      "appreciate": 4057,
      "fraud": 4058,
      "points": 4059,
      "kafir": 4060,
      "wolf": 4061,
      "!”": 4062,
      "&#": 4063,
      "34": 4064,
      "bis": 4065,
      "bird": 4066,
      "cof": 4067,
      "lab": 4068,
      "mf": 4069,
      "nie": 4070,
      "pit": 4071,
      "pes": 4072,
      "taste": 4073,
      "return": 4074,
      "recogn": 4075,
      "atl": 4076,
      "lemon": 4077,
      "aly": 4078,
      "among": 4079,
      "tie": 4080,
      "wea": 4081,
      "ural": 4082,
      "immedi": 4083,
      "assum": 4084,
      "indus": 4085,
      "illa": 4086,
      "illy": 4087,
      "exe": 4088,
      "evange": 4089,
      "otherwise": 4090,
      "aka": 4091,
      "plz": 4092,
      "bruh": 4093,
      "compare": 4094,
      "similar": 4095
    },
    "merges": [
      "t h",
      "i n",
      "a n",
      "e r",
      "o u",
      "i s",
      "th e",
      "r e",
      "o n",
      "l l",
      "a t",
      "in g",
      "i t",
      "o r",
      "e n",
      "e s",
      "t o",
      "e d",
      "a s",
      "c h",
      "y ou",
      "an d",
      "u s",
      "m e",
      "a r",
      "l i",
      "l e",
      "w h",
      "b u",
      "i g",
      "c k",
      "n o",
      "o o",
      "b e",
      "a l",
      "o f",
      "a y",
      "s t",
      "a m",
      "i d",
      "a ll",
      "r a",
      "s e",
      "p e",
      ". .",
      "o m",
      "h a",
      "v e",
      "k e",
      "i r",
      "th at",
      "i c",
      "h e",
      "f u",
      "s o",
      "a re",
      "bu ll",
      "is t",
      "h t",
      "f or",
      "a d",
      "u m",
      "o t",
      "oo l",
      "o w",
      "s ch",
      "l y",
      "v er",
      "a b",
      "sch ool",
      "t er",
      "l d",
      "w i",
      "ou t",
      "o p",
      "t i",
      "fu ck",
      "s h",
      "g e",
      "no t",
      "w e",
      "l a",
      "m a",
      "m y",
      "c o",
      "on e",
      "n e",
      "u p",
      "w as",
      "c e",
      "j o",
      "d o",
      "en t",
      "u r",
      "n ig",
      "l o",
      "d e",
      "g er",
      "bu t",
      "th is",
      "t r",
      "th er",
      "f e",
      "u n",
      "the y",
      "us t",
      "bull i",
      "wh o",
      "ir l",
      "li ke",
      "g irl",
      "m o",
      "p r",
      "i on",
      "wi th",
      "um b",
      "nig ger",
      "f r",
      "i f",
      "ig h",
      "i m",
      "d umb",
      "no w",
      "as s",
      "h igh",
      "m us",
      "li m",
      "g o",
      "c t",
      "bull y",
      "mus lim",
      "c a",
      "ab out",
      "c an",
      "ha ve",
      "d on",
      "p o",
      "at e",
      "j ust",
      "t e",
      "pe op",
      "ou ld",
      "peop le",
      "you r",
      "in d",
      "k es",
      "bulli ed",
      "g ay",
      "t p",
      "i ll",
      "/ /",
      "ht tp",
      "r t",
      "th ing",
      "us e",
      ": //",
      "ra pe",
      "s a",
      "er e",
      "an y",
      "c om",
      "ge t",
      "all y",
      "an t",
      ".. .",
      "! !",
      "a g",
      "c all",
      "i an",
      "wh at",
      "ig ht",
      "en d",
      "w or",
      "c on",
      "o b",
      "so me",
      "b y",
      "er s",
      "i ot",
      "s u",
      "t a",
      "b la",
      "am p",
      "id iot",
      "s he",
      "e ver",
      "jo kes",
      "f a",
      "it e",
      "w om",
      "k ing",
      "wh en",
      "ou n",
      "bla ck",
      "re s",
      "l am",
      "i l",
      "s ay",
      "is m",
      "e x",
      "h er",
      "b it",
      "n a",
      "b o",
      "the m",
      "y e",
      "ter r",
      "ca use",
      "es s",
      "it y",
      "is lam",
      "r o",
      "h ow",
      "p p",
      "i e",
      "fr om",
      "q u",
      "p or",
      "k r",
      "terr or",
      "in k",
      "girl s",
      "k now",
      "t s",
      "h o",
      "ch r",
      "be ing",
      "w ay",
      "at ion",
      "ar d",
      "t y",
      "ha d",
      "m kr",
      "bit ch",
      "u l",
      "es t",
      "i a",
      "ra c",
      "e v",
      "be cause",
      "oo k",
      "muslim s",
      "g u",
      "a in",
      "e l",
      "g h",
      "wi ll",
      "chr ist",
      "m an",
      "d id",
      "w ould",
      "c r",
      "ever y",
      "r ight",
      "f o",
      "s up",
      "th ink",
      "u t",
      "wh ite",
      "the ir",
      "ti on",
      "wh y",
      "christ ian",
      "o ther",
      "m ent",
      "as t",
      "ther e",
      "ar t",
      "a c",
      "d ay",
      "i ve",
      "se e",
      "g ot",
      "se x",
      "g r",
      "id e",
      "ou r",
      "re d",
      "oo d",
      "b a",
      "m in",
      "h as",
      "t ing",
      "ou s",
      "t w",
      "i ck",
      "jo ke",
      "d er",
      "d is",
      "ow n",
      "i es",
      "h is",
      "a k",
      "w ant",
      "w ere",
      "tr y",
      "sh it",
      "of f",
      "m ad",
      "por t",
      "i v",
      "wom en",
      "am a",
      "mo re",
      "p l",
      "se l",
      "ic al",
      "th an",
      "an s",
      "b l",
      "the n",
      "c l",
      "b r",
      "on ly",
      "ag ain",
      "a ct",
      "to o",
      "on g",
      "a f",
      "ti me",
      "e t",
      "ist s",
      "ma ke",
      "do es",
      "fuck ing",
      "in e",
      "bulli es",
      "ev en",
      "h im",
      "p re",
      "m en",
      "a h",
      "fu n",
      "? ?",
      "s to",
      "n y",
      "oun d",
      "sh ould",
      "fr i",
      "g a",
      "t al",
      "ne ver",
      "g ht",
      "wom an",
      "ra d",
      "l it",
      "call ed",
      "the se",
      "fri end",
      "b er",
      "ou gh",
      "is h",
      "ic e",
      "idiot s",
      "k ill",
      "l ook",
      "re ally",
      "ye ar",
      "th o",
      "ne ed",
      "i le",
      "e p",
      "h ate",
      "f ir",
      "u d",
      "st ill",
      "s p",
      "ne w",
      "sel f",
      "c oun",
      "y s",
      "o ver",
      "a ch",
      "2 0",
      "ba ck",
      "n g",
      "m u",
      "it s",
      "re e",
      "be en",
      "p er",
      "k id",
      "sex ist",
      "c i",
      "nigger s",
      "fir st",
      "g ood",
      "sup port",
      "r y",
      "re ad",
      "bully ing",
      "islam ic",
      "o l",
      "h ind",
      "at ed",
      "sa id",
      "ob ama",
      "e m",
      "h um",
      "http s",
      "p le",
      "pr o",
      "r i",
      "ma le",
      "t we",
      "v es",
      "lo ve",
      "j e",
      "a p",
      "as h",
      "te ll",
      "sto p",
      "am er",
      "al so",
      "k s",
      "sa me",
      "i ous",
      "any thing",
      "terror ism",
      "you ng",
      "mo st",
      "f er",
      ".. ..",
      "p res",
      "en ce",
      "p ers",
      "b ad",
      "lo l",
      "tw it",
      "fe min",
      "wh ere",
      "w r",
      "ti m",
      "l t",
      "ha ha",
      "u e",
      "rad ical",
      "again st",
      "i z",
      "at ch",
      "d r",
      "m ar",
      "um p",
      "me an",
      "d a",
      "st and",
      "tho se",
      "d y",
      "d es",
      "s er",
      "u re",
      "h ar",
      "ha pp",
      "le t",
      "re at",
      "w a",
      "o k",
      "did n",
      "rac ist",
      "s s",
      "twit ter",
      "s pe",
      "are n",
      "v ing",
      "s c",
      "pers on",
      "hum an",
      "li g",
      "y es",
      "i ch",
      "u g",
      "j i",
      "way s",
      "o h",
      "wor d",
      "li fe",
      "go ing",
      "i b",
      "as e",
      "h ere",
      "p a",
      "mad e",
      "u b",
      "t ay",
      "th r",
      "re al",
      "fu l",
      "li e",
      "m id",
      "some one",
      "0 0",
      "fe el",
      "in to",
      "m on",
      "pr ob",
      "m at",
      "re lig",
      "us ed",
      "l ess",
      "wor ld",
      "i p",
      "does n",
      "i ld",
      "k at",
      "fun ny",
      "d le",
      "m ed",
      "ll ow",
      "rac ism",
      "mu ch",
      "b ig",
      "co me",
      "young _",
      "tay young_",
      "mid dle",
      "sh ow",
      "go d",
      "ar y",
      "p ast",
      "fe male",
      "m any",
      "we ll",
      "in t",
      "ig n",
      "ab le",
      "re n",
      "m s",
      "ji had",
      "p h",
      "s y",
      "tr ump",
      "be t",
      "year s",
      "p ar",
      "en s",
      "al ways",
      "c y",
      "is is",
      "na me",
      "or y",
      "w atch",
      "c ould",
      "s m",
      "p t",
      "m is",
      "fo re",
      "un der",
      "de f",
      "af ter",
      "ver y",
      "pl ay",
      "lo g",
      "amer ic",
      "“ @",
      "d u",
      "j a",
      "say ing",
      "d own",
      "at ing",
      "u ally",
      "wor k",
      "terror ist",
      "wh ich",
      "w on",
      "friend s",
      "an g",
      "st up",
      "ta ke",
      "ne g",
      "com m",
      "k k",
      "p la",
      "stup id",
      "b ro",
      "o ld",
      "fo llow",
      "me m",
      "v i",
      "c ra",
      "t ur",
      "ou ght",
      "b s",
      "w w",
      "a z",
      "ch ild",
      "f t",
      "tal k",
      "l u",
      "!! !",
      "w ar",
      "a li",
      "as k",
      "le ar",
      "every one",
      "t ra",
      "ma king",
      "f f",
      "s ha",
      "kid s",
      "fa ce",
      "st art",
      "he ad",
      "dis g",
      "is n",
      "c or",
      "b ar",
      "m ay",
      "pe ct",
      "terror ists",
      "be lie",
      "po st",
      "ch e",
      "ur an",
      "l es",
      "w s",
      "thing s",
      "pre t",
      "l ot",
      "v o",
      "get ting",
      "relig ion",
      "cl ass",
      "st r",
      "bet ter",
      "d i",
      "s or",
      "u al",
      "li c",
      "gu y",
      "ma kes",
      "a ge",
      "disg ust",
      "neg ro",
      "s ed",
      "in s",
      "ul t",
      "q uran",
      "as on",
      "m al",
      "ot e",
      "some thing",
      "s ing",
      "t le",
      "a w",
      "g ive",
      "no thing",
      "k ind",
      "ke ep",
      "c are",
      "in st",
      "l p",
      "b c",
      "b ook",
      "i ly",
      "disgust ing",
      "do ing",
      "be fore",
      "coun try",
      "pr op",
      "s k",
      "human ity",
      "bo y",
      "d if",
      "christian s",
      "v ic",
      "ist an",
      "lo ck",
      "ou p",
      "p ut",
      "n ing",
      "g en",
      "c u",
      "v ed",
      "a a",
      "in ter",
      "op h",
      "f ind",
      "is e",
      "f ight",
      "s it",
      "fa ct",
      "id ent",
      "wr ong",
      "m ind",
      "pp l",
      "s in",
      "f ree",
      "p ic",
      "te ach",
      "g on",
      "ind ia",
      "g ra",
      "he lp",
      "!! !!",
      "mem ber",
      "don t",
      "qu e",
      "gr oup",
      "prob le",
      "belie ve",
      "g l",
      "u c",
      "c ent",
      "n ed",
      "ide o",
      "x t",
      "an ce",
      "try ing",
      "gu ys",
      "an ti",
      "bo dy",
      "thr ough",
      "u gh",
      "1 9",
      "s la",
      "p ed",
      "t en",
      "or s",
      "m or",
      "su re",
      "i o",
      "to day",
      "c er",
      "c ar",
      "c re",
      "po int",
      "an ge",
      "call ing",
      "co l",
      "happ en",
      "v en",
      "at ta",
      "he ll",
      "any one",
      "ye ah",
      "m om",
      "al s",
      "tal king",
      "f i",
      "b re",
      "wh ile",
      "1 0",
      "th ought",
      "twe et",
      "g y",
      "p ak",
      "h i",
      "y a",
      "tim es",
      "a ce",
      "h am",
      "n er",
      "an other",
      "act ually",
      "l ma",
      "tion s",
      "1 5",
      "m ur",
      "dif fer",
      "d am",
      "t on",
      "t ed",
      "y o",
      "ple ase",
      "p art",
      "co lo",
      "comm un",
      "1 2",
      "ll e",
      "lit tle",
      "ll y",
      "atta ck",
      "p ub",
      "colo red",
      "s on",
      "re member",
      "a pp",
      "to ld",
      "pret ty",
      "s en",
      "on es",
      "b an",
      "res s",
      "s l",
      "v ie",
      "new s",
      "g re",
      "c es",
      "us ing",
      "su ch",
      "l ist",
      "g t",
      "ho pe",
      "az i",
      "a u",
      "say s",
      "h om",
      "ug ly",
      "g g",
      "v ideo",
      "b as",
      "d one",
      "femin azi",
      "c ur",
      "we ar",
      "re ason",
      "bitch es",
      "a th",
      "h ard",
      "n on",
      "g iv",
      "w ent",
      "ver s",
      "ci al",
      "oo oo",
      "l ine",
      "n i",
      "y ing",
      ": )",
      "f am",
      "ar ound",
      "f at",
      "f ar",
      "lit er",
      "h at",
      "p op",
      "nig ga",
      "pr is",
      "b le",
      "f re",
      "sor ry",
      "tr o",
      "l ong",
      "t u",
      "tw o",
      "mat ter",
      "under stand",
      "gon na",
      "st at",
      "tr u",
      "c lo",
      "r us",
      "le ft",
      "ul ar",
      "m ust",
      "sh ut",
      "pak istan",
      "sin ce",
      "ha ving",
      "b ra",
      "res pect",
      "mur der",
      "we e",
      "d d",
      "c la",
      "u ght",
      "b est",
      "ib le",
      "d an",
      "ic s",
      "ir d",
      "re st",
      "n or",
      "f in",
      "an na",
      "hind us",
      "i ma",
      "read y",
      "e le",
      "ic ally",
      "ce pt",
      "hind u",
      "ho me",
      "l ast",
      "z y",
      "tr ans",
      "la w",
      "po li",
      "ch o",
      "qu es",
      "ation s",
      "twe e",
      "l at",
      "1 1",
      "h and",
      "liter ally",
      "m er",
      "ian s",
      "ch ar",
      "who le",
      "h y",
      "w ish",
      "in v",
      "g reat",
      "l oo",
      "t re",
      "et c",
      "e e",
      "s ur",
      "po lit",
      "m i",
      "li ve",
      "- -",
      "am es",
      "school s",
      "w ard",
      "vic tim",
      "tr i",
      "right s",
      "oph ob",
      "l ed",
      "i me",
      "in c",
      "r u",
      "g an",
      "ca me",
      "h h",
      "p on",
      "t f",
      "re g",
      "th ough",
      "proble m",
      "lma o",
      "b all",
      "bo ys",
      "1 4",
      "com ment",
      "ou se",
      "la ugh",
      "one y",
      "k ed",
      "it ch",
      "sh o",
      "us h",
      "dam n",
      "ti ve",
      "ign or",
      "w al",
      "ti l",
      "co lle",
      "kill ed",
      "ra ce",
      "was n",
      "_ _",
      "com p",
      "and re",
      "ion s",
      "o s",
      "be at",
      "nig ht",
      "fe w",
      "r un",
      "z e",
      "ter s",
      "op en",
      "i al",
      "en ti",
      "st u",
      "k a",
      "con t",
      "ow er",
      "el se",
      "ser ious",
      "child ren",
      "mal es",
      "bu r",
      "your self",
      "h al",
      "sup por",
      "s im",
      "every thing",
      "b lock",
      "in a",
      "st ate",
      "ok ay",
      "look s",
      "k en",
      "ab ly",
      "vi ol",
      "b i",
      "d ing",
      "h or",
      "n ation",
      "it ies",
      "en ough",
      "h ouse",
      "b or",
      "are d",
      "bo th",
      "b ab",
      "pris on",
      "li ves",
      "s ound",
      "gay s",
      "spe ak",
      "c us",
      "h on",
      "j or",
      "m oney",
      "s i",
      "w anna",
      "is ra",
      "ye t",
      "b t",
      "m as",
      "p ick",
      "s ad",
      "u h",
      "se t",
      "se en",
      "he y",
      "s ide",
      "ne xt",
      "sk in",
      "differ ent",
      "in su",
      "re am",
      "ing s",
      "a way",
      "k h",
      "end ing",
      "gu ess",
      "d s",
      "e ar",
      "i th",
      "p un",
      "ha ir",
      "all ow",
      "do g",
      "wa it",
      "cla im",
      "ch ange",
      "pres s",
      "? !",
      "res pon",
      "h ist",
      "o c",
      "oo t",
      "sel ves",
      "americ an",
      "n ess",
      "at s",
      "ve l",
      "p u",
      "d ar",
      "i ther",
      "at ive",
      "c ou",
      "he ar",
      "a go",
      "d ate",
      "e qu",
      "du de",
      "poli ce",
      "g al",
      "ile y",
      "p s",
      "tr ue",
      "commun ity",
      "w er",
      "un i",
      "un t",
      "other s",
      "ent s",
      "ag ree",
      "har ass",
      "pla ce",
      "1 3",
      "c ed",
      "may be",
      "l and",
      "ke y",
      "de c",
      "ed uc",
      "was h",
      "un til",
      "end ed",
      "a po",
      "r am",
      "is su",
      "al ready",
      "sa w",
      "d ad",
      "n ice",
      "le ad",
      "i li",
      "l er",
      "l ad",
      "st ud",
      "k er",
      "bs d",
      "an e",
      "oo m",
      "pub lic",
      "b us",
      "p ower",
      "with out",
      "fam ily",
      "t ar",
      "on ce",
      "com ing",
      "n n",
      "le a",
      "m r",
      "p aren",
      "te am",
      "c lear",
      "so cial",
      "day s",
      "bro ther",
      "c ool",
      "c ult",
      "th reat",
      "prob ably",
      ". \"",
      "d ick",
      "st e",
      "f ound",
      "m ir",
      "americ a",
      "fe males",
      "ck s",
      "al ity",
      "happ y",
      "; &",
      "st ar",
      "sh ip",
      "pres ident",
      "kill ing",
      "st ra",
      "pe ace",
      "ct ed",
      "?? ?",
      "twee ts",
      "\" .",
      "p ay",
      "it ion",
      "pr om",
      "gra de",
      "v a",
      "an n",
      "li ber",
      "ab use",
      "watch ing",
      "re l",
      "pla in",
      "me ans",
      "m m",
      "m iley",
      "sup er",
      "med ia",
      "li ght",
      "st ory",
      "get s",
      "word s",
      "in king",
      "con s",
      "would n",
      "tr ies",
      "sex ual",
      "we ird",
      "m ill",
      "de ath",
      "h ur",
      "ar ab",
      "je ws",
      "hom ophob",
      "de m",
      "de mo",
      "list en",
      "n ch",
      "gen er",
      "ww w",
      "start ed",
      "loo king",
      "stu ff",
      "p ass",
      "d ra",
      "l in",
      "l ow",
      "m ight",
      "r ul",
      "s ick",
      "cy rus",
      "p at",
      "st ay",
      "wee k",
      "h it",
      "se c",
      "mo ther",
      "bla me",
      "cr im",
      "g ress",
      "ta in",
      "v id",
      "he t",
      "def in",
      "x x",
      "for m",
      "d en",
      "d ie",
      "j ud",
      "them selves",
      "coun t",
      "c op",
      "w ow",
      "ra p",
      "f il",
      "v al",
      "ou d",
      "apo log",
      "c le",
      "than k",
      "than ks",
      "ga me",
      "ignor ant",
      "fr on",
      "tur n",
      "free bsd",
      "j es",
      "fu ll",
      "mis s",
      "k o",
      "fuck s",
      "is s",
      "gr ow",
      "par ty",
      "con f",
      "ac cept",
      "1 00",
      "g ed",
      "z z",
      "l on",
      "r id",
      "g as",
      "h n",
      "de l",
      "v ir",
      "de ad",
      "ur ing",
      "fa ke",
      "fa ir",
      "sha me",
      "1 7",
      "e ach",
      "mo ve",
      "ex act",
      "happen ed",
      "c amp",
      "m it",
      "r and",
      "om g",
      "hist ory",
      "h ot",
      "ur s",
      "a fr",
      "e ither",
      "w in",
      "en e",
      "ad d",
      "ide a",
      "l or",
      "t ure",
      "ex per",
      "ro ss",
      "want ed",
      "k ash",
      ".. ...",
      "my self",
      "20 15",
      "re ct",
      "jo b",
      "c as",
      "s w",
      "go es",
      "pe t",
      "po sit",
      "p al",
      "ma jor",
      "tru th",
      "c tion",
      "g amer",
      "s of",
      "com ed",
      "con d",
      "relig ious",
      "com ple",
      "need s",
      "jes us",
      "it es",
      "de v",
      "iz e",
      "m il",
      "fe ct",
      "te ly",
      "see ing",
      "e as",
      "t or",
      "ck ed",
      "stra ight",
      "c ess",
      "des er",
      "n t",
      "ma x",
      "ant s",
      "call s",
      "hon est",
      "afr ic",
      "re p",
      "kash mir",
      "c al",
      "so lu",
      "com es",
      "ex tre",
      "t v",
      "it ed",
      "paren ts",
      "f an",
      "be come",
      "ly ing",
      "de al",
      "ele ment",
      "insu lt",
      "c ut",
      "d ou",
      "l g",
      "r ob",
      "y r",
      "ar s",
      "pr of",
      "inst e",
      "a _",
      "p ra",
      "u u",
      "th inking",
      "ne t",
      "ind ian",
      "lea ve",
      "cult ure",
      "c unt",
      "w n",
      "on s",
      "all ah",
      "he ard",
      "f y",
      "at es",
      "mo ham",
      "can t",
      "won der",
      "le ast",
      "mon th",
      "ima g",
      "fron t",
      "a king",
      "d uring",
      "k ar",
      "li es",
      "be twe",
      "pr iv",
      "te m",
      "ev il",
      "sen se",
      "serious ly",
      "le g",
      "cu z",
      "p ie",
      "su b",
      "cont in",
      "betwe en",
      "n d",
      "co ver",
      "coun tries",
      "sm h",
      "rul es",
      "l an",
      "sh ar",
      "pp ed",
      "chr is",
      "pop ular",
      "freebsd girl",
      "wor st",
      "1 8",
      "es e",
      "ge ther",
      "ex ist",
      "wr it",
      "ser v",
      "homophob ic",
      "m c",
      "v ote",
      "an k",
      "re t",
      "por ts",
      "want s",
      "hy po",
      "\" @",
      "j u",
      "for t",
      "jo hn",
      "exper i",
      "g ate",
      "s al",
      "inste ad",
      "1 6",
      "h u",
      "h ood",
      "l m",
      "ard s",
      "rac y",
      "tell ing",
      "element ary",
      "3 3",
      "b ill",
      "g n",
      "v ia",
      "c ow",
      "th y",
      "ho ld",
      "ga ve",
      "femin ism",
      "lear n",
      "colle ge",
      "k itch",
      "u es",
      "es h",
      "id er",
      "po or",
      "enti re",
      "bab y",
      "k new",
      "z ing",
      "is ed",
      "or gan",
      "v ious",
      ") .",
      "h un",
      "s un",
      "ar ch",
      "hal f",
      "hypo cr",
      "i i",
      "t t",
      "y all",
      "s pre",
      "u k",
      "ou th",
      "to m",
      "le y",
      "ck ing",
      "po sed",
      "ques tion",
      "tri ed",
      "kitch en",
      "li ving",
      "ate ly",
      "bl ood",
      "j us",
      "w ad",
      "re f",
      "pr ot",
      "femin ist",
      "da ught",
      "3 0",
      "be li",
      "bre ak",
      "c ook",
      "k ick",
      "in no",
      "that s",
      "op in",
      "min or",
      "face book",
      "w tf",
      "at t",
      "ne y",
      "ac count",
      "kk kk",
      "stat us",
      "r ia",
      "to gether",
      "so on",
      "ta king",
      "he art",
      "ist er",
      "pr ote",
      "br ing",
      "cra zy",
      "isra el",
      "b al",
      "c at",
      "g un",
      "re mind",
      "wh ate",
      "mus ic",
      "sa fe",
      "fa v",
      "ap pe",
      "exact ly",
      "se cond",
      "ex c",
      "prop het",
      "b and",
      "f oot",
      "be hind",
      "think s",
      "spre ad",
      "w o",
      "w at",
      "ll ing",
      "ch ang",
      "lo st",
      "t ly",
      "ma in",
      "fo l",
      "ci ally",
      "whate ver",
      "a le",
      "f l",
      "go ver",
      "ex pect",
      "sing le",
      "harass ment",
      "demo cr",
      "moham med",
      ": (",
      "m t",
      "p us",
      "re ali",
      "ex amp",
      "ho e",
      "lat er",
      "viol ence",
      "g ar",
      "g le",
      "bu nch",
      "nig gas",
      "crim in",
      ". @",
      "5 0",
      "us es",
      "tr ash",
      "te en",
      "gr y",
      "c ing",
      "f ool",
      "s at",
      "te ch",
      "sp i",
      "gamer gate",
      "8 0",
      "b ed",
      "l ing",
      "y y",
      "ð ð",
      "can not",
      "ty pe",
      "off ic",
      "je ct",
      "k y",
      "s il",
      "v ot",
      "he al",
      "fe ar",
      "su ic",
      "pres ent",
      "teach er",
      "fre ed",
      "ward s",
      "c tive",
      "d om",
      "p an",
      "r ound",
      "re port",
      "ch ur",
      "you tu",
      "am ed",
      "ad e",
      "should n",
      "cra ck",
      ". ”",
      "f al",
      "s ent",
      "end er",
      "haha ha",
      "vie w",
      "an no",
      "ass a",
      "des tro",
      "play ing",
      "i or",
      "in cl",
      "ch ina",
      "pr ay",
      "wor king",
      "con st",
      "thr ow",
      "giv ing",
      "inno cent",
      "f s",
      "men tion",
      "group s",
      "b en",
      "m ist",
      "s le",
      "th al",
      "ab solu",
      "know s",
      "ask ed",
      "col or",
      "wear ing",
      "bra in",
      "9 0",
      "b ot",
      "s ign",
      "t reat",
      "y ard",
      "ite ly",
      "vo ice",
      "polit ical",
      "7 7",
      "r an",
      "to p",
      "fu lly",
      "for get",
      "fuck in",
      "fa il",
      "ment al",
      "g es",
      "k i",
      "s ports",
      "re fer",
      "ab or",
      "po se",
      "su ck",
      "see ms",
      "too k",
      "victim s",
      "wad h",
      "c ase",
      "f ic",
      "i ed",
      "the s",
      "to t",
      "co on",
      "il ity",
      "sp ace",
      "hur t",
      "li l",
      "al most",
      "ter m",
      "big ot",
      "ens ive",
      "hat red",
      "p ho",
      "r iot",
      "z a",
      "al d",
      "ob vious",
      "bl on",
      "ri ed",
      "freed om",
      "chur ch",
      "f it",
      "be y",
      "ra ge",
      "for ce",
      "cr it",
      "cons ider",
      "wadh wa",
      "4 0",
      "b oo",
      "n umb",
      "and a",
      "be ha",
      "wor se",
      "ac c",
      "sm all",
      "defin itely",
      "imag ine",
      "g est",
      "m es",
      "x ic",
      "in ess",
      "lg bt",
      "gover n",
      "e f",
      "f ood",
      "l s",
      "st ep",
      "ha ven",
      "show s",
      "allow ed",
      "b h",
      "f ag",
      "g ang",
      "mo vie",
      "could n",
      "g one",
      "i ra",
      "n at",
      "v is",
      "en thal",
      "um enthal",
      "bl umenthal",
      "char ac",
      "e th",
      "i am",
      "v in",
      "es pe",
      "al one",
      "ab t",
      "book s",
      "c li",
      "on line",
      "st em",
      "ra ther",
      "cl ub",
      "ri ch",
      "les b",
      "tar get",
      "2 4",
      "g ing",
      "g rad",
      "n al",
      "ll ed",
      "no body",
      "bull shit",
      "ma g",
      "cr y",
      "dr op",
      "giv en",
      "pus sy",
      "b ag",
      "e li",
      "f la",
      "l ar",
      "n as",
      "act ing",
      "americ ans",
      "major ity",
      "suic ide",
      "b id",
      "en se",
      "sh ot",
      "not sexist",
      "end s",
      "fa ther",
      "il ar",
      "d at",
      "t all",
      "ie ty",
      "ud es",
      "honest ly",
      "b b",
      "p ush",
      "im port",
      "te xt",
      "clear ly",
      "c our",
      "d iv",
      "ch ick",
      "so c",
      "sh or",
      "sy stem",
      "fight ing",
      "gre en",
      "j r",
      "p ot",
      "r ow",
      "s ar",
      "ca p",
      "some times",
      "black s",
      "est ing",
      "br own",
      "sla very",
      "comment s",
      "b om",
      "o gy",
      "r is",
      "r oom",
      "s am",
      "in ed",
      "as king",
      "ra ped",
      "con gress",
      "pl an",
      "20 20",
      "pro du",
      "che ck",
      "ten tion",
      "daught er",
      "examp le",
      "9 9",
      "e y",
      "f ine",
      "en ter",
      "li ked",
      "ant ly",
      "suppor ting",
      "nation al",
      "press ion",
      "issu e",
      "govern ment",
      "espe cially",
      "c iv",
      "d ream",
      "w ing",
      "in _",
      "ch oo",
      "jo y",
      "don ald",
      "teach ers",
      "cho ice",
      "lm fa",
      "* *",
      "e ch",
      "r r",
      "v s",
      "z ed",
      "it u",
      "un ch",
      "art ic",
      "ton ight",
      "bor n",
      "issu es",
      "tot ally",
      "beha vi",
      "8 5",
      "p i",
      "re pub",
      "at ic",
      "oo f",
      "st er",
      "con tr",
      "?? ??",
      "har m",
      "a the",
      "c ul",
      "n ick",
      "pie ce",
      "d c",
      "g ender",
      "n ames",
      "s um",
      "pr oud",
      "sa ve",
      "min e",
      "str ong",
      "educ ation",
      "pho to",
      "e at",
      "f all",
      "j our",
      "m ich",
      "w it",
      "on d",
      "bl m",
      "differ ence",
      "opin ion",
      "cour se",
      "b ie",
      "f ans",
      "o me",
      "p y",
      "z i",
      "le ct",
      "ma il",
      "read ing",
      "femin ists",
      "ped oph",
      "dar k",
      "fol ks",
      "6 0",
      "m _",
      "o g",
      "ig no",
      "ti v",
      "fact s",
      "hor ri",
      "max blumenthal",
      "beli ev",
      "a ir",
      "d ers",
      "r om",
      "in f",
      "ad v",
      "mkr 2015",
      "see m",
      "gr ound",
      "spe c",
      "big gest",
      "bar r",
      "cu te",
      "a v",
      "a ur",
      "k u",
      "to wards",
      "oo o",
      "be au",
      "ra in",
      "mo s",
      "su f",
      "ans wer",
      "p ur",
      "p ain",
      "at tention",
      "fuck ed",
      "if ic",
      "any more",
      "br it",
      "pun ch",
      "e yes",
      "k ay",
      "p lo",
      "s us",
      "in n",
      "me t",
      "got ta",
      "tur ned",
      ", ,",
      "f b",
      "i _",
      "en ces",
      "be came",
      "ex plain",
      "ty p",
      "off ensive",
      "20 0",
      "mis ogy",
      "rand om",
      "ret ard",
      "organ iz",
      "foot ball",
      "ll s",
      "you re",
      "li can",
      "pp ing",
      "experi ence",
      "anno ying",
      "s ir",
      "s end",
      "or ies",
      "out side",
      "po ss",
      "ill e",
      "gr and",
      "def end",
      "inc ident",
      "afric an",
      "assa ult",
      "j m",
      "ar my",
      "id k",
      "id ed",
      "ist ic",
      "cer tain",
      "heal th",
      "d ir",
      "g ames",
      "n ic",
      "v ol",
      "an gry",
      "le vel",
      "con serv",
      "ama zing",
      "bas ically",
      "pal est",
      "h us",
      "z er",
      "gu e",
      "him self",
      "haha haha",
      "happ ens",
      "deser ve",
      "destro y",
      "repub lican",
      "a i",
      "th or",
      "id es",
      "ti es",
      "ion al",
      "her o",
      "clo se",
      "clo thes",
      "fal se",
      "b at",
      "” .",
      "am ing",
      "ta kes",
      "cr u",
      "cr ime",
      "iz ed",
      "spe ech",
      "log y",
      "sho le",
      "lad y",
      "; )",
      "i k",
      "s ong",
      "or der",
      "wi fe",
      "ur o",
      "con cer",
      "dis respect",
      "ish ed",
      "ud i",
      "cra ft",
      "prote ct",
      "as shole",
      "my kitchen",
      "nig er",
      "go v",
      "ja ck",
      "sound s",
      "respon s",
      "spi racy",
      "choo se",
      "b out",
      "d ist",
      "h our",
      "ch an",
      "le br",
      "ter n",
      "ho ly",
      "sup posed",
      "lu ck",
      "prop ag",
      "mykitchen rules",
      "2 3",
      "g in",
      "h ated",
      "m ass",
      "n ar",
      "s we",
      "s po",
      "en gl",
      "li p",
      "ir on",
      "ti red",
      "attack ed",
      "numb er",
      "horri ble",
      "d ue",
      "h es",
      "m ul",
      "m outh",
      "an ger",
      "an im",
      "wh ites",
      "ic t",
      "un less",
      "wor ks",
      "sc ared",
      "follow ing",
      "liber al",
      "month s",
      "youtu be",
      "sle ep",
      "2 9",
      "s our",
      "s ister",
      "ch in",
      "st re",
      "tr ust",
      "fr an",
      "look ed",
      "ph one",
      "fi re",
      "b j",
      "b ir",
      "s ou",
      "t ic",
      "st y",
      "de p",
      "know n",
      "c oo",
      "p and",
      "or ig",
      "we l",
      "just ice",
      "ta li",
      "je wish",
      "follow ers",
      "aw ful",
      "bas ed",
      "bus iness",
      "jus ti",
      "mes sa",
      "c ot",
      "f ig",
      "s co",
      "re qu",
      "re ci",
      "un k",
      "ag ram",
      "ex cept",
      "ac tion",
      "cor rect",
      "sla ve",
      "reg ime",
      "laugh ing",
      "pra ct",
      "c reat",
      "m p",
      "n u",
      "to wn",
      "us a",
      "fa ith",
      "cy ber",
      "proble ms",
      "import ant",
      "p en",
      "as ed",
      "con vers",
      "pl us",
      "most ly",
      "feel ing",
      "mil it",
      "g s",
      "s an",
      "ac tiv",
      "iv es",
      "bl ue",
      "sm art",
      "comm it",
      "kind a",
      "mill ion",
      "posit ive",
      "g um",
      "j uni",
      "n one",
      "on en",
      "it ive",
      "se arch",
      "for got",
      "ho es",
      "act ual",
      "sc re",
      "threat en",
      "reali ze",
      "c c",
      "g oo",
      "h ill",
      "bu ild",
      "gen oc",
      "app aren",
      "isra eli",
      "\" ,",
      "e u",
      "h an",
      "k in",
      "t in",
      "re le",
      "de cl",
      "if t",
      "by e",
      "ie ld",
      "sp ir",
      "da esh",
      "00 0",
      "gener al",
      "comple tely",
      "absolu tely",
      "jour nal",
      "h op",
      "q a",
      "s wear",
      "w est",
      "we ight",
      "co z",
      "ta ken",
      "every body",
      "per fect",
      "inst agram",
      "gl ad",
      "mor ning",
      "respon se",
      "artic le",
      "orig in",
      "juni or",
      "d m",
      "s j",
      "er a",
      "com plain",
      "wor th",
      "con ver",
      "bo x",
      "giv es",
      "dd en",
      "inv ol",
      "reg ard",
      "state ment",
      "blame onen",
      "incl ud",
      "blameonen ot",
      "2 2",
      "b log",
      "f ast",
      "i re",
      "k ur",
      "p ly",
      "th ree",
      "on a",
      "st ick",
      "bo ard",
      "ho st",
      "gr am",
      "da ily",
      "war craft",
      "prop er",
      "lead er",
      "lon don",
      "soc iety",
      "7 0",
      "d in",
      "h ang",
      "j er",
      "l ink",
      "r ing",
      "w ood",
      "at or",
      "li king",
      "fe lt",
      "mean ing",
      "spe aking",
      "sla ves",
      "prof ess",
      "lesb ian",
      "blameonenot all",
      "r ss",
      "er t",
      "re pe",
      "ad a",
      "co ck",
      "ce p",
      "de ep",
      "na h",
      "cr ush",
      "pres sed",
      "spe cial",
      "person al",
      "stat es",
      "wal k",
      "ear th",
      "wer en",
      "stud ent",
      "exc use",
      "charac ter",
      "shor t",
      "propag anda",
      "a ck",
      "b ing",
      "j id",
      "m um",
      "m ess",
      "s and",
      "v y",
      "feel s",
      "dan ger",
      "nor mal",
      "polit ics",
      "abor tion",
      ") ,",
      "h uh",
      "j en",
      "p is",
      "en joy",
      "jo e",
      "su dden",
      "ain t",
      "br ut",
      "wr ite",
      "cra p",
      "inter net",
      "happen ing",
      "rest aur",
      "equ al",
      "stud ents",
      "cop s",
      "obvious ly",
      "beau ti",
      "b ers",
      "bu y",
      "ir an",
      "ce lebr",
      "de ar",
      "ag es",
      "qu ite",
      "gr own",
      "apparen tly",
      "b 4",
      "e uro",
      "j ay",
      "y u",
      "es ome",
      "li kes",
      "wh e",
      "id ence",
      "ne ar",
      "terr ible",
      "had ith",
      "pa ge",
      "sha re",
      "reason s",
      "fin ally",
      "rel ation",
      "blood y",
      "nas ty",
      "2 5",
      "8 9",
      "e ye",
      "an a",
      "re ma",
      "sh oo",
      "de b",
      "ass es",
      "con dem",
      "qu ick",
      "qu inn",
      "fo x",
      "sex ism",
      "off ended",
      "real ity",
      "through out",
      "app reci",
      "ques tions",
      "kh an",
      "beauti ful",
      "6 9",
      "_ 9",
      "c ard",
      "t ren",
      "y d",
      "in ing",
      "pr in",
      "mar ried",
      "post ed",
      "str u",
      "eas y",
      "contin ue",
      "shar ia",
      "6 4",
      "e z",
      "f m",
      "f ra",
      "n k",
      "n s",
      "y p",
      "ic es",
      "ug s",
      "kat gal",
      "aw esome",
      "attack s",
      "murder ed",
      "run ning",
      "ear ly",
      "sec ular",
      "space katgal",
      "engl ish",
      "a j",
      "b tw",
      "i er",
      "m ic",
      "en g",
      "us ually",
      "of ten",
      "fu r",
      "for ced",
      "we ak",
      "mo del",
      "her self",
      "ria ge",
      "chang ed",
      "crit ic",
      "mul ti",
      "5 3",
      "g lo",
      "h ating",
      "r ation",
      "s r",
      "s ci",
      "ou ch",
      "way ne",
      "di rect",
      "fi x",
      "pakistan i",
      "viol ent",
      "fav or",
      "bid en",
      "! \"",
      "8 4",
      "c ast",
      "x o",
      "the tic",
      "as ian",
      "ch er",
      "be long",
      "ad mit",
      "ly n",
      "ver se",
      "do c",
      "pr im",
      "go ld",
      "!! !!!",
      "man _",
      "need ed",
      "tell s",
      "ens itive",
      "kk i",
      "vo c",
      "pic ture",
      "col in",
      "pop ul",
      "educ ated",
      "euro pe",
      "c up",
      "ag ue",
      "ta ught",
      "ut es",
      "didn t",
      "!!!! !!!!",
      "vie ws",
      "fag got",
      "lmfa o",
      "a el",
      "c ity",
      "d udes",
      "e mail",
      "j ump",
      "p sy",
      "in o",
      "pr oof",
      "im p",
      "shit ty",
      "iv ing",
      "mar k",
      "kat ie",
      "def ending",
      "inst ant",
      "mom ent",
      "sl ut",
      "sl urs",
      "jud ge",
      "vir us",
      "minor ities",
      "f as",
      "g op",
      "m ate",
      "the quinn",
      "or g",
      "ra id",
      "sh i",
      "sh er",
      "est ed",
      "rac ial",
      "cr ying",
      "every day",
      "ac tions",
      "bl ow",
      "mar riage",
      "play ed",
      "part ic",
      "rus s",
      "dog s",
      "behavi or",
      "contr ol",
      "israeli regime",
      "1 st",
      "c it",
      "c red",
      "e k",
      "h ilar",
      "i q",
      "j ames",
      "t l",
      "al ong",
      "out ta",
      "co s",
      "com mon",
      "ag end",
      "act s",
      "sto pped",
      "ja il",
      "twee ting",
      "lor d",
      "bir th",
      "e ll",
      "n ur",
      "x d",
      "is y",
      "at ors",
      "and s",
      "ig ger",
      "so ld",
      "ti ll",
      "lo ved",
      "any way",
      "dis cus",
      "off ice",
      "dr ive",
      "yo ho",
      "hand s",
      "lan gu",
      "chris warcraft",
      "ale x",
      "const antly",
      "ira q",
      "suf fer",
      "chin ese",
      "8 _9",
      "j im",
      "bu m",
      "se ll",
      "fu ture",
      "fe ed",
      "po in",
      "da vid",
      "pa id",
      "cre ated",
      "sur pris",
      "block ed",
      "priv ate",
      "mt 8_9",
      "relation ship",
      "thequinn spiracy",
      "hilar ious",
      "8 6",
      ": /",
      "b lam",
      "p red",
      "th ous",
      "ch a",
      "me ant",
      "ar gum",
      "ha i",
      "ke lly",
      "do ct",
      "lo s",
      "ye a",
      "led ge",
      "k no",
      "m l",
      "u res",
      "re ce",
      "it al",
      "ch ill",
      "me e",
      "se cre",
      "pe te",
      "ne l",
      "tr ou",
      "wor ry",
      "il s",
      "qu it",
      "rac ists",
      "pre gn",
      "pro ve",
      "cre ate",
      "hu ge",
      "democr ats",
      "donald trump",
      "tali ban",
      "4 5",
      "d ri",
      "h r",
      "h v",
      "l unch",
      "w ise",
      "ll o",
      "as te",
      "ab o",
      "su c",
      "real donaldtrump",
      "med i",
      "sit u",
      "cur ren",
      "sim ply",
      "ann ie",
      "dir ty",
      "a ign",
      "b on",
      "c am",
      "d ed",
      "e _",
      "j am",
      "l en",
      "v and",
      "st an",
      "st ere",
      "se ver",
      "se cur",
      "so l",
      "co ll",
      "co de",
      "mo di",
      "mo ved",
      "bo ther",
      "jihad i",
      "video s",
      "hal al",
      "cou ple",
      "prom ot",
      "liber als",
      "camp aign",
      "b ible",
      "c d",
      "p c",
      "r ic",
      "er z",
      "is ing",
      "li ar",
      "st age",
      "id ing",
      "ly nch",
      "ti k",
      "sh ir",
      "can ce",
      "ro ck",
      "pa thetic",
      "ph ys",
      "fore ver",
      "sor t",
      "ni kki",
      "tru ly",
      "equ ality",
      "pet ition",
      "writ ing",
      "bey ond",
      "mich ael",
      "9 4",
      "g i",
      "l r",
      "er ed",
      "re cor",
      "re cent",
      "lo se",
      "po s",
      "ta ct",
      "pre ach",
      "des p",
      "wa ke",
      "post s",
      "fre sh",
      "extre m",
      "fort un",
      "sour ce",
      "popul ation",
      "langu age",
      "stere ot",
      "8 8",
      "d ating",
      "d ress",
      "h en",
      "s cr",
      "v iv",
      "w ed",
      "id s",
      "mo der",
      "su gg",
      "islam ophob",
      "sup rema",
      "pl s",
      "af raid",
      "per io",
      "iz ing",
      "head s",
      "aa a",
      "mist a",
      "retard ed",
      "scre en",
      "includ ing",
      "s om",
      "in tell",
      "re present",
      "on y",
      "li ed",
      "up set",
      "lo ves",
      "girl friend",
      "ag re",
      "how ever",
      "bl ind",
      "sc ream",
      "watch ed",
      "log ic",
      "mi x",
      "priv ile",
      "6 6",
      "c and",
      "d are",
      "l ate",
      "p ink",
      "r up",
      "t m",
      "t it",
      "re por",
      "all en",
      "bull ing",
      "ad ul",
      "ab ility",
      "some body",
      "bo ss",
      "min utes",
      "em ot",
      "talk ed",
      "post ing",
      "di ed",
      "negro s",
      "insu l",
      "accept able",
      "sof t",
      "blon des",
      "hus band",
      "f ield",
      "g at",
      "h all",
      "m ig",
      "r on",
      "s ending",
      "v ile",
      "li gh",
      "ke t",
      "like ly",
      "hind ut",
      "stand ing",
      "yes youre",
      "lear ned",
      "start ing",
      "au thor",
      "wait ing",
      "dec ided",
      "rid ic",
      "extre me",
      "multi ple",
      "agend a",
      "9 8",
      "b es",
      "b io",
      "h s",
      "m ing",
      "p iss",
      "s wi",
      "u me",
      "is er",
      "re w",
      "le e",
      "no pe",
      "oo z",
      "se ason",
      "ke pt",
      "ag ed",
      "pp er",
      "christian ity",
      "dr unk",
      "prop ri",
      "gre w",
      "sim ple",
      "comed y",
      "rep ly",
      "writ ten",
      "minor ity",
      "poss ible",
      "yesyoure sexist",
      "f ant",
      "k it",
      "t bh",
      "to mor",
      "st al",
      "so ci",
      "for d",
      "sh out",
      "ma ga",
      "jo in",
      "un fortun",
      "su l",
      "br ought",
      "old er",
      "ali ve",
      "sl ur",
      "oooo oooo",
      "tre ated",
      "claim s",
      "ann oun",
      "urs es",
      "kar ma",
      "wat er",
      "grad u",
      "civ ili",
      "igno re",
      "genoc ide",
      "secur ity",
      "a e",
      "c ross",
      "e ast",
      "m oo",
      "n urses",
      "r or",
      "t est",
      "an al",
      "is o",
      "it er",
      "it ing",
      "es ts",
      "le ts",
      "com fort",
      "il t",
      "pro ject",
      "ja ja",
      "bro ke",
      "bar bar",
      "put ting",
      "bur n",
      "cou rt",
      "yr s",
      "conserv ative",
      "b ash",
      "d ies",
      "h ide",
      "o re",
      "p m",
      "w es",
      "to ler",
      "us ive",
      "st fu",
      "st ri",
      "lo ad",
      "oun t",
      "ie l",
      "por n",
      "pre fer",
      "men tions",
      ".... ..",
      "wr ote",
      "doesn t",
      "sy ria",
      "str ug",
      "sit ting",
      "poli cy",
      "threat s",
      "peace ful",
      "palest in",
      "zer o",
      "perio d",
      "tomor row",
      "b f",
      "v ent",
      "w u",
      "y up",
      "or ge",
      "he a",
      "ger s",
      "tr igger",
      "know ing",
      "dis agree",
      "show ing",
      "gra ph",
      "12 85",
      "vers ity",
      "mill ions",
      "val ue",
      "miss ion",
      "lon ger",
      "? \"",
      "b ow",
      "c il",
      "f ed",
      "k af",
      "at tem",
      "to k",
      "sh an",
      "fe e",
      "ate g",
      "ex p",
      "qu ot",
      "kill s",
      "follow ed",
      "mem bers",
      "comple te",
      "hypocr isy",
      "prot est",
      "stre et",
      "pis sed",
      "d j",
      "p up",
      "t ough",
      "x y",
      "z o",
      "er ing",
      "to xic",
      "st ories",
      "se m",
      "for ward",
      "tr ay",
      "too d",
      "dr ama",
      "ph ob",
      "care s",
      "lock ed",
      "pic s",
      "que en",
      "si kh",
      "lin erz",
      "spread ing",
      "offic ial",
      "green linerz",
      "bie ber",
      "misogy n",
      "messa ge",
      "invol ved",
      "hindut va",
      "greenlinerz jm",
      "g ross",
      "r d",
      "s mo",
      "an ime",
      "be ll",
      "but t",
      "fe llow",
      "fr ank",
      "ind ians",
      "con text",
      "con stru",
      "ie t",
      "bl ess",
      "ap propri",
      "mat es",
      "int en",
      "sy m",
      "aa aa",
      "ru le",
      "lad ies",
      "crim es",
      "a_ man_",
      "riot s",
      "in_ black",
      "typ ical",
      "milit ary",
      "cit iz",
      "a_man_ in_black",
      "2 6",
      "b ase",
      "c amer",
      "l ay",
      "an i",
      "and o",
      "se lect",
      "fo cus",
      "des cr",
      "inter esting",
      "hat es",
      "posit ion",
      "dou bt",
      "organiz ation",
      "hour s",
      "convers ation",
      "deb ate",
      "prim ary",
      "trou ble",
      "2 1",
      "b in",
      "c ist",
      "w k",
      "ch ance",
      "me et",
      "st ree",
      "ter min",
      "ne ither",
      "lo cal",
      "fe m",
      "use ful",
      "sa jid",
      "ac cor",
      "kill er",
      "dy ing",
      "feel ings",
      "isn t",
      "que er",
      "dev il",
      "kkkk kkkk",
      "sil ent",
      "goo gle",
      "fur ther",
      "_ fair",
      "l v",
      "n amed",
      "p ing",
      "s li",
      "s qu",
      "w all",
      "w ol",
      "y al",
      "th a",
      "ar ian",
      "ar rest",
      "sh op",
      "la ck",
      "ro ll",
      "ba be",
      "ep iso",
      "des ign",
      "di re",
      "ner d",
      "mi ke",
      "bab ies",
      "brother hood",
      "kashmir i",
      "pedoph ile",
      "thous ands",
      "suc cess",
      "sajid _fair",
      "sajid_fair ooz",
      "4 7",
      "c is",
      "d ig",
      "e mo",
      "e ating",
      "f ill",
      "g ree",
      "j z",
      "k iss",
      "s na",
      "th ird",
      "it or",
      "to tal",
      "ch allen",
      "us er",
      "le gal",
      "ad voc",
      "co vid",
      "lo ving",
      "de vel",
      "te x",
      "sa udi",
      "ut m_",
      "dis crimin",
      "ci ous",
      "dr ink",
      "ib ly",
      "big ger",
      "neg ative",
      "religion s",
      "fi red",
      "hom o",
      "ignor ance",
      "gress ive",
      "rap ing",
      "cle an",
      "remind s",
      "brain wash",
      "b ang",
      "c atch",
      "e gy",
      "k n",
      "p d",
      "ed a",
      "be l",
      "al ous",
      "st one",
      "if ied",
      "ta x",
      "ev ent",
      "el s",
      "je ff",
      "won t",
      "tur key",
      "hh h",
      "ste al",
      "miley cyrus",
      "dou ble",
      "respons ible",
      "favor ite",
      "argum ent",
      "pregn ant",
      "vand al",
      "comfort able",
      "i y",
      "l ou",
      "l oud",
      "s outh",
      "at ory",
      "bu n",
      "ad es",
      "um a",
      "can cer",
      "na o",
      "cr ow",
      "ol es",
      "hum or",
      "keep s",
      "fi ed",
      "bre aking",
      "ru de",
      "bi la",
      "cou rage",
      "move ment",
      "danger ous",
      "ridic ul",
      "accor ding",
      "devel op",
      "0 1",
      "a ust",
      "b ay",
      "c ous",
      "e h",
      "f ive",
      "l is",
      "p n",
      "s n",
      "s ass",
      "s ess",
      "v an",
      "it self",
      "be ating",
      "st ream",
      "ic ed",
      "ter day",
      "who se",
      "mo b",
      "iv ed",
      "br and",
      "coun ts",
      "je alous",
      "ap pro",
      "yes terday",
      "work er",
      "vers ion",
      "-- --",
      "ball s",
      "14 00",
      "lead ers",
      "team s",
      "cow ard",
      "hypocr ite",
      "swe et",
      "bj p",
      "whe ther",
      "situ ation",
      "a vo",
      "b z",
      "c ir",
      "p ig",
      "t an",
      "t ouch",
      "u red",
      "th read",
      "re ach",
      "re search",
      "bu d",
      "um man",
      "ne igh",
      "do s",
      "un ited",
      "mo v",
      "il ed",
      "ev idence",
      "ama z",
      "mar ry",
      "mon key",
      "less ly",
      "cor ona",
      "lot s",
      "hand le",
      "fil m",
      "apolog ize",
      "leg it",
      "blon de",
      "brit ish",
      "disrespect ful",
      "secre t",
      "adul ts",
      "ligh umman",
      "bila lighumman",
      "\" ?",
      "c tions",
      "k t",
      "t ab",
      "or a",
      "li ved",
      "am ount",
      "sh aming",
      "la ws",
      "but ts",
      "ie f",
      "ac ross",
      "af f",
      "ap point",
      "dr iving",
      "let ting",
      "ib ility",
      "mat t",
      "def ense",
      "work ed",
      "belie fs",
      "ideo logy",
      "mor al",
      "tro ll",
      "wee ks",
      "open ly",
      "dec ide",
      "comed ian",
      "afric a",
      "coo king",
      "8 7",
      "9 5",
      "a ut",
      "e books",
      "g f",
      "j ess",
      "p ure",
      "s ensitive",
      "u to",
      "in ity",
      "is so",
      "ch at",
      "be coming",
      "all e",
      "ic a",
      "are a",
      "ne cess",
      "do ll",
      "un g",
      "lim in",
      "ca tho",
      "con tri",
      "want ing",
      "em plo",
      "conf used",
      "sou l",
      "fig ure",
      "catho lic",
      "8 3",
      "a me",
      "f c",
      "k ers",
      "m ut",
      "t umb",
      "v ar",
      "bu ilt",
      "id enti",
      "se par",
      "sh oot",
      "not e",
      "up on",
      "de mon",
      "gu ts",
      "pro gram",
      "sc ot",
      "log ical",
      "kk k",
      "suppor ter",
      "pick ing",
      "pu ll",
      "ili a",
      "comed ians",
      "crack er",
      "bigot ry",
      "lgbt q",
      "anim als",
      "shoo ting",
      "shir t",
      "tumb lr",
      "2 7",
      "c racy",
      "e ts",
      "f lo",
      "f our",
      "j j",
      "k im",
      "r um",
      "in form",
      "as sh",
      "ch i",
      "ha li",
      "ad ult",
      "not ice",
      "co gn",
      "ca ught",
      "your s",
      "fa ult",
      "af fect",
      "fun ding",
      "ap art",
      "jihad is",
      "tra in",
      "cent ur",
      "au to",
      "suppor ts",
      "mas cul",
      "dad dy",
      "arab s",
      "grow ing",
      "john ny",
      "crimin al",
      "lar ge",
      "spec ific",
      "origin al",
      "restaur ant",
      "mov ies",
      "e limin",
      "f ought",
      "h m",
      "h ob",
      "i be",
      "j ared",
      "v ant",
      "w en",
      "in es",
      "me l",
      "bu dd",
      "be c",
      "ra ised",
      "pe er",
      "for mer",
      "lo c",
      "un ion",
      "com par",
      "try na",
      "cl ar",
      "sp an",
      "sp ent",
      "pa ck",
      "cre ep",
      "mas ter",
      "adv ice",
      "sus p",
      "sever al",
      "unfortun ately",
      "vandal iser",
      ". )",
      "g ig",
      "n h",
      "n es",
      "s is",
      "in fo",
      "ch u",
      "me xic",
      "ck er",
      "am y",
      "id a",
      "se y",
      "ct s",
      "po sing",
      "ind iv",
      "ro se",
      "ro ad",
      "qu iet",
      "know ledge",
      "had i",
      "every where",
      "sp ot",
      "bas ic",
      "tu res",
      "polit ic",
      "wal king",
      "skin ny",
      "hear ing",
      "listen ing",
      "defin ition",
      "val ues",
      "appe ar",
      "dom in",
      "report ed",
      "bom b",
      "believ es",
      "republican s",
      "chan nel",
      "justi fy",
      "prin ci",
      "indiv id",
      "5 5",
      "9 3",
      "e ct",
      "f ly",
      "g ga",
      "j on",
      "k ne",
      "m g",
      "m ot",
      "n ers",
      "r ay",
      "s f",
      "u te",
      "y er",
      "it a",
      "as y",
      "and er",
      "be head",
      "ge orge",
      "ma ch",
      "jo king",
      "de constru",
      "who re",
      "ac y",
      "ash amed",
      ".... ....",
      "aren t",
      "ins ide",
      "boy friend",
      "ee ee",
      "stu ck",
      ";& #",
      "uu uu",
      "kick ed",
      "wo ke",
      "mention ed",
      "dat a",
      "misogy ny",
      "cru el",
      "sci ence",
      "desp ite",
      "extrem ists",
      ") )",
      "d ance",
      "f ing",
      "p he",
      "r ant",
      "s ize",
      "and andre",
      "fuck er",
      "we ap",
      "jo bs",
      "do or",
      "ent ed",
      "un ity",
      "with in",
      "ca pe",
      "any ways",
      "ag s",
      "some how",
      "islam ist",
      "will ing",
      "ut ter",
      "ment s",
      "ac counts",
      "ide as",
      "pl at",
      "har am",
      "mat ic",
      "play ers",
      "class ic",
      "help ed",
      "ven ge",
      "block er",
      "pick ed",
      "brother s",
      "star ts",
      "sat an",
      "sar ah",
      "athe ist",
      "pract ice",
      "regard less",
      "sudden ly",
      "appreci ate",
      "fra ud",
      "poin ts",
      "kaf ir",
      "wol f",
      "! ”",
      "& #",
      "3 4",
      "b is",
      "b ird",
      "c of",
      "l ab",
      "m f",
      "n ie",
      "p it",
      "p es",
      "t aste",
      "re turn",
      "re cogn",
      "at l",
      "le mon",
      "al y",
      "am ong",
      "ti e",
      "we a",
      "ur al",
      "im medi",
      "ass um",
      "ind us",
      "ill a",
      "ill y",
      "ex e",
      "ev ange",
      "other wise",
      "ak a",
      "pl z",
      "br uh",
      "comp are",
      "sim ilar"
    ]
  }
}