{
  "version": "1.0",
  "truncation": null,
  "padding": null,
  "added_tokens": [
    {
      "id": 0,
      "content": "[PAD]",
      "single_word": false,
      "lstrip": false,
      "rstrip": false,
      "normalized": false,
      "special": true
    },
    {
      "id": 1,
      "content": "[UNK]",
      "single_word": false,
      "lstrip": false,
      "rstrip": false,
      "normalized": false,
      "special": true
    },
    {
      "id": 2,
      "content": "[CLS]",
      "single_word": false,
      "lstrip": false,
      "rstrip": false,
      "normalized": false,
      "special": true
    },
    {
      "id": 3,
      "content": "[MASK]",
      "single_word": false,
      "lstrip": false,
      "rstrip": false,
      "normalized": false,
      "special": true
    },
    {
      "id": 4,
      "content": "[SEP]",
      "single_word": false,
      "lstrip": false,
      "rstrip": false,
      "normalized": false,
      "special": true
    }
  ],
  "normalizer": {
    "type": "BertNormalizer",
    "clean_text": true,
    "handle_chinese_chars": true,
    "strip_accents": true,
    "lowercase": true
  },
  "pre_tokenizer": {
    "type": "Whitespace"
  },
  "post_processor": {
    "type": "TemplateProcessing",
    "single": [
      {
        "Sequence": {
          "id": "A",
          "type_id": 0
        }
      }
    ],
    "pair": [
      {
        "SpecialToken": {
          "id": "[CLS]",
          "type_id": 0
        }
      },
      {
        "Sequence": {
          "id": "A",
          "type_id": 0
        }
      },
      {
        "SpecialToken": {
          "id": "[SEP]",
          "type_id": 0
        }
      },
      {
        "Sequence": {
          "id": "B",
          "type_id": 1
        }
      },
      {
        "SpecialToken": {
          "id": "[SEP]",
          "type_id": 1
        }
      }
    ],
    "special_tokens": {
      "[CLS]": {
        "id": "[CLS]",
        "ids": [
          2
        ],
        "tokens": [
          "[CLS]"
        ]
      },
      "[SEP]": {
        "id": "[SEP]",
        "ids": [
          4
        ],
        "tokens": [
          "[SEP]"
        ]
      }
    }
  },
  "decoder": null,
  "model": {
    "type": "BPE",
    "dropout": null,
    "unk_token": "[UNK]",
    "continuing_subword_prefix": null,
    "end_of_word_suffix": null,
    "fuse_unk": false,
    "byte_fallback": false,
    "ignore_merges": false,
    "vocab": {
      "[PAD]": 0,
      "[UNK]": 1,
      "[CLS]": 2,
      "[MASK]": 3,
      "[SEP]": 4,
      "!": 5,
      "#": 6,
      "$": 7,
      "%": 8,
      "&": 9,
      "'": 10,
      "(": 11,
      ")": 12,
      "*": 13,
      "+": 14,
      ",": 15,
      "-": 16,
      ".": 17,
      "/": 18,
      "0": 19,
      "1": 20,
      "2": 21,
      "3": 22,
      "4": 23,
      "5": 24,
      "6": 25,
      "7": 26,
      "8": 27,
      "9": 28,
      ":": 29,
      ";": 30,
      "<": 31,
      "=": 32,
      ">": 33,
      "?": 34,
      "@": 35,
      "[": 36,
      "\\": 37,
      "]": 38,
      "^": 39,
      "_": 40,
      "`": 41,
      "a": 42,
      "b": 43,
      "c": 44,
      "d": 45,
      "e": 46,
      "f": 47,
      "g": 48,
      "h": 49,
      "i": 50,
      "j": 51,
      "k": 52,
      "l": 53,
      "m": 54,
      "n": 55,
      "o": 56,
      "p": 57,
      "q": 58,
      "r": 59,
      "s": 60,
      "t": 61,
      "u": 62,
      "v": 63,
      "w": 64,
      "x": 65,
      "y": 66,
      "z": 67,
      "{": 68,
      "|": 69,
      "}": 70,
      "~": 71,
      "he": 72,
      "in": 73,
      "the": 74,
      "an": 75,
      "re": 76,
      "ou": 77,
      "ed": 78,
      "th": 79,
      "to": 80,
      "ing": 81,
      "at": 82,
      "on": 83,
      "er": 84,
      "as": 85,
      "and": 86,
      "is": 87,
      "en": 88,
      "ar": 89,
      "ll": 90,
      "it": 91,
      "or": 92,
      "st": 93,
      "me": 94,
      "of": 95,
      "le": 96,
      "``": 97,
      "''": 98,
      "be": 99,
      "ha": 100,
      "you": 101,
      "ow": 102,
      "se": 103,
      "id": 104,
      "ac": 105,
      "was": 106,
      "her": 107,
      "ve": 108,
      "ld": 109,
      "ro": 110,
      "she": 111,
      "gh": 112,
      "li": 113,
      "es": 114,
      "his": 115,
      "we": 116,
      "al": 117,
      "that": 118,
      "ly": 119,
      "hi": 120,
      "ay": 121,
      "wi": 122,
      "no": 123,
      "lo": 124,
      "ad": 125,
      "ut": 126,
      "my": 127,
      "all": 128,
      "ver": 129,
      "so": 130,
      "ke": 131,
      "for": 132,
      "ti": 133,
      "ri": 134,
      "ght": 135,
      "out": 136,
      "wh": 137,
      "ould": 138,
      "ch": 139,
      "ne": 140,
      "with": 141,
      "do": 142,
      "ir": 143,
      "un": 144,
      "mo": 145,
      "had": 146,
      "ce": 147,
      "co": 148,
      "sa": 149,
      "go": 150,
      "ge": 151,
      "fe": 152,
      "ent": 153,
      "ab": 154,
      "one": 155,
      "but": 156,
      "ur": 157,
      "him": 158,
      "sh": 159,
      "ok": 160,
      "up": 161,
      "red": 162,
      "ck": 163,
      "ther": 164,
      "de": 165,
      "ca": 166,
      "ter": 167,
      "ack": 168,
      "now": 169,
      "ra": 170,
      "te": 171,
      "thing": 172,
      "pe": 173,
      "oun": 174,
      "si": 175,
      "ant": 176,
      "what": 177,
      "not": 178,
      "if": 179,
      "whe": 180,
      "am": 181,
      "ain": 182,
      "us": 183,
      "od": 184,
      "ag": 185,
      "pp": 186,
      "rom": 187,
      "ust": 188,
      "have": 189,
      "said": 190,
      "way": 191,
      "they": 192,
      "ard": 193,
      "this": 194,
      "from": 195,
      "did": 196,
      "ound": 197,
      "are": 198,
      "con": 199,
      "some": 200,
      "ion": 201,
      "ind": 202,
      "own": 203,
      "fo": 204,
      "could": 205,
      "back": 206,
      "su": 207,
      "were": 208,
      "would": 209,
      "po": 210,
      "look": 211,
      "like": 212,
      "ted": 213,
      "man": 214,
      "mp": 215,
      "ill": 216,
      "ide": 217,
      "ry": 218,
      "ho": 219,
      "there": 220,
      "ough": 221,
      "wor": 222,
      "..": 223,
      "ss": 224,
      "know": 225,
      "mi": 226,
      "che": 227,
      "qu": 228,
      "just": 229,
      "bo": 230,
      "wo": 231,
      "pl": 232,
      "el": 233,
      "into": 234,
      "king": 235,
      "ex": 236,
      "ked": 237,
      "when": 238,
      "ru": 239,
      "ers": 240,
      "about": 241,
      "ace": 242,
      "la": 243,
      "any": 244,
      "ma": 245,
      "our": 246,
      "ever": 247,
      "hand": 248,
      "ally": 249,
      "then": 250,
      "see": 251,
      "yes": 252,
      "ic": 253,
      "ta": 254,
      "gr": 255,
      "get": 256,
      "them": 257,
      "want": 258,
      "your": 259,
      "over": 260,
      "time": 261,
      "led": 262,
      "et": 263,
      "end": 264,
      "sto": 265,
      "ate": 266,
      "lf": 267,
      "ast": 268,
      "ven": 269,
      "ong": 270,
      "been": 271,
      "ep": 272,
      "down": 273,
      "op": 274,
      "by": 275,
      "other": 276,
      "ni": 277,
      "ul": 278,
      "art": 279,
      "sp": 280,
      "head": 281,
      "fi": 282,
      "who": 283,
      "again": 284,
      "how": 285,
      "ment": 286,
      "urn": 287,
      "gu": 288,
      "ting": 289,
      "ous": 290,
      "more": 291,
      "ation": 292,
      "ink": 293,
      "fore": 294,
      "can": 295,
      "side": 296,
      "bl": 297,
      "nt": 298,
      "eyes": 299,
      "ine": 300,
      "than": 301,
      "tion": 302,
      "right": 303,
      "ull": 304,
      "pre": 305,
      "off": 306,
      "ist": 307,
      "ye": 308,
      "mb": 309,
      "af": 310,
      "turn": 311,
      "self": 312,
      "der": 313,
      "ought": 314,
      "new": 315,
      "pped": 316,
      "use": 317,
      "pro": 318,
      "thr": 319,
      "im": 320,
      "ess": 321,
      "per": 322,
      "om": 323,
      "hed": 324,
      "even": 325,
      "il": 326,
      "their": 327,
      "whi": 328,
      "rea": 329,
      "ved": 330,
      "na": 331,
      "br": 332,
      "arm": 333,
      "here": 334,
      "before": 335,
      "sc": 336,
      "mu": 337,
      "every": 338,
      "around": 339,
      "will": 340,
      "say": 341,
      "going": 342,
      "...": 343,
      "let": 344,
      "clo": 345,
      "vi": 346,
      "ving": 347,
      "able": 348,
      "di": 349,
      "ang": 350,
      "ct": 351,
      "day": 352,
      "tle": 353,
      "ga": 354,
      "ps": 355,
      "think": 356,
      "only": 357,
      "ade": 358,
      "where": 359,
      "through": 360,
      "gi": 361,
      "need": 362,
      "lit": 363,
      "too": 364,
      "wa": 365,
      "looked": 366,
      "ass": 367,
      "come": 368,
      "ty": 369,
      "ward": 370,
      "vo": 371,
      "room": 372,
      "face": 373,
      "gl": 374,
      "med": 375,
      "thought": 376,
      "ite": 377,
      "ick": 378,
      "read": 379,
      "should": 380,
      "away": 381,
      "still": 382,
      "after": 383,
      "long": 384,
      "ach": 385,
      "lt": 386,
      "com": 387,
      "door": 388,
      "ble": 389,
      "something": 390,
      "got": 391,
      "tr": 392,
      "well": 393,
      "sho": 394,
      "ure": 395,
      "never": 396,
      "cl": 397,
      "pa": 398,
      "ars": 399,
      "wat": 400,
      "act": 401,
      "good": 402,
      "fa": 403,
      "ten": 404,
      "jo": 405,
      "ity": 406,
      "ans": 407,
      "ree": 408,
      "beca": 409,
      "ated": 410,
      "its": 411,
      "ont": 412,
      "feel": 413,
      "light": 414,
      "asked": 415,
      "ened": 416,
      "night": 417,
      "fr": 418,
      "mar": 419,
      "sed": 420,
      "pr": 421,
      "low": 422,
      "two": 423,
      "bet": 424,
      "fir": 425,
      "ched": 426,
      "bed": 427,
      "tal": 428,
      "dis": 429,
      "ice": 430,
      "tell": 431,
      "ste": 432,
      "smi": 433,
      "made": 434,
      "ance": 435,
      "most": 436,
      "why": 437,
      "much": 438,
      "gre": 439,
      "ft": 440,
      "ig": 441,
      "car": 442,
      "ap": 443,
      "dd": 444,
      "because": 445,
      "sure": 446,
      "cle": 447,
      "take": 448,
      "knew": 449,
      "brea": 450,
      "turned": 451,
      "ning": 452,
      "little": 453,
      "call": 454,
      "bod": 455,
      "ried": 456,
      "wal": 457,
      "ort": 458,
      "make": 459,
      "cha": 460,
      "under": 461,
      "happ": 462,
      "ci": 463,
      "lie": 464,
      "mor": 465,
      "ced": 466,
      "shi": 467,
      "fin": 468,
      "may": 469,
      "ks": 470,
      "bu": 471,
      "ds": 472,
      "hel": 473,
      "ple": 474,
      "ase": 475,
      "mon": 476,
      "first": 477,
      "tor": 478,
      "men": 479,
      "gg": 480,
      "lu": 481,
      "try": 482,
      "pt": 483,
      "hu": 484,
      "body": 485,
      "ves": 486,
      "felt": 487,
      "spe": 488,
      "ser": 489,
      "ie": 490,
      "min": 491,
      "wanted": 492,
      "sit": 493,
      "stand": 494,
      "took": 495,
      "ze": 496,
      "ark": 497,
      "pull": 498,
      "comp": 499,
      "des": 500,
      "que": 501,
      "sk": 502,
      "sha": 503,
      "went": 504,
      "cont": 505,
      "sion": 506,
      "has": 507,
      "hands": 508,
      "ol": 509,
      "really": 510,
      "sur": 511,
      "ose": 512,
      "very": 513,
      "ts": 514,
      "rest": 515,
      "mis": 516,
      "les": 517,
      "used": 518,
      "ared": 519,
      "against": 520,
      "voice": 521,
      "mind": 522,
      "lea": 523,
      "put": 524,
      "ence": 525,
      "ren": 526,
      "life": 527,
      "mat": 528,
      "ish": 529,
      "though": 530,
      "ling": 531,
      "less": 532,
      "hard": 533,
      "peop": 534,
      "came": 535,
      "star": 536,
      "while": 537,
      "which": 538,
      "ready": 539,
      "left": 540,
      "dre": 541,
      "told": 542,
      "people": 543,
      "ned": 544,
      "another": 545,
      "ner": 546,
      "bro": 547,
      "ise": 548,
      "sm": 549,
      "ah": 550,
      "ph": 551,
      "last": 552,
      "cor": 553,
      "wait": 554,
      "ath": 555,
      "cr": 556,
      "cked": 557,
      "ross": 558,
      "few": 559,
      "find": 560,
      "cre": 561,
      "air": 562,
      "help": 563,
      "ful": 564,
      "ouse": 565,
      "blo": 566,
      "int": 567,
      "anything": 568,
      "chi": 569,
      "ways": 570,
      "keep": 571,
      "moment": 572,
      "being": 573,
      "hind": 574,
      "cho": 575,
      "tic": 576,
      "til": 577,
      "tra": 578,
      "fri": 579,
      "nothing": 580,
      "owed": 581,
      "set": 582,
      "str": 583,
      "behind": 584,
      "stu": 585,
      "ton": 586,
      "enough": 587,
      "toward": 588,
      "does": 589,
      "pu": 590,
      "might": 591,
      "saw": 592,
      "full": 593,
      "lau": 594,
      "run": 595,
      "old": 596,
      "part": 597,
      "ily": 598,
      "xt": 599,
      "fing": 600,
      "love": 601,
      "je": 602,
      "ies": 603,
      "ju": 604,
      "zed": 605,
      "house": 606,
      "gir": 607,
      "open": 608,
      "sound": 609,
      "beg": 610,
      "cur": 611,
      "dark": 612,
      "things": 613,
      "age": 614,
      "friend": 615,
      "tru": 616,
      "until": 617,
      "ange": 618,
      "outh": 619,
      "mer": 620,
      "app": 621,
      "maybe": 622,
      "hair": 623,
      "ff": 624,
      "those": 625,
      "place": 626,
      "care": 627,
      "ction": 628,
      "looking": 629,
      "ince": 630,
      "bab": 631,
      "hun": 632,
      "mber": 633,
      "dra": 634,
      "once": 635,
      "ear": 636,
      "wr": 637,
      "sing": 638,
      "pi": 639,
      "tre": 640,
      "bit": 641,
      "par": 642,
      "ching": 643,
      "hold": 644,
      "da": 645,
      "work": 646,
      "ped": 647,
      "ness": 648,
      "ue": 649,
      "cer": 650,
      "ses": 651,
      "both": 652,
      "girl": 653,
      "home": 654,
      "wall": 655,
      "front": 656,
      "ating": 657,
      "always": 658,
      "sen": 659,
      "oh": 660,
      "next": 661,
      "ak": 662,
      "sil": 663,
      "ms": 664,
      "ious": 665,
      "fl": 666,
      "found": 667,
      "kill": 668,
      "flo": 669,
      "sat": 670,
      "mouth": 671,
      "ja": 672,
      "inside": 673,
      "sl": 674,
      "without": 675,
      "father": 676,
      "mother": 677,
      "ken": 678,
      "shed": 679,
      "table": 680,
      "give": 681,
      "heart": 682,
      "blood": 683,
      "arms": 684,
      "woman": 685,
      "same": 686,
      "nor": 687,
      "ight": 688,
      "everything": 689,
      "ually": 690,
      "sup": 691,
      "someone": 692,
      "himself": 693,
      "heard": 694,
      "ary": 695,
      "cent": 696,
      "**": 697,
      "small": 698,
      "mean": 699,
      "wind": 700,
      "tain": 701,
      "pres": 702,
      "cour": 703,
      "trying": 704,
      "better": 705,
      "dri": 706,
      "pulled": 707,
      "cted": 708,
      "belie": 709,
      "ween": 710,
      "hear": 711,
      "kis": 712,
      "between": 713,
      "each": 714,
      "ys": 715,
      "black": 716,
      "ssed": 717,
      "seemed": 718,
      "imp": 719,
      "fam": 720,
      "ash": 721,
      "ised": 722,
      "sig": 723,
      "res": 724,
      "coun": 725,
      "since": 726,
      "smile": 727,
      "secon": 728,
      "pers": 729,
      "du": 730,
      "swe": 731,
      "deep": 732,
      "ached": 733,
      "dro": 734,
      "stre": 735,
      "qui": 736,
      "kes": 737,
      "across": 738,
      "far": 739,
      "hur": 740,
      "ob": 741,
      "pain": 742,
      "ins": 743,
      "slow": 744,
      "pping": 745,
      "myself": 746,
      "words": 747,
      "three": 748,
      "won": 749,
      "already": 750,
      "kind": 751,
      "close": 752,
      "play": 753,
      "gave": 754,
      "started": 755,
      "ows": 756,
      "almost": 757,
      "gs": 758,
      "land": 759,
      "breath": 760,
      "lot": 761,
      "quick": 762,
      "lips": 763,
      "quest": 764,
      "world": 765,
      "dont": 766,
      "years": 767,
      "sle": 768,
      "stay": 769,
      "done": 770,
      "nodd": 771,
      "must": 772,
      "stood": 773,
      "reme": 774,
      "ught": 775,
      "ot": 776,
      "ason": 777,
      "sor": 778,
      "vis": 779,
      "ane": 780,
      "dr": 781,
      "bar": 782,
      "else": 783,
      "doing": 784,
      "hell": 785,
      "okay": 786,
      "cal": 787,
      "ger": 788,
      "foll": 789,
      "pos": 790,
      "tri": 791,
      "coming": 792,
      "stop": 793,
      "tou": 794,
      "appe": 795,
      "toge": 796,
      "together": 797,
      "tried": 798,
      "war": 799,
      "name": 800,
      "walked": 801,
      "sof": 802,
      "big": 803,
      "ev": 804,
      "whis": 805,
      "ings": 806,
      "dam": 807,
      "ater": 808,
      "ank": 809,
      "step": 810,
      "minut": 811,
      "seen": 812,
      "rep": 813,
      "ene": 814,
      "dec": 815,
      "ower": 816,
      "feet": 817,
      "nodded": 818,
      "ond": 819,
      "held": 820,
      "didnt": 821,
      "ask": 822,
      "many": 823,
      "near": 824,
      "start": 825,
      "move": 826,
      "fu": 827,
      "roll": 828,
      "owing": 829,
      "water": 830,
      "dif": 831,
      "thin": 832,
      "ive": 833,
      "ek": 834,
      "these": 835,
      "times": 836,
      "real": 837,
      "gged": 838,
      "floor": 839,
      "hor": 840,
      "spo": 841,
      "tu": 842,
      "moved": 843,
      "scre": 844,
      "lar": 845,
      "wn": 846,
      "question": 847,
      "cou": 848,
      "ces": 849,
      "talk": 850,
      "yet": 851,
      "ket": 852,
      "bad": 853,
      "says": 854,
      "form": 855,
      "leave": 856,
      "mr": 857,
      "tered": 858,
      "smiled": 859,
      "gone": 860,
      "fall": 861,
      "chest": 862,
      "son": 863,
      "inter": 864,
      "ined": 865,
      "lor": 866,
      "eas": 867,
      "called": 868,
      "nu": 869,
      "cra": 870,
      "ef": 871,
      "herself": 872,
      "word": 873,
      "getting": 874,
      "fingers": 875,
      "arr": 876,
      "add": 877,
      "hour": 878,
      "needed": 879,
      "top": 880,
      "fully": 881,
      "half": 882,
      "reali": 883,
      "began": 884,
      "pri": 885,
      "ber": 886,
      "ered": 887,
      "phone": 888,
      "wer": 889,
      "ran": 890,
      "also": 891,
      "stra": 892,
      "pass": 893,
      "aced": 894,
      "lean": 895,
      "rent": 896,
      "ither": 897,
      "cas": 898,
      "ground": 899,
      "live": 900,
      "dead": 901,
      "ished": 902,
      "aring": 903,
      "shook": 904,
      "course": 905,
      "along": 906,
      "yeah": 907,
      "child": 908,
      "soon": 909,
      "ately": 910,
      "second": 911,
      "probab": 912,
      "dist": 913,
      "mes": 914,
      "plan": 915,
      "finally": 916,
      "ny": 917,
      "probably": 918,
      "pick": 919,
      "main": 920,
      "ged": 921,
      "dden": 922,
      "pret": 923,
      "past": 924,
      "cut": 925,
      "god": 926,
      "boy": 927,
      "such": 928,
      "att": 929,
      "ris": 930,
      "sudden": 931,
      "stead": 932,
      "possi": 933,
      "grab": 934,
      "cu": 935,
      "person": 936,
      "fle": 937,
      "sid": 938,
      "least": 939,
      "ently": 940,
      "happened": 941,
      "high": 942,
      "mit": 943,
      "best": 944,
      "contin": 945,
      "gri": 946,
      "sun": 947,
      "cus": 948,
      "reached": 949,
      "eye": 950,
      "great": 951,
      "pat": 952,
      "fire": 953,
      "believe": 954,
      "sorry": 955,
      "char": 956,
      "ia": 957,
      "skin": 958,
      "anger": 959,
      "stru": 960,
      "arent": 961,
      "making": 962,
      "white": 963,
      "tight": 964,
      "ster": 965,
      "later": 966,
      "cli": 967,
      "dan": 968,
      "stopped": 969,
      "cy": 970,
      "feeling": 971,
      "soft": 972,
      "idd": 973,
      "surpr": 974,
      "taking": 975,
      "ters": 976,
      "opened": 977,
      "sy": 978,
      "understand": 979,
      "list": 980,
      "hea": 981,
      "lle": 982,
      "cla": 983,
      "human": 984,
      "anyone": 985,
      "meet": 986,
      "mag": 987,
      "bus": 988,
      "family": 989,
      "remember": 990,
      "cking": 991,
      "power": 992,
      "temp": 993,
      "sleep": 994,
      "everyone": 995,
      "fight": 996,
      "idea": 997,
      "dire": 998,
      "mine": 999,
      "enti": 1000,
      "brother": 1001,
      "ls": 1002,
      "forward": 1003,
      "cat": 1004,
      "neck": 1005,
      "morning": 1006,
      "shoulder": 1007,
      "bri": 1008,
      "diffe": 1009,
      "days": 1010,
      "sli": 1011,
      "reason": 1012,
      "book": 1013,
      "happen": 1014,
      "fted": 1015,
      "oud": 1016,
      "kept": 1017,
      "glan": 1018,
      "gra": 1019,
      "comple": 1020,
      "clear": 1021,
      "vers": 1022,
      "fact": 1023,
      "fect": 1024,
      "hes": 1025,
      "dered": 1026,
      "line": 1027,
      "ided": 1028,
      "mas": 1029,
      "youn": 1030,
      "ian": 1031,
      "quickly": 1032,
      "au": 1033,
      "four": 1034,
      "vered": 1035,
      "mom": 1036,
      "thro": 1037,
      "dy": 1038,
      "gen": 1039,
      "hit": 1040,
      "pic": 1041,
      "alone": 1042,
      "guy": 1043,
      "fre": 1044,
      "onto": 1045,
      "cess": 1046,
      "gue": 1047,
      "closed": 1048,
      "walk": 1049,
      "lin": 1050,
      "quiet": 1051,
      "aw": 1052,
      "slowly": 1053,
      "hall": 1054,
      "aut": 1055,
      "mur": 1056,
      "bor": 1057,
      "ale": 1058,
      "fine": 1059,
      "met": 1060,
      "having": 1061,
      "ches": 1062,
      "thinking": 1063,
      "wrong": 1064,
      "ering": 1065,
      "emp": 1066,
      "ual": 1067,
      "nat": 1068,
      "zz": 1069,
      "tw": 1070,
      "please": 1071,
      "fill": 1072,
      "expe": 1073,
      "fell": 1074,
      "hurt": 1075,
      "bra": 1076,
      "laugh": 1077,
      "lied": 1078,
      "cold": 1079,
      "stared": 1080,
      "answer": 1081,
      "um": 1082,
      "talking": 1083,
      "dou": 1084,
      "mand": 1085,
      "vam": 1086,
      "warm": 1087,
      "watched": 1088,
      "lay": 1089,
      "hope": 1090,
      "either": 1091,
      "point": 1092,
      "prote": 1093,
      "ping": 1094,
      "minutes": 1095,
      "ended": 1096,
      "lic": 1097,
      "plain": 1098,
      "fun": 1099,
      "beaut": 1100,
      "noti": 1101,
      "matter": 1102,
      "actually": 1103,
      "certain": 1104,
      "outside": 1105,
      "ously": 1106,
      "pter": 1107,
      "wonder": 1108,
      "motion": 1109,
      "chair": 1110,
      "dad": 1111,
      "ghed": 1112,
      "ild": 1113,
      "suddenly": 1114,
      "sis": 1115,
      "cks": 1116,
      "resp": 1117,
      "gun": 1118,
      "lly": 1119,
      "lost": 1120,
      "iness": 1121,
      "standing": 1122,
      "tive": 1123,
      "ring": 1124,
      "pur": 1125,
      "guard": 1126,
      "pered": 1127,
      "guess": 1128,
      "gaze": 1129,
      "oney": 1130,
      "thre": 1131,
      "jack": 1132,
      "ones": 1133,
      "kid": 1134,
      "wood": 1135,
      "ele": 1136,
      "vie": 1137,
      "din": 1138,
      "tention": 1139,
      "fast": 1140,
      "val": 1141,
      "continu": 1142,
      "taken": 1143,
      "lad": 1144,
      "gar": 1145,
      "free": 1146,
      "vy": 1147,
      "waiting": 1148,
      "whole": 1149,
      "shir": 1150,
      "blue": 1151,
      "eld": 1152,
      "figu": 1153,
      "poin": 1154,
      "different": 1155,
      "ations": 1156,
      "pretty": 1157,
      "caught": 1158,
      "safe": 1159,
      "exact": 1160,
      "thank": 1161,
      "bot": 1162,
      "ago": 1163,
      "ship": 1164,
      "grin": 1165,
      "zing": 1166,
      "friends": 1167,
      "build": 1168,
      "gest": 1169,
      "offe": 1170,
      "kne": 1171,
      "clu": 1172,
      "instead": 1173,
      "stair": 1174,
      "burn": 1175,
      "complete": 1176,
      "case": 1177,
      "laughed": 1178,
      "die": 1179,
      "five": 1180,
      "sw": 1181,
      "death": 1182,
      "sol": 1183,
      "chapter": 1184,
      "sive": 1185,
      "rid": 1186,
      "short": 1187,
      "vampi": 1188,
      "shit": 1189,
      "scho": 1190,
      "round": 1191,
      "ming": 1192,
      "van": 1193,
      "break": 1194,
      "prom": 1195,
      "sign": 1196,
      "others": 1197,
      "simp": 1198,
      "suppo": 1199,
      "ased": 1200,
      "school": 1201,
      "mach": 1202,
      "vin": 1203,
      "action": 1204,
      "fli": 1205,
      "seat": 1206,
      "scream": 1207,
      "imag": 1208,
      "show": 1209,
      "bur": 1210,
      "legs": 1211,
      "shot": 1212,
      "looks": 1213,
      "young": 1214,
      "vel": 1215,
      "throat": 1216,
      "ky": 1217,
      "hot": 1218,
      "fort": 1219,
      "late": 1220,
      "smo": 1221,
      "reg": 1222,
      "os": 1223,
      "whispered": 1224,
      "bare": 1225,
      "har": 1226,
      "sense": 1227,
      "chang": 1228,
      "foot": 1229,
      "bring": 1230,
      "eks": 1231,
      "shad": 1232,
      "glanced": 1233,
      "ents": 1234,
      "kit": 1235,
      "cing": 1236,
      "window": 1237,
      "ons": 1238,
      "sent": 1239,
      "sex": 1240,
      "ult": 1241,
      "gy": 1242,
      "straight": 1243,
      "street": 1244,
      "happy": 1245,
      "strong": 1246,
      "va": 1247,
      "whatever": 1248,
      "brought": 1249,
      "possible": 1250,
      "tom": 1251,
      "ball": 1252,
      "cept": 1253,
      "town": 1254,
      "holding": 1255,
      "bru": 1256,
      "stepped": 1257,
      "lead": 1258,
      "thir": 1259,
      "gas": 1260,
      "inte": 1261,
      "large": 1262,
      "shut": 1263,
      "wra": 1264,
      "change": 1265,
      "vic": 1266,
      "den": 1267,
      "meant": 1268,
      "uring": 1269,
      "dream": 1270,
      "watch": 1271,
      "kiss": 1272,
      "gan": 1273,
      "appeared": 1274,
      "exactly": 1275,
      "vor": 1276,
      "ending": 1277,
      "appro": 1278,
      "shirt": 1279,
      "sever": 1280,
      "row": 1281,
      "cry": 1282,
      "quite": 1283,
      "sitting": 1284,
      "sna": 1285,
      "touch": 1286,
      "inst": 1287,
      "stro": 1288,
      "band": 1289,
      "leaned": 1290,
      "ire": 1291,
      "finger": 1292,
      "perfect": 1293,
      "watching": 1294,
      "nice": 1295,
      "als": 1296,
      "fer": 1297,
      "rel": 1298,
      "ening": 1299,
      "iful": 1300,
      "glass": 1301,
      "year": 1302,
      "realized": 1303,
      "known": 1304,
      "entire": 1305,
      "six": 1306,
      "dress": 1307,
      "bb": 1308,
      "rol": 1309,
      "ures": 1310,
      "sme": 1311,
      "moving": 1312,
      "covered": 1313,
      "ths": 1314,
      "abo": 1315,
      "ror": 1316,
      "yed": 1317,
      "exc": 1318,
      "conf": 1319,
      "running": 1320,
      "explain": 1321,
      "followed": 1322,
      "fear": 1323,
      "ants": 1324,
      "cross": 1325,
      "fur": 1326,
      "pie": 1327,
      "wel": 1328,
      "sus": 1329,
      "true": 1330,
      "pan": 1331,
      "hours": 1332,
      "sub": 1333,
      "lves": 1334,
      "job": 1335,
      "closer": 1336,
      "slid": 1337,
      "deal": 1338,
      "given": 1339,
      "several": 1340,
      "bag": 1341,
      "mbled": 1342,
      "cir": 1343,
      "continued": 1344,
      "baby": 1345,
      "grabbed": 1346,
      "attention": 1347,
      "ley": 1348,
      "shru": 1349,
      "week": 1350,
      "fice": 1351,
      "ding": 1352,
      "lan": 1353,
      "replied": 1354,
      "loved": 1355,
      "mped": 1356,
      "ctor": 1357,
      "mir": 1358,
      "chen": 1359,
      "beautiful": 1360,
      "ular": 1361,
      "tee": 1362,
      "interest": 1363,
      "oc": 1364,
      "chance": 1365,
      "yell": 1366,
      "stairs": 1367,
      "youre": 1368,
      "remain": 1369,
      "pushed": 1370,
      "ition": 1371,
      "damn": 1372,
      "aces": 1373,
      "cup": 1374,
      "trust": 1375,
      "longer": 1376,
      "eng": 1377,
      "pal": 1378,
      "bi": 1379,
      "pen": 1380,
      "beside": 1381,
      "wed": 1382,
      "ries": 1383,
      "saying": 1384,
      "road": 1385,
      "city": 1386,
      "tonight": 1387,
      "ates": 1388,
      "sear": 1389,
      "shoulders": 1390,
      "grand": 1391,
      "living": 1392,
      "reach": 1393,
      "lear": 1394,
      "lun": 1395,
      "ited": 1396,
      "cover": 1397,
      "ali": 1398,
      "lying": 1399,
      "died": 1400,
      "haps": 1401,
      "teen": 1402,
      "peri": 1403,
      "stri": 1404,
      "apart": 1405,
      "pack": 1406,
      "couple": 1407,
      "mad": 1408,
      "today": 1409,
      "perhaps": 1410,
      "rolled": 1411,
      "parent": 1412,
      "money": 1413,
      "proble": 1414,
      "slight": 1415,
      "sky": 1416,
      "using": 1417,
      "ben": 1418,
      "turning": 1419,
      "rose": 1420,
      "squ": 1421,
      "ments": 1422,
      "aged": 1423,
      "tears": 1424,
      "control": 1425,
      "thats": 1426,
      "ying": 1427,
      "cru": 1428,
      "isted": 1429,
      "serious": 1430,
      "green": 1431,
      "wasnt": 1432,
      "smell": 1433,
      "win": 1434,
      "kitchen": 1435,
      "speak": 1436,
      "pression": 1437,
      "dropped": 1438,
      "ison": 1439,
      "tin": 1440,
      "women": 1441,
      "leaving": 1442,
      "bene": 1443,
      "est": 1444,
      "por": 1445,
      "decided": 1446,
      "antly": 1447,
      "doub": 1448,
      "igh": 1449,
      "office": 1450,
      "above": 1451,
      "sister": 1452,
      "bat": 1453,
      "zy": 1454,
      "mal": 1455,
      "sort": 1456,
      "filled": 1457,
      "truth": 1458,
      "ident": 1459,
      "ung": 1460,
      "parents": 1461,
      "gotten": 1462,
      "pleas": 1463,
      "memor": 1464,
      "alex": 1465,
      "posit": 1466,
      "immed": 1467,
      "expression": 1468,
      "leg": 1469,
      "fla": 1470,
      "ders": 1471,
      "cri": 1472,
      "ining": 1473,
      "mut": 1474,
      "passed": 1475,
      "business": 1476,
      "gro": 1477,
      "obvi": 1478,
      "raised": 1479,
      "dred": 1480,
      "working": 1481,
      "shar": 1482,
      "hers": 1483,
      "anyway": 1484,
      "bas": 1485,
      "secre": 1486,
      "pressed": 1487,
      "spoke": 1488,
      "seeing": 1489,
      "raid": 1490,
      "kno": 1491,
      "box": 1492,
      "ility": 1493,
      "ging": 1494,
      "lifted": 1495,
      "stomach": 1496,
      "rac": 1497,
      "shing": 1498,
      "completely": 1499,
      "crow": 1500,
      "arri": 1501,
      "iled": 1502,
      "sar": 1503,
      "drink": 1504,
      "hen": 1505,
      "giving": 1506,
      "silence": 1507,
      "ils": 1508,
      "sou": 1509,
      "pay": 1510,
      "worry": 1511,
      "ba": 1512,
      "bright": 1513,
      "wenty": 1514,
      "twenty": 1515,
      "edge": 1516,
      "fic": 1517,
      "vent": 1518,
      "steps": 1519,
      "walking": 1520,
      "thu": 1521,
      "corner": 1522,
      "begin": 1523,
      "attack": 1524,
      "rather": 1525,
      "miss": 1526,
      "frown": 1527,
      "food": 1528,
      "staring": 1529,
      "cell": 1530,
      "guys": 1531,
      "thes": 1532,
      "em": 1533,
      "sight": 1534,
      "swi": 1535,
      "hang": 1536,
      "stone": 1537,
      "sque": 1538,
      "supposed": 1539,
      "hundred": 1540,
      "killed": 1541,
      "makes": 1542,
      "become": 1543,
      "knowing": 1544,
      "ical": 1545,
      "immedi": 1546,
      "tory": 1547,
      "wide": 1548,
      "terri": 1549,
      "sides": 1550,
      "ashed": 1551,
      "within": 1552,
      "anna": 1553,
      "hung": 1554,
      "ctive": 1555,
      "bir": 1556,
      "shout": 1557,
      "building": 1558,
      "fair": 1559,
      "wish": 1560,
      "grow": 1561,
      "picked": 1562,
      "iling": 1563,
      "changed": 1564,
      "view": 1565,
      "lla": 1566,
      "teeth": 1567,
      "sca": 1568,
      "noticed": 1569,
      "nearly": 1570,
      "ded": 1571,
      "waited": 1572,
      "ili": 1573,
      "ina": 1574,
      "yourself": 1575,
      "sighed": 1576,
      "sam": 1577,
      "rup": 1578,
      "beat": 1579,
      "girls": 1580,
      "mus": 1581,
      "afraid": 1582,
      "joh": 1583,
      "vid": 1584,
      "story": 1585,
      "upon": 1586,
      "clean": 1587,
      "thanks": 1588,
      "bow": 1589,
      "phi": 1590,
      "gold": 1591,
      "ler": 1592,
      "emb": 1593,
      "thoughts": 1594,
      "clothes": 1595,
      "towards": 1596,
      "bla": 1597,
      "couldnt": 1598,
      "concer": 1599,
      "danger": 1600,
      "easy": 1601,
      "eat": 1602,
      "sweet": 1603,
      "seem": 1604,
      "jer": 1605,
      "luck": 1606,
      "pict": 1607,
      "drive": 1608,
      "enjo": 1609,
      "plo": 1610,
      "cant": 1611,
      "wered": 1612,
      "returned": 1613,
      "trou": 1614,
      "xed": 1615,
      "fit": 1616,
      "strange": 1617,
      "ier": 1618,
      "stuff": 1619,
      "ists": 1620,
      "direction": 1621,
      "ama": 1622,
      "grou": 1623,
      "placed": 1624,
      "worked": 1625,
      "flow": 1626,
      "import": 1627,
      "kissed": 1628,
      "opp": 1629,
      "ject": 1630,
      "gray": 1631,
      "kick": 1632,
      "bling": 1633,
      "lord": 1634,
      "children": 1635,
      "convers": 1636,
      "vol": 1637,
      "gon": 1638,
      "loud": 1639,
      "minute": 1640,
      "vampire": 1641,
      "pointed": 1642,
      "telling": 1643,
      "cap": 1644,
      "key": 1645,
      "beneath": 1646,
      "order": 1647,
      "reco": 1648,
      "wife": 1649,
      "respon": 1650,
      "iddle": 1651,
      "coffe": 1652,
      "shrugged": 1653,
      "barely": 1654,
      "john": 1655,
      "board": 1656,
      "empty": 1657,
      "gging": 1658,
      "thick": 1659,
      "hey": 1660,
      "cial": 1661,
      "ions": 1662,
      "answered": 1663,
      "dar": 1664,
      "cket": 1665,
      "spot": 1666,
      "reed": 1667,
      "sts": 1668,
      "assu": 1669,
      "sometimes": 1670,
      "coffee": 1671,
      "pun": 1672,
      "tongue": 1673,
      "desk": 1674,
      "demon": 1675,
      "figure": 1676,
      "surprised": 1677,
      "sum": 1678,
      "wondered": 1679,
      "remind": 1680,
      "cheek": 1681,
      "fas": 1682,
      "ens": 1683,
      "immediately": 1684,
      "bly": 1685,
      "stup": 1686,
      "emotion": 1687,
      "knows": 1688,
      "sn": 1689,
      "problem": 1690,
      "experi": 1691,
      "bill": 1692,
      "sharp": 1693,
      "colle": 1694,
      "thor": 1695,
      "return": 1696,
      "bey": 1697,
      "middle": 1698,
      "during": 1699,
      "force": 1700,
      "heavy": 1701,
      "uni": 1702,
      "ial": 1703,
      "mid": 1704,
      "draw": 1705,
      "none": 1706,
      "rub": 1707,
      "bered": 1708,
      "ann": 1709,
      "ka": 1710,
      "lady": 1711,
      "selves": 1712,
      "port": 1713,
      "cting": 1714,
      "tar": 1715,
      "aded": 1716,
      "comfor": 1717,
      "bath": 1718,
      "ities": 1719,
      "sic": 1720,
      "iff": 1721,
      "ied": 1722,
      "sco": 1723,
      "drew": 1724,
      "gener": 1725,
      "added": 1726,
      "law": 1727,
      "earth": 1728,
      "although": 1729,
      "liked": 1730,
      "fied": 1731,
      "sand": 1732,
      "nose": 1733,
      "pas": 1734,
      "stupid": 1735,
      "rock": 1736,
      "bal": 1737,
      "finished": 1738,
      "daught": 1739,
      "months": 1740,
      "wearing": 1741,
      "tone": 1742,
      "tt": 1743,
      "capt": 1744,
      "itch": 1745,
      "sir": 1746,
      "admit": 1747,
      "conversation": 1748,
      "ute": 1749,
      "fra": 1750,
      "paper": 1751,
      "headed": 1752,
      "climb": 1753,
      "pulling": 1754,
      "however": 1755,
      "rele": 1756,
      "poli": 1757,
      "wild": 1758,
      "press": 1759,
      "anymore": 1760,
      "relie": 1761,
      "lights": 1762,
      "nick": 1763,
      "mill": 1764,
      "moun": 1765,
      "simply": 1766,
      "number": 1767,
      "cast": 1768,
      "don": 1769,
      "thed": 1770,
      "mark": 1771,
      "unt": 1772,
      "sounded": 1773,
      "inc": 1774,
      "cool": 1775,
      "famili": 1776,
      "inform": 1777,
      "trouble": 1778,
      "tall": 1779,
      "space": 1780,
      "pair": 1781,
      "sal": 1782,
      "ey": 1783,
      "lip": 1784,
      "state": 1785,
      "claim": 1786,
      "crack": 1787,
      "gor": 1788,
      "slightly": 1789,
      "gently": 1790,
      "sie": 1791,
      "except": 1792,
      "--": 1793,
      "mbered": 1794,
      "jac": 1795,
      "knees": 1796,
      "narr": 1797,
      "chu": 1798,
      "tas": 1799,
      "esca": 1800,
      "calm": 1801,
      "fro": 1802,
      "became": 1803,
      "male": 1804,
      "cep": 1805,
      "touched": 1806,
      "important": 1807,
      "wake": 1808,
      "alive": 1809,
      "cially": 1810,
      "iding": 1811,
      "offic": 1812,
      "gent": 1813,
      "ital": 1814,
      "acing": 1815,
      "cles": 1816,
      "fif": 1817,
      "sage": 1818,
      "test": 1819,
      "softly": 1820,
      "shes": 1821,
      "consid": 1822,
      "sad": 1823,
      "group": 1824,
      "morrow": 1825,
      "spent": 1826,
      "broken": 1827,
      "fold": 1828,
      "bedroom": 1829,
      "stret": 1830,
      "sounds": 1831,
      "hus": 1832,
      "pho": 1833,
      "rage": 1834,
      "jen": 1835,
      "recog": 1836,
      "jes": 1837,
      "color": 1838,
      "ahead": 1839,
      "stick": 1840,
      "prof": 1841,
      "ney": 1842,
      "phy": 1843,
      "eight": 1844,
      "sold": 1845,
      "doors": 1846,
      "check": 1847,
      "dinner": 1848,
      "surprise": 1849,
      "position": 1850,
      "brown": 1851,
      "somehow": 1852,
      "heal": 1853,
      "weeks": 1854,
      "tomorrow": 1855,
      "secret": 1856,
      "wrapped": 1857,
      "wants": 1858,
      "hy": 1859,
      "ges": 1860,
      "crazy": 1861,
      "worse": 1862,
      "espe": 1863,
      "tiny": 1864,
      "threat": 1865,
      "glad": 1866,
      "quietly": 1867,
      "ically": 1868,
      "sick": 1869,
      "somewhere": 1870,
      "conne": 1871,
      "hesit": 1872,
      "ards": 1873,
      "worth": 1874,
      "defin": 1875,
      "police": 1876,
      "deser": 1877,
      "follow": 1878,
      "doubt": 1879,
      "single": 1880,
      "col": 1881,
      "piece": 1882,
      "kids": 1883,
      "boo": 1884,
      "daughter": 1885,
      "suit": 1886,
      "especially": 1887,
      "path": 1888,
      "broke": 1889,
      "swall": 1890,
      "rad": 1891,
      "locked": 1892,
      "seconds": 1893,
      "eli": 1894,
      "field": 1895,
      "beth": 1896,
      "tired": 1897,
      "dir": 1898,
      "weak": 1899,
      "darkness": 1900,
      "worried": 1901,
      "ony": 1902,
      "flu": 1903,
      "writ": 1904,
      "pul": 1905,
      "rich": 1906,
      "vision": 1907,
      "pes": 1908,
      "remembered": 1909,
      "squee": 1910,
      "demand": 1911,
      "bull": 1912,
      "lap": 1913,
      "command": 1914,
      "area": 1915,
      "juli": 1916,
      "wore": 1917,
      "takes": 1918,
      "weap": 1919,
      "wolf": 1920,
      "io": 1921,
      "beyond": 1922,
      "sty": 1923,
      "ilt": 1924,
      "rat": 1925,
      "silent": 1926,
      "isa": 1927,
      "managed": 1928,
      "sug": 1929,
      "heat": 1930,
      "explo": 1931,
      "questions": 1932,
      "mention": 1933,
      "tree": 1934,
      "chris": 1935,
      "deli": 1936,
      "spir": 1937,
      "dev": 1938,
      "paused": 1939,
      "threw": 1940,
      "situ": 1941,
      "walls": 1942,
      "mrs": 1943,
      "trees": 1944,
      "game": 1945,
      "information": 1946,
      "means": 1947,
      "sigh": 1948,
      "huge": 1949,
      "rain": 1950,
      "cab": 1951,
      "magic": 1952,
      "wound": 1953,
      "seems": 1954,
      "appear": 1955,
      "comes": 1956,
      "dressed": 1957,
      "stare": 1958,
      "prac": 1959,
      "spread": 1960,
      "suggest": 1961,
      "expected": 1962,
      "dry": 1963,
      "oked": 1964,
      "sett": 1965,
      "lock": 1966,
      "flat": 1967,
      "ative": 1968,
      "forced": 1969,
      "distance": 1970,
      "doctor": 1971,
      "thered": 1972,
      "shaking": 1973,
      "angry": 1974,
      "ron": 1975,
      "ric": 1976,
      "fuck": 1977,
      "bre": 1978,
      "amed": 1979,
      "vice": 1980,
      "inv": 1981,
      "meeting": 1982,
      "eve": 1983,
      "spl": 1984,
      "ith": 1985,
      "forget": 1986,
      "news": 1987,
      "shu": 1988,
      "catch": 1989,
      "firm": 1990,
      "pet": 1991,
      "lier": 1992,
      "listen": 1993,
      "track": 1994,
      "event": 1995,
      "ient": 1996,
      "early": 1997,
      "party": 1998,
      "max": 1999,
      "carry": 2000,
      "playing": 2001,
      "ties": 2002,
      "agreed": 2003,
      "smiling": 2004,
      "aking": 2005,
      "crowd": 2006,
      "ably": 2007,
      "igno": 2008,
      "apo": 2009,
      "wet": 2010,
      "present": 2011,
      "dru": 2012,
      "grace": 2013,
      "rist": 2014,
      "waist": 2015,
      "jaw": 2016,
      "slam": 2017,
      "spect": 2018,
      "bs": 2019,
      "eric": 2020,
      "anim": 2021,
      "pocket": 2022,
      "mbling": 2023,
      "hide": 2024,
      "ener": 2025,
      "kni": 2026,
      "class": 2027,
      "promise": 2028,
      "mel": 2029,
      "chuck": 2030,
      "trans": 2031,
      "mate": 2032,
      "ising": 2033,
      "tel": 2034,
      "keeping": 2035,
      "chin": 2036,
      "brief": 2037,
      "clearly": 2038,
      "rela": 2039,
      "counter": 2040,
      "camp": 2041,
      "cro": 2042,
      "ousand": 2043,
      "thousand": 2044,
      "els": 2045,
      "rence": 2046,
      "surround": 2047
    },
    "merges": [
      [
        "h",
        "e"
      ],
      [
        "i",
        "n"
      ],
      [
        "t",
        "he"
      ],
      [
        "a",
        "n"
      ],
      [
        "r",
        "e"
      ],
      [
        "o",
        "u"
      ],
      [
        "e",
        "d"
      ],
      [
        "t",
        "h"
      ],
      [
        "t",
        "o"
      ],
      [
        "in",
        "g"
      ],
      [
        "a",
        "t"
      ],
      [
        "o",
        "n"
      ],
      [
        "e",
        "r"
      ],
      [
        "a",
        "s"
      ],
      [
        "an",
        "d"
      ],
      [
        "i",
        "s"
      ],
      [
        "e",
        "n"
      ],
      [
        "a",
        "r"
      ],
      [
        "l",
        "l"
      ],
      [
        "i",
        "t"
      ],
      [
        "o",
        "r"
      ],
      [
        "s",
        "t"
      ],
      [
        "m",
        "e"
      ],
      [
        "o",
        "f"
      ],
      [
        "l",
        "e"
      ],
      [
        "`",
        "`"
      ],
      [
        "'",
        "'"
      ],
      [
        "b",
        "e"
      ],
      [
        "h",
        "a"
      ],
      [
        "y",
        "ou"
      ],
      [
        "o",
        "w"
      ],
      [
        "s",
        "e"
      ],
      [
        "i",
        "d"
      ],
      [
        "a",
        "c"
      ],
      [
        "w",
        "as"
      ],
      [
        "he",
        "r"
      ],
      [
        "v",
        "e"
      ],
      [
        "l",
        "d"
      ],
      [
        "r",
        "o"
      ],
      [
        "s",
        "he"
      ],
      [
        "g",
        "h"
      ],
      [
        "l",
        "i"
      ],
      [
        "e",
        "s"
      ],
      [
        "h",
        "is"
      ],
      [
        "w",
        "e"
      ],
      [
        "a",
        "l"
      ],
      [
        "th",
        "at"
      ],
      [
        "l",
        "y"
      ],
      [
        "h",
        "i"
      ],
      [
        "a",
        "y"
      ],
      [
        "w",
        "i"
      ],
      [
        "n",
        "o"
      ],
      [
        "l",
        "o"
      ],
      [
        "a",
        "d"
      ],
      [
        "u",
        "t"
      ],
      [
        "m",
        "y"
      ],
      [
        "a",
        "ll"
      ],
      [
        "v",
        "er"
      ],
      [
        "s",
        "o"
      ],
      [
        "k",
        "e"
      ],
      [
        "f",
        "or"
      ],
      [
        "t",
        "i"
      ],
      [
        "r",
        "i"
      ],
      [
        "gh",
        "t"
      ],
      [
        "ou",
        "t"
      ],
      [
        "w",
        "h"
      ],
      [
        "ou",
        "ld"
      ],
      [
        "c",
        "h"
      ],
      [
        "n",
        "e"
      ],
      [
        "wi",
        "th"
      ],
      [
        "d",
        "o"
      ],
      [
        "i",
        "r"
      ],
      [
        "u",
        "n"
      ],
      [
        "m",
        "o"
      ],
      [
        "ha",
        "d"
      ],
      [
        "c",
        "e"
      ],
      [
        "c",
        "o"
      ],
      [
        "s",
        "a"
      ],
      [
        "g",
        "o"
      ],
      [
        "g",
        "e"
      ],
      [
        "f",
        "e"
      ],
      [
        "en",
        "t"
      ],
      [
        "a",
        "b"
      ],
      [
        "on",
        "e"
      ],
      [
        "b",
        "ut"
      ],
      [
        "u",
        "r"
      ],
      [
        "hi",
        "m"
      ],
      [
        "s",
        "h"
      ],
      [
        "o",
        "k"
      ],
      [
        "u",
        "p"
      ],
      [
        "re",
        "d"
      ],
      [
        "c",
        "k"
      ],
      [
        "the",
        "r"
      ],
      [
        "d",
        "e"
      ],
      [
        "c",
        "a"
      ],
      [
        "t",
        "er"
      ],
      [
        "ac",
        "k"
      ],
      [
        "n",
        "ow"
      ],
      [
        "r",
        "a"
      ],
      [
        "t",
        "e"
      ],
      [
        "th",
        "ing"
      ],
      [
        "p",
        "e"
      ],
      [
        "ou",
        "n"
      ],
      [
        "s",
        "i"
      ],
      [
        "an",
        "t"
      ],
      [
        "wh",
        "at"
      ],
      [
        "no",
        "t"
      ],
      [
        "i",
        "f"
      ],
      [
        "w",
        "he"
      ],
      [
        "a",
        "m"
      ],
      [
        "a",
        "in"
      ],
      [
        "u",
        "s"
      ],
      [
        "o",
        "d"
      ],
      [
        "a",
        "g"
      ],
      [
        "p",
        "p"
      ],
      [
        "ro",
        "m"
      ],
      [
        "u",
        "st"
      ],
      [
        "ha",
        "ve"
      ],
      [
        "sa",
        "id"
      ],
      [
        "w",
        "ay"
      ],
      [
        "the",
        "y"
      ],
      [
        "ar",
        "d"
      ],
      [
        "th",
        "is"
      ],
      [
        "f",
        "rom"
      ],
      [
        "d",
        "id"
      ],
      [
        "oun",
        "d"
      ],
      [
        "a",
        "re"
      ],
      [
        "c",
        "on"
      ],
      [
        "so",
        "me"
      ],
      [
        "i",
        "on"
      ],
      [
        "in",
        "d"
      ],
      [
        "ow",
        "n"
      ],
      [
        "f",
        "o"
      ],
      [
        "c",
        "ould"
      ],
      [
        "b",
        "ack"
      ],
      [
        "s",
        "u"
      ],
      [
        "we",
        "re"
      ],
      [
        "w",
        "ould"
      ],
      [
        "p",
        "o"
      ],
      [
        "lo",
        "ok"
      ],
      [
        "li",
        "ke"
      ],
      [
        "t",
        "ed"
      ],
      [
        "m",
        "an"
      ],
      [
        "m",
        "p"
      ],
      [
        "i",
        "ll"
      ],
      [
        "id",
        "e"
      ],
      [
        "r",
        "y"
      ],
      [
        "h",
        "o"
      ],
      [
        "the",
        "re"
      ],
      [
        "ou",
        "gh"
      ],
      [
        "w",
        "or"
      ],
      [
        ".",
        "."
      ],
      [
        "s",
        "s"
      ],
      [
        "k",
        "now"
      ],
      [
        "m",
        "i"
      ],
      [
        "c",
        "he"
      ],
      [
        "q",
        "u"
      ],
      [
        "j",
        "ust"
      ],
      [
        "b",
        "o"
      ],
      [
        "w",
        "o"
      ],
      [
        "p",
        "l"
      ],
      [
        "e",
        "l"
      ],
      [
        "in",
        "to"
      ],
      [
        "k",
        "ing"
      ],
      [
        "e",
        "x"
      ],
      [
        "k",
        "ed"
      ],
      [
        "whe",
        "n"
      ],
      [
        "r",
        "u"
      ],
      [
        "er",
        "s"
      ],
      [
        "ab",
        "out"
      ],
      [
        "ac",
        "e"
      ],
      [
        "l",
        "a"
      ],
      [
        "an",
        "y"
      ],
      [
        "m",
        "a"
      ],
      [
        "ou",
        "r"
      ],
      [
        "e",
        "ver"
      ],
      [
        "h",
        "and"
      ],
      [
        "all",
        "y"
      ],
      [
        "the",
        "n"
      ],
      [
        "se",
        "e"
      ],
      [
        "y",
        "es"
      ],
      [
        "i",
        "c"
      ],
      [
        "t",
        "a"
      ],
      [
        "g",
        "r"
      ],
      [
        "ge",
        "t"
      ],
      [
        "the",
        "m"
      ],
      [
        "w",
        "ant"
      ],
      [
        "you",
        "r"
      ],
      [
        "o",
        "ver"
      ],
      [
        "ti",
        "me"
      ],
      [
        "l",
        "ed"
      ],
      [
        "e",
        "t"
      ],
      [
        "en",
        "d"
      ],
      [
        "s",
        "to"
      ],
      [
        "at",
        "e"
      ],
      [
        "l",
        "f"
      ],
      [
        "as",
        "t"
      ],
      [
        "v",
        "en"
      ],
      [
        "on",
        "g"
      ],
      [
        "be",
        "en"
      ],
      [
        "e",
        "p"
      ],
      [
        "d",
        "own"
      ],
      [
        "o",
        "p"
      ],
      [
        "b",
        "y"
      ],
      [
        "o",
        "ther"
      ],
      [
        "n",
        "i"
      ],
      [
        "u",
        "l"
      ],
      [
        "ar",
        "t"
      ],
      [
        "s",
        "p"
      ],
      [
        "he",
        "ad"
      ],
      [
        "f",
        "i"
      ],
      [
        "wh",
        "o"
      ],
      [
        "ag",
        "ain"
      ],
      [
        "h",
        "ow"
      ],
      [
        "m",
        "ent"
      ],
      [
        "ur",
        "n"
      ],
      [
        "g",
        "u"
      ],
      [
        "t",
        "ing"
      ],
      [
        "ou",
        "s"
      ],
      [
        "mo",
        "re"
      ],
      [
        "at",
        "ion"
      ],
      [
        "in",
        "k"
      ],
      [
        "fo",
        "re"
      ],
      [
        "c",
        "an"
      ],
      [
        "s",
        "ide"
      ],
      [
        "b",
        "l"
      ],
      [
        "n",
        "t"
      ],
      [
        "e",
        "yes"
      ],
      [
        "in",
        "e"
      ],
      [
        "th",
        "an"
      ],
      [
        "ti",
        "on"
      ],
      [
        "ri",
        "ght"
      ],
      [
        "u",
        "ll"
      ],
      [
        "p",
        "re"
      ],
      [
        "of",
        "f"
      ],
      [
        "is",
        "t"
      ],
      [
        "y",
        "e"
      ],
      [
        "m",
        "b"
      ],
      [
        "a",
        "f"
      ],
      [
        "t",
        "urn"
      ],
      [
        "se",
        "lf"
      ],
      [
        "d",
        "er"
      ],
      [
        "ou",
        "ght"
      ],
      [
        "ne",
        "w"
      ],
      [
        "pp",
        "ed"
      ],
      [
        "u",
        "se"
      ],
      [
        "p",
        "ro"
      ],
      [
        "th",
        "r"
      ],
      [
        "i",
        "m"
      ],
      [
        "es",
        "s"
      ],
      [
        "p",
        "er"
      ],
      [
        "o",
        "m"
      ],
      [
        "he",
        "d"
      ],
      [
        "e",
        "ven"
      ],
      [
        "i",
        "l"
      ],
      [
        "the",
        "ir"
      ],
      [
        "w",
        "hi"
      ],
      [
        "re",
        "a"
      ],
      [
        "v",
        "ed"
      ],
      [
        "n",
        "a"
      ],
      [
        "b",
        "r"
      ],
      [
        "ar",
        "m"
      ],
      [
        "he",
        "re"
      ],
      [
        "be",
        "fore"
      ],
      [
        "s",
        "c"
      ],
      [
        "m",
        "u"
      ],
      [
        "ever",
        "y"
      ],
      [
        "ar",
        "ound"
      ],
      [
        "wi",
        "ll"
      ],
      [
        "s",
        "ay"
      ],
      [
        "go",
        "ing"
      ],
      [
        "..",
        "."
      ],
      [
        "le",
        "t"
      ],
      [
        "c",
        "lo"
      ],
      [
        "v",
        "i"
      ],
      [
        "v",
        "ing"
      ],
      [
        "ab",
        "le"
      ],
      [
        "d",
        "i"
      ],
      [
        "an",
        "g"
      ],
      [
        "c",
        "t"
      ],
      [
        "d",
        "ay"
      ],
      [
        "t",
        "le"
      ],
      [
        "g",
        "a"
      ],
      [
        "p",
        "s"
      ],
      [
        "th",
        "ink"
      ],
      [
        "on",
        "ly"
      ],
      [
        "ad",
        "e"
      ],
      [
        "whe",
        "re"
      ],
      [
        "thr",
        "ough"
      ],
      [
        "g",
        "i"
      ],
      [
        "ne",
        "ed"
      ],
      [
        "l",
        "it"
      ],
      [
        "to",
        "o"
      ],
      [
        "w",
        "a"
      ],
      [
        "look",
        "ed"
      ],
      [
        "as",
        "s"
      ],
      [
        "co",
        "me"
      ],
      [
        "t",
        "y"
      ],
      [
        "w",
        "ard"
      ],
      [
        "v",
        "o"
      ],
      [
        "ro",
        "om"
      ],
      [
        "f",
        "ace"
      ],
      [
        "g",
        "l"
      ],
      [
        "m",
        "ed"
      ],
      [
        "th",
        "ought"
      ],
      [
        "it",
        "e"
      ],
      [
        "i",
        "ck"
      ],
      [
        "re",
        "ad"
      ],
      [
        "sh",
        "ould"
      ],
      [
        "a",
        "way"
      ],
      [
        "st",
        "ill"
      ],
      [
        "af",
        "ter"
      ],
      [
        "l",
        "ong"
      ],
      [
        "ac",
        "h"
      ],
      [
        "l",
        "t"
      ],
      [
        "co",
        "m"
      ],
      [
        "do",
        "or"
      ],
      [
        "b",
        "le"
      ],
      [
        "some",
        "thing"
      ],
      [
        "go",
        "t"
      ],
      [
        "t",
        "r"
      ],
      [
        "we",
        "ll"
      ],
      [
        "sh",
        "o"
      ],
      [
        "u",
        "re"
      ],
      [
        "ne",
        "ver"
      ],
      [
        "c",
        "l"
      ],
      [
        "p",
        "a"
      ],
      [
        "ar",
        "s"
      ],
      [
        "w",
        "at"
      ],
      [
        "ac",
        "t"
      ],
      [
        "go",
        "od"
      ],
      [
        "f",
        "a"
      ],
      [
        "t",
        "en"
      ],
      [
        "j",
        "o"
      ],
      [
        "it",
        "y"
      ],
      [
        "an",
        "s"
      ],
      [
        "re",
        "e"
      ],
      [
        "be",
        "ca"
      ],
      [
        "at",
        "ed"
      ],
      [
        "it",
        "s"
      ],
      [
        "on",
        "t"
      ],
      [
        "fe",
        "el"
      ],
      [
        "li",
        "ght"
      ],
      [
        "as",
        "ked"
      ],
      [
        "en",
        "ed"
      ],
      [
        "ni",
        "ght"
      ],
      [
        "f",
        "r"
      ],
      [
        "m",
        "ar"
      ],
      [
        "s",
        "ed"
      ],
      [
        "p",
        "r"
      ],
      [
        "l",
        "ow"
      ],
      [
        "t",
        "wo"
      ],
      [
        "be",
        "t"
      ],
      [
        "f",
        "ir"
      ],
      [
        "che",
        "d"
      ],
      [
        "b",
        "ed"
      ],
      [
        "t",
        "al"
      ],
      [
        "d",
        "is"
      ],
      [
        "i",
        "ce"
      ],
      [
        "te",
        "ll"
      ],
      [
        "st",
        "e"
      ],
      [
        "s",
        "mi"
      ],
      [
        "m",
        "ade"
      ],
      [
        "an",
        "ce"
      ],
      [
        "mo",
        "st"
      ],
      [
        "wh",
        "y"
      ],
      [
        "mu",
        "ch"
      ],
      [
        "g",
        "re"
      ],
      [
        "f",
        "t"
      ],
      [
        "i",
        "g"
      ],
      [
        "c",
        "ar"
      ],
      [
        "a",
        "p"
      ],
      [
        "d",
        "d"
      ],
      [
        "beca",
        "use"
      ],
      [
        "su",
        "re"
      ],
      [
        "c",
        "le"
      ],
      [
        "ta",
        "ke"
      ],
      [
        "k",
        "new"
      ],
      [
        "b",
        "rea"
      ],
      [
        "turn",
        "ed"
      ],
      [
        "n",
        "ing"
      ],
      [
        "lit",
        "tle"
      ],
      [
        "c",
        "all"
      ],
      [
        "b",
        "od"
      ],
      [
        "ri",
        "ed"
      ],
      [
        "w",
        "al"
      ],
      [
        "or",
        "t"
      ],
      [
        "ma",
        "ke"
      ],
      [
        "c",
        "ha"
      ],
      [
        "un",
        "der"
      ],
      [
        "ha",
        "pp"
      ],
      [
        "c",
        "i"
      ],
      [
        "li",
        "e"
      ],
      [
        "m",
        "or"
      ],
      [
        "c",
        "ed"
      ],
      [
        "s",
        "hi"
      ],
      [
        "f",
        "in"
      ],
      [
        "m",
        "ay"
      ],
      [
        "k",
        "s"
      ],
      [
        "b",
        "u"
      ],
      [
        "d",
        "s"
      ],
      [
        "he",
        "l"
      ],
      [
        "p",
        "le"
      ],
      [
        "as",
        "e"
      ],
      [
        "m",
        "on"
      ],
      [
        "fir",
        "st"
      ],
      [
        "to",
        "r"
      ],
      [
        "m",
        "en"
      ],
      [
        "g",
        "g"
      ],
      [
        "l",
        "u"
      ],
      [
        "t",
        "ry"
      ],
      [
        "p",
        "t"
      ],
      [
        "h",
        "u"
      ],
      [
        "bod",
        "y"
      ],
      [
        "ve",
        "s"
      ],
      [
        "fe",
        "lt"
      ],
      [
        "s",
        "pe"
      ],
      [
        "s",
        "er"
      ],
      [
        "i",
        "e"
      ],
      [
        "m",
        "in"
      ],
      [
        "want",
        "ed"
      ],
      [
        "s",
        "it"
      ],
      [
        "st",
        "and"
      ],
      [
        "to",
        "ok"
      ],
      [
        "z",
        "e"
      ],
      [
        "ar",
        "k"
      ],
      [
        "p",
        "ull"
      ],
      [
        "co",
        "mp"
      ],
      [
        "d",
        "es"
      ],
      [
        "qu",
        "e"
      ],
      [
        "s",
        "k"
      ],
      [
        "s",
        "ha"
      ],
      [
        "w",
        "ent"
      ],
      [
        "con",
        "t"
      ],
      [
        "si",
        "on"
      ],
      [
        "h",
        "as"
      ],
      [
        "hand",
        "s"
      ],
      [
        "o",
        "l"
      ],
      [
        "re",
        "ally"
      ],
      [
        "s",
        "ur"
      ],
      [
        "o",
        "se"
      ],
      [
        "ver",
        "y"
      ],
      [
        "t",
        "s"
      ],
      [
        "re",
        "st"
      ],
      [
        "m",
        "is"
      ],
      [
        "le",
        "s"
      ],
      [
        "us",
        "ed"
      ],
      [
        "a",
        "red"
      ],
      [
        "again",
        "st"
      ],
      [
        "vo",
        "ice"
      ],
      [
        "m",
        "ind"
      ],
      [
        "le",
        "a"
      ],
      [
        "p",
        "ut"
      ],
      [
        "en",
        "ce"
      ],
      [
        "re",
        "n"
      ],
      [
        "li",
        "fe"
      ],
      [
        "m",
        "at"
      ],
      [
        "is",
        "h"
      ],
      [
        "th",
        "ough"
      ],
      [
        "l",
        "ing"
      ],
      [
        "le",
        "ss"
      ],
      [
        "h",
        "ard"
      ],
      [
        "pe",
        "op"
      ],
      [
        "ca",
        "me"
      ],
      [
        "st",
        "ar"
      ],
      [
        "whi",
        "le"
      ],
      [
        "whi",
        "ch"
      ],
      [
        "read",
        "y"
      ],
      [
        "le",
        "ft"
      ],
      [
        "d",
        "re"
      ],
      [
        "to",
        "ld"
      ],
      [
        "peop",
        "le"
      ],
      [
        "n",
        "ed"
      ],
      [
        "an",
        "other"
      ],
      [
        "n",
        "er"
      ],
      [
        "b",
        "ro"
      ],
      [
        "is",
        "e"
      ],
      [
        "s",
        "m"
      ],
      [
        "a",
        "h"
      ],
      [
        "p",
        "h"
      ],
      [
        "l",
        "ast"
      ],
      [
        "c",
        "or"
      ],
      [
        "wa",
        "it"
      ],
      [
        "a",
        "th"
      ],
      [
        "c",
        "r"
      ],
      [
        "ck",
        "ed"
      ],
      [
        "ro",
        "ss"
      ],
      [
        "fe",
        "w"
      ],
      [
        "f",
        "ind"
      ],
      [
        "c",
        "re"
      ],
      [
        "a",
        "ir"
      ],
      [
        "hel",
        "p"
      ],
      [
        "f",
        "ul"
      ],
      [
        "ou",
        "se"
      ],
      [
        "b",
        "lo"
      ],
      [
        "in",
        "t"
      ],
      [
        "any",
        "thing"
      ],
      [
        "c",
        "hi"
      ],
      [
        "way",
        "s"
      ],
      [
        "ke",
        "ep"
      ],
      [
        "mo",
        "ment"
      ],
      [
        "be",
        "ing"
      ],
      [
        "h",
        "ind"
      ],
      [
        "ch",
        "o"
      ],
      [
        "ti",
        "c"
      ],
      [
        "ti",
        "l"
      ],
      [
        "t",
        "ra"
      ],
      [
        "f",
        "ri"
      ],
      [
        "no",
        "thing"
      ],
      [
        "ow",
        "ed"
      ],
      [
        "se",
        "t"
      ],
      [
        "st",
        "r"
      ],
      [
        "be",
        "hind"
      ],
      [
        "st",
        "u"
      ],
      [
        "to",
        "n"
      ],
      [
        "en",
        "ough"
      ],
      [
        "to",
        "ward"
      ],
      [
        "do",
        "es"
      ],
      [
        "p",
        "u"
      ],
      [
        "mi",
        "ght"
      ],
      [
        "sa",
        "w"
      ],
      [
        "f",
        "ull"
      ],
      [
        "la",
        "u"
      ],
      [
        "r",
        "un"
      ],
      [
        "o",
        "ld"
      ],
      [
        "p",
        "art"
      ],
      [
        "i",
        "ly"
      ],
      [
        "x",
        "t"
      ],
      [
        "f",
        "ing"
      ],
      [
        "lo",
        "ve"
      ],
      [
        "j",
        "e"
      ],
      [
        "i",
        "es"
      ],
      [
        "j",
        "u"
      ],
      [
        "z",
        "ed"
      ],
      [
        "h",
        "ouse"
      ],
      [
        "g",
        "ir"
      ],
      [
        "op",
        "en"
      ],
      [
        "s",
        "ound"
      ],
      [
        "be",
        "g"
      ],
      [
        "c",
        "ur"
      ],
      [
        "d",
        "ark"
      ],
      [
        "thing",
        "s"
      ],
      [
        "a",
        "ge"
      ],
      [
        "fri",
        "end"
      ],
      [
        "t",
        "ru"
      ],
      [
        "un",
        "til"
      ],
      [
        "an",
        "ge"
      ],
      [
        "ou",
        "th"
      ],
      [
        "m",
        "er"
      ],
      [
        "a",
        "pp"
      ],
      [
        "may",
        "be"
      ],
      [
        "ha",
        "ir"
      ],
      [
        "f",
        "f"
      ],
      [
        "th",
        "ose"
      ],
      [
        "pl",
        "ace"
      ],
      [
        "ca",
        "re"
      ],
      [
        "c",
        "tion"
      ],
      [
        "look",
        "ing"
      ],
      [
        "in",
        "ce"
      ],
      [
        "b",
        "ab"
      ],
      [
        "h",
        "un"
      ],
      [
        "mb",
        "er"
      ],
      [
        "d",
        "ra"
      ],
      [
        "on",
        "ce"
      ],
      [
        "e",
        "ar"
      ],
      [
        "w",
        "r"
      ],
      [
        "s",
        "ing"
      ],
      [
        "p",
        "i"
      ],
      [
        "t",
        "re"
      ],
      [
        "b",
        "it"
      ],
      [
        "p",
        "ar"
      ],
      [
        "ch",
        "ing"
      ],
      [
        "ho",
        "ld"
      ],
      [
        "d",
        "a"
      ],
      [
        "wor",
        "k"
      ],
      [
        "p",
        "ed"
      ],
      [
        "n",
        "ess"
      ],
      [
        "u",
        "e"
      ],
      [
        "c",
        "er"
      ],
      [
        "se",
        "s"
      ],
      [
        "bo",
        "th"
      ],
      [
        "gir",
        "l"
      ],
      [
        "ho",
        "me"
      ],
      [
        "w",
        "all"
      ],
      [
        "fr",
        "ont"
      ],
      [
        "at",
        "ing"
      ],
      [
        "al",
        "ways"
      ],
      [
        "s",
        "en"
      ],
      [
        "o",
        "h"
      ],
      [
        "ne",
        "xt"
      ],
      [
        "a",
        "k"
      ],
      [
        "si",
        "l"
      ],
      [
        "m",
        "s"
      ],
      [
        "i",
        "ous"
      ],
      [
        "f",
        "l"
      ],
      [
        "f",
        "ound"
      ],
      [
        "k",
        "ill"
      ],
      [
        "f",
        "lo"
      ],
      [
        "s",
        "at"
      ],
      [
        "m",
        "outh"
      ],
      [
        "j",
        "a"
      ],
      [
        "in",
        "side"
      ],
      [
        "s",
        "l"
      ],
      [
        "with",
        "out"
      ],
      [
        "fa",
        "ther"
      ],
      [
        "mo",
        "ther"
      ],
      [
        "k",
        "en"
      ],
      [
        "she",
        "d"
      ],
      [
        "t",
        "able"
      ],
      [
        "gi",
        "ve"
      ],
      [
        "he",
        "art"
      ],
      [
        "blo",
        "od"
      ],
      [
        "arm",
        "s"
      ],
      [
        "wo",
        "man"
      ],
      [
        "sa",
        "me"
      ],
      [
        "n",
        "or"
      ],
      [
        "i",
        "ght"
      ],
      [
        "every",
        "thing"
      ],
      [
        "u",
        "ally"
      ],
      [
        "s",
        "up"
      ],
      [
        "some",
        "one"
      ],
      [
        "him",
        "self"
      ],
      [
        "he",
        "ard"
      ],
      [
        "ar",
        "y"
      ],
      [
        "c",
        "ent"
      ],
      [
        "*",
        "*"
      ],
      [
        "sm",
        "all"
      ],
      [
        "me",
        "an"
      ],
      [
        "w",
        "ind"
      ],
      [
        "t",
        "ain"
      ],
      [
        "pre",
        "s"
      ],
      [
        "c",
        "our"
      ],
      [
        "try",
        "ing"
      ],
      [
        "bet",
        "ter"
      ],
      [
        "d",
        "ri"
      ],
      [
        "pull",
        "ed"
      ],
      [
        "c",
        "ted"
      ],
      [
        "be",
        "lie"
      ],
      [
        "we",
        "en"
      ],
      [
        "he",
        "ar"
      ],
      [
        "k",
        "is"
      ],
      [
        "bet",
        "ween"
      ],
      [
        "e",
        "ach"
      ],
      [
        "y",
        "s"
      ],
      [
        "bl",
        "ack"
      ],
      [
        "ss",
        "ed"
      ],
      [
        "see",
        "med"
      ],
      [
        "i",
        "mp"
      ],
      [
        "f",
        "am"
      ],
      [
        "as",
        "h"
      ],
      [
        "is",
        "ed"
      ],
      [
        "si",
        "g"
      ],
      [
        "re",
        "s"
      ],
      [
        "c",
        "oun"
      ],
      [
        "s",
        "ince"
      ],
      [
        "smi",
        "le"
      ],
      [
        "se",
        "con"
      ],
      [
        "p",
        "ers"
      ],
      [
        "d",
        "u"
      ],
      [
        "s",
        "we"
      ],
      [
        "de",
        "ep"
      ],
      [
        "ac",
        "hed"
      ],
      [
        "d",
        "ro"
      ],
      [
        "st",
        "re"
      ],
      [
        "qu",
        "i"
      ],
      [
        "k",
        "es"
      ],
      [
        "ac",
        "ross"
      ],
      [
        "f",
        "ar"
      ],
      [
        "h",
        "ur"
      ],
      [
        "o",
        "b"
      ],
      [
        "p",
        "ain"
      ],
      [
        "in",
        "s"
      ],
      [
        "s",
        "low"
      ],
      [
        "pp",
        "ing"
      ],
      [
        "my",
        "self"
      ],
      [
        "wor",
        "ds"
      ],
      [
        "th",
        "ree"
      ],
      [
        "w",
        "on"
      ],
      [
        "al",
        "ready"
      ],
      [
        "k",
        "ind"
      ],
      [
        "clo",
        "se"
      ],
      [
        "pl",
        "ay"
      ],
      [
        "ga",
        "ve"
      ],
      [
        "star",
        "ted"
      ],
      [
        "ow",
        "s"
      ],
      [
        "al",
        "most"
      ],
      [
        "g",
        "s"
      ],
      [
        "l",
        "and"
      ],
      [
        "brea",
        "th"
      ],
      [
        "lo",
        "t"
      ],
      [
        "qu",
        "ick"
      ],
      [
        "li",
        "ps"
      ],
      [
        "que",
        "st"
      ],
      [
        "wor",
        "ld"
      ],
      [
        "d",
        "ont"
      ],
      [
        "ye",
        "ars"
      ],
      [
        "s",
        "le"
      ],
      [
        "st",
        "ay"
      ],
      [
        "d",
        "one"
      ],
      [
        "no",
        "dd"
      ],
      [
        "m",
        "ust"
      ],
      [
        "sto",
        "od"
      ],
      [
        "re",
        "me"
      ],
      [
        "u",
        "ght"
      ],
      [
        "o",
        "t"
      ],
      [
        "as",
        "on"
      ],
      [
        "s",
        "or"
      ],
      [
        "v",
        "is"
      ],
      [
        "an",
        "e"
      ],
      [
        "d",
        "r"
      ],
      [
        "b",
        "ar"
      ],
      [
        "el",
        "se"
      ],
      [
        "do",
        "ing"
      ],
      [
        "he",
        "ll"
      ],
      [
        "ok",
        "ay"
      ],
      [
        "c",
        "al"
      ],
      [
        "g",
        "er"
      ],
      [
        "fo",
        "ll"
      ],
      [
        "po",
        "s"
      ],
      [
        "t",
        "ri"
      ],
      [
        "com",
        "ing"
      ],
      [
        "sto",
        "p"
      ],
      [
        "t",
        "ou"
      ],
      [
        "ap",
        "pe"
      ],
      [
        "to",
        "ge"
      ],
      [
        "toge",
        "ther"
      ],
      [
        "t",
        "ried"
      ],
      [
        "w",
        "ar"
      ],
      [
        "na",
        "me"
      ],
      [
        "wal",
        "ked"
      ],
      [
        "s",
        "of"
      ],
      [
        "b",
        "ig"
      ],
      [
        "e",
        "v"
      ],
      [
        "w",
        "his"
      ],
      [
        "ing",
        "s"
      ],
      [
        "d",
        "am"
      ],
      [
        "at",
        "er"
      ],
      [
        "an",
        "k"
      ],
      [
        "st",
        "ep"
      ],
      [
        "min",
        "ut"
      ],
      [
        "se",
        "en"
      ],
      [
        "re",
        "p"
      ],
      [
        "en",
        "e"
      ],
      [
        "de",
        "c"
      ],
      [
        "ow",
        "er"
      ],
      [
        "fe",
        "et"
      ],
      [
        "nodd",
        "ed"
      ],
      [
        "on",
        "d"
      ],
      [
        "he",
        "ld"
      ],
      [
        "did",
        "nt"
      ],
      [
        "as",
        "k"
      ],
      [
        "man",
        "y"
      ],
      [
        "ne",
        "ar"
      ],
      [
        "st",
        "art"
      ],
      [
        "mo",
        "ve"
      ],
      [
        "f",
        "u"
      ],
      [
        "ro",
        "ll"
      ],
      [
        "ow",
        "ing"
      ],
      [
        "wat",
        "er"
      ],
      [
        "d",
        "if"
      ],
      [
        "th",
        "in"
      ],
      [
        "i",
        "ve"
      ],
      [
        "e",
        "k"
      ],
      [
        "the",
        "se"
      ],
      [
        "time",
        "s"
      ],
      [
        "re",
        "al"
      ],
      [
        "gg",
        "ed"
      ],
      [
        "flo",
        "or"
      ],
      [
        "h",
        "or"
      ],
      [
        "s",
        "po"
      ],
      [
        "t",
        "u"
      ],
      [
        "mo",
        "ved"
      ],
      [
        "sc",
        "re"
      ],
      [
        "l",
        "ar"
      ],
      [
        "w",
        "n"
      ],
      [
        "quest",
        "ion"
      ],
      [
        "c",
        "ou"
      ],
      [
        "c",
        "es"
      ],
      [
        "tal",
        "k"
      ],
      [
        "y",
        "et"
      ],
      [
        "ke",
        "t"
      ],
      [
        "b",
        "ad"
      ],
      [
        "say",
        "s"
      ],
      [
        "for",
        "m"
      ],
      [
        "lea",
        "ve"
      ],
      [
        "m",
        "r"
      ],
      [
        "te",
        "red"
      ],
      [
        "smi",
        "led"
      ],
      [
        "g",
        "one"
      ],
      [
        "f",
        "all"
      ],
      [
        "che",
        "st"
      ],
      [
        "s",
        "on"
      ],
      [
        "in",
        "ter"
      ],
      [
        "in",
        "ed"
      ],
      [
        "l",
        "or"
      ],
      [
        "e",
        "as"
      ],
      [
        "call",
        "ed"
      ],
      [
        "n",
        "u"
      ],
      [
        "c",
        "ra"
      ],
      [
        "e",
        "f"
      ],
      [
        "her",
        "self"
      ],
      [
        "wor",
        "d"
      ],
      [
        "get",
        "ting"
      ],
      [
        "fing",
        "ers"
      ],
      [
        "ar",
        "r"
      ],
      [
        "ad",
        "d"
      ],
      [
        "h",
        "our"
      ],
      [
        "need",
        "ed"
      ],
      [
        "to",
        "p"
      ],
      [
        "full",
        "y"
      ],
      [
        "ha",
        "lf"
      ],
      [
        "rea",
        "li"
      ],
      [
        "beg",
        "an"
      ],
      [
        "p",
        "ri"
      ],
      [
        "b",
        "er"
      ],
      [
        "e",
        "red"
      ],
      [
        "ph",
        "one"
      ],
      [
        "w",
        "er"
      ],
      [
        "r",
        "an"
      ],
      [
        "al",
        "so"
      ],
      [
        "st",
        "ra"
      ],
      [
        "p",
        "ass"
      ],
      [
        "ac",
        "ed"
      ],
      [
        "le",
        "an"
      ],
      [
        "re",
        "nt"
      ],
      [
        "i",
        "ther"
      ],
      [
        "c",
        "as"
      ],
      [
        "gr",
        "ound"
      ],
      [
        "li",
        "ve"
      ],
      [
        "de",
        "ad"
      ],
      [
        "is",
        "hed"
      ],
      [
        "ar",
        "ing"
      ],
      [
        "sho",
        "ok"
      ],
      [
        "cour",
        "se"
      ],
      [
        "al",
        "ong"
      ],
      [
        "ye",
        "ah"
      ],
      [
        "chi",
        "ld"
      ],
      [
        "so",
        "on"
      ],
      [
        "ate",
        "ly"
      ],
      [
        "secon",
        "d"
      ],
      [
        "pro",
        "bab"
      ],
      [
        "d",
        "ist"
      ],
      [
        "me",
        "s"
      ],
      [
        "pl",
        "an"
      ],
      [
        "fin",
        "ally"
      ],
      [
        "n",
        "y"
      ],
      [
        "probab",
        "ly"
      ],
      [
        "p",
        "ick"
      ],
      [
        "m",
        "ain"
      ],
      [
        "g",
        "ed"
      ],
      [
        "dd",
        "en"
      ],
      [
        "pre",
        "t"
      ],
      [
        "p",
        "ast"
      ],
      [
        "c",
        "ut"
      ],
      [
        "go",
        "d"
      ],
      [
        "bo",
        "y"
      ],
      [
        "su",
        "ch"
      ],
      [
        "at",
        "t"
      ],
      [
        "r",
        "is"
      ],
      [
        "su",
        "dden"
      ],
      [
        "ste",
        "ad"
      ],
      [
        "pos",
        "si"
      ],
      [
        "gr",
        "ab"
      ],
      [
        "c",
        "u"
      ],
      [
        "pers",
        "on"
      ],
      [
        "f",
        "le"
      ],
      [
        "s",
        "id"
      ],
      [
        "le",
        "ast"
      ],
      [
        "ent",
        "ly"
      ],
      [
        "happ",
        "ened"
      ],
      [
        "hi",
        "gh"
      ],
      [
        "m",
        "it"
      ],
      [
        "be",
        "st"
      ],
      [
        "cont",
        "in"
      ],
      [
        "g",
        "ri"
      ],
      [
        "s",
        "un"
      ],
      [
        "c",
        "us"
      ],
      [
        "re",
        "ached"
      ],
      [
        "e",
        "ye"
      ],
      [
        "gre",
        "at"
      ],
      [
        "p",
        "at"
      ],
      [
        "fi",
        "re"
      ],
      [
        "belie",
        "ve"
      ],
      [
        "sor",
        "ry"
      ],
      [
        "ch",
        "ar"
      ],
      [
        "i",
        "a"
      ],
      [
        "sk",
        "in"
      ],
      [
        "ang",
        "er"
      ],
      [
        "st",
        "ru"
      ],
      [
        "are",
        "nt"
      ],
      [
        "ma",
        "king"
      ],
      [
        "wh",
        "ite"
      ],
      [
        "ti",
        "ght"
      ],
      [
        "st",
        "er"
      ],
      [
        "l",
        "ater"
      ],
      [
        "c",
        "li"
      ],
      [
        "d",
        "an"
      ],
      [
        "sto",
        "pped"
      ],
      [
        "c",
        "y"
      ],
      [
        "feel",
        "ing"
      ],
      [
        "sof",
        "t"
      ],
      [
        "id",
        "d"
      ],
      [
        "sur",
        "pr"
      ],
      [
        "ta",
        "king"
      ],
      [
        "ter",
        "s"
      ],
      [
        "op",
        "ened"
      ],
      [
        "s",
        "y"
      ],
      [
        "under",
        "stand"
      ],
      [
        "l",
        "ist"
      ],
      [
        "he",
        "a"
      ],
      [
        "ll",
        "e"
      ],
      [
        "c",
        "la"
      ],
      [
        "hu",
        "man"
      ],
      [
        "any",
        "one"
      ],
      [
        "me",
        "et"
      ],
      [
        "m",
        "ag"
      ],
      [
        "b",
        "us"
      ],
      [
        "fam",
        "ily"
      ],
      [
        "reme",
        "mber"
      ],
      [
        "ck",
        "ing"
      ],
      [
        "p",
        "ower"
      ],
      [
        "te",
        "mp"
      ],
      [
        "sle",
        "ep"
      ],
      [
        "every",
        "one"
      ],
      [
        "fi",
        "ght"
      ],
      [
        "ide",
        "a"
      ],
      [
        "di",
        "re"
      ],
      [
        "m",
        "ine"
      ],
      [
        "en",
        "ti"
      ],
      [
        "bro",
        "ther"
      ],
      [
        "l",
        "s"
      ],
      [
        "for",
        "ward"
      ],
      [
        "c",
        "at"
      ],
      [
        "ne",
        "ck"
      ],
      [
        "mor",
        "ning"
      ],
      [
        "should",
        "er"
      ],
      [
        "b",
        "ri"
      ],
      [
        "dif",
        "fe"
      ],
      [
        "day",
        "s"
      ],
      [
        "s",
        "li"
      ],
      [
        "re",
        "ason"
      ],
      [
        "bo",
        "ok"
      ],
      [
        "happ",
        "en"
      ],
      [
        "f",
        "ted"
      ],
      [
        "ou",
        "d"
      ],
      [
        "ke",
        "pt"
      ],
      [
        "gl",
        "an"
      ],
      [
        "g",
        "ra"
      ],
      [
        "comp",
        "le"
      ],
      [
        "cle",
        "ar"
      ],
      [
        "ver",
        "s"
      ],
      [
        "f",
        "act"
      ],
      [
        "fe",
        "ct"
      ],
      [
        "he",
        "s"
      ],
      [
        "de",
        "red"
      ],
      [
        "l",
        "ine"
      ],
      [
        "id",
        "ed"
      ],
      [
        "m",
        "as"
      ],
      [
        "you",
        "n"
      ],
      [
        "i",
        "an"
      ],
      [
        "quick",
        "ly"
      ],
      [
        "a",
        "u"
      ],
      [
        "f",
        "our"
      ],
      [
        "ve",
        "red"
      ],
      [
        "mo",
        "m"
      ],
      [
        "th",
        "ro"
      ],
      [
        "d",
        "y"
      ],
      [
        "g",
        "en"
      ],
      [
        "h",
        "it"
      ],
      [
        "p",
        "ic"
      ],
      [
        "al",
        "one"
      ],
      [
        "gu",
        "y"
      ],
      [
        "f",
        "re"
      ],
      [
        "on",
        "to"
      ],
      [
        "c",
        "ess"
      ],
      [
        "gu",
        "e"
      ],
      [
        "clo",
        "sed"
      ],
      [
        "wal",
        "k"
      ],
      [
        "l",
        "in"
      ],
      [
        "qui",
        "et"
      ],
      [
        "a",
        "w"
      ],
      [
        "slow",
        "ly"
      ],
      [
        "ha",
        "ll"
      ],
      [
        "a",
        "ut"
      ],
      [
        "m",
        "ur"
      ],
      [
        "b",
        "or"
      ],
      [
        "a",
        "le"
      ],
      [
        "f",
        "ine"
      ],
      [
        "me",
        "t"
      ],
      [
        "ha",
        "ving"
      ],
      [
        "che",
        "s"
      ],
      [
        "thin",
        "king"
      ],
      [
        "wr",
        "ong"
      ],
      [
        "er",
        "ing"
      ],
      [
        "e",
        "mp"
      ],
      [
        "u",
        "al"
      ],
      [
        "n",
        "at"
      ],
      [
        "z",
        "z"
      ],
      [
        "t",
        "w"
      ],
      [
        "ple",
        "ase"
      ],
      [
        "f",
        "ill"
      ],
      [
        "ex",
        "pe"
      ],
      [
        "fe",
        "ll"
      ],
      [
        "hur",
        "t"
      ],
      [
        "b",
        "ra"
      ],
      [
        "lau",
        "gh"
      ],
      [
        "li",
        "ed"
      ],
      [
        "co",
        "ld"
      ],
      [
        "st",
        "ared"
      ],
      [
        "ans",
        "wer"
      ],
      [
        "u",
        "m"
      ],
      [
        "tal",
        "king"
      ],
      [
        "d",
        "ou"
      ],
      [
        "m",
        "and"
      ],
      [
        "v",
        "am"
      ],
      [
        "w",
        "arm"
      ],
      [
        "wat",
        "ched"
      ],
      [
        "l",
        "ay"
      ],
      [
        "ho",
        "pe"
      ],
      [
        "e",
        "ither"
      ],
      [
        "po",
        "int"
      ],
      [
        "pro",
        "te"
      ],
      [
        "p",
        "ing"
      ],
      [
        "minut",
        "es"
      ],
      [
        "end",
        "ed"
      ],
      [
        "li",
        "c"
      ],
      [
        "pl",
        "ain"
      ],
      [
        "f",
        "un"
      ],
      [
        "be",
        "aut"
      ],
      [
        "no",
        "ti"
      ],
      [
        "mat",
        "ter"
      ],
      [
        "act",
        "ually"
      ],
      [
        "cer",
        "tain"
      ],
      [
        "out",
        "side"
      ],
      [
        "ous",
        "ly"
      ],
      [
        "p",
        "ter"
      ],
      [
        "won",
        "der"
      ],
      [
        "mo",
        "tion"
      ],
      [
        "cha",
        "ir"
      ],
      [
        "d",
        "ad"
      ],
      [
        "g",
        "hed"
      ],
      [
        "i",
        "ld"
      ],
      [
        "sudden",
        "ly"
      ],
      [
        "s",
        "is"
      ],
      [
        "ck",
        "s"
      ],
      [
        "re",
        "sp"
      ],
      [
        "g",
        "un"
      ],
      [
        "ll",
        "y"
      ],
      [
        "lo",
        "st"
      ],
      [
        "in",
        "ess"
      ],
      [
        "stand",
        "ing"
      ],
      [
        "ti",
        "ve"
      ],
      [
        "r",
        "ing"
      ],
      [
        "p",
        "ur"
      ],
      [
        "gu",
        "ard"
      ],
      [
        "pe",
        "red"
      ],
      [
        "gu",
        "ess"
      ],
      [
        "ga",
        "ze"
      ],
      [
        "one",
        "y"
      ],
      [
        "th",
        "re"
      ],
      [
        "j",
        "ack"
      ],
      [
        "on",
        "es"
      ],
      [
        "k",
        "id"
      ],
      [
        "wo",
        "od"
      ],
      [
        "e",
        "le"
      ],
      [
        "vi",
        "e"
      ],
      [
        "d",
        "in"
      ],
      [
        "ten",
        "tion"
      ],
      [
        "f",
        "ast"
      ],
      [
        "v",
        "al"
      ],
      [
        "contin",
        "u"
      ],
      [
        "ta",
        "ken"
      ],
      [
        "l",
        "ad"
      ],
      [
        "g",
        "ar"
      ],
      [
        "f",
        "ree"
      ],
      [
        "v",
        "y"
      ],
      [
        "wait",
        "ing"
      ],
      [
        "who",
        "le"
      ],
      [
        "shi",
        "r"
      ],
      [
        "bl",
        "ue"
      ],
      [
        "e",
        "ld"
      ],
      [
        "fi",
        "gu"
      ],
      [
        "po",
        "in"
      ],
      [
        "diffe",
        "rent"
      ],
      [
        "ation",
        "s"
      ],
      [
        "pret",
        "ty"
      ],
      [
        "ca",
        "ught"
      ],
      [
        "sa",
        "fe"
      ],
      [
        "ex",
        "act"
      ],
      [
        "than",
        "k"
      ],
      [
        "bo",
        "t"
      ],
      [
        "a",
        "go"
      ],
      [
        "shi",
        "p"
      ],
      [
        "gr",
        "in"
      ],
      [
        "z",
        "ing"
      ],
      [
        "friend",
        "s"
      ],
      [
        "bu",
        "ild"
      ],
      [
        "ge",
        "st"
      ],
      [
        "of",
        "fe"
      ],
      [
        "k",
        "ne"
      ],
      [
        "cl",
        "u"
      ],
      [
        "in",
        "stead"
      ],
      [
        "st",
        "air"
      ],
      [
        "b",
        "urn"
      ],
      [
        "comple",
        "te"
      ],
      [
        "c",
        "ase"
      ],
      [
        "lau",
        "ghed"
      ],
      [
        "di",
        "e"
      ],
      [
        "fi",
        "ve"
      ],
      [
        "s",
        "w"
      ],
      [
        "de",
        "ath"
      ],
      [
        "so",
        "l"
      ],
      [
        "cha",
        "pter"
      ],
      [
        "si",
        "ve"
      ],
      [
        "r",
        "id"
      ],
      [
        "sh",
        "ort"
      ],
      [
        "vam",
        "pi"
      ],
      [
        "sh",
        "it"
      ],
      [
        "s",
        "cho"
      ],
      [
        "r",
        "ound"
      ],
      [
        "m",
        "ing"
      ],
      [
        "v",
        "an"
      ],
      [
        "brea",
        "k"
      ],
      [
        "p",
        "rom"
      ],
      [
        "sig",
        "n"
      ],
      [
        "other",
        "s"
      ],
      [
        "si",
        "mp"
      ],
      [
        "sup",
        "po"
      ],
      [
        "as",
        "ed"
      ],
      [
        "scho",
        "ol"
      ],
      [
        "m",
        "ach"
      ],
      [
        "v",
        "in"
      ],
      [
        "ac",
        "tion"
      ],
      [
        "f",
        "li"
      ],
      [
        "se",
        "at"
      ],
      [
        "scre",
        "am"
      ],
      [
        "im",
        "ag"
      ],
      [
        "sh",
        "ow"
      ],
      [
        "b",
        "ur"
      ],
      [
        "le",
        "gs"
      ],
      [
        "sho",
        "t"
      ],
      [
        "look",
        "s"
      ],
      [
        "youn",
        "g"
      ],
      [
        "ve",
        "l"
      ],
      [
        "thro",
        "at"
      ],
      [
        "k",
        "y"
      ],
      [
        "ho",
        "t"
      ],
      [
        "for",
        "t"
      ],
      [
        "l",
        "ate"
      ],
      [
        "s",
        "mo"
      ],
      [
        "re",
        "g"
      ],
      [
        "o",
        "s"
      ],
      [
        "whis",
        "pered"
      ],
      [
        "b",
        "are"
      ],
      [
        "h",
        "ar"
      ],
      [
        "sen",
        "se"
      ],
      [
        "ch",
        "ang"
      ],
      [
        "fo",
        "ot"
      ],
      [
        "br",
        "ing"
      ],
      [
        "e",
        "ks"
      ],
      [
        "s",
        "had"
      ],
      [
        "glan",
        "ced"
      ],
      [
        "ent",
        "s"
      ],
      [
        "k",
        "it"
      ],
      [
        "c",
        "ing"
      ],
      [
        "wind",
        "ow"
      ],
      [
        "on",
        "s"
      ],
      [
        "s",
        "ent"
      ],
      [
        "se",
        "x"
      ],
      [
        "ul",
        "t"
      ],
      [
        "g",
        "y"
      ],
      [
        "stra",
        "ight"
      ],
      [
        "stre",
        "et"
      ],
      [
        "happ",
        "y"
      ],
      [
        "str",
        "ong"
      ],
      [
        "v",
        "a"
      ],
      [
        "what",
        "ever"
      ],
      [
        "br",
        "ought"
      ],
      [
        "possi",
        "ble"
      ],
      [
        "to",
        "m"
      ],
      [
        "b",
        "all"
      ],
      [
        "ce",
        "pt"
      ],
      [
        "to",
        "wn"
      ],
      [
        "hold",
        "ing"
      ],
      [
        "b",
        "ru"
      ],
      [
        "ste",
        "pped"
      ],
      [
        "le",
        "ad"
      ],
      [
        "th",
        "ir"
      ],
      [
        "g",
        "as"
      ],
      [
        "in",
        "te"
      ],
      [
        "lar",
        "ge"
      ],
      [
        "sh",
        "ut"
      ],
      [
        "w",
        "ra"
      ],
      [
        "ch",
        "ange"
      ],
      [
        "v",
        "ic"
      ],
      [
        "d",
        "en"
      ],
      [
        "me",
        "ant"
      ],
      [
        "ur",
        "ing"
      ],
      [
        "dre",
        "am"
      ],
      [
        "wat",
        "ch"
      ],
      [
        "kis",
        "s"
      ],
      [
        "g",
        "an"
      ],
      [
        "appe",
        "ared"
      ],
      [
        "exact",
        "ly"
      ],
      [
        "v",
        "or"
      ],
      [
        "end",
        "ing"
      ],
      [
        "app",
        "ro"
      ],
      [
        "shir",
        "t"
      ],
      [
        "se",
        "ver"
      ],
      [
        "r",
        "ow"
      ],
      [
        "c",
        "ry"
      ],
      [
        "qu",
        "ite"
      ],
      [
        "sit",
        "ting"
      ],
      [
        "s",
        "na"
      ],
      [
        "tou",
        "ch"
      ],
      [
        "in",
        "st"
      ],
      [
        "st",
        "ro"
      ],
      [
        "b",
        "and"
      ],
      [
        "lean",
        "ed"
      ],
      [
        "i",
        "re"
      ],
      [
        "fing",
        "er"
      ],
      [
        "per",
        "fect"
      ],
      [
        "wat",
        "ching"
      ],
      [
        "ni",
        "ce"
      ],
      [
        "al",
        "s"
      ],
      [
        "f",
        "er"
      ],
      [
        "re",
        "l"
      ],
      [
        "en",
        "ing"
      ],
      [
        "if",
        "ul"
      ],
      [
        "gl",
        "ass"
      ],
      [
        "ye",
        "ar"
      ],
      [
        "reali",
        "zed"
      ],
      [
        "know",
        "n"
      ],
      [
        "enti",
        "re"
      ],
      [
        "si",
        "x"
      ],
      [
        "dre",
        "ss"
      ],
      [
        "b",
        "b"
      ],
      [
        "ro",
        "l"
      ],
      [
        "ure",
        "s"
      ],
      [
        "s",
        "me"
      ],
      [
        "mo",
        "ving"
      ],
      [
        "co",
        "vered"
      ],
      [
        "th",
        "s"
      ],
      [
        "ab",
        "o"
      ],
      [
        "r",
        "or"
      ],
      [
        "y",
        "ed"
      ],
      [
        "ex",
        "c"
      ],
      [
        "con",
        "f"
      ],
      [
        "run",
        "ning"
      ],
      [
        "ex",
        "plain"
      ],
      [
        "foll",
        "owed"
      ],
      [
        "fe",
        "ar"
      ],
      [
        "ant",
        "s"
      ],
      [
        "c",
        "ross"
      ],
      [
        "f",
        "ur"
      ],
      [
        "p",
        "ie"
      ],
      [
        "we",
        "l"
      ],
      [
        "s",
        "us"
      ],
      [
        "tru",
        "e"
      ],
      [
        "p",
        "an"
      ],
      [
        "hour",
        "s"
      ],
      [
        "su",
        "b"
      ],
      [
        "l",
        "ves"
      ],
      [
        "jo",
        "b"
      ],
      [
        "clo",
        "ser"
      ],
      [
        "sl",
        "id"
      ],
      [
        "de",
        "al"
      ],
      [
        "gi",
        "ven"
      ],
      [
        "sever",
        "al"
      ],
      [
        "b",
        "ag"
      ],
      [
        "mb",
        "led"
      ],
      [
        "c",
        "ir"
      ],
      [
        "continu",
        "ed"
      ],
      [
        "bab",
        "y"
      ],
      [
        "grab",
        "bed"
      ],
      [
        "at",
        "tention"
      ],
      [
        "le",
        "y"
      ],
      [
        "sh",
        "ru"
      ],
      [
        "we",
        "ek"
      ],
      [
        "fi",
        "ce"
      ],
      [
        "d",
        "ing"
      ],
      [
        "l",
        "an"
      ],
      [
        "rep",
        "lied"
      ],
      [
        "lo",
        "ved"
      ],
      [
        "mp",
        "ed"
      ],
      [
        "c",
        "tor"
      ],
      [
        "m",
        "ir"
      ],
      [
        "che",
        "n"
      ],
      [
        "beaut",
        "iful"
      ],
      [
        "ul",
        "ar"
      ],
      [
        "te",
        "e"
      ],
      [
        "inte",
        "rest"
      ],
      [
        "o",
        "c"
      ],
      [
        "ch",
        "ance"
      ],
      [
        "ye",
        "ll"
      ],
      [
        "stair",
        "s"
      ],
      [
        "you",
        "re"
      ],
      [
        "re",
        "main"
      ],
      [
        "pu",
        "shed"
      ],
      [
        "it",
        "ion"
      ],
      [
        "dam",
        "n"
      ],
      [
        "ac",
        "es"
      ],
      [
        "c",
        "up"
      ],
      [
        "tr",
        "ust"
      ],
      [
        "long",
        "er"
      ],
      [
        "en",
        "g"
      ],
      [
        "p",
        "al"
      ],
      [
        "b",
        "i"
      ],
      [
        "p",
        "en"
      ],
      [
        "be",
        "side"
      ],
      [
        "w",
        "ed"
      ],
      [
        "ri",
        "es"
      ],
      [
        "say",
        "ing"
      ],
      [
        "ro",
        "ad"
      ],
      [
        "c",
        "ity"
      ],
      [
        "to",
        "night"
      ],
      [
        "at",
        "es"
      ],
      [
        "se",
        "ar"
      ],
      [
        "should",
        "ers"
      ],
      [
        "gr",
        "and"
      ],
      [
        "li",
        "ving"
      ],
      [
        "re",
        "ach"
      ],
      [
        "le",
        "ar"
      ],
      [
        "l",
        "un"
      ],
      [
        "it",
        "ed"
      ],
      [
        "co",
        "ver"
      ],
      [
        "a",
        "li"
      ],
      [
        "ly",
        "ing"
      ],
      [
        "di",
        "ed"
      ],
      [
        "ha",
        "ps"
      ],
      [
        "te",
        "en"
      ],
      [
        "per",
        "i"
      ],
      [
        "st",
        "ri"
      ],
      [
        "ap",
        "art"
      ],
      [
        "p",
        "ack"
      ],
      [
        "cou",
        "ple"
      ],
      [
        "m",
        "ad"
      ],
      [
        "to",
        "day"
      ],
      [
        "per",
        "haps"
      ],
      [
        "roll",
        "ed"
      ],
      [
        "p",
        "arent"
      ],
      [
        "m",
        "oney"
      ],
      [
        "pro",
        "ble"
      ],
      [
        "s",
        "light"
      ],
      [
        "sk",
        "y"
      ],
      [
        "us",
        "ing"
      ],
      [
        "b",
        "en"
      ],
      [
        "turn",
        "ing"
      ],
      [
        "ro",
        "se"
      ],
      [
        "s",
        "qu"
      ],
      [
        "ment",
        "s"
      ],
      [
        "ag",
        "ed"
      ],
      [
        "te",
        "ars"
      ],
      [
        "cont",
        "rol"
      ],
      [
        "that",
        "s"
      ],
      [
        "y",
        "ing"
      ],
      [
        "c",
        "ru"
      ],
      [
        "is",
        "ted"
      ],
      [
        "ser",
        "ious"
      ],
      [
        "gre",
        "en"
      ],
      [
        "was",
        "nt"
      ],
      [
        "sme",
        "ll"
      ],
      [
        "w",
        "in"
      ],
      [
        "kit",
        "chen"
      ],
      [
        "spe",
        "ak"
      ],
      [
        "pres",
        "sion"
      ],
      [
        "dro",
        "pped"
      ],
      [
        "is",
        "on"
      ],
      [
        "t",
        "in"
      ],
      [
        "wo",
        "men"
      ],
      [
        "lea",
        "ving"
      ],
      [
        "b",
        "ene"
      ],
      [
        "e",
        "st"
      ],
      [
        "p",
        "or"
      ],
      [
        "dec",
        "ided"
      ],
      [
        "ant",
        "ly"
      ],
      [
        "dou",
        "b"
      ],
      [
        "i",
        "gh"
      ],
      [
        "of",
        "fice"
      ],
      [
        "abo",
        "ve"
      ],
      [
        "sis",
        "ter"
      ],
      [
        "b",
        "at"
      ],
      [
        "z",
        "y"
      ],
      [
        "m",
        "al"
      ],
      [
        "s",
        "ort"
      ],
      [
        "fill",
        "ed"
      ],
      [
        "tru",
        "th"
      ],
      [
        "id",
        "ent"
      ],
      [
        "un",
        "g"
      ],
      [
        "parent",
        "s"
      ],
      [
        "got",
        "ten"
      ],
      [
        "ple",
        "as"
      ],
      [
        "me",
        "mor"
      ],
      [
        "ale",
        "x"
      ],
      [
        "po",
        "sit"
      ],
      [
        "im",
        "med"
      ],
      [
        "ex",
        "pression"
      ],
      [
        "le",
        "g"
      ],
      [
        "f",
        "la"
      ],
      [
        "d",
        "ers"
      ],
      [
        "c",
        "ri"
      ],
      [
        "in",
        "ing"
      ],
      [
        "m",
        "ut"
      ],
      [
        "pass",
        "ed"
      ],
      [
        "bus",
        "iness"
      ],
      [
        "g",
        "ro"
      ],
      [
        "ob",
        "vi"
      ],
      [
        "ra",
        "ised"
      ],
      [
        "d",
        "red"
      ],
      [
        "wor",
        "king"
      ],
      [
        "sh",
        "ar"
      ],
      [
        "her",
        "s"
      ],
      [
        "any",
        "way"
      ],
      [
        "b",
        "as"
      ],
      [
        "se",
        "cre"
      ],
      [
        "pre",
        "ssed"
      ],
      [
        "spo",
        "ke"
      ],
      [
        "see",
        "ing"
      ],
      [
        "ra",
        "id"
      ],
      [
        "k",
        "no"
      ],
      [
        "bo",
        "x"
      ],
      [
        "il",
        "ity"
      ],
      [
        "g",
        "ing"
      ],
      [
        "li",
        "fted"
      ],
      [
        "sto",
        "mach"
      ],
      [
        "r",
        "ac"
      ],
      [
        "sh",
        "ing"
      ],
      [
        "complete",
        "ly"
      ],
      [
        "cr",
        "ow"
      ],
      [
        "ar",
        "ri"
      ],
      [
        "i",
        "led"
      ],
      [
        "s",
        "ar"
      ],
      [
        "dr",
        "ink"
      ],
      [
        "he",
        "n"
      ],
      [
        "gi",
        "ving"
      ],
      [
        "sil",
        "ence"
      ],
      [
        "il",
        "s"
      ],
      [
        "s",
        "ou"
      ],
      [
        "p",
        "ay"
      ],
      [
        "wor",
        "ry"
      ],
      [
        "b",
        "a"
      ],
      [
        "b",
        "right"
      ],
      [
        "went",
        "y"
      ],
      [
        "t",
        "wenty"
      ],
      [
        "ed",
        "ge"
      ],
      [
        "f",
        "ic"
      ],
      [
        "v",
        "ent"
      ],
      [
        "step",
        "s"
      ],
      [
        "wal",
        "king"
      ],
      [
        "th",
        "u"
      ],
      [
        "cor",
        "ner"
      ],
      [
        "beg",
        "in"
      ],
      [
        "att",
        "ack"
      ],
      [
        "ra",
        "ther"
      ],
      [
        "mis",
        "s"
      ],
      [
        "fr",
        "own"
      ],
      [
        "fo",
        "od"
      ],
      [
        "star",
        "ing"
      ],
      [
        "ce",
        "ll"
      ],
      [
        "gu",
        "ys"
      ],
      [
        "the",
        "s"
      ],
      [
        "e",
        "m"
      ],
      [
        "si",
        "ght"
      ],
      [
        "s",
        "wi"
      ],
      [
        "h",
        "ang"
      ],
      [
        "sto",
        "ne"
      ],
      [
        "s",
        "que"
      ],
      [
        "suppo",
        "sed"
      ],
      [
        "hun",
        "dred"
      ],
      [
        "kill",
        "ed"
      ],
      [
        "ma",
        "kes"
      ],
      [
        "be",
        "come"
      ],
      [
        "know",
        "ing"
      ],
      [
        "ic",
        "al"
      ],
      [
        "immed",
        "i"
      ],
      [
        "to",
        "ry"
      ],
      [
        "w",
        "ide"
      ],
      [
        "ter",
        "ri"
      ],
      [
        "sid",
        "es"
      ],
      [
        "as",
        "hed"
      ],
      [
        "with",
        "in"
      ],
      [
        "an",
        "na"
      ],
      [
        "hun",
        "g"
      ],
      [
        "c",
        "tive"
      ],
      [
        "b",
        "ir"
      ],
      [
        "sh",
        "out"
      ],
      [
        "build",
        "ing"
      ],
      [
        "fa",
        "ir"
      ],
      [
        "w",
        "ish"
      ],
      [
        "gr",
        "ow"
      ],
      [
        "pick",
        "ed"
      ],
      [
        "il",
        "ing"
      ],
      [
        "chang",
        "ed"
      ],
      [
        "vie",
        "w"
      ],
      [
        "ll",
        "a"
      ],
      [
        "tee",
        "th"
      ],
      [
        "s",
        "ca"
      ],
      [
        "noti",
        "ced"
      ],
      [
        "near",
        "ly"
      ],
      [
        "d",
        "ed"
      ],
      [
        "wait",
        "ed"
      ],
      [
        "i",
        "li"
      ],
      [
        "in",
        "a"
      ],
      [
        "your",
        "self"
      ],
      [
        "sig",
        "hed"
      ],
      [
        "sa",
        "m"
      ],
      [
        "r",
        "up"
      ],
      [
        "be",
        "at"
      ],
      [
        "girl",
        "s"
      ],
      [
        "m",
        "us"
      ],
      [
        "af",
        "raid"
      ],
      [
        "jo",
        "h"
      ],
      [
        "v",
        "id"
      ],
      [
        "sto",
        "ry"
      ],
      [
        "up",
        "on"
      ],
      [
        "cle",
        "an"
      ],
      [
        "than",
        "ks"
      ],
      [
        "b",
        "ow"
      ],
      [
        "p",
        "hi"
      ],
      [
        "go",
        "ld"
      ],
      [
        "l",
        "er"
      ],
      [
        "e",
        "mb"
      ],
      [
        "thought",
        "s"
      ],
      [
        "clo",
        "thes"
      ],
      [
        "toward",
        "s"
      ],
      [
        "b",
        "la"
      ],
      [
        "could",
        "nt"
      ],
      [
        "con",
        "cer"
      ],
      [
        "d",
        "anger"
      ],
      [
        "eas",
        "y"
      ],
      [
        "e",
        "at"
      ],
      [
        "swe",
        "et"
      ],
      [
        "see",
        "m"
      ],
      [
        "j",
        "er"
      ],
      [
        "lu",
        "ck"
      ],
      [
        "pic",
        "t"
      ],
      [
        "dri",
        "ve"
      ],
      [
        "en",
        "jo"
      ],
      [
        "p",
        "lo"
      ],
      [
        "c",
        "ant"
      ],
      [
        "we",
        "red"
      ],
      [
        "re",
        "turned"
      ],
      [
        "tr",
        "ou"
      ],
      [
        "x",
        "ed"
      ],
      [
        "f",
        "it"
      ],
      [
        "str",
        "ange"
      ],
      [
        "i",
        "er"
      ],
      [
        "stu",
        "ff"
      ],
      [
        "ist",
        "s"
      ],
      [
        "dire",
        "ction"
      ],
      [
        "am",
        "a"
      ],
      [
        "gr",
        "ou"
      ],
      [
        "pl",
        "aced"
      ],
      [
        "wor",
        "ked"
      ],
      [
        "f",
        "low"
      ],
      [
        "imp",
        "ort"
      ],
      [
        "kis",
        "sed"
      ],
      [
        "o",
        "pp"
      ],
      [
        "je",
        "ct"
      ],
      [
        "gr",
        "ay"
      ],
      [
        "k",
        "ick"
      ],
      [
        "bl",
        "ing"
      ],
      [
        "lor",
        "d"
      ],
      [
        "child",
        "ren"
      ],
      [
        "con",
        "vers"
      ],
      [
        "vo",
        "l"
      ],
      [
        "g",
        "on"
      ],
      [
        "l",
        "oud"
      ],
      [
        "minut",
        "e"
      ],
      [
        "vampi",
        "re"
      ],
      [
        "poin",
        "ted"
      ],
      [
        "tell",
        "ing"
      ],
      [
        "ca",
        "p"
      ],
      [
        "ke",
        "y"
      ],
      [
        "bene",
        "ath"
      ],
      [
        "or",
        "der"
      ],
      [
        "re",
        "co"
      ],
      [
        "wi",
        "fe"
      ],
      [
        "resp",
        "on"
      ],
      [
        "idd",
        "le"
      ],
      [
        "c",
        "offe"
      ],
      [
        "shru",
        "gged"
      ],
      [
        "bare",
        "ly"
      ],
      [
        "joh",
        "n"
      ],
      [
        "bo",
        "ard"
      ],
      [
        "emp",
        "ty"
      ],
      [
        "gg",
        "ing"
      ],
      [
        "th",
        "ick"
      ],
      [
        "he",
        "y"
      ],
      [
        "ci",
        "al"
      ],
      [
        "ion",
        "s"
      ],
      [
        "ans",
        "wered"
      ],
      [
        "d",
        "ar"
      ],
      [
        "c",
        "ket"
      ],
      [
        "spo",
        "t"
      ],
      [
        "re",
        "ed"
      ],
      [
        "st",
        "s"
      ],
      [
        "as",
        "su"
      ],
      [
        "some",
        "times"
      ],
      [
        "coffe",
        "e"
      ],
      [
        "p",
        "un"
      ],
      [
        "ton",
        "gue"
      ],
      [
        "des",
        "k"
      ],
      [
        "de",
        "mon"
      ],
      [
        "figu",
        "re"
      ],
      [
        "surpr",
        "ised"
      ],
      [
        "su",
        "m"
      ],
      [
        "won",
        "dered"
      ],
      [
        "re",
        "mind"
      ],
      [
        "che",
        "ek"
      ],
      [
        "f",
        "as"
      ],
      [
        "en",
        "s"
      ],
      [
        "immedi",
        "ately"
      ],
      [
        "b",
        "ly"
      ],
      [
        "st",
        "up"
      ],
      [
        "e",
        "motion"
      ],
      [
        "know",
        "s"
      ],
      [
        "s",
        "n"
      ],
      [
        "proble",
        "m"
      ],
      [
        "ex",
        "peri"
      ],
      [
        "b",
        "ill"
      ],
      [
        "shar",
        "p"
      ],
      [
        "co",
        "lle"
      ],
      [
        "th",
        "or"
      ],
      [
        "re",
        "turn"
      ],
      [
        "be",
        "y"
      ],
      [
        "m",
        "iddle"
      ],
      [
        "d",
        "uring"
      ],
      [
        "for",
        "ce"
      ],
      [
        "hea",
        "vy"
      ],
      [
        "un",
        "i"
      ],
      [
        "i",
        "al"
      ],
      [
        "m",
        "id"
      ],
      [
        "dra",
        "w"
      ],
      [
        "n",
        "one"
      ],
      [
        "ru",
        "b"
      ],
      [
        "be",
        "red"
      ],
      [
        "an",
        "n"
      ],
      [
        "k",
        "a"
      ],
      [
        "lad",
        "y"
      ],
      [
        "se",
        "lves"
      ],
      [
        "p",
        "ort"
      ],
      [
        "c",
        "ting"
      ],
      [
        "t",
        "ar"
      ],
      [
        "ad",
        "ed"
      ],
      [
        "com",
        "for"
      ],
      [
        "b",
        "ath"
      ],
      [
        "it",
        "ies"
      ],
      [
        "si",
        "c"
      ],
      [
        "if",
        "f"
      ],
      [
        "i",
        "ed"
      ],
      [
        "s",
        "co"
      ],
      [
        "dre",
        "w"
      ],
      [
        "gen",
        "er"
      ],
      [
        "add",
        "ed"
      ],
      [
        "la",
        "w"
      ],
      [
        "ear",
        "th"
      ],
      [
        "al",
        "though"
      ],
      [
        "li",
        "ked"
      ],
      [
        "fi",
        "ed"
      ],
      [
        "s",
        "and"
      ],
      [
        "no",
        "se"
      ],
      [
        "p",
        "as"
      ],
      [
        "stup",
        "id"
      ],
      [
        "ro",
        "ck"
      ],
      [
        "b",
        "al"
      ],
      [
        "fin",
        "ished"
      ],
      [
        "da",
        "ught"
      ],
      [
        "mon",
        "ths"
      ],
      [
        "we",
        "aring"
      ],
      [
        "to",
        "ne"
      ],
      [
        "t",
        "t"
      ],
      [
        "ca",
        "pt"
      ],
      [
        "it",
        "ch"
      ],
      [
        "s",
        "ir"
      ],
      [
        "ad",
        "mit"
      ],
      [
        "convers",
        "ation"
      ],
      [
        "ut",
        "e"
      ],
      [
        "f",
        "ra"
      ],
      [
        "pa",
        "per"
      ],
      [
        "head",
        "ed"
      ],
      [
        "cli",
        "mb"
      ],
      [
        "pull",
        "ing"
      ],
      [
        "how",
        "ever"
      ],
      [
        "re",
        "le"
      ],
      [
        "po",
        "li"
      ],
      [
        "wi",
        "ld"
      ],
      [
        "pre",
        "ss"
      ],
      [
        "any",
        "more"
      ],
      [
        "re",
        "lie"
      ],
      [
        "light",
        "s"
      ],
      [
        "ni",
        "ck"
      ],
      [
        "m",
        "ill"
      ],
      [
        "m",
        "oun"
      ],
      [
        "simp",
        "ly"
      ],
      [
        "nu",
        "mber"
      ],
      [
        "c",
        "ast"
      ],
      [
        "d",
        "on"
      ],
      [
        "the",
        "d"
      ],
      [
        "mar",
        "k"
      ],
      [
        "un",
        "t"
      ],
      [
        "sound",
        "ed"
      ],
      [
        "in",
        "c"
      ],
      [
        "co",
        "ol"
      ],
      [
        "fam",
        "ili"
      ],
      [
        "in",
        "form"
      ],
      [
        "trou",
        "ble"
      ],
      [
        "t",
        "all"
      ],
      [
        "sp",
        "ace"
      ],
      [
        "pa",
        "ir"
      ],
      [
        "s",
        "al"
      ],
      [
        "e",
        "y"
      ],
      [
        "li",
        "p"
      ],
      [
        "st",
        "ate"
      ],
      [
        "cla",
        "im"
      ],
      [
        "cr",
        "ack"
      ],
      [
        "g",
        "or"
      ],
      [
        "slight",
        "ly"
      ],
      [
        "g",
        "ently"
      ],
      [
        "si",
        "e"
      ],
      [
        "ex",
        "cept"
      ],
      [
        "-",
        "-"
      ],
      [
        "m",
        "bered"
      ],
      [
        "j",
        "ac"
      ],
      [
        "kne",
        "es"
      ],
      [
        "n",
        "arr"
      ],
      [
        "ch",
        "u"
      ],
      [
        "t",
        "as"
      ],
      [
        "es",
        "ca"
      ],
      [
        "cal",
        "m"
      ],
      [
        "f",
        "ro"
      ],
      [
        "beca",
        "me"
      ],
      [
        "ma",
        "le"
      ],
      [
        "ce",
        "p"
      ],
      [
        "tou",
        "ched"
      ],
      [
        "import",
        "ant"
      ],
      [
        "wa",
        "ke"
      ],
      [
        "a",
        "live"
      ],
      [
        "ci",
        "ally"
      ],
      [
        "id",
        "ing"
      ],
      [
        "off",
        "ic"
      ],
      [
        "g",
        "ent"
      ],
      [
        "it",
        "al"
      ],
      [
        "ac",
        "ing"
      ],
      [
        "cle",
        "s"
      ],
      [
        "f",
        "if"
      ],
      [
        "sa",
        "ge"
      ],
      [
        "te",
        "st"
      ],
      [
        "soft",
        "ly"
      ],
      [
        "she",
        "s"
      ],
      [
        "con",
        "sid"
      ],
      [
        "s",
        "ad"
      ],
      [
        "grou",
        "p"
      ],
      [
        "mor",
        "row"
      ],
      [
        "sp",
        "ent"
      ],
      [
        "bro",
        "ken"
      ],
      [
        "fo",
        "ld"
      ],
      [
        "bed",
        "room"
      ],
      [
        "stre",
        "t"
      ],
      [
        "sound",
        "s"
      ],
      [
        "h",
        "us"
      ],
      [
        "p",
        "ho"
      ],
      [
        "ra",
        "ge"
      ],
      [
        "j",
        "en"
      ],
      [
        "reco",
        "g"
      ],
      [
        "j",
        "es"
      ],
      [
        "co",
        "lor"
      ],
      [
        "a",
        "head"
      ],
      [
        "st",
        "ick"
      ],
      [
        "pr",
        "of"
      ],
      [
        "ne",
        "y"
      ],
      [
        "ph",
        "y"
      ],
      [
        "e",
        "ight"
      ],
      [
        "so",
        "ld"
      ],
      [
        "door",
        "s"
      ],
      [
        "che",
        "ck"
      ],
      [
        "din",
        "ner"
      ],
      [
        "surpr",
        "ise"
      ],
      [
        "posit",
        "ion"
      ],
      [
        "br",
        "own"
      ],
      [
        "some",
        "how"
      ],
      [
        "he",
        "al"
      ],
      [
        "we",
        "eks"
      ],
      [
        "to",
        "morrow"
      ],
      [
        "secre",
        "t"
      ],
      [
        "wra",
        "pped"
      ],
      [
        "want",
        "s"
      ],
      [
        "h",
        "y"
      ],
      [
        "g",
        "es"
      ],
      [
        "cra",
        "zy"
      ],
      [
        "wor",
        "se"
      ],
      [
        "es",
        "pe"
      ],
      [
        "tin",
        "y"
      ],
      [
        "thre",
        "at"
      ],
      [
        "gl",
        "ad"
      ],
      [
        "quiet",
        "ly"
      ],
      [
        "ic",
        "ally"
      ],
      [
        "si",
        "ck"
      ],
      [
        "some",
        "where"
      ],
      [
        "con",
        "ne"
      ],
      [
        "he",
        "sit"
      ],
      [
        "ard",
        "s"
      ],
      [
        "wor",
        "th"
      ],
      [
        "de",
        "fin"
      ],
      [
        "poli",
        "ce"
      ],
      [
        "des",
        "er"
      ],
      [
        "foll",
        "ow"
      ],
      [
        "doub",
        "t"
      ],
      [
        "sing",
        "le"
      ],
      [
        "co",
        "l"
      ],
      [
        "pie",
        "ce"
      ],
      [
        "kid",
        "s"
      ],
      [
        "bo",
        "o"
      ],
      [
        "daught",
        "er"
      ],
      [
        "su",
        "it"
      ],
      [
        "espe",
        "cially"
      ],
      [
        "pa",
        "th"
      ],
      [
        "bro",
        "ke"
      ],
      [
        "s",
        "wall"
      ],
      [
        "r",
        "ad"
      ],
      [
        "lo",
        "cked"
      ],
      [
        "secon",
        "ds"
      ],
      [
        "e",
        "li"
      ],
      [
        "fi",
        "eld"
      ],
      [
        "be",
        "th"
      ],
      [
        "ti",
        "red"
      ],
      [
        "d",
        "ir"
      ],
      [
        "we",
        "ak"
      ],
      [
        "dark",
        "ness"
      ],
      [
        "wor",
        "ried"
      ],
      [
        "on",
        "y"
      ],
      [
        "f",
        "lu"
      ],
      [
        "wr",
        "it"
      ],
      [
        "p",
        "ul"
      ],
      [
        "ri",
        "ch"
      ],
      [
        "vis",
        "ion"
      ],
      [
        "p",
        "es"
      ],
      [
        "reme",
        "mbered"
      ],
      [
        "sque",
        "e"
      ],
      [
        "de",
        "mand"
      ],
      [
        "b",
        "ull"
      ],
      [
        "la",
        "p"
      ],
      [
        "com",
        "mand"
      ],
      [
        "are",
        "a"
      ],
      [
        "ju",
        "li"
      ],
      [
        "wo",
        "re"
      ],
      [
        "ta",
        "kes"
      ],
      [
        "we",
        "ap"
      ],
      [
        "wo",
        "lf"
      ],
      [
        "i",
        "o"
      ],
      [
        "bey",
        "ond"
      ],
      [
        "st",
        "y"
      ],
      [
        "il",
        "t"
      ],
      [
        "r",
        "at"
      ],
      [
        "sil",
        "ent"
      ],
      [
        "is",
        "a"
      ],
      [
        "man",
        "aged"
      ],
      [
        "su",
        "g"
      ],
      [
        "he",
        "at"
      ],
      [
        "ex",
        "plo"
      ],
      [
        "question",
        "s"
      ],
      [
        "men",
        "tion"
      ],
      [
        "t",
        "ree"
      ],
      [
        "ch",
        "ris"
      ],
      [
        "de",
        "li"
      ],
      [
        "sp",
        "ir"
      ],
      [
        "de",
        "v"
      ],
      [
        "pa",
        "used"
      ],
      [
        "thre",
        "w"
      ],
      [
        "sit",
        "u"
      ],
      [
        "wall",
        "s"
      ],
      [
        "mr",
        "s"
      ],
      [
        "tre",
        "es"
      ],
      [
        "ga",
        "me"
      ],
      [
        "inform",
        "ation"
      ],
      [
        "me",
        "ans"
      ],
      [
        "si",
        "gh"
      ],
      [
        "hu",
        "ge"
      ],
      [
        "ra",
        "in"
      ],
      [
        "c",
        "ab"
      ],
      [
        "mag",
        "ic"
      ],
      [
        "w",
        "ound"
      ],
      [
        "see",
        "ms"
      ],
      [
        "appe",
        "ar"
      ],
      [
        "come",
        "s"
      ],
      [
        "dre",
        "ssed"
      ],
      [
        "st",
        "are"
      ],
      [
        "pr",
        "ac"
      ],
      [
        "sp",
        "read"
      ],
      [
        "sug",
        "gest"
      ],
      [
        "expe",
        "cted"
      ],
      [
        "d",
        "ry"
      ],
      [
        "ok",
        "ed"
      ],
      [
        "set",
        "t"
      ],
      [
        "lo",
        "ck"
      ],
      [
        "fl",
        "at"
      ],
      [
        "at",
        "ive"
      ],
      [
        "for",
        "ced"
      ],
      [
        "dist",
        "ance"
      ],
      [
        "do",
        "ctor"
      ],
      [
        "the",
        "red"
      ],
      [
        "sha",
        "king"
      ],
      [
        "ang",
        "ry"
      ],
      [
        "r",
        "on"
      ],
      [
        "ri",
        "c"
      ],
      [
        "fu",
        "ck"
      ],
      [
        "b",
        "re"
      ],
      [
        "am",
        "ed"
      ],
      [
        "vi",
        "ce"
      ],
      [
        "in",
        "v"
      ],
      [
        "meet",
        "ing"
      ],
      [
        "e",
        "ve"
      ],
      [
        "s",
        "pl"
      ],
      [
        "i",
        "th"
      ],
      [
        "for",
        "get"
      ],
      [
        "new",
        "s"
      ],
      [
        "sh",
        "u"
      ],
      [
        "cat",
        "ch"
      ],
      [
        "fir",
        "m"
      ],
      [
        "pe",
        "t"
      ],
      [
        "li",
        "er"
      ],
      [
        "list",
        "en"
      ],
      [
        "tr",
        "ack"
      ],
      [
        "ev",
        "ent"
      ],
      [
        "i",
        "ent"
      ],
      [
        "ear",
        "ly"
      ],
      [
        "part",
        "y"
      ],
      [
        "ma",
        "x"
      ],
      [
        "car",
        "ry"
      ],
      [
        "play",
        "ing"
      ],
      [
        "ti",
        "es"
      ],
      [
        "ag",
        "reed"
      ],
      [
        "smi",
        "ling"
      ],
      [
        "a",
        "king"
      ],
      [
        "crow",
        "d"
      ],
      [
        "ab",
        "ly"
      ],
      [
        "ig",
        "no"
      ],
      [
        "a",
        "po"
      ],
      [
        "we",
        "t"
      ],
      [
        "pres",
        "ent"
      ],
      [
        "d",
        "ru"
      ],
      [
        "gr",
        "ace"
      ],
      [
        "r",
        "ist"
      ],
      [
        "wa",
        "ist"
      ],
      [
        "ja",
        "w"
      ],
      [
        "sl",
        "am"
      ],
      [
        "spe",
        "ct"
      ],
      [
        "b",
        "s"
      ],
      [
        "er",
        "ic"
      ],
      [
        "an",
        "im"
      ],
      [
        "po",
        "cket"
      ],
      [
        "m",
        "bling"
      ],
      [
        "h",
        "ide"
      ],
      [
        "en",
        "er"
      ],
      [
        "k",
        "ni"
      ],
      [
        "cl",
        "ass"
      ],
      [
        "prom",
        "ise"
      ],
      [
        "me",
        "l"
      ],
      [
        "chu",
        "ck"
      ],
      [
        "tr",
        "ans"
      ],
      [
        "m",
        "ate"
      ],
      [
        "is",
        "ing"
      ],
      [
        "te",
        "l"
      ],
      [
        "keep",
        "ing"
      ],
      [
        "ch",
        "in"
      ],
      [
        "bri",
        "ef"
      ],
      [
        "clear",
        "ly"
      ],
      [
        "re",
        "la"
      ],
      [
        "coun",
        "ter"
      ],
      [
        "ca",
        "mp"
      ],
      [
        "c",
        "ro"
      ],
      [
        "ous",
        "and"
      ],
      [
        "th",
        "ousand"
      ],
      [
        "el",
        "s"
      ],
      [
        "ren",
        "ce"
      ],
      [
        "sur",
        "round"
      ]
    ]
  }
}