{
  "version": "1.0",
  "truncation": null,
  "padding": null,
  "added_tokens": [
    {
      "id": 0,
      "content": "[PAD]",
      "single_word": false,
      "lstrip": false,
      "rstrip": false,
      "normalized": false,
      "special": true
    },
    {
      "id": 1,
      "content": "[UNK]",
      "single_word": false,
      "lstrip": false,
      "rstrip": false,
      "normalized": false,
      "special": true
    },
    {
      "id": 2,
      "content": "[CLS]",
      "single_word": false,
      "lstrip": false,
      "rstrip": false,
      "normalized": false,
      "special": true
    },
    {
      "id": 3,
      "content": "[MASK]",
      "single_word": false,
      "lstrip": false,
      "rstrip": false,
      "normalized": false,
      "special": true
    },
    {
      "id": 4,
      "content": "[SEP]",
      "single_word": false,
      "lstrip": false,
      "rstrip": false,
      "normalized": false,
      "special": true
    }
  ],
  "normalizer": {
    "type": "BertNormalizer",
    "clean_text": true,
    "handle_chinese_chars": true,
    "strip_accents": true,
    "lowercase": true
  },
  "pre_tokenizer": {
    "type": "Whitespace"
  },
  "post_processor": {
    "type": "TemplateProcessing",
    "single": [
      {
        "Sequence": {
          "id": "A",
          "type_id": 0
        }
      }
    ],
    "pair": [
      {
        "SpecialToken": {
          "id": "[CLS]",
          "type_id": 0
        }
      },
      {
        "Sequence": {
          "id": "A",
          "type_id": 0
        }
      },
      {
        "SpecialToken": {
          "id": "[SEP]",
          "type_id": 0
        }
      },
      {
        "Sequence": {
          "id": "B",
          "type_id": 1
        }
      },
      {
        "SpecialToken": {
          "id": "[SEP]",
          "type_id": 1
        }
      }
    ],
    "special_tokens": {
      "[CLS]": {
        "id": "[CLS]",
        "ids": [
          2
        ],
        "tokens": [
          "[CLS]"
        ]
      },
      "[SEP]": {
        "id": "[SEP]",
        "ids": [
          4
        ],
        "tokens": [
          "[SEP]"
        ]
      }
    }
  },
  "decoder": null,
  "model": {
    "type": "BPE",
    "dropout": null,
    "unk_token": "[UNK]",
    "continuing_subword_prefix": null,
    "end_of_word_suffix": null,
    "fuse_unk": false,
    "byte_fallback": false,
    "ignore_merges": false,
    "vocab": {
      "[PAD]": 0,
      "[UNK]": 1,
      "[CLS]": 2,
      "[MASK]": 3,
      "[SEP]": 4,
      "!": 5,
      "'": 6,
      "(": 7,
      ")": 8,
      "*": 9,
      ",": 10,
      "-": 11,
      ".": 12,
      "/": 13,
      "0": 14,
      "1": 15,
      "2": 16,
      "3": 17,
      "4": 18,
      "5": 19,
      "6": 20,
      "7": 21,
      "8": 22,
      "9": 23,
      ":": 24,
      ";": 25,
      "?": 26,
      "`": 27,
      "a": 28,
      "b": 29,
      "c": 30,
      "d": 31,
      "e": 32,
      "f": 33,
      "g": 34,
      "h": 35,
      "i": 36,
      "j": 37,
      "k": 38,
      "l": 39,
      "m": 40,
      "n": 41,
      "o": 42,
      "p": 43,
      "q": 44,
      "r": 45,
      "s": 46,
      "t": 47,
      "u": 48,
      "v": 49,
      "w": 50,
      "x": 51,
      "y": 52,
      "z": 53,
      "he": 54,
      "in": 55,
      "an": 56,
      "the": 57,
      "ou": 58,
      "re": 59,
      "th": 60,
      "ing": 61,
      "to": 62,
      "ed": 63,
      "at": 64,
      "as": 65,
      "on": 66,
      "er": 67,
      "is": 68,
      "and": 69,
      "her": 70,
      "she": 71,
      "''": 72,
      "en": 73,
      "``": 74,
      "ar": 75,
      "st": 76,
      "ll": 77,
      "or": 78,
      "me": 79,
      "of": 80,
      "it": 81,
      "le": 82,
      "you": 83,
      "be": 84,
      "ow": 85,
      "ac": 86,
      "was": 87,
      "his": 88,
      "id": 89,
      "ha": 90,
      "se": 91,
      "ly": 92,
      "es": 93,
      "that": 94,
      "ld": 95,
      "gh": 96,
      "hi": 97,
      "li": 98,
      "ve": 99,
      "ro": 100,
      "ay": 101,
      "wi": 102,
      "ut": 103,
      "we": 104,
      "al": 105,
      "all": 106,
      "so": 107,
      "lo": 108,
      "ver": 109,
      "out": 110,
      "ri": 111,
      "ould": 112,
      "with": 113,
      "ght": 114,
      "for": 115,
      "ad": 116,
      "no": 117,
      "mo": 118,
      "ti": 119,
      "wh": 120,
      "him": 121,
      "my": 122,
      "do": 123,
      "ab": 124,
      "but": 125,
      "fe": 126,
      "ne": 127,
      "ke": 128,
      "ch": 129,
      "ce": 130,
      "ent": 131,
      "ok": 132,
      "up": 133,
      "ag": 134,
      "ir": 135,
      "co": 136,
      "one": 137,
      "sh": 138,
      "had": 139,
      "ur": 140,
      "un": 141,
      "go": 142,
      "are": 143,
      "ack": 144,
      "sa": 145,
      "ant": 146,
      "pp": 147,
      "ther": 148,
      "ust": 149,
      "si": 150,
      "ain": 151,
      "ge": 152,
      "whe": 153,
      "ck": 154,
      "te": 155,
      "own": 156,
      "what": 157,
      "thing": 158,
      "ter": 159,
      "oun": 160,
      "now": 161,
      "de": 162,
      "su": 163,
      "way": 164,
      "back": 165,
      "od": 166,
      "if": 167,
      "just": 168,
      "this": 169,
      "have": 170,
      "did": 171,
      "red": 172,
      "could": 173,
      "tr": 174,
      "would": 175,
      "ind": 176,
      "ion": 177,
      "con": 178,
      "ound": 179,
      "look": 180,
      "said": 181,
      "man": 182,
      "ss": 183,
      "ked": 184,
      "some": 185,
      "ers": 186,
      "not": 187,
      "ally": 188,
      "down": 189,
      "ard": 190,
      "ma": 191,
      "hand": 192,
      "were": 193,
      "when": 194,
      "into": 195,
      "want": 196,
      "ca": 197,
      "mi": 198,
      "ide": 199,
      "fo": 200,
      "ate": 201,
      "mp": 202,
      "el": 203,
      "sp": 204,
      "king": 205,
      "yes": 206,
      "ex": 207,
      "wor": 208,
      "rom": 209,
      "la": 210,
      "over": 211,
      "they": 212,
      "about": 213,
      "again": 214,
      "art": 215,
      "che": 216,
      "..": 217,
      "wo": 218,
      "ment": 219,
      "ous": 220,
      "from": 221,
      "ni": 222,
      "ra": 223,
      "any": 224,
      "ough": 225,
      "pu": 226,
      "ace": 227,
      "like": 228,
      "us": 229,
      "ic": 230,
      "other": 231,
      "head": 232,
      "ev": 233,
      "ho": 234,
      "ting": 235,
      "lf": 236,
      "time": 237,
      "get": 238,
      "qu": 239,
      "led": 240,
      "em": 241,
      "eyes": 242,
      "your": 243,
      "know": 244,
      "gr": 245,
      "gu": 246,
      "pl": 247,
      "been": 248,
      "ep": 249,
      "our": 250,
      "ong": 251,
      "po": 252,
      "ta": 253,
      "der": 254,
      "there": 255,
      "ast": 256,
      "more": 257,
      "bo": 258,
      "off": 259,
      "feel": 260,
      "ul": 261,
      "rea": 262,
      "then": 263,
      "around": 264,
      "sto": 265,
      "pe": 266,
      "how": 267,
      "ation": 268,
      "self": 269,
      "ever": 270,
      "end": 271,
      "pre": 272,
      "om": 273,
      "by": 274,
      "them": 275,
      "fore": 276,
      "even": 277,
      "ink": 278,
      "af": 279,
      "ted": 280,
      "ry": 281,
      "room": 282,
      "ye": 283,
      "asked": 284,
      "who": 285,
      "arm": 286,
      "ought": 287,
      "ill": 288,
      "say": 289,
      "op": 290,
      "clo": 291,
      "ving": 292,
      "before": 293,
      "side": 294,
      "going": 295,
      "hed": 296,
      "pull": 297,
      "ine": 298,
      "tion": 299,
      "pped": 300,
      "able": 301,
      "urn": 302,
      "mu": 303,
      "new": 304,
      "than": 305,
      "ess": 306,
      "thr": 307,
      "ach": 308,
      "night": 309,
      "lit": 310,
      "per": 311,
      "see": 312,
      "smi": 313,
      "bod": 314,
      "day": 315,
      "turn": 316,
      "bed": 317,
      "ts": 318,
      "only": 319,
      "pro": 320,
      "thought": 321,
      "ten": 322,
      "their": 323,
      "body": 324,
      "think": 325,
      "br": 326,
      "looked": 327,
      "gan": 328,
      "need": 329,
      "can": 330,
      "ick": 331,
      "right": 332,
      "fa": 333,
      "wa": 334,
      "fi": 335,
      "after": 336,
      "...": 337,
      "away": 338,
      "gl": 339,
      "ved": 340,
      "ass": 341,
      "should": 342,
      "through": 343,
      "whi": 344,
      "erson": 345,
      "ps": 346,
      "use": 347,
      "ried": 348,
      "act": 349,
      "door": 350,
      "ite": 351,
      "against": 352,
      "sure": 353,
      "hands": 354,
      "bl": 355,
      "wal": 356,
      "megan": 357,
      "try": 358,
      "pes": 359,
      "well": 360,
      "wanted": 361,
      "dan": 362,
      "read": 363,
      "too": 364,
      "tle": 365,
      "much": 366,
      "face": 367,
      "fu": 368,
      "iss": 369,
      "sho": 370,
      "ru": 371,
      "rep": 372,
      "never": 373,
      "ice": 374,
      "something": 375,
      "start": 376,
      "here": 377,
      "sit": 378,
      "et": 379,
      "let": 380,
      "good": 381,
      "ct": 382,
      "every": 383,
      "brea": 384,
      "why": 385,
      "come": 386,
      "pesh": 387,
      "long": 388,
      "most": 389,
      "bet": 390,
      "fin": 391,
      "where": 392,
      "gi": 393,
      "ble": 394,
      "ated": 395,
      "com": 396,
      "app": 397,
      "ious": 398,
      "dis": 399,
      "am": 400,
      "lt": 401,
      "mind": 402,
      "hel": 403,
      "ren": 404,
      "under": 405,
      "really": 406,
      "ars": 407,
      "knew": 408,
      "ward": 409,
      "moment": 410,
      "still": 411,
      "wat": 412,
      "sl": 413,
      "fr": 414,
      "tell": 415,
      "stand": 416,
      "make": 417,
      "light": 418,
      "arr": 419,
      "fir": 420,
      "lau": 421,
      "ade": 422,
      "emerson": 423,
      "shi": 424,
      "im": 425,
      "arms": 426,
      "des": 427,
      "take": 428,
      "ure": 429,
      "age": 430,
      "ase": 431,
      "beca": 432,
      "hair": 433,
      "ched": 434,
      "men": 435,
      "ek": 436,
      "mar": 437,
      "ner": 438,
      "will": 439,
      "little": 440,
      "two": 441,
      "ning": 442,
      "comp": 443,
      "love": 444,
      "tic": 445,
      "happ": 446,
      "sc": 447,
      "ared": 448,
      "pr": 449,
      "feeling": 450,
      "kiss": 451,
      "part": 452,
      "ang": 453,
      "tou": 454,
      "mou": 455,
      "fing": 456,
      "because": 457,
      "woman": 458,
      "ince": 459,
      "took": 460,
      "open": 461,
      "ig": 462,
      "mor": 463,
      "mouth": 464,
      "ssi": 465,
      "herself": 466,
      "ready": 467,
      "vo": 468,
      "ste": 469,
      "sof": 470,
      "ress": 471,
      "ple": 472,
      "ga": 473,
      "hard": 474,
      "ist": 475,
      "anything": 476,
      "est": 477,
      "pulled": 478,
      "cont": 479,
      "very": 480,
      "ful": 481,
      "ser": 482,
      "felt": 483,
      "na": 484,
      "ans": 485,
      "trying": 486,
      "car": 487,
      "made": 488,
      "lly": 489,
      "ob": 490,
      "mb": 491,
      "lea": 492,
      "ling": 493,
      "med": 494,
      "xt": 495,
      "ghed": 496,
      "rest": 497,
      "turned": 498,
      "being": 499,
      "ree": 500,
      "call": 501,
      "ty": 502,
      "looking": 503,
      "word": 504,
      "spe": 505,
      "first": 506,
      "put": 507,
      "since": 508,
      "life": 509,
      "repli": 510,
      "got": 511,
      "ari": 512,
      "vic": 513,
      "ol": 514,
      "each": 515,
      "dd": 516,
      "ced": 517,
      "dh": 518,
      "work": 519,
      "dharr": 520,
      "almost": 521,
      "min": 522,
      "ze": 523,
      "quick": 524,
      "soft": 525,
      "next": 526,
      "ear": 527,
      "chi": 528,
      "ity": 529,
      "help": 530,
      "tori": 531,
      "ask": 532,
      "find": 533,
      "sur": 534,
      "wait": 535,
      "tal": 536,
      "dani": 537,
      "tra": 538,
      "might": 539,
      "cl": 540,
      "last": 541,
      "cho": 542,
      "care": 543,
      "ft": 544,
      "cle": 545,
      "won": 546,
      "smile": 547,
      "hind": 548,
      "victori": 549,
      "fl": 550,
      "ching": 551,
      "table": 552,
      "while": 553,
      "victoria": 554,
      "ance": 555,
      "once": 556,
      "di": 557,
      "uck": 558,
      "behind": 559,
      "started": 560,
      "aring": 561,
      "another": 562,
      "ose": 563,
      "ell": 564,
      "sed": 565,
      "smiled": 566,
      "says": 567,
      "though": 568,
      "hone": 569,
      "ton": 570,
      "fingers": 571,
      "pa": 572,
      "ish": 573,
      "owed": 574,
      "father": 575,
      "used": 576,
      "sha": 577,
      "cur": 578,
      "ence": 579,
      "ating": 580,
      "rais": 581,
      "til": 582,
      "came": 583,
      "sor": 584,
      "pping": 585,
      "walked": 586,
      "oh": 587,
      "quickly": 588,
      "nate": 589,
      "years": 590,
      "bu": 591,
      "sm": 592,
      "things": 593,
      "went": 594,
      "ped": 595,
      "dress": 596,
      "less": 597,
      "bab": 598,
      "ele": 599,
      "ately": 600,
      "hold": 601,
      "ually": 602,
      "mean": 603,
      "str": 604,
      "ross": 605,
      "ness": 606,
      "ower": 607,
      "ened": 608,
      "gre": 609,
      "pt": 610,
      "ason": 611,
      "fron": 612,
      "both": 613,
      "ned": 614,
      "sari": 615,
      "those": 616,
      "shook": 617,
      "front": 618,
      "ses": 619,
      "replied": 620,
      "gg": 621,
      "has": 622,
      "sk": 623,
      "until": 624,
      "quest": 625,
      "sarila": 626,
      "din": 627,
      "int": 628,
      "inside": 629,
      "voice": 630,
      "moved": 631,
      "cour": 632,
      "leep": 633,
      "idea": 634,
      "set": 635,
      "ue": 636,
      "lie": 637,
      "week": 638,
      "breath": 639,
      "told": 640,
      "thank": 641,
      "wonder": 642,
      "ves": 643,
      "already": 644,
      "fully": 645,
      "zed": 646,
      "deep": 647,
      "ath": 648,
      "which": 649,
      "ways": 650,
      "pi": 651,
      "onto": 652,
      "ise": 653,
      "better": 654,
      "someone": 655,
      "tor": 656,
      "tried": 657,
      "few": 658,
      "laughed": 659,
      "words": 660,
      "run": 661,
      "ouse": 662,
      "chest": 663,
      "ci": 664,
      "mat": 665,
      "owing": 666,
      "slight": 667,
      "left": 668,
      "ween": 669,
      "between": 670,
      "leg": 671,
      "imp": 672,
      "shed": 673,
      "bit": 674,
      "fri": 675,
      "hu": 676,
      "doing": 677,
      "keep": 678,
      "question": 679,
      "may": 680,
      "sid": 681,
      "give": 682,
      "asar": 683,
      "cha": 684,
      "hur": 685,
      "child": 686,
      "move": 687,
      "nothing": 688,
      "mother": 689,
      "sat": 690,
      "enough": 691,
      "ort": 692,
      "ah": 693,
      "without": 694,
      "ently": 695,
      "aren": 696,
      "reac": 697,
      "lips": 698,
      "aw": 699,
      "gas": 700,
      "vi": 701,
      "ark": 702,
      "sen": 703,
      "coun": 704,
      "taking": 705,
      "je": 706,
      "seem": 707,
      "stop": 708,
      "home": 709,
      "small": 710,
      "ali": 711,
      "ction": 712,
      "reali": 713,
      "ella": 714,
      "wr": 715,
      "air": 716,
      "mom": 717,
      "ies": 718,
      "toge": 719,
      "step": 720,
      "together": 721,
      "touch": 722,
      "bea": 723,
      "mon": 724,
      "saw": 725,
      "exc": 726,
      "friend": 727,
      "jo": 728,
      "sion": 729,
      "**": 730,
      "toward": 731,
      "peop": 732,
      "people": 733,
      "cre": 734,
      "finally": 735,
      "cted": 736,
      "hor": 737,
      "kasar": 738,
      "sex": 739,
      "place": 740,
      "coming": 741,
      "reme": 742,
      "sever": 743,
      "glan": 744,
      "ati": 745,
      "beaut": 746,
      "found": 747,
      "ger": 748,
      "house": 749,
      "phone": 750,
      "several": 751,
      "ight": 752,
      "slightly": 753,
      "okay": 754,
      "close": 755,
      "il": 756,
      "done": 757,
      "everything": 758,
      "pain": 759,
      "ys": 760,
      "zay": 761,
      "zayn": 762,
      "cor": 763,
      "heart": 764,
      "hour": 765,
      "same": 766,
      "morning": 767,
      "old": 768,
      "sleep": 769,
      "actually": 770,
      "standing": 771,
      "sil": 772,
      "past": 773,
      "lik": 774,
      "comple": 775,
      "press": 776,
      "slow": 777,
      "aid": 778,
      "ater": 779,
      "possi": 780,
      "heard": 781,
      "cked": 782,
      "sorry": 783,
      "ef": 784,
      "always": 785,
      "does": 786,
      "ught": 787,
      "expl": 788,
      "pulling": 789,
      "along": 790,
      "rac": 791,
      "ud": 792,
      "inking": 793,
      "ished": 794,
      "himself": 795,
      "paren": 796,
      "hear": 797,
      "feren": 798,
      "whole": 799,
      "needed": 800,
      "nor": 801,
      "pick": 802,
      "ven": 803,
      "lean": 804,
      "myself": 805,
      "siri": 806,
      "pret": 807,
      "complete": 808,
      "else": 809,
      "aidan": 810,
      "dad": 811,
      "sup": 812,
      "across": 813,
      "soon": 814,
      "nodd": 815,
      "malik": 816,
      "sing": 817,
      "laugh": 818,
      "mand": 819,
      "rel": 820,
      "foll": 821,
      "kind": 822,
      "ms": 823,
      "dri": 824,
      "sound": 825,
      "hers": 826,
      "walk": 827,
      "iously": 828,
      "mber": 829,
      "surpr": 830,
      "cr": 831,
      "minut": 832,
      "parents": 833,
      "dif": 834,
      "probab": 835,
      "dro": 836,
      "tonight": 837,
      "probably": 838,
      "kali": 839,
      "pal": 840,
      "shoulders": 841,
      "kalil": 842,
      "roll": 843,
      "vered": 844,
      "making": 845,
      "guard": 846,
      "cu": 847,
      "emma": 848,
      "gue": 849,
      "stopped": 850,
      "legs": 851,
      "dark": 852,
      "whis": 853,
      "simp": 854,
      "many": 855,
      "getting": 856,
      "talk": 857,
      "mur": 858,
      "leave": 859,
      "maybe": 860,
      "belie": 861,
      "ows": 862,
      "elec": 863,
      "bro": 864,
      "scho": 865,
      "dinner": 866,
      "lar": 867,
      "ago": 868,
      "watched": 869,
      "course": 870,
      "dr": 871,
      "stead": 872,
      "school": 873,
      "cer": 874,
      "lip": 875,
      "world": 876,
      "son": 877,
      "vers": 878,
      "ding": 879,
      "mm": 880,
      "cond": 881,
      "stood": 882,
      "electra": 883,
      "apart": 884,
      "inst": 885,
      "les": 886,
      "also": 887,
      "eye": 888,
      "ying": 889,
      "ket": 890,
      "spon": 891,
      "ins": 892,
      "beautif": 893,
      "respon": 894,
      "moving": 895,
      "believe": 896,
      "having": 897,
      "fami": 898,
      "softly": 899,
      "bre": 900,
      "fine": 901,
      "swe": 902,
      "please": 903,
      "nodded": 904,
      "eas": 905,
      "fall": 906,
      "wall": 907,
      "cheek": 908,
      "grab": 909,
      "later": 910,
      "three": 911,
      "wer": 912,
      "abi": 913,
      "pri": 914,
      "wra": 915,
      "office": 916,
      "rachel": 917,
      "hall": 918,
      "children": 919,
      "completely": 920,
      "par": 921,
      "flo": 922,
      "ot": 923,
      "play": 924,
      "neck": 925,
      "tak": 926,
      "thinking": 927,
      "beautiful": 928,
      "gn": 929,
      "understand": 930,
      "inter": 931,
      "ange": 932,
      "plan": 933,
      "breast": 934,
      "kit": 935,
      "zing": 936,
      "ending": 937,
      "antly": 938,
      "contin": 939,
      "cing": 940,
      "holding": 941,
      "res": 942,
      "explain": 943,
      "fect": 944,
      "bedroom": 945,
      "ssion": 946,
      "ping": 947,
      "women": 948,
      "chair": 949,
      "fact": 950,
      "waist": 951,
      "shir": 952,
      "tered": 953,
      "differen": 954,
      "held": 955,
      "closed": 956,
      "days": 957,
      "hurt": 958,
      "minutes": 959,
      "gri": 960,
      "gone": 961,
      "stay": 962,
      "second": 963,
      "closer": 964,
      "peri": 965,
      "fted": 966,
      "mine": 967,
      "top": 968,
      "break": 969,
      "tu": 970,
      "bus": 971,
      "form": 972,
      "guess": 973,
      "figu": 974,
      "exact": 975,
      "glanced": 976,
      "mis": 977,
      "mach": 978,
      "iness": 979,
      "offe": 980,
      "sol": 981,
      "shoulder": 982,
      "immed": 983,
      "gave": 984,
      "gir": 985,
      "person": 986,
      "appe": 987,
      "pretty": 988,
      "shirt": 989,
      "lic": 990,
      "happen": 991,
      "its": 992,
      "such": 993,
      "slowly": 994,
      "ered": 995,
      "job": 996,
      "forward": 997,
      "gry": 998,
      "reached": 999,
      "bare": 1000,
      "erce": 1001,
      "chen": 1002,
      "times": 1003,
      "knowing": 1004,
      "prote": 1005,
      "kitchen": 1006,
      "mason": 1007,
      "slid": 1008,
      "apartment": 1009,
      "cking": 1010,
      "dec": 1011,
      "da": 1012,
      "instead": 1013,
      "tha": 1014,
      "high": 1015,
      "turning": 1016,
      "called": 1017,
      "nu": 1018,
      "shing": 1019,
      "show": 1020,
      "anyone": 1021,
      "ship": 1022,
      "happened": 1023,
      "anger": 1024,
      "answer": 1025,
      "strong": 1026,
      "ither": 1027,
      "ster": 1028,
      "alone": 1029,
      "demand": 1030,
      "wrong": 1031,
      "ak": 1032,
      "tabi": 1033,
      "reach": 1034,
      "reason": 1035,
      "skin": 1036,
      "tabitha": 1037,
      "least": 1038,
      "tongue": 1039,
      "pur": 1040,
      "pter": 1041,
      "best": 1042,
      "reply": 1043,
      "immedi": 1044,
      "du": 1045,
      "ary": 1046,
      "grand": 1047,
      "perfect": 1048,
      "pierce": 1049,
      "cal": 1050,
      "ased": 1051,
      "beg": 1052,
      "uring": 1053,
      "walking": 1054,
      "exactly": 1055,
      "mid": 1056,
      "vous": 1057,
      "cy": 1058,
      "wind": 1059,
      "stra": 1060,
      "stomach": 1061,
      "palace": 1062,
      "pushed": 1063,
      "grin": 1064,
      "nervous": 1065,
      "stepped": 1066,
      "realized": 1067,
      "hours": 1068,
      "simply": 1069,
      "different": 1070,
      "rious": 1071,
      "sides": 1072,
      "emp": 1073,
      "today": 1074,
      "seen": 1075,
      "gently": 1076,
      "kid": 1077,
      "wed": 1078,
      "inc": 1079,
      "bot": 1080,
      "chuck": 1081,
      "bring": 1082,
      "family": 1083,
      "loved": 1084,
      "qui": 1085,
      "contro": 1086,
      "girl": 1087,
      "cent": 1088,
      "enjo": 1089,
      "tri": 1090,
      "hips": 1091,
      "lot": 1092,
      "immediately": 1093,
      "nice": 1094,
      "water": 1095,
      "seemed": 1096,
      "control": 1097,
      "ily": 1098,
      "thes": 1099,
      "pression": 1100,
      "shaking": 1101,
      "floor": 1102,
      "case": 1103,
      "ff": 1104,
      "sli": 1105,
      "tain": 1106,
      "inte": 1107,
      "fort": 1108,
      "large": 1109,
      "figure": 1110,
      "these": 1111,
      "ute": 1112,
      "asks": 1113,
      "eting": 1114,
      "sighed": 1115,
      "ream": 1116,
      "fied": 1117,
      "ring": 1118,
      "eng": 1119,
      "interest": 1120,
      "den": 1121,
      "far": 1122,
      "ised": 1123,
      "sitting": 1124,
      "bor": 1125,
      "cou": 1126,
      "expression": 1127,
      "nik": 1128,
      "pres": 1129,
      "opened": 1130,
      "guards": 1131,
      "don": 1132,
      "ank": 1133,
      "ering": 1134,
      "stair": 1135,
      "aced": 1136,
      "feet": 1137,
      "covered": 1138,
      "convers": 1139,
      "tention": 1140,
      "waiting": 1141,
      "conversation": 1142,
      "pass": 1143,
      "black": 1144,
      "obv": 1145,
      "offee": 1146,
      "coffee": 1147,
      "gasped": 1148,
      "cup": 1149,
      "cra": 1150,
      "mess": 1151,
      "meeting": 1152,
      "max": 1153,
      "dana": 1154,
      "possible": 1155,
      "fill": 1156,
      "tre": 1157,
      "seat": 1158,
      "motion": 1159,
      "gest": 1160,
      "deal": 1161,
      "great": 1162,
      "barely": 1163,
      "mus": 1164,
      "hell": 1165,
      "experi": 1166,
      "clothes": 1167,
      "ces": 1168,
      "kn": 1169,
      "sun": 1170,
      "tears": 1171,
      "imag": 1172,
      "yet": 1173,
      "kissed": 1174,
      "wonderful": 1175,
      "chapter": 1176,
      "bi": 1177,
      "dered": 1178,
      "point": 1179,
      "ris": 1180,
      "bui": 1181,
      "ju": 1182,
      "miss": 1183,
      "half": 1184,
      "noon": 1185,
      "white": 1186,
      "cot": 1187,
      "using": 1188,
      "rying": 1189,
      "longer": 1190,
      "pleas": 1191,
      "big": 1192,
      "touched": 1193,
      "continu": 1194,
      "cas": 1195,
      "cli": 1196,
      "outside": 1197,
      "gged": 1198,
      "warm": 1199,
      "arri": 1200,
      "ited": 1201,
      "appeared": 1202,
      "ama": 1203,
      "either": 1204,
      "angry": 1205,
      "rela": 1206,
      "kept": 1207,
      "pered": 1208,
      "power": 1209,
      "row": 1210,
      "met": 1211,
      "working": 1212,
      "seeing": 1213,
      "everyone": 1214,
      "four": 1215,
      "cover": 1216,
      "wanting": 1217,
      "watch": 1218,
      "gaze": 1219,
      "ative": 1220,
      "bad": 1221,
      "bath": 1222,
      "appro": 1223,
      "dden": 1224,
      "suppo": 1225,
      "yed": 1226,
      "sudden": 1227,
      "hallway": 1228,
      "cess": 1229,
      "fast": 1230,
      "low": 1231,
      "wn": 1232,
      "defin": 1233,
      "expe": 1234,
      "dire": 1235,
      "relax": 1236,
      "fli": 1237,
      "zy": 1238,
      "wear": 1239,
      "terri": 1240,
      "raid": 1241,
      "evening": 1242,
      "afternoon": 1243,
      "desk": 1244,
      "leaving": 1245,
      "known": 1246,
      "igh": 1247,
      "tly": 1248,
      "stu": 1249,
      "book": 1250,
      "firm": 1251,
      "month": 1252,
      "bing": 1253,
      "late": 1254,
      "prom": 1255,
      "vis": 1256,
      "antic": 1257,
      "temp": 1258,
      "hope": 1259,
      "brought": 1260,
      "married": 1261,
      "happy": 1262,
      "remember": 1263,
      "gro": 1264,
      "ref": 1265,
      "enti": 1266,
      "stared": 1267,
      "ments": 1268,
      "real": 1269,
      "acce": 1270,
      "whatever": 1271,
      "finger": 1272,
      "vie": 1273,
      "stairs": 1274,
      "bly": 1275,
      "lifted": 1276,
      "six": 1277,
      "sub": 1278,
      "afraid": 1279,
      "mone": 1280,
      "issu": 1281,
      "five": 1282,
      "friends": 1283,
      "sna": 1284,
      "meet": 1285,
      "suit": 1286,
      "food": 1287,
      "desi": 1288,
      "talking": 1289,
      "kne": 1290,
      "reve": 1291,
      "attention": 1292,
      "add": 1293,
      "tive": 1294,
      "posit": 1295,
      "giving": 1296,
      "feelings": 1297,
      "wondering": 1298,
      "picked": 1299,
      "taken": 1300,
      "money": 1301,
      "isten": 1302,
      "sug": 1303,
      "didn": 1304,
      "conf": 1305,
      "boys": 1306,
      "main": 1307,
      "thro": 1308,
      "tight": 1309,
      "tru": 1310,
      "finished": 1311,
      "business": 1312,
      "pleasure": 1313,
      "lear": 1314,
      "although": 1315,
      "looks": 1316,
      "worried": 1317,
      "itely": 1318,
      "wedding": 1319,
      "must": 1320,
      "wing": 1321,
      "heat": 1322,
      "rele": 1323,
      "und": 1324,
      "event": 1325,
      "leaned": 1326,
      "fas": 1327,
      "wish": 1328,
      "oud": 1329,
      "definitely": 1330,
      "ged": 1331,
      "gen": 1332,
      "uation": 1333,
      "cook": 1334,
      "yeah": 1335,
      "full": 1336,
      "name": 1337,
      "demanded": 1338,
      "mit": 1339,
      "um": 1340,
      "relation": 1341,
      "shru": 1342,
      "breasts": 1343,
      "wel": 1344,
      "tee": 1345,
      "saying": 1346,
      "straight": 1347,
      "inten": 1348,
      "thre": 1349,
      "worked": 1350,
      "cus": 1351,
      "line": 1352,
      "caught": 1353,
      "boy": 1354,
      "rid": 1355,
      "within": 1356,
      "notic": 1357,
      "box": 1358,
      "ult": 1359,
      "gotten": 1360,
      "baby": 1361,
      "tomor": 1362,
      "staring": 1363,
      "telling": 1364,
      "surprise": 1365,
      "whispered": 1366,
      "tomorrow": 1367,
      "noah": 1368,
      "watching": 1369,
      "cross": 1370,
      "hass": 1371,
      "pan": 1372,
      "ual": 1373,
      "hea": 1374,
      "lding": 1375,
      "wife": 1376,
      "button": 1377,
      "ager": 1378,
      "ches": 1379,
      "bathroom": 1380,
      "desire": 1381,
      "fic": 1382,
      "conside": 1383,
      "que": 1384,
      "matter": 1385,
      "obviously": 1386,
      "continued": 1387,
      "hassan": 1388,
      "considered": 1389,
      "ley": 1390,
      "fight": 1391,
      "situation": 1392,
      "chuckled": 1393,
      "bas": 1394,
      "cat": 1395,
      "dra": 1396,
      "tom": 1397,
      "irr": 1398,
      "appear": 1399,
      "norm": 1400,
      "solute": 1401,
      "gent": 1402,
      "lu": 1403,
      "order": 1404,
      "consid": 1405,
      "blue": 1406,
      "rolled": 1407,
      "eyebr": 1408,
      "relationship": 1409,
      "bra": 1410,
      "nn": 1411,
      "ph": 1412,
      "pic": 1413,
      "meant": 1414,
      "fell": 1415,
      "chang": 1416,
      "redi": 1417,
      "year": 1418,
      "rub": 1419,
      "desper": 1420,
      "ures": 1421,
      "suggest": 1422,
      "free": 1423,
      "weeks": 1424,
      "pressed": 1425,
      "assu": 1426,
      "absolute": 1427,
      "change": 1428,
      "sigh": 1429,
      "running": 1430,
      "jump": 1431,
      "listen": 1432,
      "oc": 1433,
      "asing": 1434,
      "argu": 1435,
      "safe": 1436,
      "sign": 1437,
      "lity": 1438,
      "kissing": 1439,
      "replies": 1440,
      "jac": 1441,
      "stre": 1442,
      "living": 1443,
      "ants": 1444,
      "sive": 1445,
      "nipp": 1446,
      "moments": 1447,
      "touching": 1448,
      "igno": 1449,
      "cles": 1450,
      "cott": 1451,
      "suddenly": 1452,
      "position": 1453,
      "lay": 1454,
      "lower": 1455,
      "tin": 1456,
      "besides": 1457,
      "fear": 1458,
      "god": 1459,
      "trac": 1460,
      "ically": 1461,
      "smiling": 1462,
      "willing": 1463,
      "bry": 1464,
      "cut": 1465,
      "kes": 1466,
      "pen": 1467,
      "usu": 1468,
      "ined": 1469,
      "als": 1470,
      "ries": 1471,
      "unch": 1472,
      "serv": 1473,
      "begin": 1474,
      "brynn": 1475,
      "mous": 1476,
      "vor": 1477,
      "trust": 1478,
      "worry": 1479,
      "horri": 1480,
      "cheeks": 1481,
      "party": 1482,
      "towards": 1483,
      "ber": 1484,
      "blo": 1485,
      "during": 1486,
      "ric": 1487,
      "concer": 1488,
      "glass": 1489,
      "ash": 1490,
      "ided": 1491,
      "riley": 1492,
      "ended": 1493,
      "steps": 1494,
      "surprised": 1495,
      "ator": 1496,
      "fun": 1497,
      "hide": 1498,
      "haps": 1499,
      "perhaps": 1500,
      "proble": 1501,
      "comfor": 1502,
      "mention": 1503,
      "raised": 1504,
      "ball": 1505,
      "emotion": 1506,
      "ive": 1507,
      "rup": 1508,
      "emb": 1509,
      "weekend": 1510,
      "quiet": 1511,
      "cried": 1512,
      "ip": 1513,
      "delic": 1514,
      "lap": 1515,
      "bru": 1516,
      "blu": 1517,
      "sense": 1518,
      "followed": 1519,
      "sweet": 1520,
      "grabbed": 1521,
      "daught": 1522,
      "dou": 1523,
      "fac": 1524,
      "fut": 1525,
      "ming": 1526,
      "lled": 1527,
      "neath": 1528,
      "spo": 1529,
      "others": 1530,
      "underneath": 1531,
      "flu": 1532,
      "filled": 1533,
      "supposed": 1534,
      "noticed": 1535,
      "gentle": 1536,
      "bir": 1537,
      "fur": 1538,
      "land": 1539,
      "ran": 1540,
      "coll": 1541,
      "space": 1542,
      "ations": 1543,
      "drink": 1544,
      "amazing": 1545,
      "snapped": 1546,
      "date": 1547,
      "pas": 1548,
      "aned": 1549,
      "thu": 1550,
      "become": 1551,
      "abby": 1552,
      "area": 1553,
      "letting": 1554,
      "explained": 1555,
      "window": 1556,
      "throat": 1557,
      "liked": 1558,
      "ties": 1559,
      "crazy": 1560,
      "building": 1561,
      "toss": 1562,
      "ison": 1563,
      "ident": 1564,
      "wearing": 1565,
      "furious": 1566,
      "arrass": 1567,
      "marri": 1568,
      "lovely": 1569,
      "questions": 1570,
      "aware": 1571,
      "bottom": 1572,
      "eat": 1573,
      "hit": 1574,
      "tw": 1575,
      "att": 1576,
      "stud": 1577,
      "beside": 1578,
      "sear": 1579,
      "lost": 1580,
      "ung": 1581,
      "tiny": 1582,
      "embarrass": 1583,
      "future": 1584,
      "ging": 1585,
      "scott": 1586,
      "tas": 1587,
      "twent": 1588,
      "wid": 1589,
      "tel": 1590,
      "deb": 1591,
      "suite": 1592,
      "true": 1593,
      "grow": 1594,
      "daughter": 1595,
      "twenty": 1596,
      "memor": 1597,
      "elle": 1598,
      "instantly": 1599,
      "wrapped": 1600,
      "kids": 1601,
      "entire": 1602,
      "band": 1603,
      "hus": 1604,
      "ition": 1605,
      "bered": 1606,
      "sight": 1607,
      "pushing": 1608,
      "glad": 1609,
      "dropped": 1610,
      "marriage": 1611,
      "bent": 1612,
      "bag": 1613,
      "mbered": 1614,
      "round": 1615,
      "vy": 1616,
      "secur": 1617,
      "shower": 1618,
      "teen": 1619,
      "pregn": 1620,
      "spected": 1621,
      "opp": 1622,
      "hot": 1623,
      "spect": 1624,
      "clear": 1625,
      "remembered": 1626,
      "bur": 1627,
      "ctor": 1628,
      "inti": 1629,
      "import": 1630,
      "bright": 1631,
      "eight": 1632,
      "lead": 1633,
      "pressing": 1634,
      "ba": 1635,
      "cul": 1636,
      "short": 1637,
      "guys": 1638,
      "putting": 1639,
      "pict": 1640,
      "sn": 1641,
      "thigh": 1642,
      "youn": 1643,
      "near": 1644,
      "silence": 1645,
      "incredi": 1646,
      "reveal": 1647,
      "absolutely": 1648,
      "fer": 1649,
      "thir": 1650,
      "iding": 1651,
      "vel": 1652,
      "col": 1653,
      "ustr": 1654,
      "deter": 1655,
      "yourself": 1656,
      "ulous": 1657,
      "fair": 1658,
      "given": 1659,
      "marry": 1660,
      "silk": 1661,
      "drive": 1662,
      "couple": 1663,
      "security": 1664,
      "ie": 1665,
      "asking": 1666,
      "cell": 1667,
      "shut": 1668,
      "hoping": 1669,
      "ground": 1670,
      "tail": 1671,
      "oper": 1672,
      "bling": 1673,
      "waited": 1674,
      "carefully": 1675,
      "response": 1676,
      "slipped": 1677,
      "city": 1678,
      "fre": 1679,
      "gor": 1680,
      "pat": 1681,
      "pay": 1682,
      "hey": 1683,
      "ister": 1684,
      "ene": 1685,
      "cei": 1686,
      "shit": 1687,
      "clas": 1688,
      "sexy": 1689,
      "experience": 1690,
      "fab": 1691,
      "mas": 1692,
      "wine": 1693,
      "lying": 1694,
      "spend": 1695,
      "frustr": 1696,
      "cial": 1697,
      "ject": 1698,
      "realize": 1699,
      "leaning": 1700,
      "brother": 1701,
      "certain": 1702,
      "teeth": 1703,
      "birth": 1704,
      "dle": 1705,
      "pers": 1706,
      "zz": 1707,
      "char": 1708,
      "ents": 1709,
      "aged": 1710,
      "unable": 1711,
      "silly": 1712,
      "spent": 1713,
      "poin": 1714,
      "honest": 1715,
      "months": 1716,
      "view": 1717,
      "nipple": 1718,
      "bar": 1719,
      "tory": 1720,
      "ates": 1721,
      "asleep": 1722,
      "stru": 1723,
      "anyway": 1724,
      "push": 1725,
      "guy": 1726,
      "doors": 1727,
      "desp": 1728,
      "number": 1729,
      "comfortable": 1730,
      "avo": 1731,
      "pati": 1732,
      "stare": 1733,
      "utter": 1734,
      "guest": 1735,
      "glance": 1736,
      "finish": 1737,
      "sort": 1738,
      "excited": 1739,
      "middle": 1740,
      "direction": 1741,
      "fit": 1742,
      "gra": 1743,
      "hang": 1744,
      "os": 1745,
      "sy": 1746,
      "sla": 1747,
      "hesit": 1748,
      "edge": 1749,
      "ening": 1750,
      "allowed": 1751,
      "foot": 1752,
      "polit": 1753,
      "thoughts": 1754,
      "glancing": 1755,
      "promise": 1756,
      "changed": 1757,
      "despite": 1758,
      "dam": 1759,
      "kno": 1760,
      "sal": 1761,
      "sent": 1762,
      "secre": 1763,
      "doctor": 1764,
      "starting": 1765,
      "disappeared": 1766,
      "speak": 1767,
      "pie": 1768,
      "chall": 1769,
      "cuss": 1770,
      "whisper": 1771,
      "fle": 1772,
      "hated": 1773,
      "cks": 1774,
      "murmur": 1775,
      "plane": 1776,
      "anticip": 1777,
      "shrugged": 1778,
      "normal": 1779,
      "cting": 1780,
      "mer": 1781,
      "thed": 1782,
      "town": 1783,
      "state": 1784,
      "hotel": 1785,
      "tions": 1786,
      "danger": 1787,
      "discuss": 1788,
      "early": 1789,
      "counter": 1790,
      "countered": 1791,
      "fortun": 1792,
      "muscles": 1793,
      "tuck": 1794,
      "wake": 1795,
      "company": 1796,
      "dining": 1797,
      "corner": 1798,
      "laughing": 1799,
      "sounds": 1800,
      "crow": 1801,
      "purse": 1802,
      "knees": 1803,
      "eyebrow": 1804,
      "fting": 1805,
      "ial": 1806,
      "ls": 1807,
      "smo": 1808,
      "thri": 1809,
      "live": 1810,
      "robe": 1811,
      "nod": 1812,
      "teasing": 1813,
      "conv": 1814,
      "somehow": 1815,
      "plac": 1816,
      "takes": 1817,
      "arrived": 1818,
      "accep": 1819,
      "important": 1820,
      "cir": 1821,
      "plo": 1822,
      "tall": 1823,
      "liev": 1824,
      "suspected": 1825,
      "ions": 1826,
      "laim": 1827,
      "board": 1828,
      "fire": 1829,
      "ign": 1830,
      "dressed": 1831,
      "excuse": 1832,
      "passion": 1833,
      "cry": 1834,
      "jer": 1835,
      "lunch": 1836,
      "mr": 1837,
      "wide": 1838,
      "ors": 1839,
      "dev": 1840,
      "spot": 1841,
      "check": 1842,
      "thanks": 1843,
      "following": 1844,
      "truth": 1845,
      "tone": 1846,
      "ond": 1847,
      "lier": 1848,
      "limous": 1849,
      "allow": 1850,
      "tired": 1851,
      "chance": 1852,
      "unfortun": 1853,
      "geous": 1854,
      "sity": 1855,
      "mbled": 1856,
      "intense": 1857,
      "taste": 1858,
      "gorgeous": 1859,
      "aur": 1860,
      "bother": 1861,
      "pack": 1862,
      "vious": 1863,
      "win": 1864,
      "exha": 1865,
      "blan": 1866,
      "grinned": 1867,
      "enjoy": 1868,
      "issue": 1869,
      "pregnant": 1870,
      "eager": 1871,
      "inv": 1872,
      "thy": 1873,
      "ists": 1874,
      "hood": 1875,
      "closing": 1876,
      "doorway": 1877,
      "wards": 1878,
      "flat": 1879,
      "follow": 1880,
      "breakfast": 1881,
      "interested": 1882,
      "imagine": 1883,
      "street": 1884,
      "gs": 1885,
      "esca": 1886,
      "makes": 1887,
      "clean": 1888,
      "huge": 1889,
      "priv": 1890,
      "reaching": 1891,
      "unders": 1892,
      "limousine": 1893,
      "unfortunately": 1894,
      "bri": 1895,
      "lace": 1896,
      "yer": 1897,
      "hes": 1898,
      "ones": 1899,
      "cold": 1900,
      "handsome": 1901,
      "clock": 1902,
      "harder": 1903,
      "earlier": 1904,
      "gging": 1905,
      "jeans": 1906,
      "calm": 1907,
      "emplo": 1908,
      "terrified": 1909,
      "ctive": 1910,
      "dy": 1911,
      "ere": 1912,
      "ny": 1913,
      "relie": 1914,
      "tood": 1915,
      "adv": 1916,
      "reading": 1917,
      "shot": 1918,
      "dist": 1919,
      "serious": 1920,
      "country": 1921,
      "sleeping": 1922,
      "easy": 1923,
      "bottle": 1924,
      "phy": 1925,
      "understood": 1926,
      "cin": 1927,
      "sad": 1928,
      "beat": 1929,
      "rose": 1930,
      "aded": 1931,
      "ext": 1932,
      "offic": 1933,
      "news": 1934,
      "clen": 1935,
      "class": 1936,
      "cially": 1937,
      "hun": 1938,
      "none": 1939,
      "pill": 1940,
      "remind": 1941,
      "meal": 1942,
      "anymore": 1943,
      "quite": 1944,
      "placed": 1945,
      "rooms": 1946,
      "command": 1947,
      "naked": 1948,
      "interrup": 1949,
      "bringing": 1950,
      "missed": 1951,
      "covering": 1952,
      "firmly": 1953,
      "irrit": 1954,
      "spoke": 1955,
      "thumb": 1956,
      "kill": 1957,
      "kris": 1958,
      "reci": 1959,
      "isted": 1960,
      "chin": 1961,
      "male": 1962,
      "plans": 1963,
      "prep": 1964,
      "assist": 1965,
      "breathing": 1966,
      "game": 1967,
      "gasp": 1968,
      "excite": 1969,
      "instru": 1970,
      "desperately": 1971,
      "usually": 1972,
      "determin": 1973,
      "crowd": 1974,
      "relief": 1975,
      "kristi": 1976,
      "hig": 1977,
      "sic": 1978,
      "deli": 1979,
      "mured": 1980,
      "wondered": 1981,
      "elev": 1982,
      "murmured": 1983,
      "personal": 1984,
      "happening": 1985,
      "decided": 1986,
      "passed": 1987,
      "bility": 1988,
      "wishing": 1989,
      "problem": 1990,
      "excitement": 1991,
      "jaw": 1992,
      "ane": 1993,
      "stun": 1994,
      "force": 1995,
      "admit": 1996,
      "cool": 1997,
      "horse": 1998,
      "simple": 1999,
      "easily": 2000,
      "threw": 2001,
      "doub": 2002,
      "husband": 2003,
      "elevator": 2004,
      "sand": 2005,
      "war": 2006,
      "iting": 2007,
      "espe": 2008,
      "wet": 2009,
      "agree": 2010,
      "cooper": 2011,
      "ained": 2012,
      "test": 2013,
      "trou": 2014,
      "restaur": 2015,
      "curren": 2016,
      "respond": 2017,
      "casey": 2018,
      "experien": 2019,
      "expect": 2020,
      "release": 2021,
      "widened": 2022,
      "especially": 2023,
      "bowed": 2024,
      "gard": 2025,
      "ied": 2026,
      "lin": 2027,
      "loud": 2028,
      "mag": 2029,
      "anelle": 2030,
      "ached": 2031,
      "shanelle": 2032,
      "reaction": 2033,
      "relaxed": 2034,
      "fabric": 2035,
      "higher": 2036,
      "ky": 2037,
      "lon": 2038,
      "swall": 2039,
      "acc": 2040,
      "ages": 2041,
      "cock": 2042,
      "iff": 2043,
      "tray": 2044,
      "sometimes": 2045,
      "plate": 2046,
      "aff": 2047,
      "gling": 2048,
      "laught": 2049,
      "deser": 2050,
      "sofa": 2051,
      "surround": 2052,
      "pair": 2053,
      "perfectly": 2054,
      "alea": 2055,
      "gy": 2056,
      "ken": 2057,
      "lad": 2058,
      "thor": 2059,
      "allison": 2060,
      "acks": 2061,
      "delight": 2062,
      "detail": 2063,
      "exce": 2064,
      "polo": 2065,
      "closet": 2066,
      "tically": 2067,
      "playing": 2068,
      "couch": 2069,
      "eventually": 2070,
      "fascin": 2071,
      "ignored": 2072,
      "certainly": 2073,
      "blanket": 2074,
      "cru": 2075,
      "ption": 2076,
      "swi": 2077,
      "incre": 2078,
      "began": 2079,
      "entered": 2080,
      "comes": 2081,
      "appo": 2082,
      "grim": 2083,
      "issues": 2084,
      "lieved": 2085,
      "aking": 2086,
      "dream": 2087,
      "mate": 2088,
      "sister": 2089,
      "ordered": 2090,
      "wasn": 2091,
      "shy": 2092,
      "handed": 2093,
      "foc": 2094,
      "pulls": 2095,
      "aching": 2096,
      "needs": 2097,
      "shock": 2098,
      "underwear": 2099,
      "scra": 2100,
      "ggled": 2101,
      "corre": 2102,
      "supp": 2103,
      "rolling": 2104,
      "atively": 2105,
      "consider": 2106,
      "jacob": 2107,
      "concerned": 2108,
      "delicious": 2109,
      "polite": 2110,
      "trouble": 2111,
      "bow": 2112,
      "burn": 2113,
      "bite": 2114,
      "stable": 2115,
      "lose": 2116,
      "whel": 2117,
      "teased": 2118,
      "summ": 2119,
      "ific": 2120,
      "headed": 2121,
      "offer": 2122,
      "previous": 2123,
      "favor": 2124,
      "comment": 2125,
      "lights": 2126,
      "finding": 2127,
      "satis": 2128,
      "possibly": 2129,
      "learn": 2130,
      "catch": 2131,
      "laughter": 2132,
      "ahead": 2133,
      "gant": 2134,
      "respect": 2135,
      "stick": 2136,
      "staff": 2137,
      "forth": 2138,
      "showing": 2139,
      "odd": 2140,
      "focus": 2141,
      "els": 2142,
      "overwhel": 2143,
      "poc": 2144,
      "ignor": 2145,
      "stepping": 2146,
      "green": 2147,
      "thankfully": 2148,
      "keeping": 2149,
      "falling": 2150,
      "powerful": 2151,
      "groaned": 2152,
      "confused": 2153,
      "secret": 2154,
      "exhaust": 2155,
      "ia": 2156,
      "slip": 2157,
      "sque": 2158,
      "wished": 2159,
      "init": 2160,
      "stri": 2161,
      "mped": 2162,
      "exam": 2163,
      "turns": 2164,
      "mark": 2165,
      "continue": 2166,
      "begins": 2167,
      "stuff": 2168,
      "subject": 2169,
      "suggested": 2170,
      "memory": 2171,
      "private": 2172,
      "crying": 2173,
      "lves": 2174,
      "pin": 2175,
      "sme": 2176,
      "var": 2177,
      "ons": 2178,
      "stro": 2179,
      "orts": 2180,
      "bey": 2181,
      "tice": 2182,
      "def": 2183,
      "spit": 2184,
      "shoes": 2185,
      "desc": 2186,
      "special": 2187,
      "helped": 2188,
      "seems": 2189,
      "beauty": 2190,
      "busy": 2191,
      "nervously": 2192,
      "enjoying": 2193,
      "interesting": 2194,
      "quietly": 2195,
      "ignoring": 2196,
      "lan": 2197,
      "swing": 2198,
      "ured": 2199,
      "ining": 2200,
      "inform": 2201,
      "oup": 2202,
      "reco": 2203,
      "ities": 2204,
      "moves": 2205,
      "enter": 2206,
      "irt": 2207,
      "consc": 2208,
      "grate": 2209,
      "mary": 2210,
      "choice": 2211,
      "paper": 2212,
      "sexual": 2213,
      "painfully": 2214,
      "resses": 2215,
      "highness": 2216,
      "gener": 2217,
      "heavy": 2218,
      "horrible": 2219,
      "oppos": 2220,
      "young": 2221,
      "opposite": 2222,
      "apolo": 2223,
      "dare": 2224,
      "jack": 2225,
      "pink": 2226,
      "ann": 2227,
      "rick": 2228,
      "feat": 2229,
      "goes": 2230,
      "sam": 2231,
      "somewhere": 2232,
      "extra": 2233,
      "ously": 2234,
      "ical": 2235,
      "iculous": 2236,
      "prefer": 2237,
      "glared": 2238,
      "dance": 2239,
      "breathe": 2240,
      "prac": 2241,
      "arily": 2242,
      "intro": 2243,
      "effort": 2244,
      "drove": 2245,
      "born": 2246,
      "message": 2247,
      "ridiculous": 2248,
      "crossed": 2249,
      "considering": 2250,
      "jumped": 2251,
      "incredible": 2252,
      "frustration": 2253,
      "avoid": 2254,
      "smoo": 2255,
      "extreme": 2256,
      "determined": 2257,
      "london": 2258,
      "au": 2259,
      "bby": 2260,
      "eyed": 2261,
      "fro": 2262,
      "sle": 2263,
      "shad": 2264,
      "inno": 2265,
      "orgas": 2266,
      "wered": 2267,
      "abo": 2268,
      "caused": 2269,
      "rather": 2270,
      "heading": 2271,
      "slide": 2272,
      "shifted": 2273,
      "opening": 2274,
      "seriously": 2275,
      "mater": 2276,
      "driving": 2277,
      "responsi": 2278,
      "famili": 2279,
      "hello": 2280,
      "colle": 2281,
      "guests": 2282,
      "damn": 2283,
      "restaurant": 2284,
      "stem": 2285,
      "idence": 2286,
      "ably": 2287,
      "showed": 2288,
      "contr": 2289,
      "handle": 2290,
      "spread": 2291,
      "explo": 2292,
      "brows": 2293,
      "frantic": 2294,
      "wrapping": 2295,
      "resist": 2296,
      "protect": 2297,
      "decis": 2298,
      "rubbing": 2299,
      "birthday": 2300,
      "erection": 2301,
      "har": 2302,
      "iled": 2303,
      "kis": 2304,
      "kward": 2305,
      "pun": 2306,
      "ror": 2307,
      "remain": 2308,
      "lling": 2309,
      "hoped": 2310,
      "yester": 2311,
      "fuck": 2312,
      "frown": 2313,
      "prof": 2314,
      "awkward": 2315,
      "sliding": 2316,
      "centr": 2317,
      "present": 2318,
      "books": 2319,
      "cular": 2320,
      "color": 2321,
      "piece": 2322,
      "experienced": 2323,
      "initi": 2324,
      "jackson": 2325,
      "introdu": 2326,
      "yesterday": 2327,
      "bul": 2328,
      "fif": 2329,
      "fying": 2330,
      "ggling": 2331,
      "luck": 2332,
      "tent": 2333,
      "vir": 2334,
      "repe": 2335,
      "ara": 2336,
      "lied": 2337,
      "roman": 2338,
      "lock": 2339,
      "note": 2340,
      "oken": 2341,
      "spin": 2342,
      "spic": 2343,
      "group": 2344,
      "feels": 2345,
      "process": 2346,
      "vol": 2347,
      "contact": 2348,
      "painful": 2349,
      "grandmother": 2350,
      "grandparents": 2351,
      "empty": 2352,
      "treat": 2353,
      "muscular": 2354,
      "appropri": 2355,
      "accept": 2356,
      "thighs": 2357,
      "various": 2358,
      "extremely": 2359,
      "card": 2360,
      "gni": 2361,
      "jas": 2362,
      "nur": 2363,
      "forced": 2364,
      "nose": 2365,
      "aining": 2366,
      "dear": 2367,
      "laid": 2368,
      "nib": 2369,
      "growing": 2370,
      "pose": 2371,
      "shocked": 2372,
      "ctly": 2373,
      "became": 2374,
      "scream": 2375,
      "answered": 2376,
      "smiles": 2377,
      "jeal": 2378,
      "minute": 2379,
      "curious": 2380,
      "broad": 2381,
      "embarrassed": 2382,
      "ets": 2383,
      "ler": 2384,
      "ride": 2385,
      "relieved": 2386,
      "arp": 2387,
      "often": 2388,
      "tip": 2389,
      "charm": 2390,
      "sharp": 2391,
      "concentr": 2392,
      "wants": 2393,
      "mill": 2394,
      "woke": 2395,
      "anywhere": 2396,
      "throw": 2397,
      "appreci": 2398,
      "scared": 2399,
      "calling": 2400,
      "share": 2401,
      "greg": 2402,
      "older": 2403,
      "pressure": 2404,
      "threat": 2405,
      "fighting": 2406,
      "jacket": 2407,
      "system": 2408,
      "recogni": 2409,
      "announ": 2410,
      "above": 2411,
      "kick": 2412,
      "ners": 2413,
      "ancy": 2414,
      "towel": 2415,
      "assure": 2416,
      "star": 2417,
      "selves": 2418,
      "weal": 2419,
      "ading": 2420,
      "yours": 2421,
      "tension": 2422,
      "fix": 2423,
      "apparen": 2424,
      "carried": 2425,
      "honey": 2426,
      "ggle": 2427,
      "deeper": 2428,
      "ignore": 2429,
      "thrilled": 2430,
      "assistant": 2431,
      "kisses": 2432,
      "jealous": 2433,
      "ap": 2434,
      "bal": 2435,
      "mirr": 2436,
      "mbling": 2437,
      "pound": 2438,
      "inch": 2439,
      "wild": 2440,
      "whenever": 2441,
      "couldn": 2442,
      "trace": 2443,
      "indic": 2444,
      "ledge": 2445,
      "shiver": 2446,
      "died": 2447,
      "sett": 2448,
      "ference": 2449,
      "temper": 2450,
      "released": 2451,
      "further": 2452,
      "hanging": 2453,
      "accepted": 2454,
      "distance": 2455,
      "accident": 2456,
      "information": 2457,
      "mirror": 2458,
      "fla": 2459,
      "gown": 2460,
      "ian": 2461,
      "sw": 2462,
      "arro": 2463,
      "arab": 2464,
      "bell": 2465,
      "kets": 2466,
      "core": 2467,
      "shud": 2468,
      "const": 2469,
      "ideas": 2470,
      "wood": 2471,
      "pool": 2472,
      "nights": 2473,
      "brown": 2474,
      "angri": 2475,
      "path": 2476,
      "impo": 2477,
      "sens": 2478,
      "ctions": 2479,
      "driver": 2480,
      "center": 2481,
      "meetings": 2482,
      "blood": 2483,
      "statement": 2484,
      "convince": 2485,
      "stunned": 2486,
      "except": 2487,
      "bat": 2488,
      "cab": 2489,
      "een": 2490,
      "ior": 2491,
      "list": 2492,
      "non": 2493,
      "send": 2494,
      "val": 2495,
      "forget": 2496,
      "dep": 2497,
      "backwards": 2498,
      "thrust": 2499,
      "needing": 2500,
      "scre": 2501,
      "raising": 2502,
      "impress": 2503,
      "grabbing": 2504,
      "wrap": 2505,
      "imagined": 2506,
      "truly": 2507,
      "laying": 2508,
      "focused": 2509,
      "summer": 2510,
      "arabic": 2511,
      "gth": 2512,
      "gar": 2513,
      "ient": 2514,
      "lack": 2515,
      "pants": 2516,
      "rul": 2517,
      "sched": 2518,
      "ashed": 2519,
      "enge": 2520,
      "ender": 2521,
      "stall": 2522,
      "stren": 2523,
      "becoming": 2524,
      "velo": 2525,
      "loving": 2526,
      "moan": 2527,
      "neigh": 2528,
      "sip": 2529,
      "capt": 2530,
      "spending": 2531,
      "hospit": 2532,
      "knows": 2533,
      "store": 2534,
      "muse": 2535,
      "distrac": 2536,
      "proud": 2537,
      "shake": 2538,
      "lessly": 2539,
      "hug": 2540,
      "explan": 2541,
      "diffic": 2542,
      "protest": 2543,
      "panties": 2544,
      "emotions": 2545,
      "searching": 2546,
      "intimid": 2547,
      "pictures": 2548,
      "fresh": 2549,
      "challenge": 2550,
      "places": 2551,
      "physi": 2552,
      "orgasm": 2553,
      "appropriate": 2554,
      "schedu": 2555,
      "strength": 2556,
      "neighbor": 2557,
      "clit": 2558,
      "hid": 2559,
      "ier": 2560,
      "leng": 2561,
      "mac": 2562,
      "sse": 2563,
      "ings": 2564,
      "dom": 2565,
      "agre": 2566,
      "story": 2567,
      "pause": 2568,
      "strange": 2569,
      "skirt": 2570,
      "setting": 2571,
      "horror": 2572,
      "darkness": 2573,
      "broke": 2574,
      "stayed": 2575,
      "girls": 2576,
      "learned": 2577,
      "buttons": 2578,
      "concern": 2579,
      "tossed": 2580,
      "growled": 2581,
      "thirty": 2582,
      "hungry": 2583,
      "grateful": 2584,
      "college": 2585,
      "length": 2586,
      "bene": 2587,
      "dresses": 2588,
      "hate": 2589,
      "hiding": 2590,
      "narr": 2591,
      "tally": 2592,
      "hearing": 2593,
      "intell": 2594,
      "oned": 2595,
      "means": 2596,
      "weak": 2597,
      "tie": 2598,
      "unt": 2599,
      "gover": 2600,
      "text": 2601,
      "noting": 2602,
      "spun": 2603,
      "forehead": 2604,
      "music": 2605,
      "tense": 2606,
      "brain": 2607,
      "agement": 2608,
      "hurry": 2609,
      "walks": 2610,
      "panic": 2611,
      "desperate": 2612,
      "usual": 2613,
      "burst": 2614,
      "picture": 2615,
      "anticipation": 2616,
      "details": 2617,
      "langu": 2618,
      "material": 2619,
      "familiar": 2620,
      "beneath": 2621,
      "drea": 2622,
      "dig": 2623,
      "ik": 2624,
      "mble": 2625,
      "mmed": 2626,
      "sink": 2627,
      "asses": 2628,
      "ert": 2629,
      "sheik": 2630,
      "ensure": 2631,
      "lifting": 2632,
      "uttered": 2633,
      "notice": 2634,
      "ney": 2635,
      "agged": 2636,
      "ters": 2637,
      "pul": 2638,
      "grad": 2639,
      "grown": 2640,
      "lities": 2641,
      "rushed": 2642,
      "understanding": 2643,
      "frid": 2644,
      "happily": 2645,
      "caring": 2646,
      "curled": 2647,
      "questioned": 2648,
      "drop": 2649,
      "broken": 2650,
      "mming": 2651,
      "eased": 2652,
      "obvious": 2653,
      "rising": 2654,
      "suppose": 2655,
      "expected": 2656,
      "groan": 2657,
      "faster": 2658,
      "crossing": 2659,
      "occas": 2660,
      "hesitated": 2661,
      "murmurs": 2662,
      "brief": 2663,
      "prepared": 2664,
      "favorite": 2665,
      "exhausted": 2666,
      "difficult": 2667,
      "gin": 2668,
      "iz": 2669,
      "jud": 2670,
      "ances": 2671,
      "return": 2672,
      "ingly": 2673,
      "sheets": 2674,
      "belt": 2675,
      "history": 2676,
      "lives": 2677,
      "road": 2678,
      "necess": 2679,
      "acknow": 2680,
      "teac": 2681,
      "teach": 2682,
      "decor": 2683,
      "law": 2684,
      "amoun": 2685,
      "carrying": 2686,
      "speaking": 2687,
      "surve": 2688,
      "miser": 2689,
      "stern": 2690,
      "horrified": 2691,
      "funny": 2692,
      "honestly": 2693,
      "stables": 2694,
      "defen": 2695,
      "slept": 2696,
      "initially": 2697,
      "apparently": 2698,
      "hospital": 2699,
      "amuse": 2700,
      "claim": 2701,
      "dry": 2702,
      "ease": 2703,
      "gon": 2704,
      "iling": 2705,
      "nat": 2706,
      "sne": 2707,
      "van": 2708,
      "wise": 2709,
      "anx": 2710,
      "thered": 2711,
      "recei": 2712,
      "mes": 2713,
      "level": 2714,
      "mode": 2715,
      "myster": 2716,
      "oked": 2717,
      "unless": 2718,
      "causing": 2719,
      "spark": 2720,
      "disappo": 2721,
      "resting": 2722,
      "calls": 2723,
      "flow": 2724,
      "biting": 2725,
      "sensu": 2726,
      "picking": 2727,
      "super": 2728,
      "windows": 2729,
      "cotton": 2730,
      "climax": 2731,
      "occur": 2732,
      "problems": 2733,
      "mentioned": 2734,
      "doubt": 2735,
      "pocket": 2736,
      "squee": 2737,
      "virgin": 2738,
      "amount": 2739,
      "amusement": 2740,
      "dating": 2741,
      "ile": 2742,
      "rang": 2743,
      "squ": 2744,
      "returned": 2745,
      "thick": 2746,
      "totally": 2747,
      "aside": 2748,
      "encour": 2749,
      "stage": 2750,
      "ord": 2751,
      "ache": 2752,
      "hip": 2753,
      "weight": 2754,
      "lover": 2755,
      "losing": 2756,
      "acked": 2757,
      "pper": 2758,
      "tear": 2759,
      "conne": 2760,
      "handing": 2761,
      "ices": 2762,
      "boss": 2763,
      "bodies": 2764,
      "glasses": 2765,
      "startled": 2766,
      "breaking": 2767,
      "disappear": 2768,
      "slacks": 2769,
      "makeup": 2770,
      "trave": 2771,
      "caress": 2772,
      "tables": 2773,
      "possibility": 2774,
      "mmm": 2775,
      "enjoyed": 2776,
      "eyebrows": 2777,
      "tossing": 2778,
      "employe": 2779,
      "beyond": 2780,
      "features": 2781,
      "decision": 2782,
      "ail": 2783,
      "dor": 2784,
      "fought": 2785,
      "hon": 2786,
      "ola": 2787,
      "pho": 2788,
      "twi": 2789,
      "uc": 2790,
      "ina": 2791,
      "attrac": 2792,
      "onde": 2793,
      "shes": 2794,
      "neither": 2795,
      "tering": 2796,
      "suc": 2797,
      "grit": 2798,
      "ular": 2799,
      "stopping": 2800,
      "waved": 2801,
      "slender": 2802,
      "shivered": 2803,
      "talked": 2804,
      "huh": 2805,
      "hurried": 2806,
      "exclaim": 2807,
      "daddy": 2808,
      "chairs": 2809,
      "built": 2810,
      "maintain": 2811,
      "stret": 2812,
      "blushed": 2813,
      "study": 2814,
      "patient": 2815,
      "challeng": 2816,
      "jerked": 2817,
      "escape": 2818,
      "correct": 2819,
      "apologi": 2820,
      "frantically": 2821,
      "impossi": 2822,
      "gree": 2823,
      "song": 2824,
      "request": 2825,
      "argue": 2826,
      "stiff": 2827,
      "action": 2828,
      "hill": 2829,
      "locked": 2830,
      "tern": 2831,
      "truck": 2832,
      "fold": 2833,
      "worn": 2834,
      "chee": 2835,
      "stor": 2836,
      "pet": 2837,
      "tender": 2838,
      "blonde": 2839,
      "amused": 2840,
      "trail": 2841,
      "career": 2842,
      "cleared": 2843,
      "buy": 2844,
      "movement": 2845,
      "count": 2846,
      "sounded": 2847,
      "walls": 2848,
      "purpose": 2849,
      "added": 2850,
      "intensity": 2851,
      "gentleman": 2852,
      "classes": 2853,
      "knock": 2854,
      "current": 2855,
      "swallowed": 2856,
      "surrounded": 2857,
      "politely": 2858,
      "descri": 2859,
      "angrily": 2860,
      "agreed": 2861,
      "bs": 2862,
      "rough": 2863,
      "zi": 2864,
      "inked": 2865,
      "ination": 2866,
      "incl": 2867,
      "regre": 2868,
      "soo": 2869,
      "upset": 2870,
      "aging": 2871,
      "sig": 2872,
      "tease": 2873,
      "dead": 2874,
      "spoken": 2875,
      "throughout": 2876,
      "surely": 2877,
      "rush": 2878,
      "comput": 2879,
      "carry": 2880,
      "speed": 2881,
      "horses": 2882,
      "single": 2883,
      "sweat": 2884,
      "partic": 2885,
      "intern": 2886,
      "grief": 2887,
      "seconds": 2888,
      "queen": 2889,
      "basically": 2890,
      "normally": 2891,
      "argument": 2892,
      "blush": 2893,
      "clearly": 2894,
      "incredibly": 2895,
      "flesh": 2896,
      "dangerous": 2897,
      "interrupted": 2898,
      "grimaced": 2899,
      "conscious": 2900,
      "settled": 2901,
      "cious": 2902,
      "cared": 2903,
      "dim": 2904,
      "eld": 2905,
      "fant": 2906,
      "fra": 2907,
      "kin": 2908,
      "nade": 2909,
      "attemp": 2910,
      "ism": 2911,
      "sty": 2912,
      "wash": 2913,
      "seven": 2914,
      "ession": 2915,
      "fork": 2916,
      "moon": 2917,
      "confu": 2918,
      "expen": 2919,
      "blinked": 2920,
      "happiness": 2921,
      "scent": 2922,
      "screa": 2923,
      "earth": 2924,
      "deeply": 2925,
      "awful": 2926,
      "join": 2927,
      "laughs": 2928,
      "dropping": 2929,
      "paris": 2930,
      "offered": 2931,
      "casual": 2932,
      "promised": 2933,
      "cooking": 2934,
      "cookies": 2935,
      "rubbed": 2936,
      "ceiling": 2937,
      "pillow": 2938,
      "lady": 2939,
      "sensation": 2940,
      "explanation": 2941,
      "olai": 2942,
      "cheese": 2943,
      "fantas": 2944,
      "nadeen": 2945,
      "confusion": 2946,
      "bending": 2947,
      "eating": 2948,
      "jan": 2949,
      "mutter": 2950,
      "vent": 2951,
      "wers": 2952,
      "anim": 2953,
      "oured": 2954,
      "stup": 2955,
      "rock": 2956,
      "forgotten": 2957,
      "tips": 2958,
      "ague": 2959,
      "urday": 2960,
      "sick": 2961,
      "death": 2962,
      "suspic": 2963,
      "gras": 2964,
      "derrick": 2965,
      "affe": 2966,
      "aming": 2967,
      "scene": 2968,
      "pride": 2969,
      "prince": 2970,
      "carol": 2971,
      "shared": 2972,
      "saturday": 2973,
      "nodding": 2974,
      "steady": 2975,
      "deny": 2976,
      "arrive": 2977,
      "expecting": 2978,
      "genu": 2979,
      "boyfriend": 2980,
      "lux": 2981,
      "servant": 2982,
      "intimate": 2983,
      "eighteen": 2984,
      "third": 2985,
      "reminded": 2986,
      "garden": 2987,
      "smell": 2988,
      "tentatively": 2989,
      "impressed": 2990,
      "physical": 2991,
      "neighborhood": 2992,
      "orders": 2993,
      "photo": 2994,
      "regret": 2995,
      "bled": 2996,
      "cream": 2997,
      "fly": 2998,
      "flying": 2999,
      "lind": 3000,
      "lted": 3001,
      "zen": 3002,
      "rely": 3003,
      "enor": 3004,
      "forcing": 3005,
      "address": 3006,
      "cost": 3007,
      "covers": 3008,
      "shine": 3009,
      "cken": 3010,
      "gets": 3011,
      "taught": 3012,
      "stories": 3013,
      "opin": 3014,
      "wave": 3015,
      "comfort": 3016,
      "danielle": 3017,
      "effic": 3018,
      "palm": 3019,
      "fallen": 3020,
      "staying": 3021,
      "slipping": 3022,
      "nikolai": 3023,
      "presence": 3024,
      "amazed": 3025,
      "lowered": 3026,
      "tightly": 3027,
      "events": 3028,
      "catching": 3029,
      "beginning": 3030,
      "nearly": 3031,
      "delivered": 3032,
      "innocent": 3033,
      "romantic": 3034,
      "intellig": 3035,
      "language": 3036,
      "occurred": 3037,
      "signed": 3038,
      "computer": 3039,
      "caroline": 3040,
      "genuine": 3041,
      "linda": 3042,
      "equ": 3043,
      "mbed": 3044,
      "rard": 3045,
      "une": 3046,
      "vill": 3047,
      "heels": 3048,
      "ises": 3049,
      "arina": 3050,
      "stir": 3051,
      "rober": 3052,
      "sop": 3053,
      "lots": 3054,
      "lobby": 3055,
      "female": 3056,
      "conven": 3057,
      "conference": 3058,
      "worse": 3059,
      "wore": 3060,
      "throwing": 3061,
      "brace": 3062,
      "glaring": 3063,
      "pray": 3064,
      "lesson": 3065,
      "sky": 3066,
      "skill": 3067,
      "impre": 3068,
      "sensit": 3069,
      "jected": 3070,
      "swee": 3071,
      "parties": 3072,
      "gripping": 3073,
      "mission": 3074,
      "demanding": 3075,
      "bilities": 3076,
      "badly": 3077,
      "visit": 3078,
      "listened": 3079,
      "argued": 3080,
      "drinks": 3081,
      "search": 3082,
      "memories": 3083,
      "placing": 3084,
      "support": 3085,
      "spinning": 3086,
      "ruler": 3087,
      "stupid": 3088,
      "ban": 3089,
      "bla": 3090,
      "gain": 3091,
      "hat": 3092,
      "jall": 3093,
      "kara": 3094,
      "mad": 3095,
      "mist": 3096,
      "san": 3097,
      "sending": 3098,
      "snu": 3099,
      "invol": 3100,
      "thin": 3101,
      "educ": 3102,
      "sheet": 3103,
      "lived": 3104,
      "role": 3105,
      "wiped": 3106,
      "team": 3107,
      "nic": 3108,
      "grins": 3109,
      "themselves": 3110,
      "fault": 3111,
      "compl": 3112,
      "chief": 3113,
      "court": 3114,
      "champ": 3115,
      "wrist": 3116,
      "gerrard": 3117,
      "sons": 3118,
      "grip": 3119,
      "climbed": 3120,
      "refused": 3121,
      "reality": 3122,
      "listening": 3123,
      "ashing": 3124,
      "brush": 3125,
      "double": 3126,
      "facing": 3127,
      "revealing": 3128,
      "pointed": 3129,
      "tucked": 3130,
      "bothering": 3131,
      "irritated": 3132,
      "lines": 3133,
      "delighted": 3134,
      "increased": 3135,
      "practically": 3136,
      "profession": 3137,
      "fifteen": 3138,
      "occasion": 3139,
      "necessary": 3140,
      "apologize": 3141,
      "sensitive": 3142,
      "jalla": 3143,
      "boun": 3144,
      "cla": 3145,
      "cute": 3146,
      "hy": 3147,
      "por": 3148,
      "uh": 3149,
      "wow": 3150,
      "height": 3151,
      "regard": 3152,
      "asha": 3153,
      "enger": 3154,
      "beach": 3155,
      "acy": 3156,
      "rie": 3157,
      "formed": 3158,
      "noise": 3159,
      "movie": 3160,
      "tiv": 3161,
      "abor": 3162,
      "abasar": 3163,
      "keys": 3164,
      "wouldn": 3165,
      "notes": 3166,
      "fool": 3167,
      "poli": 3168,
      "asted": 3169,
      "peace": 3170,
      "ety": 3171,
      "goodness": 3172,
      "commit": 3173,
      "cara": 3174,
      "leather": 3175,
      "clu": 3176,
      "careful": 3177,
      "elegant": 3178,
      "settle": 3179,
      "silver": 3180,
      "relent": 3181,
      "tub": 3182,
      "approached": 3183,
      "directly": 3184,
      "vision": 3185,
      "assumed": 3186,
      "balls": 3187,
      "studying": 3188,
      "overwhelming": 3189,
      "jasmine": 3190,
      "teacher": 3191,
      "impossible": 3192,
      "gif": 3193,
      "hung": 3194,
      "nis": 3195,
      "poured": 3196,
      "tour": 3197,
      "whim": 3198,
      "yard": 3199,
      "inted": 3200,
      "begging": 3201,
      "actions": 3202,
      "aling": 3203,
      "ality": 3204,
      "allowing": 3205,
      "adar": 3206,
      "ador": 3207,
      "domin": 3208,
      "key": 3209,
      "ception": 3210,
      "shown": 3211,
      "ante": 3212,
      "wheel": 3213,
      "sul": 3214,
      "tran": 3215,
      "downstairs": 3216,
      "cap": 3217,
      "chef": 3218,
      "tson": 3219,
      "produ": 3220,
      "whir": 3221,
      "dancing": 3222,
      "fucking": 3223,
      "rude": 3224,
      "image": 3225,
      "compan": 3226,
      "princ": 3227,
      "nap": 3228,
      "mbers": 3229,
      "type": 3230,
      "helping": 3231,
      "papers": 3232,
      "raise": 3233,
      "buried": 3234,
      "silent": 3235,
      "guessing": 3236,
      "figured": 3237,
      "decide": 3238,
      "chuckle": 3239,
      "sunshine": 3240,
      "missing": 3241,
      "stub": 3242,
      "confidence": 3243,
      "heavi": 3244,
      "flush": 3245,
      "younger": 3246,
      "satisfied": 3247,
      "wealth": 3248,
      "shudder": 3249,
      "screen": 3250,
      "schedule": 3251,
      "robertson": 3252,
      "ben": 3253,
      "cro": 3254,
      "ded": 3255,
      "dess": 3256,
      "furn": 3257,
      "fts": 3258,
      "ilt": 3259,
      "ience": 3260,
      "lust": 3261,
      "sou": 3262,
      "wink": 3263,
      "heli": 3264,
      "heir": 3265,
      "aston": 3266,
      "orig": 3267,
      "acing": 3268,
      "separ": 3269,
      "weir": 3270,
      "shout": 3271,
      "unity": 3272,
      "size": 3273,
      "sucked": 3274,
      "traf": 3275,
      "exper": 3276,
      "worth": 3277,
      "lawn": 3278,
      "post": 3279,
      "posse": 3280,
      "rushing": 3281,
      "marble": 3282,
      "market": 3283,
      "angle": 3284,
      "answers": 3285,
      "obli": 3286,
      "clar": 3287,
      "smart": 3288,
      "dressing": 3289,
      "grew": 3290,
      "pretend": 3291,
      "whispers": 3292,
      "insane": 3293,
      "parking": 3294,
      "period": 3295,
      "reasons": 3296,
      "ankle": 3297,
      "climb": 3298,
      "refusing": 3299,
      "learning": 3300,
      "drawing": 3301,
      "lucy": 3302,
      "assured": 3303,
      "safety": 3304,
      "brightly": 3305,
      "struck": 3306,
      "grap": 3307,
      "burning": 3308,
      "harsh": 3309,
      "arrogant": 3310,
      "govern": 3311,
      "screamed": 3312,
      "origin": 3313,
      "traffic": 3314,
      "bbing": 3315,
      "cts": 3316,
      "cling": 3317,
      "farm": 3318,
      "fru": 3319,
      "gary": 3320,
      "kadar": 3321,
      "lately": 3322,
      "rage": 3323,
      "sco": 3324,
      "tress": 3325,
      "uct": 3326,
      "yal": 3327,
      "issa": 3328,
      "isting": 3329,
      "ency": 3330,
      "envelo": 3331,
      "item": 3332,
      "betray": 3333,
      "liqu": 3334,
      "femin": 3335,
      "enty": 3336,
      "upon": 3337,
      "copter": 3338,
      "gold": 3339,
      "manager": 3340,
      "managed": 3341,
      "somewhat": 3342,
      "mili": 3343,
      "eling": 3344,
      "guilt": 3345,
      "plenty": 3346,
      "yell": 3347,
      "marissa": 3348,
      "gather": 3349,
      "intment": 3350,
      "courage": 3351,
      "matically": 3352,
      "mattress": 3353,
      "hugged": 3354,
      "viol": 3355,
      "pretending": 3356,
      "cum": 3357,
      "refle": 3358,
      "fashi": 3359,
      "appearance": 3360,
      "changing": 3361,
      "servants": 3362,
      "flushed": 3363,
      "bajan": 3364,
      "revealed": 3365,
      "pointing": 3366,
      "circles": 3367,
      "captured": 3368,
      "success": 3369,
      "heavily": 3370,
      "helicopter": 3371,
      "awake": 3372,
      "base": 3373,
      "buck": 3374,
      "cand": 3375,
      "cure": 3376,
      "dated": 3377,
      "due": 3378,
      "drun": 3379,
      "dates": 3380,
      "fy": 3381,
      "gust": 3382,
      "ize": 3383,
      "vend": 3384,
      "wit": 3385,
      "zation": 3386,
      "heated": 3387,
      "intention": 3388,
      "inches": 3389,
      "resol": 3390,
      "stam": 3391,
      "acting": 3392,
      "tied": 3393,
      "net": 3394,
      "cele": 3395,
      "cement": 3396,
      "agne": 3397,
      "urge": 3398,
      "uni": 3399,
      "uncomfortable": 3400,
      "save": 3401,
      "knowledge": 3402,
      "boo": 3403,
      "fired": 3404,
      "tless": 3405,
      "shopping": 3406,
      "tells": 3407,
      "stands": 3408,
      "ssive": 3409,
      "softness": 3410,
      "flutter": 3411,
      "satin": 3412,
      "ils": 3413,
      "silently": 3414,
      "cring": 3415,
      "planned": 3416,
      "trembling": 3417,
      "welcome": 3418,
      "nipples": 3419,
      "delicate": 3420,
      "fury": 3421,
      "husky": 3422,
      "opport": 3423,
      "driveway": 3424,
      "charge": 3425,
      "convin": 3426,
      "clenched": 3427,
      "instructions": 3428,
      "sandwi": 3429,
      "responded": 3430,
      "appreciate": 3431,
      "hidden": 3432,
      "received": 3433,
      "includ": 3434,
      "particular": 3435,
      "genuinely": 3436,
      "mistress": 3437,
      "education": 3438,
      "champagne": 3439,
      "government": 3440,
      "av": 3441,
      "bought": 3442,
      "bill": 3443,
      "dre": 3444,
      "flight": 3445,
      "gle": 3446,
      "ges": 3447,
      "hund": 3448,
      "mass": 3449,
      "nine": 3450,
      "rise": 3451,
      "ude": 3452,
      "ines": 3453,
      "remon": 3454,
      "thouse": 3455,
      "arched": 3456,
      "meas": 3457,
      "activ": 3458,
      "lift": 3459,
      "licked": 3460,
      "rich": 3461,
      "tian": 3462,
      "abs": 3463,
      "absor": 3464,
      "butter": 3465,
      "tea": 3466,
      "sucking": 3467,
      "trans": 3468,
      "spir": 3469,
      "rap": 3470,
      "heads": 3471,
      "guar": 3472,
      "plas": 3473,
      "boat": 3474,
      "ulti": 3475,
      "ends": 3476,
      "glor": 3477,
      "shoo": 3478,
      "shoot": 3479,
      "disgust": 3480,
      "arrang": 3481,
      "shift": 3482,
      "rested": 3483,
      "paid": 3484,
      "humili": 3485,
      "awn": 3486,
      "sawyer": 3487,
      "effor": 3488,
      "kinds": 3489,
      "crack": 3490,
      "purch": 3491,
      "trip": 3492,
      "tries": 3493,
      "engaged": 3494,
      "engagement": 3495,
      "flicked": 3496,
      "remembering": 3497,
      "addition": 3498,
      "confident": 3499,
      "bastian": 3500,
      "freed": 3501,
      "massive": 3502,
      "commanded": 3503,
      "warning": 3504,
      "smooth": 3505,
      "responsibility": 3506,
      "contract": 3507,
      "swung": 3508,
      "dreams": 3509,
      "miserable": 3510,
      "honor": 3511,
      "expensive": 3512,
      "police": 3513,
      "princess": 3514,
      "hundred": 3515,
      "bid": 3516,
      "cate": 3517,
      "cently": 3518,
      "ey": 3519,
      "gress": 3520,
      "hmm": 3521,
      "nad": 3522,
      "pour": 3523,
      "port": 3524,
      "tit": 3525,
      "wri": 3526,
      "zes": 3527,
      "ana": 3528,
      "reass": 3529,
      "enthu": 3530,
      "stated": 3531,
      "ork": 3532,
      "beer": 3533,
      "aled": 3534,
      "ford": 3535,
      "forgot": 3536,
      "motor": 3537,
      "ceremon": 3538,
      "unaware": 3539,
      "antage": 3540,
      "sias": 3541,
      "tech": 3542,
      "backed": 3543,
      "camp": 3544,
      "cause": 3545,
      "worst": 3546,
      "emer": 3547,
      "precious": 3548,
      "bye": 3549,
      "forever": 3550,
      "affair": 3551,
      "blind": 3552,
      "comments": 3553,
      "shifting": 3554,
      "nerves": 3555,
      "gazed": 3556,
      "spec": 3557,
      "ski": 3558,
      "runs": 3559,
      "humor": 3560,
      "reacted": 3561,
      "smaller": 3562,
      "ability": 3563,
      "played": 3564,
      "gripped": 3565,
      "protected": 3566,
      "emphas": 3567,
      "kidding": 3568,
      "dennis": 3569,
      "filling": 3570,
      "halfway": 3571,
      "bigger": 3572,
      "riding": 3573,
      "service": 3574,
      "brushed": 3575,
      "embarrassment": 3576,
      "slammed": 3577,
      "accepting": 3578,
      "currently": 3579,
      "fascination": 3580,
      "repeat": 3581,
      "nurse": 3582,
      "recognize": 3583,
      "garage": 3584,
      "distracted": 3585,
      "judge": 3586,
      "twice": 3587,
      "enormous": 3588,
      "antee": 3589,
      "stubborn": 3590,
      "dessert": 3591,
      "fruit": 3592,
      "celebr": 3593,
      "drew": 3594,
      "guarantee": 3595,
      "enthusias": 3596,
      "bound": 3597,
      "bows": 3598,
      "dru": 3599,
      "duck": 3600,
      "eile": 3601,
      "nhill": 3602,
      "othy": 3603,
      "pant": 3604,
      "twel": 3605,
      "uce": 3606,
      "uff": 3607,
      "vul": 3608,
      "xed": 3609,
      "inha": 3610,
      "toes": 3611,
      "ases": 3612,
      "ashi": 3613,
      "ener": 3614,
      "stal": 3615,
      "begged": 3616,
      "seated": 3617,
      "lies": 3618,
      "licking": 3619,
      "vest": 3620,
      "rib": 3621,
      "tim": 3622,
      "aband": 3623,
      "hadn": 3624,
      "gossi": 3625,
      "suv": 3626,
      "caut": 3627,
      "mping": 3628,
      "spring": 3629,
      "otherwise": 3630,
      "hook": 3631,
      "poor": 3632,
      "cloth": 3633,
      "prove": 3634,
      "proper": 3635,
      "rule": 3636,
      "final": 3637,
      "comm": 3638,
      "served": 3639,
      "waiter": 3640,
      "choose": 3641,
      "shame": 3642,
      "lessons": 3643,
      "joke": 3644,
      "horiz": 3645,
      "racing": 3646,
      "reluct": 3647,
      "instinc": 3648,
      "easier": 3649,
      "grandpa": 3650,
      "cycle": 3651,
      "trick": 3652,
      "warmth": 3653,
      "terrifying": 3654,
      "arguing": 3655,
      "penthouse": 3656,
      "sniff": 3657,
      "salad": 3658,
      "pieces": 3659,
      "anticipated": 3660,
      "winked": 3661,
      "escaped": 3662,
      "pillows": 3663,
      "thornhill": 3664,
      "fascinated": 3665,
      "preferred": 3666,
      "introduced": 3667,
      "screaming": 3668,
      "charming": 3669,
      "sharply": 3670,
      "friday": 3671,
      "surveyed": 3672,
      "sneak": 3673,
      "ailable": 3674,
      "dorothy": 3675,
      "opinion": 3676,
      "involved": 3677,
      "professional": 3678,
      "regardless": 3679,
      "liquid": 3680,
      "feminine": 3681,
      "available": 3682,
      "rapid": 3683,
      "nadia": 3684,
      "eileen": 3685,
      "twelve": 3686,
      "cars": 3687,
      "cries": 3688,
      "dart": 3689,
      "fren": 3690,
      "ible": 3691,
      "iently": 3692,
      "ja": 3693,
      "joh": 3694,
      "kni": 3695,
      "mir": 3696,
      "rat": 3697,
      "rout": 3698,
      "swell": 3699,
      "tv": 3700,
      "heal": 3701,
      "heel": 3702,
      "rehe": 3703,
      "ands": 3704,
      "station": 3705,
      "stress": 3706,
      "stree": 3707,
      "secure": 3708,
      "veget": 3709,
      "wea": 3710,
      "loves": 3711,
      "admon": 3712,
      "mood": 3713,
      "tial": 3714,
      "nego": 3715,
      "chat": 3716,
      "shop": 3717,
      "sharing": 3718,
      "shorts": 3719,
      "unsure": 3720,
      "aint": 3721,
      "train": 3722,
      "condom": 3723,
      "noted": 3724,
      "elbow": 3725,
      "ics": 3726,
      "host": 3727,
      "plates": 3728,
      "eping": 3729,
      "thinks": 3730,
      "waving": 3731,
      "everywhere": 3732,
      "gives": 3733,
      "apping": 3734,
      "hardly": 3735,
      "travel": 3736,
      "movements": 3737,
      "mommy": 3738,
      "created": 3739,
      "palms": 3740,
      "condition": 3741,
      "instant": 3742,
      "difference": 3743,
      "forming": 3744,
      "formal": 3745,
      "solid": 3746,
      "protective": 3747,
      "answering": 3748,
      "refer": 3749,
      "fingertips": 3750,
      "suggestion": 3751,
      "landing": 3752,
      "patted": 3753,
      "fabulous": 3754,
      "frustrated": 3755,
      "gram": 3756,
      "slamming": 3757,
      "flew": 3758,
      "discussed": 3759,
      "magn": 3760,
      "overwhelmed": 3761,
      "stuffed": 3762,
      "pinned": 3763,
      "repeated": 3764,
      "pounding": 3765,
      "wooden": 3766,
      "intimidated": 3767,
      "digging": 3768,
      "flowers": 3769,
      "traveled": 3770,
      "frame": 3771,
      "style": 3772,
      "luxu": 3773,
      "photograp": 3774,
      "impression": 3775,
      "courtney": 3776,
      "ceremony": 3777,
      "horizon": 3778,
      "streets": 3779,
      "negoti": 3780,
      "daring": 3781,
      "fits": 3782,
      "gli": 3783,
      "izing": 3784,
      "pace": 3785,
      "wan": 3786,
      "warily": 3787,
      "entic": 3788,
      "stream": 3789,
      "leans": 3790,
      "histic": 3791,
      "ida": 3792,
      "loose": 3793,
      "outfit": 3794,
      "river": 3795,
      "riam": 3796,
      "adding": 3797,
      "moaned": 3798,
      "depart": 3799,
      "indust": 3800,
      "confir": 3801,
      "manage": 3802,
      "maj": 3803,
      "mic": 3804,
      "miriam": 3805,
      "foyer": 3806,
      "elabor": 3807,
      "pub": 3808,
      "icted": 3809,
      "hopes": 3810,
      "peered": 3811,
      "afford": 3812,
      "progress": 3813,
      "bliss": 3814,
      "reports": 3815,
      "cture": 3816,
      "gie": 3817,
      "comb": 3818,
      "hardened": 3819,
      "obser": 3820,
      "chicken": 3821,
      "chosen": 3822,
      "bull": 3823,
      "elect": 3824,
      "stranger": 3825,
      "tors": 3826,
      "reaches": 3827,
      "jewel": 3828,
      "alive": 3829,
      "momma": 3830,
      "crew": 3831,
      "relatively": 3832,
      "drag": 3833,
      "planning": 3834,
      "protection": 3835,
      "daily": 3836,
      "boring": 3837,
      "conversations": 3838,
      "passing": 3839,
      "treated": 3840,
      "casually": 3841,
      "terrible": 3842,
      "snap": 3843,
      "cuts": 3844,
      "blushing": 3845,
      "attack": 3846,
      "colors": 3847,
      "master": 3848,
      "charac": 3849,
      "struggling": 3850,
      "eagerly": 3851,
      "advantage": 3852,
      "offices": 3853,
      "entertain": 3854,
      "generally": 3855,
      "acknowled": 3856,
      "sensuous": 3857,
      "squeezed": 3858,
      "employee": 3859,
      "challenged": 3860,
      "village": 3861,
      "sophistic": 3862,
      "opportunity": 3863,
      "arranged": 3864,
      "ears": 3865,
      "faced": 3866,
      "las": 3867,
      "mare": 3868,
      "nud": 3869,
      "piss": 3870,
      "pity": 3871,
      "race": 3872,
      "rance": 3873,
      "ully": 3874,
      "invest": 3875,
      "recently": 3876,
      "ony": 3877,
      "engl": 3878,
      "stat": 3879,
      "ordin": 3880,
      "melted": 3881,
      "beha": 3882,
      "access": 3883,
      "advis": 3884,
      "doll": 3885,
      "abrup": 3886,
      "coat": 3887,
      "colate": 3888,
      "uncaring": 3889,
      "whether": 3890,
      "sult": 3891,
      "ified": 3892,
      "maid": 3893,
      "elbows": 3894,
      "nie": 3895,
      "tingly": 3896,
      "gular": 3897,
      "ources": 3898,
      "bob": 3899,
      "prov": 3900,
      "braced": 3901,
      "mostly": 3902,
      "discovered": 3903,
      "cloud": 3904,
      "chocolate": 3905,
      "dipped": 3906,
      "ishing": 3907,
      "curls": 3908,
      "tilted": 3909,
      "meaning": 3910,
      "intent": 3911,
      "realizing": 3912,
      "realization": 3913,
      "exciting": 3914,
      "heartbeat": 3915,
      "singing": 3916,
      "resent": 3917,
      "mistake": 3918,
      "protecting": 3919,
      "nuzz": 3920,
      "stronger": 3921,
      "cups": 3922,
      "hopefully": 3923,
      "shrug": 3924,
      "cushi": 3925,
      "boxes": 3926,
      "draw": 3927,
      "assume": 3928,
      "sighing": 3929,
      "occup": 3930,
      "signific": 3931,
      "ballroom": 3932,
      "furr": 3933,
      "hitting": 3934,
      "twins": 3935,
      "searched": 3936,
      "pregnancy": 3937,
      "patrick": 3938,
      "patience": 3939,
      "tucking": 3940,
      "circle": 3941,
      "advice": 3942,
      "deserved": 3943,
      "thorough": 3944,
      "nibbled": 3945,
      "jealousy": 3946,
      "constantly": 3947,
      "sternly": 3948,
      "defense": 3949,
      "mystery": 3950,
      "gritted": 3951,
      "attempt": 3952,
      "sandwich": 3953,
      "campus": 3954,
      "ashir": 3955,
      "magnific": 3956,
      "confirmed": 3957,
      "public": 3958,
      "character": 3959,
      "bowing": 3960,
      "bones": 3961,
      "cult": 3962,
      "dared": 3963,
      "fal": 3964,
      "fancy": 3965,
      "io": 3966,
      "iest": 3967,
      "jade": 3968,
      "knot": 3969,
      "lac": 3970,
      "mart": 3971,
      "oling": 3972,
      "rare": 3973,
      "swo": 3974,
      "sses": 3975,
      "vac": 3976,
      "wound": 3977,
      "rejected": 3978,
      "thous": 3979,
      "ising": 3980,
      "league": 3981,
      "below": 3982,
      "sets": 3983,
      "liking": 3984,
      "libr": 3985,
      "royal": 3986,
      "west": 3987,
      "alright": 3988,
      "lored": 3989,
      "ripp": 3990,
      "upper": 3991,
      "unts": 3992,
      "terms": 3993,
      "spr": 3994,
      "excell": 3995,
      "posed": 3996,
      "options": 3997,
      "waves": 3998,
      "blur": 3999,
      "repor": 4000,
      "letter": 4001,
      "giggled": 4002,
      "design": 4003,
      "scoff": 4004,
      "gau": 4005,
      "carrie": 4006,
      "medic": 4007,
      "pale": 4008,
      "impact": 4009,
      "impati": 4010,
      "childhood": 4011,
      "airport": 4012,
      "raced": 4013,
      "crad": 4014,
      "larger": 4015,
      "insist": 4016,
      "appears": 4017,
      "craw": 4018,
      "approach": 4019,
      "relaxing": 4020,
      "flir": 4021,
      "grocer": 4022,
      "sighs": 4023,
      "arguments": 4024,
      "cutting": 4025,
      "eaten": 4026,
      "knocked": 4027,
      "packed": 4028,
      "clench": 4029,
      "clenching": 4030,
      "deserve": 4031,
      "nibbling": 4032,
      "curiously": 4033,
      "concentrate": 4034,
      "recognized": 4035,
      "depend": 4036,
      "stretched": 4037,
      "zipper": 4038,
      "animals": 4039,
      "praying": 4040,
      "napkin": 4041,
      "soul": 4042,
      "possess": 4043,
      "envelope": 4044,
      "items": 4045,
      "additional": 4046,
      "freedom": 4047,
      "title": 4048,
      "motorcycle": 4049,
      "energy": 4050,
      "vegetable": 4051,
      "major": 4052,
      "elaborate": 4053,
      "sophisticated": 4054,
      "magnificent": 4055,
      "library": 4056,
      "dut": 4057,
      "dun": 4058,
      "jet": 4059,
      "jim": 4060,
      "lof": 4061,
      "lined": 4062,
      "muttered": 4063,
      "oil": 4064,
      "osity": 4065,
      "page": 4066,
      "park": 4067,
      "snor": 4068,
      "sank": 4069,
      "sara": 4070,
      "tan": 4071,
      "tough": 4072,
      "influ": 4073,
      "inappropriate": 4074,
      "requi": 4075,
      "regular": 4076,
      "ingredi": 4077,
      "tower": 4078,
      "ero": 4079,
      "island": 4080,
      "sting": 4081,
      "stuck": 4082,
      "meals": 4083,
      "iture": 4084,
      "beating": 4085,
      "accompl": 4086,
      "sell": 4087,
      "rode": 4088,
      "wicked": 4089,
      "altern": 4090,
      "soci": 4091,
      "adjust": 4092,
      "geor": 4093,
      "tearing": 4094,
      "background": 4095,
      "track": 4096,
      "manner": 4097,
      "micha": 4098,
      "evidence": 4099,
      "quit": 4100,
      "popped": 4101,
      "stock": 4102,
      "fiance": 4103,
      "glare": 4104,
      "shoved": 4105,
      "comber": 4106,
      "amed": 4107,
      "amer": 4108,
      "slu": 4109,
      "lightly": 4110,
      "shivers": 4111,
      "complic": 4112,
      "soften": 4113,
      "gazing": 4114,
      "contain": 4115,
      "controlled": 4116,
      "works": 4117,
      "cleaned": 4118,
      "die": 4119,
      "divor": 4120,
      "ellie": 4121,
      "pathe": 4122,
      "paused": 4123,
      "smacked": 4124,
      "mattingly": 4125,
      "vior": 4126,
      "cord": 4127,
      "effect": 4128,
      "curi": 4129,
      "wraps": 4130,
      "hallways": 4131,
      "resources": 4132,
      "breaks": 4133,
      "showered": 4134,
      "duban": 4135,
      "nervousness": 4136,
      "tribut": 4137,
      "cupped": 4138,
      "flick": 4139,
      "knee": 4140,
      "jumping": 4141,
      "entirely": 4142,
      "leading": 4143,
      "paying": 4144,
      "brothers": 4145,
      "discussing": 4146,
      "jerk": 4147,
      "cleaning": 4148,
      "sadly": 4149,
      "officer": 4150,
      "sically": 4151,
      "smoothed": 4152,
      "explore": 4153,
      "miller": 4154,
      "announced": 4155,
      "wealthy": 4156,
      "indicating": 4157,
      "shivering": 4158,
      "battle": 4159,
      "narrowed": 4160,
      "acknowledge": 4161,
      "intelligent": 4162,
      "skills": 4163,
      "blame": 4164,
      "ashamed": 4165,
      "furniture": 4166,
      "drunk": 4167,
      "rehen": 4168,
      "advisors": 4169,
      "abruptly": 4170,
      "excellent": 4171,
      "loft": 4172,
      "ald": 4173,
      "aper": 4174,
      "dar": 4175,
      "eu": 4176,
      "fist": 4177,
      "fists": 4178,
      "gly": 4179,
      "harm": 4180,
      "jun": 4181,
      "lat": 4182,
      "lish": 4183,
      "obey": 4184,
      "sis": 4185,
      "scan": 4186,
      "inde": 4187,
      "respected": 4188,
      "reception": 4189,
      "arching": 4190,
      "stab": 4191,
      "itself": 4192,
      "lets": 4193,
      "ides": 4194,
      "rot": 4195,
      "sore": 4196,
      "lobe": 4197,
      "vert": 4198,
      "whom": 4199,
      "feed": 4200,
      "chr": 4201,
      "ceed": 4202,
      "upstairs": 4203,
      "unwilling": 4204,
      "sain": 4205,
      "samu": 4206,
      "tele": 4207,
      "suck": 4208,
      "trained": 4209,
      "training": 4210,
      "conce": 4211,
      "sped": 4212,
      "worrying": 4213,
      "likely": 4214,
      "ict": 4215,
      "hol": 4216,
      "grat": 4217,
      "grace": 4218,
      "plain": 4219,
      "epi": 4220,
      "poten": 4221,
      "offering": 4222,
      "stole": 4223,
      "pee": 4224,
      "ational": 4225,
      "thrown": 4226,
      "gance": 4227,
      "blink": 4228,
      "blank": 4229,
      "report": 4230,
      "sits": 4231,
      "bles": 4232,
      "rent": 4233,
      "momentarily": 4234,
      "frank": 4235,
      "shiane": 4236,
      "nerve": 4237,
      "steering": 4238,
      "flash": 4239,
      "shall": 4240,
      "bub": 4241,
      "hurting": 4242,
      "writing": 4243,
      "price": 4244,
      "interview": 4245,
      "tusain": 4246,
      "grandma": 4247,
      "straw": 4248,
      "emphat": 4249,
      "ffed": 4250,
      "passenger": 4251,
      "trees": 4252,
      "seats": 4253,
      "flicking": 4254,
      "sugar": 4255,
      "gency": 4256,
      "basir": 4257,
      "emotional": 4258,
      "brushing": 4259,
      "landed": 4260,
      "growls": 4261,
      "determine": 4262,
      "tucker": 4263,
      "passionate": 4264,
      "employ": 4265,
      "physically": 4266,
      "games": 4267,
      "crush": 4268,
      "pockets": 4269,
      "auto": 4270,
      "author": 4271,
      "shadow": 4272,
      "contrad": 4273,
      "introduce": 4274,
      "concentration": 4275,
      "announcement": 4276,
      "kicked": 4277,
      "maccomber": 4278,
      "fridge": 4279,
      "natur": 4280,
      "disappointed": 4281,
      "grasp": 4282,
      "unex": 4283,
      "occasionally": 4284,
      "whimpered": 4285,
      "dominic": 4286,
      "astonished": 4287,
      "weird": 4288,
      "expert": 4289,
      "witness": 4290,
      "french": 4291,
      "luxurious": 4292,
      "acknowledged": 4293,
      "behavior": 4294,
      "culture": 4295,
      "martin": 4296,
      "curiosity": 4297,
      "samuel": 4298,
      "bone": 4299,
      "bank": 4300,
      "cow": 4301,
      "ec": 4302,
      "echo": 4303,
      "fati": 4304,
      "gut": 4305,
      "ized": 4306,
      "ka": 4307,
      "mused": 4308,
      "ome": 4309,
      "ored": 4310,
      "rad": 4311,
      "rain": 4312,
      "slips": 4313,
      "tree": 4314,
      "tasted": 4315,
      "vid": 4316,
      "wis": 4317,
      "anno": 4318,
      "replaced": 4319,
      "tore": 4320,
      "toys": 4321,
      "edward": 4322,
      "edna": 4323,
      "ens": 4324,
      "arch": 4325,
      "mere": 4326,
      "itation": 4327,
      "bear": 4328,
      "belly": 4329,
      "acted": 4330,
      "sequ": 4331,
      "hic": 4332,
      "roof": 4333,
      "wiping": 4334,
      "social": 4335,
      "outfits": 4336,
      "admi": 4337,
      "tick": 4338,
      "dozen": 4339,
      "agency": 4340,
      "cocked": 4341,
      "shining": 4342,
      "uncle": 4343,
      "develo": 4344,
      "tract": 4345,
      "mil": 4346,
      "mph": 4347,
      "spreading": 4348,
      "lavan": 4349,
      "checking": 4350,
      "mental": 4351,
      "embrace": 4352,
      "plat": 4353,
      "yelled": 4354,
      "sidewalk": 4355,
      "failed": 4356,
      "blow": 4357,
      "shoving": 4358,
      "ruin": 4359,
      "rumor": 4360,
      "breathed": 4361,
      "giggle": 4362,
      "amond": 4363,
      "compli": 4364,
      "parts": 4365,
      "angled": 4366,
      "voices": 4367,
      "serve": 4368,
      "nails": 4369,
      "workers": 4370,
      "clut": 4371,
      "diamond": 4372,
      "curves": 4373,
      "strands": 4374,
      "breaths": 4375,
      "breathless": 4376,
      "maya": 4377,
      "gasping": 4378,
      "countries": 4379,
      "wrists": 4380,
      "monday": 4381,
      "creating": 4382,
      "creative": 4383,
      "possibilities": 4384,
      "explor": 4385,
      "flood": 4386,
      "angelo": 4387,
      "machine": 4388,
      "jobs": 4389,
      "slides": 4390,
      "dumb": 4391,
      "brings": 4392,
      "farida": 4393,
      "presses": 4394,
      "muscle": 4395,
      "client": 4396,
      "shrugs": 4397,
      "straightened": 4398,
      "noticing": 4399,
      "buttoned": 4400,
      "assump": 4401,
      "faces": 4402,
      "factory": 4403,
      "twink": 4404,
      "tasting": 4405,
      "snat": 4406,
      "silky": 4407,
      "clasp": 4408,
      "nods": 4409,
      "spotted": 4410,
      "calmly": 4411,
      "warned": 4412,
      "swift": 4413,
      "bowl": 4414,
      "sticking": 4415,
      "swinging": 4416,
      "bulky": 4417,
      "lucky": 4418,
      "starving": 4419,
      "shuddered": 4420,
      "gradu": 4421,
      "employees": 4422,
      "affected": 4423,
      "efficiently": 4424,
      "snuggled": 4425,
      "adorable": 4426,
      "reflection": 4427,
      "fashion": 4428,
      "resolve": 4429,
      "cringed": 4430,
      "including": 4431,
      "humiliation": 4432,
      "reassuring": 4433,
      "vulner": 4434,
      "inhaled": 4435,
      "gossip": 4436,
      "john": 4437,
      "knife": 4438,
      "thousand": 4439,
      "pathetic": 4440,
      "christ": 4441,
      "television": 4442,
      "emphatically": 4443,
      "lavani": 4444,
      "cort": 4445,
      "dir": 4446,
      "dick": 4447,
      "dawn": 4448,
      "eh": 4449,
      "ks": 4450,
      "lone": 4451,
      "nut": 4452,
      "oled": 4453,
      "ragged": 4454,
      "tar": 4455,
      "task": 4456,
      "yep": 4457,
      "ature": 4458,
      "asper": 4459,
      "assho": 4460,
      "oning": 4461,
      "itch": 4462,
      "itude": 4463,
      "beck": 4464,
      "belong": 4465,
      "accus": 4466,
      "escor": 4467,
      "escort": 4468,
      "veta": 4469,
      "ution": 4470,
      "log": 4471,
      "ripped": 4472,
      "adam": 4473,
      "adult": 4474,
      "aback": 4475,
      "nel": 4476,
      "neat": 4477,
      "nest": 4478,
      "chart": 4479,
      "entrance": 4480,
      "agger": 4481,
      "shveta": 4482,
      "urch": 4483,
      "term": 4484,
      "susan": 4485,
      "indian": 4486,
      "confirm": 4487,
      "mia": 4488,
      "mily": 4489,
      "mild": 4490,
      "spine": 4491,
      "cheer": 4492,
      "pop": 4493,
      "therefore": 4494,
      "bothered": 4495,
      "pected": 4496,
      "peak": 4497,
      "pective": 4498,
      "selfish": 4499,
      "mumbled": 4500,
      "newsp": 4501,
      "brand": 4502,
      "doorbell": 4503,
      "rules": 4504,
      "goodnight": 4505,
      "goodbye": 4506,
      "betro": 4507,
      "slowed": 4508,
      "lighting": 4509,
      "adequ": 4510,
      "scary": 4511,
      "pleased": 4512,
      "contained": 4513,
      "ddled": 4514,
      "chose": 4515,
      "flower": 4516,
      "curl": 4517,
      "buzz": 4518,
      "smack": 4519,
      "pile": 4520,
      "mates": 4521,
      "human": 4522,
      "hugging": 4523,
      "vibr": 4524,
      "sexually": 4525,
      "corners": 4526,
      "likes": 4527,
      "rolls": 4528,
      "tug": 4529,
      "tuition": 4530,
      "ringing": 4531,
      "build": 4532,
      "flipped": 4533,
      "refre": 4534,
      "sixteen": 4535,
      "subtle": 4536,
      "suitcase": 4537,
      "cussion": 4538,
      "boxers": 4539,
      "basket": 4540,
      "phr": 4541,
      "assuming": 4542,
      "signs": 4543,
      "sively": 4544,
      "bird": 4545,
      "twisted": 4546,
      "students": 4547,
      "shortly": 4548,
      "perspective": 4549,
      "finishing": 4550,
      "hesitation": 4551,
      "merci": 4552,
      "irritation": 4553,
      "irritating": 4554,
      "agreement": 4555,
      "magic": 4556,
      "surrounding": 4557,
      "increasing": 4558,
      "examining": 4559,
      "froze": 4560,
      "punched": 4561,
      "remained": 4562,
      "million": 4563,
      "accidentally": 4564,
      "constance": 4565,
      "cabine": 4566,
      "pauses": 4567,
      "pulse": 4568,
      "claimed": 4569,
      "disappointment": 4570,
      "connected": 4571,
      "caressing": 4572,
      "fantasy": 4573,
      "comfortably": 4574,
      "companion": 4575,
      "originally": 4576,
      "stammer": 4577,
      "convinced": 4578,
      "activities": 4579,
      "efforts": 4580,
      "reluctantly": 4581,
      "rapidly": 4582,
      "pissed": 4583,
      "furrowed": 4584,
      "ingredients": 4585,
      "unexpected": 4586,
      "dirty": 4587,
      "aide": 4588,
      "bree": 4589,
      "cred": 4590,
      "cage": 4591,
      "clip": 4592,
      "ffe": 4593,
      "iety": 4594,
      "ker": 4595,
      "knight": 4596,
      "lou": 4597,
      "oo": 4598,
      "py": 4599,
      "punch": 4600,
      "sir": 4601,
      "sway": 4602,
      "tti": 4603,
      "tur": 4604,
      "wand": 4605,
      "ware": 4606,
      "xie": 4607,
      "theart": 4608,
      "reassure": 4609,
      "thal": 4610,
      "total": 4611,
      "attered": 4612,
      "arse": 4613,
      "artic": 4614,
      "sts": 4615,
      "llen": 4616,
      "members": 4617,
      "itten": 4618,
      "owe": 4619,
      "acqu": 4620,
      "accompany": 4621,
      "waste": 4622,
      "hal": 4623,
      "rosse": 4624,
      "roxie": 4625,
      "alco": 4626,
      "alert": 4627,
      "loss": 4628,
      "rice": 4629,
      "nope": 4630,
      "moans": 4631,
      "fears": 4632,
      "church": 4633,
      "oking": 4634,
      "shri": 4635,
      "ury": 4636,
      "savor": 4637,
      "simi": 4638,
      "deck": 4639,
      "demon": 4640,
      "debor": 4641,
      "suits": 4642,
      "mple": 4643,
      "exasper": 4644,
      "worthy": 4645,
      "oused": 4646,
      "lfri": 4647,
      "grass": 4648,
      "pot": 4649,
      "however": 4650,
      "endar": 4651,
      "whoa": 4652,
      "clothing": 4653,
      "liter": 4654,
      "bride": 4655,
      "giggling": 4656,
      "bless": 4657,
      "distract": 4658,
      "frater": 4659,
      "marrying": 4660,
      "comprom": 4661,
      "scen": 4662,
      "scare": 4663,
      "pless": 4664,
      "linger": 4665,
      "ddy": 4666,
      "flashed": 4667,
      "diving": 4668,
      "shaft": 4669,
      "skim": 4670,
      "intending": 4671,
      "torso": 4672,
      "matching": 4673,
      "gasps": 4674,
      "written": 4675,
      "stepbrother": 4676,
      "create": 4677,
      "effe": 4678,
      "drinking": 4679,
      "kitten": 4680,
      "explaining": 4681,
      "girlfri": 4682,
      "dug": 4683,
      "calendar": 4684,
      "grinning": 4685,
      "incident": 4686,
      "ffy": 4687,
      "slim": 4688,
      "rings": 4689,
      "engine": 4690,
      "cases": 4691,
      "warmed": 4692,
      "flies": 4693,
      "latest": 4694,
      "tively": 4695,
      "throbbing": 4696,
      "tightened": 4697,
      "drawn": 4698,
      "cottage": 4699,
      "furiously": 4700,
      "attend": 4701,
      "clasped": 4702,
      "avoiding": 4703,
      "salon": 4704,
      "devast": 4705,
      "invited": 4706,
      "privacy": 4707,
      "sadness": 4708,
      "prepare": 4709,
      "instructed": 4710,
      "personality": 4711,
      "admitted": 4712,
      "exception": 4713,
      "grimace": 4714,
      "focusing": 4715,
      "satisfac": 4716,
      "practice": 4717,
      "responsibilities": 4718,
      "resistance": 4719,
      "wildly": 4720,
      "thrusts": 4721,
      "intimidating": 4722,
      "anxiety": 4723,
      "exclaimed": 4724,
      "soothed": 4725,
      "washing": 4726,
      "equally": 4727,
      "sweetheart": 4728,
      "gift": 4729,
      "oblig": 4730,
      "guilty": 4731,
      "vendors": 4732,
      "specif": 4733,
      "electric": 4734,
      "english": 4735,
      "lacrosse": 4736,
      "vegetables": 4737,
      "snorted": 4738,
      "influence": 4739,
      "potential": 4740,
      "martini": 4741,
      "fatigue": 4742,
      "refreshing": 4743,
      "deborah": 4744,
      "cig": 4745,
      "cence": 4746,
      "dust": 4747,
      "emily": 4748,
      "fain": 4749,
      "fright": 4750,
      "gun": 4751,
      "hint": 4752,
      "ired": 4753,
      "loun": 4754,
      "phe": 4755,
      "sac": 4756,
      "sca": 4757,
      "va": 4758,
      "woken": 4759,
      "xing": 4760,
      "yers": 4761,
      "reg": 4762,
      "rer": 4763,
      "rever": 4764,
      "refri": 4765,
      "resid": 4766,
      "reeling": 4767,
      "record": 4768,
      "assigned": 4769,
      "ences": 4770,
      "stars": 4771,
      "organ": 4772,
      "mered": 4773,
      "mester": 4774,
      "believ": 4775,
      "utation": 4776,
      "alluring": 4777,
      "loc": 4778,
      "outrage": 4779,
      "rigu": 4780,
      "ripping": 4781,
      "forman": 4782,
      "adul": 4783,
      "adop": 4784,
      "mobi": 4785,
      "motel": 4786,
      "tire": 4787,
      "cep": 4788,
      "ented": 4789,
      "cozy": 4790,
      "unbuttoned": 4791,
      "teaching": 4792,
      "termin": 4793,
      "decl": 4794,
      "devi": 4795,
      "defeat": 4796,
      "contemp": 4797,
      "manners": 4798,
      "mail": 4799,
      "spill": 4800,
      "exposed": 4801,
      "overly": 4802,
      "pushes": 4803,
      "ican": 4804,
      "hole": 4805,
      "gru": 4806,
      "plus": 4807,
      "ourselves": 4808,
      "asty": 4809,
      "mug": 4810,
      "performan": 4811,
      "promp": 4812,
      "tensed": 4813,
      "field": 4814,
      "blat": 4815,
      "blouse": 4816,
      "danced": 4817,
      "starts": 4818,
      "appet": 4819,
      "dish": 4820,
      "dishes": 4821,
      "scow": 4822,
      "steal": 4823,
      "pleaded": 4824,
      "nause": 4825,
      "medical": 4826,
      "clin": 4827,
      "clad": 4828,
      "choices": 4829,
      "dive": 4830,
      "diplo": 4831,
      "babies": 4832,
      "string": 4833,
      "stradd": 4834,
      "intrigu": 4835,
      "legal": 4836,
      "impro": 4837,
      "chaos": 4838,
      "senses": 4839,
      "wrink": 4840,
      "gerator": 4841,
      "crash": 4842,
      "drank": 4843,
      "lipstick": 4844,
      "swept": 4845,
      "sweater": 4846,
      "falls": 4847,
      "grabs": 4848,
      "prior": 4849,
      "tugging": 4850,
      "kitchens": 4851,
      "granddaughter": 4852,
      "midnight": 4853,
      "denying": 4854,
      "approve": 4855,
      "terribly": 4856,
      "positive": 4857,
      "tightening": 4858,
      "intensi": 4859,
      "godfather": 4860,
      "collar": 4861,
      "student": 4862,
      "embarrassing": 4863,
      "leads": 4864,
      "bapt": 4865,
      "zza": 4866,
      "avoided": 4867,
      "politics": 4868,
      "taller": 4869,
      "distur": 4870,
      "stunning": 4871,
      "expectantly": 4872,
      "swallow": 4873,
      "desert": 4874,
      "ladies": 4875,
      "exams": 4876,
      "descended": 4877,
      "innocence": 4878,
      "punish": 4879,
      "balance": 4880,
      "arrogance": 4881,
      "scheduled": 4882,
      "decorated": 4883,
      "nature": 4884,
      "anxious": 4885,
      "described": 4886,
      "roughly": 4887,
      "committed": 4888,
      "capable": 4889,
      "benef": 4890,
      "climbing": 4891,
      "betrayal": 4892,
      "sniffed": 4893,
      "glimp": 4894,
      "streaming": 4895,
      "rarely": 4896,
      "swollen": 4897,
      "complicated": 4898,
      "euro": 4899,
      "indeed": 4900,
      "strawber": 4901,
      "radio": 4902,
      "exploring": 4903,
      "newspaper": 4904,
      "satisfaction": 4905,
      "specifically": 4906,
      "refrigerator": 4907,
      "performance": 4908,
      "az": 4909,
      "bend": 4910,
      "cous": 4911,
      "cast": 4912,
      "crea": 4913,
      "eli": 4914,
      "ech": 4915,
      "hou": 4916,
      "hits": 4917,
      "ire": 4918,
      "iot": 4919,
      "joked": 4920,
      "named": 4921,
      "pow": 4922,
      "pup": 4923,
      "slit": 4924,
      "tant": 4925,
      "ues": 4926,
      "zzy": 4927,
      "inward": 4928,
      "independ": 4929,
      "assion": 4930,
      "melt": 4931,
      "merely": 4932,
      "ites": 4933,
      "itching": 4934,
      "lect": 4935,
      "beaming": 4936,
      "acle": 4937,
      "ids": 4938,
      "idiot": 4939,
      "sevent": 4940,
      "semester": 4941,
      "lia": 4942,
      "loaded": 4943,
      "versity": 4944,
      "rip": 4945,
      "ades": 4946,
      "admir": 4947,
      "iron": 4948,
      "uncomfortably": 4949,
      "sake": 4950,
      "sized": 4951,
      "tery": 4952,
      "dest": 4953,
      "conserv": 4954,
      "cake": 4955,
      "camer": 4956,
      "miles": 4957,
      "split": 4958,
      "sport": 4959,
      "exp": 4960,
      "exit": 4961,
      "overcome": 4962,
      "quir": 4963,
      "gul": 4964,
      "guide": 4965,
      "plant": 4966,
      "bored": 4967,
      "stops": 4968,
      "stool": 4969,
      "program": 4970,
      "thoughtful": 4971,
      "fil": 4972,
      "blowing": 4973,
      "wherever": 4974,
      "common": 4975,
      "arrange": 4976,
      "ships": 4977,
      "compassion": 4978,
      "prison": 4979,
      "serving": 4980,
      "spell": 4981,
      "speech": 4982,
      "surface": 4983,
      "survi": 4984,
      "buying": 4985,
      "strate": 4986,
      "skimmed": 4987,
      "match": 4988,
      "questioning": 4989,
      "counting": 4990,
      "write": 4991,
      "beau": 4992,
      "friendly": 4993,
      "founded": 4994,
      "closely": 4995,
      "sleepy": 4996,
      "sounding": 4997,
      "insisted": 4998,
      "beautifully": 4999,
      "parked": 5000,
      "personally": 5001,
      "happens": 5002,
      "denied": 5003,
      "motioned": 5004,
      "risk": 5005,
      "continuing": 5006,
      "cash": 5007,
      "tempted": 5008,
      "groans": 5009,
      "revel": 5010,
      "istence": 5011,
      "worriedly": 5012,
      "brave": 5013,
      "lowering": 5014,
      "penis": 5015,
      "trusted": 5016,
      "emotionally": 5017,
      "snapping": 5018,
      "points": 5019,
      "pointless": 5020,
      "directions": 5021,
      "thrilling": 5022,
      "teasingly": 5023,
      "circum": 5024,
      "packing": 5025,
      "invitation": 5026,
      "bottles": 5027,
      "offici": 5028,
      "official": 5029,
      "classroom": 5030,
      "interrupt": 5031,
      "determination": 5032,
      "fascinating": 5033,
      "increase": 5034,
      "swings": 5035,
      "generous": 5036,
      "frozen": 5037,
      "responsible": 5038,
      "presented": 5039,
      "bulging": 5040,
      "kicking": 5041,
      "honeymoon": 5042,
      "balcon": 5043,
      "protested": 5044,
      "narrow": 5045,
      "briefly": 5046,
      "lawyer": 5047,
      "traveling": 5048,
      "attraction": 5049,
      "greeted": 5050,
      "storm": 5051,
      "petite": 5052,
      "suspiciously": 5053,
      "convenient": 5054,
      "shuddering": 5055,
      "marketplace": 5056,
      "absorbed": 5057,
      "shoots": 5058,
      "purchase": 5059,
      "eyel": 5060,
      "orkers": 5061,
      "abandoned": 5062,
      "hostess": 5063,
      "referring": 5064,
      "bobbed": 5065,
      "dunari": 5066,
      "jimmy": 5067,
      "american": 5068,
      "employment": 5069,
      "automatically": 5070,
      "escorted": 5071,
      "credit": 5072,
      "warehouse": 5073,
      "similar": 5074,
      "mobile": 5075,
      "baptism": 5076,
      "aps": 5077,
      "bass": 5078,
      "bang": 5079,
      "dried": 5080,
      "fan": 5081,
      "frea": 5082,
      "fish": 5083,
      "faded": 5084,
      "glit": 5085,
      "gates": 5086,
      "itor": 5087,
      "lce": 5088,
      "nes": 5089,
      "obed": 5090,
      "pad": 5091,
      "rant": 5092,
      "sin": 5093,
      "sar": 5094,
      "tits": 5095,
      "tank": 5096,
      "umph": 5097,
      "wary": 5098,
      "zger": 5099,
      "iny": 5100,
      "anked": 5101,
      "angie": 5102,
      "reven": 5103,
      "ths": 5104,
      "onment": 5105,
      "hero": 5106,
      "shelf": 5107,
      "sta": 5108,
      "stit": 5109,
      "stagger": 5110,
      "meter": 5111,
      "itched": 5112,
      "believed": 5113,
      "identi": 5114,
      "hay": 5115,
      "seed": 5116,
      "esome": 5117,
      "hired": 5118,
      "lim": 5119,
      "lifts": 5120,
      "alarm": 5121,
      "logy": 5122,
      "ads": 5123,
      "tia": 5124,
      "dove": 5125,
      "dogs": 5126,
      "dolce": 5127,
      "chances": 5128,
      "entering": 5129,
      "shr": 5130,
      "shows": 5131,
      "urged": 5132,
      "unlike": 5133,
      "goal": 5134,
      "aret": 5135,
      "sauce": 5136,
      "sily": 5137,
      "destro": 5138,
      "backing": 5139,
      "tras": 5140,
      "exer": 5141,
      "laund": 5142,
      "chemis": 5143,
      "icy": 5144,
      "quar": 5145,
      "grade": 5146,
      "grunt": 5147,
      "stone": 5148,
      "peering": 5149,
      "endure": 5150,
      "oped": 5151,
      "nightmare": 5152,
      "permission": 5153,
      "bedside": 5154,
      "proof": 5155,
      "brow": 5156,
      "bracing": 5157,
      "glow": 5158,
      "whipped": 5159,
      "ruined": 5160,
      "reputation": 5161,
      "display": 5162,
      "discussion": 5163,
      "stilled": 5164,
      "tical": 5165,
      "ticket": 5166,
      "scrat": 5167,
      "touches": 5168,
      "tyard": 5169,
      "sincerely": 5170,
      "waitress": 5171,
      "trapped": 5172,
      "fluttered": 5173,
      "sedu": 5174,
      "papa": 5175,
      "curling": 5176,
      "cursed": 5177,
      "curtain": 5178,
      "raises": 5179,
      "buddy": 5180,
      "element": 5181,
      "ggage": 5182,
      "intently": 5183,
      "courtyard": 5184,
      "pizza": 5185,
      "cian": 5186,
      "slightest": 5187,
      "joe": 5188,
      "glances": 5189,
      "kinda": 5190,
      "drives": 5191,
      "belief": 5192,
      "dragged": 5193,
      "ketch": 5194,
      "easing": 5195,
      "wallet": 5196,
      "topic": 5197,
      "tured": 5198,
      "solution": 5199,
      "decent": 5200,
      "dumped": 5201,
      "calcul": 5202,
      "triumph": 5203,
      "sliced": 5204,
      "farther": 5205,
      "border": 5206,
      "ankles": 5207,
      "messenger": 5208,
      "sundress": 5209,
      "imagination": 5210,
      "bikin": 5211,
      "arriving": 5212,
      "direct": 5213,
      "flicks": 5214,
      "studi": 5215,
      "visible": 5216,
      "reveren": 5217,
      "releasing": 5218,
      "panick": 5219,
      "luggage": 5220,
      "picnic": 5221,
      "ively": 5222,
      "collaps": 5223,
      "twisting": 5224,
      "attitude": 5225,
      "bags": 5226,
      "bury": 5227,
      "leader": 5228,
      "pattia": 5229,
      "mascul": 5230,
      "struggled": 5231,
      "fitzger": 5232,
      "dammit": 5233,
      "knob": 5234,
      "thrill": 5235,
      "thumbs": 5236,
      "deliver": 5237,
      "elevators": 5238,
      "magaz": 5239,
      "swallowing": 5240,
      "sisters": 5241,
      "scrap": 5242,
      "scrambled": 5243,
      "exhaustion": 5244,
      "stroke": 5245,
      "general": 5246,
      "explode": 5247,
      "decisions": 5248,
      "romance": 5249,
      "jasim": 5250,
      "nurses": 5251,
      "nursing": 5252,
      "fixed": 5253,
      "model": 5254,
      "dorm": 5255,
      "attracted": 5256,
      "stretching": 5257,
      "challenging": 5258,
      "efficient": 5259,
      "intelligence": 5260,
      "porch": 5261,
      "clarified": 5262,
      "harshly": 5263,
      "successful": 5264,
      "university": 5265,
      "plastered": 5266,
      "ultimate": 5267,
      "emergency": 5268,
      "emphasis": 5269,
      "enthusiasm": 5270,
      "ducked": 5271,
      "commun": 5272,
      "instinctively": 5273,
      "departure": 5274,
      "industries": 5275,
      "lashes": 5276,
      "investig": 5277,
      "niece": 5278,
      "significant": 5279,
      "thoroughly": 5280,
      "scoffs": 5281,
      "medicine": 5282,
      "alternative": 5283,
      "george": 5284,
      "coworkers": 5285,
      "dumbfounded": 5286,
      "adequate": 5287,
      "louder": 5288,
      "article": 5289,
      "alcohol": 5290,
      "lingerie": 5291,
      "effective": 5292,
      "girlfriend": 5293,
      "washington": 5294,
      "phew": 5295,
      "glimpse": 5296,
      "houses": 5297,
      "balcony": 5298,
      "laundry": 5299,
      "chemistry": 5300,
      "bikini": 5301,
      "fitzgerald": 5302,
      "aked": 5303,
      "aunts": 5304,
      "bb": 5305,
      "bast": 5306,
      "bread": 5307,
      "cri": 5308,
      "cled": 5309,
      "eman": 5310,
      "egg": 5311,
      "fed": 5312,
      "fid": 5313,
      "fade": 5314,
      "ffing": 5315,
      "flip": 5316,
      "ilored": 5317,
      "jam": 5318,
      "lished": 5319,
      "lung": 5320,
      "multi": 5321,
      "nan": 5322,
      "nasty": 5323,
      "oom": 5324,
      "pac": 5325,
      "paced": 5326,
      "ras": 5327,
      "rate": 5328,
      "shim": 5329,
      "smother": 5330,
      "slap": 5331,
      "tes": 5332,
      "york": 5333,
      "infu": 5334,
      "insul": 5335,
      "rear": 5336,
      "recovered": 5337,
      "resign": 5338,
      "rebell": 5339,
      "tomy": 5340,
      "atten": 5341,
      "ery": 5342,
      "isn": 5343,
      "istim": 5344,
      "accur": 5345,
      "accent": 5346,
      "account": 5347,
      "washed": 5348,
      "hissed": 5349,
      "sees": 5350,
      "hie": 5351,
      "lick": 5352,
      "vehi": 5353,
      "wives": 5354,
      "wiggle": 5355,
      "lovers": 5356,
      "locking": 5357,
      "forms": 5358,
      "tily": 5359,
      "nephew": 5360,
      "chan": 5361,
      "ceive": 5362,
      "upwards": 5363,
      "ags": 5364,
      "agging": 5365,
      "shuff": 5366,
      "sipped": 5367,
      "sibling": 5368,
      "terrace": 5369,
      "del": 5370,
      "sum": 5371,
      "backs": 5372,
      "ify": 5373,
      "tracks": 5374,
      "contrac": 5375,
      "consequ": 5376,
      "cafe": 5377,
      "mpled": 5378,
      "spl": 5379,
      "span": 5380,
      "worries": 5381,
      "overhead": 5382,
      "overnight": 5383,
      "raw": 5384,
      "pure": 5385,
      "hopped": 5386,
      "hoarse": 5387,
      "lfill": 5388,
      "quis": 5389,
      "qual": 5390,
      "ours": 5391,
      "pota": 5392,
      "poison": 5393,
      "tailored": 5394,
      "preced": 5395,
      "illian": 5396,
      "option": 5397,
      "permit": 5398,
      "propo": 5399,
      "prospect": 5400,
      "proceed": 5401,
      "waking": 5402,
      "fulfill": 5403,
      "shocking": 5404,
      "minds": 5405,
      "frag": 5406,
      "compet": 5407,
      "compared": 5408,
      "complied": 5409,
      "comprehen": 5410,
      "opens": 5411,
      "steel": 5412,
      "nah": 5413,
      "object": 5414,
      "mbs": 5415,
      "puts": 5416,
      "vices": 5417,
      "trailing": 5418,
      "clearing": 5419,
      "flared": 5420,
      "flashing": 5421,
      "smir": 5422,
      "greet": 5423,
      "athle": 5424,
      "runway": 5425,
      "keeps": 5426,
      "sided": 5427,
      "awned": 5428,
      "joy": 5429,
      "parent": 5430,
      "picks": 5431,
      "driven": 5432,
      "crown": 5433,
      "drops": 5434,
      "eyeing": 5435,
      "neckline": 5436,
      "interior": 5437,
      "perimeter": 5438,
      "tune": 5439,
      "guessed": 5440,
      "mischief": 5441,
      "numbers": 5442,
      "immediate": 5443,
      "grandfather": 5444,
      "expressions": 5445,
      "staircase": 5446,
      "messed": 5447,
      "tremble": 5448,
      "gesture": 5449,
      "sunglasses": 5450,
      "continues": 5451,
      "amaze": 5452,
      "approval": 5453,
      "lowers": 5454,
      "stumbled": 5455,
      "viewing": 5456,
      "tighter": 5457,
      "tighten": 5458,
      "heaving": 5459,
      "drawer": 5460,
      "suggesting": 5461,
      "freeze": 5462,
      "block": 5463,
      "blocks": 5464,
      "comforter": 5465,
      "delicately": 5466,
      "fluffy": 5467,
      "widen": 5468,
      "widening": 5469,
      "burying": 5470,
      "opera": 5471,
      "patr": 5472,
      "charlie": 5473,
      "patiently": 5474,
      "excitedly": 5475,
      "slapped": 5476,
      "hesitate": 5477,
      "footsteps": 5478,
      "secrets": 5479,
      "exhaled": 5480,
      "blankets": 5481,
      "brick": 5482,
      "employer": 5483,
      "sandals": 5484,
      "warn": 5485,
      "restaurants": 5486,
      "appointment": 5487,
      "dreaming": 5488,
      "correctly": 5489,
      "supplies": 5490,
      "considerate": 5491,
      "stripped": 5492,
      "gratefully": 5493,
      "shade": 5494,
      "shadows": 5495,
      "families": 5496,
      "harass": 5497,
      "frowning": 5498,
      "fifty": 5499,
      "pounded": 5500,
      "settling": 5501,
      "sensations": 5502,
      "freshman": 5503,
      "concerns": 5504,
      "governess": 5505,
      "judg": 5506,
      "squeeze": 5507,
      "songs": 5508,
      "describe": 5509,
      "attempts": 5510,
      "mutters": 5511,
      "luxury": 5512,
      "gifts": 5513,
      "whirling": 5514,
      "wealthiest": 5515,
      "shouted": 5516,
      "original": 5517,
      "gathering": 5518,
      "vendor": 5519,
      "celebrate": 5520,
      "photographers": 5521,
      "combination": 5522,
      "vacation": 5523,
      "duty": 5524,
      "accomplished": 5525,
      "divorce": 5526,
      "authority": 5527,
      "vulnerable": 5528,
      "betrothal": 5529,
      "cabinet": 5530,
      "fraterni": 5531,
      "compromise": 5532,
      "scenari": 5533,
      "believing": 5534,
      "wrinkled": 5535,
      "inwardly": 5536,
      "conservative": 5537,
      "expand": 5538,
      "sarcas": 5539,
      "panicked": 5540,
      "bastard": 5541,
      "nanny": 5542,
      "infuri": 5543,
      "resignation": 5544,
      "awe": 5545,
      "barri": 5546,
      "bond": 5547,
      "cke": 5548,
      "cart": 5549,
      "cise": 5550,
      "fat": 5551,
      "fate": 5552,
      "gid": 5553,
      "gall": 5554,
      "gur": 5555,
      "gate": 5556,
      "hanger": 5557,
      "jour": 5558,
      "jillian": 5559,
      "kana": 5560,
      "lting": 5561,
      "ore": 5562,
      "oce": 5563,
      "phi": 5564,
      "raging": 5565,
      "ske": 5566,
      "sour": 5567,
      "sinking": 5568,
      "sketch": 5569,
      "tast": 5570,
      "treason": 5571,
      "ugly": 5572,
      "viously": 5573,
      "vague": 5574,
      "yel": 5575,
      "zar": 5576,
      "react": 5577,
      "replace": 5578,
      "regain": 5579,
      "thong": 5580,
      "toast": 5581,
      "todd": 5582,
      "astic": 5583,
      "iscu": 5584,
      "ense": 5585,
      "enced": 5586,
      "encounter": 5587,
      "envir": 5588,
      "member": 5589,
      "habit": 5590,
      "sea": 5591,
      "seve": 5592,
      "session": 5593,
      "esh": 5594,
      "hire": 5595,
      "limbs": 5596,
      "vement": 5597,
      "rote": 5598,
      "rocks": 5599,
      "wipe": 5600,
      "somed": 5601,
      "mote": 5602,
      "movi": 5603,
      "neare": 5604,
      "upcoming": 5605,
      "agon": 5606,
      "agend": 5607,
      "coordin": 5608,
      "urs": 5609,
      "unknown": 5610,
      "unconcerned": 5611,
      "saved": 5612,
      "tex": 5613,
      "owner": 5614,
      "declar": 5615,
      "backyard": 5616,
      "trash": 5617,
      "conve": 5618,
      "consu": 5619,
      "conced": 5620,
      "confront": 5621,
      "concei": 5622,
      "congrat": 5623,
      "handful": 5624,
      "spat": 5625,
      "laven": 5626,
      "overheard": 5627,
      "mented": 5628,
      "mentally": 5629,
      "quality": 5630,
      "popping": 5631,
      "potom": 5632,
      "tapped": 5633,
      "bold": 5634,
      "bobby": 5635,
      "offers": 5636,
      "ultras": 5637,
      "stomped": 5638,
      "peek": 5639,
      "pepper": 5640,
      "yelling": 5641,
      "whoever": 5642,
      "perfe": 5643,
      "needle": 5644,
      "fai": 5645,
      "fake": 5646,
      "whipping": 5647,
      "fuss": 5648,
      "finan": 5649,
      "amusing": 5650,
      "helps": 5651,
      "wardrobe": 5652,
      "shield": 5653,
      "desig": 5654,
      "menu": 5655,
      "pron": 5656,
      "mouths": 5657,
      "leaves": 5658,
      "restr": 5659,
      "earnest": 5660,
      "surge": 5661,
      "trailed": 5662,
      "chopping": 5663,
      "flor": 5664,
      "pausing": 5665,
      "ishly": 5666,
      "shape": 5667,
      "shakes": 5668,
      "tilting": 5669,
      "bump": 5670,
      "dresser": 5671,
      "eleven": 5672,
      "holds": 5673,
      "ggles": 5674,
      "diner": 5675,
      "wonderfully": 5676,
      "rung": 5677,
      "cies": 5678,
      "humid": 5679,
      "hugs": 5680,
      "chal": 5681,
      "hurts": 5682,
      "senior": 5683,
      "homework": 5684,
      "creep": 5685,
      "veness": 5686,
      "cris": 5687,
      "schools": 5688,
      "insists": 5689,
      "responding": 5690,
      "playfully": 5691,
      "internet": 5692,
      "explains": 5693,
      "davis": 5694,
      "purple": 5695,
      "calmed": 5696,
      "strap": 5697,
      "quiver": 5698,
      "coup": 5699,
      "knuck": 5700,
      "sunday": 5701,
      "sunlight": 5702,
      "images": 5703,
      "imagining": 5704,
      "bizar": 5705,
      "rowan": 5706,
      "studied": 5707,
      "entice": 5708,
      "acceler": 5709,
      "viewed": 5710,
      "foods": 5711,
      "desired": 5712,
      "kneels": 5713,
      "adds": 5714,
      "cookie": 5715,
      "names": 5716,
      "relationships": 5717,
      "catches": 5718,
      "appearing": 5719,
      "rubs": 5720,
      "godmother": 5721,
      "blocking": 5722,
      "function": 5723,
      "attached": 5724,
      "growl": 5725,
      "burden": 5726,
      "babe": 5727,
      "honesty": 5728,
      "struggle": 5729,
      "stares": 5730,
      "salary": 5731,
      "sentence": 5732,
      "crystal": 5733,
      "invas": 5734,
      "invite": 5735,
      "commands": 5736,
      "killed": 5737,
      "preparing": 5738,
      "loudly": 5739,
      "cocktail": 5740,
      "gym": 5741,
      "swim": 5742,
      "shyly": 5743,
      "satisfying": 5744,
      "strode": 5745,
      "consciously": 5746,
      "frogs": 5747,
      "frowned": 5748,
      "luckily": 5749,
      "threatened": 5750,
      "threatening": 5751,
      "nonsense": 5752,
      "dreamed": 5753,
      "grades": 5754,
      "occasions": 5755,
      "teachers": 5756,
      "sneaking": 5757,
      "anxiously": 5758,
      "mysterious": 5759,
      "sensuously": 5760,
      "encouraged": 5761,
      "twir": 5762,
      "gritting": 5763,
      "exclaims": 5764,
      "stiffened": 5765,
      "soothing": 5766,
      "dimin": 5767,
      "suspicions": 5768,
      "stirred": 5769,
      "convenience": 5770,
      "sweetie": 5771,
      "bouncing": 5772,
      "whirled": 5773,
      "clinging": 5774,
      "fluttering": 5775,
      "convincing": 5776,
      "gleaming": 5777,
      "transfer": 5778,
      "shooting": 5779,
      "disgusting": 5780,
      "pouring": 5781,
      "writhing": 5782,
      "pantry": 5783,
      "routine": 5784,
      "healthy": 5785,
      "weather": 5786,
      "admonished": 5787,
      "enticing": 5788,
      "jewels": 5789,
      "dollars": 5790,
      "impatiently": 5791,
      "grocery": 5792,
      "require": 5793,
      "natural": 5794,
      "lonely": 5795,
      "asshole": 5796,
      "exasperated": 5797,
      "literally": 5798,
      "kittens": 5799,
      "cigaret": 5800,
      "sacri": 5801,
      "adults": 5802,
      "blatant": 5803,
      "appetite": 5804,
      "creamy": 5805,
      "seventeen": 5806,
      "circumst": 5807,
      "officially": 5808,
      "eyelids": 5809,
      "vehicle": 5810,
      "qualities": 5811,
      "potato": 5812,
      "kanaan": 5813,
      "ocean": 5814,
      "skep": 5815,
      "tastes": 5816,
      "vaguely": 5817,
      "environment": 5818,
      "movies": 5819,
      "agenda": 5820,
      "lavender": 5821,
      "potomac": 5822,
      "ultrasound": 5823,
      "bizarre": 5824,
      "ave": 5825,
      "bon": 5826,
      "bart": 5827,
      "bice": 5828,
      "dash": 5829,
      "dign": 5830,
      "fling": 5831,
      "fisted": 5832,
      "fading": 5833,
      "gla": 5834,
      "iv": 5835,
      "lun": 5836,
      "lure": 5837,
      "moun": 5838,
      "mity": 5839,
      "mcken": 5840,
      "osed": 5841,
      "pit": 5842,
      "ral": 5843,
      "range": 5844,
      "ratt": 5845,
      "slo": 5846,
      "sch": 5847,
      "sage": 5848,
      "sadd": 5849,
      "tack": 5850,
      "tissue": 5851,
      "tangle": 5852,
      "wrote": 5853,
      "yo": 5854,
      "yawn": 5855,
      "zie": 5856,
      "hem": 5857,
      "insides": 5858,
      "anony": 5859,
      "rem": 5860,
      "reck": 5861,
      "returning": 5862,
      "reserv": 5863,
      "reign": 5864,
      "remote": 5865,
      "toe": 5866,
      "toy": 5867,
      "tocol": 5868,
      "sheep": 5869,
      "ensur": 5870,
      "strea": 5871,
      "lli": 5872,
      "orient": 5873,
      "youth": 5874,
      "wasted": 5875,
      "haired": 5876,
      "vet": 5877,
      "roses": 5878,
      "alpesh": 5879,
      "sob": 5880,
      "soap": 5881,
      "logue": 5882,
      "local": 5883,
      "outright": 5884,
      "riere": 5885,
      "adren": 5886,
      "dog": 5887,
      "docu": 5888,
      "neg": 5889,
      "entry": 5890,
      "upside": 5891,
      "cocking": 5892,
      "urgent": 5893,
      "unted": 5894,
      "godd": 5895,
      "areas": 5896,
      "sale": 5897,
      "saving": 5898,
      "degree": 5899,
      "delect": 5900,
      "sue": 5901,
      "suspect": 5902,
      "justice": 5903,
      "mani": 5904,
      "mama": 5905,
      "males": 5906,
      "spar": 5907,
      "spor": 5908,
      "spid": 5909,
      "spare": 5910,
      "sports": 5911,
      "kingdom": 5912,
      "exclu": 5913,
      "checked": 5914,
      "chewed": 5915,
      "cheap": 5916,
      "anytime": 5917,
      "puzz": 5918,
      "holy": 5919,
      "tingling": 5920,
      "grind": 5921,
      "grum": 5922,
      "plants": 5923,
      "popu": 5924,
      "derriere": 5925,
      "astound": 5926,
      "stores": 5927,
      "previously": 5928,
      "bypassed": 5929,
      "foreign": 5930,
      "whose": 5931,
      "oping": 5932,
      "bodice": 5933,
      "project": 5934,
      "propose": 5935,
      "prostit": 5936,
      "protocol": 5937,
      "brid": 5938,
      "brut": 5939,
      "files": 5940,
      "psy": 5941,
      "actual": 5942,
      "blend": 5943,
      "welled": 5944,
      "startling": 5945,
      "combat": 5946,
      "discard": 5947,
      "dissip": 5948,
      "disbelief": 5949,
      "ambass": 5950,
      "minded": 5951,
      "mindless": 5952,
      "watches": 5953,
      "slung": 5954,
      "lighten": 5955,
      "march": 5956,
      "pleading": 5957,
      "gap": 5958,
      "hardness": 5959,
      "estab": 5960,
      "carpet": 5961,
      "obst": 5962,
      "leap": 5963,
      "olars": 5964,
      "clue": 5965,
      "flowing": 5966,
      "dip": 5967,
      "dipping": 5968,
      "curb": 5969,
      "bud": 5970,
      "breathlessly": 5971,
      "piled": 5972,
      "torn": 5973,
      "tort": 5974,
      "friction": 5975,
      "huffed": 5976,
      "awesome": 5977,
      "friendship": 5978,
      "atives": 5979,
      "hearted": 5980,
      "sooner": 5981,
      "guarded": 5982,
      "cumber": 5983,
      "cucumber": 5984,
      "drain": 5985,
      "instance": 5986,
      "interro": 5987,
      "resisted": 5988,
      "waistband": 5989,
      "formally": 5990,
      "deciding": 5991,
      "strongly": 5992,
      "differently": 5993,
      "chuckling": 5994,
      "trial": 5995,
      "cupping": 5996,
      "treating": 5997,
      "dealing": 5998,
      "sunk": 5999,
      "casc": 6000,
      "arrival": 6001,
      "fourteen": 6002,
      "directed": 6003,
      "refuse": 6004,
      "subway": 6005,
      "reveling": 6006,
      "undle": 6007,
      "straighter": 6008,
      "heaven": 6009,
      "situations": 6010,
      "phones": 6011,
      "pictured": 6012,
      "jumps": 6013,
      "signature": 6014,
      "willingly": 6015,
      "bloom": 6016,
      "stepsister": 6017,
      "comforting": 6018,
      "spoon": 6019,
      "collap": 6020,
      "attending": 6021,
      "teenager": 6022,
      "importantly": 6023,
      "nearby": 6024,
      "secretly": 6025,
      "doctors": 6026,
      "anticipating": 6027,
      "jerry": 6028,
      "aura": 6029,
      "package": 6030,
      "advent": 6031,
      "interrupting": 6032,
      "assistance": 6033,
      "instruments": 6034,
      "delivery": 6035,
      "doubts": 6036,
      "wetness": 6037,
      "testing": 6038,
      "linen": 6039,
      "crushed": 6040,
      "swir": 6041,
      "suppor": 6042,
      "burned": 6043,
      "commented": 6044,
      "marks": 6045,
      "pinched": 6046,
      "paperwork": 6047,
      "apology": 6048,
      "profess": 6049,
      "awkwardly": 6050,
      "tentative": 6051,
      "locker": 6052,
      "appreciation": 6053,
      "indicate": 6054,
      "indication": 6055,
      "flames": 6056,
      "angrier": 6057,
      "lacking": 6058,
      "ruling": 6059,
      "squir": 6060,
      "encouragement": 6061,
      "attractive": 6062,
      "stiffly": 6063,
      "folds": 6064,
      "folded": 6065,
      "zipped": 6066,
      "internship": 6067,
      "moonlight": 6068,
      "costs": 6069,
      "opinions": 6070,
      "impressive": 6071,
      "whimper": 6072,
      "oblivious": 6073,
      "violently": 6074,
      "fashioned": 6075,
      "tlessly": 6076,
      "included": 6077,
      "billion": 6078,
      "activity": 6079,
      "absently": 6080,
      "spirit": 6081,
      "plastic": 6082,
      "effortlessly": 6083,
      "caterer": 6084,
      "analy": 6085,
      "skiing": 6086,
      "skipped": 6087,
      "ribcage": 6088,
      "cautiously": 6089,
      "instincts": 6090,
      "james": 6091,
      "swelling": 6092,
      "photographer": 6093,
      "observes": 6094,
      "jewelry": 6095,
      "provide": 6096,
      "cushions": 6097,
      "reporter": 6098,
      "flirt": 6099,
      "groceries": 6100,
      "towering": 6101,
      "softened": 6102,
      "junior": 6103,
      "admire": 6104,
      "rumors": 6105,
      "target": 6106,
      "cheerful": 6107,
      "phrase": 6108,
      "mercilessly": 6109,
      "clipboard": 6110,
      "skimming": 6111,
      "devastating": 6112,
      "scowled": 6113,
      "intensified": 6114,
      "europe": 6115,
      "speechless": 6116,
      "survive": 6117,
      "quarters": 6118,
      "scratch": 6119,
      "masculine": 6120,
      "magazine": 6121,
      "lungs": 6122,
      "consequences": 6123,
      "amazement": 6124,
      "gurney": 6125,
      "toddler": 6126,
      "nearest": 6127,
      "declaration": 6128,
      "faith": 6129,
      "circumstances": 6130,
      "biceps": 6131,
      "mckenzie": 6132,
      "scholars": 6133,
      "ensuring": 6134,
      "adrenal": 6135,
      "delectable": 6136,
      "10": 6137,
      "ais": 6138,
      "aim": 6139,
      "azz": 6140,
      "aunt": 6141,
      "aire": 6142,
      "bout": 6143,
      "bust": 6144,
      "bunch": 6145,
      "cti": 6146,
      "dab": 6147,
      "dain": 6148,
      "dread": 6149,
      "dying": 6150,
      "dirt": 6151,
      "econ": 6152,
      "ect": 6153,
      "hating": 6154,
      "iri": 6155,
      "ilet": 6156,
      "ility": 6157,
      "jay": 6158,
      "kha": 6159,
      "kay": 6160,
      "lus": 6161,
      "listed": 6162,
      "mc": 6163,
      "mut": 6164,
      "nab": 6165,
      "ole": 6166,
      "obe": 6167,
      "oted": 6168,
      "pla": 6169,
      "pted": 6170,
      "poked": 6171,
      "rhy": 6172,
      "smug": 6173,
      "vod": 6174,
      "vows": 6175,
      "heating": 6176,
      "inner": 6177,
      "inven": 6178,
      "insult": 6179,
      "anced": 6180,
      "reun": 6181,
      "resc": 6182,
      "reje": 6183,
      "research": 6184,
      "tho": 6185,
      "thurs": 6186,
      "tome": 6187,
      "tonic": 6188,
      "atures": 6189,
      "attering": 6190,
      "attribut": 6191,
      "asy": 6192,
      "aspe": 6193,
      "erly": 6194,
      "isy": 6195,
      "isingly": 6196,
      "andre": 6197,
      "shell": 6198,
      "lls": 6199,
      "meth": 6200,
      "itable": 6201,
      "bes": 6202,
      "acious": 6203,
      "acity": 6204,
      "ham": 6205,
      "liar": 6206,
      "veins": 6207,
      "rocking": 6208,
      "weap": 6209,
      "alp": 6210,
      "outer": 6211,
      "admission": 6212,
      "tially": 6213,
      "domine": 6214,
      "abbas": 6215,
      "feated": 6216,
      "chase": 6217,
      "shor": 6218,
      "shattered": 6219,
      "urry": 6220,
      "urance": 6221,
      "unlocked": 6222,
      "sales": 6223,
      "savan": 6224,
      "anted": 6225,
      "teria": 6226,
      "defi": 6227,
      "deft": 6228,
      "deposit": 6229,
      "defeated": 6230,
      "sumeet": 6231,
      "conclu": 6232,
      "math": 6233,
      "cakes": 6234,
      "mike": 6235,
      "ideal": 6236,
      "foster": 6237,
      "folding": 6238,
      "eled": 6239,
      "existence": 6240,
      "lame": 6241,
      "labe": 6242,
      "abouts": 6243,
      "cheating": 6244,
      "chevy": 6245,
      "nipped": 6246,
      "rav": 6247,
      "railing": 6248,
      "headset": 6249,
      "evil": 6250,
      "holl": 6251,
      "gruff": 6252,
      "grunts": 6253,
      "gues": 6254,
      "guided": 6255,
      "guiding": 6256,
      "tape": 6257,
      "stove": 6258,
      "illu": 6259,
      "ops": 6260,
      "closes": 6261,
      "closen": 6262,
      "essenti": 6263,
      "nightgown": 6264,
      "perfu": 6265,
      "percep": 6266,
      "beds": 6267,
      "propped": 6268,
      "proven": 6269,
      "tensing": 6270,
      "brit": 6271,
      "cance": 6272,
      "rights": 6273,
      "file": 6274,
      "assass": 6275,
      "breathes": 6276,
      "whereabouts": 6277,
      "giant": 6278,
      "apply": 6279,
      "dismis": 6280,
      "disappears": 6281,
      "marked": 6282,
      "compare": 6283,
      "lovemaking": 6284,
      "scri": 6285,
      "scul": 6286,
      "partner": 6287,
      "voc": 6288,
      "stealing": 6289,
      "content": 6290,
      "controlling": 6291,
      "services": 6292,
      "napped": 6293,
      "navy": 6294,
      "namic": 6295,
      "tying": 6296,
      "types": 6297,
      "sincere": 6298,
      "lifetime": 6299,
      "ddle": 6300,
      "chiev": 6301,
      "surged": 6302,
      "flust": 6303,
      "ishment": 6304,
      "shaped": 6305,
      "sorts": 6306,
      "striding": 6307,
      "grey": 6308,
      "dinners": 6309,
      "intend": 6310,
      "pier": 6311,
      "legit": 6312,
      "bitch": 6313,
      "hurrying": 6314,
      "reacting": 6315,
      "stepdaughter": 6316,
      "doesn": 6317,
      "relative": 6318,
      "surprising": 6319,
      "surprisingly": 6320,
      "crashing": 6321,
      "guardian": 6322,
      "murder": 6323,
      "swear": 6324,
      "cheekbones": 6325,
      "prices": 6326,
      "planet": 6327,
      "bedrooms": 6328,
      "shirts": 6329,
      "grilled": 6330,
      "secondly": 6331,
      "tuous": 6332,
      "tugged": 6333,
      "misunderstood": 6334,
      "mischiev": 6335,
      "numb": 6336,
      "straps": 6337,
      "kidnapped": 6338,
      "chuckles": 6339,
      "centered": 6340,
      "slick": 6341,
      "engage": 6342,
      "messages": 6343,
      "clients": 6344,
      "bathtub": 6345,
      "flipping": 6346,
      "tempting": 6347,
      "umn": 6348,
      "draped": 6349,
      "lush": 6350,
      "safely": 6351,
      "positions": 6352,
      "tracing": 6353,
      "brunet": 6354,
      "amazingly": 6355,
      "pasta": 6356,
      "buildings": 6357,
      "twist": 6358,
      "bathing": 6359,
      "snuck": 6360,
      "velvet": 6361,
      "mascara": 6362,
      "utterly": 6363,
      "knocking": 6364,
      "sentry": 6365,
      "dangerously": 6366,
      "smothered": 6367,
      "wines": 6368,
      "flattered": 6369,
      "flattering": 6370,
      "brilli": 6371,
      "dynamic": 6372,
      "extended": 6373,
      "hunger": 6374,
      "assistants": 6375,
      "crowded": 6376,
      "doubted": 6377,
      "husbands": 6378,
      "scrapes": 6379,
      "corrected": 6380,
      "ification": 6381,
      "secretary": 6382,
      "smelled": 6383,
      "stroking": 6384,
      "preferring": 6385,
      "smoothing": 6386,
      "frosting": 6387,
      "orgasms": 6388,
      "spreads": 6389,
      "notebook": 6390,
      "broadly": 6391,
      "sharpened": 6392,
      "announce": 6393,
      "assures": 6394,
      "depths": 6395,
      "stalls": 6396,
      "distraction": 6397,
      "explanations": 6398,
      "neighbors": 6399,
      "macy": 6400,
      "intellect": 6401,
      "weakness": 6402,
      "ization": 6403,
      "lawyers": 6404,
      "miserably": 6405,
      "defensive": 6406,
      "climaxed": 6407,
      "virginity": 6408,
      "caressed": 6409,
      "hurriedly": 6410,
      "maintaining": 6411,
      "maintained": 6412,
      "greeting": 6413,
      "requested": 6414,
      "trucks": 6415,
      "stormed": 6416,
      "tenderly": 6417,
      "trails": 6418,
      "sweaty": 6419,
      "particip": 6420,
      "interns": 6421,
      "fantastic": 6422,
      "animal": 6423,
      "grasped": 6424,
      "smells": 6425,
      "prayed": 6426,
      "sanjay": 6427,
      "bench": 6428,
      "separate": 6429,
      "expertly": 6430,
      "betrayed": 6431,
      "yellow": 6432,
      "candle": 6433,
      "candles": 6434,
      "intentions": 6435,
      "booze": 6436,
      "gleam": 6437,
      "measuring": 6438,
      "absence": 6439,
      "butterflies": 6440,
      "purchased": 6441,
      "properly": 6442,
      "property": 6443,
      "route": 6444,
      "securely": 6445,
      "negotiating": 6446,
      "industry": 6447,
      "bullshit": 6448,
      "nudged": 6449,
      "resentment": 6450,
      "nuzzled": 6451,
      "faltered": 6452,
      "designs": 6453,
      "gauze": 6454,
      "crawl": 6455,
      "flirting": 6456,
      "possessed": 6457,
      "adjusted": 6458,
      "contradict": 6459,
      "witnessed": 6460,
      "annoying": 6461,
      "milk": 6462,
      "assumption": 6463,
      "assumptions": 6464,
      "twinkling": 6465,
      "graduate": 6466,
      "becky": 6467,
      "accusation": 6468,
      "birds": 6469,
      "breeze": 6470,
      "obligations": 6471,
      "declared": 6472,
      "grumbled": 6473,
      "intrigued": 6474,
      "elimin": 6475,
      "independent": 6476,
      "cameras": 6477,
      "staggering": 6478,
      "eggs": 6479,
      "attentive": 6480,
      "contracts": 6481,
      "cafeteria": 6482,
      "patron": 6483,
      "judgment": 6484,
      "infuriated": 6485,
      "barrier": 6486,
      "philo": 6487,
      "congratul": 6488,
      "perfection": 6489,
      "knuckles": 6490,
      "glazed": 6491,
      "spider": 6492,
      "popular": 6493,
      "adrenaline": 6494,
      "aisle": 6495,
      "econo": 6496,
      "luscious": 6497,
      "nabir": 6498,
      "rhyth": 6499,
      "vodka": 6500,
      "thursday": 6501,
      "domineering": 6502,
      "savannah": 6503,
      "closeness": 6504,
      "perfume": 6505,
      "dur": 6506,
      "dict": 6507,
      "fto": 6508,
      "groom": 6509,
      "gained": 6510,
      "ica": 6511,
      "ius": 6512,
      "jes": 6513,
      "jok": 6514,
      "lant": 6515,
      "liness": 6516,
      "lenor": 6517,
      "labor": 6518,
      "mun": 6519,
      "mating": 6520,
      "nal": 6521,
      "predi": 6522,
      "pages": 6523,
      "pacing": 6524,
      "sworn": 6525,
      "tac": 6526,
      "tch": 6527,
      "tangled": 6528,
      "tags": 6529,
      "ugh": 6530,
      "uous": 6531,
      "vowed": 6532,
      "winking": 6533,
      "wager": 6534,
      "xic": 6535,
      "yanked": 6536,
      "zer": 6537,
      "inher": 6538,
      "intake": 6539,
      "reli": 6540,
      "removed": 6541,
      "resigned": 6542,
      "resul": 6543,
      "receive": 6544,
      "topped": 6545,
      "tosses": 6546,
      "attire": 6547,
      "assa": 6548,
      "ashes": 6549,
      "oni": 6550,
      "istic": 6551,
      "eness": 6552,
      "arches": 6553,
      "stif": 6554,
      "stance": 6555,
      "stater": 6556,
      "ornate": 6557,
      "melting": 6558,
      "itive": 6559,
      "lemon": 6560,
      "lefto": 6561,
      "behave": 6562,
      "beast": 6563,
      "beam": 6564,
      "bearing": 6565,
      "acts": 6566,
      "acular": 6567,
      "identic": 6568,
      "halt": 6569,
      "sele": 6570,
      "season": 6571,
      "selling": 6572,
      "libid": 6573,
      "veling": 6574,
      "roar": 6575,
      "alled": 6576,
      "sole": 6577,
      "sold": 6578,
      "sobbing": 6579,
      "loo": 6580,
      "load": 6581,
      "loyal": 6582,
      "versu": 6583,
      "outlet": 6584,
      "forty": 6585,
      "forbid": 6586,
      "adir": 6587,
      "advert": 6588,
      "moist": 6589,
      "domain": 6590,
      "feig": 6591,
      "nered": 6592,
      "newest": 6593,
      "chu": 6594,
      "entran": 6595,
      "aggre": 6596,
      "agents": 6597,
      "irish": 6598,
      "cohere": 6599,
      "cooling": 6600,
      "colored": 6601,
      "unfamiliar": 6602,
      "acking": 6603,
      "ppy": 6604,
      "sipping": 6605,
      "cka": 6606,
      "owners": 6607,
      "terry": 6608,
      "nowhere": 6609,
      "demean": 6610,
      "define": 6611,
      "delay": 6612,
      "suited": 6613,
      "ifully": 6614,
      "management": 6615,
      "cament": 6616,
      "microw": 6617,
      "micka": 6618,
      "fooled": 6619,
      "splin": 6620,
      "exe": 6621,
      "exist": 6622,
      "exped": 6623,
      "exited": 6624,
      "existed": 6625,
      "overstuffed": 6626,
      "cheated": 6627,
      "chewing": 6628,
      "wob": 6629,
      "nick": 6630,
      "icit": 6631,
      "icals": 6632,
      "headboard": 6633,
      "eved": 6634,
      "evicted": 6635,
      "holly": 6636,
      "hovered": 6637,
      "grows": 6638,
      "plu": 6639,
      "plun": 6640,
      "polic": 6641,
      "pooling": 6642,
      "tax": 6643,
      "offended": 6644,
      "stored": 6645,
      "stomping": 6646,
      "peer": 6647,
      "pear": 6648,
      "omin": 6649,
      "whore": 6650,
      "illicit": 6651,
      "throne": 6652,
      "bedpost": 6653,
      "promotion": 6654,
      "brad": 6655,
      "fail": 6656,
      "famous": 6657,
      "fice": 6658,
      "fierce": 6659,
      "blinking": 6660,
      "fucked": 6661,
      "shoe": 6662,
      "shold": 6663,
      "betty": 6664,
      "fined": 6665,
      "blew": 6666,
      "comed": 6667,
      "applic": 6668,
      "applied": 6669,
      "apprehen": 6670,
      "disci": 6671,
      "discover": 6672,
      "helmet": 6673,
      "helpless": 6674,
      "render": 6675,
      "slower": 6676,
      "scaring": 6677,
      "scrubs": 6678,
      "partners": 6679,
      "morti": 6680,
      "vored": 6681,
      "softer": 6682,
      "harden": 6683,
      "controll": 6684,
      "contents": 6685,
      "containing": 6686,
      "nail": 6687,
      "carpe": 6688,
      "lingering": 6689,
      "aries": 6690,
      "earned": 6691,
      "chic": 6692,
      "chir": 6693,
      "lasted": 6694,
      "flare": 6695,
      "flask": 6696,
      "flaring": 6697,
      "flowed": 6698,
      "dial": 6699,
      "dizzy": 6700,
      "tongues": 6701,
      "pawn": 6702,
      "curly": 6703,
      "curtly": 6704,
      "buff": 6705,
      "buffe": 6706,
      "stride": 6707,
      "strang": 6708,
      "strangled": 6709,
      "intended": 6710,
      "pilot": 6711,
      "impris": 6712,
      "bites": 6713,
      "awfully": 6714,
      "sensed": 6715,
      "sensing": 6716,
      "counted": 6717,
      "seeming": 6718,
      "excused": 6719,
      "joined": 6720,
      "painting": 6721,
      "corn": 6722,
      "corral": 6723,
      "oldest": 6724,
      "complex": 6725,
      "aides": 6726,
      "udge": 6727,
      "ferences": 6728,
      "msy": 6729,
      "dripping": 6730,
      "surprises": 6731,
      "drained": 6732,
      "mmer": 6733,
      "mmering": 6734,
      "sweeping": 6735,
      "priest": 6736,
      "necklace": 6737,
      "tum": 6738,
      "tumbled": 6739,
      "tuxed": 6740,
      "solve": 6741,
      "decade": 6742,
      "dazed": 6743,
      "highway": 6744,
      "pursed": 6745,
      "dude": 6746,
      "quie": 6747,
      "nicely": 6748,
      "ffs": 6749,
      "donnie": 6750,
      "anks": 6751,
      "trembled": 6752,
      "muscled": 6753,
      "juices": 6754,
      "pleasant": 6755,
      "biggest": 6756,
      "continuously": 6757,
      "promises": 6758,
      "antics": 6759,
      "tempt": 6760,
      "reveled": 6761,
      "throt": 6762,
      "genius": 6763,
      "cooked": 6764,
      "shrugging": 6765,
      "straighten": 6766,
      "threshold": 6767,
      "ridden": 6768,
      "drape": 6769,
      "dramatically": 6770,
      "lays": 6771,
      "blos": 6772,
      "blobs": 6773,
      "ricul": 6774,
      "lapels": 6775,
      "gentlemen": 6776,
      "identity": 6777,
      "wider": 6778,
      "teenage": 6779,
      "spectacular": 6780,
      "intimacy": 6781,
      "leaders": 6782,
      "snort": 6783,
      "ferti": 6784,
      "shutting": 6785,
      "pattern": 6786,
      "payroll": 6787,
      "clasping": 6788,
      "birthdays": 6789,
      "patio": 6790,
      "slam": 6791,
      "salmon": 6792,
      "whispering": 6793,
      "mercy": 6794,
      "smoke": 6795,
      "circling": 6796,
      "jerking": 6797,
      "intensely": 6798,
      "invaded": 6799,
      "distant": 6800,
      "reminding": 6801,
      "nakedness": 6802,
      "delirious": 6803,
      "forcefully": 6804,
      "cooler": 6805,
      "experiencing": 6806,
      "accusing": 6807,
      "surroundings": 6808,
      "ladder": 6809,
      "cruel": 6810,
      "shyness": 6811,
      "strip": 6812,
      "examined": 6813,
      "strokes": 6814,
      "defend": 6815,
      "apologe": 6816,
      "audi": 6817,
      "shades": 6818,
      "spicy": 6819,
      "processing": 6820,
      "treats": 6821,
      "treatment": 6822,
      "jasir": 6823,
      "nibble": 6824,
      "lery": 6825,
      "appreciating": 6826,
      "apparent": 6827,
      "pounds": 6828,
      "depending": 6829,
      "distracting": 6830,
      "narrowing": 6831,
      "texture": 6832,
      "bursting": 6833,
      "pulsing": 6834,
      "necessarily": 6835,
      "survey": 6836,
      "modest": 6837,
      "mysteriously": 6838,
      "sparks": 6839,
      "squared": 6840,
      "connection": 6841,
      "disappearing": 6842,
      "impossibly": 6843,
      "tenderness": 6844,
      "purposely": 6845,
      "international": 6846,
      "elderly": 6847,
      "expense": 6848,
      "grasping": 6849,
      "affection": 6850,
      "eighteenth": 6851,
      "equation": 6852,
      "bracelet": 6853,
      "snuggle": 6854,
      "nically": 6855,
      "bounced": 6856,
      "heights": 6857,
      "sultry": 6858,
      "dedic": 6859,
      "buckle": 6860,
      "candid": 6861,
      "drunken": 6862,
      "intentionally": 6863,
      "stammered": 6864,
      "booth": 6865,
      "particularly": 6866,
      "educational": 6867,
      "measure": 6868,
      "glory": 6869,
      "techni": 6870,
      "specific": 6871,
      "humorous": 6872,
      "enthusiastically": 6873,
      "drug": 6874,
      "abandon": 6875,
      "hooking": 6876,
      "darting": 6877,
      "jamil": 6878,
      "bullet": 6879,
      "ordinary": 6880,
      "ripple": 6881,
      "reporters": 6882,
      "medication": 6883,
      "cradled": 6884,
      "cradling": 6885,
      "tangling": 6886,
      "required": 6887,
      "society": 6888,
      "tribution": 6889,
      "darling": 6890,
      "feeding": 6891,
      "epitome": 6892,
      "peeking": 6893,
      "naturally": 6894,
      "ecstat": 6895,
      "platform": 6896,
      "compliment": 6897,
      "clutching": 6898,
      "swiftly": 6899,
      "christmas": 6900,
      "nuts": 6901,
      "adamant": 6902,
      "mildly": 6903,
      "swayed": 6904,
      "wandered": 6905,
      "shriek": 6906,
      "faintly": 6907,
      "frightened": 6908,
      "guns": 6909,
      "contempl": 6910,
      "nausea": 6911,
      "diplomat": 6912,
      "straddling": 6913,
      "disturbed": 6914,
      "strawberries": 6915,
      "cousin": 6916,
      "tantric": 6917,
      "admiring": 6918,
      "freak": 6919,
      "revenge": 6920,
      "limits": 6921,
      "studies": 6922,
      "collapsed": 6923,
      "emanating": 6924,
      "insulting": 6925,
      "accurate": 6926,
      "shuffled": 6927,
      "siblings": 6928,
      "proposal": 6929,
      "scenario": 6930,
      "someday": 6931,
      "financial": 6932,
      "designer": 6933,
      "coupled": 6934,
      "invasion": 6935,
      "cigarette": 6936,
      "anonymity": 6937,
      "negative": 6938,
      "goddam": 6939,
      "prostitute": 6940,
      "bridge": 6941,
      "torture": 6942,
      "interrog": 6943,
      "andretti": 6944,
      "method": 6945,
      "shorter": 6946,
      "defiantly": 6947,
      "conclusion": 6948,
      "dismissively": 6949,
      "flustered": 6950,
      "mischievous": 6951,
      "brilliant": 6952,
      "rhythm": 6953,
      "lenora": 6954,
      "predicament": 6955,
      "results": 6956,
      "stateroom": 6957,
      "identical": 6958,
      "libido": 6959,
      "versus": 6960,
      "coheren": 6961,
      "microwave": 6962,
      "splintered": 6963,
      "policy": 6964,
      "discipl": 6965,
      "buffet": 6966,
      "tuxedo": 6967,
      "awa": 6968,
      "ample": 6969,
      "bay": 6970,
      "bred": 6971,
      "bening": 6972,
      "bundle": 6973,
      "cco": 6974,
      "ctic": 6975,
      "cased": 6976,
      "cunt": 6977,
      "dic": 6978,
      "drying": 6979,
      "dged": 6980,
      "earr": 6981,
      "faint": 6982,
      "hmmm": 6983,
      "ials": 6984,
      "ivy": 6985,
      "itors": 6986,
      "len": 6987,
      "mbo": 6988,
      "mask": 6989,
      "mately": 6990,
      "ox": 6991,
      "oting": 6992,
      "osure": 6993,
      "oven": 6994,
      "pir": 6995,
      "pang": 6996,
      "pans": 6997,
      "pins": 6998,
      "pony": 6999,
      "rous": 7000,
      "swa": 7001,
      "sang": 7002,
      "tun": 7003,
      "uma": 7004,
      "uva": 7005,
      "vase": 7006,
      "vari": 7007,
      "vity": 7008,
      "waf": 7009,
      "wry": 7010,
      "wren": 7011,
      "yawned": 7012,
      "zip": 7013,
      "inev": 7014,
      "inched": 7015,
      "intru": 7016,
      "insight": 7017,
      "indecision": 7018,
      "inquir": 7019,
      "invisible": 7020,
      "ancing": 7021,
      "annu": 7022,
      "rese": 7023,
      "resu": 7024,
      "reward": 7025,
      "recent": 7026,
      "retreat": 7027,
      "result": 7028,
      "reviewing": 7029,
      "tops": 7030,
      "toilet": 7031,
      "asse": 7032,
      "asting": 7033,
      "assign": 7034,
      "associ": 7035,
      "sheer": 7036,
      "enh": 7037,
      "ench": 7038,
      "ende": 7039,
      "enclosed": 7040,
      "encased": 7041,
      "stim": 7042,
      "orary": 7043,
      "metal": 7044,
      "ital": 7045,
      "itali": 7046,
      "accor": 7047,
      "hiss": 7048,
      "idently": 7049,
      "haz": 7050,
      "harem": 7051,
      "hibit": 7052,
      "hilar": 7053,
      "lifor": 7054,
      "lila": 7055,
      "livid": 7056,
      "veled": 7057,
      "ropes": 7058,
      "rocke": 7059,
      "sober": 7060,
      "ribs": 7061,
      "rician": 7062,
      "forgetting": 7063,
      "noises": 7064,
      "moder": 7065,
      "timis": 7066,
      "tills": 7067,
      "butler": 7068,
      "choked": 7069,
      "celery": 7070,
      "coo": 7071,
      "shh": 7072,
      "shiny": 7073,
      "urging": 7074,
      "undo": 7075,
      "unting": 7076,
      "undone": 7077,
      "united": 7078,
      "unfair": 7079,
      "unlock": 7080,
      "undressing": 7081,
      "unzipped": 7082,
      "uncontroll": 7083,
      "safer": 7084,
      "sample": 7085,
      "savored": 7086,
      "ppers": 7087,
      "teases": 7088,
      "terror": 7089,
      "terior": 7090,
      "ounce": 7091,
      "dete": 7092,
      "devo": 7093,
      "depri": 7094,
      "sucks": 7095,
      "backward": 7096,
      "trin": 7097,
      "confron": 7098,
      "connor": 7099,
      "consumm": 7100,
      "conspic": 7101,
      "manic": 7102,
      "downward": 7103,
      "downtown": 7104,
      "downwards": 7105,
      "maker": 7106,
      "camis": 7107,
      "califor": 7108,
      "mixt": 7109,
      "mixed": 7110,
      "mpy": 7111,
      "sper": 7112,
      "exchange": 7113,
      "lamb": 7114,
      "menting": 7115,
      "nia": 7116,
      "ramp": 7117,
      "puffed": 7118,
      "heady": 7119,
      "evas": 7120,
      "hop": 7121,
      "hooked": 7122,
      "tingles": 7123,
      "quet": 7124,
      "quda": 7125,
      "gran": 7126,
      "gray": 7127,
      "pluck": 7128,
      "polished": 7129,
      "bolly": 7130,
      "bomb": 7131,
      "stomp": 7132,
      "preschool": 7133,
      "prepar": 7134,
      "omed": 7135,
      "omar": 7136,
      "tedious": 7137,
      "optimis": 7138,
      "mune": 7139,
      "mush": 7140,
      "tsy": 7141,
      "proved": 7142,
      "progra": 7143,
      "thoughtfully": 7144,
      "brunch": 7145,
      "glowing": 7146,
      "asser": 7147,
      "whip": 7148,
      "welling": 7149,
      "tooth": 7150,
      "ruled": 7151,
      "bleed": 7152,
      "disagree": 7153,
      "disdain": 7154,
      "slowing": 7155,
      "fraction": 7156,
      "lighter": 7157,
      "immac": 7158,
      "immune": 7159,
      "composure": 7160,
      "scar": 7161,
      "scree": 7162,
      "parting": 7163,
      "mouthed": 7164,
      "volu": 7165,
      "gathered": 7166,
      "hardening": 7167,
      "contri": 7168,
      "naught": 7169,
      "naive": 7170,
      "rests": 7171,
      "beings": 7172,
      "specul": 7173,
      "mini": 7174,
      "minis": 7175,
      "minor": 7176,
      "zeth": 7177,
      "earlobe": 7178,
      "chip": 7179,
      "surger": 7180,
      "surmis": 7181,
      "trap": 7182,
      "trauma": 7183,
      "pavement": 7184,
      "shaky": 7185,
      "strain": 7186,
      "greek": 7187,
      "skir": 7188,
      "intments": 7189,
      "breathtaking": 7190,
      "piling": 7191,
      "matched": 7192,
      "implic": 7193,
      "humming": 7194,
      "huddled": 7195,
      "keeper": 7196,
      "reactions": 7197,
      "via": 7198,
      "vile": 7199,
      "senator": 7200,
      "jects": 7201,
      "alize": 7202,
      "mones": 7203,
      "monitor": 7204,
      "jolt": 7205,
      "creek": 7206,
      "creeping": 7207,
      "hormones": 7208,
      "corrid": 7209,
      "suppressed": 7210,
      "relay": 7211,
      "relatives": 7212,
      "kinder": 7213,
      "kindness": 7214,
      "crust": 7215,
      "darker": 7216,
      "darkened": 7217,
      "electr": 7218,
      "brocco": 7219,
      "responsive": 7220,
      "eases": 7221,
      "abilities": 7222,
      "prick": 7223,
      "wrath": 7224,
      "halls": 7225,
      "flop": 7226,
      "floating": 7227,
      "player": 7228,
      "interference": 7229,
      "resisting": 7230,
      "stays": 7231,
      "giraffe": 7232,
      "appealing": 7233,
      "knowingly": 7234,
      "dale": 7235,
      "damp": 7236,
      "shipments": 7237,
      "sterical": 7238,
      "pursue": 7239,
      "strapless": 7240,
      "ffled": 7241,
      "messing": 7242,
      "treas": 7243,
      "motions": 7244,
      "motioning": 7245,
      "sunny": 7246,
      "sunscreen": 7247,
      "juicy": 7248,
      "click": 7249,
      "stumble": 7250,
      "booked": 7251,
      "visiting": 7252,
      "temporary": 7253,
      "subjected": 7254,
      "subsided": 7255,
      "snaps": 7256,
      "kneeling": 7257,
      "addicted": 7258,
      "istening": 7259,
      "weddings": 7260,
      "muster": 7261,
      "straightening": 7262,
      "matters": 7263,
      "fights": 7264,
      "basis": 7265,
      "lude": 7266,
      "changes": 7267,
      "desperation": 7268,
      "trusting": 7269,
      "weekends": 7270,
      "bruise": 7271,
      "daughters": 7272,
      "facts": 7273,
      "twin": 7274,
      "twists": 7275,
      "attacked": 7276,
      "debated": 7277,
      "opposed": 7278,
      "intimately": 7279,
      "frequ": 7280,
      "payment": 7281,
      "frustrations": 7282,
      "patients": 7283,
      "fitting": 7284,
      "slapping": 7285,
      "slams": 7286,
      "football": 7287,
      "fireworks": 7288,
      "excuses": 7289,
      "allowance": 7290,
      "inviting": 7291,
      "hooded": 7292,
      "flatly": 7293,
      "interruption": 7294,
      "killing": 7295,
      "aneous": 7296,
      "doubled": 7297,
      "longest": 7298,
      "pairs": 7299,
      "delightful": 7300,
      "appointments": 7301,
      "strict": 7302,
      "smelling": 7303,
      "lana": 7304,
      "conscience": 7305,
      "explored": 7306,
      "punching": 7307,
      "remaining": 7308,
      "awkwardness": 7309,
      "appropriately": 7310,
      "cards": 7311,
      "concentrating": 7312,
      "kicks": 7313,
      "indicated": 7314,
      "nonchal": 7315,
      "moaning": 7316,
      "capture": 7317,
      "proudly": 7318,
      "agrees": 7319,
      "graduation": 7320,
      "surveying": 7321,
      "misery": 7322,
      "receiver": 7323,
      "sparkling": 7324,
      "superior": 7325,
      "square": 7326,
      "encouraging": 7327,
      "succeed": 7328,
      "gentlemanly": 7329,
      "soothe": 7330,
      "speeding": 7331,
      "consciousness": 7332,
      "framed": 7333,
      "screams": 7334,
      "suspicious": 7335,
      "gardens": 7336,
      "villages": 7337,
      "stirring": 7338,
      "sophie": 7339,
      "bounce": 7340,
      "clapped": 7341,
      "hysterical": 7342,
      "commitment": 7343,
      "relented": 7344,
      "relentlessly": 7345,
      "transl": 7346,
      "chefs": 7347,
      "companies": 7348,
      "companions": 7349,
      "separated": 7350,
      "shouting": 7351,
      "basement": 7352,
      "buckled": 7353,
      "resolved": 7354,
      "cringe": 7355,
      "absorbing": 7356,
      "glorious": 7357,
      "gloria": 7358,
      "smoothly": 7359,
      "writhed": 7360,
      "reassurance": 7361,
      "emphasizing": 7362,
      "drugs": 7363,
      "caution": 7364,
      "reluctant": 7365,
      "sneakers": 7366,
      "health": 7367,
      "shops": 7368,
      "fabulously": 7369,
      "negotiations": 7370,
      "electri": 7371,
      "dragging": 7372,
      "entertaining": 7373,
      "nudging": 7374,
      "status": 7375,
      "occupied": 7376,
      "royalty": 7377,
      "spray": 7378,
      "fiancee": 7379,
      "slumped": 7380,
      "latter": 7381,
      "concept": 7382,
      "epilogue": 7383,
      "peeked": 7384,
      "bubbles": 7385,
      "echoing": 7386,
      "wisdom": 7387,
      "tickled": 7388,
      "diamonds": 7389,
      "twinkle": 7390,
      "belonged": 7391,
      "logical": 7392,
      "adamantly": 7393,
      "nelson": 7394,
      "brandy": 7395,
      "merciless": 7396,
      "electricity": 7397,
      "lounge": 7398,
      "location": 7399,
      "outrageous": 7400,
      "devil": 7401,
      "devilish": 7402,
      "clinical": 7403,
      "clinicals": 7404,
      "improve": 7405,
      "priorities": 7406,
      "benefit": 7407,
      "strawberry": 7408,
      "powder": 7409,
      "strategy": 7410,
      "glittering": 7411,
      "identify": 7412,
      "exercise": 7413,
      "curtains": 7414,
      "elementary": 7415,
      "reverently": 7416,
      "communal": 7417,
      "effectively": 7418,
      "multiple": 7419,
      "smothering": 7420,
      "fraternizing": 7421,
      "source": 7422,
      "severe": 7423,
      "convey": 7424,
      "humidity": 7425,
      "crisp": 7426,
      "quivering": 7427,
      "ambassador": 7428,
      "collapse": 7429,
      "adventure": 7430,
      "billionaire": 7431,
      "hollow": 7432,
      "perceptive": 7433,
      "legitim": 7434,
      "intellectually": 7435,
      "eliminate": 7436,
      "jesus": 7437,
      "assault": 7438,
      "feigning": 7439,
      "chubby": 7440,
      "demeanor": 7441,
      "bradley": 7442,
      "throttle": 7443,
      "fertility": 7444,
      "goddamn": 7445,
      "discipline": 7446,
      "earrings": 7447,
      "stimul": 7448,
      "italian": 7449,
      "according": 7450,
      "modern": 7451,
      "tillsdale": 7452,
      "deprived": 7453,
      "camisole": 7454,
      "california": 7455,
      "mixture": 7456,
      "qudama": 7457,
      "bollywood": 7458,
      "immacul": 7459,
      "naughty": 7460,
      "surgery": 7461,
      "broccoli": 7462,
      "athe": 7463,
      "aut": 7464,
      "amy": 7465,
      "aud": 7466,
      "avor": 7467,
      "bic": 7468,
      "cher": 7469,
      "cass": 7470,
      "crep": 7471,
      "cater": 7472,
      "ctomy": 7473,
      "dashed": 7474,
      "ely": 7475,
      "fes": 7476,
      "fry": 7477,
      "flit": 7478,
      "gal": 7479,
      "gross": 7480,
      "gaining": 7481,
      "hm": 7482,
      "hover": 7483,
      "jail": 7484,
      "joking": 7485,
      "ki": 7486,
      "lor": 7487,
      "lists": 7488,
      "mn": 7489,
      "mound": 7490,
      "otic": 7491,
      "pel": 7492,
      "poking": 7493,
      "rin": 7494,
      "rit": 7495,
      "rag": 7496,
      "rack": 7497,
      "raged": 7498,
      "sno": 7499,
      "snow": 7500,
      "shave": 7501,
      "sought": 7502,
      "site": 7503,
      "sated": 7504,
      "tend": 7505,
      "ued": 7506,
      "ula": 7507,
      "vin": 7508,
      "vast": 7509,
      "vable": 7510,
      "wy": 7511,
      "xim": 7512,
      "yie": 7513,
      "zzing": 7514,
      "hetti": 7515,
      "inct": 7516,
      "inspe": 7517,
      "inum": 7518,
      "inconspic": 7519,
      "ano": 7520,
      "anti": 7521,
      "angu": 7522,
      "rell": 7523,
      "refr": 7524,
      "recover": 7525,
      "reject": 7526,
      "returns": 7527,
      "represent": 7528,
      "revol": 7529,
      "retreating": 7530,
      "refined": 7531,
      "tow": 7532,
      "towe": 7533,
      "edges": 7534,
      "ata": 7535,
      "atic": 7536,
      "erk": 7537,
      "erup": 7538,
      "erase": 7539,
      "sheath": 7540,
      "shelves": 7541,
      "encountered": 7542,
      "arrested": 7543,
      "aroused": 7544,
      "aroni": 7545,
      "stack": 7546,
      "states": 7547,
      "strolling": 7548,
      "ory": 7549,
      "meyers": 7550,
      "ita": 7551,
      "yout": 7552,
      "beaded": 7553,
      "idance": 7554,
      "haze": 7555,
      "sean": 7556,
      "seal": 7557,
      "section": 7558,
      "espres": 7559,
      "roger": 7560,
      "rocked": 7561,
      "rosy": 7562,
      "wiggled": 7563,
      "aler": 7564,
      "soak": 7565,
      "locks": 7566,
      "loading": 7567,
      "outward": 7568,
      "rips": 7569,
      "forgive": 7570,
      "fortune": 7571,
      "adition": 7572,
      "adored": 7573,
      "mock": 7574,
      "abuse": 7575,
      "absent": 7576,
      "fere": 7577,
      "chas": 7578,
      "chor": 7579,
      "charms": 7580,
      "upbringing": 7581,
      "agers": 7582,
      "aghetti": 7583,
      "coa": 7584,
      "cops": 7585,
      "urgently": 7586,
      "urgency": 7587,
      "unte": 7588,
      "untouched": 7589,
      "unison": 7590,
      "undressed": 7591,
      "unworthy": 7592,
      "unpreced": 7593,
      "anter": 7594,
      "sim": 7595,
      "sill": 7596,
      "gered": 7597,
      "owned": 7598,
      "depression": 7599,
      "defiance": 7600,
      "susp": 7601,
      "backstage": 7602,
      "redulous": 7603,
      "reduce": 7604,
      "trade": 7605,
      "tradition": 7606,
      "conde": 7607,
      "conqu": 7608,
      "conner": 7609,
      "convic": 7610,
      "conspir": 7611,
      "manhood": 7612,
      "manages": 7613,
      "notch": 7614,
      "handled": 7615,
      "intoxic": 7616,
      "mix": 7617,
      "milit": 7618,
      "elastic": 7619,
      "spur": 7620,
      "spaghetti": 7621,
      "exchanged": 7622,
      "exquis": 7623,
      "laun": 7624,
      "layout": 7625,
      "artist": 7626,
      "cheat": 7627,
      "wool": 7628,
      "puddle": 7629,
      "tingle": 7630,
      "quaint": 7631,
      "grated": 7632,
      "guidance": 7633,
      "poised": 7634,
      "pooled": 7635,
      "tapered": 7636,
      "bore": 7637,
      "offend": 7638,
      "reau": 7639,
      "stocked": 7640,
      "peach": 7641,
      "petal": 7642,
      "preferences": 7643,
      "evenly": 7644,
      "affect": 7645,
      "roommate": 7646,
      "armed": 7647,
      "armor": 7648,
      "opard": 7649,
      "mud": 7650,
      "wavy": 7651,
      "afterwards": 7652,
      "glint": 7653,
      "uses": 7654,
      "useless": 7655,
      "blown": 7656,
      "blond": 7657,
      "blades": 7658,
      "danny": 7659,
      "shove": 7660,
      "rushes": 7661,
      "reprie": 7662,
      "longing": 7663,
      "finality": 7664,
      "whereas": 7665,
      "apples": 7666,
      "discre": 7667,
      "dismiss": 7668,
      "disappro": 7669,
      "dismissed": 7670,
      "discovering": 7671,
      "among": 7672,
      "standard": 7673,
      "shifts": 7674,
      "immin": 7675,
      "marred": 7676,
      "marching": 7677,
      "marvel": 7678,
      "compe": 7679,
      "tickets": 7680,
      "science": 7681,
      "scrib": 7682,
      "scattered": 7683,
      "scalp": 7684,
      "parted": 7685,
      "fingered": 7686,
      "steamy": 7687,
      "sofas": 7688,
      "gavin": 7689,
      "series": 7690,
      "media": 7691,
      "spelling": 7692,
      "victory": 7693,
      "minal": 7694,
      "minister": 7695,
      "earn": 7696,
      "chips": 7697,
      "surfaced": 7698,
      "surrender": 7699,
      "traits": 7700,
      "clinking": 7701,
      "clerk": 7702,
      "flag": 7703,
      "flung": 7704,
      "flurry": 7705,
      "dialed": 7706,
      "tones": 7707,
      "pajam": 7708,
      "curve": 7709,
      "curved": 7710,
      "cursing": 7711,
      "curricul": 7712,
      "bush": 7713,
      "busily": 7714,
      "bureau": 7715,
      "meantime": 7716,
      "strand": 7717,
      "strings": 7718,
      "greed": 7719,
      "greater": 7720,
      "ggy": 7721,
      "skip": 7722,
      "deepening": 7723,
      "civi": 7724,
      "mature": 7725,
      "imper": 7726,
      "bitter": 7727,
      "hushed": 7728,
      "awning": 7729,
      "vibra": 7730,
      "jets": 7731,
      "jeopard": 7732,
      "mons": 7733,
      "joining": 7734,
      "sions": 7735,
      "creatures": 7736,
      "housekeeper": 7737,
      "closest": 7738,
      "pained": 7739,
      "cornered": 7740,
      "drift": 7741,
      "cran": 7742,
      "cubic": 7743,
      "talks": 7744,
      "draining": 7745,
      "steadily": 7746,
      "cerity": 7747,
      "dinged": 7748,
      "instinct": 7749,
      "responses": 7750,
      "sweep": 7751,
      "prim": 7752,
      "playground": 7753,
      "interlude": 7754,
      "interfere": 7755,
      "planes": 7756,
      "differences": 7757,
      "tugs": 7758,
      "appeti": 7759,
      "appease": 7760,
      "daisy": 7761,
      "demands": 7762,
      "calming": 7763,
      "midst": 7764,
      "strapped": 7765,
      "emptied": 7766,
      "incredulous": 7767,
      "quired": 7768,
      "tribal": 7769,
      "floors": 7770,
      "presents": 7771,
      "crap": 7772,
      "craving": 7773,
      "crafts": 7774,
      "fills": 7775,
      "dealt": 7776,
      "sunken": 7777,
      "bio": 7778,
      "juice": 7779,
      "warming": 7780,
      "arrives": 7781,
      "fastened": 7782,
      "evenings": 7783,
      "monthly": 7784,
      "promising": 7785,
      "promiscu": 7786,
      "visits": 7787,
      "tempered": 7788,
      "groin": 7789,
      "subjects": 7790,
      "suitable": 7791,
      "kneel": 7792,
      "kneaded": 7793,
      "attentions": 7794,
      "confidently": 7795,
      "custo": 7796,
      "custom": 7797,
      "nny": 7798,
      "fellow": 7799,
      "signals": 7800,
      "positioned": 7801,
      "layer": 7802,
      "horrifying": 7803,
      "brushes": 7804,
      "facade": 7805,
      "awareness": 7806,
      "debate": 7807,
      "gladly": 7808,
      "securities": 7809,
      "brighter": 7810,
      "baking": 7811,
      "youngest": 7812,
      "nearness": 7813,
      "feroc": 7814,
      "thirteen": 7815,
      "shuts": 7816,
      "syn": 7817,
      "hesitantly": 7818,
      "political": 7819,
      "damage": 7820,
      "anticipate": 7821,
      "robes": 7822,
      "convul": 7823,
      "acceptable": 7824,
      "fireplace": 7825,
      "invading": 7826,
      "flatten": 7827,
      "flattery": 7828,
      "escaping": 7829,
      "classmates": 7830,
      "commanding": 7831,
      "recipe": 7832,
      "recipro": 7833,
      "recipes": 7834,
      "china": 7835,
      "instructor": 7836,
      "tested": 7837,
      "experiences": 7838,
      "fabrics": 7839,
      "crushing": 7840,
      "swimming": 7841,
      "initial": 7842,
      "stripping": 7843,
      "strictly": 7844,
      "pinning": 7845,
      "varsity": 7846,
      "practic": 7847,
      "materials": 7848,
      "colorful": 7849,
      "initiate": 7850,
      "introduction": 7851,
      "volunte": 7852,
      "towels": 7853,
      "fixing": 7854,
      "flamed": 7855,
      "switch": 7856,
      "constant": 7857,
      "bloody": 7858,
      "thrusting": 7859,
      "screwing": 7860,
      "garlic": 7861,
      "stallion": 7862,
      "capturing": 7863,
      "freshly": 7864,
      "physique": 7865,
      "macaroni": 7866,
      "pulation": 7867,
      "defenses": 7868,
      "claims": 7869,
      "dryer": 7870,
      "natasha": 7871,
      "levels": 7872,
      "sensual": 7873,
      "squeezing": 7874,
      "virginia": 7875,
      "encourage": 7876,
      "honored": 7877,
      "folder": 7878,
      "storage": 7879,
      "petty": 7880,
      "description": 7881,
      "include": 7882,
      "washcloth": 7883,
      "fantasies": 7884,
      "venturing": 7885,
      "regretted": 7886,
      "convention": 7887,
      "portion": 7888,
      "relenting": 7889,
      "produce": 7890,
      "producing": 7891,
      "crotch": 7892,
      "winks": 7893,
      "weirdo": 7894,
      "shouts": 7895,
      "violent": 7896,
      "sandwiches": 7897,
      "massage": 7898,
      "measured": 7899,
      "transformed": 7900,
      "crackers": 7901,
      "bidding": 7902,
      "categor": 7903,
      "celebration": 7904,
      "celebrating": 7905,
      "bounds": 7906,
      "panting": 7907,
      "gossiping": 7908,
      "suvs": 7909,
      "community": 7910,
      "darted": 7911,
      "johnny": 7912,
      "swelled": 7913,
      "stationed": 7914,
      "chatter": 7915,
      "blissful": 7916,
      "entertainment": 7917,
      "england": 7918,
      "clouded": 7919,
      "resentful": 7920,
      "nuzzle": 7921,
      "nuzzling": 7922,
      "cushion": 7923,
      "cushioned": 7924,
      "draws": 7925,
      "occupants": 7926,
      "significantly": 7927,
      "wounded": 7928,
      "rippled": 7929,
      "rippling": 7930,
      "blurted": 7931,
      "scoffed": 7932,
      "gauge": 7933,
      "impatience": 7934,
      "crawled": 7935,
      "crawling": 7936,
      "tanned": 7937,
      "erole": 7938,
      "america": 7939,
      "slumber": 7940,
      "divorced": 7941,
      "juncture": 7942,
      "latched": 7943,
      "scanned": 7944,
      "scantily": 7945,
      "receptionist": 7946,
      "contradicted": 7947,
      "expertise": 7948,
      "echoed": 7949,
      "dozens": 7950,
      "develop": 7951,
      "platinum": 7952,
      "flooding": 7953,
      "snatching": 7954,
      "vulnerability": 7955,
      "assholes": 7956,
      "neatly": 7957,
      "charts": 7958,
      "buzzer": 7959,
      "smacking": 7960,
      "phrases": 7961,
      "acquaint": 7962,
      "demons": 7963,
      "devastated": 7964,
      "obligation": 7965,
      "scale": 7966,
      "regis": 7967,
      "adopted": 7968,
      "terminated": 7969,
      "prompted": 7970,
      "diplomatically": 7971,
      "intriguing": 7972,
      "disturb": 7973,
      "cousins": 7974,
      "pupils": 7975,
      "destination": 7976,
      "gulp": 7977,
      "film": 7978,
      "arrangement": 7979,
      "glittered": 7980,
      "obedience": 7981,
      "sincerity": 7982,
      "destroyed": 7983,
      "seduction": 7984,
      "calculated": 7985,
      "triumphant": 7986,
      "reverence": 7987,
      "communic": 7988,
      "georgetown": 7989,
      "criminal": 7990,
      "rebellion": 7991,
      "spanking": 7992,
      "competition": 7993,
      "sarcastically": 7994,
      "giddy": 7995,
      "yelped": 7996,
      "coordinator": 7997,
      "texts": 7998,
      "restrained": 7999,
      "twirled": 8000,
      "diminish": 8001,
      "sacrific": 8002,
      "skeptical": 8003,
      "sagely": 8004,
      "saddled": 8005,
      "reservation": 8006,
      "reigns": 8007,
      "documents": 8008,
      "sparked": 8009,
      "exclusive": 8010,
      "grumbles": 8011,
      "brutal": 8012,
      "psycho": 8013,
      "discarded": 8014,
      "analyze": 8015,
      "scholarship": 8016,
      "dabbed": 8017,
      "khaki": 8018,
      "inventory": 8019,
      "attributes": 8020,
      "aspect": 8021,
      "deposited": 8022,
      "lamely": 8023,
      "gruffly": 8024,
      "sculpted": 8025,
      "brunette": 8026,
      "participate": 8027,
      "congratulations": 8028,
      "tactic": 8029,
      "entranced": 8030,
      "execut": 8031,
      "expedient": 8032,
      "plush": 8033,
      "pearl": 8034,
      "chirps": 8035,
      "strangers": 8036,
      "quieter": 8037,
      "blosso": 8038,
      "apologetic": 8039,
      "candidate": 8040,
      "ecstatic": 8041,
      "interrogation": 8042,
      "vasectomy": 8043,
      "variety": 8044,
      "inevitable": 8045,
      "endeavor": 8046,
      "confronted": 8047,
      "preparation": 8048,
      "surmised": 8049,
      "crusted": 8050,
      "autumn": 8051,
      "casserole": 8052,
      "crept": 8053,
      "yielding": 8054,
      "rella": 8055,
      "espresso": 8056,
      "unprecedented": 8057,
      "military": 8058,
      "reprieve": 8059,
      "imminent": 8060,
      "pajamas": 8061,
      "curriculum": 8062,
      "vibrator": 8063,
      "11": 8064,
      "17": 8065,
      "ale": 8066,
      "aver": 8067,
      "alike": 8068,
      "atori": 8069,
      "apt": 8070,
      "athed": 8071,
      "bind": 8072,
      "bann": 8073,
      "bends": 8074,
      "cen": 8075,
      "cough": 8076,
      "cating": 8077,
      "dren": 8078,
      "dreading": 8079,
      "dawned": 8080,
      "eve": 8081,
      "etr": 8082,
      "eful": 8083,
      "elic": 8084,
      "equi": 8085,
      "etern": 8086,
      "gay": 8087,
      "gers": 8088,
      "gart": 8089,
      "gled": 8090,
      "gour": 8091,
      "gam": 8092,
      "gantly": 8093,
      "guring": 8094,
      "ige": 8095,
      "iate": 8096,
      "igan": 8097,
      "ium": 8098,
      "ique": 8099,
      "iency": 8100,
      "jung": 8101,
      "kily": 8102,
      "kier": 8103,
      "lated": 8104,
      "lacy": 8105,
      "mma": 8106,
      "mace": 8107,
      "mars": 8108,
      "mished": 8109,
      "mering": 8110,
      "nas": 8111,
      "nity": 8112,
      "napping": 8113,
      "ost": 8114,
      "osh": 8115,
      "ooh": 8116,
      "pher": 8117,
      "pout": 8118,
      "pover": 8119,
      "pry": 8120,
      "prying": 8121,
      "padd": 8122,
      "prude": 8123,
      "praise": 8124,
      "rand": 8125,
      "rust": 8126,
      "rated": 8127,
      "rows": 8128,
      "sly": 8129,
      "sash": 8130,
      "soup": 8131,
      "tid": 8132,
      "tro": 8133,
      "tab": 8134,
      "tasks": 8135,
      "trot": 8136,
      "uci": 8137,
      "vit": 8138,
      "vation": 8139,
      "vine": 8140,
      "vage": 8141,
      "vise": 8142,
      "winter": 8143,
      "wreck": 8144,
      "yup": 8145,
      "za": 8146,
      "hest": 8147,
      "inf": 8148,
      "inting": 8149,
      "income": 8150,
      "infin": 8151,
      "inity": 8152,
      "inching": 8153,
      "inadvert": 8154,
      "inhibit": 8155,
      "insecurities": 8156,
      "theore": 8157,
      "ouch": 8158,
      "rev": 8159,
      "rebe": 8160,
      "remor": 8161,
      "respe": 8162,
      "retri": 8163,
      "review": 8164,
      "remark": 8165,
      "retreated": 8166,
      "remarked": 8167,
      "thread": 8168,
      "tored": 8169,
      "tofu": 8170,
      "toning": 8171,
      "toler": 8172,
      "atlant": 8173,
      "astr": 8174,
      "onic": 8175,
      "ongoing": 8176,
      "online": 8177,
      "ishes": 8178,
      "enlighten": 8179,
      "encrusted": 8180,
      "arous": 8181,
      "stur": 8182,
      "strolled": 8183,
      "stung": 8184,
      "stasy": 8185,
      "llis": 8186,
      "llible": 8187,
      "ories": 8188,
      "meat": 8189,
      "mechan": 8190,
      "itaries": 8191
    },
    "merges": [
      [
        "h",
        "e"
      ],
      [
        "i",
        "n"
      ],
      [
        "a",
        "n"
      ],
      [
        "t",
        "he"
      ],
      [
        "o",
        "u"
      ],
      [
        "r",
        "e"
      ],
      [
        "t",
        "h"
      ],
      [
        "in",
        "g"
      ],
      [
        "t",
        "o"
      ],
      [
        "e",
        "d"
      ],
      [
        "a",
        "t"
      ],
      [
        "a",
        "s"
      ],
      [
        "o",
        "n"
      ],
      [
        "e",
        "r"
      ],
      [
        "i",
        "s"
      ],
      [
        "an",
        "d"
      ],
      [
        "he",
        "r"
      ],
      [
        "s",
        "he"
      ],
      [
        "'",
        "'"
      ],
      [
        "e",
        "n"
      ],
      [
        "`",
        "`"
      ],
      [
        "a",
        "r"
      ],
      [
        "s",
        "t"
      ],
      [
        "l",
        "l"
      ],
      [
        "o",
        "r"
      ],
      [
        "m",
        "e"
      ],
      [
        "o",
        "f"
      ],
      [
        "i",
        "t"
      ],
      [
        "l",
        "e"
      ],
      [
        "y",
        "ou"
      ],
      [
        "b",
        "e"
      ],
      [
        "o",
        "w"
      ],
      [
        "a",
        "c"
      ],
      [
        "w",
        "as"
      ],
      [
        "h",
        "is"
      ],
      [
        "i",
        "d"
      ],
      [
        "h",
        "a"
      ],
      [
        "s",
        "e"
      ],
      [
        "l",
        "y"
      ],
      [
        "e",
        "s"
      ],
      [
        "th",
        "at"
      ],
      [
        "l",
        "d"
      ],
      [
        "g",
        "h"
      ],
      [
        "h",
        "i"
      ],
      [
        "l",
        "i"
      ],
      [
        "v",
        "e"
      ],
      [
        "r",
        "o"
      ],
      [
        "a",
        "y"
      ],
      [
        "w",
        "i"
      ],
      [
        "u",
        "t"
      ],
      [
        "w",
        "e"
      ],
      [
        "a",
        "l"
      ],
      [
        "a",
        "ll"
      ],
      [
        "s",
        "o"
      ],
      [
        "l",
        "o"
      ],
      [
        "v",
        "er"
      ],
      [
        "ou",
        "t"
      ],
      [
        "r",
        "i"
      ],
      [
        "ou",
        "ld"
      ],
      [
        "wi",
        "th"
      ],
      [
        "gh",
        "t"
      ],
      [
        "f",
        "or"
      ],
      [
        "a",
        "d"
      ],
      [
        "n",
        "o"
      ],
      [
        "m",
        "o"
      ],
      [
        "t",
        "i"
      ],
      [
        "w",
        "h"
      ],
      [
        "hi",
        "m"
      ],
      [
        "m",
        "y"
      ],
      [
        "d",
        "o"
      ],
      [
        "a",
        "b"
      ],
      [
        "b",
        "ut"
      ],
      [
        "f",
        "e"
      ],
      [
        "n",
        "e"
      ],
      [
        "k",
        "e"
      ],
      [
        "c",
        "h"
      ],
      [
        "c",
        "e"
      ],
      [
        "en",
        "t"
      ],
      [
        "o",
        "k"
      ],
      [
        "u",
        "p"
      ],
      [
        "a",
        "g"
      ],
      [
        "i",
        "r"
      ],
      [
        "c",
        "o"
      ],
      [
        "on",
        "e"
      ],
      [
        "s",
        "h"
      ],
      [
        "ha",
        "d"
      ],
      [
        "u",
        "r"
      ],
      [
        "u",
        "n"
      ],
      [
        "g",
        "o"
      ],
      [
        "a",
        "re"
      ],
      [
        "ac",
        "k"
      ],
      [
        "s",
        "a"
      ],
      [
        "an",
        "t"
      ],
      [
        "p",
        "p"
      ],
      [
        "the",
        "r"
      ],
      [
        "u",
        "st"
      ],
      [
        "s",
        "i"
      ],
      [
        "a",
        "in"
      ],
      [
        "g",
        "e"
      ],
      [
        "w",
        "he"
      ],
      [
        "c",
        "k"
      ],
      [
        "t",
        "e"
      ],
      [
        "ow",
        "n"
      ],
      [
        "wh",
        "at"
      ],
      [
        "th",
        "ing"
      ],
      [
        "t",
        "er"
      ],
      [
        "ou",
        "n"
      ],
      [
        "n",
        "ow"
      ],
      [
        "d",
        "e"
      ],
      [
        "s",
        "u"
      ],
      [
        "w",
        "ay"
      ],
      [
        "b",
        "ack"
      ],
      [
        "o",
        "d"
      ],
      [
        "i",
        "f"
      ],
      [
        "j",
        "ust"
      ],
      [
        "th",
        "is"
      ],
      [
        "ha",
        "ve"
      ],
      [
        "d",
        "id"
      ],
      [
        "re",
        "d"
      ],
      [
        "c",
        "ould"
      ],
      [
        "t",
        "r"
      ],
      [
        "w",
        "ould"
      ],
      [
        "in",
        "d"
      ],
      [
        "i",
        "on"
      ],
      [
        "c",
        "on"
      ],
      [
        "oun",
        "d"
      ],
      [
        "lo",
        "ok"
      ],
      [
        "sa",
        "id"
      ],
      [
        "m",
        "an"
      ],
      [
        "s",
        "s"
      ],
      [
        "k",
        "ed"
      ],
      [
        "so",
        "me"
      ],
      [
        "er",
        "s"
      ],
      [
        "no",
        "t"
      ],
      [
        "all",
        "y"
      ],
      [
        "d",
        "own"
      ],
      [
        "ar",
        "d"
      ],
      [
        "m",
        "a"
      ],
      [
        "h",
        "and"
      ],
      [
        "we",
        "re"
      ],
      [
        "whe",
        "n"
      ],
      [
        "in",
        "to"
      ],
      [
        "w",
        "ant"
      ],
      [
        "c",
        "a"
      ],
      [
        "m",
        "i"
      ],
      [
        "id",
        "e"
      ],
      [
        "f",
        "o"
      ],
      [
        "at",
        "e"
      ],
      [
        "m",
        "p"
      ],
      [
        "e",
        "l"
      ],
      [
        "s",
        "p"
      ],
      [
        "k",
        "ing"
      ],
      [
        "y",
        "es"
      ],
      [
        "e",
        "x"
      ],
      [
        "w",
        "or"
      ],
      [
        "ro",
        "m"
      ],
      [
        "l",
        "a"
      ],
      [
        "o",
        "ver"
      ],
      [
        "the",
        "y"
      ],
      [
        "ab",
        "out"
      ],
      [
        "ag",
        "ain"
      ],
      [
        "ar",
        "t"
      ],
      [
        "c",
        "he"
      ],
      [
        ".",
        "."
      ],
      [
        "w",
        "o"
      ],
      [
        "m",
        "ent"
      ],
      [
        "ou",
        "s"
      ],
      [
        "f",
        "rom"
      ],
      [
        "n",
        "i"
      ],
      [
        "r",
        "a"
      ],
      [
        "an",
        "y"
      ],
      [
        "ou",
        "gh"
      ],
      [
        "p",
        "u"
      ],
      [
        "ac",
        "e"
      ],
      [
        "li",
        "ke"
      ],
      [
        "u",
        "s"
      ],
      [
        "i",
        "c"
      ],
      [
        "o",
        "ther"
      ],
      [
        "he",
        "ad"
      ],
      [
        "e",
        "v"
      ],
      [
        "h",
        "o"
      ],
      [
        "t",
        "ing"
      ],
      [
        "l",
        "f"
      ],
      [
        "ti",
        "me"
      ],
      [
        "ge",
        "t"
      ],
      [
        "q",
        "u"
      ],
      [
        "l",
        "ed"
      ],
      [
        "e",
        "m"
      ],
      [
        "e",
        "yes"
      ],
      [
        "you",
        "r"
      ],
      [
        "k",
        "now"
      ],
      [
        "g",
        "r"
      ],
      [
        "g",
        "u"
      ],
      [
        "p",
        "l"
      ],
      [
        "be",
        "en"
      ],
      [
        "e",
        "p"
      ],
      [
        "ou",
        "r"
      ],
      [
        "on",
        "g"
      ],
      [
        "p",
        "o"
      ],
      [
        "t",
        "a"
      ],
      [
        "d",
        "er"
      ],
      [
        "the",
        "re"
      ],
      [
        "as",
        "t"
      ],
      [
        "mo",
        "re"
      ],
      [
        "b",
        "o"
      ],
      [
        "of",
        "f"
      ],
      [
        "fe",
        "el"
      ],
      [
        "u",
        "l"
      ],
      [
        "re",
        "a"
      ],
      [
        "the",
        "n"
      ],
      [
        "ar",
        "ound"
      ],
      [
        "s",
        "to"
      ],
      [
        "p",
        "e"
      ],
      [
        "h",
        "ow"
      ],
      [
        "at",
        "ion"
      ],
      [
        "se",
        "lf"
      ],
      [
        "e",
        "ver"
      ],
      [
        "en",
        "d"
      ],
      [
        "p",
        "re"
      ],
      [
        "o",
        "m"
      ],
      [
        "b",
        "y"
      ],
      [
        "the",
        "m"
      ],
      [
        "fo",
        "re"
      ],
      [
        "ev",
        "en"
      ],
      [
        "in",
        "k"
      ],
      [
        "a",
        "f"
      ],
      [
        "t",
        "ed"
      ],
      [
        "r",
        "y"
      ],
      [
        "ro",
        "om"
      ],
      [
        "y",
        "e"
      ],
      [
        "as",
        "ked"
      ],
      [
        "wh",
        "o"
      ],
      [
        "ar",
        "m"
      ],
      [
        "ou",
        "ght"
      ],
      [
        "i",
        "ll"
      ],
      [
        "s",
        "ay"
      ],
      [
        "o",
        "p"
      ],
      [
        "c",
        "lo"
      ],
      [
        "v",
        "ing"
      ],
      [
        "be",
        "fore"
      ],
      [
        "s",
        "ide"
      ],
      [
        "go",
        "ing"
      ],
      [
        "he",
        "d"
      ],
      [
        "pu",
        "ll"
      ],
      [
        "in",
        "e"
      ],
      [
        "ti",
        "on"
      ],
      [
        "pp",
        "ed"
      ],
      [
        "ab",
        "le"
      ],
      [
        "ur",
        "n"
      ],
      [
        "m",
        "u"
      ],
      [
        "ne",
        "w"
      ],
      [
        "th",
        "an"
      ],
      [
        "es",
        "s"
      ],
      [
        "th",
        "r"
      ],
      [
        "ac",
        "h"
      ],
      [
        "ni",
        "ght"
      ],
      [
        "l",
        "it"
      ],
      [
        "p",
        "er"
      ],
      [
        "se",
        "e"
      ],
      [
        "s",
        "mi"
      ],
      [
        "b",
        "od"
      ],
      [
        "d",
        "ay"
      ],
      [
        "t",
        "urn"
      ],
      [
        "b",
        "ed"
      ],
      [
        "t",
        "s"
      ],
      [
        "on",
        "ly"
      ],
      [
        "p",
        "ro"
      ],
      [
        "th",
        "ought"
      ],
      [
        "t",
        "en"
      ],
      [
        "the",
        "ir"
      ],
      [
        "bod",
        "y"
      ],
      [
        "th",
        "ink"
      ],
      [
        "b",
        "r"
      ],
      [
        "look",
        "ed"
      ],
      [
        "g",
        "an"
      ],
      [
        "ne",
        "ed"
      ],
      [
        "c",
        "an"
      ],
      [
        "i",
        "ck"
      ],
      [
        "ri",
        "ght"
      ],
      [
        "f",
        "a"
      ],
      [
        "w",
        "a"
      ],
      [
        "f",
        "i"
      ],
      [
        "af",
        "ter"
      ],
      [
        "..",
        "."
      ],
      [
        "a",
        "way"
      ],
      [
        "g",
        "l"
      ],
      [
        "v",
        "ed"
      ],
      [
        "as",
        "s"
      ],
      [
        "sh",
        "ould"
      ],
      [
        "thr",
        "ough"
      ],
      [
        "w",
        "hi"
      ],
      [
        "ers",
        "on"
      ],
      [
        "p",
        "s"
      ],
      [
        "u",
        "se"
      ],
      [
        "ri",
        "ed"
      ],
      [
        "ac",
        "t"
      ],
      [
        "do",
        "or"
      ],
      [
        "it",
        "e"
      ],
      [
        "again",
        "st"
      ],
      [
        "su",
        "re"
      ],
      [
        "hand",
        "s"
      ],
      [
        "b",
        "l"
      ],
      [
        "w",
        "al"
      ],
      [
        "me",
        "gan"
      ],
      [
        "tr",
        "y"
      ],
      [
        "p",
        "es"
      ],
      [
        "we",
        "ll"
      ],
      [
        "want",
        "ed"
      ],
      [
        "d",
        "an"
      ],
      [
        "re",
        "ad"
      ],
      [
        "to",
        "o"
      ],
      [
        "t",
        "le"
      ],
      [
        "mu",
        "ch"
      ],
      [
        "f",
        "ace"
      ],
      [
        "f",
        "u"
      ],
      [
        "is",
        "s"
      ],
      [
        "sh",
        "o"
      ],
      [
        "r",
        "u"
      ],
      [
        "re",
        "p"
      ],
      [
        "ne",
        "ver"
      ],
      [
        "i",
        "ce"
      ],
      [
        "some",
        "thing"
      ],
      [
        "st",
        "art"
      ],
      [
        "he",
        "re"
      ],
      [
        "s",
        "it"
      ],
      [
        "e",
        "t"
      ],
      [
        "le",
        "t"
      ],
      [
        "go",
        "od"
      ],
      [
        "c",
        "t"
      ],
      [
        "ever",
        "y"
      ],
      [
        "b",
        "rea"
      ],
      [
        "wh",
        "y"
      ],
      [
        "co",
        "me"
      ],
      [
        "pes",
        "h"
      ],
      [
        "l",
        "ong"
      ],
      [
        "mo",
        "st"
      ],
      [
        "be",
        "t"
      ],
      [
        "f",
        "in"
      ],
      [
        "whe",
        "re"
      ],
      [
        "g",
        "i"
      ],
      [
        "b",
        "le"
      ],
      [
        "at",
        "ed"
      ],
      [
        "co",
        "m"
      ],
      [
        "a",
        "pp"
      ],
      [
        "i",
        "ous"
      ],
      [
        "d",
        "is"
      ],
      [
        "a",
        "m"
      ],
      [
        "l",
        "t"
      ],
      [
        "m",
        "ind"
      ],
      [
        "he",
        "l"
      ],
      [
        "re",
        "n"
      ],
      [
        "un",
        "der"
      ],
      [
        "re",
        "ally"
      ],
      [
        "ar",
        "s"
      ],
      [
        "k",
        "new"
      ],
      [
        "w",
        "ard"
      ],
      [
        "mo",
        "ment"
      ],
      [
        "st",
        "ill"
      ],
      [
        "w",
        "at"
      ],
      [
        "s",
        "l"
      ],
      [
        "f",
        "r"
      ],
      [
        "te",
        "ll"
      ],
      [
        "st",
        "and"
      ],
      [
        "ma",
        "ke"
      ],
      [
        "li",
        "ght"
      ],
      [
        "ar",
        "r"
      ],
      [
        "f",
        "ir"
      ],
      [
        "la",
        "u"
      ],
      [
        "ad",
        "e"
      ],
      [
        "em",
        "erson"
      ],
      [
        "s",
        "hi"
      ],
      [
        "i",
        "m"
      ],
      [
        "arm",
        "s"
      ],
      [
        "d",
        "es"
      ],
      [
        "ta",
        "ke"
      ],
      [
        "u",
        "re"
      ],
      [
        "ag",
        "e"
      ],
      [
        "as",
        "e"
      ],
      [
        "be",
        "ca"
      ],
      [
        "ha",
        "ir"
      ],
      [
        "che",
        "d"
      ],
      [
        "m",
        "en"
      ],
      [
        "e",
        "k"
      ],
      [
        "m",
        "ar"
      ],
      [
        "n",
        "er"
      ],
      [
        "wi",
        "ll"
      ],
      [
        "lit",
        "tle"
      ],
      [
        "t",
        "wo"
      ],
      [
        "n",
        "ing"
      ],
      [
        "co",
        "mp"
      ],
      [
        "lo",
        "ve"
      ],
      [
        "ti",
        "c"
      ],
      [
        "ha",
        "pp"
      ],
      [
        "s",
        "c"
      ],
      [
        "are",
        "d"
      ],
      [
        "p",
        "r"
      ],
      [
        "feel",
        "ing"
      ],
      [
        "k",
        "iss"
      ],
      [
        "p",
        "art"
      ],
      [
        "an",
        "g"
      ],
      [
        "t",
        "ou"
      ],
      [
        "m",
        "ou"
      ],
      [
        "f",
        "ing"
      ],
      [
        "beca",
        "use"
      ],
      [
        "wo",
        "man"
      ],
      [
        "in",
        "ce"
      ],
      [
        "to",
        "ok"
      ],
      [
        "op",
        "en"
      ],
      [
        "i",
        "g"
      ],
      [
        "m",
        "or"
      ],
      [
        "mou",
        "th"
      ],
      [
        "s",
        "si"
      ],
      [
        "her",
        "self"
      ],
      [
        "read",
        "y"
      ],
      [
        "v",
        "o"
      ],
      [
        "st",
        "e"
      ],
      [
        "s",
        "of"
      ],
      [
        "re",
        "ss"
      ],
      [
        "p",
        "le"
      ],
      [
        "g",
        "a"
      ],
      [
        "h",
        "ard"
      ],
      [
        "is",
        "t"
      ],
      [
        "any",
        "thing"
      ],
      [
        "e",
        "st"
      ],
      [
        "pull",
        "ed"
      ],
      [
        "con",
        "t"
      ],
      [
        "ver",
        "y"
      ],
      [
        "f",
        "ul"
      ],
      [
        "s",
        "er"
      ],
      [
        "fe",
        "lt"
      ],
      [
        "n",
        "a"
      ],
      [
        "an",
        "s"
      ],
      [
        "try",
        "ing"
      ],
      [
        "c",
        "ar"
      ],
      [
        "m",
        "ade"
      ],
      [
        "ll",
        "y"
      ],
      [
        "o",
        "b"
      ],
      [
        "m",
        "b"
      ],
      [
        "le",
        "a"
      ],
      [
        "l",
        "ing"
      ],
      [
        "m",
        "ed"
      ],
      [
        "x",
        "t"
      ],
      [
        "g",
        "hed"
      ],
      [
        "re",
        "st"
      ],
      [
        "turn",
        "ed"
      ],
      [
        "be",
        "ing"
      ],
      [
        "re",
        "e"
      ],
      [
        "c",
        "all"
      ],
      [
        "t",
        "y"
      ],
      [
        "look",
        "ing"
      ],
      [
        "wor",
        "d"
      ],
      [
        "sp",
        "e"
      ],
      [
        "fir",
        "st"
      ],
      [
        "p",
        "ut"
      ],
      [
        "s",
        "ince"
      ],
      [
        "li",
        "fe"
      ],
      [
        "rep",
        "li"
      ],
      [
        "go",
        "t"
      ],
      [
        "ar",
        "i"
      ],
      [
        "v",
        "ic"
      ],
      [
        "o",
        "l"
      ],
      [
        "e",
        "ach"
      ],
      [
        "d",
        "d"
      ],
      [
        "c",
        "ed"
      ],
      [
        "d",
        "h"
      ],
      [
        "wor",
        "k"
      ],
      [
        "dh",
        "arr"
      ],
      [
        "al",
        "most"
      ],
      [
        "m",
        "in"
      ],
      [
        "z",
        "e"
      ],
      [
        "qu",
        "ick"
      ],
      [
        "sof",
        "t"
      ],
      [
        "ne",
        "xt"
      ],
      [
        "e",
        "ar"
      ],
      [
        "c",
        "hi"
      ],
      [
        "it",
        "y"
      ],
      [
        "hel",
        "p"
      ],
      [
        "to",
        "ri"
      ],
      [
        "as",
        "k"
      ],
      [
        "f",
        "ind"
      ],
      [
        "s",
        "ur"
      ],
      [
        "wa",
        "it"
      ],
      [
        "t",
        "al"
      ],
      [
        "dan",
        "i"
      ],
      [
        "tr",
        "a"
      ],
      [
        "mi",
        "ght"
      ],
      [
        "c",
        "l"
      ],
      [
[...]
