{
  "version": "1.0",
  "truncation": null,
  "padding": null,
  "added_tokens": [
    {
      "id": 0,
      "content": "[PAD]",
      "single_word": false,
      "lstrip": false,
      "rstrip": false,
      "normalized": false,
      "special": true
    },
    {
      "id": 1,
      "content": "[UNK]",
      "single_word": false,
      "lstrip": false,
      "rstrip": false,
      "normalized": false,
      "special": true
    },
    {
      "id": 2,
      "content": "[CLS]",
      "single_word": false,
      "lstrip": false,
      "rstrip": false,
      "normalized": false,
      "special": true
    },
    {
      "id": 3,
      "content": "[MASK]",
      "single_word": false,
      "lstrip": false,
      "rstrip": false,
      "normalized": false,
      "special": true
    }
  ],
  "normalizer": {
    "type": "BertNormalizer",
    "clean_text": true,
    "handle_chinese_chars": true,
    "strip_accents": true,
    "lowercase": true
  },
  "pre_tokenizer": {
    "type": "Whitespace"
  },
  "post_processor": null,
  "decoder": null,
  "model": {
    "type": "BPE",
    "dropout": null,
    "unk_token": "[UNK]",
    "continuing_subword_prefix": null,
    "end_of_word_suffix": null,
    "fuse_unk": false,
    "byte_fallback": false,
    "ignore_merges": false,
    "vocab": {
      "[PAD]": 0,
      "[UNK]": 1,
      "[CLS]": 2,
      "[MASK]": 3,
      "!": 4,
      "\"": 5,
      "%": 6,
      "&": 7,
      "'": 8,
      ",": 9,
      "-": 10,
      ".": 11,
      "/": 12,
      "0": 13,
      "1": 14,
      "2": 15,
      "3": 16,
      "4": 17,
      "5": 18,
      "6": 19,
      "7": 20,
      "8": 21,
      "9": 22,
      ";": 23,
      "=": 24,
      "?": 25,
      "a": 26,
      "b": 27,
      "c": 28,
      "d": 29,
      "e": 30,
      "f": 31,
      "g": 32,
      "h": 33,
      "i": 34,
      "j": 35,
      "k": 36,
      "l": 37,
      "m": 38,
      "n": 39,
      "o": 40,
      "p": 41,
      "q": 42,
      "r": 43,
      "s": 44,
      "t": 45,
      "u": 46,
      "v": 47,
      "w": 48,
      "x": 49,
      "y": 50,
      "z": 51,
      "~": 52,
      "¡": 53,
      "½": 54,
      "æ": 55,
      "ð": 56,
      "ø": 57,
      "–": 58,
      "—": 59,
      "’": 60,
      "“": 61,
      "”": 62,
      "…": 63,
      "園": 64,
      "官": 65,
      "志": 66,
      "放": 67,
      "方": 68,
      "杂": 69,
      "楽": 70,
      "追": 71,
      "th": 72,
      "in": 73,
      "the": 74,
      "at": 75,
      "re": 76,
      "st": 77,
      "an": 78,
      "on": 79,
      "la": 80,
      "or": 81,
      "to": 82,
      "er": 83,
      "ar": 84,
      "pla": 85,
      "le": 86,
      "play": 87,
      "is": 88,
      "ou": 89,
      "me": 90,
      "for": 91,
      "li": 92,
      "oo": 93,
      "ie": 94,
      "of": 95,
      "ve": 96,
      "ing": 97,
      "al": 98,
      "se": 99,
      "ch": 100,
      "ad": 101,
      "wh": 102,
      "ne": 103,
      "ow": 104,
      "ook": 105,
      "il": 106,
      "mo": 107,
      "ic": 108,
      "ur": 109,
      "book": 110,
      "ed": 111,
      "ro": 112,
      "ind": 113,
      "sh": 114,
      "it": 115,
      "ant": 116,
      "vie": 117,
      "add": 118,
      "list": 119,
      "movie": 120,
      "my": 121,
      "en": 122,
      "and": 123,
      "what": 124,
      "rat": 125,
      "ra": 126,
      "be": 127,
      "find": 128,
      "playlist": 129,
      "we": 130,
      "po": 131,
      "this": 132,
      "ion": 133,
      "ive": 134,
      "rom": 135,
      "nt": 136,
      "ther": 137,
      "from": 138,
      "ser": 139,
      "te": 140,
      "by": 141,
      "show": 142,
      "ca": 143,
      "lo": 144,
      "ck": 145,
      "rate": 146,
      "ill": 147,
      "ti": 148,
      "rest": 149,
      "ke": 150,
      "out": 151,
      "ta": 152,
      "ather": 153,
      "weather": 154,
      "us": 155,
      "ma": 156,
      "gh": 157,
      "de": 158,
      "son": 159,
      "ts": 160,
      "fo": 161,
      "aur": 162,
      "our": 163,
      "give": 164,
      "sa": 165,
      "restaur": 166,
      "restaurant": 167,
      "will": 168,
      "am": 169,
      "star": 170,
      "um": 171,
      "ation": 172,
      "ine": 173,
      "ple": 174,
      "ge": 175,
      "co": 176,
      "igh": 177,
      "he": 178,
      "can": 179,
      "mus": 180,
      "want": 181,
      "music": 182,
      "sch": 183,
      "tra": 184,
      "cast": 185,
      "es": 186,
      "ble": 187,
      "cur": 188,
      "rent": 189,
      "pu": 190,
      "so": 191,
      "fore": 192,
      "ule": 193,
      "current": 194,
      "edule": 195,
      "schedule": 196,
      "stars": 197,
      "poin": 198,
      "time": 199,
      "forecast": 200,
      "are": 201,
      "song": 202,
      "ga": 203,
      "ies": 204,
      "points": 205,
      "playing": 206,
      "no": 207,
      "theat": 208,
      "now": 209,
      "like": 210,
      "table": 211,
      "ce": 212,
      "pe": 213,
      "alb": 214,
      "nd": 215,
      "wi": 216,
      "par": 217,
      "album": 218,
      "da": 219,
      "ld": 220,
      "ood": 221,
      "theatre": 222,
      "tu": 223,
      "movies": 224,
      "ho": 225,
      "one": 226,
      "20": 227,
      "ia": 228,
      "led": 229,
      "ir": 230,
      "track": 231,
      "ll": 232,
      "reser": 233,
      "ty": 234,
      "some": 235,
      "with": 236,
      "ri": 237,
      "cal": 238,
      "need": 239,
      "clo": 240,
      "tw": 241,
      "pa": 242,
      "that": 243,
      "ree": 244,
      "un": 245,
      "fe": 246,
      "you": 247,
      "go": 248,
      "ase": 249,
      "ss": 250,
      "con": 251,
      "ver": 252,
      "vation": 253,
      "ound": 254,
      "ter": 255,
      "ouse": 256,
      "called": 257,
      "reservation": 258,
      "please": 259,
      "im": 260,
      "four": 261,
      "house": 262,
      "as": 263,
      "close": 264,
      "ere": 265,
      "theatres": 266,
      "ate": 267,
      "ly": 268,
      "xt": 269,
      "where": 270,
      "ight": 271,
      "cine": 272,
      "ba": 273,
      "19": 274,
      "vi": 275,
      "nove": 276,
      "mar": 277,
      "ph": 278,
      "get": 279,
      "tune": 280,
      "times": 281,
      "day": 282,
      "ated": 283,
      "ves": 284,
      "man": 285,
      "zer": 286,
      "put": 287,
      "ist": 288,
      "spo": 289,
      "novel": 290,
      "ct": 291,
      "ue": 292,
      "ms": 293,
      "na": 294,
      "hear": 295,
      "anim": 296,
      "two": 297,
      "five": 298,
      "rating": 299,
      "wa": 300,
      "three": 301,
      "si": 302,
      "peo": 303,
      "cinema": 304,
      "all": 305,
      "land": 306,
      "people": 307,
      "per": 308,
      "animated": 309,
      "serves": 310,
      "fil": 311,
      "ven": 312,
      "mi": 313,
      "wor": 314,
      "new": 315,
      "schedules": 316,
      "do": 317,
      "ber": 318,
      "ha": 319,
      "war": 320,
      "top": 321,
      "ry": 322,
      "here": 323,
      "films": 324,
      "look": 325,
      "ity": 326,
      "ould": 327,
      "ron": 328,
      "min": 329,
      "mon": 330,
      "jo": 331,
      "ties": 332,
      "there": 333,
      "tv": 334,
      "say": 335,
      "party": 336,
      "tist": 337,
      "park": 338,
      "bo": 339,
      "el": 340,
      "saga": 341,
      "lu": 342,
      "neigh": 343,
      "game": 344,
      "neighb": 345,
      "artist": 346,
      "gr": 347,
      "if": 348,
      "see": 349,
      "sound": 350,
      "essay": 351,
      "series": 352,
      "cre": 353,
      "ian": 354,
      "bar": 355,
      "up": 356,
      "last": 357,
      "int": 358,
      "sou": 359,
      "text": 360,
      "gra": 361,
      "ment": 362,
      "nea": 363,
      "showing": 364,
      "spot": 365,
      "textbook": 366,
      "ru": 367,
      "ye": 368,
      "area": 369,
      "zero": 370,
      "nearest": 371,
      "when": 372,
      "bra": 373,
      "fa": 374,
      "ul": 375,
      "ers": 376,
      "wat": 377,
      "hood": 378,
      "closest": 379,
      "car": 380,
      "gre": 381,
      "best": 382,
      "dy": 383,
      "tell": 384,
      "gu": 385,
      "id": 386,
      "pr": 387,
      "would": 388,
      "cla": 389,
      "cond": 390,
      "cor": 391,
      "ep": 392,
      "far": 393,
      "nation": 394,
      "rated": 395,
      "ten": 396,
      "going": 397,
      "ute": 398,
      "ance": 399,
      "wee": 400,
      "ja": 401,
      "near": 402,
      "hour": 403,
      "tal": 404,
      "ish": 405,
      "ick": 406,
      "pm": 407,
      "ronic": 408,
      "national": 409,
      "vil": 410,
      "watch": 411,
      "stor": 412,
      "minute": 413,
      "su": 414,
      "au": 415,
      "ig": 416,
      "twen": 417,
      "vis": 418,
      "pub": 419,
      "ak": 420,
      "food": 421,
      "nine": 422,
      "soundtrack": 423,
      "por": 424,
      "thing": 425,
      "ard": 426,
      "10": 427,
      "king": 428,
      "ton": 429,
      "around": 430,
      "hot": 431,
      "year": 432,
      "ster": 433,
      "ount": 434,
      "rock": 435,
      "neighbor": 436,
      "ture": 437,
      "week": 438,
      "love": 439,
      "eat": 440,
      "lar": 441,
      "bu": 442,
      "graph": 443,
      "ko": 444,
      "second": 445,
      "how": 446,
      "ark": 447,
      "chronic": 448,
      "chronicle": 449,
      "mer": 450,
      "night": 451,
      "ano": 452,
      "ild": 453,
      "work": 454,
      "high": 455,
      "lack": 456,
      "arch": 457,
      "songs": 458,
      "way": 459,
      "pre": 460,
      "br": 461,
      "mor": 462,
      "six": 463,
      "island": 464,
      "pic": 465,
      "bras": 466,
      "ina": 467,
      "ele": 468,
      "cold": 469,
      "eight": 470,
      "nor": 471,
      "pho": 472,
      "ent": 473,
      "ste": 474,
      "any": 475,
      "place": 476,
      "mp": 477,
      "fm": 478,
      "zz": 479,
      "che": 480,
      "di": 481,
      "seven": 482,
      "looking": 483,
      "ary": 484,
      "search": 485,
      "men": 486,
      "serie": 487,
      "trail": 488,
      "wo": 489,
      "chill": 490,
      "col": 491,
      "brasserie": 492,
      "lou": 493,
      "tt": 494,
      "201": 495,
      "203": 496,
      "creat": 497,
      "fr": 498,
      "val": 499,
      "picture": 500,
      "dist": 501,
      "ka": 502,
      "state": 503,
      "life": 504,
      "next": 505,
      "ite": 506,
      "sy": 507,
      "eric": 508,
      "les": 509,
      "ley": 510,
      "nes": 511,
      "nearby": 512,
      "photo": 513,
      "city": 514,
      "onto": 515,
      "own": 516,
      "photograph": 517,
      "snow": 518,
      "teen": 519,
      "vision": 520,
      "iv": 521,
      "ice": 522,
      "wal": 523,
      "tele": 524,
      "202": 525,
      "good": 526,
      "ju": 527,
      "net": 528,
      "within": 529,
      "ville": 530,
      "ac": 531,
      "trailer": 532,
      "hn": 533,
      "ire": 534,
      "ure": 535,
      "popu": 536,
      "television": 537,
      "popular": 538,
      "bur": 539,
      "metal": 540,
      "bl": 541,
      "ich": 542,
      "inn": 543,
      "class": 544,
      "qu": 545,
      "vide": 546,
      "neighborhood": 547,
      "gle": 548,
      "op": 549,
      "use": 550,
      "bal": 551,
      "hit": 552,
      "ip": 553,
      "ren": 554,
      "reserve": 555,
      "paint": 556,
      "classic": 557,
      "wn": 558,
      "red": 559,
      "rain": 560,
      "tif": 561,
      "americ": 562,
      "reservations": 563,
      "highly": 564,
      "ast": 565,
      "und": 566,
      "illi": 567,
      "video": 568,
      "painting": 569,
      "thir": 570,
      "vent": 571,
      "tem": 572,
      "heart": 573,
      "john": 574,
      "fli": 575,
      "fall": 576,
      "has": 577,
      "nat": 578,
      "pop": 579,
      "fu": 580,
      "sun": 581,
      "ool": 582,
      "ition": 583,
      "west": 584,
      "something": 585,
      "hours": 586,
      "ker": 587,
      "wild": 588,
      "cha": 589,
      "make": 590,
      "200": 591,
      "spotif": 592,
      "spotify": 593,
      "ab": 594,
      "same": 595,
      "jan": 596,
      "que": 597,
      "tit": 598,
      "off": 599,
      "com": 600,
      "name": 601,
      "gen": 602,
      "which": 603,
      "free": 604,
      "fif": 605,
      "wind": 606,
      "ory": 607,
      "oove": 608,
      "groove": 609,
      "twenty": 610,
      "ky": 611,
      "lat": 612,
      "ris": 613,
      "live": 614,
      "years": 615,
      "har": 616,
      "va": 617,
      "ath": 618,
      "ci": 619,
      "count": 620,
      "listen": 621,
      "american": 622,
      "indie": 623,
      "cafe": 624,
      "ourhood": 625,
      "neighbourhood": 626,
      "north": 627,
      "netfli": 628,
      "netflix": 629,
      "ny": 630,
      "os": 631,
      "clock": 632,
      "south": 633,
      "ex": 634,
      "ora": 635,
      "taver": 636,
      "hits": 637,
      "goo": 638,
      "je": 639,
      "row": 640,
      "atest": 641,
      "199": 642,
      "black": 643,
      "cu": 644,
      "ol": 645,
      "pi": 646,
      "van": 647,
      "ving": 648,
      "today": 649,
      "town": 650,
      "let": 651,
      "itu": 652,
      "storm": 653,
      "islands": 654,
      "shark": 655,
      "dee": 656,
      "minutes": 657,
      "google": 658,
      "bre": 659,
      "ger": 660,
      "ous": 661,
      "gets": 662,
      "soul": 663,
      "corpor": 664,
      "another": 665,
      "only": 666,
      "las": 667,
      "lake": 668,
      "mas": 669,
      "ght": 670,
      "not": 671,
      "weeks": 672,
      "women": 673,
      "gy": 674,
      "mber": 675,
      "zv": 676,
      "ana": 677,
      "enter": 678,
      "plex": 679,
      "days": 680,
      "itunes": 681,
      "af": 682,
      "know": 683,
      "ning": 684,
      "pro": 685,
      "lad": 686,
      "ooq": 687,
      "world": 688,
      "deezer": 689,
      "zvooq": 690,
      "don": 691,
      "ff": 692,
      "ya": 693,
      "ins": 694,
      "chant": 695,
      "road": 696,
      "195": 697,
      "warm": 698,
      "month": 699,
      "dis": 700,
      "down": 701,
      "hist": 702,
      "spa": 703,
      "reg": 704,
      "ony": 705,
      "start": 706,
      "colder": 707,
      "titled": 708,
      "latin": 709,
      "country": 710,
      "away": 711,
      "dance": 712,
      "roo": 713,
      "sc": 714,
      "sp": 715,
      "vo": 716,
      "your": 717,
      "ze": 718,
      "loc": 719,
      "rist": 720,
      "197": 721,
      "corporation": 722,
      "clou": 723,
      "mu": 724,
      "ube": 725,
      "into": 726,
      "ang": 727,
      "iss": 728,
      "lastfm": 729,
      "cord": 730,
      "chilly": 731,
      "cle": 732,
      "her": 733,
      "slack": 734,
      "wood": 735,
      "yout": 736,
      "seat": 737,
      "mid": 738,
      "have": 739,
      "twenties": 740,
      "youtube": 741,
      "ach": 742,
      "cer": 743,
      "io": 744,
      "zing": 745,
      "mark": 746,
      "ction": 747,
      "freezing": 748,
      "slacker": 749,
      "lon": 750,
      "mc": 751,
      "tur": 752,
      "sen": 753,
      "end": 754,
      "showtimes": 755,
      "pun": 756,
      "ballad": 757,
      "temper": 758,
      "pand": 759,
      "tion": 760,
      "inc": 761,
      "sevent": 762,
      "ade": 763,
      "creativ": 764,
      "distance": 765,
      "bon": 766,
      "ki": 767,
      "ric": 768,
      "san": 769,
      "record": 770,
      "ane": 771,
      "tain": 772,
      "deserves": 773,
      "open": 774,
      "pandora": 775,
      "ali": 776,
      "blu": 777,
      "lk": 778,
      "sta": 779,
      "law": 780,
      "mes": 781,
      "ings": 782,
      "move": 783,
      "jazz": 784,
      "creativity": 785,
      "11": 786,
      "bri": 787,
      "cour": 788,
      "der": 789,
      "fre": 790,
      "gar": 791,
      "gue": 792,
      "hum": 793,
      "ii": 794,
      "jour": 795,
      "ken": 796,
      "lor": 797,
      "mount": 798,
      "tr": 799,
      "lic": 800,
      "thern": 801,
      "death": 802,
      "seconds": 803,
      "walking": 804,
      "punk": 805,
      "ni": 806,
      "inter": 807,
      "att": 808,
      "litt": 809,
      "light": 810,
      "chilli": 811,
      "folk": 812,
      "llow": 813,
      "value": 814,
      "0s": 815,
      "cy": 816,
      "du": 817,
      "dan": 818,
      "fire": 819,
      "ham": 820,
      "tin": 821,
      "christ": 822,
      "sha": 823,
      "mag": 824,
      "cinemas": 825,
      "warmer": 826,
      "hotter": 827,
      "creative": 828,
      "inner": 829,
      "chillier": 830,
      "hal": 831,
      "iheart": 832,
      "spr": 833,
      "ange": 834,
      "ise": 835,
      "meo": 836,
      "cineplex": 837,
      "back": 838,
      "198": 839,
      "sym": 840,
      "after": 841,
      "room": 842,
      "dra": 843,
      "east": 844,
      "fi": 845,
      "ls": 846,
      "right": 847,
      "tri": 848,
      "ough": 849,
      "sea": 850,
      "white": 851,
      "feb": 852,
      "vimeo": 853,
      "fast": 854,
      "entertain": 855,
      "dinner": 856,
      "hill": 857,
      "nal": 858,
      "tru": 859,
      "ut": 860,
      "ink": 861,
      "theme": 862,
      "melo": 863,
      "ney": 864,
      "most": 865,
      "should": 866,
      "196": 867,
      "greatest": 868,
      "faraway": 869,
      "colle": 870,
      "symph": 871,
      "entertainment": 872,
      "gir": 873,
      "more": 874,
      "ica": 875,
      "ams": 876,
      "theaters": 877,
      "eleven": 878,
      "under": 879,
      "blues": 880,
      "melody": 881,
      "50": 882,
      "cro": 883,
      "tre": 884,
      "tho": 885,
      "tea": 886,
      "saint": 887,
      "grand": 888,
      "neighboring": 889,
      "disco": 890,
      "symphony": 891,
      "12": 892,
      "bor": 893,
      "bli": 894,
      "bia": 895,
      "cra": 896,
      "fun": 897,
      "gam": 898,
      "mal": 899,
      "sing": 900,
      "sup": 901,
      "ates": 902,
      "ank": 903,
      "newest": 904,
      "pos": 905,
      "river": 906,
      "fourties": 907,
      "iana": 908,
      "named": 909,
      "temperate": 910,
      "half": 911,
      "ds": 912,
      "den": 913,
      "old": 914,
      "spe": 915,
      "stic": 916,
      "tom": 917,
      "serving": 918,
      "very": 919,
      "eighties": 920,
      "fifties": 921,
      "location": 922,
      "movement": 923,
      "court": 924,
      "13": 925,
      "ap": 926,
      "apr": 927,
      "din": 928,
      "ful": 929,
      "mad": 930,
      "mic": 931,
      "sw": 932,
      "ys": 933,
      "read": 934,
      "step": 935,
      "lie": 936,
      "ower": 937,
      "wel": 938,
      "paul": 939,
      "ssion": 940,
      "green": 941,
      "elect": 942,
      "thirties": 943,
      "wildlife": 944,
      "bir": 945,
      "cent": 946,
      "em": 947,
      "fie": 948,
      "over": 949,
      "pur": 950,
      "za": 951,
      "ino": 952,
      "stu": 953,
      "oup": 954,
      "sep": 955,
      "who": 956,
      "take": 957,
      "fog": 958,
      "geor": 959,
      "hel": 960,
      "rich": 961,
      "concer": 962,
      "xties": 963,
      "sixties": 964,
      "story": 965,
      "tavern": 966,
      "history": 967,
      "seventies": 968,
      "mounta": 969,
      "dre": 970,
      "dge": 971,
      "even": 972,
      "hip": 973,
      "ji": 974,
      "jun": 975,
      "ok": 976,
      "tro": 977,
      "tte": 978,
      "yo": 979,
      "tha": 980,
      "stro": 981,
      "stra": 982,
      "ort": 983,
      "len": 984,
      "lia": 985,
      "max": 986,
      "ess": 987,
      "hop": 988,
      "lly": 989,
      "tunes": 990,
      "mont": 991,
      "iano": 992,
      "great": 993,
      "workout": 994,
      "check": 995,
      "distant": 996,
      "teenth": 997,
      "humid": 998,
      "position": 999,
      "21": 1000,
      "age": 1001,
      "cus": 1002,
      "ear": 1003,
      "hu": 1004,
      "ial": 1005,
      "jon": 1006,
      "nie": 1007,
      "pool": 1008,
      "ws": 1009,
      "inst": 1010,
      "ado": 1011,
      "ness": 1012,
      "ily": 1013,
      "ico": 1014,
      "she": 1015,
      "dec": 1016,
      "comp": 1017,
      "feel": 1018,
      "group": 1019,
      "carol": 1020,
      "morrow": 1021,
      "frie": 1022,
      "just": 1023,
      "classical": 1024,
      "dr": 1025,
      "gan": 1026,
      "hy": 1027,
      "kid": 1028,
      "lin": 1029,
      "oc": 1030,
      "ork": 1031,
      "tomorrow": 1032,
      "ara": 1033,
      "offe": 1034,
      "sey": 1035,
      "bel": 1036,
      "gae": 1037,
      "noon": 1038,
      "starting": 1039,
      "evening": 1040,
      "av": 1041,
      "bi": 1042,
      "bro": 1043,
      "bill": 1044,
      "et": 1045,
      "fin": 1046,
      "hor": 1047,
      "jor": 1048,
      "mat": 1049,
      "miss": 1050,
      "sur": 1051,
      "sky": 1052,
      "was": 1053,
      "stree": 1054,
      "ond": 1055,
      "char": 1056,
      "view": 1057,
      "cape": 1058,
      "del": 1059,
      "irst": 1060,
      "southern": 1061,
      "zzard": 1062,
      "acou": 1063,
      "taverna": 1064,
      "reggae": 1065,
      "journal": 1066,
      "little": 1067,
      "blizzard": 1068,
      "help": 1069,
      "bb": 1070,
      "gl": 1071,
      "ner": 1072,
      "pat": 1073,
      "sum": 1074,
      "scar": 1075,
      "york": 1076,
      "med": 1077,
      "sed": 1078,
      "cho": 1079,
      "ada": 1080,
      "ical": 1081,
      "beat": 1082,
      "tel": 1083,
      "loe": 1084,
      "come": 1085,
      "mary": 1086,
      "port": 1087,
      "about": 1088,
      "months": 1089,
      "spring": 1090,
      "truck": 1091,
      "offee": 1092,
      "acoustic": 1093,
      "22": 1094,
      "big": 1095,
      "first": 1096,
      "gon": 1097,
      "gla": 1098,
      "power": 1099,
      "tan": 1100,
      "lian": 1101,
      "child": 1102,
      "tim": 1103,
      "may": 1104,
      "sas": 1105,
      "esp": 1106,
      "tracks": 1107,
      "somewhere": 1108,
      "vers": 1109,
      "baby": 1110,
      "baker": 1111,
      "ments": 1112,
      "nineties": 1113,
      "2016": 1114,
      "nature": 1115,
      "cloudy": 1116,
      "street": 1117,
      "15": 1118,
      "16": 1119,
      "coffee": 1120,
      "fl": 1121,
      "hand": 1122,
      "line": 1123,
      "ng": 1124,
      "rad": 1125,
      "tor": 1126,
      "vir": 1127,
      "wish": 1128,
      "added": 1129,
      "case": 1130,
      "los": 1131,
      "dead": 1132,
      "part": 1133,
      "vid": 1134,
      "martin": 1135,
      "does": 1136,
      "ific": 1137,
      "fair": 1138,
      "but": 1139,
      "steak": 1140,
      "windy": 1141,
      "midnight": 1142,
      "loews": 1143,
      "dou": 1144,
      "dark": 1145,
      "gi": 1146,
      "jer": 1147,
      "lla": 1148,
      "nu": 1149,
      "pp": 1150,
      "rus": 1151,
      "run": 1152,
      "sat": 1153,
      "sle": 1154,
      "sal": 1155,
      "vin": 1156,
      "think": 1157,
      "refu": 1158,
      "ston": 1159,
      "lau": 1160,
      "mex": 1161,
      "sho": 1162,
      "itch": 1163,
      "ited": 1164,
      "forest": 1165,
      "home": 1166,
      "teria": 1167,
      "parking": 1168,
      "condition": 1169,
      "burg": 1170,
      "blood": 1171,
      "gaming": 1172,
      "mountain": 1173,
      "dig": 1174,
      "gin": 1175,
      "ks": 1176,
      "ku": 1177,
      "ler": 1178,
      "ode": 1179,
      "stone": 1180,
      "ansas": 1181,
      "ong": 1182,
      "ses": 1183,
      "beach": 1184,
      "post": 1185,
      "dako": 1186,
      "door": 1187,
      "hail": 1188,
      "augu": 1189,
      "2017": 1190,
      "snowstorm": 1191,
      "cafeteria": 1192,
      "break": 1193,
      "cloud": 1194,
      "fresh": 1195,
      "magic": 1196,
      "carolina": 1197,
      "summer": 1198,
      "refuge": 1199,
      "dakota": 1200,
      "00": 1201,
      "17": 1202,
      "ay": 1203,
      "ale": 1204,
      "ace": 1205,
      "een": 1206,
      "fer": 1207,
      "fren": 1208,
      "giv": 1209,
      "hi": 1210,
      "mill": 1211,
      "other": 1212,
      "smo": 1213,
      "than": 1214,
      "str": 1215,
      "lee": 1216,
      "als": 1217,
      "secre": 1218,
      "ades": 1219,
      "sher": 1220,
      "cap": 1221,
      "local": 1222,
      "key": 1223,
      "amc": 1224,
      "pac": 1225,
      "united": 1226,
      "side": 1227,
      "person": 1228,
      "prin": 1229,
      "icken": 1230,
      "johnson": 1231,
      "chael": 1232,
      "gener": 1233,
      "trip": 1234,
      "girl": 1235,
      "cross": 1236,
      "field": 1237,
      "virgin": 1238,
      "august": 1239,
      "french": 1240,
      "giving": 1241,
      "ala": 1242,
      "bin": 1243,
      "cion": 1244,
      "dick": 1245,
      "eigh": 1246,
      "hall": 1247,
      "kar": 1248,
      "latest": 1249,
      "oh": 1250,
      "sin": 1251,
      "sand": 1252,
      "twel": 1253,
      "uary": 1254,
      "via": 1255,
      "anna": 1256,
      "ford": 1257,
      "fort": 1258,
      "moa": 1259,
      "ury": 1260,
      "ural": 1261,
      "shi": 1262,
      "posed": 1263,
      "tes": 1264,
      "fox": 1265,
      "ines": 1266,
      "school": 1267,
      "pull": 1268,
      "gastro": 1269,
      "hotel": 1270,
      "needs": 1271,
      "reek": 1272,
      "young": 1273,
      "bay": 1274,
      "boy": 1275,
      "braz": 1276,
      "graphy": 1277,
      "classics": 1278,
      "january": 1279,
      "turn": 1280,
      "supposed": 1281,
      "overcast": 1282,
      "earth": 1283,
      "company": 1284,
      "bakery": 1285,
      "mexico": 1286,
      "pacific": 1287,
      "gastropub": 1288,
      "bru": 1289,
      "clu": 1290,
      "hard": 1291,
      "iz": 1292,
      "lf": 1293,
      "ost": 1294,
      "oor": 1295,
      "piano": 1296,
      "rit": 1297,
      "tar": 1298,
      "ania": 1299,
      "form": 1300,
      "ien": 1301,
      "set": 1302,
      "cher": 1303,
      "chicken": 1304,
      "ena": 1305,
      "rap": 1306,
      "dece": 1307,
      "follow": 1308,
      "samoa": 1309,
      "soli": 1310,
      "david": 1311,
      "gold": 1312,
      "istan": 1313,
      "ister": 1314,
      "michael": 1315,
      "joint": 1316,
      "james": 1317,
      "stern": 1318,
      "morning": 1319,
      "snowfall": 1320,
      "ures": 1321,
      "blue": 1322,
      "cuis": 1323,
      "volu": 1324,
      "seating": 1325,
      "long": 1326,
      "ality": 1327,
      "guest": 1328,
      "christmas": 1329,
      "funk": 1330,
      "diner": 1331,
      "concerto": 1332,
      "18": 1333,
      "ban": 1334,
      "boo": 1335,
      "bow": 1336,
      "ben": 1337,
      "ball": 1338,
      "cat": 1339,
      "die": 1340,
      "every": 1341,
      "pal": 1342,
      "pen": 1343,
      "pra": 1344,
      "pri": 1345,
      "rick": 1346,
      "rough": 1347,
      "wy": 1348,
      "willi": 1349,
      "ator": 1350,
      "rey": 1351,
      "total": 1352,
      "oot": 1353,
      "chur": 1354,
      "uro": 1355,
      "bean": 1356,
      "well": 1357,
      "forever": 1358,
      "oney": 1359,
      "unch": 1360,
      "march": 1361,
      "rument": 1362,
      "pression": 1363,
      "brook": 1364,
      "seats": 1365,
      "malco": 1366,
      "instrument": 1367,
      "espano": 1368,
      "steakhouse": 1369,
      "conditions": 1370,
      "25": 1371,
      "ah": 1372,
      "cl": 1373,
      "creek": 1374,
      "dj": 1375,
      "gro": 1376,
      "gia": 1377,
      "ib": 1378,
      "jen": 1379,
      "nia": 1380,
      "ot": 1381,
      "sco": 1382,
      "sort": 1383,
      "vor": 1384,
      "wis": 1385,
      "tober": 1386,
      "ars": 1387,
      "mel": 1388,
      "sent": 1389,
      "chase": 1390,
      "ned": 1391,
      "ows": 1392,
      "illa": 1393,
      "moon": 1394,
      "rober": 1395,
      "indoor": 1396,
      "myster": 1397,
      "being": 1398,
      "cali": 1399,
      "mac": 1400,
      "sam": 1401,
      "point": 1402,
      "fect": 1403,
      "vious": 1404,
      "mix": 1405,
      "jack": 1406,
      "aut": 1407,
      "buy": 1408,
      "louis": 1409,
      "valley": 1410,
      "snowy": 1411,
      "queen": 1412,
      "cial": 1413,
      "kids": 1414,
      "october": 1415,
      "sleep": 1416,
      "following": 1417,
      "solid": 1418,
      "cuisine": 1419,
      "14": 1420,
      "23": 1421,
      "air": 1422,
      "aven": 1423,
      "blo": 1424,
      "batt": 1425,
      "ces": 1426,
      "cry": 1427,
      "fish": 1428,
      "ible": 1429,
      "ming": 1430,
      "tie": 1431,
      "winter": 1432,
      "zy": 1433,
      "inson": 1434,
      "their": 1435,
      "res": 1436,
      "rele": 1437,
      "meal": 1438,
      "mejor": 1439,
      "ald": 1440,
      "chel": 1441,
      "ican": 1442,
      "rose": 1443,
      "ando": 1444,
      "andy": 1445,
      "poss": 1446,
      "logy": 1447,
      "cky": 1448,
      "outdoor": 1449,
      "ghter": 1450,
      "ami": 1451,
      "amco": 1452,
      "umn": 1453,
      "ights": 1454,
      "esia": 1455,
      "nothing": 1456,
      "wifi": 1457,
      "wait": 1458,
      "lude": 1459,
      "stormy": 1460,
      "previous": 1461,
      "frank": 1462,
      "july": 1463,
      "include": 1464,
      "internet": 1465,
      "hills": 1466,
      "april": 1467,
      "humidity": 1468,
      "friend": 1469,
      "coffeehouse": 1470,
      "prince": 1471,
      "twelve": 1472,
      "aga": 1473,
      "band": 1474,
      "cr": 1475,
      "fal": 1476,
      "fine": 1477,
      "hat": 1478,
      "hur": 1479,
      "hund": 1480,
      "ida": 1481,
      "jim": 1482,
      "ling": 1483,
      "psy": 1484,
      "ror": 1485,
      "sk": 1486,
      "swee": 1487,
      "won": 1488,
      "rea": 1489,
      "states": 1490,
      "anne": 1491,
      "art": 1492,
      "less": 1493,
      "member": 1494,
      "lit": 1495,
      "vel": 1496,
      "ington": 1497,
      "chris": 1498,
      "advent": 1499,
      "ics": 1500,
      "roll": 1501,
      "shad": 1502,
      "whats": 1503,
      "rascar": 1504,
      "bet": 1505,
      "devil": 1506,
      "depression": 1507,
      "para": 1508,
      "asy": 1509,
      "lyn": 1510,
      "ctor": 1511,
      "ctive": 1512,
      "lands": 1513,
      "mike": 1514,
      "worth": 1515,
      "nationalpark": 1516,
      "woman": 1517,
      "sunny": 1518,
      "coming": 1519,
      "histor": 1520,
      "hero": 1521,
      "georgia": 1522,
      "glass": 1523,
      "churrascar": 1524,
      "espanol": 1525,
      "autumn": 1526,
      "hundred": 1527,
      "churrascaria": 1528,
      "24": 1529,
      "ash": 1530,
      "bad": 1531,
      "cool": 1532,
      "father": 1533,
      "fus": 1534,
      "fam": 1535,
      "found": 1536,
      "glas": 1537,
      "ide": 1538,
      "ious": 1539,
      "imax": 1540,
      "ilian": 1541,
      "jul": 1542,
      "oct": 1543,
      "pl": 1544,
      "ted": 1545,
      "tree": 1546,
      "zen": 1547,
      "through": 1548,
      "onia": 1549,
      "lets": 1550,
      "legen": 1551,
      "isa": 1552,
      "sele": 1553,
      "chi": 1554,
      "owa": 1555,
      "mother": 1556,
      "anda": 1557,
      "bes": 1558,
      "tex": 1559,
      "lost": 1560,
      "ghost": 1561,
      "head": 1562,
      "scheduled": 1563,
      "theater": 1564,
      "holly": 1565,
      "mann": 1566,
      "joe": 1567,
      "water": 1568,
      "carib": 1569,
      "100": 1570,
      "color": 1571,
      "2034": 1572,
      "june": 1573,
      "quality": 1574,
      "tember": 1575,
      "natural": 1576,
      "future": 1577,
      "space": 1578,
      "locate": 1579,
      "kentu": 1580,
      "afternoon": 1581,
      "purchase": 1582,
      "september": 1583,
      "foggy": 1584,
      "douglas": 1585,
      "dickinson": 1586,
      "december": 1587,
      "battle": 1588,
      "release": 1589,
      "40": 1590,
      "alas": 1591,
      "bou": 1592,
      "bist": 1593,
      "cis": 1594,
      "cen": 1595,
      "ese": 1596,
      "fth": 1597,
      "fri": 1598,
      "gent": 1599,
      "kistan": 1600,
      "mir": 1601,
      "nge": 1602,
      "oy": 1603,
      "ps": 1604,
      "rho": 1605,
      "sil": 1606,
      "sant": 1607,
      "tta": 1608,
      "win": 1609,
      "wil": 1610,
      "zzer": 1611,
      "ini": 1612,
      "lady": 1613,
      "tos": 1614,
      "ison": 1615,
      "shall": 1616,
      "bey": 1617,
      "bell": 1618,
      "ions": 1619,
      "mash": 1620,
      "sau": 1621,
      "inea": 1622,
      "heaven": 1623,
      "nov": 1624,
      "peace": 1625,
      "dale": 1626,
      "god": 1627,
      "conne": 1628,
      "cinemark": 1629,
      "wash": 1630,
      "ward": 1631,
      "ground": 1632,
      "rush": 1633,
      "ruary": 1634,
      "face": 1635,
      "guinea": 1636,
      "clar": 1637,
      "brit": 1638,
      "northern": 1639,
      "stein": 1640,
      "dip": 1641,
      "sunset": 1642,
      "pizzer": 1643,
      "bridge": 1644,
      "february": 1645,
      "girls": 1646,
      "george": 1647,
      "richard": 1648,
      "jersey": 1649,
      "odeon": 1650,
      "smoking": 1651,
      "instrumental": 1652,
      "caribbean": 1653,
      "kentucky": 1654,
      "bistro": 1655,
      "pizzeria": 1656,
      "26": 1657,
      "30": 1658,
      "80": 1659,
      "90s": 1660,
      "afr": 1661,
      "coo": 1662,
      "dia": 1663,
      "dir": 1664,
      "fla": 1665,
      "gor": 1666,
      "gri": 1667,
      "han": 1668,
      "ila": 1669,
      "jams": 1670,
      "kind": 1671,
      "lunch": 1672,
      "om": 1673,
      "oper": 1674,
      "uk": 1675,
      "vic": 1676,
      "vice": 1677,
      "yle": 1678,
      "thur": 1679,
      "rela": 1680,
      "sto": 1681,
      "stre": 1682,
      "ann": 1683,
      "ona": 1684,
      "mega": 1685,
      "alter": 1686,
      "icos": 1687,
      "indian": 1688,
      "ship": 1689,
      "engl": 1690,
      "ray": 1691,
      "before": 1692,
      "temp": 1693,
      "cake": 1694,
      "lot": 1695,
      "delaw": 1696,
      "sons": 1697,
      "iron": 1698,
      "ters": 1699,
      "november": 1700,
      "ctic": 1701,
      "happ": 1702,
      "body": 1703,
      "public": 1704,
      "tonight": 1705,
      "dio": 1706,
      "lounge": 1707,
      "walk": 1708,
      "2024": 1709,
      "goodrich": 1710,
      "ips": 1711,
      "rising": 1712,
      "downtown": 1713,
      "spir": 1714,
      "much": 1715,
      "seventeen": 1716,
      "rict": 1717,
      "journey": 1718,
      "discography": 1719,
      "electronic": 1720,
      "jones": 1721,
      "radio": 1722,
      "general": 1723,
      "club": 1724,
      "sweet": 1725,
      "historic": 1726,
      "legend": 1727,
      "oyster": 1728,
      "alternat": 1729,
      "delaware": 1730,
      "apo": 1731,
      "aso": 1732,
      "astern": 1733,
      "cli": 1734,
      "cing": 1735,
      "dor": 1736,
      "dar": 1737,
      "dur": 1738,
      "dades": 1739,
      "euro": 1740,
      "fed": 1741,
      "fly": 1742,
      "foot": 1743,
      "gg": 1744,
      "his": 1745,
      "hark": 1746,
      "ime": 1747,
      "iko": 1748,
      "jes": 1749,
      "phe": 1750,
      "squ": 1751,
      "vinc": 1752,
      "wall": 1753,
      "thy": 1754,
      "return": 1755,
      "lay": 1756,
      "sex": 1757,
      "mos": 1758,
      "iction": 1759,
      "ross": 1760,
      "robin": 1761,
      "itled": 1762,
      "pot": 1763,
      "camp": 1764,
      "tales": 1765,
      "master": 1766,
      "des": 1767,
      "amor": 1768,
      "amuse": 1769,
      "ump": 1770,
      "castle": 1771,
      "escape": 1772,
      "dau": 1773,
      "type": 1774,
      "uni": 1775,
      "vermont": 1776,
      "vibes": 1777,
      "novedades": 1778,
      "cted": 1779,
      "pers": 1780,
      "word": 1781,
      "news": 1782,
      "monte": 1783,
      "box": 1784,
      "cream": 1785,
      "favor": 1786,
      "gren": 1787,
      "tennes": 1788,
      "suena": 1789,
      "aug": 1790,
      "austra": 1791,
      "aki": 1792,
      "ways": 1793,
      "entitled": 1794,
      "colum": 1795,
      "2030": 1796,
      "rainy": 1797,
      "america": 1798,
      "third": 1799,
      "keraso": 1800,
      "2003": 1801,
      "rise": 1802,
      "yama": 1803,
      "clean": 1804,
      "brian": 1805,
      "lord": 1806,
      "springs": 1807,
      "dragon": 1808,
      "collection": 1809,
      "elevenses": 1810,
      "century": 1811,
      "hunt": 1812,
      "brother": 1813,
      "billy": 1814,
      "timate": 1815,
      "mills": 1816,
      "secret": 1817,
      "mystery": 1818,
      "colorado": 1819,
      "alaska": 1820,
      "dipson": 1821,
      "cooper": 1822,
      "relax": 1823,
      "megaplex": 1824,
      "english": 1825,
      "temps": 1826,
      "spirit": 1827,
      "harkins": 1828,
      "amusements": 1829,
      "tennessee": 1830,
      "kerasotes": 1831,
      "..": 1832,
      "27": 1833,
      "70s": 1834,
      "ass": 1835,
      "ced": 1836,
      "cri": 1837,
      "could": 1838,
      "dd": 1839,
      "ding": 1840,
      "fant": 1841,
      "hen": 1842,
      "ith": 1843,
      "iowa": 1844,
      "jam": 1845,
      "lan": 1846,
      "low": 1847,
      "mr": 1848,
      "mind": 1849,
      "nic": 1850,
      "nig": 1851,
      "nice": 1852,
      "ola": 1853,
      "plitt": 1854,
      "rhy": 1855,
      "sia": 1856,
      "sister": 1857,
      "ud": 1858,
      "unt": 1859,
      "wan": 1860,
      "ature": 1861,
      "republic": 1862,
      "stron": 1863,
      "sters": 1864,
      "orig": 1865,
      "erson": 1866,
      "ism": 1867,
      "memor": 1868,
      "aly": 1869,
      "chine": 1870,
      "chips": 1871,
      "nel": 1872,
      "indiana": 1873,
      "short": 1874,
      "itar": 1875,
      "eng": 1876,
      "andre": 1877,
      "ration": 1878,
      "ram": 1879,
      "bear": 1880,
      "beau": 1881,
      "rates": 1882,
      "tsu": 1883,
      "cop": 1884,
      "hell": 1885,
      "heights": 1886,
      "musica": 1887,
      "puer": 1888,
      "hol": 1889,
      "2020": 1890,
      "got": 1891,
      "conf": 1892,
      "consin": 1893,
      "marcus": 1894,
      "perfect": 1895,
      "dog": 1896,
      "warren": 1897,
      "ronesia": 1898,
      "jose": 1899,
      "ult": 1900,
      "clas": 1901,
      "stories": 1902,
      "arkansas": 1903,
      "press": 1904,
      "steve": 1905,
      "seventh": 1906,
      "2026": 1907,
      "rainfall": 1908,
      "johnny": 1909,
      "falls": 1910,
      "exi": 1911,
      "1958": 1912,
      "1975": 1913,
      "clear": 1914,
      "season": 1915,
      "supper": 1916,
      "micronesia": 1917,
      "birth": 1918,
      "breakfast": 1919,
      "alex": 1920,
      "virginia": 1921,
      "wisconsin": 1922,
      "robert": 1923,
      "wonder": 1924,
      "members": 1925,
      "family": 1926,
      "foundation": 1927,
      "texas": 1928,
      "hollywood": 1929,
      "rhode": 1930,
      "beyond": 1931,
      "washington": 1932,
      "happy": 1933,
      "feder": 1934,
      "vincent": 1935,
      "daughter": 1936,
      "07": 1937,
      "43": 1938,
      "8th": 1939,
      "cou": 1940,
      "cie": 1941,
      "ctu": 1942,
      "dam": 1943,
      "ef": 1944,
      "eli": 1945,
      "fra": 1946,
      "gate": 1947,
      "gers": 1948,
      "hind": 1949,
      "jr": 1950,
      "kansas": 1951,
      "mt": 1952,
      "mil": 1953,
      "mun": 1954,
      "nv": 1955,
      "pick": 1956,
      "ran": 1957,
      "rou": 1958,
      "ral": 1959,
      "sli": 1960,
      "wed": 1961,
      "wen": 1962,
      "yes": 1963,
      "thor": 1964,
      "ata": 1965,
      "ato": 1966,
      "stin": 1967,
      "stop": 1968,
      "anish": 1969,
      "tour": 1970,
      "todo": 1971,
      "arc": 1972,
      "leg": 1973,
      "leon": 1974,
      "lene": 1975,
      "fornia": 1976,
      "liber": 1977,
      "vene": 1978,
      "aland": 1979,
      "sell": 1980,
      "self": 1981,
      "cham": 1982,
      "neso": 1983,
      "ros": 1984,
      "shine": 1985,
      "antic": 1986,
      "were": 1987,
      "romance": 1988,
      "service": 1989,
      "showcase": 1990,
      "cao": 1991,
      "log": 1992,
      "using": 1993,
      "deep": 1994,
      "ouri": 1995,
      "core": 1996,
      "wife": 1997,
      "dawn": 1998,
      "palau": 1999,
      "union": 2000,
      "fear": 2001,
      "consolid": 2002,
      "vival": 2003,
      "mariana": 2004,
      "phil": 2005,
      "uel": 2006,
      "wave": 2007,
      "sian": 2008,
      "film": 2009,
      "minneso": 2010,
      "bob": 2011,
      "bos": 2012,
      "sounds": 2013,
      "inton": 2014,
      "showings": 2015,
      "ultimate": 2016,
      "guy": 2017,
      "guitar": 2018,
      "sud": 2019,
      "brown": 2020,
      "anywhere": 2021,
      "fran": 2022,
      "thirteen": 2023,
      "funt": 2024,
      "title": 2025,
      "fifth": 2026,
      "fifty": 2027,
      "spanish": 2028,
      "midday": 2029,
      "temperature": 2030,
      "sanctu": 2031,
      "drafth": 2032,
      "electro": 2033,
      "finite": 2034,
      "hands": 2035,
      "digster": 2036,
      "alamo": 2037,
      "brazilian": 2038,
      "volume": 2039,
      "williams": 2040,
      "california": 2041,
      "louisiana": 2042,
      "possible": 2043,
      "connectic": 2044,
      "europe": 2045,
      "columbia": 2046,
      "consolidated": 2047,
      "minnesota": 2048,
      "sanctuary": 2049,
      "drafthouse": 2050,
      "connecticut": 2051,
      "ai": 2052,
      "bie": 2053,
      "cia": 2054,
      "cru": 2055,
      "center": 2056,
      "dle": 2057,
      "date": 2058,
      "ene": 2059,
      "evil": 2060,
      "fon": 2061,
      "fle": 2062,
      "gie": 2063,
      "gal": 2064,
      "ier": 2065,
      "kan": 2066,
      "kit": 2067,
      "kiss": 2068,
      "llo": 2069,
      "late": 2070,
      "lish": 2071,
      "md": 2072,
      "nin": 2073,
      "nick": 2074,
      "oce": 2075,
      "pan": 2076,
      "pie": 2077,
      "ped": 2078,
      "ring": 2079,
      "smi": 2080,
      "sara": 2081,
      "smash": 2082,
      "tn": 2083,
      "vy": 2084,
      "vity": 2085,
      "ylor": 2086,
      "they": 2087,
      "real": 2088,
      "stal": 2089,
      "style": 2090,
      "ons": 2091,
      "too": 2092,
      "ery": 2093,
      "mellow": 2094,
      "lity": 2095,
      "living": 2096,
      "chu": 2097,
      "chig": 2098,
      "indon": 2099,
      "ants": 2100,
      "ens": 2101,
      "ence": 2102,
      "finds": 2103,
      "poli": 2104,
      "poly": 2105,
      "cas": 2106,
      "load": 2107,
      "lovers": 2108,
      "taylor": 2109,
      "mala": 2110,
      "delic": 2111,
      "amount": 2112,
      "ations": 2113,
      "cobb": 2114,
      "heav": 2115,
      "train": 2116,
      "som": 2117,
      "paramount": 2118,
      "ridge": 2119,
      "call": 2120,
      "calm": 2121,
      "parent": 2122,
      "una": 2123,
      "fest": 2124,
      "fever": 2125,
      "goes": 2126,
      "verse": 2127,
      "fourteen": 2128,
      "bama": 2129,
      "phi": 2130,
      "phin": 2131,
      "sig": 2132,
      "landmark": 2133,
      "monday": 2134,
      "joy": 2135,
      "bot": 2136,
      "talk": 2137,
      "build": 2138,
      "cheese": 2139,
      "2032": 2140,
      "2033": 2141,
      "2035": 2142,
      "district": 2143,
      "burn": 2144,
      "thirty": 2145,
      "chap": 2146,
      "2000": 2147,
      "harry": 2148,
      "1999": 2149,
      "lakes": 2150,
      "latino": 2151,
      "dub": 2152,
      "borough": 2153,
      "atessen": 2154,
      "bird": 2155,
      "concert": 2156,
      "dream": 2157,
      "fried": 2158,
      "drive": 2159,
      "missouri": 2160,
      "glory": 2161,
      "running": 2162,
      "satur": 2163,
      "secrets": 2164,
      "ience": 2165,
      "clinton": 2166,
      "scott": 2167,
      "adventures": 2168,
      "fusion": 2169,
      "during": 2170,
      "niger": 2171,
      "rhyth": 2172,
      "federated": 2173,
      "delicatessen": 2174,
      "heavy": 2175,
      "48": 2176,
      "80s": 2177,
      "ake": 2178,
      "apart": 2179,
      "bed": 2180,
      "bus": 2181,
      "bour": 2182,
      "bio": 2183,
      "cup": 2184,
      "dc": 2185,
      "dal": 2186,
      "eth": 2187,
      "ever": 2188,
      "fat": 2189,
      "fred": 2190,
      "gil": 2191,
      "glo": 2192,
      "iro": 2193,
      "iwan": 2194,
      "kb": 2195,
      "kin": 2196,
      "ked": 2197,
      "kill": 2198,
      "kir": 2199,
      "kitch": 2200,
      "lind": 2201,
      "moo": 2202,
      "mand": 2203,
      "mine": 2204,
      "nh": 2205,
      "non": 2206,
      "ole": 2207,
      "ova": 2208,
      "pt": 2209,
      "rd": 2210,
      "rie": 2211,
      "sd": 2212,
      "slo": 2213,
      "sim": 2214,
      "sday": 2215,
      "sword": 2216,
      "ting": 2217,
      "tch": 2218,
      "zam": 2219,
      "throw": 2220,
      "atar": 2221,
      "stan": 2222,
      "still": 2223,
      "once": 2224,
      "lam": 2225,
      "laho": 2226,
      "laund": 2227,
      "arab": 2228,
      "argent": 2229,
      "isle": 2230,
      "met": 2231,
      "forcast": 2232,
      "oft": 2233,
      "always": 2234,
      "sel": 2235,
      "china": 2236,
      "never": 2237,
      "nebras": 2238,
      "edition": 2239,
      "rob": 2240,
      "rod": 2241,
      "roy": 2242,
      "bee": 2243,
      "beth": 2244,
      "tech": 2245,
      "lock": 2246,
      "cks": 2247,
      "tivity": 2248,
      "kel": 2249,
      "tam": 2250,
      "tail": 2251,
      "mare": 2252,
      "focus": 2253,
      "cock": 2254,
      "gas": 2255,
      "paris": 2256,
      "dave": 2257,
      "2010": 2258,
      "rib": 2259,
      "rix": 2260,
      "rior": 2261,
      "path": 2262,
      "cono": 2263,
      "bass": 2264,
      "bajo": 2265,
      "hearts": 2266,
      "dom": 2267,
      "haw": 2268,
      "wars": 2269,
      "warrior": 2270,
      "mino": 2271,
      "princ": 2272,
      "villa": 2273,
      "super": 2274,
      "sugar": 2275,
      "ign": 2276,
      "10th": 2277,
      "tony": 2278,
      "bring": 2279,
      "sixteen": 2280,
      "diam": 2281,
      "2011": 2282,
      "2015": 2283,
      "2038": 2284,
      "2021": 2285,
      "2022": 2286,
      "2023": 2287,
      "2025": 2288,
      "2027": 2289,
      "2028": 2290,
      "activity": 2291,
      "bury": 2292,
      "comple": 2293,
      "exper": 2294,
      "jeff": 2295,
      "1991": 2296,
      "pizz": 2297,
      "spain": 2298,
      "bona": 2299,
      "rico": 2300,
      "tran": 2301,
      "central": 2302,
      "montana": 2303,
      "children": 2304,
      "fern": 2305,
      "eighth": 2306,
      "brazil": 2307,
      "cherry": 2308,
      "friday": 2309,
      "santiko": 2310,
      "clark": 2311,
      "african": 2312,
      "thursday": 2313,
      "alternative": 2314,
      "favorite": 2315,
      "australia": 2316,
      "cleaning": 2317,
      "strong": 2318,
      "origin": 2319,
      "puerto": 2320,
      "clasicos": 2321,
      "arclight": 2322,
      "funtime": 2323,
      "parents": 2324,
      "rhythm": 2325,
      "global": 2326,
      "laundry": 2327,
      "nebraska": 2328,
      "santikos": 2329,
      "90": 2330,
      "az": 2331,
      "abo": 2332,
      "bat": 2333,
      "bis": 2334,
      "bone": 2335,
      "bun": 2336,
      "bul": 2337,
      "cation": 2338,
      "cess": 2339,
      "dine": 2340,
      "due": 2341,
      "emo": 2342,
      "eco": 2343,
      "emp": 2344,
      "fur": 2345,
      "flo": 2346,
      "fight": 2347,
      "flor": 2348,
      "gus": 2349,
      "hang": 2350,
      "honey": 2351,
      "ix": 2352,
      "imo": 2353,
      "kur": 2354,
      "kim": 2355,
      "kers": 2356,
      "kina": 2357,
      "ktor": 2358,
      "mou": 2359,
      "mur": 2360,
      "mit": 2361,
      "matt": 2362,
      "nc": 2363,
      "nj": 2364,
      "oster": 2365,
      "oreg": 2366,
      "pw": 2367,
      "pper": 2368,
      "sx": 2369,
      "scre": 2370,
      "site": 2371,
      "sville": 2372,
      "tz": 2373,
      "uch": 2374,
      "uki": 2375,
      "vina": 2376,
      "wit": 2377,
      "wyo": 2378,
      "xo": 2379,
      "yer": 2380,
      "thie": 2381,
      "inform": 2382,
      "infinite": 2383,
      "theory": 2384,
      "rer": 2385,
      "reli": 2386,
      "retro": 2387,
      "review": 2388,
      "remix": 2389,
      "revival": 2390,
      "stat": 2391,
      "stel": 2392,
      "stru": 2393,
      "erra": 2394,
      "ariz": 2395,
      "lean": 2396,
      "plays": 2397,
      "isha": 2398,
      "lil": 2399,
      "iel": 2400,
      "adines": 2401,
      "whit": 2402,
      "modate": 2403,
      "ede": 2404,
      "eden": 2405,
      "ita": 2406,
      "ante": 2407,
      "serbia": 2408,
      "tears": 2409,
      "bye": 2410,
      "cam": 2411,
      "came": 2412,
      "lope": 2413,
      "cke": 2414,
      "cken": 2415,
      "illino": 2416,
      "ket": 2417,
      "keep": 2418,
      "machine": 2419,
      "amp": 2420,
      "heat": 2421,
      "essent": 2422,
      "currently": 2423,
      "gay": 2424,
      "gave": 2425,
      "noise": 2426,
      "peter": 2427,
      "tun": 2428,
      "holi": 2429,
      "holy": 2430,
      "2019": 2431,
      "irs": 2432,
      "without": 2433,
      "pass": 2434,
      "verano": 2435,
      "fourth": 2436,
      "assa": 2437,
      "bach": 2438,
      "uela": 2439,
      "animal": 2440,
      "michig": 2441,
      "domin": 2442,
      "doctor": 2443,
      "berg": 2444,
      "wards": 2445,
      "boys": 2446,
      "luc": 2447,
      "ifer": 2448,
      "ersville": 2449,
      "price": 2450,
      "clay": 2451,
      "epic": 2452,
      "things": 2453,
      "mpson": 2454,
      "wolf": 2455,
      "2036": 2456,
      "2037": 2457,
      "syl": 2458,
      "goodbye": 2459,
      "accom": 2460,
      "glen": 2461,
      "thirteenth": 2462,
      "full": 2463,
      "jane": 2464,
      "quest": 2465,
      "genre": 2466,
      "expe": 2467,
      "jean": 2468,
      "ject": 2469,
      "1993": 2470,
      "1997": 2471,
      "german": 2472,
      "provin": 2473,
      "donald": 2474,
      "1951": 2475,
      "1959": 2476,
      "regal": 2477,
      "1970": 2478,
      "ctions": 2479,
      "dancing": 2480,
      "christian": 2481,
      "college": 2482,
      "thomas": 2483,
      "thompson": 2484,
      "born": 2485,
      "speake": 2486,
      "apple": 2487,
      "welcome": 2488,
      "emily": 2489,
      "stuff": 2490,
      "dreams": 2491,
      "junction": 2492,
      "oklaho": 2493,
      "medit": 2494,
      "maryland": 2495,
      "fairy": 2496,
      "darkness": 2497,
      "russia": 2498,
      "kuwait": 2499,
      "alabama": 2500,
      "bruce": 2501,
      "brooklyn": 2502,
      "friends": 2503,
      "crown": 2504,
      "psych": 2505,
      "universe": 2506,
      "grenadines": 2507,
      "copy": 2508,
      "joseph": 2509,
      "alexand": 2510,
      "picks": 2511,
      "francis": 2512,
      "european": 2513,
      "ocean": 2514,
      "sarah": 2515,
      "phili": 2516,
      "saturday": 2517,
      "kitchen": 2518,
      "throwback": 2519,
      "complete": 2520,
      "original": 2521,
      "osteria": 2522,
      "sxsw": 2523,
      "arizona": 2524,
      "illinois": 2525,
      "essential": 2526,
      "michigan": 2527,
      "accommodate": 2528,
      "provincial": 2529,
      "speakeasy": 2530,
      "oklahoma": 2531,
      "06": 2532,
      "45": 2533,
      "7th": 2534,
      "ag": 2535,
      "ager": 2536,
      "bound": 2537,
      "broad": 2538,
      "cow": 2539,
      "cone": 2540,
      "cir": 2541,
      "cul": 2542,
      "doo": 2543,
      "dies": 2544,
      "dian": 2545,
      "dish": 2546,
      "eer": 2547,
      "evan": 2548,
      "econo": 2549,
      "ft": 2550,
      "fron": 2551,
      "fiction": 2552,
      "gun": 2553,
      "gary": 2554,
      "hon": 2555,
      "hou": 2556,
      "hus": 2557,
      "hong": 2558,
      "ior": 2559,
      "ile": 2560,
      "jar": 2561,
      "kh": 2562,
      "kick": 2563,
      "lis": 2564,
      "lse": 2565,
      "mis": 2566,
      "mie": 2567,
      "mist": 2568,
      "made": 2569,
      "mjr": 2570,
      "num": 2571,
      "pil": 2572,
      "psh": 2573,
      "pig": 2574,
      "ption": 2575,
      "sie": 2576,
      "sad": 2577,
      "sion": 2578,
      "soft": 2579,
      "til": 2580,
      "tic": 2581,
      "tron": 2582,
      "ug": 2583,
      "uz": 2584,
      "ula": 2585,
      "ucation": 2586,
      "var": 2587,
      "vad": 2588,
      "vol": 2589,
      "wine": 2590,
      "winn": 2591,
      "wright": 2592,
      "writ": 2593,
      "wanda": 2594,
      "zard": 2595,
      "zuela": 2596,
      "inno": 2597,
      "them": 2598,
      "theastern": 2599,
      "atu": 2600,
      "atta": 2601,
      "reme": 2602,
      "recre": 2603,
      "stri": 2604,
      "anni": 2605,
      "lazy": 2606,
      "ori": 2607,
      "organ": 2608,
      "togo": 2609,
      "ern": 2610,
      "leo": 2611,
      "lest": 2612,
      "lion": 2613,
      "lies": 2614,
      "allen": 2615,
      "session": 2616,
      "chica": 2617,
      "ady": 2618,
      "adam": 2619,
      "adise": 2620,
      "whis": 2621,
      "nether": 2622,
      "negro": 2623,
      "oween": 2624,
      "ices": 2625,
      "education": 2626,
      "rolean": 2627,
      "india": 2628,
      "shop": 2629,
      "myth": 2630,
      "raine": 2631,
      "beg": 2632,
      "beck": 2633,
      "beast": 2634,
      "western": 2635,
      "poe": 2636,
      "polit": 2637,
      "sert": 2638,
      "servation": 2639,
      "shown": 2640,
      "cash": 2641,
      "casa": 2642,
      "loves": 2643,
      "kevin": 2644,
      "tale": 2645,
      "mali": 2646,
      "maine": 2647,
      "maid": 2648,
      "gene": 2649,
      "cover": 2650,
      "cancion": 2651,
      "trabajo": 2652,
      "bles": 2653,
      "cura": 2654,
      "pure": 2655,
      "pet": 2656,
      "pear": 2657,
      "albania": 2658,
      "wich": 2659,
      "wizard": 2660,
      "paradise": 2661,
      "das": 2662,
      "davis": 2663,
      "daily": 2664,
      "20th": 2665,
      "irish": 2666,
      "tyrolean": 2667,
      "rible": 2668,
      "riley": 2669,
      "pala": 2670,
      "passion": 2671,
      "unge": 2672,
      "vera": 2673,
      "terror": 2674,
      "bab": 2675,
      "bai": 2676,
      "bast": 2677,
      "mart": 2678,
      "marshall": 2679,
      "naked": 2680,
      "sip": 2681,
      "bert": 2682,
      "berry": 2683,
      "warning": 2684,
      "ryan": 2685,
      "games": 2686,
      "gram": 2687,
      "grass": 2688,
      "carter": 2689,
      "dying": 2690,
      "prof": 2691,
      "epis": 2692,
      "sund": 2693,
      "sudan": 2694,
      "twentie": 2695,
      "kings": 2696,
      "bush": 2697,
      "present": 2698,
      "sixth": 2699,
      "2012": 2700,
      "2018": 2701,
      "2029": 2702,
      "burkina": 2703,
      "falling": 2704,
      "sunrise": 2705,
      "2002": 2706,
      "2006": 2707,
      "2007": 2708,
      "2009": 2709,
      "kyo": 2710,
      "harris": 2711,
      "1996": 2712,
      "cut": 2713,
      "pier": 2714,
      "project": 2715,
      "1954": 2716,
      "1973": 2717,
      "middle": 2718,
      "sens": 2719,
      "ballads": 2720,
      "attic": 2721,
      "hampsh": 2722,
      "1981": 2723,
      "1962": 2724,
      "1964": 2725,
      "1966": 2726,
      "tres": 2727,
      "trey": 2728,
      "speed": 2729,
      "reading": 2730,
      "birds": 2731,
      "fiesta": 2732,
      "justice": 2733,
      "surface": 2734,
      "comedy": 2735,
      "nuclear": 2736,
      "string": 2737,
      "crossroad": 2738,
      "halloween": 2739,
      "sandwich": 2740,
      "volution": 2741,
      "totally": 2742,
      "waiting": 2743,
      "adventure": 2744,
      "shadow": 2745,
      "shadows": 2746,
      "heroes": 2747,
      "released": 2748,
      "releases": 2749,
      "silver": 2750,
      "dirty": 2751,
      "football": 2752,
      "square": 2753,
      "montenegro": 2754,
      "hunter": 2755,
      "until": 2756,
      "memorial": 2757,
      "andrew": 2758,
      "exitos": 2759,
      "venezuela": 2760,
      "arabia": 2761,
      "princess": 2762,
      "diamond": 2763,
      "florida": 2764,
      "hanging": 2765,
      "oregon": 2766,
      "wyoming": 2767,
      "information": 2768,
      "psychede": 2769,
      "husband": 2770,
      "recreation": 2771,
      "netherlands": 2772,
      "twentieth": 2773,
      "hampshire": 2774,
      "9th": 2775,
      "aver": 2776,
      "agu": 2777,
      "ava": 2778,
      "ague": 2779,
      "awards": 2780,
      "bh": 2781,
      "bby": 2782,
      "bpm": 2783,
      "bank": 2784,
      "cook": 2785,
      "cit": 2786,
      "cum": 2787,
      "coney": 2788,
      "dow": 2789,
      "dic": 2790,
      "did": 2791,
      "diction": 2792,
      "eter": 2793,
      "eastern": 2794,
      "eyes": 2795,
      "fro": 2796,
      "gat": 2797,
      "gur": 2798,
      "ged": 2799,
      "gill": 2800,
      "gif": 2801,
      "gard": 2802,
      "gang": 2803,
      "hatt": 2804,
      "ira": 2805,
      "ima": 2806,
      "jere": 2807,
      "kland": 2808,
      "kha": 2809,
      "lantic": 2810,
      "might": 2811,
      "mute": 2812,
      "nth": 2813,
      "nar": 2814,
      "nard": 2815,
      "nich": 2816,
      "pin": 2817,
      "pion": 2818,
      "pine": 2819,
      "ply": 2820,
      "plu": 2821,
      "pton": 2822,
      "preserve": 2823,
      "rum": 2824,
      "ria": 2825,
      "round": 2826,
      "rice": 2827,
      "randy": 2828,
      "sir": 2829,
      "sburg": 2830,
      "twi": 2831,
      "try": 2832,
      "ude": 2833,
      "uatu": 2834,
      "von": 2835,
      "vick": 2836,
      "vak": 2837,
      "wv": 2838,
      "yd": 2839,
      "yon": 2840,
      "zaki": 2841,
      "thic": 2842,
      "thous": 2843,
      "incorpor": 2844,
      "theo": 2845,
      "ating": 2846,
      "ative": 2847,
      "atia": 2848,
      "stand": 2849,
      "anson": 2850,
      "oni": 2851,
      "lade": 2852,
      "orphin": 2853,
      "tow": 2854,
      "touch": 2855,
      "tokyo": 2856,
      "erness": 2857,
      "leigh": 2858,
      "played": 2859,
      "issip": 2860,
      "meet": 2861,
      "force": 2862,
      "ligh": 2863,
      "lives": 2864,
      "ient": 2865,
      "chas": 2866,
      "change": 2867,
      "adian": 2868,
      "whe": 2869,
      "neo": 2870,
      "nev": 2871,
      "iland": 2872,
      "mold": 2873,
      "icial": 2874,
      "ura": 2875,
      "uras": 2876,
      "booking": 2877,
      "edge": 2878,
      "eddie": 2879,
      "indies": 2880,
      "shin": 2881,
      "sham": 2882,
      "shoot": 2883,
      "ital": 2884,
      "addy": 2885,
      "ency": 2886,
      "anderson": 2887,
      "rats": 2888,
      "rail": 2889,
      "bekistan": 2890,
      "behind": 2891,
      "ntc": 2892,
      "care": 2893,
      "loving": 2894,
      "tian": 2895,
      "tah": 2896,
      "taiwan": 2897,
      "main": 2898,
      "masa": 2899,
      "making": 2900,
      "ghan": 2901,
      "dea": 2902,
      "desert": 2903,
      "ges": 2904,
      "cos": 2905,
      "cove": 2906,
      "coast": 2907,
      "comes": 2908,
      "trap": 2909,
      "tracion": 2910,
      "travel": 2911,
      "pua": 2912,
      "soph": 2913,
      "soci": 2914,
      "gabon": 2915,
      "nova": 2916,
      "nda": 2917,
      "parc": 2918,
      "oodle": 2919,
      "hope": 2920,
      "2040": 2921,
      "iable": 2922,
      "irie": 2923,
      "lls": 2924,
      "pay": 2925,
      "pain": 2926,
      "past": 2927,
      "papua": 2928,
      "unk": 2929,
      "gola": 2930,
      "cons": 2931,
      "concen": 2932,
      "conservation": 2933,
      "verde": 2934,
      "asia": 2935,
      "bachel": 2936,
      "vian": 2937,
      "viola": 2938,
      "marine": 2939,
      "mania": 2940,
      "manage": 2941,
      "manhatt": 2942,
      "nash": 2943,
      "nathan": 2944,
      "michel": 2945,
      "miami": 2946,
      "hawa": 2947,
      "mongo": 2948,
      "lulla": 2949,
      "iffe": 2950,
      "gray": 2951,
      "yellow": 2952,
      "cardio": 2953,
      "greg": 2954,
      "grey": 2955,
      "guay": 2956,
      "ider": 2957,
      "corn": 2958,
      "ished": 2959,
      "kingdom": 2960,
      "loved": 2961,
      "korea": 2962,
      "chronicles": 2963,
      "nightmare": 2964,
      "works": 2965,
      "highway": 2966,
      "brad": 2967,
      "brand": 2968,
      "brunch": 2969,
      "mortal": 2970,
      "morris": 2971,
      "sixteenth": 2972,
      "eleph": 2973,
      "steven": 2974,
      "anything": 2975,
      "colate": 2976,
      "colony": 2977,
      "2013": 2978,
      "2014": 2979,
      "2039": 2980,
      "france": 2981,
      "nesia": 2982,
      "waltz": 2983,
      "qua": 2984,
      "quo": 2985,
      "uset": 2986,
      "rence": 2987,
      "flight": 2988,
      "sunshine": 2989,
      "wilderness": 2990,
      "chaos": 2991,
      "2008": 2992,
      "harve": 2993,
      "cility": 2994,
      "express": 2995,
      "vanuatu": 2996,
      "worlds": 2997,
      "1952": 2998,
      "download": 2999,
      "roots": 3000,
      "science": 3001,
      "zealand": 3002,
      "1974": 3003,
      "angry": 3004,
      "london": 3005,
      "sense": 3006,
      "endorphin": 3007,
      "garage": 3008,
      "human": 3009,
      "trou": 3010,
      "punks": 3011,
      "shake": 3012,
      "1988": 3013,
      "eleventh": 3014,
      "treat": 3015,
      "grandfather": 3016,
      "singer": 3017,
      "tommy": 3018,
      "app": 3019,
      "steps": 3020,
      "lief": 3021,
      "greenland": 3022,
      "electric": 3023,
      "purple": 3024,
      "whole": 3025,
      "mountains": 3026,
      "dress": 3027,
      "drum": 3028,
      "broken": 3029,
      "final": 3030,
      "horn": 3031,
      "horse": 3032,
      "mississip": 3033,
      "charles": 3034,
      "charlie": 3035,
      "reggaeton": 3036,
      "chocolate": 3037,
      "beats": 3038,
      "tanz": 3039,
      "nuts": 3040,
      "salvad": 3041,
      "eighteen": 3042,
      "18th": 3043,
      "paly": 3044,
      "pract": 3045,
      "prairie": 3046,
      "ricky": 3047,
      "block": 3048,
      "crystal": 3049,
      "possiable": 3050,
      "again": 3051,
      "against": 3052,
      "falkland": 3053,
      "psycho": 3054,
      "betty": 3055,
      "24th": 3056,
      "wilson": 3057,
      "saudi": 3058,
      "peaceful": 3059,
      "british": 3060,
      "dirt": 3061,
      "grime": 3062,
      "ukraine": 3063,
      "stress": 3064,
      "cliff": 3065,
      "relaxing": 3066,
      "...": 3067,
      "assign": 3068,
      "nelson": 3069,
      "holmes": 3070,
      "wondering": 3071,
      "enemy": 3072,
      "indonesia": 3073,
      "polynesia": 3074,
      "building": 3075,
      "dubstep": 3076,
      "biography": 3077,
      "moore": 3078,
      "slovak": 3079,
      "zambia": 3080,
      "ribbon": 3081,
      "hawk": 3082,
      "village": 3083,
      "pizza": 3084,
      "duetos": 3085,
      "mouth": 3086,
      "lopez": 3087,
      "philip": 3088,
      "essentials": 3089,
      "economic": 3090,
      "uzbekistan": 3091,
      "poems": 3092,
      "canciones": 3093,
      "bastian": 3094,
      "sunday": 3095,
      "pierre": 3096,
      "psychedelic": 3097,
      "thousand": 3098,
      "incorporate": 3099,
      "encyclo": 3100,
      "concentracion": 3101,
      "bachelor": 3102,
      "management": 3103,
      "manhattan": 3104,
      "lullaby": 3105,
      "mississippi": 3106,
      "salvador": 3107,
      "03": 3108,
      "09": 3109,
      "00s": 3110,
      "28": 3111,
      "3rd": 3112,
      "4th": 3113,
      "able": 3114,
      "act": 3115,
      "bit": 3116,
      "bam": 3117,
      "base": 3118,
      "cin": 3119,
      "cant": 3120,
      "cand": 3121,
      "crow": 3122,
      "ders": 3123,
      "dang": 3124,
      "dough": 3125,
      "ea": 3126,
      "eu": 3127,
      "est": 3128,
      "ext": 3129,
      "eye": 3130,
      "equ": 3131,
      "fry": 3132,
      "finn": 3133,
      "gs": 3134,
      "ging": 3135,
      "gion": 3136,
      "gio": 3137,
      "gates": 3138,
      "hun": 3139,
      "hick": 3140,
      "hank": 3141,
      "hond": 3142,
      "hanna": 3143,
      "hilla": 3144,
      "ido": 3145,
      "iment": 3146,
      "kre": 3147,
      "kor": 3148,
      "kil": 3149,
      "kno": 3150,
      "knight": 3151,
      "kong": 3152,
      "lone": 3153,
      "lisa": 3154,
      "mn": 3155,
      "mul": 3156,
      "nm": 3157,
      "ns": 3158,
      "nan": 3159,
      "nur": 3160,
      "nights": 3161,
      "od": 3162,
      "oly": 3163,
      "omi": 3164,
      "oak": 3165,
      "pow": 3166,
      "pit": 3167,
      "prom": 3168,
      "plo": 3169,
      "pes": 3170,
      "qatar": 3171,
      "rane": 3172,
      "sor": 3173,
      "swa": 3174,
      "sings": 3175,
      "tx": 3176,
      "tle": 3177,
      "tus": 3178,
      "trent": 3179,
      "tory": 3180,
      "trow": 3181,
      "tgif": 3182,
      "uca": 3183,
      "uba": 3184,
      "ument": 3185,
      "vd": 3186,
      "vla": 3187,
      "vive": 3188,
      "vas": 3189,
      "vamp": 3190,
      "wing": 3191,
      "ware": 3192,
      "wick": 3193,
      "witch": 3194,
      "xion": 3195,
      "yam": 3196,
      "yang": 3197,
      "zim": 3198,
      "zuki": 3199,
      "thunder": 3200,
      "inho": 3201,
      "thel": 3202,
      "ati": 3203,
      "atmos": 3204,
      "rex": 3205,
      "rean": 3206,
      "reed": 3207,
      "research": 3208,
      "remember": 3209,
      "revolution": 3210,
      "station": 3211,
      "stown": 3212,
      "anmar": 3213,
      "online": 3214,
      "era": 3215,
      "eri": 3216,
      "ernes": 3217,
      "ari": 3218,
      "armen": 3219,
      "arthur": 3220,
      "aruba": 3221,
      "lent": 3222,
      "leso": 3223,
      "leche": 3224,
      "lewis": 3225,
      "playlis": 3226,
      "meat": 3227,
      "lim": 3228,
      "lita": 3229,
      "vet": 3230,
      "alone": 3231,
      "alley": 3232,
      "seed": 3233,
      "chin": 3234,
      "chand": 3235,
      "chten": 3236,
      "chuset": 3237,
      "adel": 3238,
      "why": 3239,
      "while": 3240,
      "nei": 3241,
      "ilton": 3242,
      "illes": 3243,
      "mom": 3244,
      "moder": 3245,
      "moments": 3246,
      "urb": 3247,
      "edit": 3248,
      "robot": 3249,
      "indu": 3250,
      "shoo": 3251,
      "shel": 3252,
      "iti": 3253,
      "its": 3254,
      "itali": 3255,
      "lists": 3256,
      "myanmar": 3257,
      "rare": 3258,
      "race": 3259,
      "beard": 3260,
      "playlists": 3261,
      "wes": 3262,
      "poke": 3263,
      "ional": 3264,
      "ives": 3265,
      "romania": 3266,
      "serve": 3267,
      "serrat": 3268,
      "teach": 3269,
      "tective": 3270,
      "cay": 3271,
      "caled": 3272,
      "cair": 3273,
      "cass": 3274,
      "caicos": 3275,
      "camino": 3276,
      "cker": 3277,
      "kee": 3278,
      "kell": 3279,
      "keys": 3280,
      "outlaw": 3281,
      "maar": 3282,
      "maur": 3283,
      "mass": 3284,
      "maker": 3285,
      "masters": 3286,
      "makers": 3287,
      "mavera": 3288,
      "dean": 3289,
      "destin": 3290,
      "detective": 3291,
      "save": 3292,
      "sail": 3293,
      "sachuset": 3294,
      "inette": 3295,
      "pleas": 3296,
      "gether": 3297,
      "cole": 3298,
      "colo": 3299,
      "coll": 3300,
      "heal": 3301,
      "heath": 3302,
      "helen": 3303,
      "canada": 3304,
      "canadian": 3305,
      "musical": 3306,
      "schu": 3307,
      "trave": 3308,
      "trait": 3309,
      "pulse": 3310,
      "soc": 3311,
      "sos": 3312,
      "sold": 3313,
      "socie": 3314,
      "songz": 3315,
      "note": 3316,
      "noel": 3317,
      "celon": 3318,
      "pel": 3319,
      "peak": 3320,
      "tugal": 3321,
      "hom": 3322,
      "irma": 3323,
      "ride": 3324,
      "caly": 3325,
      "paper": 3326,
      "paste": 3327,
      "pakistan": 3328,
      "reened": 3329,
      "gods": 3330,
      "goiano": 3331,
      "govina": 3332,
      "gothic": 3333,
      "concent": 3334,
      "bath": 3335,
      "bacon": 3336,
      "vio": 3337,
      "vior": 3338,
      "viernes": 3339,
      "marty": 3340,
      "phen": 3341,
      "pheric": 3342,
      "getting": 3343,
      "mana": 3344,
      "wake": 3345,
      "berville": 3346,
      "bermu": 3347,
      "minator": 3348,
      "monster": 3349,
      "monument": 3350,
      "boli": 3351,
      "bots": 3352,
      "boss": 3353,
      "lux": 3354,
      "luis": 3355,
      "luck": 3356,
      "grill": 3357,
      "crew": 3358,
      "barbar": 3359,
      "barcelon": 3360,
      "southeastern": 3361,
      "grace": 3362,
      "spotlight": 3363,
      "yette": 3364,
      "fact": 3365,
      "facility": 3366,
      "ultra": 3367,
      "waters": 3368,
      "guam": 3369,
      "guern": 3370,
      "idence": 3371,
      "corner": 3372,
      "farian": 3373,
      "suit": 3374,
      "sucks": 3375,
      "nineteen": 3376,
      "ports": 3377,
      "portugal": 3378,
      "rocks": 3379,
      "weekend": 3380,
      "lard": 3381,
      "laria": 3382,
      "bulo": 3383,
      "korean": 3384,
      "prefect": 3385,
      "morgan": 3386,
      "elena": 3387,
      "steam": 3388,
      "zzy": 3389,
      "diary": 3390,
      "2031": 3391,
      "syste": 3392,
      "synth": 3393,
      "teenager": 3394,
      "iva": 3395,
      "walker": 3396,
      "ires": 3397,
      "burke": 3398,
      "burger": 3399,
      "blind": 3400,
      "quier": 3401,
      "reserved": 3402,
      "rainstorm": 3403,
      "rainbow": 3404,
      "2001": 3405,
      "2004": 3406,
      "2005": 3407,
      "office": 3408,
      "official": 3409,
      "common": 3410,
      "commute": 3411,
      "fifteen": 3412,
      "fifteenth": 3413,
      "osaur": 3414,
      "1990": 3415,
      "pira": 3416,
      "pirates": 3417,
      "breed": 3418,
      "souls": 3419,
      "soulful": 3420,
      "massachuset": 3421,
      "afghan": 3422,
      "1957": 3423,
      "screened": 3424,
      "voices": 3425,
      "zegovina": 3426,
      "1972": 3427,
      "1976": 3428,
      "must": 3429,
      "herzegovina": 3430,
      "mcdonald": 3431,
      "turks": 3432,
      "bones": 3433,
      "ricane": 3434,
      "anet": 3435,
      "anese": 3436,
      "bluff": 3437,
      "stain": 3438,
      "jazzy": 3439,
      "bride": 3440,
      "course": 3441,
      "garrix": 3442,
      "trance": 3443,
      "deathcore": 3444,
      "international": 3445,
      "hamilton": 3446,
      "angela": 3447,
      "afterwork": 3448,
      "fiji": 3449,
      "seafood": 3450,
      "truth": 3451,
      "1965": 3452,
      "collective": 3453,
      "croatia": 3454,
      "crab": 3455,
      "crash": 3456,
      "funky": 3457,
      "singles": 3458,
      "dence": 3459,
      "denmark": 3460,
      "special": 3461,
      "13th": 3462,
      "dinosaur": 3463,
      "ysia": 3464,
      "ready": 3465,
      "liechten": 3466,
      "paulinho": 3467,
      "study": 3468,
      "hipster": 3469,
      "montserrat": 3470,
      "early": 3471,
      "decade": 3472,
      "hype": 3473,
      "finland": 3474,
      "horror": 3475,
      "jordan": 3476,
      "bbie": 3477,
      "patrick": 3478,
      "versity": 3479,
      "flow": 3480,
      "jerry": 3481,
      "russian": 3482,
      "satan": 3483,
      "odes": 3484,
      "others": 3485,
      "strange": 3486,
      "capes": 3487,
      "eighteenth": 3488,
      "ohio": 3489,
      "brunei": 3490,
      "osts": 3491,
      "target": 3492,
      "boots": 3493,
      "catch": 3494,
      "palm": 3495,
      "primavera": 3496,
      "atorial": 3497,
      "instrumentals": 3498,
      "grove": 3499,
      "jenn": 3500,
      "jennie": 3501,
      "score": 3502,
      "roberto": 3503,
      "mysterious": 3504,
      "sammy": 3505,
      "mingo": 3506,
      "hurricane": 3507,
      "jimmy": 3508,
      "ashley": 3509,
      "planet": 3510,
      "teddy": 3511,
      "selektor": 3512,
      "mirror": 3513,
      "opera": 3514,
      "seventeenth": 3515,
      "gged": 3516,
      "monterey": 3517,
      "dragons": 3518,
      "confidence": 3519,
      "birthday": 3520,
      "wonderful": 3521,
      "couple": 3522,
      "eliza": 3523,
      "ranch": 3524,
      "wedding": 3525,
      "liberty": 3526,
      "bosnia": 3527,
      "sudden": 3528,
      "sudamerica": 3529,
      "fonsi": 3530,
      "lloyd": 3531,
      "ninos": 3532,
      "nicky": 3533,
      "pedia": 3534,
      "smith": 3535,
      "police": 3536,
      "malaysia": 3537,
      "training": 3538,
      "chapter": 3539,
      "cupcake": 3540,
      "argentina": 3541,
      "techno": 3542,
      "bonaire": 3543,
      "screen": 3544,
      "thieves": 3545,
      "religion": 3546,
      "cambo": 3547,
      "holiday": 3548,
      "luciano": 3549,
      "glenn": 3550,
      "conexion": 3551,
      "winnie": 3552,
      "attack": 3553,
      "sessions": 3554,
      "chicago": 3555,
      "babwe": 3556,
      "presents": 3557,
      "eternal": 3558,
      "lights": 3559,
      "nevada": 3560,
      "moldova": 3561,
      "conspira": 3562,
      "trouble": 3563,
      "tanzania": 3564,
      "slovakia": 3565,
      "encyclopedia": 3566,
      "equatorial": 3567,
      "honduras": 3568,
      "hillary": 3569,
      "zimbabwe": 3570,
      "atmospheric": 3571,
      "lesotho": 3572,
      "modern": 3573,
      "italian": 3574,
      "pokemon": 3575,
      "society": 3576,
      "pastelaria": 3577,
      "concentration": 3578,
      "bermuda": 3579,
      "barcelona": 3580,
      "guernsey": 3581,
      "prefectural": 3582,
      "massachusetts": 3583,
      "liechtenstein": 3584,
      "conexiones": 3585,
      "1st": 3586,
      "2nd": 3587,
      "33": 3588,
      "35": 3589,
      "44": 3590,
      "47": 3591,
      "52": 3592,
      "55": 3593,
      "56": 3594,
      "5th": 3595,
      "6th": 3596,
      "ao": 3597,
      "aw": 3598,
      "ax": 3599,
      "ape": 3600,
      "apa": 3601,
      "azer": 3602,
      "asha": 3603,
      "amore": 3604,
      "award": 3605,
      "bla": 3606,
      "bum": 3607,
      "blast": 3608,
      "bid": 3609,
      "bute": 3610,
      "bster": 3611,
      "bite": 3612,
      "bang": 3613,
      "bryan": 3614,
      "cc": 3615,
      "ccan": 3616,
      "cies": 3617,
      "cid": 3618,
      "cci": 3619,
      "cze": 3620,
      "ccion": 3621,
      "cena": 3622,
      "diffe": 3623,
      "eve": 3624,
      "ell": 3625,
      "emi": 3626,
      "emer": 3627,
      "egy": 3628,
      "easy": 3629,
      "fen": 3630,
      "fist": 3631,
      "gn": 3632,
      "gne": 3633,
      "gic": 3634,
      "git": 3635,
      "gare": 3636,
      "glu": 3637,
      "glor": 3638,
      "glia": 3639,
      "hl": 3640,
      "had": 3641,
      "hman": 3642,
      "ito": 3643,
      "iop": 3644,
      "jing": 3645,
      "jess": 3646,
      "kis": 3647,
      "kia": 3648,
      "kas": 3649,
      "kent": 3650,
      "krist": 3651,
      "kni": 3652,
      "khan": 3653,
      "lane": 3654,
      "lleg": 3655,
      "mh": 3656,
      "migh": 3657,
      "mood": 3658,
      "mouse": 3659,
      "mim": 3660,
      "mate": 3661,
      "mund": 3662,
      "mister": 3663,
      "money": 3664,
      "nad": 3665,
      "nam": 3666,
      "nim": 3667,
      "nico": 3668,
      "nsyl": 3669,
      "noodle": 3670,
      "ob": 3671,
      "oz": 3672,
      "oon": 3673,
      "ome": 3674,
      "oli": 3675,
      "omy": 3676,
      "oman": 3677,
      "osoph": 3678,
      "pon": 3679,
      "pse": 3680,
      "platin": 3681,
      "pump": 3682,
      "sla": 3683,
      "sar": 3684,
      "sus": 3685,
      "sri": 3686,
      "sna": 3687,
      "sint": 3688,
      "scor": 3689,
      "sard": 3690,
      "sins": 3691,
      "ski": 3692,
      "slau": 3693,
      "sku": 3694,
      "scream": 3695,
      "slow": 3696,
      "smart": 3697,
      "tall": 3698,
      "tara": 3699,
      "ux": 3700,
      "ual": 3701,
      "uine": 3702,
      "uct": 3703,
      "utah": 3704,
      "vine": 3705,
      "vate": 3706,
      "vsky": 3707,
      "wu": 3708,
      "wise": 3709,
      "wanna": 3710,
      "xian": 3711,
      "xplo": 3712,
      "yu": 3713,
      "yana": 3714,
      "zart": 3715,
      "zom": 3716,
      "thr": 3717,
      "thu": 3718,
      "thin": 3719,
      "thra": 3720,
      "thony": 3721,
      "inian": 3722,
      "inye": 3723,
      "infus": 3724,
      "then": 3725,
      "thes": 3726,
      "these": 3727,
      "atra": 3728,
      "rec": 3729,
      "rebe": 3730,
      "reck": 3731,
      "rema": 3732,
      "rede": 3733,
      "retta": 3734,
      "reunion": 3735,
      "relief": 3736,
      "revive": 3737,
      "sting": 3738,
      "strict": 3739,
      "ani": 3740,
      "anto": 3741,
      "anian": 3742,
      "angola": 3743,
      "anthony": 3744,
      "onic": 3745,
      "lal": 3746,
      "laure": 3747,
      "laos": 3748,
      "ors": 3749,
      "orra": 3750,
      "orche": 3751,
      "todd": 3752,
      "together": 3753,
      "arlene": 3754,
      "plague": 3755,
      "lem": 3756,
      "leta": 3757,
      "lena": 3758,
      "leban": 3759,
      "leiro": 3760,
      "isn": 3761,
      "isia": 3762,
      "isley": 3763,
      "mee": 3764,
      "mere": 3765,
      "memo": 3766,
      "mend": 3767,
      "ied": 3768,
      "vez": 3769,
      "alta": 3770,
      "alty": 3771,
      "alger": 3772,
      "sene": 3773,
      "send": 3774,
      "sett": 3775,
      "sedu": 3776,
      "sebastian": 3777,
      "ching": 3778,
      "chow": 3779,
      "chen": 3780,
      "chance": 3781,
      "chop": 3782,
      "chang": 3783,
      "channe": 3784,
      "chanson": 3785,
      "ads": 3786,
      "adu": 3787,
      "nevis": 3788,
      "ilo": 3789,
      "ille": 3790,
      "illo": 3791,
      "moor": 3792,
      "moto": 3793,
      "motion": 3794,
      "molly": 3795,
      "mozart": 3796,
      "uru": 3797,
      "urban": 3798,
      "edia": 3799,
      "edna": 3800,
      "edonia": 3801,
      "rome": 3802,
      "rosa": 3803,
      "roger": 3804,
      "roses": 3805,
      "inda": 3806,
      "indep": 3807,
      "shu": 3808,
      "shak": 3809,
      "ites": 3810,
      "itzer": 3811,
      "italy": 3812,
      "antica": 3813,
      "antilles": 3814,
      "enamor": 3815,
      "andorra": 3816,
      "rage": 3817,
      "bever": 3818,
      "beha": 3819,
      "belie": 3820,
      "betan": 3821,
      "beaver": 3822,
      "web": 3823,
      "ween": 3824,
      "pold": 3825,
      "poet": 3826,
      "romantic": 3827,
      "romantica": 3828,
      "serge": 3829,
      "tee": 3830,
      "showstop": 3831,
      "cave": 3832,
      "camar": 3833,
      "camer": 3834,
      "lobster": 3835,
      "cket": 3836,
      "illy": 3837,
      "timor": 3838,
      "kes": 3839,
      "taking": 3840,
      "taker": 3841,
      "taji": 3842,
      "mama": 3843,
      "mason": 3844,
      "malia": 3845,
      "major": 3846,
      "macao": 3847,
      "deb": 3848,
      "dear": 3849,
      "deli": 3850,
      "demo": 3851,
      "dell": 3852,
      "sab": 3853,
      "sap": 3854,
      "sage": 3855,
      "safe": 3856,
      "amber": 3857,
      "among": 3858,
      "ambie": 3859,
      "gest": 3860,
      "gear": 3861,
      "cot": 3862,
      "cox": 3863,
      "coy": 3864,
      "code": 3865,
      "hes": 3866,
      "hex": 3867,
      "canyon": 3868,
      "esian": 3869,
      "escap": 3870,
      "curious": 3871,
      "puglia": 3872,
      "sol": 3873,
      "soca": 3874,
      "solu": 3875,
      "sovo": 3876,
      "social": 3877,
      "somalia": 3878,
      "ules": 3879,
      "timeless": 3880,
      "noc": 3881,
      "cel": 3882,
      "pete": 3883,
      "peters": 3884,
      "parade": 3885,
      "tuval": 3886,
      "hole": 3887,
      "hold": 3888,
      "hollow": 3889,
      "ledge": 3890,
      "lling": 3891,
      "rio": 3892,
      "rian": 3893,
      "twin": 3894,
      "page": 3895,
      "paula": 3896,
      "palest": 3897,
      "ung": 3898,
      "unplu": 3899,
      "youth": 3900,
      "contra": 3901,
      "congo": 3902,
      "contem": 3903,
      "contin": 3904,
      "immortal": 3905,
      "fourteenth": 3906,
      "bah": 3907,
      "bago": 3908,
      "baking": 3909,
      "vida": 3910,
      "mars": 3911,
      "marry": 3912,
      "marino": 3913,
      "phone": 3914,
      "manuel": 3915,
      "zeri": 3916,
      "naomi": 3917,
      "animals": 3918,
      "sierra": 3919,
      "sileiro": 3920,
      "landing": 3921,
      "venge": 3922,
      "mique": 3923,
      "worms": 3924,
      "words": 3925,
      "dol": 3926,
      "dore": 3927,
      "dome": 3928,
      "doing": 3929,
      "domingo": 3930,
      "bers": 3931,
      "berger": 3932,
      "minist": 3933,
      "montre": 3934,
      "bom": 3935,
      "both": 3936,
      "bott": 3937,
      "ella": 3938,
      "elli": 3939,
      "gran": 3940,
      "grunge": 3941,
      "creole": 3942,
      "barbad": 3943,
      "upon": 3944,
      "souvla": 3945,
      "graham": 3946,
      "rug": 3947,
      "brave": 3948,
      "brasileiro": 3949,
      "fayette": 3950,
      "gress": 3951,
      "gretch": 3952,
      "gua": 3953,
      "ids": 3954,
      "clase": 3955,
      "conduct": 3956,
      "farm": 3957,
      "tenth": 3958,
      "jac": 3959,
      "jap": 3960,
      "ishing": 3961,
      "aux": 3962,
      "aunt": 3963,
      "author": 3964,
      "igs": 3965,
      "visible": 3966,
      "nineteenth": 3967,
      "porary": 3968,
      "weekly": 3969,
      "bud": 3970,
      "buff": 3971,
      "buccan": 3972,
      "kosovo": 3973,
      "workday": 3974,
      "prefer": 3975,
      "predic": 3976,
      "bright": 3977,
      "moroc": 3978,
      "iname": 3979,
      "eleg": 3980,
      "eleine": 3981,
      "norfolk": 3982,
      "entre": 3983,
      "entity": 3984,
      "mption": 3985,
      "chemist": 3986,
      "dix": 3987,
      "wol": 3988,
      "chillin": 3989,
      "chillout": 3990,
      "coln": 3991,
      "creatures": 3992,
      "fries": 3993,
      "kay": 3994,
      "kaori": 3995,
      "walter": 3996,
      "acion": 3997,
      "across": 3998,
      "access": 3999,
      "burgh": 4000,
      "metalsucks": 4001,
      "blan": 4002,
      "blon": 4003,
      "bler": 4004,
      "ichi": 4005,
      "inning": 4006,
      "quant": 4007,
      "hitch": 4008,
      "renal": 4009,
      "johnston": 4010,
      "ably": 4011,
      "quez": 4012,
      "comfort": 4013,
      "genuine": 4014,
      "window": 4015,
      "windows": 4016,
      "latvia": 4017,
      "hara": 4018,
      "hart": 4019,
      "civil": 4020,
      "americana": 4021,
      "jewish": 4022,
      "1994": 4023,
      "1998": 4024,
      "vania": 4025,
      "letters": 4026,
      "bres": 4027,
      "bread": 4028,
      "brenda": 4029,
      "knowledge": 4030,
      "prote": 4031,
      "provide": 4032,
      "disney": 4033,
      "scand": 4034,
      "scri": 4035,
      "spy": 4036,
      "yourself": 4037,
      "zeze": 4038,
      "mugh": 4039,
      "herit": 4040,
      "aches": 4041,
      "mccra": 4042,
      "mccoy": 4043,
      "adelic": 4044,
      "records": 4045,
      "alice": 4046,
      "stairs": 4047,
      "lawrence": 4048,
      "11th": 4049,
      "freak": 4050,
      "nik": 4051,
      "niko": 4052,
      "daniel": 4053,
      "shaw": 4054,
      "shawn": 4055,
      "maggie": 4056,
      "angel": 4057,
      "angeles": 4058,
      "angels": 4059,
      "background": 4060,
      "1982": 4061,
      "1983": 4062,
      "1984": 4063,
      "1985": 4064,
      "1986": 4065,
      "afterclu": 4066,
      "tribute": 4067,
      "underground": 4068,
      "treas": 4069,
      "grandes": 4070,
      "crazy": 4071,
      "craft": 4072,
      "funny": 4073,
      "gamer": 4074,
      "singapo": 4075,
      "madness": 4076,
      "madison": 4077,
      "madeleine": 4078,
      "mical": 4079,
      "sweden": 4080,
      "switzer": 4081,
      "pura": 4082,
      "stuart": 4083,
      "dres": 4084,
      "junior": 4085,
      "tropic": 4086,
      "thailand": 4087,
      "maxim": 4088,
      "essions": 4089,
      "jonath": 4090,
      "adobe": 4091,
      "decades": 4092,
      "justin": 4093,
      "hyun": 4094,
      "lincoln": 4095
    },
    "merges": [
      "t h",
      "i n",
      "th e",
      "a t",
      "r e",
      "s t",
      "a n",
      "o n",
      "l a",
      "o r",
      "t o",
      "e r",
      "a r",
      "p la",
      "l e",
      "pla y",
      "i s",
      "o u",
      "m e",
      "f or",
      "l i",
      "o o",
      "i e",
      "o f",
      "v e",
      "in g",
      "a l",
      "s e",
      "c h",
      "a d",
      "w h",
      "n e",
      "o w",
      "oo k",
      "i l",
      "m o",
      "i c",
      "u r",
      "b ook",
      "e d",
      "r o",
      "in d",
      "s h",
      "i t",
      "an t",
      "v ie",
      "ad d",
      "li st",
      "mo vie",
      "m y",
      "e n",
      "an d",
      "wh at",
      "r at",
      "r a",
      "b e",
      "f ind",
      "play list",
      "w e",
      "p o",
      "th is",
      "i on",
      "i ve",
      "ro m",
      "n t",
      "the r",
      "f rom",
      "s er",
      "t e",
      "b y",
      "sh ow",
      "c a",
      "l o",
      "c k",
      "rat e",
      "il l",
      "t i",
      "re st",
      "k e",
      "ou t",
      "t a",
      "a ther",
      "we ather",
      "u s",
      "m a",
      "g h",
      "d e",
      "s on",
      "t s",
      "f o",
      "a ur",
      "ou r",
      "g ive",
      "s a",
      "rest aur",
      "restaur ant",
      "w ill",
      "a m",
      "st ar",
      "u m",
      "at ion",
      "in e",
      "p le",
      "g e",
      "c o",
      "i gh",
      "h e",
      "c an",
      "m us",
      "w ant",
      "mus ic",
      "s ch",
      "t ra",
      "ca st",
      "e s",
      "b le",
      "c ur",
      "re nt",
      "p u",
      "s o",
      "fo re",
      "u le",
      "cur rent",
      "ed ule",
      "sch edule",
      "star s",
      "po in",
      "ti me",
      "fore cast",
      "a re",
      "son g",
      "g a",
      "ie s",
      "poin ts",
      "play ing",
      "n o",
      "the at",
      "n ow",
      "li ke",
      "ta ble",
      "c e",
      "p e",
      "al b",
      "n d",
      "w i",
      "p ar",
      "alb um",
      "d a",
      "l d",
      "oo d",
      "theat re",
      "t u",
      "movie s",
      "h o",
      "on e",
      "2 0",
      "i a",
      "le d",
      "i r",
      "tra ck",
      "l l",
      "re ser",
      "t y",
      "so me",
      "wi th",
      "r i",
      "c al",
      "ne ed",
      "c lo",
      "t w",
      "p a",
      "th at",
      "re e",
      "u n",
      "f e",
      "y ou",
      "g o",
      "a se",
      "s s",
      "c on",
      "v er",
      "v ation",
      "ou nd",
      "t er",
      "ou se",
      "cal led",
      "reser vation",
      "ple ase",
      "i m",
      "f our",
      "h ouse",
      "a s",
      "clo se",
      "e re",
      "theatre s",
      "at e",
      "l y",
      "x t",
      "wh ere",
      "igh t",
      "c ine",
      "b a",
      "1 9",
      "v i",
      "no ve",
      "m ar",
      "p h",
      "ge t",
      "tu ne",
      "time s",
      "da y",
      "at ed",
      "ve s",
      "m an",
      "z er",
      "pu t",
      "i st",
      "s po",
      "nove l",
      "c t",
      "u e",
      "m s",
      "n a",
      "he ar",
      "an im",
      "tw o",
      "f ive",
      "rat ing",
      "w a",
      "th ree",
      "s i",
      "pe o",
      "cine ma",
      "al l",
      "l and",
      "peo ple",
      "p er",
      "anim ated",
      "ser ves",
      "f il",
      "ve n",
      "m i",
      "w or",
      "ne w",
      "schedule s",
      "d o",
      "b er",
      "h a",
      "w ar",
      "to p",
      "r y",
      "he re",
      "fil ms",
      "l ook",
      "it y",
      "ou ld",
      "r on",
      "m in",
      "m on",
      "j o",
      "t ies",
      "the re",
      "t v",
      "sa y",
      "par ty",
      "ti st",
      "par k",
      "b o",
      "e l",
      "sa ga",
      "l u",
      "ne igh",
      "ga me",
      "neigh b",
      "ar tist",
      "g r",
      "i f",
      "se e",
      "s ound",
      "es say",
      "ser ies",
      "c re",
      "i an",
      "b ar",
      "u p",
      "la st",
      "in t",
      "s ou",
      "te xt",
      "g ra",
      "me nt",
      "ne a",
      "show ing",
      "spo t",
      "text book",
      "r u",
      "y e",
      "are a",
      "zer o",
      "nea rest",
      "wh en",
      "b ra",
      "f a",
      "u l",
      "er s",
      "w at",
      "h ood",
      "close st",
      "c ar",
      "g re",
      "be st",
      "d y",
      "te ll",
      "g u",
      "i d",
      "p r",
      "w ould",
      "c la",
      "con d",
      "c or",
      "e p",
      "f ar",
      "n ation",
      "rat ed",
      "t en",
      "go ing",
      "u te",
      "an ce",
      "we e",
      "j a",
      "ne ar",
      "h our",
      "t al",
      "is h",
      "ic k",
      "p m",
      "ron ic",
      "nation al",
      "v il",
      "wat ch",
      "st or",
      "min ute",
      "s u",
      "a u",
      "i g",
      "tw en",
      "v is",
      "pu b",
      "a k",
      "f ood",
      "n ine",
      "sound track",
      "p or",
      "th ing",
      "ar d",
      "1 0",
      "k ing",
      "t on",
      "ar ound",
      "ho t",
      "ye ar",
      "st er",
      "ou nt",
      "ro ck",
      "neighb or",
      "tu re",
      "wee k",
      "lo ve",
      "e at",
      "la r",
      "b u",
      "gra ph",
      "k o",
      "se cond",
      "h ow",
      "ar k",
      "ch ronic",
      "chronic le",
      "m er",
      "n ight",
      "an o",
      "il d",
      "wor k",
      "h igh",
      "la ck",
      "ar ch",
      "song s",
      "wa y",
      "p re",
      "b r",
      "m or",
      "si x",
      "is land",
      "p ic",
      "bra s",
      "in a",
      "e le",
      "co ld",
      "e ight",
      "n or",
      "p ho",
      "en t",
      "st e",
      "an y",
      "pla ce",
      "m p",
      "f m",
      "z z",
      "ch e",
      "d i",
      "se ven",
      "look ing",
      "ar y",
      "se arch",
      "me n",
      "ser ie",
      "tra il",
      "w o",
      "ch ill",
      "co l",
      "bras serie",
      "l ou",
      "t t",
      "20 1",
      "20 3",
      "cre at",
      "f r",
      "v al",
      "pic ture",
      "d ist",
      "k a",
      "st ate",
      "li fe",
      "ne xt",
      "it e",
      "s y",
      "er ic",
      "le s",
      "le y",
      "ne s",
      "near by",
      "pho to",
      "c ity",
      "on to",
      "ow n",
      "photo graph",
      "s now",
      "te en",
      "vis ion",
      "i v",
      "ic e",
      "w al",
      "te le",
      "20 2",
      "g ood",
      "j u",
      "ne t",
      "with in",
      "vil le",
      "a c",
      "trail er",
      "h n",
      "i re",
      "u re",
      "po pu",
      "tele vision",
      "popu lar",
      "b ur",
      "me tal",
      "b l",
      "i ch",
      "in n",
      "cla ss",
      "q u",
      "vi de",
      "neighbor hood",
      "g le",
      "o p",
      "u se",
      "b al",
      "h it",
      "i p",
      "re n",
      "reser ve",
      "pa int",
      "class ic",
      "w n",
      "re d",
      "ra in",
      "ti f",
      "am eric",
      "reservation s",
      "high ly",
      "a st",
      "u nd",
      "il li",
      "vide o",
      "paint ing",
      "th ir",
      "ve nt",
      "te m",
      "hear t",
      "jo hn",
      "f li",
      "f all",
      "h as",
      "n at",
      "po p",
      "f u",
      "s un",
      "oo l",
      "it ion",
      "we st",
      "some thing",
      "hour s",
      "k er",
      "w ild",
      "ch a",
      "ma ke",
      "20 0",
      "spo tif",
      "spotif y",
      "a b",
      "sa me",
      "j an",
      "q ue",
      "t it",
      "of f",
      "co m",
      "na me",
      "g en",
      "wh ich",
      "f ree",
      "f if",
      "w ind",
      "or y",
      "oo ve",
      "gr oove",
      "twen ty",
      "k y",
      "l at",
      "r is",
      "li ve",
      "year s",
      "h ar",
      "v a",
      "a th",
      "c i",
      "c ount",
      "list en",
      "americ an",
      "ind ie",
      "ca fe",
      "our hood",
      "neighb ourhood",
      "nor th",
      "net fli",
      "netfli x",
      "n y",
      "o s",
      "clo ck",
      "sou th",
      "e x",
      "or a",
      "ta ver",
      "hit s",
      "g oo",
      "j e",
      "r ow",
      "ate st",
      "19 9",
      "b lack",
      "c u",
      "o l",
      "p i",
      "v an",
      "v ing",
      "to day",
      "to wn",
      "le t",
      "it u",
      "stor m",
      "island s",
      "sh ark",
      "de e",
      "minute s",
      "goo gle",
      "b re",
      "g er",
      "ou s",
      "ge ts",
      "sou l",
      "cor por",
      "ano ther",
      "on ly",
      "la s",
      "la ke",
      "ma s",
      "gh t",
      "no t",
      "week s",
      "wo men",
      "g y",
      "m ber",
      "z v",
      "an a",
      "en ter",
      "ple x",
      "day s",
      "itu nes",
      "a f",
      "k now",
      "n ing",
      "p ro",
      "la d",
      "oo q",
      "wor ld",
      "dee zer",
      "zv ooq",
      "d on",
      "f f",
      "y a",
      "in s",
      "ch ant",
      "ro ad",
      "19 5",
      "war m",
      "mon th",
      "d is",
      "d own",
      "h ist",
      "s pa",
      "re g",
      "on y",
      "star t",
      "cold er",
      "tit led",
      "lat in",
      "count ry",
      "a way",
      "d ance",
      "r oo",
      "s c",
      "s p",
      "v o",
      "y our",
      "z e",
      "lo c",
      "ri st",
      "19 7",
      "corpor ation",
      "c lou",
      "m u",
      "u be",
      "in to",
      "an g",
      "is s",
      "last fm",
      "cor d",
      "chill y",
      "c le",
      "h er",
      "s lack",
      "w ood",
      "y out",
      "se at",
      "mi d",
      "ha ve",
      "twen ties",
      "yout ube",
      "a ch",
      "c er",
      "i o",
      "z ing",
      "mar k",
      "ct ion",
      "free zing",
      "slack er",
      "l on",
      "m c",
      "t ur",
      "se n",
      "en d",
      "show times",
      "pu n",
      "bal lad",
      "tem per",
      "p and",
      "t ion",
      "in c",
      "se vent",
      "ad e",
      "creat iv",
      "dist ance",
      "b on",
      "k i",
      "r ic",
      "s an",
      "re cord",
      "an e",
      "ta in",
      "de serves",
      "op en",
      "pand ora",
      "a li",
      "b lu",
      "l k",
      "st a",
      "la w",
      "me s",
      "ing s",
      "mo ve",
      "ja zz",
      "creativ ity",
      "1 1",
      "b ri",
      "c our",
      "d er",
      "f re",
      "g ar",
      "g ue",
      "h um",
      "i i",
      "j our",
      "k en",
      "l or",
      "m ount",
      "t r",
      "li c",
      "ther n",
      "de ath",
      "second s",
      "wal king",
      "pun k",
      "n i",
      "in ter",
      "at t",
      "li tt",
      "li ght",
      "ch illi",
      "fo lk",
      "ll ow",
      "val ue",
      "0 s",
      "c y",
      "d u",
      "d an",
      "f ire",
      "h am",
      "t in",
      "ch rist",
      "sh a",
      "ma g",
      "cinema s",
      "war mer",
      "hot ter",
      "creat ive",
      "inn er",
      "chilli er",
      "h al",
      "i heart",
      "s pr",
      "an ge",
      "is e",
      "me o",
      "cine plex",
      "ba ck",
      "19 8",
      "sy m",
      "af ter",
      "roo m",
      "d ra",
      "e ast",
      "f i",
      "l s",
      "r ight",
      "t ri",
      "ou gh",
      "se a",
      "wh ite",
      "fe b",
      "vi meo",
      "fa st",
      "enter tain",
      "d inner",
      "h ill",
      "n al",
      "t ru",
      "u t",
      "in k",
      "the me",
      "me lo",
      "ne y",
      "mo st",
      "sh ould",
      "19 6",
      "gre atest",
      "far away",
      "col le",
      "sym ph",
      "entertain ment",
      "g ir",
      "mo re",
      "ic a",
      "am s",
      "theat ers",
      "ele ven",
      "und er",
      "blu es",
      "melo dy",
      "5 0",
      "c ro",
      "t re",
      "th o",
      "te a",
      "sa int",
      "gr and",
      "neighbor ing",
      "dis co",
      "symph ony",
      "1 2",
      "b or",
      "b li",
      "b ia",
      "c ra",
      "f un",
      "g am",
      "m al",
      "s ing",
      "s up",
      "at es",
      "an k",
      "ne west",
      "po s",
      "ri ver",
      "four ties",
      "ian a",
      "name d",
      "temper ate",
      "hal f",
      "d s",
      "d en",
      "o ld",
      "s pe",
      "st ic",
      "to m",
      "ser ving",
      "ver y",
      "eight ies",
      "fif ties",
      "loc ation",
      "move ment",
      "cour t",
      "1 3",
      "a p",
      "a pr",
      "d in",
      "f ul",
      "m ad",
      "m ic",
      "s w",
      "y s",
      "re ad",
      "st ep",
      "li e",
      "ow er",
      "we l",
      "pa ul",
      "ss ion",
      "gre en",
      "ele ct",
      "thir ties",
      "wild life",
      "b ir",
      "c ent",
      "e m",
      "f ie",
      "o ver",
      "p ur",
      "z a",
      "in o",
      "st u",
      "ou p",
      "se p",
      "wh o",
      "ta ke",
      "fo g",
      "ge or",
      "he l",
      "ri ch",
      "con cer",
      "xt ies",
      "si xties",
      "stor y",
      "taver n",
      "hist ory",
      "sevent ies",
      "mount a",
      "d re",
      "d ge",
      "e ven",
      "h ip",
      "j i",
      "j un",
      "o k",
      "t ro",
      "t te",
      "y o",
      "th a",
      "st ro",
      "st ra",
      "or t",
      "le n",
      "li a",
      "ma x",
      "es s",
      "ho p",
      "ll y",
      "tune s",
      "mon t",
      "ian o",
      "gre at",
      "work out",
      "che ck",
      "dist ant",
      "teen th",
      "hum id",
      "pos ition",
      "2 1",
      "a ge",
      "c us",
      "e ar",
      "h u",
      "i al",
      "j on",
      "n ie",
      "p ool",
      "w s",
      "in st",
      "ad o",
      "ne ss",
      "il y",
      "ic o",
      "sh e",
      "de c",
      "co mp",
      "fe el",
      "gr oup",
      "car ol",
      "mor row",
      "fr ie",
      "ju st",
      "classic al",
      "d r",
      "g an",
      "h y",
      "k id",
      "l in",
      "o c",
      "or k",
      "to morrow",
      "ar a",
      "of fe",
      "se y",
      "be l",
      "ga e",
      "no on",
      "start ing",
      "even ing",
      "a v",
      "b i",
      "b ro",
      "b ill",
      "e t",
      "f in",
      "h or",
      "j or",
      "m at",
      "m iss",
      "s ur",
      "s ky",
      "w as",
      "st ree",
      "on d",
      "ch ar",
      "vie w",
      "ca pe",
      "de l",
      "ir st",
      "sou thern",
      "zz ard",
      "ac ou",
      "taver na",
      "reg gae",
      "jour nal",
      "litt le",
      "bli zzard",
      "hel p",
      "b b",
      "g l",
      "n er",
      "p at",
      "s um",
      "s car",
      "y ork",
      "me d",
      "se d",
      "ch o",
      "ad a",
      "ic al",
      "be at",
      "te l",
      "lo e",
      "co me",
      "mar y",
      "por t",
      "ab out",
      "month s",
      "spr ing",
      "tru ck",
      "offe e",
      "acou stic",
      "2 2",
      "b ig",
      "f irst",
      "g on",
      "g la",
      "p ower",
      "t an",
      "li an",
      "ch ild",
      "ti m",
      "ma y",
      "sa s",
      "es p",
      "track s",
      "some where",
      "ver s",
      "ba by",
      "ba ker",
      "ment s",
      "nine ties",
      "201 6",
      "nat ure",
      "clou dy",
      "stree t",
      "1 5",
      "1 6",
      "c offee",
      "f l",
      "h and",
      "l ine",
      "n g",
      "r ad",
      "t or",
      "v ir",
      "w ish",
      "add ed",
      "ca se",
      "lo s",
      "de ad",
      "par t",
      "vi d",
      "mar tin",
      "do es",
      "if ic",
      "fa ir",
      "bu t",
      "ste ak",
      "wind y",
      "mid night",
      "loe ws",
      "d ou",
      "d ark",
      "g i",
      "j er",
      "l la",
      "n u",
      "p p",
      "r us",
      "r un",
      "s at",
      "s le",
      "s al",
      "v in",
      "th ink",
      "re fu",
      "st on",
      "la u",
      "me x",
      "sh o",
      "it ch",
      "it ed",
      "fo rest",
      "ho me",
      "ter ia",
      "park ing",
      "cond ition",
      "bur g",
      "bl ood",
      "gam ing",
      "mounta in",
      "d ig",
      "g in",
      "k s",
      "k u",
      "l er",
      "o de",
      "st one",
      "an sas",
      "on g",
      "se s",
      "be ach",
      "po st",
      "da ko",
      "do or",
      "ha il",
      "au gu",
      "201 7",
      "snow storm",
      "cafe teria",
      "bre ak",
      "clou d",
      "fre sh",
      "mag ic",
      "carol ina",
      "sum mer",
      "refu ge",
      "dako ta",
      "0 0",
      "1 7",
      "a y",
      "a le",
      "a ce",
      "e en",
      "f er",
      "f ren",
      "g iv",
      "h i",
      "m ill",
      "o ther",
      "s mo",
      "th an",
      "st r",
      "le e",
      "al s",
      "se cre",
      "ad es",
      "sh er",
      "ca p",
      "lo cal",
      "ke y",
      "am c",
      "pa c",
      "un ited",
      "si de",
      "per son",
      "pr in",
      "ick en",
      "john son",
      "cha el",
      "gen er",
      "tri p",
      "gir l",
      "cro ss",
      "fie ld",
      "vir gin",
      "augu st",
      "fren ch",
      "giv ing",
      "a la",
      "b in",
      "c ion",
      "d ick",
      "e igh",
      "h all",
      "k ar",
      "l atest",
      "o h",
      "s in",
      "s and",
      "t wel",
      "u ary",
      "v ia",
      "an na",
      "for d",
      "for t",
      "mo a",
      "ur y",
      "ur al",
      "sh i",
      "po sed",
      "te s",
      "fo x",
      "ine s",
      "sch ool",
      "pu ll",
      "ga stro",
      "ho tel",
      "need s",
      "ree k",
      "you ng",
      "ba y",
      "bo y",
      "bra z",
      "graph y",
      "classic s",
      "jan uary",
      "tur n",
      "sup posed",
      "over cast",
      "ear th",
      "comp any",
      "baker y",
      "mex ico",
      "pac ific",
      "gastro pub",
      "b ru",
      "c lu",
      "h ard",
      "i z",
      "l f",
      "o st",
      "o or",
      "p iano",
      "r it",
      "t ar",
      "an ia",
      "for m",
      "ie n",
      "se t",
      "ch er",
      "ch icken",
      "en a",
      "ra p",
      "de ce",
      "fo llow",
      "sa moa",
      "so li",
      "da vid",
      "go ld",
      "ist an",
      "ist er",
      "mi chael",
      "jo int",
      "ja mes",
      "ster n",
      "mor ning",
      "snow fall",
      "ure s",
      "bl ue",
      "cu is",
      "vo lu",
      "seat ing",
      "lon g",
      "ali ty",
      "gue st",
      "christ mas",
      "fun k",
      "din er",
      "concer to",
      "1 8",
      "b an",
      "b oo",
      "b ow",
      "b en",
      "b all",
      "c at",
      "d ie",
      "e very",
      "p al",
      "p en",
      "p ra",
      "p ri",
      "r ick",
      "r ough",
      "w y",
      "w illi",
      "at or",
      "re y",
      "to tal",
      "oo t",
      "ch ur",
      "ur o",
      "be an",
      "we ll",
      "fore ver",
      "one y",
      "un ch",
      "mar ch",
      "ru ment",
      "pre ssion",
      "br ook",
      "seat s",
      "mal co",
      "inst rument",
      "esp ano",
      "steak house",
      "condition s",
      "2 5",
      "a h",
      "c l",
      "c reek",
      "d j",
      "g ro",
      "g ia",
      "i b",
      "j en",
      "n ia",
      "o t",
      "s co",
      "s ort",
      "v or",
      "w is",
      "to ber",
      "ar s",
      "me l",
      "se nt",
      "ch ase",
      "ne d",
      "ow s",
      "il la",
      "mo on",
      "ro ber",
      "ind oor",
      "my ster",
      "be ing",
      "ca li",
      "ma c",
      "sa m",
      "poin t",
      "fe ct",
      "vi ous",
      "mi x",
      "ja ck",
      "au t",
      "bu y",
      "lou is",
      "val ley",
      "snow y",
      "que en",
      "ci al",
      "kid s",
      "oc tober",
      "sle ep",
      "follow ing",
      "soli d",
      "cuis ine",
      "1 4",
      "2 3",
      "a ir",
      "a ven",
      "b lo",
      "b att",
      "c es",
      "c ry",
      "f ish",
      "i ble",
      "m ing",
      "t ie",
      "w inter",
      "z y",
      "in son",
      "the ir",
      "re s",
      "re le",
      "me al",
      "me jor",
      "al d",
      "ch el",
      "ic an",
      "ro se",
      "and o",
      "and y",
      "po ss",
      "lo gy",
      "ck y",
      "out door",
      "gh ter",
      "am i",
      "am co",
      "um n",
      "igh ts",
      "es ia",
      "no thing",
      "wi fi",
      "wa it",
      "lu de",
      "stor my",
      "pre vious",
      "fr ank",
      "ju ly",
      "inc lude",
      "inter net",
      "hill s",
      "apr il",
      "humid ity",
      "frie nd",
      "coffee house",
      "prin ce",
      "twel ve",
      "a ga",
      "b and",
      "c r",
      "f al",
      "f ine",
      "h at",
      "h ur",
      "h und",
      "i da",
      "j im",
      "l ing",
      "p sy",
      "r or",
      "s k",
      "s wee",
      "w on",
      "re a",
      "st ates",
      "an ne",
      "ar t",
      "le ss",
      "me mber",
      "li t",
      "ve l",
      "ing ton",
      "ch ris",
      "ad vent",
      "ic s",
      "ro ll",
      "sh ad",
      "what s",
      "ra scar",
      "be t",
      "de vil",
      "de pression",
      "par a",
      "as y",
      "ly n",
      "ct or",
      "ct ive",
      "land s",
      "mi ke",
      "wor th",
      "national park",
      "wo man",
      "sun ny",
      "com ing",
      "hist or",
      "her o",
      "geor gia",
      "gla ss",
      "chur rascar",
      "espano l",
      "aut umn",
      "hund red",
      "churrascar ia",
      "2 4",
      "a sh",
      "b ad",
      "c ool",
      "f ather",
      "f us",
      "f am",
      "f ound",
      "g las",
      "i de",
      "i ous",
      "i max",
      "i lian",
      "j ul",
      "o ct",
      "p l",
      "t ed",
      "t ree",
      "z en",
      "th rough",
      "on ia",
      "le ts",
      "le gen",
      "is a",
      "se le",
      "ch i",
      "ow a",
      "mo ther",
      "and a",
      "be s",
      "te x",
      "lo st",
      "gh ost",
      "he ad",
      "schedule d",
      "theat er",
      "ho lly",
      "man n",
      "jo e",
      "wat er",
      "car ib",
      "10 0",
      "col or",
      "203 4",
      "ju ne",
      "qu ality",
      "tem ber",
      "nat ural",
      "fu ture",
      "spa ce",
      "loc ate",
      "ken tu",
      "after noon",
      "pur chase",
      "sep tember",
      "fog gy",
      "dou glas",
      "dick inson",
      "dece mber",
      "batt le",
      "rele ase",
      "4 0",
      "a las",
      "b ou",
      "b ist",
      "c is",
      "c en",
      "e se",
      "f th",
      "f ri",
      "g ent",
      "k istan",
      "m ir",
      "n ge",
      "o y",
      "p s",
      "r ho",
      "s il",
      "s ant",
      "t ta",
      "w in",
      "w il",
      "z zer",
      "in i",
      "la dy",
      "to s",
      "is on",
      "sh all",
      "be y",
      "be ll",
      "ion s",
      "ma sh",
      "sa u",
      "ine a",
      "he aven",
      "no v",
      "pe ace",
      "da le",
      "go d",
      "con ne",
      "cine mark",
      "wa sh",
      "war d",
      "gr ound",
      "ru sh",
      "ru ary",
      "fa ce",
      "gu inea",
      "cla r",
      "br it",
      "nor thern",
      "ste in",
      "di p",
      "sun set",
      "pi zzer",
      "bri dge",
      "feb ruary",
      "gir ls",
      "geor ge",
      "rich ard",
      "jer sey",
      "ode on",
      "smo king",
      "instrument al",
      "carib bean",
      "kentu cky",
      "bist ro",
      "pizzer ia",
      "2 6",
      "3 0",
      "8 0",
      "9 0s",
      "a fr",
      "c oo",
      "d ia",
      "d ir",
      "f la",
      "g or",
      "g ri",
      "h an",
      "i la",
      "j ams",
      "k ind",
      "l unch",
      "o m",
      "o per",
      "u k",
      "v ic",
      "v ice",
      "y le",
      "th ur",
      "re la",
      "st o",
      "st re",
      "an n",
      "on a",
      "me ga",
      "al ter",
      "ic os",
      "ind ian",
      "sh ip",
      "en gl",
      "ra y",
      "be fore",
      "te mp",
      "ca ke",
      "lo t",
      "de law",
      "son s",
      "ir on",
      "ter s",
      "nove mber",
      "ct ic",
      "ha pp",
      "bo dy",
      "pub lic",
      "ton ight",
      "di o",
      "lou nge",
      "wal k",
      "202 4",
      "good rich",
      "ip s",
      "ris ing",
      "down town",
      "sp ir",
      "mu ch",
      "sevent een",
      "ric t",
      "jour ney",
      "disco graphy",
      "elect ronic",
      "jon es",
      "rad io",
      "gener al",
      "clu b",
      "swee t",
      "histor ic",
      "legen d",
      "oy ster",
      "alter nat",
      "delaw are",
      "a po",
      "a so",
      "a stern",
      "c li",
      "c ing",
      "d or",
      "d ar",
      "d ur",
      "d ades",
      "e uro",
      "f ed",
      "f ly",
      "f oot",
      "g g",
      "h is",
      "h ark",
      "i me",
      "i ko",
      "j es",
      "p he",
      "s qu",
      "v inc",
      "w all",
      "th y",
      "re turn",
      "la y",
      "se x",
      "mo s",
      "ic tion",
      "ro ss",
      "ro bin",
      "it led",
      "po t",
      "ca mp",
      "ta les",
      "ma ster",
      "de s",
      "am or",
      "am use",
      "um p",
      "cast le",
      "es cape",
      "da u",
      "ty pe",
      "un i",
      "ver mont",
      "vi bes",
      "nove dades",
      "ct ed",
      "per s",
      "wor d",
      "new s",
      "mon te",
      "bo x",
      "cre am",
      "fa vor",
      "gre n",
      "ten nes",
      "su ena",
      "au g",
      "au stra",
      "ak i",
      "way s",
      "ent itled",
      "col um",
      "203 0",
      "rain y",
      "americ a",
      "thir d",
      "ker aso",
      "200 3",
      "ris e",
      "ya ma",
      "cle an",
      "bri an",
      "lor d",
      "spr ings",
      "dra gon",
      "colle ction",
      "eleven ses",
      "cent ury",
      "hu nt",
      "bro ther",
      "bill y",
      "tim ate",
      "mill s",
      "secre t",
      "myster y",
      "color ado",
      "alas ka",
      "dip son",
      "coo per",
      "rela x",
      "mega plex",
      "engl ish",
      "temp s",
      "spir it",
      "hark ins",
      "amuse ments",
      "tennes see",
      "keraso tes",
      ". .",
      "2 7",
      "7 0s",
      "a ss",
      "c ed",
      "c ri",
      "c ould",
      "d d",
      "d ing",
      "f ant",
      "h en",
      "i th",
      "i owa",
      "j am",
      "l an",
      "l ow",
      "m r",
      "m ind",
      "n ic",
      "n ig",
      "n ice",
      "o la",
      "p litt",
      "r hy",
      "s ia",
      "s ister",
      "u d",
      "u nt",
      "w an",
      "at ure",
      "re public",
      "st ron",
      "st ers",
      "or ig",
      "er son",
      "is m",
      "me mor",
      "al y",
      "ch ine",
      "ch ips",
      "ne l",
      "ind iana",
      "sh ort",
      "it ar",
      "en g",
      "and re",
      "rat ion",
      "ra m",
      "be ar",
      "be au",
      "rate s",
      "ts u",
      "co p",
      "he ll",
      "he ights",
      "music a",
      "pu er",
      "ho l",
      "20 20",
      "go t",
      "con f",
      "con sin",
      "mar cus",
      "per fect",
      "do g",
      "war ren",
      "ron esia",
      "jo se",
      "ul t",
      "cla s",
      "stor ies",
      "ark ansas",
      "pre ss",
      "ste ve",
      "seven th",
      "202 6",
      "rain fall",
      "john ny",
      "fall s",
      "ex i",
      "195 8",
      "197 5",
      "cle ar",
      "sea son",
      "sup per",
      "mic ronesia",
      "bir th",
      "break fast",
      "ale x",
      "virgin ia",
      "wis consin",
      "rober t",
      "won der",
      "member s",
      "fam ily",
      "found ation",
      "tex as",
      "holly wood",
      "rho de",
      "bey ond",
      "wash ington",
      "happ y",
      "fed er",
      "vinc ent",
      "dau ghter",
      "0 7",
      "4 3",
      "8 th",
      "c ou",
      "c ie",
      "c tu",
      "d am",
      "e f",
      "e li",
      "f ra",
      "g ate",
      "g ers",
      "h ind",
      "j r",
      "k ansas",
      "m t",
      "m il",
      "m un",
      "n v",
      "p ick",
      "r an",
      "r ou",
      "r al",
      "s li",
      "w ed",
      "w en",
      "y es",
      "th or",
      "at a",
      "at o",
      "st in",
      "st op",
      "an ish",
      "to ur",
      "to do",
      "ar c",
      "le g",
      "le on",
      "le ne",
      "for nia",
      "li ber",
      "ve ne",
      "al and",
      "se ll",
      "se lf",
      "ch am",
      "ne so",
      "ro s",
      "sh ine",
      "ant ic",
      "we re",
      "rom ance",
      "ser vice",
      "show case",
      "ca o",
      "lo g",
      "us ing",
      "de ep",
      "our i",
      "co re",
      "wi fe",
      "da wn",
      "pa lau",
      "un ion",
      "fe ar",
      "con solid",
      "vi val",
      "mar iana",
      "ph il",
      "ue l",
      "wa ve",
      "si an",
      "fil m",
      "min neso",
      "bo b",
      "bo s",
      "sound s",
      "int on",
      "showing s",
      "ul timate",
      "gu y",
      "gu itar",
      "su d",
      "br own",
      "any where",
      "fr an",
      "thir teen",
      "fu nt",
      "tit le",
      "fif th",
      "fif ty",
      "sp anish",
      "mid day",
      "temper ature",
      "san ctu",
      "dra fth",
      "elect ro",
      "fin ite",
      "hand s",
      "dig ster",
      "ala mo",
      "braz ilian",
      "volu me",
      "willi ams",
      "cali fornia",
      "louis iana",
      "poss ible",
      "conne ctic",
      "euro pe",
      "colum bia",
      "consolid ated",
      "minneso ta",
      "sanctu ary",
      "drafth ouse",
      "connectic ut",
      "a i",
      "b ie",
      "c ia",
      "c ru",
      "c enter",
      "d le",
      "d ate",
      "e ne",
      "e vil",
      "f on",
      "f le",
      "g ie",
      "g al",
      "i er",
      "k an",
      "k it",
      "k iss",
      "l lo",
      "l ate",
      "l ish",
      "m d",
      "n in",
      "n ick",
      "o ce",
      "p an",
      "p ie",
      "p ed",
      "r ing",
      "s mi",
      "s ara",
      "s mash",
      "t n",
      "v y",
      "v ity",
      "y lor",
      "the y",
      "re al",
      "st al",
      "st yle",
      "on s",
      "to o",
      "er y",
      "me llow",
      "li ty",
      "li ving",
      "ch u",
      "ch ig",
      "ind on",
      "ant s",
      "en s",
      "en ce",
      "find s",
      "po li",
      "po ly",
      "ca s",
      "lo ad",
      "lo vers",
      "ta ylor",
      "ma la",
      "de lic",
      "am ount",
      "ation s",
      "co bb",
      "he av",
      "tra in",
      "so m",
      "par amount",
      "ri dge",
      "cal l",
      "cal m",
      "pa rent",
      "un a",
      "fe st",
      "fe ver",
      "go es",
      "ver se",
      "four teen",
      "ba ma",
      "ph i",
      "ph in",
      "si g",
      "land mark",
      "mon day",
      "jo y",
      "bo t",
      "tal k",
      "bu ild",
      "che ese",
      "203 2",
      "203 3",
      "203 5",
      "dist rict",
      "bur n",
      "thir ty",
      "cha p",
      "200 0",
      "har ry",
      "199 9",
      "lake s",
      "latin o",
      "du b",
      "bor ough",
      "ates sen",
      "bir d",
      "concer t",
      "dre am",
      "frie d",
      "dr ive",
      "miss ouri",
      "gl ory",
      "run ning",
      "sat ur",
      "secre ts",
      "ien ce",
      "cl inton",
      "sco tt",
      "advent ures",
      "fus ion",
      "dur ing",
      "nig er",
      "rhy th",
      "feder ated",
      "delic atessen",
      "heav y",
      "4 8",
      "8 0s",
      "a ke",
      "a part",
      "b ed",
      "b us",
      "b our",
      "b io",
      "c up",
      "d c",
      "d al",
      "e th",
      "e ver",
      "f at",
      "f red",
      "g il",
      "g lo",
      "i ro",
      "i wan",
      "k b",
      "k in",
      "k ed",
      "k ill",
      "k ir",
      "k itch",
      "l ind",
      "m oo",
      "m and",
      "m ine",
      "n h",
      "n on",
      "o le",
      "o va",
      "p t",
      "r d",
      "r ie",
      "s d",
      "s lo",
      "s im",
      "s day",
      "s word",
      "t ing",
      "t ch",
      "z am",
      "th row",
      "at ar",
      "st an",
      "st ill",
      "on ce",
      "la m",
      "la ho",
      "la und",
      "ar ab",
      "ar gent",
      "is le",
      "me t",
      "for cast",
      "of t",
      "al ways",
      "se l",
      "ch ina",
      "ne ver",
      "ne bras",
      "ed ition",
      "ro b",
      "ro d",
      "ro y",
      "be e",
      "be th",
      "te ch",
      "lo ck",
      "ck s",
      "ti vity",
      "ke l",
      "ta m",
      "ta il",
      "ma re",
      "fo cus",
      "co ck",
      "ga s",
      "par is",
      "da ve",
      "20 10",
      "ri b",
      "ri x",
      "ri or",
      "pa th",
      "con o",
      "ba ss",
      "ba jo",
      "hear ts",
      "do m",
      "ha w",
      "war s",
      "war rior",
      "min o",
      "pr inc",
      "vil la",
      "su per",
      "su gar",
      "ig n",
      "10 th",
      "ton y",
      "br ing",
      "six teen",
      "di am",
      "201 1",
      "201 5",
      "203 8",
      "202 1",
      "202 2",
      "202 3",
      "202 5",
      "202 7",
      "202 8",
      "ac tivity",
      "bur y",
      "com ple",
      "ex per",
      "je ff",
      "199 1",
      "pi zz",
      "spa in",
      "bon a",
      "ric o",
      "tr an",
      "cent ral",
      "mont ana",
      "child ren",
      "fer n",
      "eigh th",
      "braz il",
      "cher ry",
      "fri day",
      "sant iko",
      "clar k",
      "afr ican",
      "thur sday",
      "alternat ive",
      "favor ite",
      "austra lia",
      "clean ing",
      "stron g",
      "orig in",
      "puer to",
      "clas icos",
      "arc light",
      "funt ime",
      "parent s",
      "rhyth m",
      "glo bal",
      "laund ry",
      "nebras ka",
      "santiko s",
      "9 0",
      "a z",
      "a bo",
      "b at",
      "b is",
      "b one",
      "b un",
      "b ul",
      "c ation",
      "c ess",
      "d ine",
      "d ue",
      "e mo",
      "e co",
      "e mp",
      "f ur",
      "f lo",
      "f ight",
      "f lor",
      "g us",
      "h ang",
      "h oney",
      "i x",
      "i mo",
      "k ur",
      "k im",
      "k ers",
      "k ina",
      "k tor",
      "m ou",
      "m ur",
      "m it",
      "m att",
      "n c",
      "n j",
      "o ster",
      "o reg",
      "p w",
      "p per",
      "s x",
      "s cre",
      "s ite",
      "s ville",
      "t z",
      "u ch",
      "u ki",
      "v ina",
      "w it",
      "w yo",
      "x o",
      "y er",
      "th ie",
      "in form",
      "in finite",
      "the ory",
      "re r",
      "re li",
      "re tro",
      "re view",
      "re mix",
      "re vival",
      "st at",
      "st el",
      "st ru",
      "er ra",
      "ar iz",
      "le an",
      "play s",
      "is ha",
      "li l",
      "ie l",
      "ad ines",
      "wh it",
      "mo date",
      "ed e",
      "ed en",
      "it a",
      "ant e",
      "ser bia",
      "te ars",
      "by e",
      "ca m",
      "ca me",
      "lo pe",
      "ck e",
      "ck en",
      "ill ino",
      "ke t",
      "ke ep",
      "ma chine",
      "am p",
      "he at",
      "es sent",
      "current ly",
      "ga y",
      "ga ve",
      "no ise",
      "pe ter",
      "tu n",
      "ho li",
      "ho ly",
      "20 19",
      "ir s",
      "with out",
      "pa ss",
      "ver ano",
      "four th",
      "as sa",
      "ba ch",
      "ue la",
      "anim al",
      "mi chig",
      "do min",
      "do ctor",
      "ber g",
      "war ds",
      "bo ys",
      "lu c",
      "if er",
      "ers ville",
      "pr ice",
      "cla y",
      "ep ic",
      "thing s",
      "mp son",
      "wo lf",
      "203 6",
      "203 7",
      "sy l",
      "good bye",
      "ac com",
      "gle n",
      "thir teenth",
      "fu ll",
      "jan e",
      "que st",
      "gen re",
      "ex pe",
      "je an",
      "je ct",
      "199 3",
      "199 7",
      "ger man",
      "pro vin",
      "don ald",
      "195 1",
      "195 9",
      "reg al",
      "197 0",
      "ction s",
      "dan cing",
      "christ ian",
      "colle ge",
      "tho mas",
      "tho mpson",
      "bor n",
      "spe ake",
      "ap ple",
      "wel come",
      "em ily",
      "stu ff",
      "dre ams",
      "jun ction",
      "ok laho",
      "med it",
      "mary land",
      "fair y",
      "dark ness",
      "rus sia",
      "ku wait",
      "ala bama",
      "bru ce",
      "brook lyn",
      "friend s",
      "cr own",
      "psy ch",
      "uni verse",
      "gren adines",
      "cop y",
      "jose ph",
      "alex and",
      "pick s",
      "fran cis",
      "europe an",
      "oce an",
      "sara h",
      "phi li",
      "satur day",
      "kitch en",
      "throw back",
      "comple te",
      "origin al",
      "oster ia",
      "sx sw",
      "ariz ona",
      "illino is",
      "essent ial",
      "michig an",
      "accom modate",
      "provin cial",
      "speake asy",
      "oklaho ma",
      "0 6",
      "4 5",
      "7 th",
      "a g",
      "a ger",
      "b ound",
      "b road",
      "c ow",
      "c one",
      "c ir",
      "c ul",
      "d oo",
      "d ies",
      "d ian",
      "d ish",
      "e er",
      "e van",
      "e cono",
      "f t",
      "f ron",
      "f iction",
      "g un",
      "g ary",
      "h on",
      "h ou",
      "h us",
      "h ong",
      "i or",
      "i le",
      "j ar",
      "k h",
      "k ick",
      "l is",
      "l se",
      "m is",
      "m ie",
      "m ist",
      "m ade",
      "m jr",
      "n um",
      "p il",
      "p sh",
      "p ig",
      "p tion",
      "s ie",
      "s ad",
      "s ion",
      "s oft",
      "t il",
      "t ic",
      "t ron",
      "u g",
      "u z",
      "u la",
      "u cation",
      "v ar",
      "v ad",
      "v ol",
      "w ine",
      "w inn",
      "w right",
      "w rit",
      "w anda",
      "z ard",
      "z uela",
      "in no",
      "the m",
      "the astern",
      "at u",
      "at ta",
      "re me",
      "re cre",
      "st ri",
      "an ni",
      "la zy",
      "or i",
      "or gan",
      "to go",
      "er n",
      "le o",
      "le st",
      "li on",
      "li es",
      "al len",
      "se ssion",
      "ch ica",
      "ad y",
      "ad am",
      "ad ise",
      "wh is",
      "ne ther",
      "ne gro",
      "ow een",
      "ic es",
      "ed ucation",
      "ro lean",
      "ind ia",
      "sh op",
      "my th",
      "ra ine",
      "be g",
      "be ck",
      "be ast",
      "we stern",
      "po e",
      "po lit",
      "ser t",
      "ser vation",
      "show n",
      "ca sh",
      "ca sa",
      "lo ves",
      "ke vin",
      "ta le",
      "ma li",
      "ma ine",
      "ma id",
      "ge ne",
      "co ver",
      "can cion",
      "tra bajo",
      "ble s",
      "cur a",
      "pu re",
      "pe t",
      "pe ar",
      "alb ania",
      "wi ch",
      "wi zard",
      "par adise",
      "da s",
      "da vis",
      "da ily",
      "20 th",
      "ir ish",
      "ty rolean",
      "ri ble",
      "ri ley",
      "pa la",
      "pa ssion",
      "un ge",
      "ver a",
      "ter ror",
      "ba b",
      "ba i",
      "ba st",
      "mar t",
      "mar shall",
      "na ked",
      "si p",
      "ber t",
      "ber ry",
      "war ning",
      "ry an",
      "game s",
      "gra m",
      "gra ss",
      "car ter",
      "dy ing",
      "pr of",
      "ep is",
      "su nd",
      "su dan",
      "twen tie",
      "king s",
      "bu sh",
      "pre sent",
      "six th",
      "201 2",
      "201 8",
      "202 9",
      "bur kina",
      "fall ing",
      "sun rise",
      "200 2",
      "200 6",
      "200 7",
      "200 9",
      "ky o",
      "har ris",
      "199 6",
      "cu t",
      "pi er",
      "pro ject",
      "195 4",
      "197 3",
      "mid dle",
      "sen s",
      "ballad s",
      "att ic",
      "ham psh",
      "198 1",
      "196 2",
      "196 4",
      "196 6",
      "tre s",
      "tre y",
      "spe ed",
      "read ing",
      "bir ds",
      "fie sta",
      "just ice",
      "sur face",
      "come dy",
      "nu clear",
      "str ing",
      "cross road",
      "hall oween",
      "sand wich",
      "volu tion",
      "total ly",
      "wait ing",
      "advent ure",
      "shad ow",
      "shad ows",
      "hero es",
      "release d",
      "release s",
      "sil ver",
      "dir ty",
      "foot ball",
      "squ are",
      "monte negro",
      "hunt er",
      "unt il",
      "memor ial",
      "andre w",
      "exi tos",
      "vene zuela",
      "arab ia",
      "princ ess",
      "diam ond",
      "flor ida",
      "hang ing",
      "oreg on",
      "wyo ming",
      "inform ation",
      "psych ede",
      "hus band",
      "recre ation",
      "nether lands",
      "twentie th",
      "hampsh ire",
      "9 th",
      "a ver",
      "a gu",
      "a va",
      "a gue",
      "a wards",
      "b h",
      "b by",
      "b pm",
      "b ank",
      "c ook",
      "c it",
      "c um",
      "c oney",
      "d ow",
      "d ic",
      "d id",
      "d iction",
      "e ter",
      "e astern",
      "e yes",
      "f ro",
      "g at",
      "g ur",
      "g ed",
      "g ill",
      "g if",
      "g ard",
      "g ang",
      "h att",
      "i ra",
      "i ma",
      "j ere",
      "k land",
      "k ha",
      "l antic",
      "m ight",
      "m ute",
      "n th",
      "n ar",
      "n ard",
      "n ich",
      "p in",
      "p ion",
      "p ine",
      "p ly",
      "p lu",
      "p ton",
      "p reserve",
      "r um",
      "r ia",
      "r ound",
      "r ice",
      "r andy",
      "s ir",
      "s burg",
      "t wi",
      "t ry",
      "u de",
      "u atu",
      "v on",
      "v ick",
      "v ak",
      "w v",
      "y d",
      "y on",
      "z aki",
      "th ic",
      "th ous",
      "in corpor",
      "the o",
      "at ing",
      "at ive",
      "at ia",
      "st and",
      "an son",
      "on i",
      "la de",
      "or phin",
      "to w",
      "to uch",
      "to kyo",
      "er ness",
      "le igh",
      "play ed",
      "is sip",
      "me et",
      "for ce",
      "li gh",
      "li ves",
      "ie nt",
      "ch as",
      "ch ange",
      "ad ian",
      "wh e",
      "ne o",
      "ne v",
      "il and",
      "mo ld",
      "ic ial",
      "ur a",
      "ur as",
      "book ing",
      "ed ge",
      "ed die",
      "ind ies",
      "sh in",
      "sh am",
      "sh oot",
      "it al",
      "add y",
      "en cy",
      "and erson",
      "rat s",
      "ra il",
      "be kistan",
      "be hind",
      "nt c",
      "ca re",
      "lo ving",
      "ti an",
      "ta h",
      "ta iwan",
      "ma in",
      "ma sa",
      "ma king",
      "gh an",
      "de a",
      "de sert",
      "ge s",
      "co s",
      "co ve",
      "co ast",
      "co mes",
      "tra p",
      "tra cion",
      "tra vel",
      "pu a",
      "so ph",
      "so ci",
      "ga bon",
      "no va",
      "nd a",
      "par c",
      "ood le",
      "ho pe",
      "20 40",
      "ia ble",
      "ir ie",
      "ll s",
      "pa y",
      "pa in",
      "pa st",
      "pa pua",
      "un k",
      "go la",
      "con s",
      "con cen",
      "con servation",
      "ver de",
      "as ia",
      "ba chel",
      "vi an",
      "vi ola",
      "mar ine",
      "man ia",
      "man age",
      "man hatt",
      "na sh",
      "na than",
      "mi chel",
      "mi ami",
      "ha wa",
      "mon go",
      "lu lla",
      "if fe",
      "gra y",
      "ye llow",
      "car dio",
      "gre g",
      "gre y",
      "gu ay",
      "id er",
      "cor n",
      "ish ed",
      "king dom",
      "love d",
      "ko rea",
      "chronicle s",
      "night mare",
      "work s",
      "high way",
      "br ad",
      "br and",
      "br unch",
      "mor tal",
      "mor ris",
      "six teenth",
      "ele ph",
      "ste ven",
      "any thing",
      "col ate",
      "col ony",
      "201 3",
      "201 4",
      "203 9",
      "fr ance",
      "nes ia",
      "wal tz",
      "qu a",
      "qu o",
      "use t",
      "ren ce",
      "fli ght",
      "sun shine",
      "wild erness",
      "cha os",
      "200 8",
      "har ve",
      "ci lity",
      "ex press",
      "van uatu",
      "world s",
      "195 2",
      "down load",
      "roo ts",
      "sc ience",
      "ze aland",
      "197 4",
      "ang ry",
      "lon don",
      "sen se",
      "end orphin",
      "gar age",
      "hum an",
      "tr ou",
      "punk s",
      "sha ke",
      "198 8",
      "eleven th",
      "tre at",
      "grand father",
      "sing er",
      "tom my",
      "ap p",
      "step s",
      "lie f",
      "green land",
      "elect ric",
      "pur ple",
      "who le",
      "mounta ins",
      "dre ss",
      "dr um",
      "bro ken",
      "fin al",
      "hor n",
      "hor se",
      "miss issip",
      "char les",
      "char lie",
      "reggae ton",
      "cho colate",
      "beat s",
      "tan z",
      "nu ts",
      "sal vad",
      "eigh teen",
      "18 th",
      "pal y",
      "pra ct",
      "pra irie",
      "rick y",
      "blo ck",
      "cry stal",
      "poss iable",
      "aga in",
      "aga inst",
      "fal kland",
      "psy cho",
      "bet ty",
      "24 th",
      "wil son",
      "sau di",
      "peace ful",
      "brit ish",
      "dir t",
      "gri me",
      "uk raine",
      "stre ss",
      "cli ff",
      "relax ing",
      ".. .",
      "ass ign",
      "nel son",
      "hol mes",
      "wonder ing",
      "ene my",
      "indon esia",
      "poly nesia",
      "build ing",
      "dub step",
      "bio graphy",
      "moo re",
      "slo vak",
      "zam bia",
      "rib bon",
      "haw k",
      "villa ge",
      "pizz a",
      "due tos",
      "mou th",
      "lope z",
      "phili p",
      "essential s",
      "econo mic",
      "uz bekistan",
      "poe ms",
      "cancion es",
      "bast ian",
      "sund ay",
      "pier re",
      "psychede lic",
      "thous and",
      "incorpor ate",
      "ency clo",
      "concen tracion",
      "bachel or",
      "manage ment",
      "manhatt an",
      "lulla by",
      "mississip pi",
      "salvad or",
      "0 3",
      "0 9",
      "0 0s",
      "2 8",
      "3 rd",
      "4 th",
      "a ble",
      "a ct",
      "b it",
      "b am",
      "b ase",
      "c in",
      "c ant",
      "c and",
      "c row",
      "d ers",
      "d ang",
      "d ough",
      "e a",
      "e u",
      "e st",
      "e xt",
      "e ye",
      "e qu",
      "f ry",
      "f inn",
      "g s",
      "g ing",
      "g ion",
      "g io",
      "g ates",
      "h un",
      "h ick",
      "h ank",
      "h ond",
      "h anna",
      "h illa",
      "i do",
      "i ment",
      "k re",
      "k or",
      "k il",
      "k no",
      "k night",
      "k ong",
      "l one",
      "l isa",
      "m n",
      "m ul",
      "n m",
      "n s",
      "n an",
      "n ur",
      "n ights",
      "o d",
      "o ly",
      "o mi",
      "o ak",
      "p ow",
      "p it",
      "p rom",
      "p lo",
      "p es",
      "q atar",
      "r ane",
      "s or",
      "s wa",
      "s ings",
      "t x",
      "t le",
      "t us",
      "t rent",
      "t ory",
      "t row",
      "t gif",
      "u ca",
      "u ba",
      "u ment",
      "v d",
      "v la",
      "v ive",
      "v as",
      "v amp",
      "w ing",
      "w are",
      "w ick",
      "w itch",
      "x ion",
      "y am",
      "y ang",
      "z im",
      "z uki",
      "th under",
      "in ho",
      "the l",
      "at i",
      "at mos",
      "re x",
      "re an",
      "re ed",
      "re search",
      "re member",
      "re volution",
      "st ation",
      "st own",
      "an mar",
      "on line",
      "er a",
      "er i",
      "er nes",
      "ar i",
      "ar men",
      "ar thur",
      "ar uba",
      "le nt",
      "le so",
      "le che",
      "le wis",
      "play lis",
      "me at",
      "li m",
      "li ta",
      "ve t",
      "al one",
      "al ley",
      "se ed",
      "ch in",
      "ch and",
      "ch ten",
      "ch uset",
      "ad el",
      "wh y",
      "wh ile",
      "ne i",
      "il ton",
      "il les",
      "mo m",
      "mo der",
      "mo ments",
      "ur b",
      "ed it",
      "ro bot",
      "ind u",
      "sh oo",
      "sh el",
      "it i",
      "it s",
      "it ali",
      "list s",
      "my anmar",
      "ra re",
      "ra ce",
      "be ard",
      "playlist s",
      "we s",
      "po ke",
      "ion al",
      "ive s",
      "rom ania",
      "ser ve",
      "ser rat",
      "te ach",
      "te ctive",
      "ca y",
      "ca led",
      "ca ir",
      "ca ss",
      "ca icos",
      "ca mino",
      "ck er",
      "ke e",
      "ke ll",
      "ke ys",
      "out law",
      "ma ar",
      "ma ur",
      "ma ss",
      "ma ker",
      "ma sters",
      "ma kers",
      "ma vera",
      "de an",
      "de stin",
      "de tective",
      "sa ve",
      "sa il",
      "sa chuset",
      "ine tte",
      "ple as",
      "ge ther",
      "co le",
      "co lo",
      "co ll",
      "he al",
      "he ath",
      "he len",
      "can ada",
      "can adian",
      "music al",
      "sch u",
      "tra ve",
      "tra it",
      "pu lse",
      "so c",
      "so s",
      "so ld",
      "so cie",
      "song z",
      "no te",
      "no el",
      "ce lon",
      "pe l",
      "pe ak",
      "tu gal",
      "ho m",
      "ir ma",
      "ri de",
      "cal y",
      "pa per",
      "pa ste",
      "pa kistan",
      "ree ned",
      "go ds",
      "go iano",
      "go vina",
      "go thic",
      "con cent",
      "ba th",
      "ba con",
      "vi o",
      "vi or",
      "vi ernes",
      "mar ty",
      "ph en",
      "ph eric",
      "get ting",
      "man a",
      "wa ke",
      "ber ville",
      "ber mu",
      "min ator",
      "mon ster",
      "mon ument",
      "bo li",
      "bo ts",
      "bo ss",
      "lu x",
      "lu is",
      "lu ck",
      "gr ill",
      "cre w",
      "bar bar",
      "bar celon",
      "sou theastern",
      "gra ce",
      "spot light",
      "ye tte",
      "fa ct",
      "fa cility",
      "ul tra",
      "wat ers",
      "gu am",
      "gu ern",
      "id ence",
      "cor ner",
      "far ian",
      "su it",
      "su cks",
      "nine teen",
      "por ts",
      "por tugal",
      "rock s",
      "week end",
      "lar d",
      "lar ia",
      "bu lo",
      "ko rean",
      "pre fect",
      "mor gan",
      "ele na",
      "ste am",
      "zz y",
      "di ary",
      "203 1",
      "sy ste",
      "sy nth",
      "teen ager",
      "iv a",
      "wal ker",
      "ire s",
      "bur ke",
      "bur ger",
      "bl ind",
      "qu ier",
      "reserve d",
      "rain storm",
      "rain bow",
      "200 1",
      "200 4",
      "200 5",
      "off ice",
      "off icial",
      "com mon",
      "com mute",
      "fif teen",
      "fif teenth",
      "os aur",
      "199 0",
      "pi ra",
      "pi rates",
      "bre ed",
      "soul s",
      "soul ful",
      "mas sachuset",
      "af ghan",
      "195 7",
      "sc reened",
      "vo ices",
      "ze govina",
      "197 2",
      "197 6",
      "mu st",
      "her zegovina",
      "mc donald",
      "tur ks",
      "bon es",
      "ric ane",
      "ane t",
      "ane se",
      "blu ff",
      "sta in",
      "jazz y",
      "bri de",
      "cour se",
      "gar rix",
      "tr ance",
      "death core",
      "inter national",
      "ham ilton",
      "ange la",
      "after work",
      "fi ji",
      "sea food",
      "tru th",
      "196 5",
      "colle ctive",
      "cro atia",
      "cra b",
      "cra sh",
      "fun ky",
      "sing les",
      "den ce",
      "den mark",
      "spe cial",
      "13 th",
      "din osaur",
      "ys ia",
      "read y",
      "lie chten",
      "paul inho",
      "stu dy",
      "hip ster",
      "mont serrat",
      "ear ly",
      "dec ade",
      "hy pe",
      "fin land",
      "hor ror",
      "jor dan",
      "bb ie",
      "pat rick",
      "vers ity",
      "fl ow",
      "jer ry",
      "rus sian",
      "sat an",
      "ode s",
      "other s",
      "str ange",
      "cap es",
      "eigh teenth",
      "oh io",
      "bru nei",
      "ost s",
      "tar get",
      "boo ts",
      "cat ch",
      "pal m",
      "pri mavera",
      "ator ial",
      "instrument als",
      "gro ve",
      "jen n",
      "jen nie",
      "sco re",
      "rober to",
      "myster ious",
      "sam my",
      "ming o",
      "hur ricane",
      "jim my",
      "ash ley",
      "pl anet",
      "ted dy",
      "sele ktor",
      "mir ror",
      "oper a",
      "seventeen th",
      "gg ed",
      "monte rey",
      "dragon s",
      "conf idence",
      "birth day",
      "wonder ful",
      "cou ple",
      "eli za",
      "ran ch",
      "wed ding",
      "liber ty",
      "bos nia",
      "sud den",
      "sud america",
      "fon si",
      "llo yd",
      "nin os",
      "nick y",
      "ped ia",
      "smi th",
      "poli ce",
      "mala ysia",
      "train ing",
      "chap ter",
      "cup cake",
      "argent ina",
      "tech no",
      "bona ire",
      "scre en",
      "thie ves",
      "reli gion",
      "cam bo",
      "holi day",
      "luc iano",
      "glen n",
      "cone xion",
      "winn ie",
      "atta ck",
      "session s",
      "chica go",
      "bab we",
      "present s",
      "eter nal",
      "ligh ts",
      "nev ada",
      "mold ova",
      "cons pira",
      "trou ble",
      "tanz ania",
      "slovak ia",
      "encyclo pedia",
      "equ atorial",
      "hond uras",
      "hilla ry",
      "zim babwe",
      "atmos pheric",
      "leso tho",
      "moder n",
      "itali an",
      "poke mon",
      "socie ty",
      "paste laria",
      "concent ration",
      "bermu da",
      "barcelon a",
      "guern sey",
      "prefect ural",
      "massachuset ts",
      "liechten stein",
      "conexion es",
      "1 st",
      "2 nd",
      "3 3",
      "3 5",
      "4 4",
      "4 7",
      "5 2",
      "5 5",
      "5 6",
      "5 th",
      "6 th",
      "a o",
      "a w",
      "a x",
      "a pe",
      "a pa",
      "a zer",
      "a sha",
      "a more",
      "a ward",
      "b la",
      "b um",
      "b last",
      "b id",
      "b ute",
      "b ster",
      "b ite",
      "b ang",
      "b ryan",
      "c c",
      "c can",
      "c ies",
      "c id",
      "c ci",
      "c ze",
      "c cion",
      "c ena",
      "d iffe",
      "e ve",
      "e ll",
      "e mi",
      "e mer",
      "e gy",
      "e asy",
      "f en",
      "f ist",
      "g n",
      "g ne",
      "g ic",
      "g it",
      "g are",
      "g lu",
      "g lor",
      "g lia",
      "h l",
      "h ad",
      "h man",
      "i to",
      "i op",
      "j ing",
      "j ess",
      "k is",
      "k ia",
      "k as",
      "k ent",
      "k rist",
      "k ni",
      "k han",
      "l ane",
      "l leg",
      "m h",
      "m igh",
      "m ood",
      "m ouse",
      "m im",
      "m ate",
      "m und",
      "m ister",
      "m oney",
      "n ad",
      "n am",
      "n im",
      "n ico",
      "n syl",
      "n oodle",
      "o b",
      "o z",
      "o on",
      "o me",
      "o li",
      "o my",
      "o man",
      "o soph",
      "p on",
      "p se",
      "p latin",
      "p ump",
      "s la",
      "s ar",
      "s us",
      "s ri",
      "s na",
      "s int",
      "s cor",
      "s ard",
      "s ins",
      "s ki",
      "s lau",
      "s ku",
      "s cream",
      "s low",
      "s mart",
      "t all",
      "t ara",
      "u x",
      "u al",
      "u ine",
      "u ct",
      "u tah",
      "v ine",
      "v ate",
      "v sky",
      "w u",
      "w ise",
      "w anna",
      "x ian",
      "x plo",
      "y u",
      "y ana",
      "z art",
      "z om",
      "th r",
      "th u",
      "th in",
      "th ra",
      "th ony",
      "in ian",
      "in ye",
      "in fus",
      "the n",
      "the s",
      "the se",
      "at ra",
      "re c",
      "re be",
      "re ck",
      "re ma",
      "re de",
      "re tta",
      "re union",
      "re lief",
      "re vive",
      "st ing",
      "st rict",
      "an i",
      "an to",
      "an ian",
      "an gola",
      "an thony",
      "on ic",
      "la l",
      "la ure",
      "la os",
      "or s",
      "or ra",
      "or che",
      "to dd",
      "to gether",
      "ar lene",
      "pla gue",
      "le m",
      "le ta",
      "le na",
      "le ban",
      "le iro",
      "is n",
      "is ia",
      "is ley",
      "me e",
      "me re",
      "me mo",
      "me nd",
      "ie d",
      "ve z",
      "al ta",
      "al ty",
      "al ger",
      "se ne",
      "se nd",
      "se tt",
      "se du",
      "se bastian",
      "ch ing",
      "ch ow",
      "ch en",
      "ch ance",
      "ch op",
      "ch ang",
      "ch anne",
      "ch anson",
      "ad s",
      "ad u",
      "ne vis",
      "il o",
      "il le",
      "il lo",
      "mo or",
      "mo to",
      "mo tion",
      "mo lly",
      "mo zart",
      "ur u",
      "ur ban",
      "ed ia",
      "ed na",
      "ed onia",
      "ro me",
      "ro sa",
      "ro ger",
      "ro ses",
      "ind a",
      "ind ep",
      "sh u",
      "sh ak",
      "it es",
      "it zer",
      "it aly",
      "ant ica",
      "ant illes",
      "en amor",
      "and orra",
      "ra ge",
      "be ver",
      "be ha",
      "be lie",
      "be tan",
      "be aver",
      "we b",
      "we en",
      "po ld",
      "po et",
      "rom antic",
      "rom antica",
      "ser ge",
      "te e",
      "show stop",
      "ca ve",
      "ca mar",
      "ca mer",
      "lo bster",
      "ck et",
      "ill y",
      "ti mor",
      "ke s",
      "ta king",
      "ta ker",
      "ta ji",
      "ma ma",
      "ma son",
      "ma lia",
      "ma jor",
      "ma cao",
      "de b",
      "de ar",
      "de li",
      "de mo",
      "de ll",
      "sa b",
      "sa p",
      "sa ge",
      "sa fe",
      "am ber",
      "am ong",
      "am bie",
      "ge st",
      "ge ar",
      "co t",
      "co x",
      "co y",
      "co de",
      "he s",
      "he x",
      "can yon",
      "es ian",
      "es cap",
      "cur ious",
      "pu glia",
      "so l",
      "so ca",
      "so lu",
      "so vo",
      "so cial",
      "so malia",
      "ule s",
      "time less",
      "no c",
      "ce l",
      "pe te",
      "pe ters",
      "par ade",
      "tu val",
      "ho le",
      "ho ld",
      "ho llow",
      "led ge",
      "ll ing",
      "ri o",
      "ri an",
      "tw in",
      "pa ge",
      "pa ula",
      "pa lest",
      "un g",
      "un plu",
      "you th",
      "con tra",
      "con go",
      "con tem",
      "con tin",
      "im mortal",
      "four teenth",
      "ba h",
      "ba go",
      "ba king",
      "vi da",
      "mar s",
      "mar ry",
      "mar ino",
      "ph one",
      "man uel",
      "zer i",
      "na omi",
      "anim als",
      "si erra",
      "si leiro",
      "land ing",
      "ven ge",
      "mi que",
      "wor ms",
      "wor ds",
      "do l",
      "do re",
      "do me",
      "do ing",
      "do mingo",
      "ber s",
      "ber ger",
      "min ist",
      "mon tre",
      "bo m",
      "bo th",
      "bo tt",
      "el la",
      "el li",
      "gr an",
      "gr unge",
      "cre ole",
      "bar bad",
      "up on",
      "sou vla",
      "gra ham",
      "ru g",
      "bra ve",
      "bra sileiro",
      "fa yette",
      "gre ss",
      "gre tch",
      "gu a",
      "id s",
      "cla se",
      "cond uct",
      "far m",
      "ten th",
      "ja c",
      "ja p",
      "ish ing",
      "au x",
      "au nt",
      "au thor",
      "ig s",
      "vis ible",
      "nine teenth",
      "por ary",
      "week ly",
      "bu d",
      "bu ff",
      "bu ccan",
      "ko sovo",
      "work day",
      "pre fer",
      "pre dic",
      "br ight",
      "mor oc",
      "ina me",
      "ele g",
      "ele ine",
      "nor folk",
      "ent re",
      "ent ity",
      "mp tion",
      "che mist",
      "di x",
      "wo l",
      "chill in",
      "chill out",
      "col n",
      "creat ures",
      "fr ies",
      "ka y",
      "ka ori",
      "wal ter",
      "ac ion",
      "ac ross",
      "ac cess",
      "bur gh",
      "metal sucks",
      "bl an",
      "bl on",
      "bl er",
      "ich i",
      "inn ing",
      "qu ant",
      "hit ch",
      "ren al",
      "john ston",
      "ab ly",
      "que z",
      "com fort",
      "gen uine",
      "wind ow",
      "wind ows",
      "lat via",
      "har a",
      "har t",
      "ci vil",
      "american a",
      "je wish",
      "199 4",
      "199 8",
      "van ia",
      "let ters",
      "bre s",
      "bre ad",
      "bre nda",
      "know ledge",
      "pro te",
      "pro vide",
      "dis ney",
      "sc and",
      "sc ri",
      "sp y",
      "your self",
      "ze ze",
      "mu gh",
      "her it",
      "ach es",
      "mc cra",
      "mc coy",
      "ade lic",
      "record s",
      "ali ce",
      "sta irs",
      "law rence",
      "11 th",
      "fre ak",
      "ni k",
      "ni ko",
      "dan iel",
      "sha w",
      "sha wn",
      "mag gie",
      "ange l",
      "ange les",
      "ange ls",
      "back ground",
      "198 2",
      "198 3",
      "198 4",
      "198 5",
      "198 6",
      "after clu",
      "tri bute",
      "under ground",
      "tre as",
      "grand es",
      "cra zy",
      "cra ft",
      "fun ny",
      "gam er",
      "sing apo",
      "mad ness",
      "mad ison",
      "mad eleine",
      "mic al",
      "sw eden",
      "sw itzer",
      "pur a",
      "stu art",
      "dre s",
      "jun ior",
      "tro pic",
      "tha iland",
      "max im",
      "ess ions",
      "jon ath",
      "ado be",
      "dec ades",
      "just in",
      "hy un",
      "lin coln"
    ]
  }
}