{
  "version": "1.0",
  "truncation": null,
  "padding": null,
  "added_tokens": [
    {
      "id": 0,
      "content": "[PAD]",
      "single_word": false,
      "lstrip": false,
      "rstrip": false,
      "normalized": false,
      "special": true
    },
    {
      "id": 1,
      "content": "[UNK]",
      "single_word": false,
      "lstrip": false,
      "rstrip": false,
      "normalized": false,
      "special": true
    },
    {
      "id": 2,
      "content": "[CLS]",
      "single_word": false,
      "lstrip": false,
      "rstrip": false,
      "normalized": false,
      "special": true
    },
    {
      "id": 3,
      "content": "[MASK]",
      "single_word": false,
      "lstrip": false,
      "rstrip": false,
      "normalized": false,
      "special": true
    }
  ],
  "normalizer": {
    "type": "BertNormalizer",
    "clean_text": true,
    "handle_chinese_chars": true,
    "strip_accents": true,
    "lowercase": true
  },
  "pre_tokenizer": {
    "type": "Whitespace"
  },
  "post_processor": null,
  "decoder": null,
  "model": {
    "type": "BPE",
    "dropout": null,
    "unk_token": "[UNK]",
    "continuing_subword_prefix": null,
    "end_of_word_suffix": null,
    "fuse_unk": false,
    "byte_fallback": false,
    "ignore_merges": false,
    "vocab": {
      "[PAD]": 0,
      "[UNK]": 1,
      "[CLS]": 2,
      "[MASK]": 3,
      "!": 4,
      "#": 5,
      "$": 6,
      "&": 7,
      "'": 8,
      "(": 9,
      ")": 10,
      "*": 11,
      "+": 12,
      ",": 13,
      "-": 14,
      ".": 15,
      "/": 16,
      "0": 17,
      "1": 18,
      "2": 19,
      "3": 20,
      "4": 21,
      "5": 22,
      "6": 23,
      "7": 24,
      "8": 25,
      "9": 26,
      ":": 27,
      ";": 28,
      "=": 29,
      "?": 30,
      "`": 31,
      "a": 32,
      "b": 33,
      "c": 34,
      "d": 35,
      "e": 36,
      "f": 37,
      "g": 38,
      "h": 39,
      "i": 40,
      "j": 41,
      "k": 42,
      "l": 43,
      "m": 44,
      "n": 45,
      "o": 46,
      "p": 47,
      "q": 48,
      "r": 49,
      "s": 50,
      "t": 51,
      "u": 52,
      "v": 53,
      "w": 54,
      "x": 55,
      "y": 56,
      "z": 57,
      "æ": 58,
      "th": 59,
      "in": 60,
      "an": 61,
      "er": 62,
      "re": 63,
      "en": 64,
      "the": 65,
      "at": 66,
      "on": 67,
      "ing": 68,
      "st": 69,
      "or": 70,
      "it": 71,
      "al": 72,
      "is": 73,
      "es": 74,
      "and": 75,
      "ou": 76,
      "ar": 77,
      "of": 78,
      "ly": 79,
      "to": 80,
      "ed": 81,
      "ic": 82,
      "le": 83,
      "as": 84,
      "om": 85,
      "il": 86,
      "ch": 87,
      "el": 88,
      "mo": 89,
      "ct": 90,
      "ent": 91,
      "ion": 92,
      "be": 93,
      "se": 94,
      "un": 95,
      "ve": 96,
      "im": 97,
      "that": 98,
      "ra": 99,
      "de": 100,
      "ul": 101,
      "lo": 102,
      "ab": 103,
      "gh": 104,
      "vi": 105,
      "for": 106,
      "ma": 107,
      "li": 108,
      "ce": 109,
      "ver": 110,
      "ro": 111,
      "ut": 112,
      "su": 113,
      "wh": 114,
      "com": 115,
      "wi": 116,
      "no": 117,
      "fil": 118,
      "ad": 119,
      "ri": 120,
      "with": 121,
      "ess": 122,
      "film": 123,
      "am": 124,
      "di": 125,
      "sh": 126,
      "ke": 127,
      "act": 128,
      "la": 129,
      "ge": 130,
      "its": 131,
      "ol": 132,
      "fe": 133,
      "out": 134,
      "movi": 135,
      "ir": 136,
      "you": 137,
      "ers": 138,
      "ex": 139,
      "one": 140,
      "po": 141,
      "ter": 142,
      "movie": 143,
      "con": 144,
      "ous": 145,
      "pe": 146,
      "od": 147,
      "per": 148,
      "um": 149,
      "ful": 150,
      "ne": 151,
      "sc": 152,
      "do": 153,
      "ght": 154,
      "so": 155,
      "ive": 156,
      "art": 157,
      "ck": 158,
      "this": 159,
      "are": 160,
      "all": 161,
      "ant": 162,
      "em": 163,
      "ation": 164,
      "ther": 165,
      "go": 166,
      "ap": 167,
      "wor": 168,
      "qu": 169,
      "ta": 170,
      "but": 171,
      "ill": 172,
      "ay": 173,
      "able": 174,
      "ure": 175,
      "ally": 176,
      "man": 177,
      "rom": 178,
      "us": 179,
      "pre": 180,
      "ur": 181,
      "ag": 182,
      "sp": 183,
      "ate": 184,
      "he": 185,
      "id": 186,
      "..": 187,
      "char": 188,
      "ity": 189,
      "ome": 190,
      "ell": 191,
      "pro": 192,
      "we": 193,
      "ha": 194,
      "int": 195,
      "ory": 196,
      "by": 197,
      "ast": 198,
      "ld": 199,
      "some": 200,
      "not": 201,
      "tim": 202,
      "thing": 203,
      "ist": 204,
      "ust": 205,
      "end": 206,
      "more": 207,
      "ev": 208,
      "than": 209,
      "ough": 210,
      "fun": 211,
      "like": 212,
      "--": 213,
      "ow": 214,
      "ind": 215,
      "ine": 216,
      "ple": 217,
      "has": 218,
      "up": 219,
      "very": 220,
      "ig": 221,
      "most": 222,
      "ss": 223,
      "der": 224,
      "if": 225,
      "king": 226,
      "his": 227,
      "about": 228,
      "from": 229,
      "ence": 230,
      "cl": 231,
      "ru": 232,
      "et": 233,
      "bo": 234,
      "itt": 235,
      "ight": 236,
      "pt": 237,
      "charact": 238,
      "ard": 239,
      "who": 240,
      "have": 241,
      "story": 242,
      "ould": 243,
      "au": 244,
      "ious": 245,
      "ich": 246,
      "way": 247,
      "less": 248,
      "ac": 249,
      "te": 250,
      "ts": 251,
      "ial": 252,
      "tra": 253,
      "ish": 254,
      "good": 255,
      "gu": 256,
      "pla": 257,
      "ble": 258,
      "oun": 259,
      "ep": 260,
      "co": 261,
      "ces": 262,
      "our": 263,
      "wo": 264,
      "ny": 265,
      "any": 266,
      "her": 267,
      "rect": 268,
      "ong": 269,
      "hum": 270,
      "est": 271,
      "cre": 272,
      "direct": 273,
      "ment": 274,
      "into": 275,
      "ks": 276,
      "too": 277,
      "thr": 278,
      "fa": 279,
      "jo": 280,
      "me": 281,
      "pa": 282,
      "ry": 283,
      "ph": 284,
      "kes": 285,
      "off": 286,
      "mat": 287,
      "ins": 288,
      "ies": 289,
      "comed": 290,
      "...": 291,
      "low": 292,
      "fl": 293,
      "dra": 294,
      "ary": 295,
      "funny": 296,
      "mu": 297,
      "ating": 298,
      "ical": 299,
      "op": 300,
      "ass": 301,
      "ict": 302,
      "over": 303,
      "elf": 304,
      "even": 305,
      "ves": 306,
      "pr": 307,
      "dis": 308,
      "wn": 309,
      "time": 310,
      "ative": 311,
      "just": 312,
      "ense": 313,
      "old": 314,
      "ie": 315,
      "ire": 316,
      "plo": 317,
      "ear": 318,
      "tain": 319,
      "can": 320,
      "ise": 321,
      "perfor": 322,
      "gre": 323,
      "ick": 324,
      "characters": 325,
      "ens": 326,
      "ff": 327,
      "ingly": 328,
      "sur": 329,
      "other": 330,
      "br": 331,
      "wer": 332,
      "feel": 333,
      "comedy": 334,
      "what": 335,
      "ated": 336,
      "well": 337,
      "comp": 338,
      "tal": 339,
      "your": 340,
      "ness": 341,
      "ertain": 342,
      "ite": 343,
      "bad": 344,
      "wat": 345,
      "will": 346,
      "ice": 347,
      "performan": 348,
      "fre": 349,
      "inter": 350,
      "mar": 351,
      "ound": 352,
      "tt": 353,
      "scre": 354,
      "real": 355,
      "does": 356,
      "vis": 357,
      "gen": 358,
      "bl": 359,
      "fect": 360,
      "iz": 361,
      "ile": 362,
      "much": 363,
      "ide": 364,
      "ser": 365,
      "loo": 366,
      "min": 367,
      "ort": 368,
      "ot": 369,
      "des": 370,
      "age": 371,
      "ber": 372,
      "life": 373,
      "ach": 374,
      "sub": 375,
      "ving": 376,
      "their": 377,
      "litt": 378,
      "work": 379,
      "ash": 380,
      "del": 381,
      "little": 382,
      "every": 383,
      "af": 384,
      "ance": 385,
      "``": 386,
      "love": 387,
      "wr": 388,
      "heart": 389,
      "mer": 390,
      "''": 391,
      "play": 392,
      "ip": 393,
      "gra": 394,
      "spe": 395,
      "ster": 396,
      "make": 397,
      "ily": 398,
      "screen": 399,
      "gr": 400,
      "watch": 401,
      "vel": 402,
      "bet": 403,
      "ult": 404,
      "ran": 405,
      "best": 406,
      "entertain": 407,
      "imp": 408,
      "which": 409,
      "self": 410,
      "iv": 411,
      "du": 412,
      "director": 413,
      "fully": 414,
      "new": 415,
      "ef": 416,
      "been": 417,
      "mot": 418,
      "get": 419,
      "year": 420,
      "see": 421,
      "through": 422,
      "war": 423,
      "ling": 424,
      "sm": 425,
      "cess": 426,
      "ack": 427,
      "tri": 428,
      "cin": 429,
      "action": 430,
      "humor": 431,
      "ore": 432,
      "sy": 433,
      "ud": 434,
      "there": 435,
      "under": 436,
      "enough": 437,
      "ents": 438,
      "ions": 439,
      "only": 440,
      "ual": 441,
      "interest": 442,
      "my": 443,
      "je": 444,
      "ional": 445,
      "fam": 446,
      "joy": 447,
      "never": 448,
      "part": 449,
      "eng": 450,
      "ren": 451,
      "seem": 452,
      "ame": 453,
      "ably": 454,
      "made": 455,
      "makes": 456,
      "audi": 457,
      "cle": 458,
      "ho": 459,
      "them": 460,
      "cent": 461,
      "imag": 462,
      "something": 463,
      "come": 464,
      "movies": 465,
      "aut": 466,
      "down": 467,
      "ugh": 468,
      "sty": 469,
      "great": 470,
      "ors": 471,
      "lack": 472,
      "they": 473,
      "ning": 474,
      "elling": 475,
      "ob": 476,
      "was": 477,
      "cast": 478,
      "tur": 479,
      "spir": 480,
      "ild": 481,
      "right": 482,
      "inal": 483,
      "how": 484,
      "ject": 485,
      "day": 486,
      "pleas": 487,
      "laugh": 488,
      "press": 489,
      "own": 490,
      "row": 491,
      "vent": 492,
      "ang": 493,
      "long": 494,
      "cr": 495,
      "gent": 496,
      "character": 497,
      "point": 498,
      "bel": 499,
      "would": 500,
      "amer": 501,
      "app": 502,
      "emot": 503,
      "car": 504,
      "enjoy": 505,
      "drama": 506,
      "ty": 507,
      "plot": 508,
      "may": 509,
      "minut": 510,
      "ans": 511,
      "gue": 512,
      "tre": 513,
      "che": 514,
      "beaut": 515,
      "sense": 516,
      "ain": 517,
      "now": 518,
      "two": 519,
      "many": 520,
      "hard": 521,
      "bit": 522,
      "really": 523,
      "cial": 524,
      "ible": 525,
      "human": 526,
      "big": 527,
      "igh": 528,
      "performances": 529,
      "ever": 530,
      "worth": 531,
      "tru": 532,
      "aw": 533,
      "hol": 534,
      "ately": 535,
      "wood": 536,
      "fir": 537,
      "ved": 538,
      "filmma": 539,
      "cum": 540,
      "att": 541,
      "sat": 542,
      "oc": 543,
      "gy": 544,
      "ming": 545,
      "power": 546,
      "ign": 547,
      "ced": 548,
      "vie": 549,
      "surpr": 550,
      "light": 551,
      "cept": 552,
      "ak": 553,
      "ying": 554,
      "intel": 555,
      "ations": 556,
      "pie": 557,
      "vers": 558,
      "cho": 559,
      "ature": 560,
      "stand": 561,
      "could": 562,
      "mon": 563,
      "sit": 564,
      "thrill": 565,
      "films": 566,
      "peo": 567,
      "look": 568,
      "thin": 569,
      "pp": 570,
      "better": 571,
      "ci": 572,
      "such": 573,
      "times": 574,
      "str": 575,
      "scen": 576,
      "audience": 577,
      "av": 578,
      "ically": 579,
      "while": 580,
      "comes": 581,
      "cau": 582,
      "ark": 583,
      "back": 584,
      "ism": 585,
      "col": 586,
      "ually": 587,
      "people": 588,
      "being": 589,
      "ath": 590,
      "mind": 591,
      "pict": 592,
      "por": 593,
      "res": 594,
      "when": 595,
      "first": 596,
      "mem": 597,
      "ere": 598,
      "swe": 599,
      "ste": 600,
      "without": 601,
      "oft": 602,
      "world": 603,
      "both": 604,
      "cut": 605,
      "ull": 606,
      "ky": 607,
      "high": 608,
      "mis": 609,
      "arly": 610,
      "should": 611,
      "mom": 612,
      "nothing": 613,
      "cra": 614,
      "peri": 615,
      "intelli": 616,
      "show": 617,
      "cause": 618,
      "ft": 619,
      "acting": 620,
      "scri": 621,
      "cap": 622,
      "kind": 623,
      "far": 624,
      "still": 625,
      "ought": 626,
      "med": 627,
      "kid": 628,
      "care": 629,
      "entertaining": 630,
      "won": 631,
      "pect": 632,
      "writ": 633,
      "script": 634,
      "ca": 635,
      "ner": 636,
      "antic": 637,
      "led": 638,
      "tho": 639,
      "ates": 640,
      "often": 641,
      "dre": 642,
      "arr": 643,
      "surpris": 644,
      "hor": 645,
      "fresh": 646,
      "exc": 647,
      "pl": 648,
      "orig": 649,
      "ination": 650,
      "picture": 651,
      "run": 652,
      "bu": 653,
      "turn": 654,
      "pers": 655,
      "cy": 656,
      "gi": 657,
      "original": 658,
      "performance": 659,
      "beauti": 660,
      "sequ": 661,
      "interesting": 662,
      "holly": 663,
      "gl": 664,
      "docum": 665,
      "document": 666,
      "comple": 667,
      "bre": 668,
      "ll": 669,
      "hist": 670,
      "mark": 671,
      "find": 672,
      "because": 673,
      "ian": 674,
      "fort": 675,
      "bro": 676,
      "da": 677,
      "also": 678,
      "mor": 679,
      "mi": 680,
      "alo": 681,
      "americ": 682,
      "sin": 683,
      "ction": 684,
      "tent": 685,
      "view": 686,
      "ings": 687,
      "hollywood": 688,
      "fla": 689,
      "another": 690,
      "istic": 691,
      "ward": 692,
      "suc": 693,
      "dialo": 694,
      "iness": 695,
      "hand": 696,
      "ged": 697,
      "eas": 698,
      "star": 699,
      "stru": 700,
      "ching": 701,
      "form": 702,
      "fi": 703,
      "hal": 704,
      "know": 705,
      "matic": 706,
      "wit": 707,
      "keep": 708,
      "sweet": 709,
      "umb": 710,
      "piece": 711,
      "minutes": 712,
      "vin": 713,
      "appe": 714,
      "those": 715,
      "hour": 716,
      "sent": 717,
      "after": 718,
      "ney": 719,
      "sho": 720,
      "dialogue": 721,
      "fore": 722,
      "wom": 723,
      "ences": 724,
      "where": 725,
      "perfect": 726,
      "pol": 727,
      "spirit": 728,
      "tr": 729,
      "ale": 730,
      "dit": 731,
      "visual": 732,
      "den": 733,
      "dict": 734,
      "try": 735,
      "cult": 736,
      "tit": 737,
      "few": 738,
      "him": 739,
      "les": 740,
      "red": 741,
      "rel": 742,
      "gener": 743,
      "cinem": 744,
      "family": 745,
      "class": 746,
      "poss": 747,
      "cing": 748,
      "sum": 749,
      "que": 750,
      "mus": 751,
      "sing": 752,
      "ross": 753,
      "thriller": 754,
      "dist": 755,
      "ages": 756,
      "romantic": 757,
      "cor": 758,
      "fin": 759,
      "cinemat": 760,
      "ni": 761,
      "stu": 762,
      "eless": 763,
      "tale": 764,
      "bra": 765,
      "might": 766,
      "ener": 767,
      "empt": 768,
      "ms": 769,
      "ane": 770,
      "comm": 771,
      "fr": 772,
      "spect": 773,
      "ele": 774,
      "ering": 775,
      "ics": 776,
      "compelling": 777,
      "wonder": 778,
      "win": 779,
      "tou": 780,
      "actors": 781,
      "ality": 782,
      "lea": 783,
      "fas": 784,
      "want": 785,
      "ultim": 786,
      "using": 787,
      "thought": 788,
      "need": 789,
      "mater": 790,
      "effect": 791,
      "moments": 792,
      "person": 793,
      "mess": 794,
      "theat": 795,
      "cont": 796,
      "clever": 797,
      "here": 798,
      "vide": 799,
      "cons": 800,
      "cine": 801,
      "smart": 802,
      "cinema": 803,
      "sk": 804,
      "again": 805,
      "filmmak": 806,
      "satis": 807,
      "had": 808,
      "clich": 809,
      "fascin": 810,
      "read": 811,
      "sex": 812,
      "rather": 813,
      "graph": 814,
      "half": 815,
      "bor": 816,
      "ously": 817,
      "ger": 818,
      "full": 819,
      "almost": 820,
      "expect": 821,
      "she": 822,
      "material": 823,
      "ys": 824,
      "going": 825,
      "ways": 826,
      "ey": 827,
      "did": 828,
      "take": 829,
      "ted": 830,
      "watching": 831,
      "documentary": 832,
      "youn": 833,
      "ends": 834,
      "ting": 835,
      "deep": 836,
      "put": 837,
      "anim": 838,
      "seen": 839,
      "ired": 840,
      "deli": 841,
      "pass": 842,
      "icul": 843,
      "log": 844,
      "making": 845,
      "rif": 846,
      "produ": 847,
      "talent": 848,
      "sim": 849,
      "ars": 850,
      "works": 851,
      "par": 852,
      "ds": 853,
      "experi": 854,
      "ween": 855,
      "cer": 856,
      "itself": 857,
      "line": 858,
      "wal": 859,
      "chan": 860,
      "dull": 861,
      "before": 862,
      "predict": 863,
      "were": 864,
      "delight": 865,
      "vo": 866,
      "moving": 867,
      "seems": 868,
      "give": 869,
      "ility": 870,
      "emotional": 871,
      "music": 872,
      "though": 873,
      "ilar": 874,
      "quite": 875,
      "happ": 876,
      "ionally": 877,
      "ree": 878,
      "these": 879,
      "rich": 880,
      "things": 881,
      "subject": 882,
      "satisf": 883,
      "ond": 884,
      "ship": 885,
      "portra": 886,
      "clo": 887,
      "master": 888,
      "style": 889,
      "fascinating": 890,
      "lot": 891,
      "diff": 892,
      "head": 893,
      "ason": 894,
      "super": 895,
      "scenes": 896,
      "child": 897,
      "rid": 898,
      "between": 899,
      "dark": 900,
      "sens": 901,
      "stra": 902,
      "takes": 903,
      "face": 904,
      "feels": 905,
      "toge": 906,
      "ext": 907,
      "together": 908,
      "lish": 909,
      "direction": 910,
      "fail": 911,
      "young": 912,
      "list": 913,
      "mel": 914,
      "sou": 915,
      "illi": 916,
      "aring": 917,
      "last": 918,
      "cas": 919,
      "ok": 920,
      "vid": 921,
      "video": 922,
      "tran": 923,
      "engag": 924,
      "years": 925,
      "hilar": 926,
      "na": 927,
      "sad": 928,
      "yet": 929,
      "iting": 930,
      "american": 931,
      "zz": 932,
      "special": 933,
      "simp": 934,
      "kids": 935,
      "bar": 936,
      "lid": 937,
      "used": 938,
      "mid": 939,
      "ently": 940,
      "uni": 941,
      "io": 942,
      "ps": 943,
      "sed": 944,
      "hy": 945,
      "sl": 946,
      "ili": 947,
      "iment": 948,
      "ultimately": 949,
      "quir": 950,
      "sa": 951,
      "narr": 952,
      "use": 953,
      "explo": 954,
      "place": 955,
      "wa": 956,
      "main": 957,
      "ures": 958,
      "cru": 959,
      "ue": 960,
      "feature": 961,
      "iev": 962,
      "fri": 963,
      "allow": 964,
      "rare": 965,
      "comic": 966,
      "anything": 967,
      "warm": 968,
      "laughs": 969,
      "why": 970,
      "bal": 971,
      "aren": 972,
      "worst": 973,
      "ven": 974,
      "susp": 975,
      "fair": 976,
      "fine": 977,
      "pop": 978,
      "ific": 979,
      "ments": 980,
      "cinematic": 981,
      "experience": 982,
      "gence": 983,
      "ug": 984,
      "pain": 985,
      "enjoyable": 986,
      "appeal": 987,
      "least": 988,
      "cliches": 989,
      "gir": 990,
      "impress": 991,
      "solid": 992,
      "antly": 993,
      "fall": 994,
      "prom": 995,
      "val": 996,
      "away": 997,
      "gets": 998,
      "bly": 999,
      "coun": 1000,
      "psy": 1001,
      "sil": 1002,
      "ider": 1003,
      "tting": 1004,
      "tic": 1005,
      "die": 1006,
      "summer": 1007,
      "ton": 1008,
      "charm": 1009,
      "entertainment": 1010,
      "beautiful": 1011,
      "predictable": 1012,
      "vol": 1013,
      "history": 1014,
      "dle": 1015,
      "hone": 1016,
      "amusing": 1017,
      "sometimes": 1018,
      "girl": 1019,
      "remark": 1020,
      "start": 1021,
      "intri": 1022,
      "genre": 1023,
      "done": 1024,
      "fant": 1025,
      "oper": 1026,
      "set": 1027,
      "itten": 1028,
      "suspense": 1029,
      "call": 1030,
      "telling": 1031,
      "sure": 1032,
      "mean": 1033,
      "intelligent": 1034,
      "flat": 1035,
      "pu": 1036,
      "ror": 1037,
      "success": 1038,
      "usu": 1039,
      "ord": 1040,
      "dead": 1041,
      "lin": 1042,
      "top": 1043,
      "prob": 1044,
      "strong": 1045,
      "gives": 1046,
      "ural": 1047,
      "ler": 1048,
      "twi": 1049,
      "serious": 1050,
      "insight": 1051,
      "prof": 1052,
      "subt": 1053,
      "writer": 1054,
      "son": 1055,
      "struct": 1056,
      "hel": 1057,
      "teen": 1058,
      "possible": 1059,
      "engaging": 1060,
      "advent": 1061,
      "complete": 1062,
      "narrative": 1063,
      "say": 1064,
      "once": 1065,
      "powerful": 1066,
      "vious": 1067,
      "short": 1068,
      "intelligence": 1069,
      "cou": 1070,
      "hold": 1071,
      "men": 1072,
      "three": 1073,
      "ket": 1074,
      "convin": 1075,
      "flick": 1076,
      "izing": 1077,
      "sch": 1078,
      "idea": 1079,
      "lu": 1080,
      "non": 1081,
      "wise": 1082,
      "stre": 1083,
      "soph": 1084,
      "theater": 1085,
      "ither": 1086,
      "same": 1087,
      "stud": 1088,
      "ieve": 1089,
      "women": 1090,
      "around": 1091,
      "energy": 1092,
      "iche": 1093,
      "lead": 1094,
      "tty": 1095,
      "screenplay": 1096,
      "surprisingly": 1097,
      "ban": 1098,
      "ities": 1099,
      "charming": 1100,
      "effort": 1101,
      "ody": 1102,
      "sentiment": 1103,
      "twist": 1104,
      "har": 1105,
      "actor": 1106,
      "capt": 1107,
      "iet": 1108,
      "actually": 1109,
      "polit": 1110,
      "blo": 1111,
      "sor": 1112,
      "ref": 1113,
      "orge": 1114,
      "ia": 1115,
      "als": 1116,
      "contri": 1117,
      "serv": 1118,
      "fel": 1119,
      "lar": 1120,
      "wast": 1121,
      "ening": 1122,
      "level": 1123,
      "ime": 1124,
      "equ": 1125,
      "feeling": 1126,
      "ceed": 1127,
      "anyone": 1128,
      "bur": 1129,
      "certain": 1130,
      "ustr": 1131,
      "looking": 1132,
      "ric": 1133,
      "written": 1134,
      "true": 1135,
      "past": 1136,
      "ories": 1137,
      "filmmaking": 1138,
      "think": 1139,
      "nearly": 1140,
      "dramatic": 1141,
      "19": 1142,
      "dy": 1143,
      "moder": 1144,
      "sci": 1145,
      "gic": 1146,
      "attempt": 1147,
      "fo": 1148,
      "coming": 1149,
      "pretty": 1150,
      "grand": 1151,
      "small": 1152,
      "satisfying": 1153,
      "ized": 1154,
      "bas": 1155,
      "dep": 1156,
      "famili": 1157,
      "silly": 1158,
      "familiar": 1159,
      "zy": 1160,
      "dumb": 1161,
      "ute": 1162,
      "ending": 1163,
      "culture": 1164,
      "hilarious": 1165,
      "honest": 1166,
      "stuff": 1167,
      "modern": 1168,
      "deser": 1169,
      "fash": 1170,
      "sound": 1171,
      "beg": 1172,
      "soul": 1173,
      "simply": 1174,
      "fashion": 1175,
      "ked": 1176,
      "ula": 1177,
      "whose": 1178,
      "sequel": 1179,
      "viol": 1180,
      "manages": 1181,
      "reason": 1182,
      "ited": 1183,
      "suff": 1184,
      "sign": 1185,
      "uine": 1186,
      "lect": 1187,
      "ability": 1188,
      "ively": 1189,
      "goes": 1190,
      "tail": 1191,
      "drag": 1192,
      "genuine": 1193,
      "imagin": 1194,
      "truly": 1195,
      "gar": 1196,
      "ird": 1197,
      "odra": 1198,
      "scar": 1199,
      "hero": 1200,
      "offers": 1201,
      "affect": 1202,
      "dam": 1203,
      "mise": 1204,
      "vision": 1205,
      "differ": 1206,
      "fra": 1207,
      "dream": 1208,
      "easy": 1209,
      "deeply": 1210,
      "cal": 1211,
      "cise": 1212,
      "ek": 1213,
      "then": 1214,
      "ones": 1215,
      "edly": 1216,
      "hop": 1217,
      "night": 1218,
      "nice": 1219,
      "stri": 1220,
      "ital": 1221,
      "ults": 1222,
      "conf": 1223,
      "project": 1224,
      "fans": 1225,
      "ned": 1226,
      "ze": 1227,
      "stran": 1228,
      "terrif": 1229,
      "artist": 1230,
      "melodra": 1231,
      "psycho": 1232,
      "fol": 1233,
      "thor": 1234,
      "ational": 1235,
      "whole": 1236,
      "slow": 1237,
      "always": 1238,
      "flaw": 1239,
      "becomes": 1240,
      "gri": 1241,
      "tv": 1242,
      "unch": 1243,
      "uring": 1244,
      "minute": 1245,
      "complex": 1246,
      "portrait": 1247,
      "utter": 1248,
      "gest": 1249,
      "poor": 1250,
      "believ": 1251,
      "horror": 1252,
      "effects": 1253,
      "land": 1254,
      "tone": 1255,
      "ured": 1256,
      "premise": 1257,
      "proble": 1258,
      "stead": 1259,
      "beautifully": 1260,
      "trying": 1261,
      "port": 1262,
      "iven": 1263,
      "since": 1264,
      "quirky": 1265,
      "pur": 1266,
      "sel": 1267,
      "sol": 1268,
      "icks": 1269,
      "mix": 1270,
      "passion": 1271,
      "dro": 1272,
      "orable": 1273,
      "itch": 1274,
      "exam": 1275,
      "brilli": 1276,
      "filmmakers": 1277,
      "ready": 1278,
      "cur": 1279,
      "abo": 1280,
      "formula": 1281,
      "consider": 1282,
      "gn": 1283,
      "wild": 1284,
      "entire": 1285,
      "und": 1286,
      "likely": 1287,
      "mur": 1288,
      "ery": 1289,
      "ese": 1290,
      "gely": 1291,
      "particul": 1292,
      "amp": 1293,
      "invent": 1294,
      "lap": 1295,
      "pleasure": 1296,
      "cially": 1297,
      "title": 1298,
      "touch": 1299,
      "10": 1300,
      "rele": 1301,
      "concept": 1302,
      "ride": 1303,
      "romance": 1304,
      "series": 1305,
      "understand": 1306,
      "treat": 1307,
      "situ": 1308,
      "heav": 1309,
      "velop": 1310,
      "hours": 1311,
      "probably": 1312,
      "ding": 1313,
      "ken": 1314,
      "secon": 1315,
      "everyone": 1316,
      "import": 1317,
      "logical": 1318,
      "children": 1319,
      "study": 1320,
      "lit": 1321,
      "nature": 1322,
      "espe": 1323,
      "appoint": 1324,
      "nor": 1325,
      "pat": 1326,
      "ons": 1327,
      "beat": 1328,
      "guing": 1329,
      "ideas": 1330,
      "classic": 1331,
      "subtle": 1332,
      "fire": 1333,
      "inspir": 1334,
      "itation": 1335,
      "odd": 1336,
      "tech": 1337,
      "touching": 1338,
      "felt": 1339,
      "refresh": 1340,
      "attra": 1341,
      "dest": 1342,
      "live": 1343,
      "extra": 1344,
      "posit": 1345,
      "creep": 1346,
      "fantas": 1347,
      "pac": 1348,
      "vor": 1349,
      "exer": 1350,
      "remarkable": 1351,
      "cul": 1352,
      "ith": 1353,
      "must": 1354,
      "spo": 1355,
      "ident": 1356,
      "path": 1357,
      "imagination": 1358,
      "talented": 1359,
      "opera": 1360,
      "especially": 1361,
      "cu": 1362,
      "nat": 1363,
      "wel": 1364,
      "defin": 1365,
      "bland": 1366,
      "writing": 1367,
      "wonderful": 1368,
      "middle": 1369,
      "gorge": 1370,
      "met": 1371,
      "ped": 1372,
      "sand": 1373,
      "witt": 1374,
      "ambit": 1375,
      "book": 1376,
      "boring": 1377,
      "let": 1378,
      "quest": 1379,
      "everything": 1380,
      "version": 1381,
      "memorable": 1382,
      "ben": 1383,
      "camer": 1384,
      "atest": 1385,
      "cliche": 1386,
      "leave": 1387,
      "exercise": 1388,
      "grow": 1389,
      "nch": 1390,
      "instead": 1391,
      "itive": 1392,
      "appro": 1393,
      "delic": 1394,
      "simple": 1395,
      "20": 1396,
      "black": 1397,
      "hu": 1398,
      "insp": 1399,
      "flu": 1400,
      "disappoint": 1401,
      "graphy": 1402,
      "cla": 1403,
      "gg": 1404,
      "py": 1405,
      "reve": 1406,
      "already": 1407,
      "sett": 1408,
      "dec": 1409,
      "detail": 1410,
      "camera": 1411,
      "ses": 1412,
      "oud": 1413,
      "else": 1414,
      "ung": 1415,
      "matter": 1416,
      "otic": 1417,
      "intriguing": 1418,
      "side": 1419,
      "tens": 1420,
      "rock": 1421,
      "desp": 1422,
      "except": 1423,
      "selves": 1424,
      "ered": 1425,
      "ende": 1426,
      "vir": 1427,
      "fest": 1428,
      "ended": 1429,
      "sym": 1430,
      "color": 1431,
      "woman": 1432,
      "frustr": 1433,
      "filmmaker": 1434,
      "ordin": 1435,
      "ade": 1436,
      "recent": 1437,
      "dev": 1438,
      "poet": 1439,
      "uses": 1440,
      "ize": 1441,
      "turns": 1442,
      "histor": 1443,
      "adventure": 1444,
      "convincing": 1445,
      "dri": 1446,
      "slight": 1447,
      "rest": 1448,
      "quiet": 1449,
      "taking": 1450,
      "myster": 1451,
      "audiences": 1452,
      "ocative": 1453,
      "slo": 1454,
      "storytelling": 1455,
      "cheap": 1456,
      "personal": 1457,
      "dim": 1458,
      "fran": 1459,
      "lic": 1460,
      "spi": 1461,
      "funni": 1462,
      "french": 1463,
      "dition": 1464,
      "ier": 1465,
      "stories": 1466,
      "extre": 1467,
      "iction": 1468,
      "ball": 1469,
      "ib": 1470,
      "pay": 1471,
      "ising": 1472,
      "death": 1473,
      "lessly": 1474,
      "obvious": 1475,
      "cat": 1476,
      "cold": 1477,
      "fact": 1478,
      "stop": 1479,
      "exe": 1480,
      "gentle": 1481,
      "imaginative": 1482,
      "despite": 1483,
      "fan": 1484,
      "tell": 1485,
      "stup": 1486,
      "credi": 1487,
      "visually": 1488,
      "images": 1489,
      "terrific": 1490,
      "above": 1491,
      "stupid": 1492,
      "ring": 1493,
      "proves": 1494,
      "itting": 1495,
      "execut": 1496,
      "mas": 1497,
      "yond": 1498,
      "beyond": 1499,
      "seat": 1500,
      "develop": 1501,
      "pping": 1502,
      "thoughtful": 1503,
      "os": 1504,
      "slap": 1505,
      "amoun": 1506,
      "necess": 1507,
      "straight": 1508,
      "usual": 1509,
      "completely": 1510,
      "jour": 1511,
      "ony": 1512,
      "become": 1513,
      "road": 1514,
      "shot": 1515,
      "pres": 1516,
      "ellent": 1517,
      "ress": 1518,
      "chill": 1519,
      "rage": 1520,
      "rible": 1521,
      "posed": 1522,
      "beauty": 1523,
      "bare": 1524,
      "pri": 1525,
      "spl": 1526,
      "looks": 1527,
      "friend": 1528,
      "dog": 1529,
      "having": 1530,
      "traged": 1531,
      "directed": 1532,
      "jokes": 1533,
      "emotionally": 1534,
      "craft": 1535,
      "fight": 1536,
      "ont": 1537,
      "exist": 1538,
      "express": 1539,
      "weird": 1540,
      "sequences": 1541,
      "fails": 1542,
      "impossible": 1543,
      "ationship": 1544,
      "inside": 1545,
      "plays": 1546,
      "relationship": 1547,
      "mr": 1548,
      "male": 1549,
      "none": 1550,
      "sust": 1551,
      "cool": 1552,
      "worthy": 1553,
      "mira": 1554,
      "deni": 1555,
      "skill": 1556,
      "gorgeous": 1557,
      "ient": 1558,
      "ishing": 1559,
      "subst": 1560,
      "member": 1561,
      "ugly": 1562,
      "important": 1563,
      "bud": 1564,
      "body": 1565,
      "fat": 1566,
      "stun": 1567,
      "iously": 1568,
      "shock": 1569,
      "himself": 1570,
      "fast": 1571,
      "leg": 1572,
      "left": 1573,
      "chool": 1574,
      "brea": 1575,
      "arent": 1576,
      "second": 1577,
      "step": 1578,
      "maj": 1579,
      "comfort": 1580,
      "nest": 1581,
      "fashioned": 1582,
      "different": 1583,
      "tar": 1584,
      "wan": 1585,
      "room": 1586,
      "got": 1587,
      "bring": 1588,
      "pleasant": 1589,
      "moral": 1590,
      "easily": 1591,
      "expected": 1592,
      "falls": 1593,
      "melodrama": 1594,
      "mic": 1595,
      "school": 1596,
      "inst": 1597,
      "sto": 1598,
      "soap": 1599,
      "ags": 1600,
      "viewers": 1601,
      "change": 1602,
      "four": 1603,
      "ode": 1604,
      "sever": 1605,
      "forced": 1606,
      "pretent": 1607,
      "ender": 1608,
      "boy": 1609,
      "crime": 1610,
      "believe": 1611,
      "spectac": 1612,
      "brilliant": 1613,
      "oscar": 1614,
      "inno": 1615,
      "reg": 1616,
      "thetic": 1617,
      "debut": 1618,
      "earnest": 1619,
      "grace": 1620,
      "sentimental": 1621,
      "thorough": 1622,
      "believable": 1623,
      "fut": 1624,
      "found": 1625,
      "rit": 1626,
      "thers": 1627,
      "dem": 1628,
      "comb": 1629,
      "fairly": 1630,
      "appealing": 1631,
      "ances": 1632,
      "reli": 1633,
      "depress": 1634,
      "absur": 1635,
      "potent": 1636,
      "creative": 1637,
      "faith": 1638,
      "berg": 1639,
      "excellent": 1640,
      "contrived": 1641,
      "oid": 1642,
      "tired": 1643,
      "eyes": 1644,
      "home": 1645,
      "decent": 1646,
      "sha": 1647,
      "present": 1648,
      "otherwise": 1649,
      "lacks": 1650,
      "viewer": 1651,
      "each": 1652,
      "gro": 1653,
      "jack": 1654,
      "kill": 1655,
      "sort": 1656,
      "recomm": 1657,
      "ase": 1658,
      "ention": 1659,
      "event": 1660,
      "comedies": 1661,
      "shows": 1662,
      "extreme": 1663,
      "fig": 1664,
      "uous": 1665,
      "ctive": 1666,
      "working": 1667,
      "hack": 1668,
      "epis": 1669,
      "warmth": 1670,
      "pretentious": 1671,
      "dry": 1672,
      "mble": 1673,
      "ames": 1674,
      "shar": 1675,
      "key": 1676,
      "goof": 1677,
      "quick": 1678,
      "surprising": 1679,
      "commun": 1680,
      "deliver": 1681,
      "certainly": 1682,
      "particularly": 1683,
      "bing": 1684,
      "bla": 1685,
      "sle": 1686,
      "ched": 1687,
      "enty": 1688,
      "oney": 1689,
      "social": 1690,
      "pack": 1691,
      "wrong": 1692,
      "rossing": 1693,
      "violence": 1694,
      "welcome": 1695,
      "ama": 1696,
      "angu": 1697,
      "reward": 1698,
      "lost": 1699,
      "vivid": 1700,
      "intim": 1701,
      "guil": 1702,
      "crit": 1703,
      "crafted": 1704,
      "var": 1705,
      "incl": 1706,
      "invol": 1707,
      "cele": 1708,
      "rist": 1709,
      "actress": 1710,
      "taste": 1711,
      "ished": 1712,
      "coher": 1713,
      "ival": 1714,
      "themselves": 1715,
      "unique": 1716,
      "either": 1717,
      "ges": 1718,
      "ened": 1719,
      "role": 1720,
      "hael": 1721,
      "hope": 1722,
      "moment": 1723,
      "message": 1724,
      "animation": 1725,
      "delightful": 1726,
      "purpo": 1727,
      "thoroughly": 1728,
      "loud": 1729,
      "mal": 1730,
      "nu": 1731,
      "heavy": 1732,
      "final": 1733,
      "hn": 1734,
      "move": 1735,
      "mood": 1736,
      "logy": 1737,
      "lives": 1738,
      "adults": 1739,
      "ashing": 1740,
      "impressive": 1741,
      "historical": 1742,
      "barely": 1743,
      "dan": 1744,
      "fer": 1745,
      "lim": 1746,
      "pan": 1747,
      "weight": 1748,
      "pathetic": 1749,
      "seeing": 1750,
      "winning": 1751,
      "meaning": 1752,
      "creepy": 1753,
      "air": 1754,
      "dou": 1755,
      "gags": 1756,
      "lab": 1757,
      "pun": 1758,
      "squ": 1759,
      "tw": 1760,
      "along": 1761,
      "ement": 1762,
      "quality": 1763,
      "occas": 1764,
      "shoot": 1765,
      "eleg": 1766,
      "ambitious": 1767,
      "celebr": 1768,
      "mes": 1769,
      "ali": 1770,
      "aling": 1771,
      "impro": 1772,
      "loss": 1773,
      "convent": 1774,
      "sco": 1775,
      "worse": 1776,
      "ensive": 1777,
      "colle": 1778,
      "natural": 1779,
      "necessary": 1780,
      "game": 1781,
      "given": 1782,
      "pul": 1783,
      "ilo": 1784,
      "force": 1785,
      "consc": 1786,
      "favor": 1787,
      "john": 1788,
      "clear": 1789,
      "running": 1790,
      "ordinary": 1791,
      "michael": 1792,
      "90": 1793,
      "kno": 1794,
      "next": 1795,
      "respect": 1796,
      "cover": 1797,
      "engrossing": 1798,
      "brain": 1799,
      "help": 1800,
      "depth": 1801,
      "inventive": 1802,
      "budget": 1803,
      "hit": 1804,
      "unf": 1805,
      "unsett": 1806,
      "ular": 1807,
      "rol": 1808,
      "whe": 1809,
      "ams": 1810,
      "expl": 1811,
      "resist": 1812,
      "fantasy": 1813,
      "sharp": 1814,
      "bi": 1815,
      "gang": 1816,
      "pure": 1817,
      "suck": 1818,
      "add": 1819,
      "ump": 1820,
      "score": 1821,
      "usion": 1822,
      "aged": 1823,
      "hip": 1824,
      "paren": 1825,
      "sour": 1826,
      "arn": 1827,
      "shap": 1828,
      "manip": 1829,
      "plain": 1830,
      "watchable": 1831,
      "psychological": 1832,
      "inspired": 1833,
      "manipul": 1834,
      "bul": 1835,
      "rous": 1836,
      "alter": 1837,
      "marvel": 1838,
      "ground": 1839,
      "imagine": 1840,
      "attention": 1841,
      "standard": 1842,
      "follow": 1843,
      "tragedy": 1844,
      "aff": 1845,
      "fic": 1846,
      "repe": 1847,
      "dio": 1848,
      "flash": 1849,
      "awful": 1850,
      "scene": 1851,
      "succeed": 1852,
      "perfectly": 1853,
      "entirely": 1854,
      "flow": 1855,
      "ham": 1856,
      "ography": 1857,
      "shallow": 1858,
      "ivity": 1859,
      "breath": 1860,
      "eye": 1861,
      "waste": 1862,
      "tension": 1863,
      "sustain": 1864,
      "major": 1865,
      "ju": 1866,
      "pic": 1867,
      "sn": 1868,
      "inf": 1869,
      "rema": 1870,
      "remember": 1871,
      "enth": 1872,
      "atter": 1873,
      "atory": 1874,
      "assu": 1875,
      "acted": 1876,
      "prov": 1877,
      "rent": 1878,
      "stylish": 1879,
      "truth": 1880,
      "consist": 1881,
      "blood": 1882,
      "approach": 1883,
      "remains": 1884,
      "crow": 1885,
      "numb": 1886,
      "tation": 1887,
      "zing": 1888,
      "stick": 1889,
      "ork": 1890,
      "tom": 1891,
      "ches": 1892,
      "unfunny": 1893,
      "undeni": 1894,
      "accomp": 1895,
      "job": 1896,
      "period": 1897,
      "pictures": 1898,
      "journey": 1899,
      "unsettling": 1900,
      "0s": 1901,
      "lad": 1902,
      "sw": 1903,
      "vul": 1904,
      "ines": 1905,
      "revel": 1906,
      "ised": 1907,
      "usi": 1908,
      "painful": 1909,
      "future": 1910,
      "aim": 1911,
      "ially": 1912,
      "pull": 1913,
      "indi": 1914,
      "edge": 1915,
      "adap": 1916,
      "intense": 1917,
      "core": 1918,
      "water": 1919,
      "bert": 1920,
      "contem": 1921,
      "recommend": 1922,
      "band": 1923,
      "rhy": 1924,
      "ined": 1925,
      "stay": 1926,
      "told": 1927,
      "rap": 1928,
      "neither": 1929,
      "scary": 1930,
      "quis": 1931,
      "astic": 1932,
      "acy": 1933,
      "desper": 1934,
      "observ": 1935,
      "cris": 1936,
      "examination": 1937,
      "mystery": 1938,
      "absurd": 1939,
      "parents": 1940,
      "rhyth": 1941,
      "ouse": 1942,
      "omb": 1943,
      "concer": 1944,
      "manner": 1945,
      "charis": 1946,
      "test": 1947,
      "brit": 1948,
      "satire": 1949,
      "pieces": 1950,
      "slopp": 1951,
      "bed": 1952,
      "gone": 1953,
      "num": 1954,
      "sen": 1955,
      "icult": 1956,
      "pair": 1957,
      "reality": 1958,
      "knows": 1959,
      "leaves": 1960,
      "against": 1961,
      "difficult": 1962,
      "case": 1963,
      "definite": 1964,
      "wind": 1965,
      "issu": 1966,
      "els": 1967,
      "devo": 1968,
      "lock": 1969,
      "sup": 1970,
      "doing": 1971,
      "prec": 1972,
      "provo": 1973,
      "indul": 1974,
      "disney": 1975,
      "hood": 1976,
      "lacking": 1977,
      "miss": 1978,
      "career": 1979,
      "elements": 1980,
      "liter": 1981,
      "enthusi": 1982,
      "fare": 1983,
      "ris": 1984,
      "sick": 1985,
      "yp": 1986,
      "reach": 1987,
      "ices": 1988,
      "ley": 1989,
      "forge": 1990,
      "poign": 1991,
      "spark": 1992,
      "epic": 1993,
      "tries": 1994,
      "highly": 1995,
      "medio": 1996,
      "tedious": 1997,
      "close": 1998,
      "amount": 1999,
      "crowd": 2000,
      "forgett": 2001,
      "ging": 2002,
      "nam": 2003,
      "rat": 2004,
      "ron": 2005,
      "ues": 2006,
      "wil": 2007,
      "asp": 2008,
      "rip": 2009,
      "lay": 2010,
      "conce": 2011,
      "quent": 2012,
      "rush": 2013,
      "mere": 2014,
      "poorly": 2015,
      "inspiring": 2016,
      "ago": 2017,
      "cri": 2018,
      "cere": 2019,
      "gif": 2020,
      "anced": 2021,
      "entic": 2022,
      "roll": 2023,
      "adm": 2024,
      "post": 2025,
      "intent": 2026,
      "flicks": 2027,
      "hearted": 2028,
      "iculous": 2029,
      "considerable": 2030,
      "situations": 2031,
      "purpose": 2032,
      "provocative": 2033,
      "rate": 2034,
      "smo": 2035,
      "ya": 2036,
      "arity": 2037,
      "emer": 2038,
      "tage": 2039,
      "spy": 2040,
      "cost": 2041,
      "create": 2042,
      "days": 2043,
      "trans": 2044,
      "political": 2045,
      "affection": 2046,
      "pathy": 2047,
      "ai": 2048,
      "leng": 2049,
      "york": 2050,
      "imm": 2051,
      "rive": 2052,
      "concl": 2053,
      "uster": 2054,
      "tele": 2055,
      "offer": 2056,
      "bling": 2057,
      "break": 2058,
      "neyed": 2059,
      "spiritual": 2060,
      "cinematography": 2061,
      "production": 2062,
      "masterpiece": 2063,
      "sensitive": 2064,
      "successful": 2065,
      "utely": 2066,
      "endearing": 2067,
      "hackneyed": 2068,
      "length": 2069,
      "bus": 2070,
      "pra": 2071,
      "sal": 2072,
      "remind": 2073,
      "mach": 2074,
      "getting": 2075,
      "fear": 2076,
      "exact": 2077,
      "termin": 2078,
      "offensive": 2079,
      "greatest": 2080,
      "finally": 2081,
      "front": 2082,
      "animated": 2083,
      "virt": 2084,
      "colorful": 2085,
      "accomplish": 2086,
      "forgettable": 2087,
      "vag": 2088,
      "orts": 2089,
      "chop": 2090,
      "demon": 2091,
      "ution": 2092,
      "ried": 2093,
      "ateur": 2094,
      "auth": 2095,
      "open": 2096,
      "trou": 2097,
      "cultural": 2098,
      "superfic": 2099,
      "definitely": 2100,
      "wers": 2101,
      "absol": 2102,
      "weak": 2103,
      "aston": 2104,
      "pace": 2105,
      "complic": 2106,
      "delivers": 2107,
      "usually": 2108,
      "utterly": 2109,
      "witty": 2110,
      "god": 2111,
      "hell": 2112,
      "ii": 2113,
      "mill": 2114,
      "sav": 2115,
      "andering": 2116,
      "mostly": 2117,
      "bled": 2118,
      "achieve": 2119,
      "themes": 2120,
      "surprise": 2121,
      "thinking": 2122,
      "flaws": 2123,
      "relationships": 2124,
      "adaptation": 2125,
      "fac": 2126,
      "money": 2127,
      "vil": 2128,
      "zen": 2129,
      "iss": 2130,
      "ential": 2131,
      "lip": 2132,
      "conne": 2133,
      "urban": 2134,
      "throughout": 2135,
      "trip": 2136,
      "emotions": 2137,
      "cute": 2138,
      "keeps": 2139,
      "frustrating": 2140,
      "during": 2141,
      "eth": 2142,
      "hot": 2143,
      "pal": 2144,
      "inc": 2145,
      "reco": 2146,
      "arch": 2147,
      "toward": 2148,
      "secre": 2149,
      "mad": 2150,
      "magic": 2151,
      "amateur": 2152,
      "paint": 2153,
      "monster": 2154,
      "stream": 2155,
      "sophistic": 2156,
      "dimens": 2157,
      "spiel": 2158,
      "several": 2159,
      "gun": 2160,
      "house": 2161,
      "sac": 2162,
      "wish": 2163,
      "anno": 2164,
      "female": 2165,
      "construct": 2166,
      "clum": 2167,
      "cop": 2168,
      "attle": 2169,
      "reson": 2170,
      "strugg": 2171,
      "listic": 2172,
      "burn": 2173,
      "bol": 2174,
      "sid": 2175,
      "deft": 2176,
      "words": 2177,
      "stere": 2178,
      "motion": 2179,
      "pointless": 2180,
      "apparent": 2181,
      "mindless": 2182,
      "glor": 2183,
      "product": 2184,
      "promise": 2185,
      "begin": 2186,
      "demand": 2187,
      "spielberg": 2188,
      "blow": 2189,
      "dish": 2190,
      "name": 2191,
      "deriv": 2192,
      "bot": 2193,
      "credit": 2194,
      "render": 2195,
      "single": 2196,
      "sexual": 2197,
      "ridiculous": 2198,
      "called": 2199,
      "frame": 2200,
      "presents": 2201,
      "episode": 2202,
      "manipulative": 2203,
      "superficial": 2204,
      "hom": 2205,
      "kable": 2206,
      "kward": 2207,
      "rout": 2208,
      "song": 2209,
      "sket": 2210,
      "tro": 2211,
      "incredi": 2212,
      "sets": 2213,
      "unexpected": 2214,
      "novel": 2215,
      "ries": 2216,
      "share": 2217,
      "emb": 2218,
      "opport": 2219,
      "realism": 2220,
      "minor": 2221,
      "playing": 2222,
      "awkward": 2223,
      "pped": 2224,
      "avoid": 2225,
      "couple": 2226,
      "twists": 2227,
      "captures": 2228,
      "devast": 2229,
      "execution": 2230,
      "whether": 2231,
      "issues": 2232,
      "opportun": 2233,
      "bers": 2234,
      "bright": 2235,
      "iest": 2236,
      "mart": 2237,
      "mist": 2238,
      "steven": 2239,
      "compe": 2240,
      "pert": 2241,
      "umph": 2242,
      "process": 2243,
      "accept": 2244,
      "ensemble": 2245,
      "free": 2246,
      "getic": 2247,
      "tribut": 2248,
      "triumph": 2249,
      "centr": 2250,
      "carto": 2251,
      "deserves": 2252,
      "contempor": 2253,
      "stereot": 2254,
      "fu": 2255,
      "langu": 2256,
      "wed": 2257,
      "indie": 2258,
      "arily": 2259,
      "christ": 2260,
      "somewhat": 2261,
      "across": 2262,
      "tear": 2263,
      "philo": 2264,
      "served": 2265,
      "memory": 2266,
      "corn": 2267,
      "girls": 2268,
      "problem": 2269,
      "pacing": 2270,
      "depressing": 2271,
      "intimate": 2272,
      "philosoph": 2273,
      "ace": 2274,
      "aks": 2275,
      "bow": 2276,
      "eld": 2277,
      "absor": 2278,
      "embra": 2279,
      "word": 2280,
      "tains": 2281,
      "ups": 2282,
      "guess": 2283,
      "paper": 2284,
      "insult": 2285,
      "lovely": 2286,
      "anger": 2287,
      "belly": 2288,
      "arring": 2289,
      "surprises": 2290,
      "exciting": 2291,
      "intrigue": 2292,
      "huge": 2293,
      "conventional": 2294,
      "supposed": 2295,
      "bs": 2296,
      "camp": 2297,
      "date": 2298,
      "fiction": 2299,
      "ga": 2300,
      "chy": 2301,
      "unk": 2302,
      "uneven": 2303,
      "oles": 2304,
      "aster": 2305,
      "rug": 2306,
      "tragic": 2307,
      "justice": 2308,
      "gress": 2309,
      "brut": 2310,
      "cliched": 2311,
      "starts": 2312,
      "striking": 2313,
      "delicate": 2314,
      "goofy": 2315,
      "conscious": 2316,
      "authentic": 2317,
      "fal": 2318,
      "ied": 2319,
      "ude": 2320,
      "throw": 2321,
      "iny": 2322,
      "deal": 2323,
      "verse": 2324,
      "supp": 2325,
      "whim": 2326,
      "evil": 2327,
      "pho": 2328,
      "green": 2329,
      "brings": 2330,
      "smile": 2331,
      "chees": 2332,
      "sexy": 2333,
      "count": 2334,
      "chilling": 2335,
      "mediocre": 2336,
      "sophisticated": 2337,
      "stereotyp": 2338,
      "fish": 2339,
      "tire": 2340,
      "wren": 2341,
      "mother": 2342,
      "enter": 2343,
      "someone": 2344,
      "cred": 2345,
      "overcome": 2346,
      "compass": 2347,
      "design": 2348,
      "heartfelt": 2349,
      "humanity": 2350,
      "medi": 2351,
      "dazz": 2352,
      "shots": 2353,
      "transc": 2354,
      "slightly": 2355,
      "coherent": 2356,
      "occasionally": 2357,
      "repetit": 2358,
      "number": 2359,
      "tribute": 2360,
      "contemporary": 2361,
      "tiresome": 2362,
      "aver": 2363,
      "gross": 2364,
      "ibly": 2365,
      "mou": 2366,
      "nal": 2367,
      "rical": 2368,
      "remake": 2369,
      "stale": 2370,
      "orm": 2371,
      "today": 2372,
      "living": 2373,
      "fill": 2374,
      "conv": 2375,
      "perform": 2376,
      "worthwhile": 2377,
      "plenty": 2378,
      "broad": 2379,
      "dama": 2380,
      "generic": 2381,
      "allows": 2382,
      "twisted": 2383,
      "equally": 2384,
      "nicely": 2385,
      "strange": 2386,
      "sandler": 2387,
      "**": 2388,
      "fright": 2389,
      "hind": 2390,
      "nel": 2391,
      "van": 2392,
      "eness": 2393,
      "aps": 2394,
      "events": 2395,
      "tten": 2396,
      "realistic": 2397,
      "playful": 2398,
      "excit": 2399,
      "sincere": 2400,
      "failure": 2401,
      "painfully": 2402,
      "lines": 2403,
      "based": 2404,
      "funnier": 2405,
      "target": 2406,
      "altern": 2407,
      "city": 2408,
      "ka": 2409,
      "mild": 2410,
      "thro": 2411,
      "aspect": 2412,
      "chem": 2413,
      "raw": 2414,
      "load": 2415,
      "lies": 2416,
      "commer": 2417,
      "shop": 2418,
      "terrible": 2419,
      "quently": 2420,
      "intro": 2421,
      "ists": 2422,
      "storyline": 2423,
      "party": 2424,
      "spirited": 2425,
      "needs": 2426,
      "courage": 2427,
      "holds": 2428,
      "techn": 2429,
      "200": 2430,
      "mesmer": 2431,
      "cir": 2432,
      "gon": 2433,
      "uck": 2434,
      "vant": 2435,
      "lets": 2436,
      "ils": 2437,
      "chang": 2438,
      "likable": 2439,
      "filled": 2440,
      "apart": 2441,
      "uss": 2442,
      "thanks": 2443,
      "inept": 2444,
      "warming": 2445,
      "happy": 2446,
      "country": 2447,
      "remarkably": 2448,
      "poetry": 2449,
      "quisite": 2450,
      "sensu": 2451,
      "amateurish": 2452,
      "egr": 2453,
      "gut": 2454,
      "jer": 2455,
      "rum": 2456,
      "yal": 2457,
      "resp": 2458,
      "asure": 2459,
      "rable": 2460,
      "lif": 2461,
      "appre": 2462,
      "integr": 2463,
      "clarity": 2464,
      "izes": 2465,
      "casting": 2466,
      "relent": 2467,
      "ultimate": 2468,
      "contin": 2469,
      "univers": 2470,
      "insightful": 2471,
      "large": 2472,
      "sounds": 2473,
      "breathtaking": 2474,
      "devoid": 2475,
      "appreci": 2476,
      "bt": 2477,
      "bound": 2478,
      "cour": 2479,
      "pit": 2480,
      "round": 2481,
      "stage": 2482,
      "ilities": 2483,
      "unt": 2484,
      "forget": 2485,
      "among": 2486,
      "ousy": 2487,
      "tack": 2488,
      "bored": 2489,
      "draw": 2490,
      "rarely": 2491,
      "bri": 2492,
      "lame": 2493,
      "san": 2494,
      "text": 2495,
      "inv": 2496,
      "inct": 2497,
      "itable": 2498,
      "itative": 2499,
      "andon": 2500,
      "sem": 2501,
      "determin": 2502,
      "sham": 2503,
      "olly": 2504,
      "prim": 2505,
      "company": 2506,
      "achiev": 2507,
      "clearly": 2508,
      "obs": 2509,
      "arrass": 2510,
      "viewing": 2511,
      "energetic": 2512,
      "wants": 2513,
      "curi": 2514,
      "affir": 2515,
      "exactly": 2516,
      "embarrass": 2517,
      "cartoon": 2518,
      "battle": 2519,
      "vic": 2520,
      "ency": 2521,
      "atic": 2522,
      "taken": 2523,
      "sports": 2524,
      "runs": 2525,
      "turned": 2526,
      "genuinely": 2527,
      "strangely": 2528,
      "wildly": 2529,
      "situation": 2530,
      "refreshing": 2531,
      "funniest": 2532,
      "faithful": 2533,
      "figure": 2534,
      "guilty": 2535,
      "fab": 2536,
      "mc": 2537,
      "ank": 2538,
      "atmo": 2539,
      "stom": 2540,
      "rob": 2541,
      "shame": 2542,
      "soci": 2543,
      "allen": 2544,
      "access": 2545,
      "guys": 2546,
      "mention": 2547,
      "orting": 2548,
      "impact": 2549,
      "appy": 2550,
      "typ": 2551,
      "award": 2552,
      "empty": 2553,
      "extraordinary": 2554,
      "metap": 2555,
      "festival": 2556,
      "sloppy": 2557,
      "atmosp": 2558,
      "flo": 2559,
      "national": 2560,
      "sne": 2561,
      "sitting": 2562,
      "yarn": 2563,
      "enn": 2564,
      "ison": 2565,
      "asm": 2566,
      "iling": 2567,
      "ades": 2568,
      "ared": 2569,
      "emp": 2570,
      "istry": 2571,
      "guy": 2572,
      "yourself": 2573,
      "badly": 2574,
      "minded": 2575,
      "missed": 2576,
      "meditation": 2577,
      "stars": 2578,
      "cruel": 2579,
      "captiv": 2580,
      "wasted": 2581,
      "photo": 2582,
      "chemistry": 2583,
      "biz": 2584,
      "gay": 2585,
      "gment": 2586,
      "ker": 2587,
      "willi": 2588,
      "alone": 2589,
      "aries": 2590,
      "exp": 2591,
      "alling": 2592,
      "joke": 2593,
      "marks": 2594,
      "ocused": 2595,
      "originality": 2596,
      "wonderfully": 2597,
      "effective": 2598,
      "politics": 2599,
      "begins": 2600,
      "dreams": 2601,
      "gripping": 2602,
      "position": 2603,
      "rewarding": 2604,
      "explor": 2605,
      "annoying": 2606,
      "commercial": 2607,
      "ax": 2608,
      "ja": 2609,
      "ator": 2610,
      "onic": 2611,
      "decept": 2612,
      "sug": 2613,
      "admira": 2614,
      "frequently": 2615,
      "america": 2616,
      "graphic": 2617,
      "value": 2618,
      "counter": 2619,
      "signific": 2620,
      "problems": 2621,
      "questions": 2622,
      "indulgent": 2623,
      "trouble": 2624,
      "universal": 2625,
      "cross": 2626,
      "hall": 2627,
      "oy": 2628,
      "tor": 2629,
      "ancy": 2630,
      "stren": 2631,
      "chance": 2632,
      "behind": 2633,
      "sca": 2634,
      "soon": 2635,
      "bog": 2636,
      "created": 2637,
      "earth": 2638,
      "interested": 2639,
      "glimp": 2640,
      "sheer": 2641,
      "voice": 2642,
      "science": 2643,
      "frank": 2644,
      "twice": 2645,
      "alien": 2646,
      "merely": 2647,
      "conclusion": 2648,
      "derivative": 2649,
      "devastating": 2650,
      "excitement": 2651,
      "latest": 2652,
      "tender": 2653,
      "icking": 2654,
      "elo": 2655,
      "unnecessary": 2656,
      "lift": 2657,
      "liked": 2658,
      "uter": 2659,
      "white": 2660,
      "ants": 2661,
      "acc": 2662,
      "creates": 2663,
      "mud": 2664,
      "computer": 2665,
      "bles": 2666,
      "grat": 2667,
      "tread": 2668,
      "capable": 2669,
      "puts": 2670,
      "crush": 2671,
      "flawed": 2672,
      "iveness": 2673,
      "detailed": 2674,
      "slapstick": 2675,
      "extremely": 2676,
      "succeeds": 2677,
      "provoking": 2678,
      "absolutely": 2679,
      "brid": 2680,
      "hun": 2681,
      "kers": 2682,
      "late": 2683,
      "nast": 2684,
      "sappy": 2685,
      "era": 2686,
      "recor": 2687,
      "lots": 2688,
      "robert": 2689,
      "notice": 2690,
      "clu": 2691,
      "tradit": 2692,
      "mug": 2693,
      "disgu": 2694,
      "grant": 2695,
      "hardly": 2696,
      "handed": 2697,
      "popcorn": 2698,
      "push": 2699,
      "suffers": 2700,
      "natured": 2701,
      "attraction": 2702,
      "paced": 2703,
      "friendship": 2704,
      "involving": 2705,
      "british": 2706,
      "villa": 2707,
      "fur": 2708,
      "hes": 2709,
      "jap": 2710,
      "pin": 2711,
      "pile": 2712,
      "rand": 2713,
      "ingu": 2714,
      "lest": 2715,
      "imax": 2716,
      "vibr": 2717,
      "goers": 2718,
      "tagon": 2719,
      "previous": 2720,
      "protagon": 2721,
      "places": 2722,
      "meandering": 2723,
      "comprom": 2724,
      "heartwarming": 2725,
      "horrible": 2726,
      "distingu": 2727,
      "breaking": 2728,
      "spectacle": 2729,
      "doubt": 2730,
      "college": 2731,
      "demonstr": 2732,
      "typical": 2733,
      "nasty": 2734,
      "cand": 2735,
      "drug": 2736,
      "nic": 2737,
      "nation": 2738,
      "alive": 2739,
      "escap": 2740,
      "dig": 2741,
      "mature": 2742,
      "disaster": 2743,
      "grade": 2744,
      "motiv": 2745,
      "downright": 2746,
      "standing": 2747,
      "wond": 2748,
      "dreary": 2749,
      "possibly": 2750,
      "zzy": 2751,
      "seriously": 2752,
      "service": 2753,
      "attempts": 2754,
      "treatment": 2755,
      "wanna": 2756,
      "dimensional": 2757,
      "incredibly": 2758,
      "opportunity": 2759,
      "credits": 2760,
      "performers": 2761,
      "mesmerizing": 2762,
      "stomach": 2763,
      "dv": 2764,
      "fing": 2765,
      "gust": 2766,
      "hate": 2767,
      "jud": 2768,
      "park": 2769,
      "si": 2770,
      "wick": 2771,
      "ero": 2772,
      "onder": 2773,
      "ander": 2774,
      "beha": 2775,
      "arts": 2776,
      "preh": 2777,
      "creat": 2778,
      "overall": 2779,
      "suspenseful": 2780,
      "street": 2781,
      "refreshingly": 2782,
      "identity": 2783,
      "innov": 2784,
      "card": 2785,
      "gid": 2786,
      "xic": 2787,
      "recy": 2788,
      "chant": 2789,
      "vides": 2790,
      "filling": 2791,
      "artific": 2792,
      "cks": 2793,
      "gotten": 2794,
      "provides": 2795,
      "haun": 2796,
      "ify": 2797,
      "teach": 2798,
      "scream": 2799,
      "realized": 2800,
      "ideal": 2801,
      "gradu": 2802,
      "grou": 2803,
      "directors": 2804,
      "turning": 2805,
      "pleasing": 2806,
      "check": 2807,
      "sitcom": 2808,
      "brown": 2809,
      "americans": 2810,
      "trick": 2811,
      "trash": 2812,
      "skin": 2813,
      "delivery": 2814,
      "balance": 2815,
      "publ": 2816,
      "murder": 2817,
      "oddly": 2818,
      "stunning": 2819,
      "stock": 2820,
      "elegant": 2821,
      "assured": 2822,
      "riveting": 2823,
      "absorbing": 2824,
      "suggest": 2825,
      "artificial": 2826,
      "fle": 2827,
      "jum": 2828,
      "oo": 2829,
      "pitch": 2830,
      "uc": 2831,
      "aly": 2832,
      "chall": 2833,
      "chise": 2834,
      "vey": 2835,
      "decess": 2836,
      "dies": 2837,
      "exquisite": 2838,
      "predecess": 2839,
      "ister": 2840,
      "phy": 2841,
      "survi": 2842,
      "willing": 2843,
      "spec": 2844,
      "laughter": 2845,
      "ledge": 2846,
      "dress": 2847,
      "build": 2848,
      "finds": 2849,
      "visuals": 2850,
      "superb": 2851,
      "waiting": 2852,
      "profess": 2853,
      "reveals": 2854,
      "franchise": 2855,
      "ibilities": 2856,
      "fatal": 2857,
      "comfortable": 2858,
      "sleep": 2859,
      "includ": 2860,
      "business": 2861,
      "bottom": 2862,
      "dazzling": 2863,
      "average": 2864,
      "conviction": 2865,
      "until": 2866,
      "japan": 2867,
      "challeng": 2868,
      "bag": 2869,
      "bold": 2870,
      "bond": 2871,
      "bio": 2872,
      "dled": 2873,
      "eu": 2874,
      "pick": 2875,
      "tends": 2876,
      "vate": 2877,
      "esque": 2878,
      "town": 2879,
      "editing": 2880,
      "modest": 2881,
      "unimaginative": 2882,
      "shad": 2883,
      "lazy": 2884,
      "irrit": 2885,
      "indust": 2886,
      "lessness": 2887,
      "match": 2888,
      "please": 2889,
      "intellect": 2890,
      "thrills": 2891,
      "david": 2892,
      "general": 2893,
      "profound": 2894,
      "revealing": 2895,
      "poetic": 2896,
      "regard": 2897,
      "amazing": 2898,
      "crisp": 2899,
      "secret": 2900,
      "sides": 2901,
      "false": 2902,
      "2002": 2903,
      "eve": 2904,
      "five": 2905,
      "tough": 2906,
      "tort": 2907,
      "although": 2908,
      "season": 2909,
      "suspect": 2910,
      "nox": 2911,
      "ament": 2912,
      "content": 2913,
      "preach": 2914,
      "matically": 2915,
      "ires": 2916,
      "descri": 2917,
      "obnox": 2918,
      "maybe": 2919,
      "subjects": 2920,
      "leads": 2921,
      "depend": 2922,
      "damned": 2923,
      "sympathetic": 2924,
      "grown": 2925,
      "bullock": 2926,
      "vulgar": 2927,
      "complicated": 2928,
      "achievement": 2929,
      "cheesy": 2930,
      "respons": 2931,
      "including": 2932,
      "gan": 2933,
      "lud": 2934,
      "sight": 2935,
      "vy": 2936,
      "zed": 2937,
      "ingen": 2938,
      "esca": 2939,
      "anders": 2940,
      "icrous": 2941,
      "chin": 2942,
      "vior": 2943,
      "whel": 2944,
      "wide": 2945,
      "shy": 2946,
      "feat": 2947,
      "fears": 2948,
      "confl": 2949,
      "bore": 2950,
      "track": 2951,
      "comedic": 2952,
      "ache": 2953,
      "ashed": 2954,
      "studio": 2955,
      "happen": 2956,
      "listless": 2957,
      "sequels": 2958,
      "question": 2959,
      "growing": 2960,
      "substance": 2961,
      "community": 2962,
      "undeniably": 2963,
      "routine": 2964,
      "competent": 2965,
      "admirable": 2966,
      "behavior": 2967,
      "ludicrous": 2968,
      "escape": 2969,
      "cell": 2970,
      "fly": 2971,
      "gth": 2972,
      "lousy": 2973,
      "punch": 2974,
      "ponder": 2975,
      "arc": 2976,
      "cha": 2977,
      "ram": 2978,
      "lie": 2979,
      "excess": 2980,
      "neg": 2981,
      "scrat": 2982,
      "ager": 2983,
      "note": 2984,
      "ified": 2985,
      "acity": 2986,
      "means": 2987,
      "disco": 2988,
      "talents": 2989,
      "sequence": 2990,
      "field": 2991,
      "control": 2992,
      "cleverly": 2993,
      "murphy": 2994,
      "attractive": 2995,
      "obsess": 2996,
      "strength": 2997,
      "hem": 2998,
      "tun": 2999,
      "tally": 3000,
      "zone": 3001,
      "ining": 3002,
      "endid": 3003,
      "ises": 3004,
      "arre": 3005,
      "totally": 3006,
      "bear": 3007,
      "wife": 3008,
      "ribly": 3009,
      "proper": 3010,
      "bother": 3011,
      "itted": 3012,
      "insane": 3013,
      "blue": 3014,
      "excuse": 3015,
      "glory": 3016,
      "fied": 3017,
      "witch": 3018,
      "mainstream": 3019,
      "sentimentality": 3020,
      "grief": 3021,
      "formulaic": 3022,
      "splendid": 3023,
      "quickly": 3024,
      "various": 3025,
      "poignant": 3026,
      "television": 3027,
      "recogn": 3028,
      "sacrif": 3029,
      "compassion": 3030,
      "shameless": 3031,
      "bizarre": 3032,
      "wannabe": 3033,
      "som": 3034,
      "wry": 3035,
      "enorm": 3036,
      "stal": 3037,
      "starring": 3038,
      "icle": 3039,
      "vig": 3040,
      "lived": 3041,
      "superi": 3042,
      "dow": 3043,
      "ante": 3044,
      "agger": 3045,
      "proceed": 3046,
      "intric": 3047,
      "intended": 3048,
      "evocative": 3049,
      "cock": 3050,
      "intoxic": 3051,
      "overwhel": 3052,
      "discover": 3053,
      "ensity": 3054,
      "viscer": 3055,
      "holes": 3056,
      "aked": 3057,
      "strict": 3058,
      "buoy": 3059,
      "perspect": 3060,
      "fortun": 3061,
      "relative": 3062,
      "logic": 3063,
      "melan": 3064,
      "promising": 3065,
      "mixed": 3066,
      "ibility": 3067,
      "unfold": 3068,
      "central": 3069,
      "philosophical": 3070,
      "repetitive": 3071,
      "damage": 3072,
      "victim": 3073,
      "superior": 3074,
      "came": 3075,
      "eper": 3076,
      "eur": 3077,
      "eath": 3078,
      "fit": 3079,
      "idi": 3080,
      "sar": 3081,
      "smug": 3082,
      "remain": 3083,
      "stir": 3084,
      "def": 3085,
      "forgotten": 3086,
      "mag": 3087,
      "liber": 3088,
      "compreh": 3089,
      "dir": 3090,
      "const": 3091,
      "contra": 3092,
      "scale": 3093,
      "trade": 3094,
      "plots": 3095,
      "surface": 3096,
      "humorous": 3097,
      "members": 3098,
      "theaters": 3099,
      "produced": 3100,
      "largely": 3101,
      "food": 3102,
      "violent": 3103,
      "subtlety": 3104,
      "beneath": 3105,
      "decades": 3106,
      "known": 3107,
      "charisma": 3108,
      "gifted": 3109,
      "connect": 3110,
      "aspects": 3111,
      "glimpse": 3112,
      "creativity": 3113,
      "recycl": 3114,
      "discovery": 3115,
      "hur": 3116,
      "mil": 3117,
      "others": 3118,
      "rating": 3119,
      "sell": 3120,
      "wis": 3121,
      "ino": 3122,
      "incon": 3123,
      "redu": 3124,
      "unpleasant": 3125,
      "depict": 3126,
      "root": 3127,
      "noir": 3128,
      "actic": 3129,
      "outrage": 3130,
      "hair": 3131,
      "upt": 3132,
      "plod": 3133,
      "crim": 3134,
      "points": 3135,
      "horrif": 3136,
      "flair": 3137,
      "channel": 3138,
      "delightfully": 3139,
      "crude": 3140,
      "block": 3141,
      "deserve": 3142,
      "claim": 3143,
      "constructed": 3144,
      "beginning": 3145,
      "designed": 3146,
      "haunting": 3147,
      "public": 3148,
      "irritating": 3149,
      "industry": 3150,
      "perspective": 3151,
      "cence": 3152,
      "fro": 3153,
      "sun": 3154,
      "tick": 3155,
      "retread": 3156,
      "sea": 3157,
      "immedi": 3158,
      "irre": 3159,
      "exhilar": 3160,
      "pot": 3161,
      "space": 3162,
      "week": 3163,
      "intensity": 3164,
      "endless": 3165,
      "loose": 3166,
      "famil": 3167,
      "walk": 3168,
      "levels": 3169,
      "confusing": 3170,
      "passionate": 3171,
      "drown": 3172,
      "particular": 3173,
      "virtually": 3174,
      "accomplished": 3175,
      "songs": 3176,
      "exhilarating": 3177,
      "ake": 3178,
      "bru": 3179,
      "hide": 3180,
      "kin": 3181,
      "nom": 3182,
      "ners": 3183,
      "requ": 3184,
      "theme": 3185,
      "lyn": 3186,
      "toss": 3187,
      "iler": 3188,
      "liday": 3189,
      "acts": 3190,
      "george": 3191,
      "near": 3192,
      "spin": 3193,
      "provide": 3194,
      "patho": 3195,
      "office": 3196,
      "drawn": 3197,
      "overly": 3198,
      "ored": 3199,
      "holiday": 3200,
      "characteriz": 3201,
      "crack": 3202,
      "dread": 3203,
      "finding": 3204,
      "generally": 3205,
      "happens": 3206,
      "transp": 3207,
      "stret": 3208,
      "quietly": 3209,
      "shakes": 3210,
      "jackson": 3211,
      "gangster": 3212,
      "consistently": 3213,
      "observations": 3214,
      "rhythms": 3215,
      "guns": 3216,
      "stereotypes": 3217,
      "affirming": 3218,
      "exploration": 3219,
      "lifting": 3220,
      "vibrant": 3221,
      "digital": 3222,
      "group": 3223,
      "professional": 3224,
      "challenging": 3225,
      "bum": 3226,
      "bomb": 3227,
      "ec": 3228,
      "gru": 3229,
      "ki": 3230,
      "mass": 3231,
      "pil": 3232,
      "va": 3233,
      "vap": 3234,
      "vamp": 3235,
      "remo": 3236,
      "reck": 3237,
      "oring": 3238,
      "entially": 3239,
      "bears": 3240,
      "essentially": 3241,
      "ambig": 3242,
      "condition": 3243,
      "funct": 3244,
      "indu": 3245,
      "acious": 3246,
      "offering": 3247,
      "ffic": 3248,
      "affair": 3249,
      "wrought": 3250,
      "played": 3251,
      "farce": 3252,
      "writers": 3253,
      "structure": 3254,
      "refer": 3255,
      "soundtrack": 3256,
      "releas": 3257,
      "endeav": 3258,
      "development": 3259,
      "blade": 3260,
      "limited": 3261,
      "marvelous": 3262,
      "rhythm": 3263,
      "precious": 3264,
      "accessible": 3265,
      "bitt": 3266,
      "games": 3267,
      "pian": 3268,
      "ture": 3269,
      "store": 3270,
      "orous": 3271,
      "edited": 3272,
      "unconvincing": 3273,
      "sud": 3274,
      "adult": 3275,
      "irresist": 3276,
      "upon": 3277,
      "fake": 3278,
      "disc": 3279,
      "object": 3280,
      "missing": 3281,
      "crazy": 3282,
      "persona": 3283,
      "reading": 3284,
      "eyed": 3285,
      "delights": 3286,
      "pses": 3287,
      "relevant": 3288,
      "appropri": 3289,
      "developed": 3290,
      "potential": 3291,
      "packed": 3292,
      "favorite": 3293,
      "dvd": 3294,
      "obnoxious": 3295,
      "buoyant": 3296,
      "dirty": 3297,
      "bill": 3298,
      "baf": 3299,
      "cable": 3300,
      "gold": 3301,
      "hen": 3302,
      "hus": 3303,
      "hicle": 3304,
      "ives": 3305,
      "junk": 3306,
      "pen": 3307,
      "saw": 3308,
      "vital": 3309,
      "washing": 3310,
      "inev": 3311,
      "iced": 3312,
      "chase": 3313,
      "vehicle": 3314,
      "loc": 3315,
      "loses": 3316,
      "format": 3317,
      "addition": 3318,
      "amused": 3319,
      "apl": 3320,
      "spent": 3321,
      "boys": 3322,
      "cohes": 3323,
      "timely": 3324,
      "canny": 3325,
      "surround": 3326,
      "talking": 3327,
      "dub": 3328,
      "enjoyed": 3329,
      "answers": 3330,
      "aky": 3331,
      "sink": 3332,
      "distra": 3333,
      "niro": 3334,
      "born": 3335,
      "masterful": 3336,
      "south": 3337,
      "sake": 3338,
      "lush": 3339,
      "techno": 3340,
      "hugely": 3341,
      "flashy": 3342,
      "pract": 3343,
      "clumsy": 3344,
      "rendered": 3345,
      "transcend": 3346,
      "changing": 3347,
      "metaphor": 3348,
      "emphas": 3349,
      "captivating": 3350,
      "further": 3351,
      "shadow": 3352,
      "washington": 3353,
      "00": 3354,
      "bone": 3355,
      "cam": 3356,
      "don": 3357,
      "hi": 3358,
      "han": 3359,
      "mend": 3360,
      "mult": 3361,
      "incre": 3362,
      "revol": 3363,
      "report": 3364,
      "stic": 3365,
      "ision": 3366,
      "ands": 3367,
      "setting": 3368,
      "unab": 3369,
      "older": 3370,
      "empathy": 3371,
      "spell": 3372,
      "prop": 3373,
      "ption": 3374,
      "travel": 3375,
      "plotting": 3376,
      "tted": 3377,
      "hearts": 3378,
      "gently": 3379,
      "carries": 3380,
      "succum": 3381,
      "redund": 3382,
      "sensational": 3383,
      "wait": 3384,
      "deadly": 3385,
      "heaven": 3386,
      "disappointing": 3387,
      "exceptional": 3388,
      "frustration": 3389,
      "tells": 3390,
      "osity": 3391,
      "killer": 3392,
      "astonishing": 3393,
      "struggle": 3394,
      "blown": 3395,
      "achieves": 3396,
      "eloquent": 3397,
      "gradually": 3398,
      "intoxicating": 3399,
      "visceral": 3400,
      "bang": 3401,
      "danger": 3402,
      "hoff": 3403,
      "hitch": 3404,
      "lat": 3405,
      "nich": 3406,
      "ose": 3407,
      "sod": 3408,
      "smar": 3409,
      "za": 3410,
      "third": 3411,
      "incoherent": 3412,
      "rece": 3413,
      "represents": 3414,
      "theless": 3415,
      "onto": 3416,
      "itude": 3417,
      "lee": 3418,
      "unpredictable": 3419,
      "roc": 3420,
      "wholly": 3421,
      "exceed": 3422,
      "terms": 3423,
      "moviegoers": 3424,
      "astound": 3425,
      "uplifting": 3426,
      "boo": 3427,
      "itty": 3428,
      "oping": 3429,
      "heartbreaking": 3430,
      "directorial": 3431,
      "laughing": 3432,
      "crass": 3433,
      "mayhem": 3434,
      "crap": 3435,
      "kiddie": 3436,
      "brothers": 3437,
      "hands": 3438,
      "singer": 3439,
      "winner": 3440,
      "slice": 3441,
      "said": 3442,
      "presented": 3443,
      "unfocused": 3444,
      "source": 3445,
      "attered": 3446,
      "undeniable": 3447,
      "mildly": 3448,
      "conflict": 3449,
      "hoffman": 3450,
      "smarter": 3451,
      "awe": 3452,
      "cry": 3453,
      "dare": 3454,
      "eer": 3455,
      "hmer": 3456,
      "jol": 3457,
      "nes": 3458,
      "slack": 3459,
      "slip": 3460,
      "wall": 3461,
      "yes": 3462,
      "stif": 3463,
      "orious": 3464,
      "orient": 3465,
      "ray": 3466,
      "shre": 3467,
      "outstanding": 3468,
      "yous": 3469,
      "poem": 3470,
      "poster": 3471,
      "urday": 3472,
      "wever": 3473,
      "team": 3474,
      "mental": 3475,
      "joyous": 3476,
      "offbeat": 3477,
      "vised": 3478,
      "genial": 3479,
      "worked": 3480,
      "however": 3481,
      "saturday": 3482,
      "string": 3483,
      "knowledge": 3484,
      "graphed": 3485,
      "save": 3486,
      "exploitation": 3487,
      "exploitative": 3488,
      "affecting": 3489,
      "melodramatic": 3490,
      "spoo": 3491,
      "adequ": 3492,
      "knock": 3493,
      "standards": 3494,
      "transform": 3495,
      "wedding": 3496,
      "christmas": 3497,
      "supporting": 3498,
      "mouth": 3499,
      "williams": 3500,
      "preachy": 3501,
      "thes": 3502,
      "oul": 3503,
      "lyrical": 3504,
      "unfortun": 3505,
      "lig": 3506,
      "comment": 3507,
      "ami": 3508,
      "terror": 3509,
      "pecul": 3510,
      "ury": 3511,
      "agers": 3512,
      "spite": 3513,
      "somehow": 3514,
      "box": 3515,
      "ryan": 3516,
      "disgust": 3517,
      "ensible": 3518,
      "marg": 3519,
      "ived": 3520,
      "pleasures": 3521,
      "emotion": 3522,
      "bitter": 3523,
      "giant": 3524,
      "titles": 3525,
      "musical": 3526,
      "stuck": 3527,
      "needed": 3528,
      "parable": 3529,
      "fantastic": 3530,
      "luck": 3531,
      "grandeur": 3532,
      "dragon": 3533,
      "pati": 3534,
      "spot": 3535,
      "sympathy": 3536,
      "amounts": 3537,
      "innocence": 3538,
      "choppy": 3539,
      "introdu": 3540,
      "sensual": 3541,
      "course": 3542,
      "wickedly": 3543,
      "horrifying": 3544,
      "peculi": 3545,
      "bour": 3546,
      "ded": 3547,
      "fate": 3548,
      "foul": 3549,
      "jul": 3550,
      "moun": 3551,
      "pale": 3552,
      "ters": 3553,
      "uity": 3554,
      "thir": 3555,
      "thous": 3556,
      "inner": 3557,
      "erce": 3558,
      "erber": 3559,
      "reven": 3560,
      "seag": 3561,
      "rad": 3562,
      "pos": 3563,
      "ousness": 3564,
      "charmer": 3565,
      "endure": 3566,
      "tears": 3567,
      "placed": 3568,
      "eping": 3569,
      "flim": 3570,
      "price": 3571,
      "brought": 3572,
      "realize": 3573,
      "stein": 3574,
      "flavor": 3575,
      "handsome": 3576,
      "fierce": 3577,
      "personality": 3578,
      "skip": 3579,
      "foot": 3580,
      "difference": 3581,
      "current": 3582,
      "considered": 3583,
      "executed": 3584,
      "lady": 3585,
      "revelatory": 3586,
      "wilde": 3587,
      "immense": 3588,
      "machine": 3589,
      "astonish": 3590,
      "atmosphere": 3591,
      "stirring": 3592,
      "trademark": 3593,
      "blockb": 3594,
      "vapid": 3595,
      "remote": 3596,
      "soderber": 3597,
      "revenge": 3598,
      "seagal": 3599,
      "soderbergh": 3600,
      "aa": 3601,
      "dom": 3602,
      "dol": 3603,
      "dust": 3604,
      "gory": 3605,
      "hits": 3606,
      "jag": 3607,
      "lon": 3608,
      "lun": 3609,
      "lum": 3610,
      "nick": 3611,
      "pom": 3612,
      "rin": 3613,
      "swal": 3614,
      "inher": 3615,
      "enced": 3616,
      "atus": 3617,
      "stin": 3618,
      "educ": 3619,
      "cher": 3620,
      "unoriginal": 3621,
      "unlikable": 3622,
      "vest": 3623,
      "deed": 3624,
      "abandon": 3625,
      "roo": 3626,
      "dign": 3627,
      "shelf": 3628,
      "lawren": 3629,
      "ument": 3630,
      "aggress": 3631,
      "clim": 3632,
      "accur": 3633,
      "insky": 3634,
      "laughable": 3635,
      "bigger": 3636,
      "aware": 3637,
      "resol": 3638,
      "simplistic": 3639,
      "teenagers": 3640,
      "banal": 3641,
      "larger": 3642,
      "confident": 3643,
      "murky": 3644,
      "understanding": 3645,
      "attract": 3646,
      "positive": 3647,
      "potentially": 3648,
      "vividly": 3649,
      "hopeful": 3650,
      "collection": 3651,
      "resonant": 3652,
      "random": 3653,
      "compromising": 3654,
      "intricate": 3655,
      "endeavor": 3656,
      "lawrence": 3657,
      "ahead": 3658,
      "bunch": 3659,
      "east": 3660,
      "eager": 3661,
      "snow": 3662,
      "tend": 3663,
      "rehas": 3664,
      "alan": 3665,
      "deem": 3666,
      "adam": 3667,
      "filmed": 3668,
      "lace": 3669,
      "lapses": 3670,
      "gem": 3671,
      "erswe": 3672,
      "exper": 3673,
      "term": 3674,
      "sober": 3675,
      "urous": 3676,
      "somewhere": 3677,
      "auto": 3678,
      "flin": 3679,
      "fred": 3680,
      "wars": 3681,
      "spirits": 3682,
      "biting": 3683,
      "resour": 3684,
      "freshness": 3685,
      "buff": 3686,
      "cyn": 3687,
      "fix": 3688,
      "witness": 3689,
      "portrayal": 3690,
      "nonsense": 3691,
      "iety": 3692,
      "foo": 3693,
      "suffering": 3694,
      "eventually": 3695,
      "absurdity": 3696,
      "charismatic": 3697,
      "poignancy": 3698,
      "deftly": 3699,
      "japanese": 3700,
      "vampire": 3701,
      "bitterswe": 3702,
      "revolution": 3703,
      "experiment": 3704,
      "bittersweet": 3705,
      "bon": 3706,
      "eks": 3707,
      "idio": 3708,
      "kore": 3709,
      "luster": 3710,
      "ping": 3711,
      "sive": 3712,
      "udes": 3713,
      "thumb": 3714,
      "incess": 3715,
      "isive": 3716,
      "asive": 3717,
      "chest": 3718,
      "depart": 3719,
      "loved": 3720,
      "adoles": 3721,
      "essence": 3722,
      "shif": 3723,
      "territ": 3724,
      "neat": 3725,
      "aste": 3726,
      "notch": 3727,
      "blend": 3728,
      "serves": 3729,
      "despair": 3730,
      "ultane": 3731,
      "udlin": 3732,
      "holo": 3733,
      "century": 3734,
      "angst": 3735,
      "minds": 3736,
      "results": 3737,
      "appear": 3738,
      "distaste": 3739,
      "committed": 3740,
      "simultane": 3741,
      "richer": 3742,
      "strain": 3743,
      "transl": 3744,
      "friends": 3745,
      "sophom": 3746,
      "damn": 3747,
      "italian": 3748,
      "folks": 3749,
      "mixture": 3750,
      "example": 3751,
      "touches": 3752,
      "release": 3753,
      "witted": 3754,
      "tensions": 3755,
      "fights": 3756,
      "instantly": 3757,
      "spectacular": 3758,
      "combination": 3759,
      "involved": 3760,
      "square": 3761,
      "shaped": 3762,
      "consistent": 3763,
      "pulls": 3764,
      "enthusiasm": 3765,
      "emerges": 3766,
      "vague": 3767,
      "frightening": 3768,
      "motivated": 3769,
      "proceedings": 3770,
      "unfolds": 3771,
      "plodding": 3772,
      "footage": 3773,
      "territory": 3774,
      "simultaneously": 3775,
      "dick": 3776,
      "dash": 3777,
      "daring": 3778,
      "gel": 3779,
      "kis": 3780,
      "ov": 3781,
      "rupt": 3782,
      "tu": 3783,
      "analy": 3784,
      "return": 3785,
      "sters": 3786,
      "tool": 3787,
      "total": 3788,
      "icon": 3789,
      "ask": 3790,
      "ilt": 3791,
      "beach": 3792,
      "impe": 3793,
      "deeper": 3794,
      "whate": 3795,
      "powers": 3796,
      "peter": 3797,
      "ids": 3798,
      "igno": 3799,
      "board": 3800,
      "teeth": 3801,
      "iza": 3802,
      "underst": 3803,
      "pleaser": 3804,
      "collect": 3805,
      "result": 3806,
      "views": 3807,
      "trite": 3808,
      "queen": 3809,
      "leaving": 3810,
      "happiness": 3811,
      "barber": 3812,
      "balanced": 3813,
      "impression": 3814,
      "capture": 3815,
      "195": 3816,
      "honestly": 3817,
      "artists": 3818,
      "faster": 3819,
      "meaningful": 3820,
      "concerned": 3821,
      "smoo": 3822,
      "clueless": 3823,
      "spooky": 3824,
      "commentary": 3825,
      "dignity": 3826,
      "flinching": 3827,
      "whatever": 3828,
      "12": 3829,
      "70s": 3830,
      "apo": 3831,
      "bid": 3832,
      "bite": 3833,
      "ggy": 3834,
      "jim": 3835,
      "niche": 3836,
      "oli": 3837,
      "pse": 3838,
      "rough": 3839,
      "sane": 3840,
      "zo": 3841,
      "thre": 3842,
      "encou": 3843,
      "envir": 3844,
      "stim": 3845,
      "itivity": 3846,
      "asingly": 3847,
      "illy": 3848,
      "chur": 3849,
      "moore": 3850,
      "unusual": 3851,
      "unforced": 3852,
      "improb": 3853,
      "forward": 3854,
      "mare": 3855,
      "magn": 3856,
      "roph": 3857,
      "subl": 3858,
      "nowhere": 3859,
      "kevin": 3860,
      "iran": 3861,
      "exotic": 3862,
      "odds": 3863,
      "perverse": 3864,
      "empower": 3865,
      "button": 3866,
      "wears": 3867,
      "timing": 3868,
      "endlessly": 3869,
      "evol": 3870,
      "creating": 3871,
      "father": 3872,
      "measure": 3873,
      "fling": 3874,
      "surance": 3875,
      "compar": 3876,
      "market": 3877,
      "visit": 3878,
      "ilet": 3879,
      "ciful": 3880,
      "sweeping": 3881,
      "sweetly": 3882,
      "sweetness": 3883,
      "animal": 3884,
      "sadly": 3885,
      "maintain": 3886,
      "ificent": 3887,
      "values": 3888,
      "insights": 3889,
      "structured": 3890,
      "adventurous": 3891,
      "soulful": 3892,
      "cali": 3893,
      "calcul": 3894,
      "nightmare": 3895,
      "fluff": 3896,
      "details": 3897,
      "fanciful": 3898,
      "critical": 3899,
      "shooting": 3900,
      "improve": 3901,
      "scope": 3902,
      "numbers": 3903,
      "indian": 3904,
      "desperate": 3905,
      "intentionally": 3906,
      "determined": 3907,
      "predecessor": 3908,
      "appropriate": 3909,
      "increasingly": 3910,
      "immensely": 3911,
      "encoura": 3912,
      "magnificent": 3913,
      "bes": 3914,
      "ders": 3915,
      "dau": 3916,
      "haps": 3917,
      "james": 3918,
      "mile": 3919,
      "sill": 3920,
      "tight": 3921,
      "uation": 3922,
      "vity": 3923,
      "wow": 3924,
      "zero": 3925,
      "enthr": 3926,
      "edit": 3927,
      "losing": 3928,
      "formed": 3929,
      "whom": 3930,
      "ador": 3931,
      "adren": 3932,
      "diver": 3933,
      "anti": 3934,
      "pretends": 3935,
      "spider": 3936,
      "spring": 3937,
      "heal": 3938,
      "timeless": 3939,
      "plaus": 3940,
      "afric": 3941,
      "grab": 3942,
      "rank": 3943,
      "seeking": 3944,
      "myth": 3945,
      "rowing": 3946,
      "carried": 3947,
      "type": 3948,
      "cutting": 3949,
      "ease": 3950,
      "knowing": 3951,
      "polished": 3952,
      "satisfied": 3953,
      "features": 3954,
      "ticket": 3955,
      "harrowing": 3956,
      "contriv": 3957,
      "contribut": 3958,
      "199": 3959,
      "dynam": 3960,
      "inspiration": 3961,
      "extravag": 3962,
      "spoof": 3963,
      "substant": 3964,
      "delivered": 3965,
      "movements": 3966,
      "shapeless": 3967,
      "stays": 3968,
      "mission": 3969,
      "literary": 3970,
      "demands": 3971,
      "demanding": 3972,
      "language": 3973,
      "relentlessly": 3974,
      "villain": 3975,
      "protagonist": 3976,
      "magical": 3977,
      "multi": 3978,
      "patience": 3979,
      "adrenal": 3980,
      "glo": 3981,
      "ior": 3982,
      "jones": 3983,
      "narc": 3984,
      "pper": 3985,
      "sion": 3986,
      "tiny": 3987,
      "uable": 3988,
      "wd": 3989,
      "erotic": 3990,
      "atroc": 3991,
      "staged": 3992,
      "esh": 3993,
      "icing": 3994,
      "asks": 3995,
      "unlike": 3996,
      "uncompromising": 3997,
      "racial": 3998,
      "ceful": 3999,
      "common": 4000,
      "erson": 4001,
      "poon": 4002,
      "fulfilling": 4003,
      "scors": 4004,
      "artistic": 4005,
      "illum": 4006,
      "prove": 4007,
      "wea": 4008,
      "ruci": 4009,
      "ety": 4010,
      "boast": 4011,
      "aud": 4012,
      "paul": 4013,
      "atingly": 4014,
      "early": 4015,
      "brand": 4016,
      "imperson": 4017,
      "due": 4018,
      "undercut": 4019,
      "clean": 4020,
      "hoot": 4021,
      "longer": 4022,
      "appalling": 4023,
      "carry": 4024,
      "monty": 4025,
      "excruci": 4026,
      "buy": 4027,
      "buck": 4028,
      "broom": 4029,
      "happening": 4030,
      "sadness": 4031,
      "slug": 4032,
      "friday": 4033,
      "popul": 4034,
      "popular": 4035,
      "valuable": 4036,
      "startling": 4037,
      "convinced": 4038,
      "scient": 4039,
      "strike": 4040,
      "grows": 4041,
      "credible": 4042,
      "journal": 4043,
      "existential": 4044,
      "instinct": 4045,
      "relief": 4046,
      "layers": 4047,
      "burns": 4048,
      "homage": 4049,
      "sketchy": 4050,
      "martin": 4051,
      "scape": 4052,
      "distinguished": 4053,
      "intellectual": 4054,
      "responsible": 4055,
      "relatively": 4056,
      "nomination": 4057,
      "nichol": 4058,
      "unfortunately": 4059,
      "resourceful": 4060,
      "dickens": 4061,
      "african": 4062,
      "scorsese": 4063,
      "ah": 4064,
      "aking": 4065,
      "bility": 4066,
      "dul": 4067,
      "eat": 4068,
      "gers": 4069,
      "gap": 4070,
      "sical": 4071,
      "uit": 4072,
      "vors": 4073,
      "state": 4074,
      "search": 4075,
      "uninspired": 4076,
      "deb": 4077,
      "degre": 4078,
      "loves": 4079,
      "local": 4080,
      "aby": 4081,
      "ablish": 4082,
      "ford": 4083,
      "forgive": 4084,
      "vern": 4085,
      "rote": 4086,
      "roles": 4087,
      "conven": 4088,
      "eman": 4089,
      "heard": 4090,
      "lesson": 4091,
      "tep": 4092,
      "establish": 4093,
      "meet": 4094,
      "princ": 4095
    },
    "merges": [
      "t h",
      "i n",
      "a n",
      "e r",
      "r e",
      "e n",
      "th e",
      "a t",
      "o n",
      "in g",
      "s t",
      "o r",
      "i t",
      "a l",
      "i s",
      "e s",
      "an d",
      "o u",
      "a r",
      "o f",
      "l y",
      "t o",
      "e d",
      "i c",
      "l e",
      "a s",
      "o m",
      "i l",
      "c h",
      "e l",
      "m o",
      "c t",
      "en t",
      "i on",
      "b e",
      "s e",
      "u n",
      "v e",
      "i m",
      "th at",
      "r a",
      "d e",
      "u l",
      "l o",
      "a b",
      "g h",
      "v i",
      "f or",
      "m a",
      "l i",
      "c e",
      "v er",
      "r o",
      "u t",
      "s u",
      "w h",
      "c om",
      "w i",
      "n o",
      "f il",
      "a d",
      "r i",
      "wi th",
      "es s",
      "fil m",
      "a m",
      "d i",
      "s h",
      "k e",
      "a ct",
      "l a",
      "g e",
      "it s",
      "o l",
      "f e",
      "ou t",
      "mo vi",
      "i r",
      "y ou",
      "er s",
      "e x",
      "on e",
      "p o",
      "t er",
      "movi e",
      "c on",
      "ou s",
      "p e",
      "o d",
      "p er",
      "u m",
      "f ul",
      "n e",
      "s c",
      "d o",
      "gh t",
      "s o",
      "i ve",
      "ar t",
      "c k",
      "th is",
      "a re",
      "al l",
      "an t",
      "e m",
      "at ion",
      "th er",
      "g o",
      "a p",
      "w or",
      "q u",
      "t a",
      "b ut",
      "il l",
      "a y",
      "ab le",
      "u re",
      "al ly",
      "m an",
      "r om",
      "u s",
      "p re",
      "u r",
      "a g",
      "s p",
      "at e",
      "h e",
      "i d",
      ". .",
      "ch ar",
      "it y",
      "om e",
      "el l",
      "p ro",
      "w e",
      "h a",
      "in t",
      "or y",
      "b y",
      "a st",
      "l d",
      "s ome",
      "no t",
      "t im",
      "th ing",
      "i st",
      "u st",
      "en d",
      "mo re",
      "e v",
      "th an",
      "ou gh",
      "f un",
      "li ke",
      "- -",
      "o w",
      "in d",
      "in e",
      "p le",
      "h as",
      "u p",
      "ver y",
      "i g",
      "mo st",
      "s s",
      "d er",
      "i f",
      "k ing",
      "h is",
      "ab out",
      "f rom",
      "en ce",
      "c l",
      "r u",
      "e t",
      "b o",
      "it t",
      "i ght",
      "p t",
      "char act",
      "ar d",
      "wh o",
      "ha ve",
      "st ory",
      "ou ld",
      "a u",
      "i ous",
      "ic h",
      "w ay",
      "l ess",
      "a c",
      "t e",
      "t s",
      "i al",
      "t ra",
      "is h",
      "go od",
      "g u",
      "p la",
      "b le",
      "ou n",
      "e p",
      "c o",
      "c es",
      "ou r",
      "w o",
      "n y",
      "an y",
      "h er",
      "re ct",
      "on g",
      "h um",
      "e st",
      "c re",
      "di rect",
      "m ent",
      "in to",
      "k s",
      "to o",
      "th r",
      "f a",
      "j o",
      "m e",
      "p a",
      "r y",
      "p h",
      "k es",
      "of f",
      "m at",
      "in s",
      "i es",
      "com ed",
      ".. .",
      "lo w",
      "f l",
      "d ra",
      "ar y",
      "fun ny",
      "m u",
      "at ing",
      "ic al",
      "o p",
      "as s",
      "ic t",
      "o ver",
      "el f",
      "ev en",
      "v es",
      "p r",
      "d is",
      "w n",
      "tim e",
      "at ive",
      "j ust",
      "en se",
      "ol d",
      "i e",
      "i re",
      "p lo",
      "e ar",
      "ta in",
      "c an",
      "is e",
      "per for",
      "g re",
      "ic k",
      "charact ers",
      "en s",
      "f f",
      "ing ly",
      "su r",
      "o ther",
      "b r",
      "w er",
      "fe el",
      "comed y",
      "wh at",
      "at ed",
      "w ell",
      "com p",
      "t al",
      "you r",
      "n ess",
      "er tain",
      "it e",
      "b ad",
      "w at",
      "w ill",
      "ic e",
      "perfor man",
      "f re",
      "in ter",
      "m ar",
      "oun d",
      "t t",
      "sc re",
      "re al",
      "do es",
      "v is",
      "g en",
      "b l",
      "fe ct",
      "i z",
      "i le",
      "mu ch",
      "i de",
      "s er",
      "lo o",
      "m in",
      "or t",
      "o t",
      "d es",
      "a ge",
      "b er",
      "li fe",
      "a ch",
      "su b",
      "v ing",
      "the ir",
      "l itt",
      "wor k",
      "as h",
      "d el",
      "litt le",
      "e very",
      "a f",
      "an ce",
      "` `",
      "lo ve",
      "w r",
      "he art",
      "m er",
      "' '",
      "pla y",
      "i p",
      "g ra",
      "s pe",
      "st er",
      "ma ke",
      "i ly",
      "scre en",
      "g r",
      "wat ch",
      "v el",
      "be t",
      "ul t",
      "r an",
      "be st",
      "ent ertain",
      "im p",
      "wh ich",
      "s elf",
      "i v",
      "d u",
      "direct or",
      "ful ly",
      "ne w",
      "e f",
      "be en",
      "mo t",
      "ge t",
      "y ear",
      "se e",
      "thr ough",
      "w ar",
      "l ing",
      "s m",
      "c ess",
      "a ck",
      "t ri",
      "c in",
      "act ion",
      "hum or",
      "o re",
      "s y",
      "u d",
      "ther e",
      "un der",
      "en ough",
      "ent s",
      "ion s",
      "on ly",
      "u al",
      "inter est",
      "m y",
      "j e",
      "ion al",
      "f am",
      "jo y",
      "ne ver",
      "p art",
      "en g",
      "re n",
      "se em",
      "am e",
      "ab ly",
      "ma de",
      "ma kes",
      "au di",
      "c le",
      "h o",
      "the m",
      "c ent",
      "im ag",
      "some thing",
      "com e",
      "movi es",
      "a ut",
      "do wn",
      "u gh",
      "st y",
      "gre at",
      "or s",
      "la ck",
      "the y",
      "n ing",
      "ell ing",
      "o b",
      "w as",
      "c ast",
      "t ur",
      "sp ir",
      "il d",
      "ri ght",
      "in al",
      "h ow",
      "je ct",
      "d ay",
      "ple as",
      "la ugh",
      "pre ss",
      "ow n",
      "ro w",
      "v ent",
      "an g",
      "l ong",
      "c r",
      "g ent",
      "charact er",
      "po int",
      "b el",
      "w ould",
      "am er",
      "ap p",
      "e mot",
      "c ar",
      "en joy",
      "dra ma",
      "t y",
      "plo t",
      "ma y",
      "min ut",
      "an s",
      "gu e",
      "t re",
      "ch e",
      "be aut",
      "s ense",
      "a in",
      "no w",
      "t wo",
      "man y",
      "h ard",
      "b it",
      "re ally",
      "c ial",
      "i ble",
      "hum an",
      "b ig",
      "i gh",
      "performan ces",
      "e ver",
      "wor th",
      "t ru",
      "a w",
      "h ol",
      "ate ly",
      "wo od",
      "f ir",
      "v ed",
      "film ma",
      "c um",
      "at t",
      "s at",
      "o c",
      "g y",
      "m ing",
      "po wer",
      "ig n",
      "c ed",
      "vi e",
      "sur pr",
      "li ght",
      "ce pt",
      "a k",
      "y ing",
      "int el",
      "ation s",
      "p ie",
      "ver s",
      "ch o",
      "at ure",
      "st and",
      "c ould",
      "m on",
      "s it",
      "thr ill",
      "film s",
      "pe o",
      "loo k",
      "th in",
      "p p",
      "bet ter",
      "c i",
      "su ch",
      "tim es",
      "st r",
      "sc en",
      "audi ence",
      "a v",
      "ic ally",
      "wh ile",
      "com es",
      "c au",
      "ar k",
      "b ack",
      "is m",
      "c ol",
      "u ally",
      "peo ple",
      "be ing",
      "a th",
      "m ind",
      "p ict",
      "p or",
      "re s",
      "wh en",
      "fir st",
      "m em",
      "er e",
      "s we",
      "st e",
      "with out",
      "of t",
      "wor ld",
      "bo th",
      "c ut",
      "ul l",
      "k y",
      "h igh",
      "m is",
      "ar ly",
      "sh ould",
      "m om",
      "no thing",
      "c ra",
      "per i",
      "intel li",
      "sh ow",
      "cau se",
      "f t",
      "act ing",
      "sc ri",
      "c ap",
      "k ind",
      "f ar",
      "st ill",
      "ou ght",
      "m ed",
      "k id",
      "c are",
      "entertain ing",
      "w on",
      "pe ct",
      "wr it",
      "scri pt",
      "c a",
      "n er",
      "ant ic",
      "l ed",
      "th o",
      "at es",
      "oft en",
      "d re",
      "ar r",
      "surpr is",
      "h or",
      "fre sh",
      "ex c",
      "p l",
      "or ig",
      "in ation",
      "pict ure",
      "r un",
      "b u",
      "tur n",
      "p ers",
      "c y",
      "g i",
      "orig inal",
      "performan ce",
      "beaut i",
      "se qu",
      "interest ing",
      "hol ly",
      "g l",
      "do cum",
      "docum ent",
      "com ple",
      "b re",
      "l l",
      "h ist",
      "mar k",
      "f ind",
      "be cause",
      "i an",
      "for t",
      "b ro",
      "d a",
      "al so",
      "m or",
      "m i",
      "al o",
      "amer ic",
      "s in",
      "ct ion",
      "t ent",
      "vie w",
      "ing s",
      "holly wood",
      "f la",
      "an other",
      "ist ic",
      "w ard",
      "su c",
      "di alo",
      "in ess",
      "h and",
      "g ed",
      "e as",
      "st ar",
      "st ru",
      "ch ing",
      "for m",
      "f i",
      "h al",
      "k now",
      "mat ic",
      "w it",
      "ke ep",
      "swe et",
      "um b",
      "pie ce",
      "minut es",
      "v in",
      "ap pe",
      "tho se",
      "h our",
      "s ent",
      "af ter",
      "ne y",
      "sh o",
      "dialo gue",
      "f ore",
      "w om",
      "en ces",
      "wh ere",
      "per fect",
      "p ol",
      "spir it",
      "t r",
      "al e",
      "d it",
      "vis ual",
      "d en",
      "d ict",
      "t ry",
      "c ult",
      "t it",
      "fe w",
      "h im",
      "l es",
      "re d",
      "re l",
      "gen er",
      "cin em",
      "fam ily",
      "cl ass",
      "po ss",
      "c ing",
      "su m",
      "qu e",
      "m us",
      "s ing",
      "ro ss",
      "thrill er",
      "di st",
      "ag es",
      "rom antic",
      "c or",
      "f in",
      "cinem at",
      "n i",
      "st u",
      "el ess",
      "tal e",
      "b ra",
      "m ight",
      "en er",
      "em pt",
      "m s",
      "an e",
      "com m",
      "f r",
      "spe ct",
      "e le",
      "er ing",
      "ic s",
      "comp elling",
      "won der",
      "w in",
      "t ou",
      "act ors",
      "al ity",
      "le a",
      "f as",
      "w ant",
      "ul tim",
      "us ing",
      "th ought",
      "ne ed",
      "mat er",
      "ef fect",
      "mom ents",
      "pers on",
      "m ess",
      "the at",
      "con t",
      "cle ver",
      "her e",
      "vi de",
      "con s",
      "c ine",
      "sm art",
      "cine ma",
      "s k",
      "ag ain",
      "filmma k",
      "sat is",
      "h ad",
      "cl ich",
      "fas cin",
      "re ad",
      "se x",
      "ra ther",
      "gra ph",
      "hal f",
      "b or",
      "ous ly",
      "g er",
      "ful l",
      "al most",
      "ex pect",
      "sh e",
      "mater ial",
      "y s",
      "go ing",
      "way s",
      "e y",
      "di d",
      "ta ke",
      "t ed",
      "watch ing",
      "document ary",
      "you n",
      "end s",
      "t ing",
      "de ep",
      "p ut",
      "an im",
      "se en",
      "ire d",
      "del i",
      "p ass",
      "ic ul",
      "lo g",
      "ma king",
      "ri f",
      "pro du",
      "tal ent",
      "s im",
      "ar s",
      "wor ks",
      "p ar",
      "d s",
      "ex peri",
      "we en",
      "c er",
      "its elf",
      "l ine",
      "w al",
      "ch an",
      "d ull",
      "be fore",
      "pre dict",
      "wer e",
      "del ight",
      "v o",
      "mo ving",
      "seem s",
      "g ive",
      "il ity",
      "emot ional",
      "mus ic",
      "th ough",
      "il ar",
      "qu ite",
      "h app",
      "ion ally",
      "re e",
      "the se",
      "r ich",
      "thing s",
      "sub ject",
      "satis f",
      "on d",
      "sh ip",
      "por tra",
      "c lo",
      "ma ster",
      "sty le",
      "fascin ating",
      "lo t",
      "di ff",
      "he ad",
      "as on",
      "su per",
      "scen es",
      "ch ild",
      "ri d",
      "bet ween",
      "d ark",
      "s ens",
      "st ra",
      "ta kes",
      "fa ce",
      "feel s",
      "to ge",
      "ex t",
      "toge ther",
      "l ish",
      "direct ion",
      "fa il",
      "youn g",
      "li st",
      "m el",
      "s ou",
      "il li",
      "ar ing",
      "la st",
      "c as",
      "o k",
      "vi d",
      "vide o",
      "t ran",
      "eng ag",
      "year s",
      "h ilar",
      "n a",
      "s ad",
      "y et",
      "it ing",
      "americ an",
      "z z",
      "spe cial",
      "s imp",
      "kid s",
      "b ar",
      "li d",
      "us ed",
      "m id",
      "ent ly",
      "un i",
      "i o",
      "p s",
      "s ed",
      "h y",
      "s l",
      "il i",
      "im ent",
      "ultim ately",
      "qu ir",
      "s a",
      "n arr",
      "u se",
      "ex plo",
      "pla ce",
      "w a",
      "ma in",
      "ure s",
      "c ru",
      "u e",
      "fe ature",
      "i ev",
      "f ri",
      "al low",
      "ra re",
      "com ic",
      "any thing",
      "war m",
      "laugh s",
      "wh y",
      "b al",
      "are n",
      "wor st",
      "v en",
      "su sp",
      "fa ir",
      "f ine",
      "po p",
      "if ic",
      "ment s",
      "cinemat ic",
      "experi ence",
      "g ence",
      "u g",
      "pa in",
      "enjoy able",
      "appe al",
      "le ast",
      "clich es",
      "g ir",
      "im press",
      "so lid",
      "ant ly",
      "f all",
      "p rom",
      "v al",
      "a way",
      "ge ts",
      "b ly",
      "c oun",
      "p sy",
      "s il",
      "id er",
      "tt ing",
      "t ic",
      "di e",
      "sum mer",
      "t on",
      "char m",
      "entertain ment",
      "beauti ful",
      "predict able",
      "v ol",
      "hist ory",
      "d le",
      "h one",
      "am using",
      "some times",
      "gir l",
      "re mark",
      "st art",
      "int ri",
      "gen re",
      "d one",
      "f ant",
      "o per",
      "se t",
      "itt en",
      "susp ense",
      "c all",
      "t elling",
      "su re",
      "me an",
      "intelli gent",
      "fl at",
      "p u",
      "r or",
      "suc cess",
      "u su",
      "or d",
      "de ad",
      "l in",
      "to p",
      "pro b",
      "str ong",
      "gi ves",
      "ur al",
      "l er",
      "t wi",
      "ser ious",
      "ins ight",
      "pr of",
      "sub t",
      "writ er",
      "s on",
      "stru ct",
      "h el",
      "te en",
      "poss ible",
      "engag ing",
      "ad vent",
      "comple te",
      "narr ative",
      "s ay",
      "on ce",
      "power ful",
      "vi ous",
      "sh ort",
      "intelli gence",
      "c ou",
      "h old",
      "m en",
      "th ree",
      "ke t",
      "con vin",
      "fl ick",
      "iz ing",
      "s ch",
      "ide a",
      "l u",
      "n on",
      "w ise",
      "st re",
      "so ph",
      "theat er",
      "i ther",
      "s ame",
      "st ud",
      "ie ve",
      "wom en",
      "ar ound",
      "ener gy",
      "ic he",
      "le ad",
      "tt y",
      "screen play",
      "surpris ingly",
      "b an",
      "it ies",
      "char ming",
      "ef fort",
      "od y",
      "sent iment",
      "twi st",
      "h ar",
      "act or",
      "cap t",
      "i et",
      "act ually",
      "pol it",
      "b lo",
      "s or",
      "re f",
      "or ge",
      "i a",
      "al s",
      "con tri",
      "ser v",
      "f el",
      "l ar",
      "w ast",
      "en ing",
      "le vel",
      "im e",
      "e qu",
      "feel ing",
      "ce ed",
      "any one",
      "b ur",
      "c ertain",
      "ust r",
      "loo king",
      "r ic",
      "wr itten",
      "tru e",
      "p ast",
      "or ies",
      "filmma king",
      "thin k",
      "ne arly",
      "dra matic",
      "1 9",
      "d y",
      "mo der",
      "sc i",
      "g ic",
      "att empt",
      "f o",
      "com ing",
      "pre tty",
      "gr and",
      "sm all",
      "satisf ying",
      "iz ed",
      "b as",
      "de p",
      "fam ili",
      "sil ly",
      "famili ar",
      "z y",
      "d umb",
      "ut e",
      "end ing",
      "cult ure",
      "hilar ious",
      "hone st",
      "stu ff",
      "moder n",
      "des er",
      "f ash",
      "s ound",
      "be g",
      "sou l",
      "simp ly",
      "fash ion",
      "k ed",
      "ul a",
      "who se",
      "sequ el",
      "vi ol",
      "man ages",
      "re ason",
      "it ed",
      "su ff",
      "s ign",
      "u ine",
      "le ct",
      "ab ility",
      "ive ly",
      "go es",
      "ta il",
      "dra g",
      "gen uine",
      "imag in",
      "tru ly",
      "g ar",
      "ir d",
      "od ra",
      "sc ar",
      "her o",
      "off ers",
      "af fect",
      "d am",
      "m ise",
      "vis ion",
      "diff er",
      "f ra",
      "dre am",
      "eas y",
      "deep ly",
      "c al",
      "c ise",
      "e k",
      "th en",
      "on es",
      "ed ly",
      "h op",
      "n ight",
      "n ice",
      "st ri",
      "it al",
      "ul ts",
      "con f",
      "pro ject",
      "f ans",
      "n ed",
      "z e",
      "st ran",
      "ter rif",
      "art ist",
      "mel odra",
      "psy cho",
      "f ol",
      "th or",
      "ation al",
      "who le",
      "s low",
      "al ways",
      "fla w",
      "be comes",
      "g ri",
      "t v",
      "un ch",
      "ur ing",
      "minut e",
      "comple x",
      "portra it",
      "ut ter",
      "ge st",
      "po or",
      "bel iev",
      "hor ror",
      "effect s",
      "l and",
      "t one",
      "ure d",
      "pre mise",
      "pro ble",
      "ste ad",
      "beauti fully",
      "try ing",
      "p ort",
      "iv en",
      "sin ce",
      "quir ky",
      "p ur",
      "s el",
      "s ol",
      "ic ks",
      "mi x",
      "pass ion",
      "d ro",
      "or able",
      "it ch",
      "ex am",
      "br illi",
      "filmmak ers",
      "read y",
      "c ur",
      "ab o",
      "form ula",
      "cons ider",
      "g n",
      "w ild",
      "ent ire",
      "un d",
      "like ly",
      "m ur",
      "er y",
      "es e",
      "ge ly",
      "part icul",
      "am p",
      "in vent",
      "la p",
      "pleas ure",
      "ci ally",
      "tit le",
      "tou ch",
      "1 0",
      "re le",
      "con cept",
      "ri de",
      "rom ance",
      "ser ies",
      "under stand",
      "tre at",
      "sit u",
      "he av",
      "vel op",
      "hour s",
      "prob ably",
      "d ing",
      "k en",
      "se con",
      "every one",
      "imp ort",
      "log ical",
      "child ren",
      "stud y",
      "l it",
      "n ature",
      "es pe",
      "ap point",
      "n or",
      "p at",
      "on s",
      "be at",
      "gu ing",
      "ide as",
      "class ic",
      "subt le",
      "f ire",
      "in spir",
      "it ation",
      "od d",
      "te ch",
      "tou ching",
      "fel t",
      "re fresh",
      "at tra",
      "de st",
      "li ve",
      "ex tra",
      "po sit",
      "cre ep",
      "fant as",
      "p ac",
      "v or",
      "ex er",
      "remark able",
      "c ul",
      "i th",
      "m ust",
      "s po",
      "id ent",
      "pa th",
      "imag ination",
      "talent ed",
      "oper a",
      "espe cially",
      "c u",
      "n at",
      "w el",
      "de fin",
      "bl and",
      "writ ing",
      "wonder ful",
      "mid dle",
      "g orge",
      "m et",
      "p ed",
      "s and",
      "w itt",
      "am bit",
      "bo ok",
      "bor ing",
      "le t",
      "qu est",
      "every thing",
      "vers ion",
      "mem orable",
      "b en",
      "c amer",
      "ate st",
      "cl iche",
      "lea ve",
      "exer cise",
      "g row",
      "n ch",
      "in stead",
      "it ive",
      "ap pro",
      "del ic",
      "sim ple",
      "2 0",
      "b lack",
      "h u",
      "in sp",
      "fl u",
      "dis appoint",
      "graph y",
      "c la",
      "g g",
      "p y",
      "re ve",
      "al ready",
      "se tt",
      "de c",
      "de tail",
      "camer a",
      "s es",
      "ou d",
      "el se",
      "un g",
      "mat ter",
      "ot ic",
      "intri guing",
      "s ide",
      "t ens",
      "ro ck",
      "des p",
      "ex cept",
      "sel ves",
      "er ed",
      "en de",
      "vi r",
      "fe st",
      "end ed",
      "sy m",
      "col or",
      "wom an",
      "fr ustr",
      "filmmak er",
      "ord in",
      "a de",
      "re cent",
      "de v",
      "po et",
      "us es",
      "iz e",
      "turn s",
      "hist or",
      "advent ure",
      "convin cing",
      "d ri",
      "s light",
      "re st",
      "qu iet",
      "ta king",
      "my ster",
      "audi ences",
      "oc ative",
      "s lo",
      "story telling",
      "che ap",
      "person al",
      "d im",
      "f ran",
      "l ic",
      "sp i",
      "fun ni",
      "fre nch",
      "dit ion",
      "i er",
      "st ories",
      "ex tre",
      "ict ion",
      "b all",
      "i b",
      "p ay",
      "is ing",
      "de ath",
      "less ly",
      "ob vious",
      "c at",
      "c old",
      "f act",
      "st op",
      "ex e",
      "gent le",
      "imagin ative",
      "desp ite",
      "f an",
      "t ell",
      "st up",
      "cre di",
      "vis ually",
      "imag es",
      "terrif ic",
      "abo ve",
      "stup id",
      "r ing",
      "pro ves",
      "itt ing",
      "exe cut",
      "m as",
      "y ond",
      "be yond",
      "se at",
      "de velop",
      "pp ing",
      "thought ful",
      "o s",
      "s lap",
      "am oun",
      "ne cess",
      "stra ight",
      "usu al",
      "complete ly",
      "j our",
      "on y",
      "be come",
      "ro ad",
      "sh ot",
      "pre s",
      "ell ent",
      "re ss",
      "ch ill",
      "ra ge",
      "ri ble",
      "po sed",
      "beaut y",
      "b are",
      "p ri",
      "sp l",
      "loo ks",
      "fri end",
      "do g",
      "ha ving",
      "tra ged",
      "direct ed",
      "jo kes",
      "emot ionally",
      "cra ft",
      "f ight",
      "on t",
      "ex ist",
      "ex press",
      "we ird",
      "sequ ences",
      "fail s",
      "im possible",
      "ation ship",
      "ins ide",
      "play s",
      "rel ationship",
      "m r",
      "m ale",
      "n one",
      "su st",
      "co ol",
      "worth y",
      "mi ra",
      "den i",
      "sk ill",
      "gorge ous",
      "i ent",
      "ish ing",
      "sub st",
      "mem ber",
      "ug ly",
      "import ant",
      "b ud",
      "b ody",
      "f at",
      "st un",
      "ious ly",
      "sho ck",
      "him self",
      "f ast",
      "le g",
      "le ft",
      "cho ol",
      "bre a",
      "aren t",
      "secon d",
      "st ep",
      "ma j",
      "com fort",
      "ne st",
      "fashion ed",
      "differ ent",
      "t ar",
      "w an",
      "ro om",
      "go t",
      "br ing",
      "pleas ant",
      "mor al",
      "eas ily",
      "expect ed",
      "fall s",
      "melodra ma",
      "m ic",
      "s chool",
      "in st",
      "st o",
      "so ap",
      "ag s",
      "view ers",
      "chan ge",
      "f our",
      "o de",
      "se ver",
      "for ced",
      "pre tent",
      "end er",
      "bo y",
      "cr ime",
      "bel ieve",
      "spect ac",
      "brilli ant",
      "o scar",
      "in no",
      "re g",
      "the tic",
      "de but",
      "ear nest",
      "gra ce",
      "sentiment al",
      "thor ough",
      "believ able",
      "f ut",
      "f ound",
      "r it",
      "th ers",
      "de m",
      "com b",
      "fair ly",
      "appeal ing",
      "an ces",
      "re li",
      "de press",
      "ab sur",
      "po tent",
      "cre ative",
      "fa ith",
      "ber g",
      "exc ellent",
      "contri ved",
      "o id",
      "t ired",
      "ey es",
      "h ome",
      "de cent",
      "sh a",
      "pre sent",
      "other wise",
      "lack s",
      "vie wer",
      "e ach",
      "g ro",
      "j ack",
      "k ill",
      "s ort",
      "re comm",
      "as e",
      "ent ion",
      "ev ent",
      "comed ies",
      "show s",
      "extre me",
      "f ig",
      "u ous",
      "ct ive",
      "wor king",
      "ha ck",
      "ep is",
      "warm th",
      "pretent ious",
      "d ry",
      "m ble",
      "am es",
      "sh ar",
      "ke y",
      "go of",
      "qu ick",
      "surpris ing",
      "comm un",
      "deli ver",
      "certain ly",
      "particul arly",
      "b ing",
      "b la",
      "s le",
      "ch ed",
      "ent y",
      "one y",
      "so cial",
      "pa ck",
      "wr ong",
      "ross ing",
      "viol ence",
      "wel come",
      "a ma",
      "an gu",
      "re ward",
      "lo st",
      "vi vid",
      "int im",
      "gu il",
      "cr it",
      "craft ed",
      "v ar",
      "in cl",
      "in vol",
      "ce le",
      "ri st",
      "act ress",
      "ta ste",
      "ish ed",
      "co her",
      "iv al",
      "them selves",
      "uni que",
      "e ither",
      "g es",
      "en ed",
      "ro le",
      "ha el",
      "ho pe",
      "mom ent",
      "mess age",
      "anim ation",
      "delight ful",
      "pur po",
      "thorough ly",
      "l oud",
      "m al",
      "n u",
      "heav y",
      "f inal",
      "h n",
      "mo ve",
      "mo od",
      "lo gy",
      "li ves",
      "ad ults",
      "ash ing",
      "impress ive",
      "histor ical",
      "bare ly",
      "d an",
      "f er",
      "l im",
      "p an",
      "we ight",
      "pa thetic",
      "see ing",
      "win ning",
      "mean ing",
      "creep y",
      "a ir",
      "d ou",
      "g ags",
      "l ab",
      "p un",
      "s qu",
      "t w",
      "al ong",
      "em ent",
      "qu ality",
      "oc cas",
      "sho ot",
      "ele g",
      "ambit ious",
      "cele br",
      "m es",
      "al i",
      "al ing",
      "im pro",
      "lo ss",
      "con vent",
      "sc o",
      "wor se",
      "ens ive",
      "col le",
      "nat ural",
      "necess ary",
      "g ame",
      "g iven",
      "p ul",
      "il o",
      "for ce",
      "con sc",
      "fa vor",
      "jo hn",
      "cle ar",
      "run ning",
      "ordin ary",
      "mic hael",
      "9 0",
      "k no",
      "n ext",
      "re spect",
      "co ver",
      "eng rossing",
      "bra in",
      "hel p",
      "dep th",
      "invent ive",
      "bud get",
      "h it",
      "un f",
      "un sett",
      "ul ar",
      "ro l",
      "wh e",
      "am s",
      "ex pl",
      "res ist",
      "fantas y",
      "shar p",
      "b i",
      "g ang",
      "p ure",
      "su ck",
      "ad d",
      "um p",
      "sc ore",
      "us ion",
      "ag ed",
      "h ip",
      "p aren",
      "s our",
      "ar n",
      "sh ap",
      "man ip",
      "pla in",
      "watch able",
      "psycho logical",
      "insp ired",
      "manip ul",
      "b ul",
      "r ous",
      "al ter",
      "mar vel",
      "gr ound",
      "imag ine",
      "att ention",
      "stand ard",
      "fol low",
      "traged y",
      "a ff",
      "f ic",
      "re pe",
      "di o",
      "fl ash",
      "aw ful",
      "scen e",
      "suc ceed",
      "perfect ly",
      "entire ly",
      "f low",
      "h am",
      "o graphy",
      "sh allow",
      "iv ity",
      "bre ath",
      "ey e",
      "wast e",
      "tens ion",
      "sust ain",
      "maj or",
      "j u",
      "p ic",
      "s n",
      "in f",
      "re ma",
      "re member",
      "en th",
      "at ter",
      "at ory",
      "as su",
      "act ed",
      "pro v",
      "ren t",
      "sty lish",
      "tru th",
      "cons ist",
      "blo od",
      "appro ach",
      "rema ins",
      "c row",
      "n umb",
      "t ation",
      "z ing",
      "st ick",
      "or k",
      "to m",
      "ch es",
      "un funny",
      "un deni",
      "ac comp",
      "jo b",
      "peri od",
      "picture s",
      "jour ney",
      "unsett ling",
      "0 s",
      "l ad",
      "s w",
      "v ul",
      "in es",
      "re vel",
      "is ed",
      "us i",
      "pain ful",
      "fut ure",
      "a im",
      "i ally",
      "p ull",
      "in di",
      "ed ge",
      "ad ap",
      "int ense",
      "co re",
      "wat er",
      "ber t",
      "cont em",
      "recomm end",
      "b and",
      "r hy",
      "in ed",
      "st ay",
      "to ld",
      "ra p",
      "ne ither",
      "sc ary",
      "qu is",
      "ast ic",
      "ac y",
      "des per",
      "ob serv",
      "cr is",
      "exam ination",
      "myster y",
      "absur d",
      "paren ts",
      "rhy th",
      "ou se",
      "om b",
      "con cer",
      "man ner",
      "char is",
      "te st",
      "br it",
      "sat ire",
      "pie ces",
      "slo pp",
      "b ed",
      "g one",
      "n um",
      "s en",
      "ic ult",
      "pa ir",
      "real ity",
      "know s",
      "lea ves",
      "again st",
      "diff icult",
      "cas e",
      "defin ite",
      "w ind",
      "is su",
      "el s",
      "de vo",
      "lo ck",
      "su p",
      "do ing",
      "pre c",
      "pro vo",
      "ind ul",
      "dis ney",
      "ho od",
      "lack ing",
      "mis s",
      "care er",
      "ele ments",
      "lit er",
      "enth usi",
      "f are",
      "r is",
      "s ick",
      "y p",
      "re ach",
      "ic es",
      "le y",
      "for ge",
      "po ign",
      "sp ark",
      "ep ic",
      "tri es",
      "high ly",
      "med io",
      "ted ious",
      "clo se",
      "amoun t",
      "crow d",
      "forge tt",
      "g ing",
      "n am",
      "r at",
      "r on",
      "u es",
      "w il",
      "as p",
      "ri p",
      "la y",
      "con ce",
      "qu ent",
      "ru sh",
      "mer e",
      "poor ly",
      "inspir ing",
      "a go",
      "c ri",
      "c ere",
      "g if",
      "an ced",
      "ent ic",
      "ro ll",
      "ad m",
      "po st",
      "int ent",
      "fl icks",
      "heart ed",
      "icul ous",
      "consider able",
      "situ ations",
      "purpo se",
      "prov ocative",
      "r ate",
      "s mo",
      "y a",
      "ar ity",
      "em er",
      "ta ge",
      "sp y",
      "co st",
      "cre ate",
      "day s",
      "tran s",
      "polit ical",
      "affect ion",
      "path y",
      "a i",
      "l eng",
      "y ork",
      "im m",
      "ri ve",
      "con cl",
      "ust er",
      "te le",
      "off er",
      "bl ing",
      "bre ak",
      "ney ed",
      "spirit ual",
      "cinemat ography",
      "produ ction",
      "master piece",
      "sens itive",
      "success ful",
      "ute ly",
      "ende aring",
      "hack neyed",
      "leng th",
      "b us",
      "p ra",
      "s al",
      "re mind",
      "ma ch",
      "ge tting",
      "fe ar",
      "ex act",
      "ter min",
      "off ensive",
      "gre atest",
      "fin ally",
      "fr ont",
      "anim ated",
      "vir t",
      "color ful",
      "accomp lish",
      "forgett able",
      "v ag",
      "or ts",
      "ch op",
      "de mon",
      "ut ion",
      "ri ed",
      "ate ur",
      "au th",
      "op en",
      "tr ou",
      "cult ural",
      "super fic",
      "definite ly",
      "w ers",
      "ab sol",
      "we ak",
      "ast on",
      "pa ce",
      "comp lic",
      "deli vers",
      "usu ally",
      "utter ly",
      "witt y",
      "g od",
      "h ell",
      "i i",
      "m ill",
      "s av",
      "and ering",
      "most ly",
      "bl ed",
      "ach ieve",
      "them es",
      "surpr ise",
      "thin king",
      "flaw s",
      "relationship s",
      "adap tation",
      "f ac",
      "m oney",
      "v il",
      "z en",
      "is s",
      "ent ial",
      "li p",
      "con ne",
      "ur ban",
      "through out",
      "tri p",
      "emot ions",
      "cut e",
      "keep s",
      "frustr ating",
      "d uring",
      "e th",
      "h ot",
      "p al",
      "in c",
      "re co",
      "ar ch",
      "to ward",
      "se cre",
      "ma d",
      "ma gic",
      "am ateur",
      "pa int",
      "mon ster",
      "stre am",
      "soph istic",
      "dim ens",
      "spi el",
      "sever al",
      "g un",
      "h ouse",
      "s ac",
      "w ish",
      "an no",
      "fe male",
      "con struct",
      "cl um",
      "co p",
      "att le",
      "res on",
      "stru gg",
      "list ic",
      "bur n",
      "b ol",
      "s id",
      "de ft",
      "wor ds",
      "ster e",
      "mot ion",
      "point less",
      "app arent",
      "mind less",
      "gl or",
      "produ ct",
      "prom ise",
      "beg in",
      "dem and",
      "spiel berg",
      "b low",
      "d ish",
      "n ame",
      "der iv",
      "bo t",
      "cre dit",
      "ren der",
      "sing le",
      "sex ual",
      "rid iculous",
      "call ed",
      "fra me",
      "pres ents",
      "epis ode",
      "manipul ative",
      "superfic ial",
      "h om",
      "k able",
      "k ward",
      "r out",
      "s ong",
      "s ket",
      "t ro",
      "in credi",
      "se ts",
      "un expected",
      "no vel",
      "ri es",
      "sh are",
      "em b",
      "op port",
      "real ism",
      "min or",
      "play ing",
      "aw kward",
      "pp ed",
      "av oid",
      "cou ple",
      "twist s",
      "capt ures",
      "dev ast",
      "execut ion",
      "whe ther",
      "issu es",
      "opport un",
      "b ers",
      "b right",
      "i est",
      "m art",
      "m ist",
      "st even",
      "com pe",
      "per t",
      "um ph",
      "pro cess",
      "ac cept",
      "ense mble",
      "fre e",
      "get ic",
      "tri but",
      "tri umph",
      "cent r",
      "car to",
      "deser ves",
      "contem por",
      "stere ot",
      "f u",
      "l angu",
      "w ed",
      "in die",
      "ar ily",
      "ch rist",
      "some what",
      "ac ross",
      "te ar",
      "ph ilo",
      "ser ved",
      "mem ory",
      "cor n",
      "girl s",
      "proble m",
      "pac ing",
      "depress ing",
      "intim ate",
      "philo soph",
      "a ce",
      "a ks",
      "b ow",
      "el d",
      "ab sor",
      "em bra",
      "wor d",
      "ta ins",
      "up s",
      "gu ess",
      "pa per",
      "ins ult",
      "love ly",
      "ang er",
      "bel ly",
      "arr ing",
      "surpris es",
      "exc iting",
      "intri gue",
      "hu ge",
      "convent ional",
      "sup posed",
      "b s",
      "c amp",
      "d ate",
      "f iction",
      "g a",
      "ch y",
      "un k",
      "un even",
      "ol es",
      "ast er",
      "ru g",
      "tra gic",
      "just ice",
      "gre ss",
      "br ut",
      "clich ed",
      "start s",
      "stri king",
      "delic ate",
      "goof y",
      "consc ious",
      "auth entic",
      "f al",
      "i ed",
      "u de",
      "th row",
      "in y",
      "de al",
      "ver se",
      "su pp",
      "wh im",
      "ev il",
      "ph o",
      "gre en",
      "br ings",
      "sm ile",
      "che es",
      "sex y",
      "coun t",
      "chill ing",
      "medio cre",
      "sophistic ated",
      "stereot yp",
      "f ish",
      "t ire",
      "w ren",
      "mo ther",
      "ent er",
      "some one",
      "cre d",
      "over come",
      "comp ass",
      "des ign",
      "heart felt",
      "human ity",
      "med i",
      "da zz",
      "sho ts",
      "tran sc",
      "slight ly",
      "coher ent",
      "occas ionally",
      "repe tit",
      "num ber",
      "tribut e",
      "contempor ary",
      "tire some",
      "a ver",
      "g ross",
      "i bly",
      "m ou",
      "n al",
      "r ical",
      "re make",
      "st ale",
      "or m",
      "to day",
      "li ving",
      "fil l",
      "con v",
      "perfor m",
      "worth while",
      "pl enty",
      "bro ad",
      "da ma",
      "gener ic",
      "allow s",
      "twist ed",
      "equ ally",
      "nice ly",
      "stran ge",
      "sand ler",
      "* *",
      "f right",
      "h ind",
      "n el",
      "v an",
      "en ess",
      "ap s",
      "ev ents",
      "tt en",
      "real istic",
      "play ful",
      "exc it",
      "sin cere",
      "fail ure",
      "pain fully",
      "lin es",
      "bas ed",
      "funni er",
      "tar get",
      "alter n",
      "c ity",
      "k a",
      "m ild",
      "th ro",
      "as pect",
      "ch em",
      "ra w",
      "lo ad",
      "li es",
      "com mer",
      "sh op",
      "ter rible",
      "qu ently",
      "int ro",
      "ist s",
      "story line",
      "part y",
      "spirit ed",
      "need s",
      "cou rage",
      "hold s",
      "tech n",
      "20 0",
      "mes mer",
      "c ir",
      "g on",
      "u ck",
      "v ant",
      "le ts",
      "il s",
      "ch ang",
      "li kable",
      "fil led",
      "ap art",
      "us s",
      "than ks",
      "ine pt",
      "war ming",
      "happ y",
      "coun try",
      "remark ably",
      "poet ry",
      "quis ite",
      "sen su",
      "amateur ish",
      "e gr",
      "g ut",
      "j er",
      "r um",
      "y al",
      "re sp",
      "as ure",
      "ra ble",
      "li f",
      "ap pre",
      "int egr",
      "cl arity",
      "iz es",
      "cast ing",
      "rel ent",
      "ultim ate",
      "cont in",
      "uni vers",
      "insight ful",
      "lar ge",
      "sound s",
      "breath taking",
      "devo id",
      "appre ci",
      "b t",
      "b ound",
      "c our",
      "p it",
      "r ound",
      "st age",
      "il ities",
      "un t",
      "for get",
      "am ong",
      "ous y",
      "ta ck",
      "bo red",
      "dra w",
      "rare ly",
      "b ri",
      "l ame",
      "s an",
      "t ext",
      "in v",
      "in ct",
      "it able",
      "it ative",
      "and on",
      "se m",
      "de termin",
      "sh am",
      "ol ly",
      "pr im",
      "comp any",
      "ach iev",
      "cle arly",
      "ob s",
      "arr ass",
      "view ing",
      "ener getic",
      "want s",
      "cu ri",
      "aff ir",
      "exact ly",
      "emb arrass",
      "carto on",
      "b attle",
      "v ic",
      "en cy",
      "at ic",
      "ta ken",
      "sp orts",
      "run s",
      "turn ed",
      "genuine ly",
      "stran gely",
      "wild ly",
      "situ ation",
      "refresh ing",
      "funni est",
      "faith ful",
      "fig ure",
      "guil ty",
      "f ab",
      "m c",
      "an k",
      "at mo",
      "st om",
      "ro b",
      "sh ame",
      "so ci",
      "all en",
      "ac cess",
      "gu ys",
      "ment ion",
      "ort ing",
      "imp act",
      "app y",
      "ty p",
      "aw ard",
      "empt y",
      "extra ordinary",
      "met ap",
      "fest ival",
      "slopp y",
      "atmo sp",
      "f lo",
      "n ational",
      "s ne",
      "s itting",
      "y arn",
      "en n",
      "is on",
      "as m",
      "il ing",
      "ad es",
      "are d",
      "em p",
      "ist ry",
      "gu y",
      "your self",
      "bad ly",
      "mind ed",
      "mis sed",
      "med itation",
      "star s",
      "cru el",
      "capt iv",
      "wast ed",
      "pho to",
      "chem istry",
      "b iz",
      "g ay",
      "g ment",
      "k er",
      "w illi",
      "al one",
      "ar ies",
      "ex p",
      "all ing",
      "jo ke",
      "mar ks",
      "oc used",
      "original ity",
      "wonder fully",
      "effect ive",
      "polit ics",
      "beg ins",
      "dream s",
      "gri pping",
      "posit ion",
      "reward ing",
      "expl or",
      "anno ying",
      "commer cial",
      "a x",
      "j a",
      "at or",
      "on ic",
      "de cept",
      "su g",
      "ad mira",
      "fre quently",
      "americ a",
      "graph ic",
      "val ue",
      "coun ter",
      "sign ific",
      "proble ms",
      "quest ions",
      "indul gent",
      "trou ble",
      "univers al",
      "c ross",
      "h all",
      "o y",
      "t or",
      "an cy",
      "st ren",
      "ch ance",
      "be hind",
      "sc a",
      "so on",
      "bo g",
      "cre ated",
      "ear th",
      "interest ed",
      "gl imp",
      "she er",
      "vo ice",
      "sci ence",
      "fran k",
      "tw ice",
      "ali en",
      "mere ly",
      "concl usion",
      "deriv ative",
      "devast ating",
      "excit ement",
      "l atest",
      "t ender",
      "ic king",
      "el o",
      "un necessary",
      "li ft",
      "li ked",
      "ut er",
      "wh ite",
      "ant s",
      "ac c",
      "cre ates",
      "mu d",
      "comp uter",
      "bl es",
      "gr at",
      "tre ad",
      "cap able",
      "put s",
      "cru sh",
      "flaw ed",
      "iven ess",
      "detail ed",
      "slap stick",
      "extreme ly",
      "succeed s",
      "provo king",
      "absol utely",
      "b rid",
      "h un",
      "k ers",
      "l ate",
      "n ast",
      "s appy",
      "er a",
      "re cor",
      "lo ts",
      "ro bert",
      "not ice",
      "cl u",
      "tra dit",
      "mu g",
      "dis gu",
      "gr ant",
      "hard ly",
      "hand ed",
      "pop corn",
      "pu sh",
      "suff ers",
      "nature d",
      "attra ction",
      "pac ed",
      "friend ship",
      "invol ving",
      "brit ish",
      "vil la",
      "f ur",
      "h es",
      "j ap",
      "p in",
      "p ile",
      "r and",
      "ing u",
      "le st",
      "im ax",
      "vi br",
      "go ers",
      "ta gon",
      "pre vious",
      "pro tagon",
      "pla ces",
      "me andering",
      "comp rom",
      "heart warming",
      "hor rible",
      "dist ingu",
      "brea king",
      "spectac le",
      "dou bt",
      "colle ge",
      "demon str",
      "typ ical",
      "nast y",
      "c and",
      "d rug",
      "n ic",
      "n ation",
      "al ive",
      "es cap",
      "di g",
      "mat ure",
      "dis aster",
      "gra de",
      "mot iv",
      "down right",
      "stand ing",
      "won d",
      "dre ary",
      "poss ibly",
      "zz y",
      "serious ly",
      "serv ice",
      "attempt s",
      "treat ment",
      "wan na",
      "dimens ional",
      "incredi bly",
      "opportun ity",
      "cred its",
      "perform ers",
      "mesmer izing",
      "stom ach",
      "d v",
      "f ing",
      "g ust",
      "h ate",
      "j ud",
      "p ark",
      "s i",
      "w ick",
      "er o",
      "on der",
      "and er",
      "be ha",
      "art s",
      "pre h",
      "cre at",
      "over all",
      "suspense ful",
      "stre et",
      "refresh ingly",
      "ident ity",
      "inno v",
      "c ard",
      "g id",
      "x ic",
      "re cy",
      "ch ant",
      "vi des",
      "fil ling",
      "art ific",
      "ck s",
      "go tten",
      "pro vides",
      "ha un",
      "if y",
      "te ach",
      "scre am",
      "real ized",
      "ide al",
      "gra du",
      "gr ou",
      "director s",
      "tur ning",
      "pleas ing",
      "che ck",
      "sit com",
      "bro wn",
      "americ ans",
      "tr ick",
      "tr ash",
      "sk in",
      "deli very",
      "bal ance",
      "pu bl",
      "mur der",
      "odd ly",
      "stun ning",
      "sto ck",
      "eleg ant",
      "assu red",
      "rive ting",
      "absor bing",
      "sug gest",
      "artific ial",
      "f le",
      "j um",
      "o o",
      "p itch",
      "u c",
      "al y",
      "ch all",
      "ch ise",
      "ve y",
      "de cess",
      "di es",
      "ex quisite",
      "pre decess",
      "ist er",
      "ph y",
      "sur vi",
      "will ing",
      "spe c",
      "laugh ter",
      "led ge",
      "dre ss",
      "bu ild",
      "find s",
      "visual s",
      "super b",
      "wa iting",
      "prof ess",
      "reve als",
      "fran chise",
      "ib ilities",
      "fat al",
      "comfort able",
      "sle ep",
      "incl ud",
      "bus iness",
      "bot tom",
      "dazz ling",
      "aver age",
      "conv iction",
      "unt il",
      "jap an",
      "chall eng",
      "b ag",
      "b old",
      "b ond",
      "b io",
      "d led",
      "e u",
      "p ick",
      "t ends",
      "v ate",
      "es que",
      "to wn",
      "ed iting",
      "mo dest",
      "un imaginative",
      "sh ad",
      "la zy",
      "ir rit",
      "ind ust",
      "less ness",
      "mat ch",
      "pleas e",
      "intel lect",
      "thrill s",
      "da vid",
      "gener al",
      "prof ound",
      "reve aling",
      "poet ic",
      "reg ard",
      "ama zing",
      "cris p",
      "secre t",
      "sid es",
      "fal se",
      "200 2",
      "e ve",
      "f ive",
      "t ough",
      "t ort",
      "al though",
      "se ason",
      "su spect",
      "no x",
      "am ent",
      "con tent",
      "pre ach",
      "mat ically",
      "ire s",
      "des cri",
      "ob nox",
      "may be",
      "subject s",
      "lead s",
      "dep end",
      "dam ned",
      "sym pathetic",
      "gro wn",
      "bul lock",
      "vul gar",
      "complic ated",
      "achieve ment",
      "chees y",
      "resp ons",
      "includ ing",
      "g an",
      "l ud",
      "s ight",
      "v y",
      "z ed",
      "ing en",
      "es ca",
      "and ers",
      "ic rous",
      "ch in",
      "vi or",
      "wh el",
      "wi de",
      "sh y",
      "fe at",
      "fe ars",
      "con fl",
      "bo re",
      "tra ck",
      "comed ic",
      "ach e",
      "ash ed",
      "stu dio",
      "happ en",
      "list less",
      "sequel s",
      "quest ion",
      "grow ing",
      "subst ance",
      "commun ity",
      "undeni ably",
      "rout ine",
      "compe tent",
      "admira ble",
      "beha vior",
      "lud icrous",
      "esca pe",
      "c ell",
      "f ly",
      "g th",
      "l ousy",
      "p unch",
      "p onder",
      "ar c",
      "ch a",
      "ra m",
      "li e",
      "ex cess",
      "ne g",
      "sc rat",
      "ag er",
      "not e",
      "if ied",
      "ac ity",
      "me ans",
      "dis co",
      "tal ents",
      "sequ ence",
      "fi eld",
      "cont rol",
      "clever ly",
      "mur phy",
      "attra ctive",
      "obs ess",
      "stren gth",
      "h em",
      "t un",
      "t ally",
      "z one",
      "in ing",
      "en did",
      "is es",
      "ar re",
      "to tally",
      "be ar",
      "wi fe",
      "ri bly",
      "pro per",
      "bo ther",
      "itt ed",
      "ins ane",
      "bl ue",
      "exc use",
      "gl ory",
      "fi ed",
      "wit ch",
      "main stream",
      "sentiment ality",
      "gri ef",
      "formula ic",
      "spl endid",
      "quick ly",
      "var ious",
      "poign ant",
      "tele vision",
      "reco gn",
      "sac rif",
      "compass ion",
      "sham eless",
      "biz arre",
      "wanna be",
      "s om",
      "w ry",
      "en orm",
      "st al",
      "st arring",
      "ic le",
      "vi g",
      "li ved",
      "su peri",
      "do w",
      "ant e",
      "ag ger",
      "pro ceed",
      "int ric",
      "int ended",
      "ev ocative",
      "co ck",
      "into xic",
      "over whel",
      "dis cover",
      "ens ity",
      "vis cer",
      "hol es",
      "ak ed",
      "str ict",
      "bu oy",
      "pers pect",
      "fort un",
      "rel ative",
      "log ic",
      "mel an",
      "prom ising",
      "mix ed",
      "ib ility",
      "unf old",
      "centr al",
      "philosoph ical",
      "repetit ive",
      "dama ge",
      "vic tim",
      "superi or",
      "c ame",
      "e per",
      "e ur",
      "e ath",
      "f it",
      "i di",
      "s ar",
      "s mug",
      "re main",
      "st ir",
      "de f",
      "for gotten",
      "ma g",
      "li ber",
      "com preh",
      "di r",
      "con st",
      "con tra",
      "sc ale",
      "tra de",
      "plo ts",
      "sur face",
      "humor ous",
      "mem bers",
      "theat ers",
      "produ ced",
      "lar gely",
      "fo od",
      "viol ent",
      "subtle ty",
      "ben eath",
      "dec ades",
      "kno wn",
      "charis ma",
      "gif ted",
      "conne ct",
      "aspect s",
      "glimp se",
      "creat ivity",
      "recy cl",
      "disco very",
      "h ur",
      "m il",
      "o thers",
      "r ating",
      "s ell",
      "w is",
      "in o",
      "in con",
      "re du",
      "un pleasant",
      "de pict",
      "ro ot",
      "no ir",
      "act ic",
      "out rage",
      "ha ir",
      "up t",
      "plo d",
      "cr im",
      "point s",
      "hor rif",
      "fla ir",
      "chan nel",
      "delight fully",
      "cru de",
      "blo ck",
      "deser ve",
      "cla im",
      "construct ed",
      "begin ning",
      "design ed",
      "haun ting",
      "publ ic",
      "irrit ating",
      "indust ry",
      "perspect ive",
      "c ence",
      "f ro",
      "s un",
      "t ick",
      "re tread",
      "se a",
      "im medi",
      "ir re",
      "ex hilar",
      "po t",
      "sp ace",
      "we ek",
      "int ensity",
      "end less",
      "loo se",
      "fam il",
      "wal k",
      "level s",
      "conf using",
      "passion ate",
      "dro wn",
      "particul ar",
      "virt ually",
      "accomplish ed",
      "song s",
      "exhilar ating",
      "a ke",
      "b ru",
      "h ide",
      "k in",
      "n om",
      "n ers",
      "re qu",
      "the me",
      "ly n",
      "to ss",
      "il er",
      "li day",
      "act s",
      "ge orge",
      "ne ar",
      "sp in",
      "pro vide",
      "pa tho",
      "off ice",
      "dra wn",
      "over ly",
      "ore d",
      "ho liday",
      "character iz",
      "cra ck",
      "dre ad",
      "find ing",
      "gener ally",
      "happ ens",
      "tran sp",
      "stre t",
      "quiet ly",
      "sha kes",
      "jack son",
      "gang ster",
      "consist ently",
      "observ ations",
      "rhyth ms",
      "gun s",
      "stereotyp es",
      "affir ming",
      "explor ation",
      "lift ing",
      "vibr ant",
      "dig ital",
      "grou p",
      "profess ional",
      "challeng ing",
      "b um",
      "b omb",
      "e c",
      "g ru",
      "k i",
      "m ass",
      "p il",
      "v a",
      "v ap",
      "v amp",
      "re mo",
      "re ck",
      "or ing",
      "ent ially",
      "be ars",
      "ess entially",
      "am big",
      "con dition",
      "fun ct",
      "ind u",
      "ac ious",
      "off ering",
      "ff ic",
      "af fair",
      "wr ought",
      "play ed",
      "far ce",
      "writ ers",
      "struct ure",
      "ref er",
      "sound track",
      "rele as",
      "ende av",
      "develop ment",
      "bla de",
      "lim ited",
      "marvel ous",
      "rhyth m",
      "prec ious",
      "access ible",
      "b itt",
      "g ames",
      "p ian",
      "t ure",
      "st ore",
      "or ous",
      "ed ited",
      "un convincing",
      "su d",
      "ad ult",
      "ir resist",
      "up on",
      "fa ke",
      "dis c",
      "ob ject",
      "mis sing",
      "cra zy",
      "person a",
      "read ing",
      "ey ed",
      "delight s",
      "ps es",
      "rele vant",
      "appro pri",
      "develop ed",
      "potent ial",
      "pack ed",
      "favor ite",
      "dv d",
      "obnox ious",
      "buoy ant",
      "dir ty",
      "b ill",
      "b af",
      "c able",
      "g old",
      "h en",
      "h us",
      "h icle",
      "i ves",
      "j unk",
      "p en",
      "s aw",
      "v ital",
      "w ashing",
      "in ev",
      "ic ed",
      "ch ase",
      "ve hicle",
      "lo c",
      "lo ses",
      "for mat",
      "ad dition",
      "am used",
      "ap l",
      "sp ent",
      "bo ys",
      "co hes",
      "time ly",
      "can ny",
      "sur round",
      "tal king",
      "du b",
      "enjoy ed",
      "ans wers",
      "ak y",
      "sin k",
      "dist ra",
      "ni ro",
      "bor n",
      "master ful",
      "sou th",
      "sa ke",
      "lu sh",
      "tech no",
      "hu gely",
      "flash y",
      "pra ct",
      "clum sy",
      "render ed",
      "transc end",
      "chang ing",
      "metap hor",
      "emp has",
      "captiv ating",
      "fur ther",
      "shad ow",
      "washing ton",
      "0 0",
      "b one",
      "c am",
      "d on",
      "h i",
      "h an",
      "m end",
      "m ult",
      "in cre",
      "re vol",
      "re port",
      "st ic",
      "is ion",
      "and s",
      "se tting",
      "un ab",
      "ol der",
      "em pathy",
      "sp ell",
      "pro p",
      "pt ion",
      "tra vel",
      "plo tting",
      "tt ed",
      "heart s",
      "gent ly",
      "car ries",
      "suc cum",
      "red und",
      "sens ational",
      "wa it",
      "dead ly",
      "heav en",
      "disappoint ing",
      "except ional",
      "frustr ation",
      "tell s",
      "os ity",
      "kill er",
      "aston ishing",
      "strugg le",
      "blow n",
      "achiev es",
      "elo quent",
      "gradu ally",
      "intoxic ating",
      "viscer al",
      "b ang",
      "d anger",
      "h off",
      "h itch",
      "l at",
      "n ich",
      "o se",
      "s od",
      "s mar",
      "z a",
      "th ird",
      "in coherent",
      "re ce",
      "re presents",
      "the less",
      "on to",
      "it ude",
      "le e",
      "un predictable",
      "ro c",
      "wh olly",
      "ex ceed",
      "ter ms",
      "movie goers",
      "ast ound",
      "up lifting",
      "bo o",
      "itt y",
      "op ing",
      "heart breaking",
      "director ial",
      "laugh ing",
      "cr ass",
      "may hem",
      "cra p",
      "kid die",
      "bro thers",
      "hand s",
      "sing er",
      "win ner",
      "sl ice",
      "sa id",
      "present ed",
      "unf ocused",
      "sour ce",
      "atter ed",
      "undeni able",
      "mild ly",
      "confl ict",
      "hoff man",
      "smar ter",
      "a we",
      "c ry",
      "d are",
      "e er",
      "h mer",
      "j ol",
      "n es",
      "s lack",
      "s lip",
      "w all",
      "y es",
      "st if",
      "or ious",
      "or ient",
      "ra y",
      "sh re",
      "out standing",
      "you s",
      "po em",
      "po ster",
      "ur day",
      "we ver",
      "te am",
      "ment al",
      "jo yous",
      "off beat",
      "vis ed",
      "gen ial",
      "work ed",
      "ho wever",
      "sat urday",
      "str ing",
      "know ledge",
      "graph ed",
      "sa ve",
      "explo itation",
      "explo itative",
      "affect ing",
      "melodra matic",
      "spo o",
      "ade qu",
      "kno ck",
      "standard s",
      "trans form",
      "wed ding",
      "christ mas",
      "supp orting",
      "mou th",
      "willi ams",
      "preach y",
      "the s",
      "ou l",
      "ly rical",
      "un fortun",
      "li g",
      "com ment",
      "am i",
      "ter ror",
      "pe cul",
      "ur y",
      "ag ers",
      "sp ite",
      "some how",
      "bo x",
      "ry an",
      "dis gust",
      "ens ible",
      "mar g",
      "iv ed",
      "pleas ures",
      "emot ion",
      "bit ter",
      "gi ant",
      "tit les",
      "mus ical",
      "stu ck",
      "need ed",
      "par able",
      "fant astic",
      "lu ck",
      "grand eur",
      "drag on",
      "pat i",
      "spo t",
      "sym pathy",
      "amoun ts",
      "inno cence",
      "chop py",
      "intro du",
      "sensu al",
      "cour se",
      "wick edly",
      "horrif ying",
      "pecul i",
      "b our",
      "d ed",
      "f ate",
      "f oul",
      "j ul",
      "m oun",
      "p ale",
      "t ers",
      "u ity",
      "th ir",
      "th ous",
      "in ner",
      "er ce",
      "er ber",
      "re ven",
      "se ag",
      "ra d",
      "po s",
      "ous ness",
      "char mer",
      "end ure",
      "te ars",
      "pla ced",
      "ep ing",
      "fl im",
      "pr ice",
      "br ought",
      "real ize",
      "ste in",
      "fla vor",
      "hand some",
      "fi erce",
      "person ality",
      "sk ip",
      "fo ot",
      "differ ence",
      "cur rent",
      "consider ed",
      "execut ed",
      "lad y",
      "revel atory",
      "wil de",
      "imm ense",
      "mach ine",
      "aston ish",
      "atmosp here",
      "stir ring",
      "trade mark",
      "block b",
      "vap id",
      "remo te",
      "sod erber",
      "reven ge",
      "seag al",
      "soderber gh",
      "a a",
      "d om",
      "d ol",
      "d ust",
      "g ory",
      "h its",
      "j ag",
      "l on",
      "l un",
      "l um",
      "n ick",
      "p om",
      "r in",
      "s wal",
      "in her",
      "en ced",
      "at us",
      "st in",
      "ed uc",
      "ch er",
      "un original",
      "un likable",
      "ve st",
      "de ed",
      "ab andon",
      "ro o",
      "di gn",
      "sh elf",
      "la wren",
      "um ent",
      "ag gress",
      "cl im",
      "ac cur",
      "ins ky",
      "laugh able",
      "big ger",
      "aw are",
      "res ol",
      "simp listic",
      "teen agers",
      "ban al",
      "lar ger",
      "conf ident",
      "mur ky",
      "understand ing",
      "attra ct",
      "posit ive",
      "potent ially",
      "vivid ly",
      "hope ful",
      "colle ction",
      "reson ant",
      "rand om",
      "comprom ising",
      "intric ate",
      "endeav or",
      "lawren ce",
      "a head",
      "b unch",
      "e ast",
      "e ager",
      "s now",
      "t end",
      "re has",
      "al an",
      "de em",
      "ad am",
      "film ed",
      "la ce",
      "la pses",
      "ge m",
      "ers we",
      "ex per",
      "ter m",
      "so ber",
      "ur ous",
      "some where",
      "au to",
      "fl in",
      "fre d",
      "war s",
      "spir its",
      "bit ing",
      "res our",
      "fresh ness",
      "bu ff",
      "cy n",
      "fi x",
      "wit ness",
      "portra yal",
      "non sense",
      "iet y",
      "fo o",
      "suff ering",
      "event ually",
      "absurd ity",
      "charis matic",
      "poign ancy",
      "deft ly",
      "japan ese",
      "vamp ire",
      "bitt erswe",
      "revol ution",
      "exper iment",
      "bitterswe et",
      "b on",
      "e ks",
      "i dio",
      "k ore",
      "l uster",
      "p ing",
      "s ive",
      "u des",
      "th umb",
      "in cess",
      "is ive",
      "as ive",
      "ch est",
      "de part",
      "lo ved",
      "ad oles",
      "ess ence",
      "sh if",
      "ter rit",
      "ne at",
      "ast e",
      "not ch",
      "bl end",
      "ser ves",
      "des pair",
      "ult ane",
      "ud lin",
      "ho lo",
      "cent ury",
      "ang st",
      "mind s",
      "res ults",
      "appe ar",
      "dist aste",
      "comm itted",
      "sim ultane",
      "rich er",
      "stra in",
      "tran sl",
      "fri ends",
      "soph om",
      "dam n",
      "ital ian",
      "fol ks",
      "mix ture",
      "exam ple",
      "touch es",
      "rele ase",
      "witt ed",
      "tens ions",
      "fight s",
      "inst antly",
      "spectac ular",
      "comb ination",
      "invol ved",
      "squ are",
      "shap ed",
      "consist ent",
      "pull s",
      "enthusi asm",
      "emer ges",
      "vag ue",
      "fright ening",
      "motiv ated",
      "proceed ings",
      "unfold s",
      "plod ding",
      "foo tage",
      "territ ory",
      "simultane ously",
      "d ick",
      "d ash",
      "d aring",
      "g el",
      "k is",
      "o v",
      "r upt",
      "t u",
      "an aly",
      "re turn",
      "st ers",
      "to ol",
      "to tal",
      "ic on",
      "as k",
      "il t",
      "be ach",
      "im pe",
      "de eper",
      "wh ate",
      "po wers",
      "pe ter",
      "id s",
      "ig no",
      "bo ard",
      "te eth",
      "iz a",
      "under st",
      "pleas er",
      "col lect",
      "res ult",
      "view s",
      "tr ite",
      "que en",
      "lea ving",
      "happ iness",
      "bar ber",
      "bal anced",
      "impress ion",
      "capt ure",
      "19 5",
      "honest ly",
      "artist s",
      "fast er",
      "meaning ful",
      "concer ned",
      "smo o",
      "clu eless",
      "spoo ky",
      "comment ary",
      "dign ity",
      "flin ching",
      "whate ver",
      "1 2",
      "7 0s",
      "a po",
      "b id",
      "b ite",
      "g gy",
      "j im",
      "n iche",
      "o li",
      "p se",
      "r ough",
      "s ane",
      "z o",
      "th re",
      "en cou",
      "en vir",
      "st im",
      "it ivity",
      "as ingly",
      "il ly",
      "ch ur",
      "mo ore",
      "un usual",
      "un forced",
      "im prob",
      "for ward",
      "ma re",
      "ma gn",
      "ro ph",
      "su bl",
      "no where",
      "ke vin",
      "ir an",
      "ex otic",
      "od ds",
      "per verse",
      "em power",
      "but ton",
      "we ars",
      "tim ing",
      "end lessly",
      "ev ol",
      "cre ating",
      "fa ther",
      "me asure",
      "fl ing",
      "sur ance",
      "comp ar",
      "mar ket",
      "vis it",
      "ile t",
      "ci ful",
      "swe eping",
      "sweet ly",
      "sweet ness",
      "anim al",
      "sad ly",
      "main tain",
      "ific ent",
      "val ues",
      "insight s",
      "struct ured",
      "advent urous",
      "soul ful",
      "cal i",
      "cal cul",
      "night mare",
      "flu ff",
      "detail s",
      "fan ciful",
      "crit ical",
      "shoot ing",
      "impro ve",
      "sco pe",
      "numb ers",
      "indi an",
      "desper ate",
      "intent ionally",
      "determin ed",
      "predecess or",
      "appropri ate",
      "incre asingly",
      "immense ly",
      "encou ra",
      "magn ificent",
      "b es",
      "d ers",
      "d au",
      "h aps",
      "j ames",
      "m ile",
      "s ill",
      "t ight",
      "u ation",
      "v ity",
      "w ow",
      "z ero",
      "en thr",
      "ed it",
      "lo sing",
      "for med",
      "wh om",
      "ad or",
      "ad ren",
      "di ver",
      "ant i",
      "pre tends",
      "sp ider",
      "sp ring",
      "he al",
      "tim eless",
      "pla us",
      "af ric",
      "gra b",
      "ran k",
      "see king",
      "my th",
      "row ing",
      "car ried",
      "ty pe",
      "cut ting",
      "eas e",
      "know ing",
      "pol ished",
      "satis fied",
      "feature s",
      "tic ket",
      "har rowing",
      "contri v",
      "contri but",
      "19 9",
      "dy nam",
      "inspir ation",
      "extra vag",
      "spo of",
      "subst ant",
      "deliver ed",
      "move ments",
      "shap eless",
      "stay s",
      "miss ion",
      "liter ary",
      "demand s",
      "demand ing",
      "langu age",
      "relent lessly",
      "villa in",
      "protagon ist",
      "mag ical",
      "mult i",
      "pati ence",
      "adren al",
      "g lo",
      "i or",
      "j ones",
      "n arc",
      "p per",
      "s ion",
      "t iny",
      "u able",
      "w d",
      "er otic",
      "at roc",
      "st aged",
      "es h",
      "ic ing",
      "as ks",
      "un like",
      "un compromising",
      "ra cial",
      "ce ful",
      "com mon",
      "ers on",
      "po on",
      "ful filling",
      "sc ors",
      "art istic",
      "ill um",
      "pro ve",
      "we a",
      "ru ci",
      "et y",
      "bo ast",
      "au d",
      "pa ul",
      "ating ly",
      "ear ly",
      "br and",
      "imp erson",
      "du e",
      "under cut",
      "cle an",
      "ho ot",
      "long er",
      "app alling",
      "car ry",
      "mon ty",
      "exc ruci",
      "bu y",
      "bu ck",
      "bro om",
      "happ ening",
      "sad ness",
      "sl ug",
      "fri day",
      "pop ul",
      "pop ular",
      "val uable",
      "start ling",
      "convin ced",
      "sci ent",
      "stri ke",
      "grow s",
      "credi ble",
      "jour nal",
      "exist ential",
      "inst inct",
      "reli ef",
      "lay ers",
      "burn s",
      "hom age",
      "sket chy",
      "mart in",
      "sca pe",
      "distingu ished",
      "intellect ual",
      "respons ible",
      "relative ly",
      "nom ination",
      "nich ol",
      "unfortun ately",
      "resour ceful",
      "dick ens",
      "afric an",
      "scors ese",
      "a h",
      "a king",
      "b ility",
      "d ul",
      "e at",
      "g ers",
      "g ap",
      "s ical",
      "u it",
      "v ors",
      "st ate",
      "se arch",
      "un inspired",
      "de b",
      "de gre",
      "lo ves",
      "lo cal",
      "ab y",
      "ab lish",
      "for d",
      "for give",
      "ver n",
      "ro te",
      "ro les",
      "con ven",
      "em an",
      "he ard",
      "less on",
      "te p",
      "est ablish",
      "me et",
      "pr inc"
    ]
  }
}