{
  "version": "1.0",
  "truncation": null,
  "padding": null,
  "added_tokens": [
    {
      "id": 0,
      "content": "[PAD]",
      "single_word": false,
      "lstrip": false,
      "rstrip": false,
      "normalized": false,
      "special": true
    },
    {
      "id": 1,
      "content": "[UNK]",
      "single_word": false,
      "lstrip": false,
      "rstrip": false,
      "normalized": false,
      "special": true
    },
    {
      "id": 2,
      "content": "[CLS]",
      "single_word": false,
      "lstrip": false,
      "rstrip": false,
      "normalized": false,
      "special": true
    },
    {
      "id": 3,
      "content": "[MASK]",
      "single_word": false,
      "lstrip": false,
      "rstrip": false,
      "normalized": false,
      "special": true
    }
  ],
  "normalizer": {
    "type": "BertNormalizer",
    "clean_text": true,
    "handle_chinese_chars": true,
    "strip_accents": true,
    "lowercase": true
  },
  "pre_tokenizer": {
    "type": "Whitespace"
  },
  "post_processor": null,
  "decoder": null,
  "model": {
    "type": "BPE",
    "dropout": null,
    "unk_token": "[UNK]",
    "continuing_subword_prefix": null,
    "end_of_word_suffix": null,
    "fuse_unk": false,
    "byte_fallback": false,
    "ignore_merges": false,
    "vocab": {
      "[PAD]": 0,
      "[UNK]": 1,
      "[CLS]": 2,
      "[MASK]": 3,
      "!": 4,
      "\"": 5,
      "$": 6,
      "%": 7,
      "&": 8,
      "'": 9,
      "(": 10,
      ")": 11,
      "+": 12,
      ",": 13,
      "-": 14,
      ".": 15,
      "/": 16,
      "0": 17,
      "1": 18,
      "2": 19,
      "3": 20,
      "4": 21,
      "5": 22,
      "6": 23,
      "7": 24,
      "8": 25,
      "9": 26,
      ":": 27,
      ";": 28,
      "=": 29,
      "?": 30,
      "[": 31,
      "]": 32,
      "a": 33,
      "b": 34,
      "c": 35,
      "d": 36,
      "e": 37,
      "f": 38,
      "g": 39,
      "h": 40,
      "i": 41,
      "j": 42,
      "k": 43,
      "l": 44,
      "m": 45,
      "n": 46,
      "o": 47,
      "p": 48,
      "q": 49,
      "r": 50,
      "s": 51,
      "t": 52,
      "u": 53,
      "v": 54,
      "w": 55,
      "x": 56,
      "y": 57,
      "z": 58,
      "£": 59,
      "υ": 60,
      "”": 61,
      "…": 62,
      "th": 63,
      "the": 64,
      "in": 65,
      "an": 66,
      "re": 67,
      "on": 68,
      "er": 69,
      "at": 70,
      "en": 71,
      "ou": 72,
      "st": 73,
      "or": 74,
      "al": 75,
      "it": 76,
      "ed": 77,
      "to": 78,
      "ing": 79,
      "is": 80,
      "es": 81,
      "of": 82,
      "and": 83,
      "as": 84,
      "ar": 85,
      "le": 86,
      "ic": 87,
      "ro": 88,
      "ion": 89,
      "se": 90,
      "ent": 91,
      "be": 92,
      "ve": 93,
      "no": 94,
      "il": 95,
      "ac": 96,
      "he": 97,
      "ly": 98,
      "me": 99,
      "for": 100,
      "that": 101,
      "we": 102,
      "ad": 103,
      "co": 104,
      "id": 105,
      "you": 106,
      "ch": 107,
      "lo": 108,
      "ver": 109,
      "are": 110,
      "ay": 111,
      "su": 112,
      "li": 113,
      "was": 114,
      "wh": 115,
      "ge": 116,
      "so": 117,
      "un": 118,
      "gh": 119,
      "ation": 120,
      "ce": 121,
      "ut": 122,
      "de": 123,
      "ld": 124,
      "am": 125,
      "ab": 126,
      "mo": 127,
      "pro": 128,
      "ne": 129,
      "ri": 130,
      "do": 131,
      "ir": 132,
      "ke": 133,
      "ha": 134,
      "im": 135,
      "go": 136,
      "po": 137,
      "ho": 138,
      "ur": 139,
      "con": 140,
      "ct": 141,
      "te": 142,
      "wi": 143,
      "they": 144,
      "pe": 145,
      "ter": 146,
      "out": 147,
      "with": 148,
      "us": 149,
      "not": 150,
      "ill": 151,
      "all": 152,
      "ment": 153,
      "fe": 154,
      "if": 155,
      "ul": 156,
      "ers": 157,
      "ate": 158,
      "have": 159,
      "one": 160,
      "ye": 161,
      "com": 162,
      "now": 163,
      "tr": 164,
      "ap": 165,
      "res": 166,
      "ll": 167,
      "ain": 168,
      "ex": 169,
      "man": 170,
      "ts": 171,
      "ould": 172,
      "pl": 173,
      "oun": 174,
      "ther": 175,
      "ti": 176,
      "ess": 177,
      "there": 178,
      "ght": 179,
      "ag": 180,
      "but": 181,
      "qu": 182,
      "by": 183,
      "au": 184,
      "ple": 185,
      "ally": 186,
      "know": 187,
      "fro": 188,
      "od": 189,
      "ust": 190,
      "from": 191,
      "ies": 192,
      "per": 193,
      "ity": 194,
      "red": 195,
      "our": 196,
      "can": 197,
      "sa": 198,
      "um": 199,
      "ig": 200,
      "uh": 201,
      "ist": 202,
      "wor": 203,
      "ant": 204,
      "ive": 205,
      "up": 206,
      "ard": 207,
      "ast": 208,
      "ind": 209,
      "my": 210,
      "thing": 211,
      "act": 212,
      "gr": 213,
      "sh": 214,
      "this": 215,
      "some": 216,
      "em": 217,
      "por": 218,
      "wn": 219,
      "bo": 220,
      "his": 221,
      "way": 222,
      "art": 223,
      "very": 224,
      "has": 225,
      "had": 226,
      "end": 227,
      "cl": 228,
      "ok": 229,
      "were": 230,
      "ie": 231,
      "will": 232,
      "ta": 233,
      "ma": 234,
      "ol": 235,
      "ren": 236,
      "like": 237,
      "any": 238,
      "ice": 239,
      "their": 240,
      "af": 241,
      "ide": 242,
      "iv": 243,
      "bl": 244,
      "about": 245,
      "ser": 246,
      "ong": 247,
      "ound": 248,
      "its": 249,
      "ah": 250,
      "ions": 251,
      "ci": 252,
      "cent": 253,
      "ous": 254,
      "ated": 255,
      "how": 256,
      "more": 257,
      "don": 258,
      "year": 259,
      "ack": 260,
      "she": 261,
      "just": 262,
      "other": 263,
      "ud": 264,
      "would": 265,
      "ine": 266,
      "here": 267,
      "new": 268,
      "pr": 269,
      "00": 270,
      "ish": 271,
      "und": 272,
      "ough": 273,
      "ink": 274,
      "get": 275,
      "age": 276,
      "port": 277,
      "able": 278,
      "did": 279,
      "ven": 280,
      "fo": 281,
      "form": 282,
      "them": 283,
      "ach": 284,
      "ite": 285,
      "well": 286,
      "low": 287,
      "yeah": 288,
      "wo": 289,
      "what": 290,
      "king": 291,
      "ty": 292,
      "ans": 293,
      "when": 294,
      "who": 295,
      "br": 296,
      "pre": 297,
      "ble": 298,
      "ations": 299,
      "think": 300,
      "mar": 301,
      "peo": 302,
      "been": 303,
      "cau": 304,
      "iz": 305,
      "hi": 306,
      "people": 307,
      "la": 308,
      "day": 309,
      "ree": 310,
      "than": 311,
      "ck": 312,
      "off": 313,
      "ance": 314,
      "cause": 315,
      "over": 316,
      "pos": 317,
      "bu": 318,
      "time": 319,
      "ich": 320,
      "ight": 321,
      "ru": 322,
      "ure": 323,
      "ef": 324,
      "gu": 325,
      "ass": 326,
      "min": 327,
      "ence": 328,
      "rest": 329,
      "her": 330,
      "work": 331,
      "ra": 332,
      "most": 333,
      "because": 334,
      "serv": 335,
      "om": 336,
      "sp": 337,
      "ting": 338,
      "good": 339,
      "ign": 340,
      "op": 341,
      "ace": 342,
      "dis": 343,
      "sc": 344,
      "only": 345,
      "ber": 346,
      "cont": 347,
      "pres": 348,
      "comm": 349,
      "ca": 350,
      "ving": 351,
      "int": 352,
      "land": 353,
      "jo": 354,
      "ire": 355,
      "si": 356,
      "du": 357,
      "him": 358,
      "coun": 359,
      "part": 360,
      "pu": 361,
      "av": 362,
      "ade": 363,
      "est": 364,
      "see": 365,
      "could": 366,
      "ep": 367,
      "need": 368,
      "19": 369,
      "which": 370,
      "ase": 371,
      "tur": 372,
      "gre": 373,
      "cre": 374,
      "col": 375,
      "every": 376,
      "enc": 377,
      "ors": 378,
      "your": 379,
      "cess": 380,
      "el": 381,
      "pt": 382,
      "into": 383,
      "ful": 384,
      "mu": 385,
      "ical": 386,
      "many": 387,
      "after": 388,
      "cor": 389,
      "down": 390,
      "comp": 391,
      "right": 392,
      "sel": 393,
      "leg": 394,
      "publ": 395,
      "said": 396,
      "cost": 397,
      "ction": 398,
      "fin": 399,
      "cur": 400,
      "even": 401,
      "two": 402,
      "ild": 403,
      "may": 404,
      "des": 405,
      "lit": 406,
      "try": 407,
      "spe": 408,
      "fir": 409,
      "ates": 410,
      "ia": 411,
      "pp": 412,
      "used": 413,
      "gram": 414,
      "wat": 415,
      "look": 416,
      "ments": 417,
      "cr": 418,
      "where": 419,
      "also": 420,
      "under": 421,
      "then": 422,
      "ue": 423,
      "come": 424,
      "program": 425,
      "sm": 426,
      "back": 427,
      "vie": 428,
      "these": 429,
      "tim": 430,
      "really": 431,
      "car": 432,
      "ici": 433,
      "vern": 434,
      "going": 435,
      "ted": 436,
      "ved": 437,
      "years": 438,
      "thr": 439,
      "never": 440,
      "ory": 441,
      "ices": 442,
      "lot": 443,
      "ile": 444,
      "bet": 445,
      "long": 446,
      "ouse": 447,
      "ry": 448,
      "ens": 449,
      "mon": 450,
      "side": 451,
      "ga": 452,
      "rent": 453,
      "val": 454,
      "state": 455,
      "govern": 456,
      "tain": 457,
      "fore": 458,
      "dif": 459,
      "inform": 460,
      "pa": 461,
      "par": 462,
      "requ": 463,
      "eral": 464,
      "stand": 465,
      "row": 466,
      "should": 467,
      "sho": 468,
      "house": 469,
      "does": 470,
      "ition": 471,
      "iss": 472,
      "ose": 473,
      "ps": 474,
      "chan": 475,
      "inter": 476,
      "say": 477,
      "att": 478,
      "through": 479,
      "ail": 480,
      "fect": 481,
      "cal": 482,
      "ities": 483,
      "clo": 484,
      "ways": 485,
      "ary": 486,
      "less": 487,
      "made": 488,
      "pers": 489,
      "inte": 490,
      "pri": 491,
      "public": 492,
      "ning": 493,
      "sur": 494,
      "much": 495,
      "self": 496,
      "gen": 497,
      "sub": 498,
      "cer": 499,
      "cap": 500,
      "show": 501,
      "take": 502,
      "view": 503,
      "old": 504,
      "high": 505,
      "information": 506,
      "air": 507,
      "ought": 508,
      "fl": 509,
      "vis": 510,
      "read": 511,
      "got": 512,
      "pay": 513,
      "too": 514,
      "med": 515,
      "ces": 516,
      "der": 517,
      "ks": 518,
      "use": 519,
      "times": 520,
      "je": 521,
      "ran": 522,
      "ual": 523,
      "hel": 524,
      "cial": 525,
      "men": 526,
      "reg": 527,
      "--": 528,
      "ress": 529,
      "add": 530,
      "make": 531,
      "great": 532,
      "last": 533,
      "ident": 534,
      "first": 535,
      "those": 536,
      "nation": 537,
      "war": 538,
      "ked": 539,
      "always": 540,
      "law": 541,
      "tal": 542,
      "want": 543,
      "legal": 544,
      "ious": 545,
      "wer": 546,
      "stud": 547,
      "main": 548,
      "tri": 549,
      "ys": 550,
      "ital": 551,
      "produ": 552,
      "tle": 553,
      "ph": 554,
      "sy": 555,
      "fed": 556,
      "sure": 557,
      "sum": 558,
      "alth": 559,
      "che": 560,
      "city": 561,
      "na": 562,
      "ten": 563,
      "ives": 564,
      "plan": 565,
      "government": 566,
      "sup": 567,
      "turn": 568,
      "sul": 569,
      "found": 570,
      "incl": 571,
      "tom": 572,
      "plo": 573,
      "vol": 574,
      "place": 575,
      "help": 576,
      "arch": 577,
      "ily": 578,
      "mean": 579,
      "oh": 580,
      "oney": 581,
      "ise": 582,
      "ards": 583,
      "199": 584,
      "ative": 585,
      "ents": 586,
      "cho": 587,
      "didn": 588,
      "ited": 589,
      "lect": 590,
      "ave": 591,
      "still": 592,
      "bus": 593,
      "ric": 594,
      "als": 595,
      "person": 596,
      "interest": 597,
      "money": 598,
      "fact": 599,
      "gan": 600,
      "les": 601,
      "amer": 602,
      "ak": 603,
      "wr": 604,
      "such": 605,
      "care": 606,
      "ves": 607,
      "rel": 608,
      "ating": 609,
      "vers": 610,
      "life": 611,
      "small": 612,
      "set": 613,
      "diffe": 614,
      "bas": 615,
      "aud": 616,
      "dr": 617,
      "find": 618,
      "mem": 619,
      "ably": 620,
      "bod": 621,
      "ian": 622,
      "put": 623,
      "ced": 624,
      "cut": 625,
      "around": 626,
      "led": 627,
      "eng": 628,
      "log": 629,
      "cour": 630,
      "ls": 631,
      "inst": 632,
      "agenc": 633,
      "americ": 634,
      ").": 635,
      "prov": 636,
      "cle": 637,
      "num": 638,
      "went": 639,
      "ular": 640,
      "ds": 641,
      "ger": 642,
      "ial": 643,
      "vo": 644,
      "report": 645,
      "ject": 646,
      "services": 647,
      "little": 648,
      "ms": 649,
      "nor": 650,
      "ss": 651,
      "ick": 652,
      "call": 653,
      "hand": 654,
      "ants": 655,
      "appro": 656,
      "000": 657,
      "sto": 658,
      "post": 659,
      "fer": 660,
      "str": 661,
      "ason": 662,
      "something": 663,
      "before": 664,
      "ped": 665,
      "test": 666,
      "body": 667,
      "own": 668,
      "xt": 669,
      "econ": 670,
      "wee": 671,
      "federal": 672,
      "bar": 673,
      "big": 674,
      "fam": 675,
      "national": 676,
      "ics": 677,
      "seem": 678,
      "char": 679,
      "ear": 680,
      "being": 681,
      "ket": 682,
      "pect": 683,
      "far": 684,
      "kes": 685,
      "incre": 686,
      "again": 687,
      "ied": 688,
      "lar": 689,
      "mat": 690,
      "sk": 691,
      "sen": 692,
      "ton": 693,
      "stem": 694,
      "let": 695,
      "uring": 696,
      "things": 697,
      "cul": 698,
      "ob": 699,
      "ures": 700,
      "service": 701,
      "lead": 702,
      "fund": 703,
      "same": 704,
      "book": 705,
      "possi": 706,
      "ury": 707,
      "ft": 708,
      "sin": 709,
      "ually": 710,
      "ific": 711,
      "sit": 712,
      "ort": 713,
      "play": 714,
      "tax": 715,
      "build": 716,
      "water": 717,
      "real": 718,
      "kind": 719,
      "system": 720,
      "cas": 721,
      "town": 722,
      "effect": 723,
      "bor": 724,
      "each": 725,
      "ility": 726,
      "sou": 727,
      "yes": 728,
      "ot": 729,
      "tem": 730,
      "ished": 731,
      "fort": 732,
      "dec": 733,
      "pon": 734,
      "ings": 735,
      "hold": 736,
      "anything": 737,
      "fr": 738,
      "might": 739,
      "miss": 740,
      "world": 741,
      "came": 742,
      ".\"": 743,
      "prob": 744,
      "keep": 745,
      "hu": 746,
      "three": 747,
      "happ": 748,
      "tech": 749,
      "ath": 750,
      "away": 751,
      "jon": 752,
      "mer": 753,
      "sim": 754,
      "while": 755,
      "home": 756,
      "exam": 757,
      "saving": 758,
      "ben": 759,
      "dist": 760,
      "ff": 761,
      "organ": 762,
      "cu": 763,
      "kid": 764,
      "programs": 765,
      "child": 766,
      "different": 767,
      "ross": 768,
      "lie": 769,
      "vent": 770,
      "island": 771,
      "ized": 772,
      "cri": 773,
      "hist": 774,
      "tre": 775,
      "thor": 776,
      "iness": 777,
      "rece": 778,
      "peri": 779,
      "rule": 780,
      "country": 781,
      "fun": 782,
      "ict": 783,
      "aren": 784,
      "gao": 785,
      "thought": 786,
      "rist": 787,
      "cam": 788,
      "pol": 789,
      "present": 790,
      "number": 791,
      "anal": 792,
      "acti": 793,
      "ween": 794,
      "probably": 795,
      "bur": 796,
      "eas": 797,
      "sal": 798,
      "won": 799,
      "prof": 800,
      "between": 801,
      "during": 802,
      "start": 803,
      "import": 804,
      "better": 805,
      "),": 806,
      "dat": 807,
      "five": 808,
      "pat": 809,
      "ines": 810,
      "allow": 811,
      "issu": 812,
      "proble": 813,
      "ages": 814,
      "contro": 815,
      "grow": 816,
      "mill": 817,
      "ared": 818,
      "capital": 819,
      "ip": 820,
      "pop": 821,
      "clint": 822,
      "includ": 823,
      "clinton": 824,
      "fol": 825,
      "mor": 826,
      "ster": 827,
      "best": 828,
      "vest": 829,
      "velo": 830,
      "unt": 831,
      "design": 832,
      "took": 833,
      "watch": 834,
      "since": 835,
      "organiz": 836,
      "sid": 837,
      "ars": 838,
      "head": 839,
      "percent": 840,
      "job": 841,
      "avail": 842,
      "road": 843,
      "room": 844,
      "lim": 845,
      "gest": 846,
      "develo": 847,
      "mus": 848,
      "wa": 849,
      "mail": 850,
      "hard": 851,
      "vill": 852,
      "few": 853,
      "posed": 854,
      "product": 855,
      "case": 856,
      "four": 857,
      "ned": 858,
      "run": 859,
      "ically": 860,
      "process": 861,
      "feel": 862,
      "emplo": 863,
      "cond": 864,
      "gener": 865,
      "fri": 866,
      "invest": 867,
      "cept": 868,
      "ports": 869,
      "open": 870,
      "sign": 871,
      "once": 872,
      "nothing": 873,
      "aper": 874,
      "possible": 875,
      "data": 876,
      "must": 877,
      "though": 878,
      "resul": 879,
      "point": 880,
      "iting": 881,
      "done": 882,
      "ken": 883,
      "mr": 884,
      "mil": 885,
      "stree": 886,
      "available": 887,
      "ilt": 888,
      "deli": 889,
      "built": 890,
      "ni": 891,
      "comple": 892,
      "manage": 893,
      "benef": 894,
      "os": 895,
      "var": 896,
      "power": 897,
      "guess": 898,
      "respon": 899,
      "colle": 900,
      "ban": 901,
      "pain": 902,
      "step": 903,
      "mode": 904,
      "minist": 905,
      "kids": 906,
      "important": 907,
      "ters": 908,
      "pract": 909,
      "costs": 910,
      "business": 911,
      "gl": 912,
      "sing": 913,
      "ward": 914,
      "left": 915,
      "doll": 916,
      "tern": 917,
      "both": 918,
      "children": 919,
      "ref": 920,
      "trans": 921,
      "que": 922,
      "market": 923,
      "line": 924,
      "oper": 925,
      "pur": 926,
      "review": 927,
      "along": 928,
      "suc": 929,
      "next": 930,
      "polit": 931,
      "commun": 932,
      "cy": 933,
      "fish": 934,
      "late": 935,
      "wal": 936,
      "rence": 937,
      "press": 938,
      "aim": 939,
      "cus": 940,
      "di": 941,
      "night": 942,
      "white": 943,
      "ribut": 944,
      "exp": 945,
      "ready": 946,
      "remain": 947,
      "ash": 948,
      "qual": 949,
      "century": 950,
      "ather": 951,
      "accoun": 952,
      "quest": 953,
      "logy": 954,
      "large": 955,
      "bi": 956,
      "scho": 957,
      "vi": 958,
      "win": 959,
      "ats": 960,
      "states": 961,
      "valu": 962,
      "week": 963,
      "building": 964,
      "school": 965,
      "bal": 966,
      "ged": 967,
      "ner": 968,
      "reason": 969,
      "near": 970,
      "certain": 971,
      "da": 972,
      "et": 973,
      "vir": 974,
      "belie": 975,
      "trad": 976,
      "bed": 977,
      "uc": 978,
      "loc": 979,
      "local": 980,
      "days": 981,
      "bit": 982,
      "har": 983,
      "hum": 984,
      "ale": 985,
      "plac": 986,
      "known": 987,
      "contin": 988,
      "bad": 989,
      "ons": 990,
      "list": 991,
      "maj": 992,
      "buy": 993,
      "require": 994,
      "econom": 995,
      "pence": 996,
      "ley": 997,
      "rock": 998,
      "using": 999,
      "claim": 1000,
      "office": 1001,
      "crit": 1002,
      "management": 1003,
      "ded": 1004,
      "tup": 1005,
      "stat": 1006,
      "cover": 1007,
      "dep": 1008,
      "joy": 1009,
      "agencies": 1010,
      "south": 1011,
      "tuppence": 1012,
      "200": 1013,
      "dan": 1014,
      "ired": 1015,
      "star": 1016,
      "administ": 1017,
      "ute": 1018,
      "ution": 1019,
      "def": 1020,
      "net": 1021,
      "appe": 1022,
      "grou": 1023,
      "president": 1024,
      "tommy": 1025,
      "den": 1026,
      "mit": 1027,
      "search": 1028,
      "ivid": 1029,
      "street": 1030,
      "ever": 1031,
      "gress": 1032,
      "nam": 1033,
      "seen": 1034,
      "train": 1035,
      "brit": 1036,
      "audit": 1037,
      "ago": 1038,
      "bud": 1039,
      "ev": 1040,
      "ris": 1041,
      "san": 1042,
      "site": 1043,
      "tou": 1044,
      "enough": 1045,
      "pret": 1046,
      "support": 1047,
      "ecut": 1048,
      "fil": 1049,
      "ii": 1050,
      "ism": 1051,
      "isn": 1052,
      "impro": 1053,
      "execut": 1054,
      "ended": 1055,
      "centr": 1056,
      "finan": 1057,
      "15": 1058,
      "bers": 1059,
      "nat": 1060,
      "ined": 1061,
      "wasn": 1062,
      "ends": 1063,
      "din": 1064,
      "ork": 1065,
      "aring": 1066,
      "west": 1067,
      "sol": 1068,
      "polic": 1069,
      "follow": 1070,
      "12": 1071,
      "eg": 1072,
      "ib": 1073,
      "york": 1074,
      "enjoy": 1075,
      "stay": 1076,
      "beach": 1077,
      "ples": 1078,
      "plain": 1079,
      "current": 1080,
      "provid": 1081,
      "techno": 1082,
      "million": 1083,
      "major": 1084,
      "aur": 1085,
      "dire": 1086,
      "ges": 1087,
      "past": 1088,
      "sent": 1089,
      "lig": 1090,
      "live": 1091,
      "actually": 1092,
      "general": 1093,
      "jam": 1094,
      "ues": 1095,
      "another": 1096,
      "doing": 1097,
      "standards": 1098,
      "doesn": 1099,
      "aid": 1100,
      "bro": 1101,
      "init": 1102,
      "top": 1103,
      "ists": 1104,
      "everything": 1105,
      "activ": 1106,
      "control": 1107,
      "18": 1108,
      "fic": 1109,
      "fac": 1110,
      "told": 1111,
      "sug": 1112,
      "true": 1113,
      "saw": 1114,
      "rug": 1115,
      "commit": 1116,
      "postal": 1117,
      "hind": 1118,
      "jud": 1119,
      "atives": 1120,
      "river": 1121,
      "making": 1122,
      "restaur": 1123,
      "icip": 1124,
      "ensive": 1125,
      "ball": 1126,
      "ater": 1127,
      "today": 1128,
      "acy": 1129,
      "tell": 1130,
      "increas": 1131,
      "..": 1132,
      "usu": 1133,
      "ude": 1134,
      "door": 1135,
      "indust": 1136,
      "change": 1137,
      "bre": 1138,
      "ier": 1139,
      "mass": 1140,
      "spo": 1141,
      "recent": 1142,
      "ste": 1143,
      "demo": 1144,
      "coming": 1145,
      "cient": 1146,
      "getting": 1147,
      "success": 1148,
      "administr": 1149,
      "hn": 1150,
      "dest": 1151,
      "pet": 1152,
      "needs": 1153,
      "hour": 1154,
      "tic": 1155,
      "coast": 1156,
      "sun": 1157,
      "light": 1158,
      "whole": 1159,
      "lawy": 1160,
      "wanted": 1161,
      "20": 1162,
      "ina": 1163,
      "ang": 1164,
      "secur": 1165,
      "health": 1166,
      "const": 1167,
      "agency": 1168,
      "analys": 1169,
      "until": 1170,
      "direct": 1171,
      "?\"": 1172,
      "bill": 1173,
      "sed": 1174,
      "roy": 1175,
      "vel": 1176,
      "comes": 1177,
      "expect": 1178,
      "looking": 1179,
      "regul": 1180,
      "member": 1181,
      "provide": 1182,
      "popular": 1183,
      "huh": 1184,
      "tion": 1185,
      "income": 1186,
      "across": 1187,
      "idence": 1188,
      "having": 1189,
      "app": 1190,
      "sometimes": 1191,
      "john": 1192,
      "understand": 1193,
      "priv": 1194,
      "visit": 1195,
      "requirements": 1196,
      "ba": 1197,
      "gard": 1198,
      "ins": 1199,
      "ories": 1200,
      "least": 1201,
      "sever": 1202,
      "adv": 1203,
      "death": 1204,
      "happen": 1205,
      "develop": 1206,
      "several": 1207,
      "hor": 1208,
      "paper": 1209,
      "ann": 1210,
      "educ": 1211,
      "soci": 1212,
      "uni": 1213,
      "ending": 1214,
      "financial": 1215,
      "technology": 1216,
      "lsc": 1217,
      "pal": 1218,
      "thir": 1219,
      "mother": 1220,
      "key": 1221,
      "manag": 1222,
      "six": 1223,
      "based": 1224,
      "family": 1225,
      "easy": 1226,
      "cou": 1227,
      "flo": 1228,
      "free": 1229,
      "iro": 1230,
      "chur": 1231,
      "ural": 1232,
      "ately": 1233,
      "particip": 1234,
      "study": 1235,
      "church": 1236,
      "ding": 1237,
      "hal": 1238,
      "moun": 1239,
      "rul": 1240,
      "sat": 1241,
      "reach": 1242,
      "why": 1243,
      "without": 1244,
      "prin": 1245,
      "food": 1246,
      "course": 1247,
      "az": 1248,
      "ju": 1249,
      "jap": 1250,
      "sco": 1251,
      "ask": 1252,
      "asked": 1253,
      "ified": 1254,
      "ult": 1255,
      "example": 1256,
      "music": 1257,
      "japan": 1258,
      "io": 1259,
      "kill": 1260,
      "story": 1261,
      "already": 1262,
      "roman": 1263,
      "second": 1264,
      "moder": 1265,
      "term": 1266,
      "working": 1267,
      "ground": 1268,
      "tail": 1269,
      "north": 1270,
      "tourist": 1271,
      ".'": 1272,
      "ele": 1273,
      "face": 1274,
      "whe": 1275,
      "adr": 1276,
      "someone": 1277,
      "offici": 1278,
      "rather": 1279,
      "contain": 1280,
      "personal": 1281,
      "america": 1282,
      "security": 1283,
      "10": 1284,
      "dou": 1285,
      "gin": 1286,
      "ix": 1287,
      "ling": 1288,
      "ancient": 1289,
      "represent": 1290,
      "argu": 1291,
      "defin": 1292,
      "poll": 1293,
      "iety": 1294,
      "ize": 1295,
      "everyone": 1296,
      "month": 1297,
      "although": 1298,
      "name": 1299,
      "increase": 1300,
      "problem": 1301,
      "village": 1302,
      "believe": 1303,
      "lu": 1304,
      "round": 1305,
      "seum": 1306,
      "hot": 1307,
      "concer": 1308,
      "fel": 1309,
      "resour": 1310,
      "experi": 1311,
      "individ": 1312,
      "class": 1313,
      "typ": 1314,
      "contribut": 1315,
      "museum": 1316,
      "paign": 1317,
      "request": 1318,
      "related": 1319,
      "campaign": 1320,
      "organizations": 1321,
      "model": 1322,
      "ei": 1323,
      "hing": 1324,
      "ze": 1325,
      "associ": 1326,
      "heart": 1327,
      "ched": 1328,
      "united": 1329,
      "plement": 1330,
      "bring": 1331,
      "turned": 1332,
      "court": 1333,
      "strong": 1334,
      "against": 1335,
      "individual": 1336,
      "lou": 1337,
      "pie": 1338,
      "recor": 1339,
      "ering": 1340,
      "sty": 1341,
      "sell": 1342,
      "wever": 1343,
      "ability": 1344,
      "however": 1345,
      "itional": 1346,
      "approach": 1347,
      "profess": 1348,
      "aw": 1349,
      "aut": 1350,
      "cred": 1351,
      "fig": 1352,
      "fine": 1353,
      "fav": 1354,
      "mand": 1355,
      "ny": 1356,
      "ams": 1357,
      "among": 1358,
      "consid": 1359,
      "iful": 1360,
      "center": 1361,
      "woman": 1362,
      "women": 1363,
      "else": 1364,
      "clear": 1365,
      "human": 1366,
      "education": 1367,
      "hous": 1368,
      "pass": 1369,
      "wall": 1370,
      "thes": 1371,
      "ilities": 1372,
      "youn": 1373,
      "tee": 1374,
      "ived": 1375,
      "mary": 1376,
      "initi": 1377,
      "dri": 1378,
      "give": 1379,
      "sw": 1380,
      "envir": 1381,
      "stu": 1382,
      "deal": 1383,
      "ify": 1384,
      "ateg": 1385,
      "explo": 1386,
      "full": 1387,
      "complete": 1388,
      "dollars": 1389,
      "industry": 1390,
      "democr": 1391,
      "environ": 1392,
      "17": 1393,
      "equ": 1394,
      "sts": 1395,
      "ghts": 1396,
      "move": 1397,
      "hol": 1398,
      "tel": 1399,
      "emp": 1400,
      "himself": 1401,
      "early": 1402,
      "activities": 1403,
      "usually": 1404,
      "ai": 1405,
      "tan": 1406,
      "stop": 1407,
      "soon": 1408,
      "estim": 1409,
      "comput": 1410,
      "special": 1411,
      "value": 1412,
      "studies": 1413,
      "econo": 1414,
      "including": 1415,
      "budget": 1416,
      "central": 1417,
      "card": 1418,
      "mid": 1419,
      "non": 1420,
      "son": 1421,
      "accept": 1422,
      "heard": 1423,
      "living": 1424,
      "teen": 1425,
      "aster": 1426,
      "taken": 1427,
      "rench": 1428,
      "black": 1429,
      "subject": 1430,
      "members": 1431,
      "decis": 1432,
      "histor": 1433,
      "employe": 1434,
      "group": 1435,
      "suggest": 1436,
      "cro": 1437,
      "fire": 1438,
      "gir": 1439,
      "knew": 1440,
      "mis": 1441,
      "mag": 1442,
      "sha": 1443,
      "wide": 1444,
      "ino": 1445,
      "orig": 1446,
      "toge": 1447,
      "beaut": 1448,
      "amp": 1449,
      "poor": 1450,
      "conside": 1451,
      "tract": 1452,
      "worth": 1453,
      "maybe": 1454,
      "foreign": 1455,
      "household": 1456,
      "range": 1457,
      "favor": 1458,
      "together": 1459,
      "considered": 1460,
      "60": 1461,
      "hy": 1462,
      "lay": 1463,
      "mind": 1464,
      "ret": 1465,
      "itself": 1466,
      "ention": 1467,
      "entire": 1468,
      "become": 1469,
      "congress": 1470,
      "wife": 1471,
      "agree": 1472,
      "news": 1473,
      "required": 1474,
      "check": 1475,
      "interesting": 1476,
      "writ": 1477,
      "reporting": 1478,
      "fron": 1479,
      "mission": 1480,
      "history": 1481,
      "delivery": 1482,
      "half": 1483,
      "blo": 1484,
      "eight": 1485,
      "french": 1486,
      "hund": 1487,
      "oc": 1488,
      "rate": 1489,
      "forman": 1490,
      "wel": 1491,
      "cted": 1492,
      "ctions": 1493,
      "plic": 1494,
      "performan": 1495,
      "short": 1496,
      "boy": 1497,
      "iven": 1498,
      "assist": 1499,
      "miles": 1500,
      "improve": 1501,
      "analysis": 1502,
      "hundred": 1503,
      "??": 1504,
      "drug": 1505,
      "atic": 1506,
      "atch": 1507,
      "total": 1508,
      "asure": 1509,
      "section": 1510,
      "illi": 1511,
      "ford": 1512,
      "force": 1513,
      "amoun": 1514,
      "necess": 1515,
      "pose": 1516,
      "perform": 1517,
      "idea": 1518,
      "discus": 1519,
      "fully": 1520,
      "include": 1521,
      "friend": 1522,
      "results": 1523,
      "pretty": 1524,
      "environment": 1525,
      "amount": 1526,
      "cum": 1527,
      "ging": 1528,
      "nal": 1529,
      "ane": 1530,
      "reports": 1531,
      "research": 1532,
      "stri": 1533,
      "almost": 1534,
      "behind": 1535,
      "meth": 1536,
      "augh": 1537,
      "likely": 1538,
      "trying": 1539,
      "couple": 1540,
      "modern": 1541,
      "aic": 1542,
      "cli": 1543,
      "div": 1544,
      "ible": 1545,
      "rich": 1546,
      "sain": 1547,
      "ature": 1548,
      "altern": 1549,
      "washing": 1550,
      "aff": 1551,
      "foot": 1552,
      "collect": 1553,
      "final": 1554,
      "shops": 1555,
      "flu": 1556,
      "situ": 1557,
      "morning": 1558,
      "places": 1559,
      "economic": 1560,
      "economy": 1561,
      "nice": 1562,
      "smo": 1563,
      "itions": 1564,
      "trave": 1565,
      "knowled": 1566,
      "share": 1567,
      "ship": 1568,
      "justice": 1569,
      "type": 1570,
      "generally": 1571,
      "signific": 1572,
      "benefits": 1573,
      "remains": 1574,
      "whether": 1575,
      "either": 1576,
      "cing": 1577,
      "fur": 1578,
      "mal": 1579,
      "inside": 1580,
      "anti": 1581,
      "ense": 1582,
      "ark": 1583,
      "season": 1584,
      "unch": 1585,
      "utes": 1586,
      "ries": 1587,
      "quite": 1588,
      "ield": 1589,
      "taking": 1590,
      "lower": 1591,
      "company": 1592,
      "gave": 1593,
      "says": 1594,
      "tried": 1595,
      "political": 1596,
      "univers": 1597,
      "consider": 1598,
      "origin": 1599,
      "washington": 1600,
      "cast": 1601,
      "fail": 1602,
      "nine": 1603,
      "sil": 1604,
      "often": 1605,
      "area": 1606,
      "prote": 1607,
      "project": 1608,
      "ties": 1609,
      "wouldn": 1610,
      "pris": 1611,
      "scre": 1612,
      "park": 1613,
      "changes": 1614,
      "attack": 1615,
      "close": 1616,
      "summer": 1617,
      "american": 1618,
      "temple": 1619,
      "received": 1620,
      "employ": 1621,
      "questions": 1622,
      "lawyers": 1623,
      "felt": 1624,
      "young": 1625,
      "evalu": 1626,
      "fif": 1627,
      "gas": 1628,
      "hill": 1629,
      "nic": 1630,
      "recomm": 1631,
      "order": 1632,
      "held": 1633,
      "moment": 1634,
      "conf": 1635,
      "perfect": 1636,
      "makes": 1637,
      "workers": 1638,
      "ission": 1639,
      "seems": 1640,
      "problems": 1641,
      "investment": 1642,
      "benefit": 1643,
      "mountain": 1644,
      "front": 1645,
      "knowledge": 1646,
      "eu": 1647,
      "elect": 1648,
      "fast": 1649,
      "ture": 1650,
      "remember": 1651,
      "ilar": 1652,
      "cold": 1653,
      "poiro": 1654,
      "redu": 1655,
      "published": 1656,
      "called": 1657,
      "period": 1658,
      "policy": 1659,
      "committee": 1660,
      "beautiful": 1661,
      "poirot": 1662,
      "cir": 1663,
      "ior": 1664,
      "mist": 1665,
      "squ": 1666,
      "tly": 1667,
      "republic": 1668,
      "ones": 1669,
      "ator": 1670,
      "ceed": 1671,
      "conserv": 1672,
      "tex": 1673,
      "comments": 1674,
      "due": 1675,
      "diffic": 1676,
      "clothes": 1677,
      "issues": 1678,
      "private": 1679,
      "stuff": 1680,
      "ko": 1681,
      "lin": 1682,
      "lack": 1683,
      "pen": 1684,
      "sor": 1685,
      "sam": 1686,
      "ond": 1687,
      "met": 1688,
      "wealth": 1689,
      "lost": 1690,
      "gets": 1691,
      "depart": 1692,
      "proper": 1693,
      "upon": 1694,
      "grap": 1695,
      "bot": 1696,
      "others": 1697,
      "goods": 1698,
      "spect": 1699,
      "firm": 1700,
      "shows": 1701,
      "growth": 1702,
      "rules": 1703,
      "favorite": 1704,
      "100": 1705,
      "dor": 1706,
      "gro": 1707,
      "gate": 1708,
      "gree": 1709,
      "rates": 1710,
      "vious": 1711,
      "invol": 1712,
      "leave": 1713,
      "sex": 1714,
      "bey": 1715,
      "vered": 1716,
      "access": 1717,
      "web": 1718,
      "abor": 1719,
      "dow": 1720,
      "iment": 1721,
      "text": 1722,
      "trust": 1723,
      "lled": 1724,
      "okay": 1725,
      "tural": 1726,
      "standard": 1727,
      "planning": 1728,
      "americans": 1729,
      "analy": 1730,
      "account": 1731,
      "bly": 1732,
      "cust": 1733,
      "hall": 1734,
      "pti": 1735,
      "slate": 1736,
      "tent": 1737,
      "ured": 1738,
      "stic": 1739,
      "ingle": 1740,
      "ese": 1741,
      "abl": 1742,
      "proced": 1743,
      "docu": 1744,
      "outside": 1745,
      "action": 1746,
      "minutes": 1747,
      "spec": 1748,
      "looked": 1749,
      "attention": 1750,
      "inste": 1751,
      "huge": 1752,
      "thorp": 1753,
      "started": 1754,
      "organization": 1755,
      "practice": 1756,
      "auditors": 1757,
      "computer": 1758,
      "significant": 1759,
      "inglethorp": 1760,
      "ake": 1761,
      "fall": 1762,
      "ness": 1763,
      "pite": 1764,
      "assum": 1765,
      "rope": 1766,
      "lies": 1767,
      "nel": 1768,
      "yet": 1769,
      "exist": 1770,
      "serious": 1771,
      "ounds": 1772,
      "establ": 1773,
      "weeks": 1774,
      "effective": 1775,
      "similar": 1776,
      "responsi": 1777,
      "claimed": 1778,
      "hours": 1779,
      "adrin": 1780,
      "girl": 1781,
      "necessary": 1782,
      "instead": 1783,
      "14": 1784,
      "civ": 1785,
      "eat": 1786,
      "gal": 1787,
      "jer": 1788,
      "ners": 1789,
      "ping": 1790,
      "pho": 1791,
      "rit": 1792,
      "ances": 1793,
      "ional": 1794,
      "moved": 1795,
      "ried": 1796,
      "implement": 1797,
      "tru": 1798,
      "plant": 1799,
      "author": 1800,
      "ods": 1801,
      "series": 1802,
      "position": 1803,
      "rais": 1804,
      "partic": 1805,
      "pping": 1806,
      "higher": 1807,
      "talking": 1808,
      "farm": 1809,
      "cases": 1810,
      "happy": 1811,
      "college": 1812,
      "window": 1813,
      "judge": 1814,
      "development": 1815,
      "europe": 1816,
      "mul": 1817,
      "pan": 1818,
      "wards": 1819,
      "reti": 1820,
      "seven": 1821,
      "enter": 1822,
      "deb": 1823,
      "decl": 1824,
      "ney": 1825,
      "goes": 1826,
      "termin": 1827,
      "quick": 1828,
      "words": 1829,
      "anyone": 1830,
      "assess": 1831,
      "party": 1832,
      "ency": 1833,
      "rict": 1834,
      "matter": 1835,
      "sense": 1836,
      "issue": 1837,
      "collection": 1838,
      "painted": 1839,
      "located": 1840,
      "british": 1841,
      "restaurants": 1842,
      "saint": 1843,
      "university": 1844,
      "30": 1845,
      "dy": 1846,
      "field": 1847,
      "hon": 1848,
      "mad": 1849,
      "reform": 1850,
      "ening": 1851,
      "isra": 1852,
      "bell": 1853,
      "kets": 1854,
      "imp": 1855,
      "explain": 1856,
      "thern": 1857,
      "aged": 1858,
      "grand": 1859,
      "despite": 1860,
      "longer": 1861,
      "address": 1862,
      "funding": 1863,
      "various": 1864,
      "critics": 1865,
      "increased": 1866,
      "juli": 1867,
      "situation": 1868,
      "2000": 1869,
      "base": 1870,
      "cru": 1871,
      "eyes": 1872,
      "flow": 1873,
      "jour": 1874,
      "oil": 1875,
      "tour": 1876,
      "thous": 1877,
      "reed": 1878,
      "reli": 1879,
      "ened": 1880,
      "social": 1881,
      "movie": 1882,
      "cons": 1883,
      "exhi": 1884,
      "valley": 1885,
      "views": 1886,
      "medi": 1887,
      "stores": 1888,
      "pati": 1889,
      "bank": 1890,
      "daan": 1891,
      "executive": 1892,
      "decision": 1893,
      "performance": 1894,
      "specific": 1895,
      "thousand": 1896,
      "90": 1897,
      "fut": 1898,
      "gar": 1899,
      "mes": 1900,
      "rain": 1901,
      "iced": 1902,
      "sea": 1903,
      "nobody": 1904,
      "love": 1905,
      "ference": 1906,
      "tra": 1907,
      "effort": 1908,
      "scen": 1909,
      "treat": 1910,
      "evidence": 1911,
      "resources": 1912,
      "experience": 1913,
      "particular": 1914,
      "bir": 1915,
      "glo": 1916,
      "ians": 1917,
      "ns": 1918,
      "paren": 1919,
      "iled": 1920,
      "weather": 1921,
      "covered": 1922,
      "ided": 1923,
      "chair": 1924,
      "christ": 1925,
      "areas": 1926,
      "dered": 1927,
      "trou": 1928,
      "exper": 1929,
      "word": 1930,
      "cially": 1931,
      "needed": 1932,
      "created": 1933,
      "colum": 1934,
      "descri": 1935,
      "prior": 1936,
      "surround": 1937,
      "paying": 1938,
      "1998": 1939,
      "wrong": 1940,
      "famous": 1941,
      "single": 1942,
      "dollar": 1943,
      "louis": 1944,
      "completely": 1945,
      "custom": 1946,
      "ae": 1947,
      "dra": 1948,
      "fight": 1949,
      "gn": 1950,
      "given": 1951,
      "later": 1952,
      "ming": 1953,
      "mic": 1954,
      "ored": 1955,
      "pit": 1956,
      "ume": 1957,
      "inv": 1958,
      "return": 1959,
      "erg": 1960,
      "ingly": 1961,
      "means": 1962,
      "idge": 1963,
      "whate": 1964,
      "respect": 1965,
      "exact": 1966,
      "affect": 1967,
      "commission": 1968,
      "compan": 1969,
      "selves": 1970,
      "regard": 1971,
      "developed": 1972,
      "quality": 1973,
      "depend": 1974,
      "appear": 1975,
      "training": 1976,
      "third": 1977,
      "whatever": 1978,
      "aver": 1979,
      "gers": 1980,
      "pict": 1981,
      "influ": 1982,
      "accor": 1983,
      "haven": 1984,
      "within": 1985,
      "emiss": 1986,
      "boats": 1987,
      "takes": 1988,
      "itely": 1989,
      "worked": 1990,
      "lands": 1991,
      "deser": 1992,
      "older": 1993,
      "receive": 1994,
      "fishing": 1995,
      "question": 1996,
      "egy": 1997,
      "administration": 1998,
      "civil": 1999,
      "future": 2000,
      "emissions": 2001,
      "ered": 2002,
      "lines": 2003,
      "ove": 2004,
      "sof": 2005,
      "tar": 2006,
      "itive": 2007,
      "entr": 2008,
      "became": 2009,
      "ching": 2010,
      "super": 2011,
      "detail": 2012,
      "team": 2013,
      "applic": 2014,
      "198": 2015,
      "color": 2016,
      "instit": 2017,
      "leaders": 2018,
      "fortun": 2019,
      "communic": 2020,
      "walk": 2021,
      "gardens": 2022,
      "piece": 2023,
      "recommend": 2024,
      "square": 2025,
      "texas": 2026,
      "document": 2027,
      "julius": 2028,
      "band": 2029,
      "dro": 2030,
      "pes": 2031,
      "sour": 2032,
      "wish": 2033,
      "xic": 2034,
      "thedr": 2035,
      "begin": 2036,
      "lying": 2037,
      "lived": 2038,
      "afford": 2039,
      "spent": 2040,
      "commer": 2041,
      "cathedr": 2042,
      "phone": 2043,
      "relation": 2044,
      "systems": 2045,
      "included": 2046,
      "products": 2047,
      "result": 2048,
      "...": 2049,
      "credit": 2050,
      "alternative": 2051,
      "travel": 2052,
      "exactly": 2053,
      "16": 2054,
      "bay": 2055,
      "bul": 2056,
      "fran": 2057,
      "jane": 2058,
      "lad": 2059,
      "tw": 2060,
      "ub": 2061,
      "orge": 2062,
      "level": 2063,
      "proposed": 2064,
      "compet": 2065,
      "track": 2066,
      "extre": 2067,
      "plans": 2068,
      "price": 2069,
      "preci": 2070,
      "cked": 2071,
      "green": 2072,
      "shop": 2073,
      "sym": 2074,
      "drink": 2075,
      "engine": 2076,
      "rooms": 2077,
      "steps": 2078,
      "expensive": 2079,
      "definitely": 2080,
      "months": 2081,
      "difficult": 2082,
      "retire": 2083,
      "quickly": 2084,
      "companies": 2085,
      "fix": 2086,
      "gall": 2087,
      "las": 2088,
      "sort": 2089,
      "sports": 2090,
      "tro": 2091,
      "zy": 2092,
      "station": 2093,
      "stra": 2094,
      "ordin": 2095,
      "hear": 2096,
      "mee": 2097,
      "wear": 2098,
      "ches": 2099,
      "chines": 2100,
      "dead": 2101,
      "kept": 2102,
      "god": 2103,
      "hope": 2104,
      "ques": 2105,
      "save": 2106,
      "actions": 2107,
      "box": 2108,
      "portun": 2109,
      "opportun": 2110,
      "common": 2111,
      "speak": 2112,
      "attor": 2113,
      "talk": 2114,
      "voice": 2115,
      "stood": 2116,
      "islands": 2117,
      "active": 2118,
      "watched": 2119,
      "practices": 2120,
      "viol": 2121,
      "restaurant": 2122,
      "style": 2123,
      "employees": 2124,
      "average": 2125,
      "chinese": 2126,
      "50": 2127,
      "fair": 2128,
      "pi": 2129,
      "pul": 2130,
      "wind": 2131,
      "ini": 2132,
      "alco": 2133,
      "espe": 2134,
      "ently": 2135,
      "china": 2136,
      "unit": 2137,
      "except": 2138,
      "eff": 2139,
      "couldn": 2140,
      "ences": 2141,
      "changed": 2142,
      "hands": 2143,
      "strateg": 2144,
      "culture": 2145,
      "sites": 2146,
      "taxes": 2147,
      "wonder": 2148,
      "popul": 2149,
      "variety": 2150,
      "traditional": 2151,
      "continu": 2152,
      "risk": 2153,
      "james": 2154,
      "recently": 2155,
      "destroy": 2156,
      "constru": 2157,
      "managers": 2158,
      "princi": 2159,
      "empire": 2160,
      "written": 2161,
      "parents": 2162,
      "alcohol": 2163,
      "especially": 2164,
      "cand": 2165,
      "cra": 2166,
      "die": 2167,
      "east": 2168,
      "gain": 2169,
      "hit": 2170,
      "jes": 2171,
      "lon": 2172,
      "pap": 2173,
      "ror": 2174,
      "sir": 2175,
      "sie": 2176,
      "slow": 2177,
      "tes": 2178,
      "vies": 2179,
      "wise": 2180,
      "anced": 2181,
      "reco": 2182,
      "arm": 2183,
      "lear": 2184,
      "lebr": 2185,
      "entities": 2186,
      "began": 2187,
      "vels": 2188,
      "cook": 2189,
      "celebr": 2190,
      "dome": 2191,
      "ctor": 2192,
      "knows": 2193,
      "cannot": 2194,
      "grant": 2195,
      "club": 2196,
      "minor": 2197,
      "works": 2198,
      "span": 2199,
      "space": 2200,
      "parts": 2201,
      "shopping": 2202,
      "intel": 2203,
      "basis": 2204,
      "clean": 2205,
      "stock": 2206,
      "seemed": 2207,
      "funds": 2208,
      "2001": 2209,
      "provides": 2210,
      "discuss": 2211,
      "continued": 2212,
      "bing": 2213,
      "dave": 2214,
      "dark": 2215,
      "father": 2216,
      "gd": 2217,
      "gs": 2218,
      "ply": 2219,
      "rou": 2220,
      "sac": 2221,
      "tv": 2222,
      "anim": 2223,
      "ators": 2224,
      "atory": 2225,
      "levels": 2226,
      "role": 2227,
      "acter": 2228,
      "chance": 2229,
      "ables": 2230,
      "impress": 2231,
      "host": 2232,
      "exc": 2233,
      "quar": 2234,
      "venue": 2235,
      "spir": 2236,
      "compared": 2237,
      "paid": 2238,
      "addition": 2239,
      "object": 2240,
      "mrs": 2241,
      "glad": 2242,
      "named": 2243,
      "enjoyed": 2244,
      "mountains": 2245,
      "multi": 2246,
      "entrance": 2247,
      "cathedral": 2248,
      "22": 2249,
      "catch": 2250,
      "dden": 2251,
      "daugh": 2252,
      "eli": 2253,
      "hic": 2254,
      "pic": 2255,
      "rus": 2256,
      "rele": 2257,
      "ensure": 2258,
      "item": 2259,
      "cool": 2260,
      "ides": 2261,
      "supp": 2262,
      "above": 2263,
      "conne": 2264,
      "tees": 2265,
      "ext": 2266,
      "indic": 2267,
      "boat": 2268,
      "afric": 2269,
      "blue": 2270,
      "newsp": 2271,
      "achie": 2272,
      "answer": 2273,
      "ization": 2274,
      "hip": 2275,
      "sitting": 2276,
      "towns": 2277,
      "stern": 2278,
      "jobs": 2279,
      "reflect": 2280,
      "community": 2281,
      "policies": 2282,
      "jamaic": 2283,
      "break": 2284,
      "scot": 2285,
      "japanese": 2286,
      "officials": 2287,
      "commercial": 2288,
      "retirement": 2289,
      "0s": 2290,
      "crow": 2291,
      "ham": 2292,
      "hans": 2293,
      "lor": 2294,
      "mac": 2295,
      "mine": 2296,
      "nar": 2297,
      "pack": 2298,
      "sle": 2299,
      "slo": 2300,
      "spl": 2301,
      "wro": 2302,
      "ank": 2303,
      "rect": 2304,
      "attract": 2305,
      "tower": 2306,
      "chap": 2307,
      "motion": 2308,
      "movies": 2309,
      "terri": 2310,
      "ulpt": 2311,
      "comb": 2312,
      "plus": 2313,
      "emerg": 2314,
      "aft": 2315,
      "themselves": 2316,
      "bridge": 2317,
      "offer": 2318,
      "sculpt": 2319,
      "everybody": 2320,
      "subst": 2321,
      "supposed": 2322,
      "profit": 2323,
      "generation": 2324,
      "natural": 2325,
      "ibility": 2326,
      "participants": 2327,
      "property": 2328,
      "beyond": 2329,
      "established": 2330,
      "according": 2331,
      "wrote": 2332,
      "chapter": 2333,
      ".)": 2334,
      "dre": 2335,
      "dut": 2336,
      "mc": 2337,
      "ome": 2338,
      "ring": 2339,
      "spr": 2340,
      "vil": 2341,
      "vict": 2342,
      "winter": 2343,
      "revol": 2344,
      "alem": 2345,
      "load": 2346,
      "lied": 2347,
      "liked": 2348,
      "rights": 2349,
      "poin": 2350,
      "usalem": 2351,
      "mental": 2352,
      "poses": 2353,
      "opin": 2354,
      "display": 2355,
      "closed": 2356,
      "students": 2357,
      "setting": 2358,
      "charge": 2359,
      "savings": 2360,
      "funny": 2361,
      "provided": 2362,
      "approaches": 2363,
      "doro": 2364,
      "jerusalem": 2365,
      "extreme": 2366,
      "effici": 2367,
      "jesus": 2368,
      "25": 2369,
      "bought": 2370,
      "dam": 2371,
      "event": 2372,
      "fash": 2373,
      "gun": 2374,
      "km": 2375,
      "sand": 2376,
      "tor": 2377,
      "twent": 2378,
      "uries": 2379,
      "willi": 2380,
      "incent": 2381,
      "ased": 2382,
      "aran": 2383,
      "roll": 2384,
      "accur": 2385,
      "vert": 2386,
      "liber": 2387,
      "george": 2388,
      "del": 2389,
      "irt": 2390,
      "condu": 2391,
      "feat": 2392,
      "resh": 2393,
      "centuries": 2394,
      "itect": 2395,
      "thinking": 2396,
      "guide": 2397,
      "scr": 2398,
      "pped": 2399,
      "governor": 2400,
      "media": 2401,
      "added": 2402,
      "architect": 2403,
      "reported": 2404,
      "famil": 2405,
      "cultural": 2406,
      "growing": 2407,
      "limited": 2408,
      "villages": 2409,
      "claims": 2410,
      "reached": 2411,
      "aware": 2412,
      "initiatives": 2413,
      "assistance": 2414,
      "assumpt": 2415,
      "impact": 2416,
      "galler": 2417,
      "13": 2418,
      "jum": 2419,
      "lish": 2420,
      "py": 2421,
      "tin": 2422,
      "wed": 2423,
      "relig": 2424,
      "stre": 2425,
      "stone": 2426,
      "asser": 2427,
      "asia": 2428,
      "secre": 2429,
      "acc": 2430,
      "western": 2431,
      "suit": 2432,
      "neys": 2433,
      "hair": 2434,
      "concl": 2435,
      "fell": 2436,
      "compe": 2437,
      "myself": 2438,
      "somebody": 2439,
      "emper": 2440,
      "anyway": 2441,
      "ously": 2442,
      "focus": 2443,
      "bron": 2444,
      "mark": 2445,
      "intro": 2446,
      "coln": 2447,
      "enced": 2448,
      "spee": 2449,
      "paris": 2450,
      "payment": 2451,
      "calls": 2452,
      "appropri": 2453,
      "store": 2454,
      "skill": 2455,
      "effects": 2456,
      "function": 2457,
      "continue": 2458,
      "expected": 2459,
      "advant": 2460,
      "floor": 2461,
      "satis": 2462,
      "historical": 2463,
      "football": 2464,
      "republican": 2465,
      "lincoln": 2466,
      "sexual": 2467,
      "!\"": 2468,
      "fill": 2469,
      "igh": 2470,
      "kal": 2471,
      "lined": 2472,
      "mart": 2473,
      "none": 2474,
      "rad": 2475,
      "rup": 2476,
      "sant": 2477,
      "van": 2478,
      "inde": 2479,
      "staff": 2480,
      "sem": 2481,
      "nox": 2482,
      "meet": 2483,
      "lives": 2484,
      "unte": 2485,
      "promis": 2486,
      "impossible": 2487,
      "pool": 2488,
      "hote": 2489,
      "tele": 2490,
      "tered": 2491,
      "feet": 2492,
      "aug": 2493,
      "istic": 2494,
      "worry": 2495,
      "ively": 2496,
      "astic": 2497,
      "iving": 2498,
      "brought": 2499,
      "guard": 2500,
      "mination": 2501,
      "mostly": 2502,
      "spend": 2503,
      "correct": 2504,
      "clock": 2505,
      "gotten": 2506,
      "medic": 2507,
      "phil": 2508,
      "volunte": 2509,
      "writing": 2510,
      "difference": 2511,
      "character": 2512,
      "mater": 2513,
      "skin": 2514,
      "born": 2515,
      "france": 2516,
      "allowed": 2517,
      "waiting": 2518,
      "running": 2519,
      "nipa": 2520,
      "operations": 2521,
      "groups": 2522,
      "presidential": 2523,
      "following": 2524,
      "spot": 2525,
      "successful": 2526,
      "houses": 2527,
      "explore": 2528,
      "photo": 2529,
      "journal": 2530,
      "meeting": 2531,
      "route": 2532,
      "hotels": 2533,
      "bs": 2534,
      "fle": 2535,
      "gon": 2536,
      "gam": 2537,
      "hong": 2538,
      "kong": 2539,
      "mur": 2540,
      "mess": 2541,
      "page": 2542,
      "thom": 2543,
      "ination": 2544,
      "independ": 2545,
      "oned": 2546,
      "edit": 2547,
      "assu": 2548,
      "leon": 2549,
      "sequ": 2550,
      "below": 2551,
      "heav": 2552,
      "measure": 2553,
      "units": 2554,
      "determ": 2555,
      "haps": 2556,
      "immedi": 2557,
      "peace": 2558,
      "fee": 2559,
      "perhaps": 2560,
      "shi": 2561,
      "served": 2562,
      "corpor": 2563,
      "smiled": 2564,
      "interpret": 2565,
      "clothing": 2566,
      "primary": 2567,
      "produce": 2568,
      "foundation": 2569,
      "1995": 2570,
      "bush": 2571,
      "smaller": 2572,
      "biggest": 2573,
      "holders": 2574,
      "easily": 2575,
      "pointed": 2576,
      "transport": 2577,
      "walking": 2578,
      "facilities": 2579,
      "double": 2580,
      "methods": 2581,
      "original": 2582,
      "department": 2583,
      "exhibit": 2584,
      "recogn": 2585,
      "twenty": 2586,
      "determine": 2587,
      "ame": 2588,
      "bes": 2589,
      "dav": 2590,
      "ease": 2591,
      "fresh": 2592,
      "hun": 2593,
      "ires": 2594,
      "labor": 2595,
      "mig": 2596,
      "ron": 2597,
      "za": 2598,
      "theater": 2599,
      "rep": 2600,
      "aries": 2601,
      "vegas": 2602,
      "chall": 2603,
      "lots": 2604,
      "sudden": 2605,
      "soc": 2606,
      "hotel": 2607,
      "contr": 2608,
      "concentr": 2609,
      "uses": 2610,
      "bran": 2611,
      "previous": 2612,
      "ruct": 2613,
      "guid": 2614,
      "waters": 2615,
      "calcul": 2616,
      "surv": 2617,
      "tries": 2618,
      "sultan": 2619,
      "founded": 2620,
      "complex": 2621,
      "defense": 2622,
      "executives": 2623,
      "horse": 2624,
      "killed": 2625,
      "contained": 2626,
      "lux": 2627,
      "birth": 2628,
      "christian": 2629,
      "introdu": 2630,
      "david": 2631,
      "bility": 2632,
      "categ": 2633,
      "fit": 2634,
      "fis": 2635,
      "gone": 2636,
      "ium": 2637,
      "ses": 2638,
      "sight": 2639,
      "tions": 2640,
      "vast": 2641,
      "thro": 2642,
      "edge": 2643,
      "isl": 2644,
      "ica": 2645,
      "sets": 2646,
      "ilit": 2647,
      "acco": 2648,
      "losing": 2649,
      "unless": 2650,
      "demand": 2651,
      "feren": 2652,
      "explan": 2653,
      "umes": 2654,
      "serve": 2655,
      "197": 2656,
      "colon": 2657,
      "submit": 2658,
      "showing": 2659,
      "flat": 2660,
      "vision": 2661,
      "reading": 2662,
      "volume": 2663,
      "busy": 2664,
      "voc": 2665,
      "charles": 2666,
      "ski": 2667,
      "senior": 2668,
      "letter": 2669,
      "books": 2670,
      "decided": 2671,
      "simply": 2672,
      "thorn": 2673,
      "sale": 2674,
      "pattern": 2675,
      "ipment": 2676,
      "designed": 2677,
      "friends": 2678,
      "glass": 2679,
      "2002": 2680,
      "massive": 2681,
      "garden": 2682,
      "equipment": 2683,
      "protection": 2684,
      "truth": 2685,
      "israel": 2686,
      "global": 2687,
      "source": 2688,
      "straight": 2689,
      "society": 2690,
      "guidance": 2691,
      "fiscal": 2692,
      "40": 2693,
      "67": 2694,
      "broad": 2695,
      "dle": 2696,
      "hen": 2697,
      "hab": 2698,
      "hate": 2699,
      "rand": 2700,
      "ration": 2701,
      "sad": 2702,
      "tally": 2703,
      "table": 2704,
      "xim": 2705,
      "throw": 2706,
      "theat": 2707,
      "arti": 2708,
      "acts": 2709,
      "forts": 2710,
      "advert": 2711,
      "determin": 2712,
      "homes": 2713,
      "consum": 2714,
      "apart": 2715,
      "antly": 2716,
      "india": 2717,
      "grad": 2718,
      "ival": 2719,
      "portion": 2720,
      "wood": 2721,
      "prevent": 2722,
      "efforts": 2723,
      "guaran": 2724,
      "intended": 2725,
      "create": 2726,
      "shown": 2727,
      "saying": 2728,
      "additional": 2729,
      "1996": 2730,
      "leads": 2731,
      "distribut": 2732,
      "district": 2733,
      "rulemaking": 2734,
      "milit": 2735,
      "pursu": 2736,
      "royal": 2737,
      "regulation": 2738,
      "regulations": 2739,
      "happened": 2740,
      "association": 2741,
      "middle": 2742,
      "households": 2743,
      "patients": 2744,
      "trouble": 2745,
      "jamaica": 2746,
      "emergency": 2747,
      "extremely": 2748,
      "dall": 2749,
      "dance": 2750,
      "mas": 2751,
      "male": 2752,
      "nile": 2753,
      "odo": 2754,
      "sound": 2755,
      "sla": 2756,
      "wers": 2757,
      "wild": 2758,
      "inno": 2759,
      "stret": 2760,
      "ado": 2761,
      "loan": 2762,
      "unified": 2763,
      "dom": 2764,
      "complain": 2765,
      "reser": 2766,
      "please": 2767,
      "indian": 2768,
      "gry": 2769,
      "bob": 2770,
      "artic": 2771,
      "ivity": 2772,
      "lax": 2773,
      "lake": 2774,
      "bert": 2775,
      "join": 2776,
      "legisl": 2777,
      "firms": 2778,
      "greater": 2779,
      "choice": 2780,
      "interested": 2781,
      "factors": 2782,
      "ferred": 2783,
      "larger": 2784,
      "leading": 2785,
      "played": 2786,
      "examples": 2787,
      "starting": 2788,
      "issued": 2789,
      "transform": 2790,
      "accounts": 2791,
      "placed": 2792,
      "britain": 2793,
      "official": 2794,
      "representatives": 2795,
      "pollution": 2796,
      "typical": 2797,
      "figure": 2798,
      "clearly": 2799,
      "blood": 2800,
      "responsible": 2801,
      "debt": 2802,
      "domestic": 2803,
      "quarter": 2804,
      "newspaper": 2805,
      "hanson": 2806,
      "incentives": 2807,
      "secret": 2808,
      "immediately": 2809,
      "dallas": 2810,
      "bare": 2811,
      "bab": 2812,
      "cil": 2813,
      "cup": 2814,
      "cise": 2815,
      "clim": 2816,
      "date": 2817,
      "dded": 2818,
      "fra": 2819,
      "kers": 2820,
      "mut": 2821,
      "phe": 2822,
      "ram": 2823,
      "rap": 2824,
      "sought": 2825,
      "thus": 2826,
      "inc": 2827,
      "oner": 2828,
      "stated": 2829,
      "lets": 2830,
      "sect": 2831,
      "nodded": 2832,
      "hearing": 2833,
      "lose": 2834,
      "irish": 2835,
      "consul": 2836,
      "territ": 2837,
      "usive": 2838,
      "notice": 2839,
      "noticed": 2840,
      "mention": 2841,
      "traf": 2842,
      "tip": 2843,
      "quo": 2844,
      "aste": 2845,
      "shared": 2846,
      "shel": 2847,
      "prem": 2848,
      "pread": 2849,
      "marble": 2850,
      "marked": 2851,
      "eful": 2852,
      "guy": 2853,
      "counsel": 2854,
      "council": 2855,
      "aves": 2856,
      "turkey": 2857,
      "corner": 2858,
      "surance": 2859,
      "vised": 2860,
      "warm": 2861,
      "production": 2862,
      "basic": 2863,
      "findings": 2864,
      "sky": 2865,
      "funded": 2866,
      "possibly": 2867,
      "tempt": 2868,
      "techni": 2869,
      "crime": 2870,
      "folk": 2871,
      "opened": 2872,
      "expand": 2873,
      "listen": 2874,
      "resource": 2875,
      "associated": 2876,
      "drive": 2877,
      "environmental": 2878,
      "cliff": 2879,
      "relief": 2880,
      "egypti": 2881,
      "engineering": 2882,
      "principles": 2883,
      "daughter": 2884,
      "points": 2885,
      "indeed": 2886,
      "august": 2887,
      "36": 2888,
      "award": 2889,
      "batt": 2890,
      "cities": 2891,
      "cross": 2892,
      "dish": 2893,
      "fing": 2894,
      "fbi": 2895,
      "fai": 2896,
      "gross": 2897,
      "ience": 2898,
      "ky": 2899,
      "ost": 2900,
      "rid": 2901,
      "sess": 2902,
      "yard": 2903,
      "zen": 2904,
      "ths": 2905,
      "thic": 2906,
      "era": 2907,
      "toward": 2908,
      "ison": 2909,
      "entity": 2910,
      "weap": 2911,
      "ada": 2912,
      "locked": 2913,
      "ays": 2914,
      "cel": 2915,
      "cell": 2916,
      "decor": 2917,
      "irs": 2918,
      "potent": 2919,
      "mentary": 2920,
      "ultim": 2921,
      "appreci": 2922,
      "agon": 2923,
      "march": 2924,
      "omb": 2925,
      "international": 2926,
      "internal": 2927,
      "surpris": 2928,
      "identify": 2929,
      "english": 2930,
      "instance": 2931,
      "cash": 2932,
      "southern": 2933,
      "arently": 2934,
      "camp": 2935,
      "response": 2936,
      "purpose": 2937,
      "utely": 2938,
      "film": 2939,
      "beaches": 2940,
      "billion": 2941,
      "apparently": 2942,
      "doub": 2943,
      "pieces": 2944,
      "selling": 2945,
      "stopped": 2946,
      "accepted": 2947,
      "employee": 2948,
      "hypo": 2949,
      "improvement": 2950,
      "reduce": 2951,
      "involved": 2952,
      "procedures": 2953,
      "entertain": 2954,
      "regarding": 2955,
      "desert": 2956,
      "twice": 2957,
      "candid": 2958,
      "spanish": 2959,
      "revolution": 2960,
      "emperor": 2961,
      ",'": 2962,
      "bent": 2963,
      "cit": 2964,
      "dun": 2965,
      "dry": 2966,
      "eye": 2967,
      "equal": 2968,
      "mou": 2969,
      "nia": 2970,
      "ox": 2971,
      "task": 2972,
      "thre": 2973,
      "rely": 2974,
      "relax": 2975,
      "stro": 2976,
      "totally": 2977,
      "arri": 2978,
      "select": 2979,
      "beat": 2980,
      "beha": 2981,
      "note": 2982,
      "accom": 2983,
      "chain": 2984,
      "ares": 2985,
      "gean": 2986,
      "prohi": 2987,
      "domin": 2988,
      "ira": 2989,
      "imag": 2990,
      "tery": 2991,
      "ush": 2992,
      "illino": 2993,
      "trade": 2994,
      "plent": 2995,
      "safe": 2996,
      "acted": 2997,
      "bling": 2998,
      "bles": 2999,
      "izing": 3000,
      "spain": 3001,
      "spending": 3002,
      "count": 3003,
      "publish": 3004,
      "icians": 3005,
      "differ": 3006,
      "tomb": 3007,
      "wrap": 3008,
      "dram": 3009,
      "numbers": 3010,
      "ferry": 3011,
      "controls": 3012,
      "limits": 3013,
      "paint": 3014,
      "accounting": 3015,
      "vior": 3016,
      "schools": 3017,
      "critic": 3018,
      "broke": 3019,
      "palace": 3020,
      "concerned": 3021,
      "astern": 3022,
      "smoke": 3023,
      "failed": 3024,
      "circum": 3025,
      "conservative": 3026,
      "consist": 3027,
      "surrounded": 3028,
      "aegean": 3029,
      "draw": 3030,
      "influence": 3031,
      "soft": 3032,
      "symbo": 3033,
      "population": 3034,
      "destroyed": 3035,
      "motional": 3036,
      "terrible": 3037,
      "accurate": 3038,
      "faith": 3039,
      "behavior": 3040,
      "illinois": 3041,
      ".,": 3042,
      "54": 3043,
      "500": 3044,
      "apo": 3045,
      "aking": 3046,
      "bust": 3047,
      "bits": 3048,
      "ders": 3049,
      "fa": 3050,
      "hang": 3051,
      "lan": 3052,
      "madr": 3053,
      "pier": 3054,
      "rout": 3055,
      "rise": 3056,
      "sar": 3057,
      "sch": 3058,
      "sab": 3059,
      "returned": 3060,
      "towards": 3061,
      "ari": 3062,
      "arts": 3063,
      "bel": 3064,
      "meas": 3065,
      "susan": 3066,
      "lier": 3067,
      "une": 3068,
      "express": 3069,
      "extra": 3070,
      "tired": 3071,
      "saved": 3072,
      "bom": 3073,
      "ief": 3074,
      "iel": 3075,
      "cents": 3076,
      "pra": 3077,
      "forest": 3078,
      "laid": 3079,
      "scale": 3080,
      "content": 3081,
      "finally": 3082,
      "ician": 3083,
      "standing": 3084,
      "medit": 3085,
      "student": 3086,
      "write": 3087,
      "england": 3088,
      "approval": 3089,
      "distance": 3090,
      "allowing": 3091,
      "includes": 3092,
      "designs": 3093,
      "generations": 3094,
      "danger": 3095,
      "events": 3096,
      "risks": 3097,
      "sentiment": 3098,
      "activity": 3099,
      "sugar": 3100,
      "constit": 3101,
      "director": 3102,
      "visitors": 3103,
      "announ": 3104,
      "luck": 3105,
      "types": 3106,
      "recorded": 3107,
      "further": 3108,
      "malay": 3109,
      "originally": 3110,
      "protect": 3111,
      "farmers": 3112,
      "decline": 3113,
      "recommendations": 3114,
      "beginning": 3115,
      "frank": 3116,
      "attorneys": 3117,
      "reflects": 3118,
      "substanti": 3119,
      "opinion": 3120,
      "appropriate": 3121,
      "explanation": 3122,
      "frame": 3123,
      "traffic": 3124,
      ",\"": 3125,
      "29": 3126,
      "66": 3127,
      "bye": 3128,
      "cig": 3129,
      "divid": 3130,
      "elig": 3131,
      "fda": 3132,
      "gent": 3133,
      "gates": 3134,
      "hus": 3135,
      "ient": 3136,
      "mir": 3137,
      "map": 3138,
      "pun": 3139,
      "rural": 3140,
      "spread": 3141,
      "inct": 3142,
      "revenue": 3143,
      "replaced": 3144,
      "ony": 3145,
      "toxic": 3146,
      "becoming": 3147,
      "aceful": 3148,
      "mel": 3149,
      "aret": 3150,
      "utions": 3151,
      "aband": 3152,
      "prom": 3153,
      "propos": 3154,
      "protest": 3155,
      "dog": 3156,
      "hawa": 3157,
      "hood": 3158,
      "convers": 3159,
      "trail": 3160,
      "pleasure": 3161,
      "cancer": 3162,
      "indig": 3163,
      "gran": 3164,
      "shif": 3165,
      "somewhat": 3166,
      "somewhere": 3167,
      "otherwise": 3168,
      "prep": 3169,
      "cks": 3170,
      "offices": 3171,
      "cath": 3172,
      "compar": 3173,
      "looks": 3174,
      "smi": 3175,
      "parks": 3176,
      "parties": 3177,
      "channel": 3178,
      "publications": 3179,
      "northern": 3180,
      "fortress": 3181,
      "condition": 3182,
      "conditions": 3183,
      "succeed": 3184,
      "certainly": 3185,
      "location": 3186,
      "coverage": 3187,
      "ibiz": 3188,
      "lawyer": 3189,
      "managed": 3190,
      "classical": 3191,
      "records": 3192,
      "housing": 3193,
      "employment": 3194,
      "greek": 3195,
      "implementation": 3196,
      "assessment": 3197,
      "affected": 3198,
      "strategic": 3199,
      "items": 3200,
      "africa": 3201,
      "narrow": 3202,
      "sleep": 3203,
      "fashion": 3204,
      "techniques": 3205,
      "decorated": 3206,
      "plenty": 3207,
      "husband": 3208,
      "11": 3209,
      "34": 3210,
      "?'": 3211,
      "aving": 3212,
      "dress": 3213,
      "died": 3214,
      "fat": 3215,
      "freed": 3216,
      "ifor": 3217,
      "lic": 3218,
      "laugh": 3219,
      "mile": 3220,
      "ore": 3221,
      "pil": 3222,
      "rs": 3223,
      "vit": 3224,
      "vice": 3225,
      "wl": 3226,
      "wis": 3227,
      "ya": 3228,
      "atur": 3229,
      "assets": 3230,
      "leaving": 3231,
      "roof": 3232,
      "advoc": 3233,
      "covers": 3234,
      "libr": 3235,
      "liance": 3236,
      "moving": 3237,
      "dod": 3238,
      "gold": 3239,
      "teach": 3240,
      "teams": 3241,
      "resort": 3242,
      "exer": 3243,
      "manu": 3244,
      "pled": 3245,
      "agric": 3246,
      "autom": 3247,
      "umph": 3248,
      "actual": 3249,
      "prices": 3250,
      "markets": 3251,
      "rub": 3252,
      "avo": 3253,
      "seek": 3254,
      "turning": 3255,
      "yourself": 3256,
      "evening": 3257,
      "requires": 3258,
      "califor": 3259,
      "useful": 3260,
      "maintain": 3261,
      "triumph": 3262,
      "supplement": 3263,
      "factor": 3264,
      "carefully": 3265,
      "audits": 3266,
      "auditing": 3267,
      "engage": 3268,
      "install": 3269,
      "instru": 3270,
      "obtain": 3271,
      "ification": 3272,
      "playing": 3273,
      "buildings": 3274,
      "camping": 3275,
      "burn": 3276,
      "productivity": 3277,
      "opening": 3278,
      "remained": 3279,
      "reasons": 3280,
      "reasonable": 3281,
      "nearly": 3282,
      "stark": 3283,
      "appeal": 3284,
      "egg": 3285,
      "brown": 3286,
      "initial": 3287,
      "telling": 3288,
      "directly": 3289,
      "privacy": 3290,
      "mothers": 3291,
      "participation": 3292,
      "tourists": 3293,
      "passed": 3294,
      "democratic": 3295,
      "estimate": 3296,
      "screening": 3297,
      "fifteen": 3298,
      "perfectly": 3299,
      "spectac": 3300,
      "fighting": 3301,
      "pictures": 3302,
      "opportunity": 3303,
      "stream": 3304,
      "photograp": 3305,
      "thomas": 3306,
      "independent": 3307,
      "citiz": 3308,
      "mouth": 3309,
      "circumst": 3310,
      "cigaret": 3311,
      "ibiza": 3312,
      "freedom": 3313,
      "california": 3314,
      "31": 3315,
      "39": 3316,
      "58": 3317,
      "bon": 3318,
      "fu": 3319,
      "gy": 3320,
      "iar": 3321,
      "nes": 3322,
      "nur": 3323,
      "swe": 3324,
      "send": 3325,
      "sounds": 3326,
      "tical": 3327,
      "vation": 3328,
      "insu": 3329,
      "ani": 3330,
      "ancy": 3331,
      "reich": 3332,
      "recover": 3333,
      "stake": 3334,
      "alex": 3335,
      "leag": 3336,
      "bean": 3337,
      "iling": 3338,
      "hest": 3339,
      "cooper": 3340,
      "chick": 3341,
      "whis": 3342,
      "rios": 3343,
      "doctor": 3344,
      "gods": 3345,
      "holy": 3346,
      "hosp": 3347,
      "contract": 3348,
      "female": 3349,
      "resident": 3350,
      "excl": 3351,
      "tive": 3352,
      "agreed": 3353,
      "myster": 3354,
      "shall": 3355,
      "hadn": 3356,
      "blin": 3357,
      "cio": 3358,
      "lakes": 3359,
      "disease": 3360,
      "scar": 3361,
      "dublin": 3362,
      "epa": 3363,
      "encour": 3364,
      "els": 3365,
      "finance": 3366,
      "cury": 3367,
      "carib": 3368,
      "perspect": 3369,
      "showed": 3370,
      "trip": 3371,
      "tripp": 3372,
      "italy": 3373,
      "1999": 3374,
      "relative": 3375,
      "putting": 3376,
      "logical": 3377,
      "approved": 3378,
      "earth": 3379,
      "senate": 3380,
      "mercury": 3381,
      "runs": 3382,
      "investig": 3383,
      "streets": 3384,
      "refused": 3385,
      "purposes": 3386,
      "continues": 3387,
      "buying": 3388,
      "statist": 3389,
      "depends": 3390,
      "followed": 3391,
      "facilit": 3392,
      "hindu": 3393,
      "lightly": 3394,
      "analyses": 3395,
      "score": 3396,
      "elements": 3397,
      "contribute": 3398,
      "individuals": 3399,
      "professors": 3400,
      "swim": 3401,
      "empty": 3402,
      "estimates": 3403,
      "entirely": 3404,
      "occur": 3405,
      "performed": 3406,
      "aicpa": 3407,
      "attacked": 3408,
      "electron": 3409,
      "mistake": 3410,
      "procedure": 3411,
      "authority": 3412,
      "picture": 3413,
      "learn": 3414,
      "supply": 3415,
      "splend": 3416,
      "spring": 3417,
      "ships": 3418,
      "transportation": 3419,
      "consult": 3420,
      "territory": 3421,
      "alexand": 3422,
      "caribbean": 3423,
      "35": 3424,
      "bid": 3425,
      "bound": 3426,
      "cfo": 3427,
      "cure": 3428,
      "eastern": 3429,
      "gives": 3430,
      "hur": 3431,
      "oz": 3432,
      "oth": 3433,
      "oct": 3434,
      "pill": 3435,
      "pred": 3436,
      "rare": 3437,
      "ride": 3438,
      "sn": 3439,
      "sau": 3440,
      "sque": 3441,
      "tun": 3442,
      "tap": 3443,
      "tren": 3444,
      "tles": 3445,
      "ws": 3446,
      "zo": 3447,
      "zant": 3448,
      "inbur": 3449,
      "erous": 3450,
      "strange": 3451,
      "ali": 3452,
      "edinbur": 3453,
      "tool": 3454,
      "asc": 3455,
      "arily": 3456,
      "ario": 3457,
      "leather": 3458,
      "vehic": 3459,
      "forth": 3460,
      "admit": 3461,
      "chose": 3462,
      "loved": 3463,
      "supre": 3464,
      "ung": 3465,
      "unde": 3466,
      "utter": 3467,
      "absol": 3468,
      "prove": 3469,
      "proceed": 3470,
      "neigh": 3471,
      "keys": 3472,
      "imate": 3473,
      "confl": 3474,
      "usad": 3475,
      "fered": 3476,
      "comfort": 3477,
      "aging": 3478,
      "byzant": 3479,
      "sharing": 3480,
      "board": 3481,
      "ideas": 3482,
      "centre": 3483,
      "howard": 3484,
      "prise": 3485,
      "caught": 3486,
      "thank": 3487,
      "mini": 3488,
      "raid": 3489,
      "option": 3490,
      "preser": 3491,
      "presents": 3492,
      "curve": 3493,
      "carry": 3494,
      "game": 3495,
      "statement": 3496,
      "internet": 3497,
      "subsid": 3498,
      "regular": 3499,
      "produced": 3500,
      "sett": 3501,
      "testing": 3502,
      "bigger": 3503,
      "tons": 3504,
      "borrow": 3505,
      "decide": 3506,
      "simul": 3507,
      "crimin": 3508,
      "burned": 3509,
      "roads": 3510,
      "deliver": 3511,
      "operating": 3512,
      "virgin": 3513,
      "tradition": 3514,
      "harm": 3515,
      "names": 3516,
      "usual": 3517,
      "tickets": 3518,
      "northwest": 3519,
      "campaigns": 3520,
      "suggested": 3521,
      "magaz": 3522,
      "shares": 3523,
      "silver": 3524,
      "falls": 3525,
      "scenario": 3526,
      "columns": 3527,
      "violence": 3528,
      "papers": 3529,
      "sacri": 3530,
      "assumptions": 3531,
      "galleries": 3532,
      "accident": 3533,
      "promised": 3534,
      "medicine": 3535,
      "artists": 3536,
      "advertis": 3537,
      "determined": 3538,
      "military": 3539,
      "potential": 3540,
      "hawaii": 3541,
      "manufact": 3542,
      "citizens": 3543,
      "edinburgh": 3544,
      "supreme": 3545,
      "comfortable": 3546,
      "virginia": 3547,
      "bou": 3548,
      "bright": 3549,
      "bunch": 3550,
      "cards": 3551,
      "dates": 3552,
      "fly": 3553,
      "gri": 3554,
      "jury": 3555,
      "mall": 3556,
      "mally": 3557,
      "mach": 3558,
      "mix": 3559,
      "nical": 3560,
      "ota": 3561,
      "pund": 3562,
      "ril": 3563,
      "wan": 3564,
      "zer": 3565,
      "ene": 3566,
      "orts": 3567,
      "ises": 3568,
      "lewis": 3569,
      "robert": 3570,
      "aded": 3571,
      "chic": 3572,
      "chief": 3573,
      "loss": 3574,
      "verty": 3575,
      "sus": 3576,
      "suff": 3577,
      "sole": 3578,
      "deep": 3579,
      "aming": 3580,
      "abs": 3581,
      "abilities": 3582,
      "rivers": 3583,
      "immig": 3584,
      "poverty": 3585,
      "conference": 3586,
      "terror": 3587,
      "fest": 3588,
      "ulous": 3589,
      "ultural": 3590,
      "yester": 3591,
      "april": 3592,
      "quit": 3593,
      "ister": 3594,
      "actor": 3595,
      "sher": 3596,
      "willing": 3597,
      "rena": 3598,
      "anymore": 3599,
      "kings": 3600,
      "posing": 3601,
      "positive": 3602,
      "guys": 3603,
      "caused": 3604,
      "countries": 3605,
      "compon": 3606,
      "comply": 3607,
      "icial": 3608,
      "gather": 3609,
      "pson": 3610,
      "interim": 3611,
      "calm": 3612,
      "plants": 3613,
      "audience": 3614,
      "draft": 3615,
      "trees": 3616,
      "salt": 3617,
      "wait": 3618,
      "models": 3619,
      "trading": 3620,
      "nature": 3621,
      "staying": 3622,
      "contains": 3623,
      "walls": 3624,
      "block": 3625,
      "friendly": 3626,
      "affair": 3627,
      "confident": 3628,
      "grown": 3629,
      "windows": 3630,
      "european": 3631,
      "honor": 3632,
      "israeli": 3633,
      "customer": 3634,
      "micro": 3635,
      "relationship": 3636,
      "lady": 3637,
      "fixing": 3638,
      "fairly": 3639,
      "features": 3640,
      "bronze": 3641,
      "speech": 3642,
      "radio": 3643,
      "material": 3644,
      "heavy": 3645,
      "categories": 3646,
      "abandoned": 3647,
      "library": 3648,
      "exercise": 3649,
      "agricultural": 3650,
      "stakeholders": 3651,
      "hospital": 3652,
      "yesterday": 3653,
      "23": 3654,
      "26": 3655,
      "300": 3656,
      "70": 3657,
      "75": 3658,
      "95": 3659,
      "bour": 3660,
      "bath": 3661,
      "bacco": 3662,
      "dsm": 3663,
      "ka": 3664,
      "leng": 3665,
      "nth": 3666,
      "nist": 3667,
      "oes": 3668,
      "ots": 3669,
      "pac": 3670,
      "pir": 3671,
      "sci": 3672,
      "sched": 3673,
      "ww": 3674,
      "angry": 3675,
      "atter": 3676,
      "ston": 3677,
      "orm": 3678,
      "oring": 3679,
      "alone": 3680,
      "ality": 3681,
      "tobacco": 3682,
      "lection": 3683,
      "rose": 3684,
      "noon": 3685,
      "acid": 3686,
      "acres": 3687,
      "heat": 3688,
      "heim": 3689,
      "mechan": 3690,
      "wet": 3691,
      "loy": 3692,
      "devil": 3693,
      "ament": 3694,
      "provis": 3695,
      "rial": 3696,
      "gol": 3697,
      "gore": 3698,
      "goals": 3699,
      "terms": 3700,
      "users": 3701,
      "sav": 3702,
      "upset": 3703,
      "shu": 3704,
      "wned": 3705,
      "makers": 3706,
      "olina": 3707,
      "afraid": 3708,
      "blues": 3709,
      "marri": 3710,
      "restric": 3711,
      "discovered": 3712,
      "scri": 3713,
      "cape": 3714,
      "seeing": 3715,
      "epis": 3716,
      "mons": 3717,
      "prime": 3718,
      "airlines": 3719,
      "trial": 3720,
      "helped": 3721,
      "careful": 3722,
      "differen": 3723,
      "handed": 3724,
      "handle": 3725,
      "leader": 3726,
      "bork": 3727,
      "temples": 3728,
      "easier": 3729,
      "watching": 3730,
      "processes": 3731,
      "ternal": 3732,
      "purch": 3733,
      "cynth": 3734,
      "expend": 3735,
      "criter": 3736,
      "utional": 3737,
      "iii": 3738,
      "dinner": 3739,
      "stayed": 3740,
      "administrator": 3741,
      "sunday": 3742,
      "annual": 3743,
      "thirty": 3744,
      "profession": 3745,
      "professional": 3746,
      "driving": 3747,
      "occas": 3748,
      "welcome": 3749,
      "iveness": 3750,
      "method": 3751,
      "evaluation": 3752,
      "confidence": 3753,
      "existing": 3754,
      "flowers": 3755,
      "chairman": 3756,
      "experts": 3757,
      "drop": 3758,
      "minority": 3759,
      "gdp": 3760,
      "scott": 3761,
      "scotland": 3762,
      "drew": 3763,
      "victor": 3764,
      "william": 3765,
      "delhi": 3766,
      "gradu": 3767,
      "doubt": 3768,
      "imagine": 3769,
      "spectacular": 3770,
      "circumstances": 3771,
      "vehicle": 3772,
      "science": 3773,
      "provisions": 3774,
      "cynthia": 3775,
      "cat": 3776,
      "ean": 3777,
      "hig": 3778,
      "master": 3779,
      "pick": 3780,
      "sons": 3781,
      "slightly": 3782,
      "til": 3783,
      "tts": 3784,
      "vin": 3785,
      "wit": 3786,
      "wants": 3787,
      "waste": 3788,
      "invent": 3789,
      "rer": 3790,
      "replace": 3791,
      "enous": 3792,
      "enni": 3793,
      "stry": 3794,
      "stories": 3795,
      "iture": 3796,
      "aspect": 3797,
      "lean": 3798,
      "icing": 3799,
      "icers": 3800,
      "severn": 3801,
      "sevent": 3802,
      "entered": 3803,
      "novel": 3804,
      "acqu": 3805,
      "coal": 3806,
      "coll": 3807,
      "loire": 3808,
      "suf": 3809,
      "devo": 3810,
      "abuse": 3811,
      "abort": 3812,
      "abbey": 3813,
      "progress": 3814,
      "proportion": 3815,
      "prophe": 3816,
      "iron": 3817,
      "gothic": 3818,
      "conce": 3819,
      "consequ": 3820,
      "peaceful": 3821,
      "ateau": 3822,
      "nowhere": 3823,
      "tric": 3824,
      "excell": 3825,
      "tied": 3826,
      "therefore": 3827,
      "agra": 3828,
      "aggress": 3829,
      "gras": 3830,
      "grants": 3831,
      "shr": 3832,
      "olic": 3833,
      "achuse": 3834,
      "whose": 3835,
      "izes": 3836,
      "hire": 3837,
      "buff": 3838,
      "assign": 3839,
      "restored": 3840,
      "tington": 3841,
      "ops": 3842,
      "discount": 3843,
      "estate": 3844,
      "creation": 3845,
      "afternoon": 3846,
      "cris": 3847,
      "mont": 3848,
      "monica": 3849,
      "shouldn": 3850,
      "calcut": 3851,
      "rants": 3852,
      "ranean": 3853,
      "summit": 3854,
      "chest": 3855,
      "1997": 3856,
      "finding": 3857,
      "barr": 3858,
      "bars": 3859,
      "earlier": 3860,
      "matters": 3861,
      "obvious": 3862,
      "realized": 3863,
      "iction": 3864,
      "sales": 3865,
      "millenni": 3866,
      "hardly": 3867,
      "processing": 3868,
      "businesses": 3869,
      "beds": 3870,
      "statues": 3871,
      "defend": 3872,
      "supporting": 3873,
      "improved": 3874,
      "solve": 3875,
      "currently": 3876,
      "broken": 3877,
      "massachuse": 3878,
      "regulatory": 3879,
      "azing": 3880,
      "romans": 3881,
      "concerns": 3882,
      "experienced": 3883,
      "mandra": 3884,
      "specialist": 3885,
      "suggests": 3886,
      "magn": 3887,
      "discussed": 3888,
      "cumul": 3889,
      "client": 3890,
      "furn": 3891,
      "republicans": 3892,
      "sorry": 3893,
      "sample": 3894,
      "describes": 3895,
      "egypt": 3896,
      "siege": 3897,
      "objects": 3898,
      "slopes": 3899,
      "conducted": 3900,
      "satisfact": 3901,
      "volunteers": 3902,
      "assumed": 3903,
      "concentration": 3904,
      "faithful": 3905,
      "langu": 3906,
      "dangerous": 3907,
      "promise": 3908,
      "proposal": 3909,
      "indigenous": 3910,
      "catholic": 3911,
      "succeeded": 3912,
      "avoid": 3913,
      "swimming": 3914,
      "splendid": 3915,
      "sauce": 3916,
      "absolutely": 3917,
      "advertising": 3918,
      "length": 3919,
      "restricted": 3920,
      "highest": 3921,
      "calcutta": 3922,
      "millennium": 3923,
      "massachusetts": 3924,
      "cz": 3925,
      "cfa": 3926,
      "eleg": 3927,
      "emotional": 3928,
      "flying": 3929,
      "gi": 3930,
      "han": 3931,
      "hcfa": 3932,
      "jac": 3933,
      "kil": 3934,
      "lind": 3935,
      "mber": 3936,
      "mical": 3937,
      "pounds": 3938,
      "sq": 3939,
      "sword": 3940,
      "tit": 3941,
      "tend": 3942,
      "tough": 3943,
      "zed": 3944,
      "theme": 3945,
      "insurance": 3946,
      "repor": 3947,
      "remark": 3948,
      "revised": 3949,
      "represents": 3950,
      "atmo": 3951,
      "atically": 3952,
      "attempt": 3953,
      "enh": 3954,
      "orca": 3955,
      "ordered": 3956,
      "isel": 3957,
      "ara": 3958,
      "araf": 3959,
      "roc": 3960,
      "separ": 3961,
      "sections": 3962,
      "veget": 3963,
      "iler": 3964,
      "mexic": 3965,
      "forced": 3966,
      "ades": 3967,
      "advent": 3968,
      "core": 3969,
      "coordin": 3970,
      "chand": 3971,
      "uted": 3972,
      "degree": 3973,
      "moisel": 3974,
      "nego": 3975,
      "hole": 3976,
      "concept": 3977,
      "pelled": 3978,
      "noted": 3979,
      "feature": 3980,
      "comed": 3981,
      "compre": 3982,
      "ained": 3983,
      "expl": 3984,
      "manual": 3985,
      "manner": 3986,
      "plat": 3987,
      "agas": 3988,
      "artif": 3989,
      "anywhere": 3990,
      "cious": 3991,
      "pray": 3992,
      "thinks": 3993,
      "marily": 3994,
      "lawn": 3995,
      "buried": 3996,
      "options": 3997,
      "cafe": 3998,
      "pub": 3999,
      "encies": 4000,
      "finn": 4001,
      "craft": 4002,
      "icient": 4003,
      "ension": 4004,
      "monsie": 4005,
      "mademoisel": 4006,
      "capture": 4007,
      "highly": 4008,
      "laws": 4009,
      "lawrence": 4010,
      "chemical": 4011,
      "plane": 4012,
      "suppose": 4013,
      "1994": 4014,
      "settle": 4015,
      "normal": 4016,
      "normally": 4017,
      "charges": 4018,
      "largest": 4019,
      "matic": 4020,
      "plays": 4021,
      "otine": 4022,
      "keeping": 4023,
      "distur": 4024,
      "cried": 4025,
      "percentage": 4026,
      "deliber": 4027,
      "refers": 4028,
      "reviewed": 4029,
      "walked": 4030,
      "bible": 4031,
      "valuation": 4032,
      "virt": 4033,
      "locally": 4034,
      "humor": 4035,
      "statute": 4036,
      "daniel": 4037,
      "increases": 4038,
      "advanced": 4039,
      "horri": 4040,
      "argued": 4041,
      "democrats": 4042,
      "retro": 4043,
      "strike": 4044,
      "divide": 4045,
      "employers": 4046,
      "nicotine": 4047,
      "conservation": 4048,
      "kore": 4049,
      "bottom": 4050,
      "spective": 4051,
      "dorcas": 4052,
      "galile": 4053,
      "raising": 4054,
      "baseball": 4055,
      "patient": 4056,
      "thousands": 4057,
      "appearance": 4058,
      "attorney": 4059,
      "pulled": 4060,
      "strategies": 4061,
      "construction": 4062,
      "intellect": 4063,
      "intellig": 4064,
      "release": 4065,
      "extensive": 4066,
      "achieve": 4067,
      "crowd": 4068,
      "lord": 4069,
      "victory": 4070,
      "damage": 4071,
      "guns": 4072,
      "skills": 4073,
      "martini": 4074,
      "flex": 4075,
      "editor": 4076,
      "consumers": 4077,
      "residents": 4078,
      "relatively": 4079,
      "sacrif": 4080,
      "criteria": 4081,
      "abortion": 4082,
      "atmosp": 4083,
      "arafat": 4084,
      "negoti": 4085,
      "monsieur": 4086,
      "mademoiselle": 4087,
      "41": 4088,
      "55": 4089,
      "80": 4090,
      "blow": 4091,
      "bread": 4092,
      "bilities": 4093,
      "cis": 4094,
      "dig": 4095
    },
    "merges": [
      "t h",
      "th e",
      "i n",
      "a n",
      "r e",
      "o n",
      "e r",
      "a t",
      "e n",
      "o u",
      "s t",
      "o r",
      "a l",
      "i t",
      "e d",
      "t o",
      "in g",
      "i s",
      "e s",
      "o f",
      "an d",
      "a s",
      "a r",
      "l e",
      "i c",
      "r o",
      "i on",
      "s e",
      "en t",
      "b e",
      "v e",
      "n o",
      "i l",
      "a c",
      "h e",
      "l y",
      "m e",
      "f or",
      "th at",
      "w e",
      "a d",
      "c o",
      "i d",
      "y ou",
      "c h",
      "l o",
      "v er",
      "a re",
      "a y",
      "s u",
      "l i",
      "w as",
      "w h",
      "g e",
      "s o",
      "u n",
      "g h",
      "at ion",
      "c e",
      "u t",
      "d e",
      "l d",
      "a m",
      "a b",
      "m o",
      "p ro",
      "n e",
      "r i",
      "d o",
      "i r",
      "k e",
      "h a",
      "i m",
      "g o",
      "p o",
      "h o",
      "u r",
      "c on",
      "c t",
      "t e",
      "w i",
      "the y",
      "p e",
      "t er",
      "ou t",
      "wi th",
      "u s",
      "no t",
      "il l",
      "al l",
      "m ent",
      "f e",
      "i f",
      "u l",
      "er s",
      "at e",
      "ha ve",
      "on e",
      "y e",
      "co m",
      "no w",
      "t r",
      "a p",
      "re s",
      "l l",
      "a in",
      "e x",
      "m an",
      "t s",
      "ou ld",
      "p l",
      "ou n",
      "the r",
      "t i",
      "es s",
      "the re",
      "gh t",
      "a g",
      "b ut",
      "q u",
      "b y",
      "a u",
      "p le",
      "al ly",
      "k now",
      "f ro",
      "o d",
      "u st",
      "fro m",
      "i es",
      "p er",
      "it y",
      "re d",
      "ou r",
      "c an",
      "s a",
      "u m",
      "i g",
      "u h",
      "i st",
      "w or",
      "an t",
      "i ve",
      "u p",
      "ar d",
      "a st",
      "in d",
      "m y",
      "th ing",
      "ac t",
      "g r",
      "s h",
      "th is",
      "so me",
      "e m",
      "p or",
      "w n",
      "b o",
      "h is",
      "w ay",
      "ar t",
      "ver y",
      "h as",
      "h ad",
      "en d",
      "c l",
      "o k",
      "we re",
      "i e",
      "w ill",
      "t a",
      "m a",
      "o l",
      "re n",
      "li ke",
      "an y",
      "ic e",
      "the ir",
      "a f",
      "id e",
      "i v",
      "b l",
      "ab out",
      "s er",
      "on g",
      "oun d",
      "it s",
      "a h",
      "ion s",
      "c i",
      "c ent",
      "ou s",
      "at ed",
      "ho w",
      "mo re",
      "d on",
      "ye ar",
      "ac k",
      "s he",
      "j ust",
      "o ther",
      "u d",
      "w ould",
      "in e",
      "he re",
      "ne w",
      "p r",
      "0 0",
      "is h",
      "un d",
      "ou gh",
      "in k",
      "ge t",
      "a ge",
      "por t",
      "ab le",
      "d id",
      "v en",
      "f o",
      "for m",
      "the m",
      "ac h",
      "it e",
      "we ll",
      "lo w",
      "ye ah",
      "w o",
      "wh at",
      "k ing",
      "t y",
      "an s",
      "wh en",
      "wh o",
      "b r",
      "p re",
      "b le",
      "ation s",
      "th ink",
      "m ar",
      "pe o",
      "be en",
      "c au",
      "i z",
      "h i",
      "peo ple",
      "l a",
      "d ay",
      "re e",
      "th an",
      "c k",
      "of f",
      "an ce",
      "cau se",
      "o ver",
      "po s",
      "b u",
      "ti me",
      "ic h",
      "i ght",
      "r u",
      "u re",
      "e f",
      "g u",
      "as s",
      "m in",
      "en ce",
      "re st",
      "h er",
      "wor k",
      "r a",
      "mo st",
      "be cause",
      "ser v",
      "o m",
      "s p",
      "t ing",
      "go od",
      "ig n",
      "o p",
      "ac e",
      "d is",
      "s c",
      "on ly",
      "b er",
      "con t",
      "p res",
      "com m",
      "c a",
      "v ing",
      "in t",
      "l and",
      "j o",
      "i re",
      "s i",
      "d u",
      "h im",
      "c oun",
      "p art",
      "p u",
      "a v",
      "ad e",
      "e st",
      "se e",
      "c ould",
      "e p",
      "ne ed",
      "1 9",
      "wh ich",
      "as e",
      "t ur",
      "g re",
      "c re",
      "co l",
      "e very",
      "en c",
      "or s",
      "you r",
      "c ess",
      "e l",
      "p t",
      "in to",
      "f ul",
      "m u",
      "ic al",
      "man y",
      "af ter",
      "c or",
      "do wn",
      "com p",
      "ri ght",
      "se l",
      "le g",
      "pu bl",
      "sa id",
      "co st",
      "ct ion",
      "f in",
      "c ur",
      "e ven",
      "t wo",
      "il d",
      "m ay",
      "d es",
      "l it",
      "tr y",
      "s pe",
      "f ir",
      "at es",
      "i a",
      "p p",
      "us ed",
      "gr am",
      "w at",
      "lo ok",
      "ment s",
      "c r",
      "w here",
      "al so",
      "und er",
      "the n",
      "u e",
      "co me",
      "pro gram",
      "s m",
      "b ack",
      "v ie",
      "the se",
      "t im",
      "re ally",
      "c ar",
      "ic i",
      "ver n",
      "go ing",
      "t ed",
      "v ed",
      "year s",
      "th r",
      "ne ver",
      "or y",
      "ic es",
      "lo t",
      "i le",
      "be t",
      "l ong",
      "ou se",
      "r y",
      "en s",
      "m on",
      "s ide",
      "g a",
      "ren t",
      "v al",
      "st ate",
      "go vern",
      "t ain",
      "fo re",
      "d if",
      "in form",
      "p a",
      "p ar",
      "re qu",
      "er al",
      "st and",
      "ro w",
      "sh ould",
      "s ho",
      "h ouse",
      "do es",
      "it ion",
      "is s",
      "o se",
      "p s",
      "ch an",
      "in ter",
      "s ay",
      "at t",
      "thr ough",
      "a il",
      "fe ct",
      "c al",
      "it ies",
      "c lo",
      "way s",
      "ar y",
      "l ess",
      "m ade",
      "p ers",
      "in te",
      "p ri",
      "publ ic",
      "n ing",
      "su r",
      "mu ch",
      "sel f",
      "g en",
      "su b",
      "c er",
      "c ap",
      "s how",
      "ta ke",
      "vie w",
      "o ld",
      "hi gh",
      "inform ation",
      "a ir",
      "ou ght",
      "f l",
      "v is",
      "re ad",
      "go t",
      "p ay",
      "to o",
      "m ed",
      "c es",
      "d er",
      "k s",
      "u se",
      "tim es",
      "j e",
      "r an",
      "u al",
      "he l",
      "ci al",
      "m en",
      "re g",
      "- -",
      "res s",
      "ad d",
      "ma ke",
      "gre at",
      "l ast",
      "id ent",
      "fir st",
      "th ose",
      "n ation",
      "w ar",
      "k ed",
      "al ways",
      "la w",
      "t al",
      "w ant",
      "leg al",
      "i ous",
      "w er",
      "st ud",
      "m ain",
      "t ri",
      "y s",
      "it al",
      "pro du",
      "t le",
      "p h",
      "s y",
      "f ed",
      "su re",
      "su m",
      "al th",
      "c he",
      "c ity",
      "n a",
      "t en",
      "iv es",
      "pl an",
      "govern ment",
      "su p",
      "tur n",
      "su l",
      "f ound",
      "in cl",
      "to m",
      "p lo",
      "v ol",
      "pl ace",
      "hel p",
      "ar ch",
      "il y",
      "me an",
      "o h",
      "one y",
      "is e",
      "ard s",
      "19 9",
      "at ive",
      "ent s",
      "ch o",
      "did n",
      "it ed",
      "le ct",
      "a ve",
      "st ill",
      "b us",
      "r ic",
      "al s",
      "pers on",
      "inte rest",
      "m oney",
      "f act",
      "g an",
      "l es",
      "am er",
      "a k",
      "w r",
      "su ch",
      "c are",
      "v es",
      "re l",
      "at ing",
      "ver s",
      "li fe",
      "sm all",
      "se t",
      "dif fe",
      "b as",
      "au d",
      "d r",
      "f ind",
      "me m",
      "ab ly",
      "b od",
      "i an",
      "p ut",
      "c ed",
      "c ut",
      "ar ound",
      "l ed",
      "en g",
      "lo g",
      "c our",
      "l s",
      "in st",
      "ag enc",
      "amer ic",
      ") .",
      "pro v",
      "c le",
      "n um",
      "w ent",
      "ul ar",
      "d s",
      "g er",
      "i al",
      "v o",
      "re port",
      "je ct",
      "serv ices",
      "lit tle",
      "m s",
      "n or",
      "s s",
      "ic k",
      "c all",
      "h and",
      "an ts",
      "ap pro",
      "00 0",
      "st o",
      "po st",
      "f er",
      "st r",
      "as on",
      "some thing",
      "be fore",
      "p ed",
      "te st",
      "bod y",
      "o wn",
      "x t",
      "e con",
      "we e",
      "fed eral",
      "b ar",
      "b ig",
      "f am",
      "nation al",
      "ic s",
      "se em",
      "ch ar",
      "e ar",
      "be ing",
      "ke t",
      "pe ct",
      "f ar",
      "k es",
      "in cre",
      "ag ain",
      "i ed",
      "l ar",
      "m at",
      "s k",
      "s en",
      "t on",
      "st em",
      "le t",
      "ur ing",
      "thing s",
      "c ul",
      "o b",
      "u res",
      "serv ice",
      "le ad",
      "f und",
      "sa me",
      "bo ok",
      "pos si",
      "ur y",
      "f t",
      "s in",
      "u ally",
      "if ic",
      "s it",
      "or t",
      "pl ay",
      "ta x",
      "bu ild",
      "wat er",
      "re al",
      "k ind",
      "sy stem",
      "c as",
      "to wn",
      "ef fect",
      "b or",
      "e ach",
      "il ity",
      "s ou",
      "y es",
      "o t",
      "te m",
      "ish ed",
      "for t",
      "de c",
      "p on",
      "ing s",
      "ho ld",
      "any thing",
      "f r",
      "m ight",
      "m iss",
      "wor ld",
      "ca me",
      ". \"",
      "pro b",
      "ke ep",
      "h u",
      "th ree",
      "ha pp",
      "te ch",
      "a th",
      "a way",
      "j on",
      "m er",
      "s im",
      "wh ile",
      "ho me",
      "ex am",
      "sa ving",
      "b en",
      "d ist",
      "f f",
      "or gan",
      "c u",
      "k id",
      "program s",
      "ch ild",
      "diffe rent",
      "ro ss",
      "li e",
      "v ent",
      "is land",
      "iz ed",
      "c ri",
      "h ist",
      "t re",
      "th or",
      "in ess",
      "re ce",
      "per i",
      "ru le",
      "coun try",
      "f un",
      "ic t",
      "are n",
      "ga o",
      "th ought",
      "ri st",
      "c am",
      "po l",
      "pres ent",
      "num ber",
      "an al",
      "ac ti",
      "we en",
      "prob ably",
      "b ur",
      "e as",
      "s al",
      "w on",
      "pr of",
      "bet ween",
      "d uring",
      "st art",
      "im port",
      "bet ter",
      ") ,",
      "d at",
      "f ive",
      "p at",
      "in es",
      "al low",
      "is su",
      "pro ble",
      "ag es",
      "cont ro",
      "g row",
      "m ill",
      "are d",
      "cap ital",
      "i p",
      "po p",
      "cl int",
      "incl ud",
      "clint on",
      "f ol",
      "m or",
      "st er",
      "be st",
      "ve st",
      "ve lo",
      "un t",
      "des ign",
      "to ok",
      "wat ch",
      "sin ce",
      "organ iz",
      "s id",
      "ar s",
      "he ad",
      "per cent",
      "jo b",
      "av ail",
      "ro ad",
      "ro om",
      "li m",
      "ge st",
      "de velo",
      "m us",
      "w a",
      "ma il",
      "h ard",
      "v ill",
      "fe w",
      "pos ed",
      "produ ct",
      "c ase",
      "f our",
      "n ed",
      "r un",
      "ic ally",
      "pro cess",
      "fe el",
      "em plo",
      "con d",
      "gen er",
      "f ri",
      "in vest",
      "ce pt",
      "por ts",
      "op en",
      "s ign",
      "on ce",
      "no thing",
      "ap er",
      "possi ble",
      "dat a",
      "m ust",
      "th ough",
      "re sul",
      "po int",
      "it ing",
      "d one",
      "k en",
      "m r",
      "m il",
      "st ree",
      "avail able",
      "il t",
      "de li",
      "bu ilt",
      "n i",
      "com ple",
      "man age",
      "ben ef",
      "o s",
      "v ar",
      "po wer",
      "gu ess",
      "res pon",
      "col le",
      "b an",
      "p ain",
      "st ep",
      "mo de",
      "min ist",
      "kid s",
      "import ant",
      "ter s",
      "pr act",
      "cost s",
      "bus iness",
      "g l",
      "s ing",
      "w ard",
      "le ft",
      "do ll",
      "ter n",
      "bo th",
      "child ren",
      "re f",
      "tr ans",
      "qu e",
      "mar ket",
      "l ine",
      "o per",
      "p ur",
      "re view",
      "al ong",
      "su c",
      "ne xt",
      "po lit",
      "comm un",
      "c y",
      "f ish",
      "l ate",
      "w al",
      "ren ce",
      "pres s",
      "a im",
      "c us",
      "d i",
      "n ight",
      "wh ite",
      "ri but",
      "ex p",
      "read y",
      "re main",
      "as h",
      "qu al",
      "cent ury",
      "a ther",
      "ac coun",
      "qu est",
      "log y",
      "lar ge",
      "b i",
      "s cho",
      "v i",
      "w in",
      "at s",
      "st ates",
      "val u",
      "wee k",
      "build ing",
      "scho ol",
      "b al",
      "g ed",
      "n er",
      "re ason",
      "ne ar",
      "cer tain",
      "d a",
      "e t",
      "v ir",
      "be lie",
      "tr ad",
      "b ed",
      "u c",
      "lo c",
      "lo cal",
      "day s",
      "b it",
      "h ar",
      "h um",
      "al e",
      "pl ac",
      "know n",
      "cont in",
      "b ad",
      "on s",
      "li st",
      "ma j",
      "bu y",
      "requ ire",
      "econ om",
      "p ence",
      "le y",
      "ro ck",
      "us ing",
      "cl aim",
      "off ice",
      "cr it",
      "manage ment",
      "d ed",
      "t up",
      "st at",
      "co ver",
      "de p",
      "jo y",
      "agenc ies",
      "sou th",
      "tup pence",
      "2 00",
      "d an",
      "i red",
      "st ar",
      "ad minist",
      "ut e",
      "ut ion",
      "de f",
      "ne t",
      "ap pe",
      "gr ou",
      "pres ident",
      "tom my",
      "d en",
      "m it",
      "se arch",
      "iv id",
      "stree t",
      "e ver",
      "g ress",
      "n am",
      "se en",
      "tr ain",
      "br it",
      "aud it",
      "a go",
      "b ud",
      "e v",
      "r is",
      "s an",
      "s ite",
      "t ou",
      "en ough",
      "pre t",
      "sup port",
      "e cut",
      "f il",
      "i i",
      "is m",
      "is n",
      "im pro",
      "ex ecut",
      "end ed",
      "cent r",
      "fin an",
      "1 5",
      "b ers",
      "n at",
      "in ed",
      "was n",
      "end s",
      "d in",
      "or k",
      "ar ing",
      "we st",
      "so l",
      "pol ic",
      "fol low",
      "1 2",
      "e g",
      "i b",
      "y ork",
      "en joy",
      "st ay",
      "be ach",
      "pl es",
      "pl ain",
      "cur rent",
      "prov id",
      "tech no",
      "mill ion",
      "maj or",
      "a ur",
      "d ire",
      "g es",
      "p ast",
      "s ent",
      "li g",
      "li ve",
      "act ually",
      "gen eral",
      "j am",
      "u es",
      "an other",
      "do ing",
      "stand ards",
      "does n",
      "a id",
      "b ro",
      "in it",
      "to p",
      "ist s",
      "every thing",
      "acti v",
      "contro l",
      "1 8",
      "f ic",
      "f ac",
      "to ld",
      "su g",
      "tr ue",
      "sa w",
      "ru g",
      "comm it",
      "post al",
      "h ind",
      "j ud",
      "at ives",
      "ri ver",
      "ma king",
      "rest aur",
      "ici p",
      "ens ive",
      "b all",
      "at er",
      "to day",
      "ac y",
      "te ll",
      "incre as",
      ". .",
      "u su",
      "u de",
      "do or",
      "ind ust",
      "chan ge",
      "b re",
      "i er",
      "m ass",
      "s po",
      "re cent",
      "st e",
      "de mo",
      "com ing",
      "ci ent",
      "get ting",
      "suc cess",
      "administ r",
      "h n",
      "de st",
      "pe t",
      "need s",
      "h our",
      "t ic",
      "co ast",
      "su n",
      "li ght",
      "who le",
      "law y",
      "want ed",
      "2 0",
      "in a",
      "an g",
      "se cur",
      "he alth",
      "con st",
      "agenc y",
      "anal ys",
      "unt il",
      "dire ct",
      "? \"",
      "b ill",
      "s ed",
      "ro y",
      "ve l",
      "com es",
      "ex pect",
      "look ing",
      "reg ul",
      "mem ber",
      "prov ide",
      "pop ular",
      "h uh",
      "t ion",
      "in come",
      "ac ross",
      "id ence",
      "ha ving",
      "ap p",
      "some times",
      "jo hn",
      "under stand",
      "pri v",
      "vis it",
      "require ments",
      "b a",
      "g ard",
      "in s",
      "or ies",
      "le ast",
      "se ver",
      "ad v",
      "de ath",
      "happ en",
      "develo p",
      "sever al",
      "h or",
      "p aper",
      "an n",
      "ed uc",
      "so ci",
      "un i",
      "end ing",
      "finan cial",
      "techno logy",
      "l sc",
      "p al",
      "th ir",
      "mo ther",
      "ke y",
      "man ag",
      "si x",
      "bas ed",
      "fam ily",
      "eas y",
      "c ou",
      "f lo",
      "f ree",
      "i ro",
      "ch ur",
      "ur al",
      "ate ly",
      "part icip",
      "stud y",
      "chur ch",
      "d ing",
      "h al",
      "m oun",
      "r ul",
      "s at",
      "re ach",
      "wh y",
      "with out",
      "pr in",
      "fo od",
      "cour se",
      "a z",
      "j u",
      "j ap",
      "s co",
      "as k",
      "as ked",
      "if ied",
      "ul t",
      "exam ple",
      "mus ic",
      "jap an",
      "i o",
      "k ill",
      "st ory",
      "al ready",
      "ro man",
      "se cond",
      "mo der",
      "ter m",
      "wor king",
      "gr ound",
      "ta il",
      "nor th",
      "tou rist",
      ". '",
      "e le",
      "f ace",
      "w he",
      "ad r",
      "some one",
      "off ici",
      "ra ther",
      "cont ain",
      "person al",
      "americ a",
      "secur ity",
      "1 0",
      "d ou",
      "g in",
      "i x",
      "l ing",
      "an cient",
      "re present",
      "ar gu",
      "de fin",
      "po ll",
      "ie ty",
      "iz e",
      "every one",
      "mon th",
      "alth ough",
      "na me",
      "incre ase",
      "proble m",
      "vill age",
      "belie ve",
      "l u",
      "r ound",
      "se um",
      "ho t",
      "con cer",
      "fe l",
      "res our",
      "ex peri",
      "ind ivid",
      "cl ass",
      "ty p",
      "cont ribut",
      "mu seum",
      "pa ign",
      "requ est",
      "rel ated",
      "cam paign",
      "organiz ations",
      "mode l",
      "e i",
      "h ing",
      "z e",
      "as soci",
      "he art",
      "ch ed",
      "un ited",
      "ple ment",
      "br ing",
      "turn ed",
      "cour t",
      "str ong",
      "again st",
      "individ ual",
      "l ou",
      "p ie",
      "re cor",
      "er ing",
      "st y",
      "se ll",
      "we ver",
      "ab ility",
      "ho wever",
      "ition al",
      "appro ach",
      "prof ess",
      "a w",
      "a ut",
      "c red",
      "f ig",
      "f ine",
      "f av",
      "m and",
      "n y",
      "am s",
      "am ong",
      "con sid",
      "if ul",
      "cent er",
      "wo man",
      "wo men",
      "el se",
      "cle ar",
      "hu man",
      "educ ation",
      "h ous",
      "p ass",
      "w all",
      "the s",
      "il ities",
      "you n",
      "te e",
      "iv ed",
      "mar y",
      "init i",
      "d ri",
      "g ive",
      "s w",
      "en vir",
      "st u",
      "de al",
      "if y",
      "ate g",
      "ex plo",
      "ful l",
      "comple te",
      "doll ars",
      "indust ry",
      "demo cr",
      "envir on",
      "1 7",
      "e qu",
      "st s",
      "gh ts",
      "mo ve",
      "ho l",
      "te l",
      "em p",
      "him self",
      "ear ly",
      "activ ities",
      "usu ally",
      "a i",
      "t an",
      "st op",
      "so on",
      "est im",
      "comp ut",
      "spe cial",
      "val ue",
      "stud ies",
      "econ o",
      "includ ing",
      "bud get",
      "centr al",
      "c ard",
      "m id",
      "n on",
      "s on",
      "ac cept",
      "he ard",
      "li ving",
      "te en",
      "ast er",
      "ta ken",
      "ren ch",
      "bl ack",
      "sub ject",
      "mem bers",
      "dec is",
      "hist or",
      "emplo ye",
      "grou p",
      "sug gest",
      "c ro",
      "f ire",
      "g ir",
      "k new",
      "m is",
      "m ag",
      "s ha",
      "w ide",
      "in o",
      "or ig",
      "to ge",
      "be aut",
      "am p",
      "po or",
      "con side",
      "tr act",
      "wor th",
      "may be",
      "fore ign",
      "house hold",
      "ran ge",
      "fav or",
      "toge ther",
      "conside red",
      "6 0",
      "h y",
      "l ay",
      "m ind",
      "re t",
      "it self",
      "ent ion",
      "ent ire",
      "be come",
      "con gress",
      "wi fe",
      "ag ree",
      "new s",
      "requ ired",
      "che ck",
      "interest ing",
      "wr it",
      "report ing",
      "fr on",
      "miss ion",
      "hist ory",
      "deli very",
      "hal f",
      "b lo",
      "e ight",
      "f rench",
      "h und",
      "o c",
      "r ate",
      "for man",
      "we l",
      "ct ed",
      "ct ions",
      "pl ic",
      "per forman",
      "sh ort",
      "bo y",
      "iv en",
      "ass ist",
      "mil es",
      "impro ve",
      "analys is",
      "hund red",
      "? ?",
      "d rug",
      "at ic",
      "at ch",
      "to tal",
      "as ure",
      "se ction",
      "il li",
      "for d",
      "for ce",
      "am oun",
      "ne cess",
      "po se",
      "per form",
      "ide a",
      "dis cus",
      "ful ly",
      "incl ude",
      "fri end",
      "resul ts",
      "pret ty",
      "environ ment",
      "amoun t",
      "c um",
      "g ing",
      "n al",
      "an e",
      "re ports",
      "re search",
      "st ri",
      "al most",
      "be hind",
      "me th",
      "au gh",
      "like ly",
      "try ing",
      "cou ple",
      "moder n",
      "a ic",
      "c li",
      "d iv",
      "i ble",
      "r ich",
      "s ain",
      "at ure",
      "al tern",
      "was hing",
      "af f",
      "fo ot",
      "col lect",
      "fin al",
      "sho ps",
      "fl u",
      "sit u",
      "mor ning",
      "plac es",
      "econom ic",
      "econo my",
      "n ice",
      "s mo",
      "it ions",
      "tr ave",
      "know led",
      "sh are",
      "sh ip",
      "just ice",
      "ty pe",
      "gener ally",
      "sign ific",
      "benef its",
      "remain s",
      "whe ther",
      "ei ther",
      "c ing",
      "f ur",
      "m al",
      "in side",
      "an ti",
      "en se",
      "ar k",
      "se ason",
      "un ch",
      "ut es",
      "ri es",
      "qu ite",
      "ie ld",
      "ta king",
      "low er",
      "comp any",
      "ga ve",
      "say s",
      "tri ed",
      "polit ical",
      "uni vers",
      "consid er",
      "orig in",
      "washing ton",
      "c ast",
      "f ail",
      "n ine",
      "s il",
      "of ten",
      "are a",
      "pro te",
      "pro ject",
      "ti es",
      "would n",
      "pr is",
      "sc re",
      "par k",
      "chan ges",
      "att ack",
      "clo se",
      "sum mer",
      "americ an",
      "tem ple",
      "rece ived",
      "emplo y",
      "quest ions",
      "lawy ers",
      "fel t",
      "youn g",
      "e valu",
      "f if",
      "g as",
      "h ill",
      "n ic",
      "re comm",
      "or der",
      "he ld",
      "mo ment",
      "con f",
      "per fect",
      "ma kes",
      "work ers",
      "iss ion",
      "seem s",
      "proble ms",
      "invest ment",
      "benef it",
      "moun tain",
      "fron t",
      "knowled ge",
      "e u",
      "e lect",
      "f ast",
      "t ure",
      "re member",
      "il ar",
      "co ld",
      "po iro",
      "red u",
      "publ ished",
      "call ed",
      "peri od",
      "polic y",
      "commit tee",
      "beaut iful",
      "poiro t",
      "c ir",
      "i or",
      "m ist",
      "s qu",
      "t ly",
      "re public",
      "on es",
      "at or",
      "ce ed",
      "con serv",
      "te x",
      "com ments",
      "du e",
      "dif fic",
      "clo thes",
      "issu es",
      "priv ate",
      "stu ff",
      "k o",
      "l in",
      "l ack",
      "p en",
      "s or",
      "s am",
      "on d",
      "me t",
      "we alth",
      "lo st",
      "ge ts",
      "de part",
      "pro per",
      "up on",
      "gr ap",
      "bo t",
      "other s",
      "good s",
      "spe ct",
      "fir m",
      "show s",
      "grow th",
      "rul es",
      "favor ite",
      "1 00",
      "d or",
      "g ro",
      "g ate",
      "g ree",
      "r ates",
      "v ious",
      "in vol",
      "le ave",
      "se x",
      "be y",
      "ve red",
      "ac cess",
      "we b",
      "ab or",
      "do w",
      "im ent",
      "te xt",
      "tr ust",
      "ll ed",
      "ok ay",
      "tur al",
      "stand ard",
      "plan ning",
      "americ ans",
      "anal y",
      "accoun t",
      "b ly",
      "c ust",
      "h all",
      "p ti",
      "s late",
      "t ent",
      "u red",
      "st ic",
      "ing le",
      "es e",
      "ab l",
      "pro ced",
      "do cu",
      "out side",
      "act ion",
      "min utes",
      "spe c",
      "look ed",
      "att ention",
      "inst e",
      "hu ge",
      "thor p",
      "start ed",
      "organiz ation",
      "pract ice",
      "audit ors",
      "comput er",
      "signific ant",
      "ingle thorp",
      "a ke",
      "f all",
      "n ess",
      "p ite",
      "as sum",
      "ro pe",
      "li es",
      "ne l",
      "ye t",
      "ex ist",
      "ser ious",
      "ound s",
      "est abl",
      "wee ks",
      "effect ive",
      "sim ilar",
      "respon si",
      "claim ed",
      "hour s",
      "adr in",
      "gir l",
      "necess ary",
      "inste ad",
      "1 4",
      "c iv",
      "e at",
      "g al",
      "j er",
      "n ers",
      "p ing",
      "p ho",
      "r it",
      "an ces",
      "ion al",
      "mo ved",
      "ri ed",
      "im plement",
      "tr u",
      "pl ant",
      "au thor",
      "od s",
      "ser ies",
      "pos ition",
      "ra is",
      "part ic",
      "pp ing",
      "high er",
      "tal king",
      "far m",
      "cas es",
      "happ y",
      "colle ge",
      "win dow",
      "jud ge",
      "develop ment",
      "eu rope",
      "m ul",
      "p an",
      "w ards",
      "re ti",
      "se ven",
      "ent er",
      "de b",
      "de cl",
      "ne y",
      "go es",
      "ter min",
      "qu ick",
      "wor ds",
      "any one",
      "ass ess",
      "part y",
      "enc y",
      "ric t",
      "mat ter",
      "sen se",
      "issu e",
      "colle ction",
      "pain ted",
      "loc ated",
      "brit ish",
      "restaur ants",
      "sain t",
      "univers ity",
      "3 0",
      "d y",
      "f ield",
      "h on",
      "m ad",
      "re form",
      "en ing",
      "is ra",
      "be ll",
      "ke ts",
      "im p",
      "ex plain",
      "ther n",
      "ag ed",
      "gr and",
      "des pite",
      "long er",
      "add ress",
      "fund ing",
      "var ious",
      "crit ics",
      "increas ed",
      "ju li",
      "situ ation",
      "2 000",
      "b ase",
      "c ru",
      "e yes",
      "f low",
      "j our",
      "o il",
      "t our",
      "th ous",
      "re ed",
      "re li",
      "en ed",
      "so cial",
      "mo vie",
      "con s",
      "ex hi",
      "val ley",
      "view s",
      "med i",
      "sto res",
      "pat i",
      "ban k",
      "da an",
      "execut ive",
      "decis ion",
      "performan ce",
      "spec ific",
      "thous and",
      "9 0",
      "f ut",
      "g ar",
      "m es",
      "r ain",
      "ic ed",
      "se a",
      "no body",
      "lo ve",
      "fe rence",
      "tr a",
      "ef fort",
      "sc en",
      "tre at",
      "ev idence",
      "resour ces",
      "experi ence",
      "partic ular",
      "b ir",
      "g lo",
      "i ans",
      "n s",
      "p aren",
      "il ed",
      "we ather",
      "co vered",
      "id ed",
      "ch air",
      "ch rist",
      "are as",
      "de red",
      "tr ou",
      "ex per",
      "wor d",
      "ci ally",
      "need ed",
      "cre ated",
      "col um",
      "des cri",
      "pri or",
      "sur round",
      "pay ing",
      "199 8",
      "wr ong",
      "fam ous",
      "sing le",
      "doll ar",
      "lou is",
      "complete ly",
      "cust om",
      "a e",
      "d ra",
      "f ight",
      "g n",
      "g iven",
      "l ater",
      "m ing",
      "m ic",
      "o red",
      "p it",
      "u me",
      "in v",
      "re turn",
      "er g",
      "ing ly",
      "me ans",
      "id ge",
      "wh ate",
      "res pect",
      "ex act",
      "af fect",
      "comm ission",
      "comp an",
      "sel ves",
      "reg ard",
      "develo ped",
      "qual ity",
      "dep end",
      "appe ar",
      "train ing",
      "thir d",
      "whate ver",
      "a ver",
      "g ers",
      "p ict",
      "in flu",
      "ac cor",
      "ha ven",
      "with in",
      "em iss",
      "bo ats",
      "ta kes",
      "ite ly",
      "work ed",
      "land s",
      "des er",
      "old er",
      "rece ive",
      "fish ing",
      "quest ion",
      "eg y",
      "administr ation",
      "civ il",
      "fut ure",
      "emiss ions",
      "e red",
      "l ines",
      "o ve",
      "s of",
      "t ar",
      "it ive",
      "ent r",
      "be came",
      "ch ing",
      "su per",
      "de tail",
      "te am",
      "ap plic",
      "19 8",
      "col or",
      "inst it",
      "lead ers",
      "fort un",
      "commun ic",
      "wal k",
      "gard ens",
      "pie ce",
      "recomm end",
      "squ are",
      "tex as",
      "docu ment",
      "juli us",
      "b and",
      "d ro",
      "p es",
      "s our",
      "w ish",
      "x ic",
      "the dr",
      "be gin",
      "ly ing",
      "li ved",
      "af ford",
      "sp ent",
      "comm er",
      "ca thedr",
      "ph one",
      "rel ation",
      "system s",
      "includ ed",
      "product s",
      "resul t",
      ".. .",
      "cred it",
      "altern ative",
      "trave l",
      "exact ly",
      "1 6",
      "b ay",
      "b ul",
      "f ran",
      "j ane",
      "l ad",
      "t w",
      "u b",
      "or ge",
      "le vel",
      "pro posed",
      "com pet",
      "tr ack",
      "ex tre",
      "pl ans",
      "pr ice",
      "pre ci",
      "ck ed",
      "gre en",
      "sho p",
      "sy m",
      "dr ink",
      "eng ine",
      "room s",
      "step s",
      "exp ensive",
      "defin itely",
      "month s",
      "diffic ult",
      "reti re",
      "quick ly",
      "compan ies",
      "f ix",
      "g all",
      "l as",
      "s ort",
      "s ports",
      "t ro",
      "z y",
      "st ation",
      "st ra",
      "or din",
      "he ar",
      "me e",
      "we ar",
      "ch es",
      "ch ines",
      "de ad",
      "ke pt",
      "go d",
      "ho pe",
      "qu es",
      "sa ve",
      "act ions",
      "bo x",
      "port un",
      "op portun",
      "comm on",
      "spe ak",
      "att or",
      "tal k",
      "vo ice",
      "sto od",
      "island s",
      "acti ve",
      "watch ed",
      "pract ices",
      "vi ol",
      "restaur ant",
      "sty le",
      "employe es",
      "aver age",
      "chines e",
      "5 0",
      "f air",
      "p i",
      "p ul",
      "w ind",
      "in i",
      "al co",
      "es pe",
      "ent ly",
      "ch ina",
      "un it",
      "ex cept",
      "ef f",
      "could n",
      "enc es",
      "chan ged",
      "hand s",
      "str ateg",
      "cul ture",
      "sit es",
      "tax es",
      "won der",
      "pop ul",
      "var iety",
      "trad itional",
      "contin u",
      "ris k",
      "jam es",
      "recent ly",
      "dest roy",
      "const ru",
      "manag ers",
      "prin ci",
      "emp ire",
      "writ ten",
      "paren ts",
      "alco hol",
      "espe cially",
      "c and",
      "c ra",
      "d ie",
      "e ast",
      "g ain",
      "h it",
      "j es",
      "l on",
      "p ap",
      "r or",
      "s ir",
      "s ie",
      "s low",
      "t es",
      "v ies",
      "w ise",
      "an ced",
      "re co",
      "ar m",
      "le ar",
      "le br",
      "ent ities",
      "be gan",
      "ve ls",
      "co ok",
      "ce lebr",
      "do me",
      "ct or",
      "know s",
      "can not",
      "gr ant",
      "cl ub",
      "min or",
      "work s",
      "sp an",
      "sp ace",
      "par ts",
      "sho pping",
      "inte l",
      "bas is",
      "cle an",
      "sto ck",
      "seem ed",
      "fund s",
      "200 1",
      "provid es",
      "discus s",
      "continu ed",
      "b ing",
      "d ave",
      "d ark",
      "f ather",
      "g d",
      "g s",
      "p ly",
      "r ou",
      "s ac",
      "t v",
      "an im",
      "at ors",
      "at ory",
      "le vels",
      "ro le",
      "ac ter",
      "ch ance",
      "ab les",
      "im press",
      "ho st",
      "ex c",
      "qu ar",
      "ven ue",
      "sp ir",
      "comp ared",
      "pa id",
      "add ition",
      "ob ject",
      "mr s",
      "gl ad",
      "nam ed",
      "enjoy ed",
      "mountain s",
      "mul ti",
      "entr ance",
      "cathedr al",
      "2 2",
      "c atch",
      "d den",
      "d augh",
      "e li",
      "h ic",
      "p ic",
      "r us",
      "re le",
      "en sure",
      "it em",
      "co ol",
      "id es",
      "su pp",
      "ab ove",
      "con ne",
      "te es",
      "ex t",
      "ind ic",
      "bo at",
      "af ric",
      "bl ue",
      "new sp",
      "ach ie",
      "ans wer",
      "iz ation",
      "hi p",
      "sit ting",
      "town s",
      "ster n",
      "job s",
      "ref lect",
      "commun ity",
      "polic ies",
      "jam aic",
      "bre ak",
      "sco t",
      "japan ese",
      "offici als",
      "commer cial",
      "retire ment",
      "0 s",
      "c row",
      "h am",
      "h ans",
      "l or",
      "m ac",
      "m ine",
      "n ar",
      "p ack",
      "s le",
      "s lo",
      "s pl",
      "w ro",
      "an k",
      "re ct",
      "at tract",
      "to wer",
      "ch ap",
      "mo tion",
      "mo vies",
      "ter ri",
      "ul pt",
      "com b",
      "pl us",
      "em erg",
      "af t",
      "them selves",
      "br idge",
      "off er",
      "sc ulpt",
      "every body",
      "sub st",
      "sup posed",
      "prof it",
      "gener ation",
      "nat ural",
      "ib ility",
      "particip ants",
      "proper ty",
      "bey ond",
      "establ ished",
      "accor ding",
      "wro te",
      "chap ter",
      ". )",
      "d re",
      "d ut",
      "m c",
      "o me",
      "r ing",
      "s pr",
      "v il",
      "v ict",
      "w inter",
      "re vol",
      "al em",
      "lo ad",
      "li ed",
      "li ked",
      "ri ghts",
      "po in",
      "us alem",
      "ment al",
      "pos es",
      "op in",
      "dis play",
      "clo sed",
      "stud ents",
      "set ting",
      "char ge",
      "saving s",
      "fun ny",
      "provid ed",
      "approach es",
      "dor o",
      "jer usalem",
      "extre me",
      "eff ici",
      "jes us",
      "2 5",
      "b ought",
      "d am",
      "e vent",
      "f ash",
      "g un",
      "k m",
      "s and",
      "t or",
      "t went",
      "u ries",
      "w illi",
      "in cent",
      "as ed",
      "ar an",
      "ro ll",
      "ac cur",
      "ver t",
      "li ber",
      "ge orge",
      "de l",
      "ir t",
      "con du",
      "fe at",
      "res h",
      "cent uries",
      "ite ct",
      "think ing",
      "gu ide",
      "sc r",
      "pp ed",
      "govern or",
      "med ia",
      "add ed",
      "arch itect",
      "report ed",
      "fam il",
      "cul tural",
      "grow ing",
      "lim ited",
      "vill ages",
      "claim s",
      "reach ed",
      "aw are",
      "initi atives",
      "assist ance",
      "assum pt",
      "imp act",
      "gall er",
      "1 3",
      "j um",
      "l ish",
      "p y",
      "t in",
      "w ed",
      "re lig",
      "st re",
      "st one",
      "as ser",
      "as ia",
      "se cre",
      "ac c",
      "we stern",
      "su it",
      "ne ys",
      "ha ir",
      "con cl",
      "fe ll",
      "com pe",
      "my self",
      "some body",
      "em per",
      "any way",
      "ous ly",
      "fo cus",
      "br on",
      "mar k",
      "int ro",
      "col n",
      "enc ed",
      "spe e",
      "par is",
      "pay ment",
      "call s",
      "appro pri",
      "sto re",
      "sk ill",
      "effect s",
      "fun ction",
      "contin ue",
      "expect ed",
      "adv ant",
      "flo or",
      "sat is",
      "histor ical",
      "foot ball",
      "republic an",
      "lin coln",
      "sex ual",
      "! \"",
      "f ill",
      "i gh",
      "k al",
      "l ined",
      "m art",
      "n one",
      "r ad",
      "r up",
      "s ant",
      "v an",
      "in de",
      "st aff",
      "se m",
      "no x",
      "me et",
      "li ves",
      "un te",
      "pro mis",
      "im possible",
      "po ol",
      "ho te",
      "te le",
      "te red",
      "fe et",
      "au g",
      "ist ic",
      "wor ry",
      "ive ly",
      "ast ic",
      "iv ing",
      "br ought",
      "gu ard",
      "min ation",
      "most ly",
      "sp end",
      "cor rect",
      "clo ck",
      "got ten",
      "med ic",
      "ph il",
      "vol unte",
      "wr iting",
      "diffe rence",
      "char acter",
      "mat er",
      "sk in",
      "bor n",
      "fr ance",
      "allow ed",
      "wa iting",
      "run ning",
      "ni pa",
      "oper ations",
      "grou ps",
      "president ial",
      "follow ing",
      "spo t",
      "success ful",
      "hous es",
      "explo re",
      "pho to",
      "jour nal",
      "mee ting",
      "rou te",
      "hote ls",
      "b s",
      "f le",
      "g on",
      "g am",
      "h ong",
      "k ong",
      "m ur",
      "m ess",
      "p age",
      "th om",
      "in ation",
      "in depend",
      "on ed",
      "ed it",
      "as su",
      "le on",
      "se qu",
      "be low",
      "he av",
      "me asure",
      "un its",
      "de term",
      "ha ps",
      "im medi",
      "pe ace",
      "fe e",
      "per haps",
      "sh i",
      "serv ed",
      "cor por",
      "sm iled",
      "inter pret",
      "clo thing",
      "pri mary",
      "produ ce",
      "found ation",
      "199 5",
      "bus h",
      "small er",
      "big gest",
      "hold ers",
      "eas ily",
      "point ed",
      "trans port",
      "wal king",
      "fac ilities",
      "dou ble",
      "meth ods",
      "origin al",
      "depart ment",
      "exhi bit",
      "reco gn",
      "twent y",
      "determ ine",
      "a me",
      "b es",
      "d av",
      "e ase",
      "f resh",
      "h un",
      "i res",
      "l abor",
      "m ig",
      "r on",
      "z a",
      "the ater",
      "re p",
      "ar ies",
      "ve gas",
      "ch all",
      "lo ts",
      "su dden",
      "so c",
      "ho tel",
      "con tr",
      "con centr",
      "us es",
      "br an",
      "pre vious",
      "ru ct",
      "gu id",
      "wat ers",
      "cal cul",
      "sur v",
      "tri es",
      "sul tan",
      "found ed",
      "comple x",
      "def ense",
      "execut ives",
      "hor se",
      "kill ed",
      "contain ed",
      "lu x",
      "bir th",
      "christ ian",
      "intro du",
      "dav id",
      "b ility",
      "c ateg",
      "f it",
      "f is",
      "g one",
      "i um",
      "s es",
      "s ight",
      "t ions",
      "v ast",
      "th ro",
      "ed ge",
      "is l",
      "ic a",
      "se ts",
      "il it",
      "ac co",
      "lo sing",
      "un less",
      "de mand",
      "fe ren",
      "ex plan",
      "um es",
      "ser ve",
      "19 7",
      "col on",
      "sub mit",
      "show ing",
      "fl at",
      "vis ion",
      "read ing",
      "vol ume",
      "bus y",
      "vo c",
      "char les",
      "sk i",
      "sen ior",
      "let ter",
      "book s",
      "dec ided",
      "sim ply",
      "thor n",
      "sal e",
      "pat tern",
      "ip ment",
      "design ed",
      "fri ends",
      "gl ass",
      "200 2",
      "mass ive",
      "gard en",
      "equ ipment",
      "prote ction",
      "tru th",
      "isra el",
      "glo bal",
      "sour ce",
      "stra ight",
      "soc iety",
      "guid ance",
      "fis cal",
      "4 0",
      "6 7",
      "b road",
      "d le",
      "h en",
      "h ab",
      "h ate",
      "r and",
      "r ation",
      "s ad",
      "t ally",
      "t able",
      "x im",
      "th row",
      "the at",
      "ar ti",
      "ac ts",
      "for ts",
      "ad vert",
      "de termin",
      "ho mes",
      "con sum",
      "ap art",
      "ant ly",
      "ind ia",
      "gr ad",
      "iv al",
      "port ion",
      "wo od",
      "pre vent",
      "ef forts",
      "gu aran",
      "int ended",
      "cre ate",
      "sho wn",
      "say ing",
      "add itional",
      "199 6",
      "lead s",
      "dist ribut",
      "dist rict",
      "rule making",
      "mil it",
      "pur su",
      "roy al",
      "regul ation",
      "regul ations",
      "happen ed",
      "associ ation",
      "mid dle",
      "household s",
      "pati ents",
      "trou ble",
      "jamaic a",
      "emerg ency",
      "extreme ly",
      "d all",
      "d ance",
      "m as",
      "m ale",
      "n ile",
      "o do",
      "s ound",
      "s la",
      "w ers",
      "w ild",
      "in no",
      "st ret",
      "ad o",
      "lo an",
      "un ified",
      "do m",
      "com plain",
      "res er",
      "ple ase",
      "ind ian",
      "gr y",
      "bo b",
      "art ic",
      "iv ity",
      "la x",
      "la ke",
      "ber t",
      "jo in",
      "leg isl",
      "fir ms",
      "great er",
      "cho ice",
      "interest ed",
      "fact ors",
      "fer red",
      "lar ger",
      "lead ing",
      "play ed",
      "exam ples",
      "start ing",
      "issu ed",
      "trans form",
      "accoun ts",
      "plac ed",
      "brit ain",
      "offici al",
      "represent atives",
      "poll ution",
      "typ ical",
      "fig ure",
      "clear ly",
      "blo od",
      "responsi ble",
      "deb t",
      "dome stic",
      "quar ter",
      "newsp aper",
      "hans on",
      "incent ives",
      "secre t",
      "immedi ately",
      "dall as",
      "b are",
      "b ab",
      "c il",
      "c up",
      "c ise",
      "c lim",
      "d ate",
      "d ded",
      "f ra",
      "k ers",
      "m ut",
      "p he",
      "r am",
      "r ap",
      "s ought",
      "th us",
      "in c",
      "on er",
      "st ated",
      "le ts",
      "se ct",
      "no dded",
      "he aring",
      "lo se",
      "ir ish",
      "con sul",
      "ter rit",
      "us ive",
      "not ice",
      "not iced",
      "ment ion",
      "tr af",
      "ti p",
      "qu o",
      "ast e",
      "sh ared",
      "she l",
      "pre m",
      "pre ad",
      "mar ble",
      "mar ked",
      "ef ul",
      "gu y",
      "coun sel",
      "coun cil",
      "av es",
      "tur key",
      "cor ner",
      "sur ance",
      "vis ed",
      "war m",
      "produ ction",
      "bas ic",
      "find ings",
      "sk y",
      "fund ed",
      "possi bly",
      "tem pt",
      "tech ni",
      "cri me",
      "fol k",
      "open ed",
      "exp and",
      "list en",
      "resour ce",
      "associ ated",
      "dri ve",
      "environment al",
      "cli ff",
      "reli ef",
      "egy pti",
      "engine ering",
      "princi ples",
      "daugh ter",
      "poin ts",
      "inde ed",
      "aug ust",
      "3 6",
      "a ward",
      "b att",
      "c ities",
      "c ross",
      "d ish",
      "f ing",
      "f bi",
      "f ai",
      "g ross",
      "i ence",
      "k y",
      "o st",
      "r id",
      "s ess",
      "y ard",
      "z en",
      "th s",
      "th ic",
      "er a",
      "to ward",
      "is on",
      "ent ity",
      "we ap",
      "ad a",
      "lo cked",
      "ay s",
      "ce l",
      "ce ll",
      "de cor",
      "ir s",
      "po tent",
      "ment ary",
      "ul tim",
      "ap preci",
      "ag on",
      "mar ch",
      "om b",
      "inter national",
      "inter nal",
      "sur pris",
      "ident ify",
      "eng lish",
      "inst ance",
      "cas h",
      "sou thern",
      "aren tly",
      "cam p",
      "respon se",
      "pur pose",
      "ute ly",
      "fil m",
      "beach es",
      "bill ion",
      "app arently",
      "dou b",
      "pie ces",
      "sell ing",
      "stop ped",
      "accept ed",
      "employe e",
      "hy po",
      "improve ment",
      "redu ce",
      "invol ved",
      "proced ures",
      "enter tain",
      "regard ing",
      "deser t",
      "tw ice",
      "cand id",
      "span ish",
      "revol ution",
      "emper or",
      ", '",
      "b ent",
      "c it",
      "d un",
      "d ry",
      "e ye",
      "e qual",
      "m ou",
      "n ia",
      "o x",
      "t ask",
      "th re",
      "re ly",
      "re lax",
      "st ro",
      "to tally",
      "ar ri",
      "se lect",
      "be at",
      "be ha",
      "no te",
      "ac com",
      "ch ain",
      "are s",
      "ge an",
      "pro hi",
      "do min",
      "ir a",
      "im ag",
      "ter y",
      "us h",
      "ill ino",
      "tr ade",
      "pl ent",
      "sa fe",
      "act ed",
      "bl ing",
      "bl es",
      "iz ing",
      "sp ain",
      "sp ending",
      "coun t",
      "publ ish",
      "ici ans",
      "dif fer",
      "tom b",
      "wr ap",
      "dr am",
      "num bers",
      "fer ry",
      "contro ls",
      "lim its",
      "pain t",
      "accoun ting",
      "vi or",
      "school s",
      "crit ic",
      "bro ke",
      "pal ace",
      "concer ned",
      "aster n",
      "smo ke",
      "fail ed",
      "cir cum",
      "conserv ative",
      "cons ist",
      "surround ed",
      "ae gean",
      "dra w",
      "influ ence",
      "sof t",
      "sym bo",
      "popul ation",
      "destroy ed",
      "motion al",
      "terri ble",
      "accur ate",
      "fai th",
      "beha vior",
      "illino is",
      ". ,",
      "5 4",
      "5 00",
      "a po",
      "a king",
      "b ust",
      "b its",
      "d ers",
      "f a",
      "h ang",
      "l an",
      "m adr",
      "p ier",
      "r out",
      "r ise",
      "s ar",
      "s ch",
      "s ab",
      "re turned",
      "to wards",
      "ar i",
      "ar ts",
      "be l",
      "me as",
      "su san",
      "li er",
      "un e",
      "ex press",
      "ex tra",
      "ti red",
      "sa ved",
      "bo m",
      "ie f",
      "ie l",
      "cent s",
      "pr a",
      "fo rest",
      "la id",
      "sc ale",
      "cont ent",
      "fin ally",
      "ici an",
      "stand ing",
      "med it",
      "stud ent",
      "wr ite",
      "eng land",
      "appro val",
      "dist ance",
      "allow ing",
      "includ es",
      "design s",
      "gener ations",
      "dan ger",
      "ev ents",
      "ris ks",
      "sent iment",
      "activ ity",
      "sug ar",
      "const it",
      "direct or",
      "visit ors",
      "ann oun",
      "lu ck",
      "typ es",
      "recor ded",
      "fur ther",
      "mal ay",
      "origin ally",
      "prote ct",
      "farm ers",
      "decl ine",
      "recommend ations",
      "begin ning",
      "fran k",
      "attor neys",
      "reflect s",
      "subst anti",
      "opin ion",
      "appropri ate",
      "explan ation",
      "fra me",
      "traf fic",
      ", \"",
      "2 9",
      "6 6",
      "b ye",
      "c ig",
      "d ivid",
      "e lig",
      "f da",
      "g ent",
      "g ates",
      "h us",
      "i ent",
      "m ir",
      "m ap",
      "p un",
      "r ural",
      "s pread",
      "in ct",
      "re venue",
      "re placed",
      "on y",
      "to xic",
      "be coming",
      "ac eful",
      "me l",
      "are t",
      "ut ions",
      "ab and",
      "pro m",
      "pro pos",
      "pro test",
      "do g",
      "ha wa",
      "ho od",
      "con vers",
      "tr ail",
      "ple asure",
      "can cer",
      "ind ig",
      "gr an",
      "sh if",
      "some what",
      "some where",
      "other wise",
      "pre p",
      "ck s",
      "off ices",
      "ca th",
      "comp ar",
      "look s",
      "sm i",
      "par ks",
      "par ties",
      "chan nel",
      "public ations",
      "nor thern",
      "fort ress",
      "cond ition",
      "cond itions",
      "suc ceed",
      "certain ly",
      "loc ation",
      "cover age",
      "ib iz",
      "lawy er",
      "manag ed",
      "class ical",
      "recor ds",
      "hous ing",
      "employ ment",
      "gree k",
      "implement ation",
      "assess ment",
      "affect ed",
      "strateg ic",
      "item s",
      "afric a",
      "nar row",
      "sle ep",
      "fash ion",
      "techni ques",
      "decor ated",
      "plent y",
      "hus band",
      "1 1",
      "3 4",
      "? '",
      "a ving",
      "d ress",
      "d ied",
      "f at",
      "f reed",
      "i for",
      "l ic",
      "l augh",
      "m ile",
      "o re",
      "p il",
      "r s",
      "v it",
      "v ice",
      "w l",
      "w is",
      "y a",
      "at ur",
      "as sets",
      "le aving",
      "ro of",
      "ad voc",
      "co vers",
      "li br",
      "li ance",
      "mo ving",
      "do d",
      "go ld",
      "te ach",
      "te ams",
      "res ort",
      "ex er",
      "man u",
      "pl ed",
      "ag ric",
      "au tom",
      "um ph",
      "act ual",
      "pr ices",
      "mar kets",
      "ru b",
      "av o",
      "see k",
      "tur ning",
      "your self",
      "even ing",
      "requ ires",
      "cal ifor",
      "use ful",
      "main tain",
      "tri umph",
      "sup plement",
      "fact or",
      "care fully",
      "aud its",
      "aud iting",
      "eng age",
      "inst all",
      "inst ru",
      "ob tain",
      "ific ation",
      "play ing",
      "build ings",
      "cam ping",
      "bur n",
      "product ivity",
      "open ing",
      "remain ed",
      "reason s",
      "reason able",
      "near ly",
      "star k",
      "appe al",
      "eg g",
      "bro wn",
      "init ial",
      "tell ing",
      "direct ly",
      "priv acy",
      "mother s",
      "particip ation",
      "tourist s",
      "pass ed",
      "democr atic",
      "estim ate",
      "scre ening",
      "fif teen",
      "perfect ly",
      "spect ac",
      "fight ing",
      "pict ures",
      "opportun ity",
      "stre am",
      "photo grap",
      "thom as",
      "independ ent",
      "cit iz",
      "mou th",
      "circum st",
      "cig aret",
      "ibiz a",
      "freed om",
      "califor nia",
      "3 1",
      "3 9",
      "5 8",
      "b on",
      "f u",
      "g y",
      "i ar",
      "n es",
      "n ur",
      "s we",
      "s end",
      "s ounds",
      "t ical",
      "v ation",
      "in su",
      "an i",
      "an cy",
      "re ich",
      "re cover",
      "st ake",
      "al ex",
      "le ag",
      "be an",
      "il ing",
      "he st",
      "co oper",
      "ch ick",
      "wh is",
      "ri os",
      "do ctor",
      "go ds",
      "ho ly",
      "ho sp",
      "con tract",
      "fe male",
      "res ident",
      "ex cl",
      "ti ve",
      "ag reed",
      "my ster",
      "sh all",
      "had n",
      "bl in",
      "ci o",
      "la kes",
      "dis ease",
      "sc ar",
      "du blin",
      "ep a",
      "enc our",
      "el s",
      "fin ance",
      "cur y",
      "car ib",
      "pers pect",
      "show ed",
      "tri p",
      "tri pp",
      "ital y",
      "199 9",
      "rel ative",
      "put ting",
      "log ical",
      "appro ved",
      "ear th",
      "sen ate",
      "mer cury",
      "run s",
      "invest ig",
      "stree ts",
      "ref used",
      "pur poses",
      "contin ues",
      "buy ing",
      "stat ist",
      "dep ends",
      "follow ed",
      "fac ilit",
      "hind u",
      "light ly",
      "analys es",
      "sco re",
      "ele ments",
      "contribut e",
      "individual s",
      "profess ors",
      "sw im",
      "emp ty",
      "estim ates",
      "entire ly",
      "oc cur",
      "perform ed",
      "aic pa",
      "attack ed",
      "elect ron",
      "mist ake",
      "proced ure",
      "author ity",
      "pict ure",
      "lear n",
      "supp ly",
      "spl end",
      "spr ing",
      "shi ps",
      "transport ation",
      "consul t",
      "territ ory",
      "alex and",
      "carib bean",
      "3 5",
      "b id",
      "b ound",
      "c fo",
      "c ure",
      "e astern",
      "g ives",
      "h ur",
      "o z",
      "o th",
      "o ct",
      "p ill",
      "p red",
      "r are",
      "r ide",
      "s n",
      "s au",
      "s que",
      "t un",
      "t ap",
      "t ren",
      "t les",
      "w s",
      "z o",
      "z ant",
      "in bur",
      "er ous",
      "st range",
      "al i",
      "ed inbur",
      "to ol",
      "as c",
      "ar ily",
      "ar io",
      "le ather",
      "ve hic",
      "for th",
      "ad mit",
      "ch ose",
      "lo ved",
      "su pre",
      "un g",
      "un de",
      "ut ter",
      "ab sol",
      "pro ve",
      "pro ceed",
      "ne igh",
      "ke ys",
      "im ate",
      "con fl",
      "us ad",
      "fe red",
      "com fort",
      "ag ing",
      "by zant",
      "sh aring",
      "bo ard",
      "ide as",
      "cent re",
      "how ard",
      "pr ise",
      "cau ght",
      "than k",
      "min i",
      "ra id",
      "op tion",
      "pres er",
      "pres ents",
      "cur ve",
      "car ry",
      "ga me",
      "state ment",
      "inter net",
      "sub sid",
      "reg ular",
      "produ ced",
      "set t",
      "test ing",
      "big ger",
      "ton s",
      "bor row",
      "dec ide",
      "sim ul",
      "cri min",
      "bur ned",
      "road s",
      "deli ver",
      "oper ating",
      "vir gin",
      "trad ition",
      "har m",
      "nam es",
      "usu al",
      "tic kets",
      "north west",
      "campaign s",
      "suggest ed",
      "mag az",
      "share s",
      "sil ver",
      "fall s",
      "scen ario",
      "colum ns",
      "viol ence",
      "pap ers",
      "sac ri",
      "assumpt ions",
      "galler ies",
      "acc ident",
      "promis ed",
      "medic ine",
      "arti sts",
      "advert is",
      "determin ed",
      "milit ary",
      "potent ial",
      "hawa ii",
      "manu fact",
      "citiz ens",
      "edinbur gh",
      "supre me",
      "comfort able",
      "virgin ia",
      "b ou",
      "b right",
      "b unch",
      "c ards",
      "d ates",
      "f ly",
      "g ri",
      "j ury",
      "m all",
      "m ally",
      "m ach",
      "m ix",
      "n ical",
      "o ta",
      "p und",
      "r il",
      "w an",
      "z er",
      "en e",
      "or ts",
      "is es",
      "le wis",
      "ro bert",
      "ad ed",
      "ch ic",
      "ch ief",
      "lo ss",
      "ver ty",
      "su s",
      "su ff",
      "so le",
      "de ep",
      "am ing",
      "ab s",
      "ab ilities",
      "ri vers",
      "im mig",
      "po verty",
      "con ference",
      "ter ror",
      "fe st",
      "ul ous",
      "ul tural",
      "ye ster",
      "ap ril",
      "qu it",
      "ist er",
      "act or",
      "sh er",
      "will ing",
      "ren a",
      "any more",
      "king s",
      "pos ing",
      "pos itive",
      "gu ys",
      "ca used",
      "coun tries",
      "comp on",
      "comp ly",
      "ici al",
      "ga ther",
      "ps on",
      "inter im",
      "cal m",
      "plan ts",
      "aud ience",
      "dr aft",
      "tre es",
      "sal t",
      "wa it",
      "mode ls",
      "trad ing",
      "nat ure",
      "stay ing",
      "contain s",
      "wall s",
      "blo ck",
      "friend ly",
      "aff air",
      "conf ident",
      "gro wn",
      "window s",
      "europe an",
      "hon or",
      "isra eli",
      "custom er",
      "mic ro",
      "relation ship",
      "lad y",
      "fix ing",
      "fair ly",
      "feat ures",
      "bron ze",
      "spee ch",
      "rad io",
      "mater ial",
      "heav y",
      "categ ories",
      "aband oned",
      "libr ary",
      "exer cise",
      "agric ultural",
      "stake holders",
      "hosp ital",
      "yester day",
      "2 3",
      "2 6",
      "3 00",
      "7 0",
      "7 5",
      "9 5",
      "b our",
      "b ath",
      "b acco",
      "d sm",
      "k a",
      "l eng",
      "n th",
      "n ist",
      "o es",
      "o ts",
      "p ac",
      "p ir",
      "s ci",
      "s ched",
      "w w",
      "an gry",
      "at ter",
      "st on",
      "or m",
      "or ing",
      "al one",
      "al ity",
      "to bacco",
      "le ction",
      "ro se",
      "no on",
      "ac id",
      "ac res",
      "he at",
      "he im",
      "me chan",
      "we t",
      "lo y",
      "de vil",
      "am ent",
      "pro vis",
      "ri al",
      "go l",
      "go re",
      "go als",
      "ter ms",
      "us ers",
      "sa v",
      "up set",
      "sh u",
      "wn ed",
      "ma kers",
      "ol ina",
      "af raid",
      "bl ues",
      "mar ri",
      "rest ric",
      "dis covered",
      "sc ri",
      "ca pe",
      "see ing",
      "ep is",
      "mon s",
      "pri me",
      "air lines",
      "tri al",
      "help ed",
      "care ful",
      "diffe ren",
      "hand ed",
      "hand le",
      "lead er",
      "bor k",
      "tem ples",
      "eas ier",
      "watch ing",
      "process es",
      "tern al",
      "pur ch",
      "cy nth",
      "exp end",
      "crit er",
      "ution al",
      "ii i",
      "din ner",
      "stay ed",
      "administr ator",
      "sun day",
      "ann ual",
      "thir ty",
      "profess ion",
      "profess ional",
      "dri ving",
      "oc cas",
      "wel come",
      "iven ess",
      "meth od",
      "evalu ation",
      "conf idence",
      "exist ing",
      "flow ers",
      "chair man",
      "exper ts",
      "dro p",
      "minor ity",
      "gd p",
      "scot t",
      "scot land",
      "dre w",
      "vict or",
      "willi am",
      "del hi",
      "grad u",
      "doub t",
      "imag ine",
      "spectac ular",
      "circumst ances",
      "vehic le",
      "sci ence",
      "provis ions",
      "cynth ia",
      "c at",
      "e an",
      "h ig",
      "m aster",
      "p ick",
      "s ons",
      "s lightly",
      "t il",
      "t ts",
      "v in",
      "w it",
      "w ants",
      "w aste",
      "in vent",
      "re r",
      "re place",
      "en ous",
      "en ni",
      "st ry",
      "st ories",
      "it ure",
      "as pect",
      "le an",
      "ic ing",
      "ic ers",
      "se vern",
      "se vent",
      "ent ered",
      "no vel",
      "ac qu",
      "co al",
      "co ll",
      "lo ire",
      "su f",
      "de vo",
      "ab use",
      "ab ort",
      "ab bey",
      "pro gress",
      "pro portion",
      "pro phe",
      "ir on",
      "go thic",
      "con ce",
      "con sequ",
      "pe aceful",
      "ate au",
      "now here",
      "tr ic",
      "ex cell",
      "ti ed",
      "there fore",
      "ag ra",
      "ag gress",
      "gr as",
      "gr ants",
      "sh r",
      "ol ic",
      "ach use",
      "who se",
      "iz es",
      "hi re",
      "bu ff",
      "ass ign",
      "rest ored",
      "ting ton",
      "op s",
      "dis count",
      "est ate",
      "cre ation",
      "after noon",
      "cr is",
      "mon t",
      "mon ica",
      "should n",
      "cal cut",
      "ran ts",
      "ran ean",
      "sum mit",
      "che st",
      "199 7",
      "find ing",
      "bar r",
      "bar s",
      "ear lier",
      "mat ters",
      "ob vious",
      "real ized",
      "ict ion",
      "sal es",
      "mill enni",
      "hard ly",
      "process ing",
      "business es",
      "bed s",
      "stat ues",
      "def end",
      "support ing",
      "impro ved",
      "sol ve",
      "current ly",
      "bro ken",
      "mass achuse",
      "regul atory",
      "az ing",
      "roman s",
      "concer ns",
      "experi enced",
      "mand ra",
      "special ist",
      "suggest s",
      "mag n",
      "discus sed",
      "cum ul",
      "cli ent",
      "fur n",
      "republic ans",
      "sor ry",
      "sam ple",
      "descri bes",
      "egy pt",
      "sie ge",
      "object s",
      "slo pes",
      "condu cted",
      "satis fact",
      "volunte ers",
      "assu med",
      "concentr ation",
      "faith ful",
      "lan gu",
      "danger ous",
      "prom ise",
      "propos al",
      "indig enous",
      "cath olic",
      "succeed ed",
      "avo id",
      "swim ming",
      "splend id",
      "sau ce",
      "absol utely",
      "advertis ing",
      "leng th",
      "restric ted",
      "hig hest",
      "calcut ta",
      "millenni um",
      "massachuse tts",
      "c z",
      "c fa",
      "e leg",
      "e motional",
      "f lying",
      "g i",
      "h an",
      "h cfa",
      "j ac",
      "k il",
      "l ind",
      "m ber",
      "m ical",
      "p ounds",
      "s q",
      "s word",
      "t it",
      "t end",
      "t ough",
      "z ed",
      "the me",
      "in surance",
      "re por",
      "re mark",
      "re vised",
      "re presents",
      "at mo",
      "at ically",
      "at tempt",
      "en h",
      "or ca",
      "or dered",
      "is el",
      "ar a",
      "ar af",
      "ro c",
      "se par",
      "se ctions",
      "ve get",
      "il er",
      "me xic",
      "for ced",
      "ad es",
      "ad vent",
      "co re",
      "co ordin",
      "ch and",
      "ut ed",
      "de gree",
      "mo isel",
      "ne go",
      "ho le",
      "con cept",
      "pe lled",
      "not ed",
      "fe ature",
      "com ed",
      "com pre",
      "ain ed",
      "ex pl",
      "man ual",
      "man ner",
      "pl at",
      "ag as",
      "art if",
      "any where",
      "ci ous",
      "pr ay",
      "think s",
      "mar ily",
      "la wn",
      "bu ried",
      "op tions",
      "ca fe",
      "pu b",
      "enc ies",
      "fin n",
      "cr aft",
      "ici ent",
      "ens ion",
      "mon sie",
      "made moisel",
      "cap ture",
      "high ly",
      "law s",
      "law rence",
      "che mical",
      "plan e",
      "sup pose",
      "199 4",
      "set tle",
      "nor mal",
      "nor mally",
      "char ges",
      "lar gest",
      "mat ic",
      "play s",
      "ot ine",
      "keep ing",
      "dist ur",
      "cri ed",
      "percent age",
      "deli ber",
      "ref ers",
      "review ed",
      "wal ked",
      "bi ble",
      "valu ation",
      "vir t",
      "loc ally",
      "hum or",
      "stat ute",
      "dan iel",
      "increas es",
      "adv anced",
      "hor ri",
      "argu ed",
      "democr ats",
      "ret ro",
      "stri ke",
      "div ide",
      "employ ers",
      "nic otine",
      "conserv ation",
      "ko re",
      "bot tom",
      "spect ive",
      "dor cas",
      "gal ile",
      "rais ing",
      "base ball",
      "pati ent",
      "thousand s",
      "appear ance",
      "attor ney",
      "pul led",
      "strateg ies",
      "constru ction",
      "intel lect",
      "intel lig",
      "rele ase",
      "ext ensive",
      "achie ve",
      "crow d",
      "lor d",
      "vict ory",
      "dam age",
      "gun s",
      "skill s",
      "mart ini",
      "fle x",
      "edit or",
      "consum ers",
      "resident s",
      "relative ly",
      "sacri f",
      "criter ia",
      "abort ion",
      "atmo sp",
      "araf at",
      "nego ti",
      "monsie ur",
      "mademoisel le",
      "4 1",
      "5 5",
      "8 0",
      "b low",
      "b read",
      "b ilities",
      "c is",
      "d ig"
    ]
  }
}