{
  "version": "1.0",
  "truncation": null,
  "padding": null,
  "added_tokens": [
    {
      "id": 0,
      "content": "[PAD]",
      "single_word": false,
      "lstrip": false,
      "rstrip": false,
      "normalized": false,
      "special": true
    },
    {
      "id": 1,
      "content": "[UNK]",
      "single_word": false,
      "lstrip": false,
      "rstrip": false,
      "normalized": false,
      "special": true
    },
    {
      "id": 2,
      "content": "[CLS]",
      "single_word": false,
      "lstrip": false,
      "rstrip": false,
      "normalized": false,
      "special": true
    },
    {
      "id": 3,
      "content": "[MASK]",
      "single_word": false,
      "lstrip": false,
      "rstrip": false,
      "normalized": false,
      "special": true
    }
  ],
  "normalizer": {
    "type": "BertNormalizer",
    "clean_text": true,
    "handle_chinese_chars": true,
    "strip_accents": true,
    "lowercase": true
  },
  "pre_tokenizer": {
    "type": "Whitespace"
  },
  "post_processor": null,
  "decoder": null,
  "model": {
    "type": "BPE",
    "dropout": null,
    "unk_token": "[UNK]",
    "continuing_subword_prefix": null,
    "end_of_word_suffix": null,
    "fuse_unk": false,
    "byte_fallback": false,
    "ignore_merges": false,
    "vocab": {
      "[PAD]": 0,
      "[UNK]": 1,
      "[CLS]": 2,
      "[MASK]": 3,
      "!": 4,
      "\"": 5,
      "#": 6,
      "$": 7,
      "&": 8,
      "'": 9,
      "(": 10,
      ")": 11,
      "*": 12,
      ",": 13,
      "-": 14,
      ".": 15,
      "/": 16,
      "0": 17,
      "1": 18,
      "2": 19,
      "3": 20,
      "4": 21,
      "5": 22,
      "6": 23,
      "7": 24,
      "8": 25,
      "9": 26,
      ":": 27,
      ";": 28,
      "=": 29,
      "?": 30,
      "\\": 31,
      "_": 32,
      "a": 33,
      "b": 34,
      "c": 35,
      "d": 36,
      "e": 37,
      "f": 38,
      "g": 39,
      "h": 40,
      "i": 41,
      "j": 42,
      "k": 43,
      "l": 44,
      "m": 45,
      "n": 46,
      "o": 47,
      "p": 48,
      "q": 49,
      "r": 50,
      "s": 51,
      "t": 52,
      "u": 53,
      "v": 54,
      "w": 55,
      "x": 56,
      "y": 57,
      "z": 58,
      "in": 59,
      "th": 60,
      "er": 61,
      "an": 62,
      "on": 63,
      "re": 64,
      "st": 65,
      "the": 66,
      "or": 67,
      "at": 68,
      "en": 69,
      "ed": 70,
      "ar": 71,
      "al": 72,
      "es": 73,
      "to": 74,
      "ing": 75,
      "it": 76,
      "of": 77,
      "as": 78,
      "ic": 79,
      "is": 80,
      "ro": 81,
      "le": 82,
      "ay": 83,
      "ou": 84,
      "and": 85,
      "il": 86,
      "ion": 87,
      "ch": 88,
      "se": 89,
      "id": 90,
      "ter": 91,
      "co": 92,
      "ad": 93,
      "for": 94,
      "el": 95,
      "ac": 96,
      "am": 97,
      "ent": 98,
      "ir": 99,
      "un": 100,
      "ne": 101,
      "ur": 102,
      "day": 103,
      "ig": 104,
      "us": 105,
      "ol": 106,
      "ve": 107,
      "ap": 108,
      "ag": 109,
      "ers": 110,
      "de": 111,
      "be": 112,
      "ot": 113,
      "39": 114,
      "ill": 115,
      "lo": 116,
      "com": 117,
      "im": 118,
      "ts": 119,
      "ver": 120,
      "con": 121,
      "qu": 122,
      "up": 123,
      "pe": 124,
      "res": 125,
      "wi": 126,
      "ut": 127,
      "ation": 128,
      "est": 129,
      "ke": 130,
      "ho": 131,
      "all": 132,
      "ce": 133,
      "pl": 134,
      "af": 135,
      "mo": 136,
      "ct": 137,
      "ri": 138,
      "with": 139,
      "pro": 140,
      "ul": 141,
      "igh": 142,
      "op": 143,
      "new": 144,
      "that": 145,
      "ex": 146,
      "its": 147,
      "are": 148,
      "ab": 149,
      "sh": 150,
      "ain": 151,
      "ear": 152,
      "ast": 153,
      "ow": 154,
      "em": 155,
      "sa": 156,
      "ters": 157,
      "ist": 158,
      "ge": 159,
      "pr": 160,
      "om": 161,
      "ld": 162,
      "ks": 163,
      "wor": 164,
      "by": 165,
      "oun": 166,
      "tr": 167,
      "ly": 168,
      "he": 169,
      "ian": 170,
      "su": 171,
      "we": 172,
      "sp": 173,
      "over": 174,
      "ate": 175,
      "te": 176,
      "00": 177,
      "man": 178,
      "uters": 179,
      "said": 180,
      "ak": 181,
      "out": 182,
      "po": 183,
      "has": 184,
      "off": 185,
      "ia": 186,
      "wh": 187,
      "reuters": 188,
      "our": 189,
      "end": 190,
      "ies": 191,
      "ess": 192,
      "rom": 193,
      "ment": 194,
      "mon": 195,
      "was": 196,
      "por": 197,
      "from": 198,
      "ight": 199,
      "cl": 200,
      "comp": 201,
      "ust": 202,
      "ack": 203,
      "mar": 204,
      "ind": 205,
      "ity": 206,
      "if": 207,
      "ra": 208,
      "will": 209,
      "ha": 210,
      "ard": 211,
      "tw": 212,
      "cor": 213,
      "ie": 214,
      "iv": 215,
      "ther": 216,
      "oc": 217,
      "one": 218,
      "his": 219,
      "bo": 220,
      "ine": 221,
      "ip": 222,
      "..": 223,
      "after": 224,
      "quot": 225,
      "esday": 226,
      "ser": 227,
      "ial": 228,
      "ive": 229,
      "year": 230,
      "fo": 231,
      "lt": 232,
      "um": 233,
      "red": 234,
      "fir": 235,
      "art": 236,
      "per": 237,
      "fr": 238,
      "pres": 239,
      "gt": 240,
      "ice": 241,
      "bl": 242,
      "ug": 243,
      "cr": 244,
      "br": 245,
      "ant": 246,
      "inter": 247,
      "ace": 248,
      "me": 249,
      "ree": 250,
      "no": 251,
      "ber": 252,
      "go": 253,
      "ell": 254,
      "port": 255,
      "ould": 256,
      "ta": 257,
      "old": 258,
      "la": 259,
      "ans": 260,
      "und": 261,
      "have": 262,
      "inc": 263,
      "ma": 264,
      "but": 265,
      "sof": 266,
      "ning": 267,
      "act": 268,
      "\\$": 269,
      "gro": 270,
      "ud": 271,
      "air": 272,
      "illion": 273,
      "their": 274,
      "low": 275,
      "ong": 276,
      "amp": 277,
      "net": 278,
      "mer": 279,
      "ph": 280,
      "compan": 281,
      "ame": 282,
      "two": 283,
      "own": 284,
      "av": 285,
      "nation": 286,
      "jo": 287,
      "aq": 288,
      "att": 289,
      "tim": 290,
      "ass": 291,
      "ide": 292,
      "tu": 293,
      "ere": 294,
      "first": 295,
      "cent": 296,
      "ile": 297,
      "ident": 298,
      "ish": 299,
      "lead": 300,
      "mic": 301,
      "min": 302,
      "world": 303,
      "bus": 304,
      "fin": 305,
      "sec": 306,
      "ions": 307,
      "ick": 308,
      "ign": 309,
      "wed": 310,
      "ue": 311,
      "int": 312,
      "more": 313,
      "iraq": 314,
      "od": 315,
      "wee": 316,
      "ann": 317,
      "age": 318,
      "ry": 319,
      "ays": 320,
      "og": 321,
      "--": 322,
      "not": 323,
      "dis": 324,
      "ok": 325,
      "200": 326,
      "again": 327,
      "so": 328,
      "ors": 329,
      "fl": 330,
      "uc": 331,
      "ins": 332,
      "fe": 333,
      "ach": 334,
      "can": 335,
      "ices": 336,
      "ase": 337,
      "gr": 338,
      "ton": 339,
      "str": 340,
      "ban": 341,
      "this": 342,
      "ting": 343,
      "ens": 344,
      "ester": 345,
      "fi": 346,
      "li": 347,
      "eu": 348,
      "ates": 349,
      "urs": 350,
      "play": 351,
      "ss": 352,
      "oil": 353,
      "coun": 354,
      "company": 355,
      "back": 356,
      "ite": 357,
      "than": 358,
      "work": 359,
      "iday": 360,
      "hel": 361,
      "mis": 362,
      "high": 363,
      "monday": 364,
      "war": 365,
      "president": 366,
      "sun": 367,
      "wedn": 368,
      "wednesday": 369,
      "...": 370,
      "tuesday": 371,
      "pol": 372,
      "ful": 373,
      "arch": 374,
      "au": 375,
      "ven": 376,
      "tro": 377,
      "rel": 378,
      "pt": 379,
      "thurs": 380,
      "thursday": 381,
      "ory": 382,
      "ound": 383,
      "lar": 384,
      "ich": 385,
      "stoc": 386,
      "cord": 387,
      "iz": 388,
      "ger": 389,
      "ib": 390,
      "ary": 391,
      "lect": 392,
      "med": 393,
      "set": 394,
      "week": 395,
      "bu": 396,
      "micro": 397,
      "ade": 398,
      "who": 399,
      "ence": 400,
      "car": 401,
      "against": 402,
      "serv": 403,
      "ket": 404,
      "friday": 405,
      "down": 406,
      "get": 407,
      "ated": 408,
      "sy": 409,
      "into": 410,
      "ren": 411,
      "ited": 412,
      "land": 413,
      "sho": 414,
      "last": 415,
      "vest": 416,
      "fore": 417,
      "ations": 418,
      "part": 419,
      "search": 420,
      "ance": 421,
      "win": 422,
      "kill": 423,
      "invest": 424,
      "mak": 425,
      "quar": 426,
      "gh": 427,
      "report": 428,
      "ous": 429,
      "they": 430,
      "ret": 431,
      "eric": 432,
      "soft": 433,
      "million": 434,
      "about": 435,
      "offic": 436,
      "sc": 437,
      "yor": 438,
      "sal": 439,
      ";/": 440,
      "national": 441,
      "lin": 442,
      "york": 443,
      "urn": 444,
      "anc": 445,
      "prof": 446,
      "ason": 447,
      "pect": 448,
      "line": 449,
      "sup": 450,
      "ally": 451,
      "quarter": 452,
      "euro": 453,
      "time": 454,
      "yester": 455,
      "yesterday": 456,
      "ict": 457,
      "ll": 458,
      "elect": 459,
      "top": 460,
      "cond": 461,
      "three": 462,
      "app": 463,
      "ang": 464,
      "ash": 465,
      "ck": 466,
      "microsoft": 467,
      "overn": 468,
      "game": 469,
      "bro": 470,
      "miss": 471,
      "ina": 472,
      "open": 473,
      "were": 474,
      "des": 475,
      "pre": 476,
      "head": 477,
      "ital": 478,
      "mil": 479,
      "ste": 480,
      "other": 481,
      "way": 482,
      "minist": 483,
      "tech": 484,
      "als": 485,
      "secur": 486,
      "govern": 487,
      "had": 488,
      "team": 489,
      "sat": 490,
      "par": 491,
      "do": 492,
      "je": 493,
      "ms": 494,
      "been": 495,
      "ition": 496,
      "ty": 497,
      "group": 498,
      "cut": 499,
      "nor": 500,
      "ail": 501,
      "gest": 502,
      "ome": 503,
      "corp": 504,
      "able": 505,
      "americ": 506,
      "four": 507,
      "tal": 508,
      "eng": 509,
      "says": 510,
      "ral": 511,
      "gen": 512,
      "der": 513,
      "ure": 514,
      "ird": 515,
      "may": 516,
      "month": 517,
      "ating": 518,
      "official": 519,
      "cap": 520,
      "riv": 521,
      "season": 522,
      "ced": 523,
      "united": 524,
      "ball": 525,
      "10": 526,
      "ugh": 527,
      "government": 528,
      "bs": 529,
      "tri": 530,
      "when": 531,
      "ris": 532,
      "bel": 533,
      "could": 534,
      "eral": 535,
      "ased": 536,
      "nex": 537,
      "ore": 538,
      "sur": 539,
      "second": 540,
      "stocks": 541,
      "sunday": 542,
      "prov": 543,
      "would": 544,
      "sou": 545,
      "sl": 546,
      "next": 547,
      "security": 548,
      "quote": 549,
      "prices": 550,
      "cy": 551,
      "atch": 552,
      "reat": 553,
      "announ": 554,
      "uss": 555,
      "dev": 556,
      "ond": 557,
      "europe": 558,
      "reg": 559,
      "hing": 560,
      "uct": 561,
      "big": 562,
      "ire": 563,
      "test": 564,
      "char": 565,
      "cess": 566,
      "fer": 567,
      "dr": 568,
      "plan": 569,
      "today": 570,
      "ric": 571,
      "years": 572,
      "some": 573,
      "ople": 574,
      "people": 575,
      "ns": 576,
      "call": 577,
      "az": 578,
      "percent": 579,
      "bank": 580,
      "which": 581,
      "full": 582,
      "los": 583,
      "leg": 584,
      "news": 585,
      "olog": 586,
      "most": 587,
      "del": 588,
      "vi": 589,
      "tware": 590,
      "afp": 591,
      "aim": 592,
      "record": 593,
      "try": 594,
      "iness": 595,
      "cour": 596,
      "software": 597,
      "stem": 598,
      "ical": 599,
      "prod": 600,
      "cal": 601,
      "bar": 602,
      "ww": 603,
      "business": 604,
      "night": 605,
      "ics": 606,
      "pu": 607,
      "mus": 608,
      "run": 609,
      "spe": 610,
      "pos": 611,
      "pal": 612,
      "milit": 613,
      "gu": 614,
      "brit": 615,
      "deal": 616,
      "champ": 617,
      "third": 618,
      "cer": 619,
      "def": 620,
      "ef": 621,
      "col": 622,
      "cont": 623,
      "comm": 624,
      "now": 625,
      "ped": 626,
      "ement": 627,
      "tar": 628,
      "ely": 629,
      "put": 630,
      "expect": 631,
      "ath": 632,
      "state": 633,
      "form": 634,
      "ix": 635,
      "sch": 636,
      "under": 637,
      "os": 638,
      "aust": 639,
      "unch": 640,
      "et": 641,
      "internet": 642,
      "fed": 643,
      "post": 644,
      "satur": 645,
      "saturday": 646,
      "techn": 647,
      "exp": 648,
      "market": 649,
      "dec": 650,
      "system": 651,
      "law": 652,
      "oper": 653,
      "washing": 654,
      "tt": 655,
      "china": 656,
      "vict": 657,
      "jap": 658,
      "washington": 659,
      "vis": 660,
      "japan": 661,
      "billion": 662,
      "ief": 663,
      "just": 664,
      "ward": 665,
      "bet": 666,
      "uk": 667,
      "rele": 668,
      "led": 669,
      "hold": 670,
      "ists": 671,
      "sales": 672,
      "bush": 673,
      "mp": 674,
      "sco": 675,
      "ces": 676,
      "minister": 677,
      "pow": 678,
      "fall": 679,
      "ings": 680,
      "take": 681,
      "ref": 682,
      "san": 683,
      "lear": 684,
      "grow": 685,
      "ble": 686,
      "agre": 687,
      "econ": 688,
      "uring": 689,
      "gian": 690,
      "enter": 691,
      "russ": 692,
      "econom": 693,
      "austral": 694,
      "start": 695,
      "publ": 696,
      "ship": 697,
      "near": 698,
      "technolog": 699,
      "ild": 700,
      "fullquote": 701,
      "ort": 702,
      "ames": 703,
      "=\"": 704,
      "rael": 705,
      "israel": 706,
      "2004": 707,
      "space": 708,
      "sign": 709,
      "say": 710,
      "sen": 711,
      "ft": 712,
      "vers": 713,
      "main": 714,
      "former": 715,
      "long": 716,
      "dol": 717,
      "buy": 718,
      "uter": 719,
      "profit": 720,
      "international": 721,
      "hal": 722,
      "launch": 723,
      "bom": 724,
      "announced": 725,
      "ged": 726,
      "my": 727,
      "ep": 728,
      "used": 729,
      "thro": 730,
      "son": 731,
      "ones": 732,
      "home": 733,
      "key": 734,
      "her": 735,
      "ied": 736,
      "vent": 737,
      "mi": 738,
      "computer": 739,
      "ted": 740,
      "killed": 741,
      "vie": 742,
      "research": 743,
      "see": 744,
      "sha": 745,
      "ner": 746,
      "000": 747,
      "les": 748,
      "jor": 749,
      "ese": 750,
      "chief": 751,
      "ough": 752,
      "dan": 753,
      "ago": 754,
      "court": 755,
      "istan": 756,
      "oly": 757,
      "ime": 758,
      "tak": 759,
      "ities": 760,
      "ham": 761,
      "tain": 762,
      "ient": 763,
      "city": 764,
      "clo": 765,
      "press": 766,
      "io": 767,
      "manag": 768,
      "stri": 769,
      "victory": 770,
      "you": 771,
      "come": 772,
      "officials": 773,
      "leag": 774,
      "offer": 775,
      "maker": 776,
      "cup": 777,
      "hou": 778,
      "service": 779,
      "bre": 780,
      "help": 781,
      "bal": 782,
      "look": 783,
      "host": 784,
      "king": 785,
      "add": 786,
      "hit": 787,
      "ince": 788,
      "lif": 789,
      "plans": 790,
      "ky": 791,
      "exe": 792,
      "ron": 793,
      "acks": 794,
      "read": 795,
      "states": 796,
      "ker": 797,
      "uch": 798,
      "reported": 799,
      "tle": 800,
      "expected": 801,
      "pay": 802,
      "show": 803,
      "ston": 804,
      "european": 805,
      "ca": 806,
      "eld": 807,
      "web": 808,
      "gy": 809,
      "before": 810,
      "19": 811,
      "wa": 812,
      "american": 813,
      "joh": 814,
      "indust": 815,
      "power": 816,
      "cu": 817,
      "ives": 818,
      "bid": 819,
      "ran": 820,
      "final": 821,
      "rest": 822,
      "technology": 823,
      "15": 824,
      "lat": 825,
      "south": 826,
      "tit": 827,
      "won": 828,
      "major": 829,
      "league": 830,
      "dollar": 831,
      "hand": 832,
      "country": 833,
      "champion": 834,
      "shar": 835,
      "beg": 836,
      "cast": 837,
      "ise": 838,
      "canad": 839,
      "talks": 840,
      "network": 841,
      "many": 842,
      "olymp": 843,
      "hu": 844,
      "target": 845,
      "sus": 846,
      "date": 847,
      "star": 848,
      "ants": 849,
      "ult": 850,
      "online": 851,
      "what": 852,
      "tail": 853,
      "wal": 854,
      "ending": 855,
      "vir": 856,
      "five": 857,
      "ked": 858,
      "mob": 859,
      "mem": 860,
      "wn": 861,
      "hur": 862,
      "fil": 863,
      "terr": 864,
      "goog": 865,
      "public": 866,
      "execut": 867,
      "devel": 868,
      "coach": 869,
      "claim": 870,
      "nings": 871,
      "ves": 872,
      "ual": 873,
      "strong": 874,
      "20": 875,
      "palest": 876,
      "british": 877,
      "tele": 878,
      "largest": 879,
      "bomb": 880,
      "nas": 881,
      "inian": 882,
      "phone": 883,
      "beat": 884,
      "cost": 885,
      "blo": 886,
      "ata": 887,
      "palestinian": 888,
      "shares": 889,
      "contin": 890,
      "them": 891,
      "india": 892,
      "che": 893,
      "wind": 894,
      "music": 895,
      "hd": 896,
      "accord": 897,
      "bag": 898,
      "make": 899,
      "gold": 900,
      "ments": 901,
      "ling": 902,
      "loss": 903,
      "ports": 904,
      "federal": 905,
      "mot": 906,
      "prime": 907,
      "mor": 908,
      "google": 909,
      "very": 910,
      "rican": 911,
      "use": 912,
      "him": 913,
      "ps": 914,
      "west": 915,
      "ibm": 916,
      "hol": 917,
      "incl": 918,
      "sell": 919,
      "through": 920,
      "police": 921,
      "least": 922,
      "har": 923,
      ";...": 924,
      "mission": 925,
      "ury": 926,
      ";...&": 927,
      "dem": 928,
      "dro": 929,
      "iraqi": 930,
      "found": 931,
      "election": 932,
      "appe": 933,
      "\"&": 934,
      "ium": 935,
      "another": 936,
      "icker": 937,
      "11": 938,
      "ping": 939,
      "leader": 940,
      "made": 941,
      "round": 942,
      "acc": 943,
      "ey": 944,
      "sing": 945,
      "north": 946,
      "six": 947,
      "while": 948,
      "enn": 949,
      "mobile": 950,
      "sw": 951,
      "according": 952,
      "bec": 953,
      "trad": 954,
      "drug": 955,
      "ba": 956,
      "spor": 957,
      "incre": 958,
      "ext": 959,
      "vot": 960,
      "develop": 961,
      "ges": 962,
      "update": 963,
      "camp": 964,
      "companies": 965,
      "ier": 966,
      "ons": 967,
      "vo": 968,
      "terror": 969,
      "66": 970,
      "fact": 971,
      "ures": 972,
      ".,": 973,
      "games": 974,
      "cons": 975,
      "stud": 976,
      "ision": 977,
      "quick": 978,
      "stand": 979,
      "ween": 980,
      "there": 981,
      "mart": 982,
      "lond": 983,
      "series": 984,
      "during": 985,
      "pass": 986,
      "london": 987,
      "move": 988,
      "thern": 989,
      "threat": 990,
      "still": 991,
      "pat": 992,
      "pers": 993,
      "ular": 994,
      "ause": 995,
      "fur": 996,
      "chip": 997,
      "attack": 998,
      "ley": 999,
      "wr": 1000,
      "vol": 1001,
      "50": 1002,
      "dead": 1003,
      "share": 1004,
      "between": 1005,
      "industry": 1006,
      "inj": 1007,
      "ious": 1008,
      "men": 1009,
      "stock": 1010,
      "ended": 1011,
      "ticker": 1012,
      "sum": 1013,
      "ows": 1014,
      "glo": 1015,
      "field": 1016,
      "12": 1017,
      "sports": 1018,
      "foot": 1019,
      "baghd": 1020,
      "baghdad": 1021,
      "cre": 1022,
      "produc": 1023,
      "ttp": 1024,
      "//": 1025,
      "http": 1026,
      "sour": 1027,
      "ange": 1028,
      "loy": 1029,
      "pa": 1030,
      "els": 1031,
      "giant": 1032,
      "ress": 1033,
      "cur": 1034,
      "ams": 1035,
      "view": 1036,
      "://": 1037,
      "wo": 1038,
      "held": 1039,
      "ga": 1040,
      "let": 1041,
      "sept": 1042,
      "point": 1043,
      "boo": 1044,
      "reach": 1045,
      "commun": 1046,
      "return": 1047,
      "alth": 1048,
      "ction": 1049,
      "spec": 1050,
      "based": 1051,
      "sel": 1052,
      "row": 1053,
      "attle": 1054,
      "includ": 1055,
      "ages": 1056,
      "keep": 1057,
      "fol": 1058,
      "growth": 1059,
      "rul": 1060,
      "ned": 1061,
      "isco": 1062,
      "real": 1063,
      "ots": 1064,
      "ense": 1065,
      "ster": 1066,
      "reless": 1067,
      "services": 1068,
      "since": 1069,
      "pak": 1070,
      "www": 1071,
      "oft": 1072,
      "gre": 1073,
      "rup": 1074,
      "ared": 1075,
      "early": 1076,
      "face": 1077,
      "nuc": 1078,
      "info": 1079,
      "data": 1080,
      "sm": 1081,
      "left": 1082,
      "any": 1083,
      "ents": 1084,
      "pc": 1085,
      "wireless": 1086,
      "contro": 1087,
      "union": 1088,
      "insur": 1089,
      "progr": 1090,
      "ards": 1091,
      "mid": 1092,
      "free": 1093,
      "john": 1094,
      "ze": 1095,
      "investor": 1096,
      "trade": 1097,
      "nuclear": 1098,
      "half": 1099,
      "href": 1100,
      "higher": 1101,
      "ub": 1102,
      "dou": 1103,
      "demand": 1104,
      "firm": 1105,
      "sold": 1106,
      "ush": 1107,
      "acle": 1108,
      "kore": 1109,
      "turn": 1110,
      "acqu": 1111,
      "ved": 1112,
      "ops": 1113,
      "military": 1114,
      "ility": 1115,
      "stor": 1116,
      "australia": 1117,
      "less": 1118,
      "ications": 1119,
      "gain": 1120,
      "sol": 1121,
      "earnings": 1122,
      "tract": 1123,
      "pakistan": 1124,
      "even": 1125,
      "ude": 1126,
      "fight": 1127,
      "dav": 1128,
      "fire": 1129,
      "like": 1130,
      "14": 1131,
      "ney": 1132,
      "wom": 1133,
      "being": 1134,
      "pri": 1135,
      "peace": 1136,
      "house": 1137,
      "gaz": 1138,
      "ya": 1139,
      "only": 1140,
      "iran": 1141,
      "bur": 1142,
      "got": 1143,
      "ples": 1144,
      "afgh": 1145,
      "itch": 1146,
      "quest": 1147,
      "30": 1148,
      "ivers": 1149,
      "hear": 1150,
      "emp": 1151,
      "retail": 1152,
      "general": 1153,
      "bill": 1154,
      "don": 1155,
      "ah": 1156,
      "change": 1157,
      "asp": 1158,
      "ints": 1159,
      "cts": 1160,
      "apple": 1161,
      "intel": 1162,
      "ider": 1163,
      "rad": 1164,
      "players": 1165,
      "mc": 1166,
      "seven": 1167,
      "sox": 1168,
      "ution": 1169,
      "mat": 1170,
      "right": 1171,
      "hard": 1172,
      "lower": 1173,
      "ights": 1174,
      "num": 1175,
      "cust": 1176,
      "good": 1177,
      "den": 1178,
      "ux": 1179,
      "uel": 1180,
      "fac": 1181,
      "agreed": 1182,
      "raw": 1183,
      "months": 1184,
      "issu": 1185,
      "gets": 1186,
      "ject": 1187,
      "product": 1188,
      "days": 1189,
      "afghan": 1190,
      "nov": 1191,
      "financ": 1192,
      "close": 1193,
      "lowing": 1194,
      "ines": 1195,
      "ific": 1196,
      "agen": 1197,
      "bas": 1198,
      "stree": 1199,
      "bor": 1200,
      "oracle": 1201,
      "aster": 1202,
      "because": 1203,
      "gan": 1204,
      "lim": 1205,
      "dar": 1206,
      "rebel": 1207,
      "ator": 1208,
      "adv": 1209,
      "mber": 1210,
      "fut": 1211,
      "franc": 1212,
      "global": 1213,
      "israeli": 1214,
      "price": 1215,
      "where": 1216,
      "well": 1217,
      "yan": 1218,
      "systems": 1219,
      "match": 1220,
      "windows": 1221,
      "need": 1222,
      "viol": 1223,
      "bers": 1224,
      "scient": 1225,
      "ross": 1226,
      "ahead": 1227,
      "fund": 1228,
      "tor": 1229,
      "latest": 1230,
      "val": 1231,
      "england": 1232,
      "ont": 1233,
      "russian": 1234,
      "dire": 1235,
      "olympic": 1236,
      "rupt": 1237,
      "cle": 1238,
      "dig": 1239,
      "troops": 1240,
      "=/": 1241,
      "quickinfo": 1242,
      "aspx": 1243,
      "should": 1244,
      "ply": 1245,
      "cell": 1246,
      "vide": 1247,
      "points": 1248,
      "compe": 1249,
      "gaza": 1250,
      "lab": 1251,
      "russia": 1252,
      "rose": 1253,
      "ible": 1254,
      "biggest": 1255,
      "football": 1256,
      "remain": 1257,
      "executive": 1258,
      "ready": 1259,
      "boston": 1260,
      "polit": 1261,
      "using": 1262,
      "wall": 1263,
      "thing": 1264,
      "ison": 1265,
      "users": 1266,
      "indian": 1267,
      "kn": 1268,
      "lines": 1269,
      "place": 1270,
      "ators": 1271,
      "desp": 1272,
      "ake": 1273,
      "jobs": 1274,
      "rise": 1275,
      "ving": 1276,
      "ends": 1277,
      "36": 1278,
      "life": 1279,
      "feat": 1280,
      "championship": 1281,
      "dom": 1282,
      "including": 1283,
      "aly": 1284,
      "how": 1285,
      "sub": 1286,
      "athe": 1287,
      "ds": 1288,
      "hurrican": 1289,
      "tur": 1290,
      "kyo": 1291,
      "case": 1292,
      "support": 1293,
      "past": 1294,
      "reports": 1295,
      "peo": 1296,
      "mark": 1297,
      "peoples": 1298,
      "phil": 1299,
      "base": 1300,
      "canadian": 1301,
      "fam": 1302,
      "released": 1303,
      "find": 1304,
      "death": 1305,
      "custom": 1306,
      "leaders": 1307,
      "despite": 1308,
      "program": 1309,
      "ised": 1310,
      "concer": 1311,
      "pack": 1312,
      "iting": 1313,
      "suc": 1314,
      "economy": 1315,
      "hip": 1316,
      "ism": 1317,
      "ida": 1318,
      "process": 1319,
      "foreign": 1320,
      "coming": 1321,
      "build": 1322,
      "kets": 1323,
      "peoplesoft": 1324,
      "wood": 1325,
      "ool": 1326,
      "fail": 1327,
      "forces": 1328,
      "much": 1329,
      "boost": 1330,
      "your": 1331,
      "drop": 1332,
      "athens": 1333,
      "hist": 1334,
      "na": 1335,
      "commission": 1336,
      "poss": 1337,
      "investors": 1338,
      "aug": 1339,
      "economic": 1340,
      "18": 1341,
      "16": 1342,
      "deb": 1343,
      "oci": 1344,
      "rival": 1345,
      "pur": 1346,
      "school": 1347,
      "release": 1348,
      "idn": 1349,
      "contract": 1350,
      "fect": 1351,
      "associ": 1352,
      "street": 1353,
      "sure": 1354,
      "called": 1355,
      "div": 1356,
      "decl": 1357,
      "mee": 1358,
      "direct": 1359,
      "recent": 1360,
      "17": 1361,
      "continu": 1362,
      "force": 1363,
      "rench": 1364,
      "care": 1365,
      "effor": 1366,
      "lik": 1367,
      "video": 1368,
      "board": 1369,
      "card": 1370,
      "aft": 1371,
      "13": 1372,
      "cover": 1373,
      "mail": 1374,
      "sk": 1375,
      "2005": 1376,
      "broad": 1377,
      "dri": 1378,
      "here": 1379,
      "green": 1380,
      "around": 1381,
      "jud": 1382,
      "ative": 1383,
      "ben": 1384,
      "best": 1385,
      "rich": 1386,
      "source": 1387,
      "tax": 1388,
      "pho": 1389,
      "position": 1390,
      "fourth": 1391,
      "region": 1392,
      "bc": 1393,
      "ull": 1394,
      "thor": 1395,
      "ily": 1396,
      "25": 1397,
      "arm": 1398,
      "campa": 1399,
      "ize": 1400,
      "australian": 1401,
      "pop": 1402,
      "gl": 1403,
      "she": 1404,
      ";&": 1405,
      "nations": 1406,
      "presidential": 1407,
      "health": 1408,
      "sudan": 1409,
      "french": 1410,
      "ny": 1411,
      "title": 1412,
      "gress": 1413,
      "media": 1414,
      "mal": 1415,
      "leading": 1416,
      "ars": 1417,
      "break": 1418,
      "weeks": 1419,
      "sever": 1420,
      "bay": 1421,
      "investig": 1422,
      "engine": 1423,
      "nearly": 1424,
      "watch": 1425,
      "dep": 1426,
      "ands": 1427,
      "ford": 1428,
      "linux": 1429,
      "workers": 1430,
      "hi": 1431,
      "wins": 1432,
      "demo": 1433,
      "exper": 1434,
      "ways": 1435,
      "tokyo": 1436,
      "ament": 1437,
      "ging": 1438,
      "acy": 1439,
      "sent": 1440,
      "bit": 1441,
      "attacks": 1442,
      "america": 1443,
      "ko": 1444,
      "financial": 1445,
      "ured": 1446,
      "works": 1447,
      "gas": 1448,
      "saf": 1449,
      "short": 1450,
      "outs": 1451,
      "sto": 1452,
      "hot": 1453,
      "campaign": 1454,
      "dy": 1455,
      "dist": 1456,
      "ipo": 1457,
      "lit": 1458,
      "capital": 1459,
      "korea": 1460,
      "ai": 1461,
      "rod": 1462,
      "iger": 1463,
      "nasa": 1464,
      "ank": 1465,
      "analy": 1466,
      "interest": 1467,
      "100": 1468,
      "anti": 1469,
      "player": 1470,
      "kerry": 1471,
      "rece": 1472,
      "super": 1473,
      "ference": 1474,
      "vel": 1475,
      "chic": 1476,
      "pes": 1477,
      "spr": 1478,
      "appl": 1479,
      "agency": 1480,
      "ose": 1481,
      "isl": 1482,
      "bra": 1483,
      "iers": 1484,
      "ized": 1485,
      "aff": 1486,
      "tre": 1487,
      "center": 1488,
      "yanke": 1489,
      "francisco": 1490,
      "digital": 1491,
      "democr": 1492,
      "ior": 1493,
      "arrest": 1494,
      "secret": 1495,
      "giv": 1496,
      "va": 1497,
      "alleg": 1498,
      "employ": 1499,
      "agreement": 1500,
      "number": 1501,
      "person": 1502,
      "fell": 1503,
      "late": 1504,
      "stop": 1505,
      "flor": 1506,
      "success": 1507,
      "ults": 1508,
      "rain": 1509,
      "equ": 1510,
      "unt": 1511,
      "race": 1512,
      "octo": 1513,
      "ys": 1514,
      "ember": 1515,
      "corpor": 1516,
      "meeting": 1517,
      "party": 1518,
      "october": 1519,
      "ple": 1520,
      "small": 1521,
      "september": 1522,
      "away": 1523,
      "forecast": 1524,
      "chicago": 1525,
      "crude": 1526,
      "allow": 1527,
      "took": 1528,
      "central": 1529,
      "ites": 1530,
      "legal": 1531,
      "also": 1532,
      "battle": 1533,
      "susp": 1534,
      "pan": 1535,
      "que": 1536,
      "ink": 1537,
      "stra": 1538,
      "scientists": 1539,
      "list": 1540,
      "afat": 1541,
      "tv": 1542,
      "arafat": 1543,
      "aid": 1544,
      "going": 1545,
      "killing": 1546,
      "florida": 1547,
      "organ": 1548,
      "crit": 1549,
      "consu": 1550,
      "likely": 1551,
      "version": 1552,
      "author": 1553,
      "job": 1554,
      "hurricane": 1555,
      "univers": 1556,
      "depart": 1557,
      "following": 1558,
      "want": 1559,
      "great": 1560,
      "consumer": 1561,
      "human": 1562,
      "adr": 1563,
      "aren": 1564,
      "ugg": 1565,
      "nam": 1566,
      "action": 1567,
      "darfur": 1568,
      "charges": 1569,
      "army": 1570,
      "disc": 1571,
      "whe": 1572,
      "suit": 1573,
      "approv": 1574,
      "uj": 1575,
      "ener": 1576,
      "ided": 1577,
      "strike": 1578,
      "touch": 1579,
      "bi": 1580,
      "veil": 1581,
      "vote": 1582,
      "wat": 1583,
      "jan": 1584,
      "mit": 1585,
      "bow": 1586,
      "due": 1587,
      "ration": 1588,
      "give": 1589,
      "ware": 1590,
      "study": 1591,
      "making": 1592,
      "france": 1593,
      "ever": 1594,
      "ness": 1595,
      "chall": 1596,
      "japanese": 1597,
      "speed": 1598,
      "design": 1599,
      "both": 1600,
      "might": 1601,
      "unveil": 1602,
      "electron": 1603,
      "yankees": 1604,
      "soc": 1605,
      "communications": 1606,
      "trial": 1607,
      "ming": 1608,
      "future": 1609,
      "britain": 1610,
      "wide": 1611,
      "reven": 1612,
      "black": 1613,
      "regul": 1614,
      "eles": 1615,
      "site": 1616,
      "fa": 1617,
      "sets": 1618,
      "prote": 1619,
      "24": 1620,
      "nia": 1621,
      "tour": 1622,
      "times": 1623,
      "ev": 1624,
      "ob": 1625,
      "tic": 1626,
      "chin": 1627,
      "step": 1628,
      "ff": 1629,
      "ensive": 1630,
      "begin": 1631,
      "dam": 1632,
      "geor": 1633,
      "products": 1634,
      "ifor": 1635,
      "settle": 1636,
      "sim": 1637,
      "shot": 1638,
      "trans": 1639,
      "self": 1640,
      "profile": 1641,
      "gree": 1642,
      "defense": 1643,
      "apped": 1644,
      "conference": 1645,
      "earth": 1646,
      "every": 1647,
      "manager": 1648,
      "willi": 1649,
      "curren": 1650,
      "draw": 1651,
      "management": 1652,
      "band": 1653,
      "east": 1654,
      "women": 1655,
      "office": 1656,
      "auto": 1657,
      "ising": 1658,
      "idence": 1659,
      "califor": 1660,
      "customers": 1661,
      "tex": 1662,
      "results": 1663,
      "iver": 1664,
      "ished": 1665,
      "cing": 1666,
      "roc": 1667,
      "chair": 1668,
      "ave": 1669,
      "decision": 1670,
      "poll": 1671,
      "eas": 1672,
      "order": 1673,
      "reser": 1674,
      "nove": 1675,
      "push": 1676,
      "energy": 1677,
      "several": 1678,
      "november": 1679,
      "bed": 1680,
      "eight": 1681,
      "little": 1682,
      "blast": 1683,
      "pitch": 1684,
      "stat": 1685,
      "club": 1686,
      "proble": 1687,
      "food": 1688,
      "mac": 1689,
      "northern": 1690,
      "hour": 1691,
      "imin": 1692,
      "sony": 1693,
      "southern": 1694,
      "bat": 1695,
      "few": 1696,
      "taking": 1697,
      "costs": 1698,
      "grand": 1699,
      "chang": 1700,
      "qual": 1701,
      "without": 1702,
      "political": 1703,
      "ify": 1704,
      "takes": 1705,
      "militants": 1706,
      "ners": 1707,
      "vision": 1708,
      "hostage": 1709,
      "ino": 1710,
      "rate": 1711,
      "conf": 1712,
      "running": 1713,
      "desk": 1714,
      "ump": 1715,
      "struct": 1716,
      "thers": 1717,
      "ened": 1718,
      "roll": 1719,
      "elections": 1720,
      "control": 1721,
      "ades": 1722,
      "inst": 1723,
      "too": 1724,
      "baseball": 1725,
      "onto": 1726,
      "california": 1727,
      "does": 1728,
      "ides": 1729,
      "atic": 1730,
      "bankrupt": 1731,
      "champions": 1732,
      "cuts": 1733,
      "uce": 1734,
      "islam": 1735,
      "winning": 1736,
      "far": 1737,
      "judge": 1738,
      "child": 1739,
      "polic": 1740,
      "canada": 1741,
      "uck": 1742,
      "straight": 1743,
      "accoun": 1744,
      "spam": 1745,
      "cam": 1746,
      "ik": 1747,
      "gun": 1748,
      "mess": 1749,
      "clear": 1750,
      "station": 1751,
      "such": 1752,
      "plac": 1753,
      "priv": 1754,
      "sea": 1755,
      "phones": 1756,
      "fear": 1757,
      "mass": 1758,
      "),": 1759,
      "pon": 1760,
      "rac": 1761,
      "ami": 1762,
      "quarterly": 1763,
      "analyst": 1764,
      "claims": 1765,
      "fans": 1766,
      "fre": 1767,
      "hopes": 1768,
      "light": 1769,
      "told": 1770,
      "micha": 1771,
      "prison": 1772,
      "department": 1773,
      "though": 1774,
      "tries": 1775,
      "consider": 1776,
      "slow": 1777,
      "atl": 1778,
      "join": 1779,
      "ceo": 1780,
      "gin": 1781,
      "desktop": 1782,
      "lou": 1783,
      "hind": 1784,
      "michael": 1785,
      "bri": 1786,
      "die": 1787,
      "amid": 1788,
      "ians": 1789,
      "better": 1790,
      "unit": 1791,
      "craft": 1792,
      "whether": 1793,
      "load": 1794,
      "inform": 1795,
      "ord": 1796,
      "barrel": 1797,
      "ken": 1798,
      "bled": 1799,
      "posed": 1800,
      "kidn": 1801,
      "cash": 1802,
      "dif": 1803,
      "sil": 1804,
      "class": 1805,
      "nat": 1806,
      "rates": 1807,
      "foc": 1808,
      "road": 1809,
      "calls": 1810,
      "explos": 1811,
      "ension": 1812,
      "giants": 1813,
      "wound": 1814,
      "roy": 1815,
      "flo": 1816,
      "scored": 1817,
      "blue": 1818,
      "increase": 1819,
      "term": 1820,
      "access": 1821,
      "hoo": 1822,
      "prove": 1823,
      "launched": 1824,
      "possible": 1825,
      "violence": 1826,
      "21": 1827,
      "across": 1828,
      "nal": 1829,
      "atlant": 1830,
      "fuel": 1831,
      "comple": 1832,
      "august": 1833,
      "university": 1834,
      "hy": 1835,
      "money": 1836,
      "brow": 1837,
      "lost": 1838,
      "prise": 1839,
      "server": 1840,
      "angeles": 1841,
      "tool": 1842,
      "saying": 1843,
      "zer": 1844,
      "chairman": 1845,
      "become": 1846,
      "clim": 1847,
      "texas": 1848,
      "side": 1849,
      "fast": 1850,
      "hor": 1851,
      "history": 1852,
      "williams": 1853,
      "stad": 1854,
      "ale": 1855,
      "trav": 1856,
      "members": 1857,
      "jer": 1858,
      "kar": 1859,
      "crash": 1860,
      "cept": 1861,
      "thous": 1862,
      "then": 1863,
      "coast": 1864,
      "safe": 1865,
      "stores": 1866,
      "chinese": 1867,
      "trading": 1868,
      "houston": 1869,
      "activ": 1870,
      "ases": 1871,
      "german": 1872,
      "town": 1873,
      "wester": 1874,
      "morning": 1875,
      "weekend": 1876,
      "radio": 1877,
      "clos": 1878,
      "among": 1879,
      "span": 1880,
      "makers": 1881,
      "perfor": 1882,
      "hits": 1883,
      "cel": 1884,
      "uses": 1885,
      "germany": 1886,
      "block": 1887,
      "promis": 1888,
      "white": 1889,
      "store": 1890,
      "opt": 1891,
      "iti": 1892,
      "rob": 1893,
      "networks": 1894,
      "mb": 1895,
      "rap": 1896,
      "secretary": 1897,
      "information": 1898,
      "ability": 1899,
      "medal": 1900,
      "train": 1901,
      "book": 1902,
      "strugg": 1903,
      "belie": 1904,
      "toward": 1905,
      "rew": 1906,
      "same": 1907,
      "administ": 1908,
      "makes": 1909,
      "oct": 1910,
      "pen": 1911,
      "rally": 1912,
      "seen": 1913,
      "weak": 1914,
      "mas": 1915,
      "emer": 1916,
      "soon": 1917,
      "ij": 1918,
      "gener": 1919,
      "rebels": 1920,
      "behind": 1921,
      "bab": 1922,
      "heav": 1923,
      "ats": 1924,
      "wit": 1925,
      "western": 1926,
      "secut": 1927,
      "operating": 1928,
      "hom": 1929,
      "accused": 1930,
      "ipod": 1931,
      "arsen": 1932,
      "falluj": 1933,
      "must": 1934,
      "ona": 1935,
      "ground": 1936,
      "aper": 1937,
      "david": 1938,
      "event": 1939,
      "sn": 1940,
      "injured": 1941,
      "yahoo": 1942,
      "did": 1943,
      "pac": 1944,
      "anned": 1945,
      "soldiers": 1946,
      "profits": 1947,
      "protest": 1948,
      "carri": 1949,
      "ties": 1950,
      "infl": 1951,
      "mag": 1952,
      "commit": 1953,
      "afghanistan": 1954,
      "nine": 1955,
      "meet": 1956,
      "oid": 1957,
      "pil": 1958,
      "visit": 1959,
      "ten": 1960,
      "da": 1961,
      "py": 1962,
      "commer": 1963,
      "afric": 1964,
      "pm": 1965,
      "empt": 1966,
      "ute": 1967,
      "500": 1968,
      "exchange": 1969,
      "manu": 1970,
      "senior": 1971,
      "photo": 1972,
      "came": 1973,
      "earli": 1974,
      "box": 1975,
      "suspect": 1976,
      "labor": 1977,
      "jun": 1978,
      "indones": 1979,
      "revenue": 1980,
      "almost": 1981,
      "era": 1982,
      "abo": 1983,
      "ru": 1984,
      "ived": 1985,
      "bring": 1986,
      "qa": 1987,
      "warned": 1988,
      "shop": 1989,
      "double": 1990,
      "bankruptcy": 1991,
      "pot": 1992,
      "paris": 1993,
      "\\\\": 1994,
      "republic": 1995,
      "rist": 1996,
      "ana": 1997,
      "color": 1998,
      "thousands": 1999,
      "cand": 2000,
      "airlines": 2001,
      "file": 2002,
      "performan": 2003,
      "tenn": 2004,
      "coll": 2005,
      "gers": 2006,
      "popular": 2007,
      "ught": 2008,
      "takeover": 2009,
      "stadium": 2010,
      "manufact": 2011,
      "introd": 2012,
      "opening": 2013,
      "posted": 2014,
      "fav": 2015,
      "touchdown": 2016,
      "ience": 2017,
      "ama": 2018,
      "signed": 2019,
      "reserve": 2020,
      "markets": 2021,
      "mir": 2022,
      "ony": 2023,
      "showed": 2024,
      "negot": 2025,
      "negoti": 2026,
      "comes": 2027,
      "production": 2028,
      "yet": 2029,
      "virgin": 2030,
      "personal": 2031,
      "organiz": 2032,
      "africa": 2033,
      "weap": 2034,
      "ession": 2035,
      "nfl": 2036,
      "resh": 2037,
      "paul": 2038,
      "domin": 2039,
      "division": 2040,
      "braz": 2041,
      "aver": 2042,
      "those": 2043,
      "delay": 2044,
      "water": 2045,
      "television": 2046,
      "cil": 2047,
      "heart": 2048,
      "toronto": 2049,
      "ring": 2050,
      "civ": 2051,
      "earlier": 2052,
      "jones": 2053,
      "pic": 2054,
      "vic": 2055,
      "ture": 2056,
      "gains": 2057,
      "22": 2058,
      "stre": 2059,
      "cred": 2060,
      "ired": 2061,
      "aged": 2062,
      "hope": 2063,
      "firms": 2064,
      "ari": 2065,
      "ises": 2066,
      "pects": 2067,
      "spain": 2068,
      "know": 2069,
      "premi": 2070,
      "growing": 2071,
      "tition": 2072,
      "surve": 2073,
      "ded": 2074,
      "offering": 2075,
      "mur": 2076,
      "dle": 2077,
      "asser": 2078,
      "sale": 2079,
      "wants": 2080,
      "ille": 2081,
      "ified": 2082,
      "flight": 2083,
      "alleged": 2084,
      "body": 2085,
      "muslim": 2086,
      "opposition": 2087,
      "bird": 2088,
      "consum": 2089,
      "sug": 2090,
      "outlook": 2091,
      "corporate": 2092,
      "motor": 2093,
      "gol": 2094,
      "40": 2095,
      "fra": 2096,
      "track": 2097,
      "finance": 2098,
      "stake": 2099,
      "brazil": 2100,
      "performance": 2101,
      "helped": 2102,
      "louis": 2103,
      "dip": 2104,
      "olympics": 2105,
      "23": 2106,
      "leav": 2107,
      "local": 2108,
      "reds": 2109,
      "iss": 2110,
      "font": 2111,
      "jour": 2112,
      "oks": 2113,
      "ries": 2114,
      "association": 2115,
      "bowl": 2116,
      "sam": 2117,
      "probe": 2118,
      "blair": 2119,
      "ota": 2120,
      "lock": 2121,
      "hosp": 2122,
      "lad": 2123,
      "americans": 2124,
      "expl": 2125,
      "asia": 2126,
      "african": 2127,
      "began": 2128,
      "conne": 2129,
      "spot": 2130,
      "ately": 2131,
      "worth": 2132,
      "concerns": 2133,
      "gent": 2134,
      "ltd": 2135,
      "rock": 2136,
      "died": 2137,
      "island": 2138,
      "28": 2139,
      "dell": 2140,
      "fresh": 2141,
      "aps": 2142,
      "computers": 2143,
      "hospital": 2144,
      "madr": 2145,
      "insurance": 2146,
      "tom": 2147,
      "appoint": 2148,
      "goal": 2149,
      "looking": 2150,
      "philip": 2151,
      "bes": 2152,
      "27": 2153,
      "bell": 2154,
      "ram": 2155,
      "fox": 2156,
      "guard": 2157,
      "present": 2158,
      "council": 2159,
      "civil": 2160,
      "expand": 2161,
      "candid": 2162,
      "hun": 2163,
      "ories": 2164,
      "fighting": 2165,
      "ially": 2166,
      "199": 2167,
      "efforts": 2168,
      "dv": 2169,
      "dut": 2170,
      "travel": 2171,
      "once": 2172,
      "chester": 2173,
      "countries": 2174,
      "trou": 2175,
      "known": 2176,
      "career": 2177,
      "rising": 2178,
      "6666": 2179,
      "challen": 2180,
      "administration": 2181,
      "hp": 2182,
      "youn": 2183,
      "bad": 2184,
      "already": 2185,
      "airline": 2186,
      "investment": 2187,
      "cho": 2188,
      "drive": 2189,
      "arrested": 2190,
      "charged": 2191,
      "asing": 2192,
      "announce": 2193,
      "ask": 2194,
      "shut": 2195,
      "supply": 2196,
      "george": 2197,
      "analysts": 2198,
      "sched": 2199,
      "wan": 2200,
      "inf": 2201,
      "dest": 2202,
      "nets": 2203,
      "download": 2204,
      "ros": 2205,
      "miami": 2206,
      "spending": 2207,
      "continue": 2208,
      "holiday": 2209,
      "special": 2210,
      "size": 2211,
      "trying": 2212,
      "hours": 2213,
      "niger": 2214,
      "resp": 2215,
      "cris": 2216,
      "weapons": 2217,
      "arab": 2218,
      "explo": 2219,
      "fraud": 2220,
      "bound": 2221,
      "within": 2222,
      "met": 2223,
      "competition": 2224,
      "madrid": 2225,
      "batt": 2226,
      "teams": 2227,
      "burn": 2228,
      "strate": 2229,
      "family": 2230,
      "arsenal": 2231,
      "moun": 2232,
      "ivan": 2233,
      "charge": 2234,
      "cri": 2235,
      "egy": 2236,
      "front": 2237,
      "mult": 2238,
      "ox": 2239,
      "resol": 2240,
      "current": 2241,
      "ez": 2242,
      "stay": 2243,
      "egypt": 2244,
      "rights": 2245,
      "airways": 2246,
      "vious": 2247,
      "question": 2248,
      "others": 2249,
      "defeat": 2250,
      "fig": 2251,
      "ctions": 2252,
      "rules": 2253,
      "employe": 2254,
      "pract": 2255,
      "aled": 2256,
      "fri": 2257,
      "suic": 2258,
      "cele": 2259,
      "disput": 2260,
      "selling": 2261,
      "reve": 2262,
      "grap": 2263,
      "avail": 2264,
      "advanc": 2265,
      "kills": 2266,
      "stead": 2267,
      "starting": 2268,
      "cat": 2269,
      "beij": 2270,
      "sees": 2271,
      "nba": 2272,
      "beijing": 2273,
      "adel": 2274,
      "congress": 2275,
      "outside": 2276,
      "policy": 2277,
      "hic": 2278,
      "taken": 2279,
      "storm": 2280,
      "arent": 2281,
      "spok": 2282,
      "fif": 2283,
      "chen": 2284,
      "sharon": 2285,
      "until": 2286,
      "fle": 2287,
      "survey": 2288,
      "inch": 2289,
      "van": 2290,
      "pressure": 2291,
      "children": 2292,
      "offers": 2293,
      "park": 2294,
      "crisis": 2295,
      "pit": 2296,
      "ication": 2297,
      "seem": 2298,
      "development": 2299,
      "gave": 2300,
      "giving": 2301,
      "authorities": 2302,
      "enough": 2303,
      "icket": 2304,
      "seattle": 2305,
      "suppl": 2306,
      "basket": 2307,
      "hund": 2308,
      "pir": 2309,
      "went": 2310,
      "sport": 2311,
      "151": 2312,
      "ler": 2313,
      "tai": 2314,
      "strip": 2315,
      "bond": 2316,
      "yards": 2317,
      "inals": 2318,
      "edge": 2319,
      "express": 2320,
      "consumers": 2321,
      "pact": 2322,
      "rivals": 2323,
      "italian": 2324,
      "effort": 2325,
      "plane": 2326,
      "ening": 2327,
      "manchester": 2328,
      "finally": 2329,
      "reached": 2330,
      "aging": 2331,
      "quarterback": 2332,
      "ruling": 2333,
      "26": 2334,
      "name": 2335,
      "cos": 2336,
      "executives": 2337,
      "estim": 2338,
      "woman": 2339,
      "electronics": 2340,
      "suicide": 2341,
      "award": 2342,
      "reme": 2343,
      "injury": 2344,
      "fears": 2345,
      "gam": 2346,
      "ential": 2347,
      "each": 2348,
      "80": 2349,
      "named": 2350,
      "aud": 2351,
      "eing": 2352,
      "yuk": 2353,
      "ado": 2354,
      "iance": 2355,
      "satell": 2356,
      "christ": 2357,
      "tra": 2358,
      "getting": 2359,
      "colle": 2360,
      "scre": 2361,
      "retailer": 2362,
      "vs": 2363,
      "35": 2364,
      "cou": 2365,
      "gar": 2366,
      "plant": 2367,
      "devices": 2368,
      "cisco": 2369,
      "driv": 2370,
      "squ": 2371,
      "dog": 2372,
      "vert": 2373,
      "akes": 2374,
      "astern": 2375,
      "backs": 2376,
      "continued": 2377,
      "mach": 2378,
      "aimed": 2379,
      "mex": 2380,
      "suggest": 2381,
      "fun": 2382,
      "clash": 2383,
      "soccer": 2384,
      "wild": 2385,
      "sex": 2386,
      "large": 2387,
      "missing": 2388,
      "cit": 2389,
      "hill": 2390,
      "tel": 2391,
      "failed": 2392,
      ").": 2393,
      "cp": 2394,
      "attempt": 2395,
      "mont": 2396,
      "reco": 2397,
      "shows": 2398,
      "further": 2399,
      "heavy": 2400,
      "invol": 2401,
      "dies": 2402,
      "han": 2403,
      "yukos": 2404,
      "operations": 2405,
      "college": 2406,
      "project": 2407,
      "researchers": 2408,
      "focus": 2409,
      "credit": 2410,
      "asian": 2411,
      "problems": 2412,
      "private": 2413,
      "spokes": 2414,
      "level": 2415,
      "playoff": 2416,
      "faces": 2417,
      "ffer": 2418,
      "previous": 2419,
      "import": 2420,
      "nes": 2421,
      "issue": 2422,
      "ander": 2423,
      "scow": 2424,
      "basketball": 2425,
      "ville": 2426,
      "reject": 2427,
      "powerful": 2428,
      "chips": 2429,
      "middle": 2430,
      "fired": 2431,
      "ined": 2432,
      "staff": 2433,
      "send": 2434,
      "yasser": 2435,
      "ico": 2436,
      "benef": 2437,
      "discuss": 2438,
      "pred": 2439,
      "moscow": 2440,
      "terrorism": 2441,
      "ml": 2442,
      "area": 2443,
      "working": 2444,
      "risk": 2445,
      "certain": 2446,
      "jail": 2447,
      "tough": 2448,
      "operation": 2449,
      "member": 2450,
      "wel": 2451,
      "partners": 2452,
      "young": 2453,
      "pick": 2454,
      "ria": 2455,
      "ax": 2456,
      "winter": 2457,
      "review": 2458,
      "leads": 2459,
      "dow": 2460,
      "utes": 2461,
      "raised": 2462,
      "palestinians": 2463,
      "check": 2464,
      "filed": 2465,
      "davis": 2466,
      "uary": 2467,
      "itions": 2468,
      "steel": 2469,
      "inv": 2470,
      "raid": 2471,
      "calif": 2472,
      "bud": 2473,
      "doc": 2474,
      "scr": 2475,
      "moved": 2476,
      "uly": 2477,
      "nok": 2478,
      "merger": 2479,
      "atlanta": 2480,
      "suspected": 2481,
      "above": 2482,
      "storage": 2483,
      "kes": 2484,
      "ape": 2485,
      "ulation": 2486,
      "29": 2487,
      "pull": 2488,
      "ues": 2489,
      "never": 2490,
      "chase": 2491,
      "pec": 2492,
      "firmed": 2493,
      "hen": 2494,
      "warning": 2495,
      "signs": 2496,
      "400": 2497,
      "leave": 2498,
      "eag": 2499,
      "rang": 2500,
      "treat": 2501,
      "happ": 2502,
      "fix": 2503,
      "challenge": 2504,
      "debt": 2505,
      "wid": 2506,
      "icip": 2507,
      "planned": 2508,
      "phia": 2509,
      "slip": 2510,
      "equip": 2511,
      "journal": 2512,
      "looks": 2513,
      "adelphia": 2514,
      "annual": 2515,
      "designed": 2516,
      "unes": 2517,
      "compl": 2518,
      "propo": 2519,
      "dece": 2520,
      "awa": 2521,
      "pul": 2522,
      "suffer": 2523,
      "2006": 2524,
      "dvd": 2525,
      "shi": 2526,
      "building": 2527,
      "chance": 2528,
      "appro": 2529,
      "businesses": 2530,
      "satellite": 2531,
      "ech": 2532,
      "investigation": 2533,
      "tee": 2534,
      "xp": 2535,
      "issues": 2536,
      "lan": 2537,
      "spy": 2538,
      "covered": 2539,
      "ease": 2540,
      "wer": 2541,
      "wart": 2542,
      "bass": 2543,
      "groups": 2544,
      "swee": 2545,
      "stren": 2546,
      "critic": 2547,
      "dollars": 2548,
      "delta": 2549,
      "ctor": 2550,
      "captain": 2551,
      "expectations": 2552,
      "controvers": 2553,
      "ray": 2554,
      "amd": 2555,
      "available": 2556,
      "streng": 2557,
      "content": 2558,
      "sharehold": 2559,
      "itor": 2560,
      "cricket": 2561,
      "lawsuit": 2562,
      "singap": 2563,
      "nasd": 2564,
      "treas": 2565,
      "iff": 2566,
      "tony": 2567,
      "singapore": 2568,
      "tell": 2569,
      "thr": 2570,
      "parli": 2571,
      ".'": 2572,
      "ained": 2573,
      "nokia": 2574,
      "counter": 2575,
      "cro": 2576,
      "inde": 2577,
      "fort": 2578,
      "fly": 2579,
      "detro": 2580,
      "provide": 2581,
      "dutch": 2582,
      "parliament": 2583,
      "jaf": 2584,
      "launches": 2585,
      "tourn": 2586,
      "sett": 2587,
      "johns": 2588,
      "democratic": 2589,
      "detroit": 2590,
      "decided": 2591,
      "hundreds": 2592,
      "december": 2593,
      "runs": 2594,
      "hl": 2595,
      "ert": 2596,
      "anium": 2597,
      "securities": 2598,
      "inning": 2599,
      "improve": 2600,
      "lic": 2601,
      "advert": 2602,
      "cbs": 2603,
      "sites": 2604,
      "itive": 2605,
      "officer": 2606,
      "seeks": 2607,
      "ald": 2608,
      "shr": 2609,
      "statement": 2610,
      "cas": 2611,
      "du": 2612,
      "arriv": 2613,
      "iding": 2614,
      "italy": 2615,
      "debate": 2616,
      "cir": 2617,
      "newsp": 2618,
      "experts": 2619,
      "regulators": 2620,
      "proposal": 2621,
      "di": 2622,
      "room": 2623,
      "moon": 2624,
      "proper": 2625,
      "boeing": 2626,
      "claimed": 2627,
      "enger": 2628,
      "ryder": 2629,
      "feder": 2630,
      "najaf": 2631,
      "separ": 2632,
      "singh": 2633,
      "turned": 2634,
      "sprint": 2635,
      "browser": 2636,
      "boss": 2637,
      "enterprise": 2638,
      "approved": 2639,
      "irel": 2640,
      "jum": 2641,
      "seed": 2642,
      "ption": 2643,
      "holding": 2644,
      "blood": 2645,
      "wis": 2646,
      "medical": 2647,
      "drugs": 2648,
      "changes": 2649,
      "hall": 2650,
      "ula": 2651,
      "boy": 2652,
      "goes": 2653,
      "49": 2654,
      "porters": 2655,
      "golf": 2656,
      "crow": 2657,
      "icit": 2658,
      "militant": 2659,
      "given": 2660,
      "introduc": 2661,
      "employees": 2662,
      "celebr": 2663,
      "servers": 2664,
      "losses": 2665,
      "philadelphia": 2666,
      "protect": 2667,
      "fallujah": 2668,
      "60": 2669,
      "astros": 2670,
      "surv": 2671,
      "bn": 2672,
      "range": 2673,
      "islamic": 2674,
      "asked": 2675,
      "confirmed": 2676,
      "closer": 2677,
      "astron": 2678,
      "dre": 2679,
      "ural": 2680,
      "log": 2681,
      "resign": 2682,
      "acquis": 2683,
      "safety": 2684,
      "blow": 2685,
      "resum": 2686,
      "ukrain": 2687,
      "ireland": 2688,
      "rem": 2689,
      "johnson": 2690,
      "prize": 2691,
      "aks": 2692,
      "ather": 2693,
      "nasdaq": 2694,
      "illa": 2695,
      "ceed": 2696,
      "taiwan": 2697,
      "mel": 2698,
      "effect": 2699,
      "factor": 2700,
      "raf": 2701,
      "rav": 2702,
      "playing": 2703,
      "forward": 2704,
      "code": 2705,
      "brown": 2706,
      "prep": 2707,
      "pair": 2708,
      "ually": 2709,
      "iving": 2710,
      "medi": 2711,
      "losing": 2712,
      "envir": 2713,
      "spir": 2714,
      "avoid": 2715,
      "unveiled": 2716,
      "chel": 2717,
      "slight": 2718,
      "note": 2719,
      "rocket": 2720,
      "role": 2721,
      "lu": 2722,
      "mut": 2723,
      "pound": 2724,
      "upgr": 2725,
      "environ": 2726,
      "scand": 2727,
      "generation": 2728,
      ";,": 2729,
      "rebound": 2730,
      "fifth": 2731,
      "tournament": 2732,
      "urged": 2733,
      "appear": 2734,
      "hat": 2735,
      "cleric": 2736,
      "disney": 2737,
      "ranked": 2738,
      "improv": 2739,
      "technologies": 2740,
      "brief": 2741,
      "tight": 2742,
      "agree": 2743,
      "hostages": 2744,
      "mary": 2745,
      "woods": 2746,
      "debut": 2747,
      "jects": 2748,
      "ribut": 2749,
      "seek": 2750,
      "think": 2751,
      "mos": 2752,
      "applications": 2753,
      "oh": 2754,
      "equipment": 2755,
      "finish": 2756,
      "putin": 2757,
      "lawy": 2758,
      "later": 2759,
      "zen": 2760,
      "along": 2761,
      "rev": 2762,
      "detail": 2763,
      "create": 2764,
      "ien": 2765,
      "mich": 2766,
      "rises": 2767,
      "deliver": 2768,
      "fel": 2769,
      "uge": 2770,
      "assin": 2771,
      "mw": 2772,
      "commerc": 2773,
      "mill": 2774,
      "bron": 2775,
      "brid": 2776,
      "kash": 2777,
      "weight": 2778,
      "opened": 2779,
      "differ": 2780,
      "witness": 2781,
      "ered": 2782,
      "ering": 2783,
      "warns": 2784,
      "jets": 2785,
      "added": 2786,
      "serious": 2787,
      "2003": 2788,
      "flu": 2789,
      "posts": 2790,
      "vention": 2791,
      "film": 2792,
      "lot": 2793,
      "meas": 2794,
      "wanted": 2795,
      "average": 2796,
      "appeal": 2797,
      "kashmir": 2798,
      "ni": 2799,
      "rum": 2800,
      "offensive": 2801,
      "standard": 2802,
      "accounting": 2803,
      "mort": 2804,
      "model": 2805,
      "athlet": 2806,
      "broadband": 2807,
      "kidnapped": 2808,
      "played": 2809,
      "summer": 2810,
      "retire": 2811,
      "mike": 2812,
      "victim": 2813,
      "err": 2814,
      "marke": 2815,
      "gents": 2816,
      "increased": 2817,
      "lish": 2818,
      "pool": 2819,
      "bol": 2820,
      "rick": 2821,
      "streak": 2822,
      "iro": 2823,
      "pled": 2824,
      "joint": 2825,
      "bonds": 2826,
      "commercial": 2827,
      "falls": 2828,
      "sources": 2829,
      "director": 2830,
      "bul": 2831,
      "spar": 2832,
      "course": 2833,
      "insurgents": 2834,
      "organization": 2835,
      "via": 2836,
      "hurt": 2837,
      "acquire": 2838,
      "patri": 2839,
      "pace": 2840,
      "patch": 2841,
      "icks": 2842,
      "entertain": 2843,
      "chain": 2844,
      "millions": 2845,
      "depend": 2846,
      "itional": 2847,
      "greece": 2848,
      "mix": 2849,
      "minnes": 2850,
      "assa": 2851,
      "jet": 2852,
      "wounded": 2853,
      "pilots": 2854,
      "spokesman": 2855,
      "apping": 2856,
      "indonesia": 2857,
      "minnesota": 2858,
      "vin": 2859,
      "why": 2860,
      "border": 2861,
      "gives": 2862,
      "kept": 2863,
      "tegr": 2864,
      "colum": 2865,
      "follow": 2866,
      "flood": 2867,
      "mortg": 2868,
      ".\"": 2869,
      "non": 2870,
      "nhl": 2871,
      "moves": 2872,
      "asters": 2873,
      "stage": 2874,
      "accept": 2875,
      "flat": 2876,
      "steve": 2877,
      "guil": 2878,
      "hus": 2879,
      "ively": 2880,
      "confidence": 2881,
      "turkey": 2882,
      "environment": 2883,
      "cross": 2884,
      "citing": 2885,
      "pain": 2886,
      "virus": 2887,
      "ifying": 2888,
      "prosecut": 2889,
      "march": 2890,
      "crimin": 2891,
      "buil": 2892,
      "dra": 2893,
      "single": 2894,
      "famil": 2895,
      "received": 2896,
      "virginia": 2897,
      "talk": 2898,
      "hoc": 2899,
      "save": 2900,
      "dod": 2901,
      "forced": 2902,
      "evidence": 2903,
      "gri": 2904,
      "ena": 2905,
      "airport": 2906,
      "missed": 2907,
      "advanced": 2908,
      "didn": 2909,
      "ilities": 2910,
      "suits": 2911,
      "finals": 2912,
      "huge": 2913,
      "doub": 2914,
      "funds": 2915,
      "suspended": 2916,
      "70": 2917,
      "rating": 2918,
      "plat": 2919,
      "having": 2920,
      "ibility": 2921,
      "chelsea": 2922,
      "lay": 2923,
      "toll": 2924,
      "uting": 2925,
      "bert": 2926,
      "jose": 2927,
      "explor": 2928,
      "dick": 2929,
      "copy": 2930,
      "lywood": 2931,
      "related": 2932,
      "carry": 2933,
      "competit": 2934,
      "decline": 2935,
      "distribut": 2936,
      "successful": 2937,
      "fla": 2938,
      "vehic": 2939,
      "coal": 2940,
      "memory": 2941,
      "voters": 2942,
      "continues": 2943,
      "sit": 2944,
      "seeking": 2945,
      "diplo": 2946,
      "total": 2947,
      "washingtonpost": 2948,
      "justice": 2949,
      "doesn": 2950,
      "remains": 2951,
      "homes": 2952,
      "tennis": 2953,
      "gm": 2954,
      "july": 2955,
      "illing": 2956,
      "device": 2957,
      "winner": 2958,
      "guilty": 2959,
      "stone": 2960,
      "ances": 2961,
      "files": 2962,
      "closed": 2963,
      "tiger": 2964,
      "aland": 2965,
      "raise": 2966,
      "banks": 2967,
      "bin": 2968,
      "panel": 2969,
      "oak": 2970,
      "anim": 2971,
      "uled": 2972,
      "bles": 2973,
      "ruled": 2974,
      "cardinals": 2975,
      "murder": 2976,
      "dispute": 2977,
      "yen": 2978,
      "supreme": 2979,
      "nn": 2980,
      "zone": 2981,
      "uries": 2982,
      "homer": 2983,
      "settlement": 2984,
      "jump": 2985,
      "ought": 2986,
      "january": 2987,
      "thanks": 2988,
      "nextel": 2989,
      "explosion": 2990,
      "orney": 2991,
      "sem": 2992,
      "aces": 2993,
      "owners": 2994,
      "attorney": 2995,
      "sharing": 2996,
      "korean": 2997,
      "protection": 2998,
      "kick": 2999,
      "anch": 3000,
      "reason": 3001,
      "bey": 3002,
      "howard": 3003,
      "missile": 3004,
      "deficit": 3005,
      "processor": 3006,
      "mexico": 3007,
      "cher": 3008,
      "expects": 3009,
      "futures": 3010,
      "acquisition": 3011,
      "started": 3012,
      "electronic": 3013,
      "spanish": 3014,
      "philipp": 3015,
      "spect": 3016,
      "proposed": 3017,
      "minutes": 3018,
      "crew": 3019,
      "itunes": 3020,
      "ctic": 3021,
      "disappoint": 3022,
      "committee": 3023,
      "scandal": 3024,
      "kans": 3025,
      "zz": 3026,
      "core": 3027,
      "electric": 3028,
      "broker": 3029,
      "increasing": 3030,
      "atives": 3031,
      "mars": 3032,
      "below": 3033,
      "hollywood": 3034,
      "uts": 3035,
      "brand": 3036,
      "bot": 3037,
      "worries": 3038,
      "holds": 3039,
      "senate": 3040,
      "approach": 3041,
      "fic": 3042,
      "vend": 3043,
      "integr": 3044,
      "apparent": 3045,
      "sanctions": 3046,
      "docu": 3047,
      "31": 3048,
      "ju": 3049,
      "smart": 3050,
      "represent": 3051,
      "teen": 3052,
      "secure": 3053,
      "intell": 3054,
      "solar": 3055,
      "entertainment": 3056,
      "bry": 3057,
      "newsfactor": 3058,
      "karz": 3059,
      "leaving": 3060,
      "science": 3061,
      "deploy": 3062,
      "freed": 3063,
      "weather": 3064,
      "struction": 3065,
      "fis": 3066,
      "tered": 3067,
      "irish": 3068,
      "poor": 3069,
      "calling": 3070,
      "lev": 3071,
      "interim": 3072,
      "easy": 3073,
      "eda": 3074,
      "ushing": 3075,
      "these": 3076,
      "igan": 3077,
      "beating": 3078,
      "loc": 3079,
      "abul": 3080,
      "classic": 3081,
      "karzai": 3082,
      "weigh": 3083,
      "powell": 3084,
      "threatened": 3085,
      "zealand": 3086,
      "movie": 3087,
      "crack": 3088,
      "headed": 3089,
      "potential": 3090,
      "screen": 3091,
      "gor": 3092,
      "sir": 3093,
      "diplomat": 3094,
      "intellig": 3095,
      "catch": 3096,
      "carol": 3097,
      "supplies": 3098,
      "kansas": 3099,
      "concern": 3100,
      "masters": 3101,
      "irl": 3102,
      "tran": 3103,
      "shopping": 3104,
      "kong": 3105,
      "song": 3106,
      "illegal": 3107,
      "ada": 3108,
      "parts": 3109,
      "venture": 3110,
      "rule": 3111,
      "thin": 3112,
      "idents": 3113,
      "cab": 3114,
      "mun": 3115,
      "alex": 3116,
      "gency": 3117,
      "tem": 3118,
      "warner": 3119,
      "offered": 3120,
      "fish": 3121,
      "init": 3122,
      "aircraft": 3123,
      "firefox": 3124,
      "aring": 3125,
      "buying": 3126,
      "needs": 3127,
      "application": 3128,
      "orders": 3129,
      "hong": 3130,
      "invent": 3131,
      "whose": 3132,
      "thought": 3133,
      "rust": 3134,
      "infr": 3135,
      "armed": 3136,
      "confl": 3137,
      "replac": 3138,
      "colo": 3139,
      "embass": 3140,
      "scri": 3141,
      "hamas": 3142,
      "slightly": 3143,
      "aol": 3144,
      "andy": 3145,
      "heat": 3146,
      "inflation": 3147,
      ".\\": 3148,
      "atory": 3149,
      "kei": 3150,
      "sharply": 3151,
      "eye": 3152,
      "terrorist": 3153,
      "newspaper": 3154,
      "fair": 3155,
      "ention": 3156,
      "donald": 3157,
      "rejected": 3158,
      "mad": 3159,
      "iment": 3160,
      "progress": 3161,
      "targets": 3162,
      "questions": 3163,
      "broadcast": 3164,
      "300": 3165,
      "cable": 3166,
      "icon": 3167,
      "carrier": 3168,
      "names": 3169,
      "dream": 3170,
      "buc": 3171,
      "sky": 3172,
      "kee": 3173,
      "stewart": 3174,
      "formula": 3175,
      "dropped": 3176,
      "initial": 3177,
      "stro": 3178,
      "45": 3179,
      "nl": 3180,
      "arms": 3181,
      "sector": 3182,
      "noon": 3183,
      "tests": 3184,
      "friend": 3185,
      "ariz": 3186,
      "returned": 3187,
      "eastern": 3188,
      "flaw": 3189,
      "common": 3190,
      "75": 3191,
      "kabul": 3192,
      "abu": 3193,
      "became": 3194,
      "jay": 3195,
      "james": 3196,
      "opec": 3197,
      "independ": 3198,
      "descri": 3199,
      "provider": 3200,
      "dolph": 3201,
      "mortgage": 3202,
      "iter": 3203,
      "refuge": 3204,
      "ukraine": 3205,
      "dall": 3206,
      "qaeda": 3207,
      "64": 3208,
      "si": 3209,
      "oul": 3210,
      "pcs": 3211,
      "favor": 3212,
      "patriots": 3213,
      "ki": 3214,
      "ift": 3215,
      "prix": 3216,
      "histor": 3217,
      "sadr": 3218,
      "ender": 3219,
      "nigeria": 3220,
      "oakland": 3221,
      "quake": 3222,
      "udi": 3223,
      "nyse": 3224,
      "eagles": 3225,
      "hockey": 3226,
      "moving": 3227,
      "tonight": 3228,
      "highest": 3229,
      "voting": 3230,
      "important": 3231,
      "predict": 3232,
      "var": 3233,
      "ically": 3234,
      ";.": 3235,
      "hack": 3236,
      "sty": 3237,
      "usal": 3238,
      "mets": 3239,
      "ali": 3240,
      "elder": 3241,
      "result": 3242,
      "problem": 3243,
      "shareholders": 3244,
      "assault": 3245,
      "carolina": 3246,
      "jack": 3247,
      "lose": 3248,
      "saw": 3249,
      "prior": 3250,
      "needed": 3251,
      "ohio": 3252,
      "nik": 3253,
      "bob": 3254,
      "phy": 3255,
      "signific": 3256,
      "kings": 3257,
      "initi": 3258,
      "lift": 3259,
      "knoc": 3260,
      "challeng": 3261,
      "built": 3262,
      "nic": 3263,
      "nav": 3264,
      "amaz": 3265,
      "passes": 3266,
      "recently": 3267,
      "index": 3268,
      ";-": 3269,
      "iring": 3270,
      "rian": 3271,
      "cru": 3272,
      "count": 3273,
      "auction": 3274,
      "oney": 3275,
      "msn": 3276,
      "ients": 3277,
      "premier": 3278,
      "kne": 3279,
      "subs": 3280,
      "wait": 3281,
      "candidate": 3282,
      "uranium": 3283,
      "bull": 3284,
      "ivory": 3285,
      "frank": 3286,
      "relief": 3287,
      "practice": 3288,
      "christmas": 3289,
      "fc": 3290,
      "ova": 3291,
      "agu": 3292,
      "withdraw": 3293,
      "trust": 3294,
      "haiti": 3295,
      "ministry": 3296,
      "bombing": 3297,
      "tools": 3298,
      "dolphins": 3299,
      "mou": 3300,
      "phis": 3301,
      "wing": 3302,
      "ads": 3303,
      "rial": 3304,
      "prepar": 3305,
      "mith": 3306,
      "apol": 3307,
      "although": 3308,
      ",\\": 3309,
      "cards": 3310,
      "sending": 3311,
      "iders": 3312,
      "scheduled": 3313,
      "intelligence": 3314,
      "embassy": 3315,
      ".&": 3316,
      "ku": 3317,
      "live": 3318,
      "pension": 3319,
      "vill": 3320,
      "enron": 3321,
      "optim": 3322,
      "bombs": 3323,
      "michigan": 3324,
      "gal": 3325,
      "iny": 3326,
      "gery": 3327,
      "longer": 3328,
      "65": 3329,
      "aa": 3330,
      "mine": 3331,
      "sans": 3332,
      "tie": 3333,
      "promot": 3334,
      "haw": 3335,
      "liver": 3336,
      "type": 3337,
      "volution": 3338,
      "dallas": 3339,
      "mour": 3340,
      "sbc": 3341,
      "thail": 3342,
      "ane": 3343,
      "hoping": 3344,
      "brought": 3345,
      "cape": 3346,
      "royal": 3347,
      "request": 3348,
      "linked": 3349,
      "breaking": 3350,
      "negotiations": 3351,
      "marketing": 3352,
      "toge": 3353,
      "impact": 3354,
      "surge": 3355,
      "spacecraft": 3356,
      "aut": 3357,
      "bour": 3358,
      "cies": 3359,
      "merck": 3360,
      "together": 3361,
      "55": 3362,
      "deep": 3363,
      "immedi": 3364,
      "consecut": 3365,
      "sharp": 3366,
      "telecom": 3367,
      "thailand": 3368,
      "consecutive": 3369,
      "90": 3370,
      "jean": 3371,
      "surgery": 3372,
      "features": 3373,
      "oles": 3374,
      "shock": 3375,
      "burgh": 3376,
      "kid": 3377,
      "defe": 3378,
      "oting": 3379,
      "abd": 3380,
      "stars": 3381,
      "tack": 3382,
      "liber": 3383,
      "developed": 3384,
      "issued": 3385,
      "training": 3386,
      "cia": 3387,
      "eth": 3388,
      "girl": 3389,
      "sant": 3390,
      "yard": 3391,
      "intend": 3392,
      "publish": 3393,
      "begins": 3394,
      "programs": 3395,
      "strategy": 3396,
      "hon": 3397,
      "ii": 3398,
      "uster": 3399,
      "worldwide": 3400,
      "planning": 3401,
      "striker": 3402,
      "jav": 3403,
      "innings": 3404,
      "marsh": 3405,
      "jeff": 3406,
      "trip": 3407,
      "beaten": 3408,
      "hostile": 3409,
      "ariel": 3410,
      "figures": 3411,
      "significant": 3412,
      "iar": 3413,
      "mind": 3414,
      "requ": 3415,
      "idel": 3416,
      "ains": 3417,
      "spyware": 3418,
      "vice": 3419,
      "bling": 3420,
      "danger": 3421,
      "eyes": 3422,
      "different": 3423,
      "swed": 3424,
      "cool": 3425,
      "angels": 3426,
      "appeared": 3427,
      "passed": 3428,
      "deadline": 3429,
      "manufactur": 3430,
      "spl": 3431,
      "veter": 3432,
      "interview": 3433,
      "virtu": 3434,
      "bir": 3435,
      "gary": 3436,
      "stun": 3437,
      "isn": 3438,
      "venez": 3439,
      "izon": 3440,
      "dana": 3441,
      "unveils": 3442,
      "controversial": 3443,
      "venezuel": 3444,
      ",\"": 3445,
      "ebay": 3446,
      "fit": 3447,
      "mig": 3448,
      "himself": 3449,
      "hous": 3450,
      "forms": 3451,
      "output": 3452,
      "computing": 3453,
      "lands": 3454,
      "planes": 3455,
      "lawsuits": 3456,
      "cubs": 3457,
      "gul": 3458,
      "voy": 3459,
      "saudi": 3460,
      "afternoon": 3461,
      "steps": 3462,
      "martin": 3463,
      "novell": 3464,
      "pitts": 3465,
      "mixed": 3466,
      "ding": 3467,
      "andre": 3468,
      "mean": 3469,
      "patent": 3470,
      "graph": 3471,
      "words": 3472,
      "hew": 3473,
      "raises": 3474,
      "session": 3475,
      "things": 3476,
      "ery": 3477,
      "itzer": 3478,
      "acts": 3479,
      "igning": 3480,
      "plays": 3481,
      "reduce": 3482,
      "cyber": 3483,
      "books": 3484,
      "soldier": 3485,
      "facing": 3486,
      "clevel": 3487,
      "recovery": 3488,
      "cleveland": 3489,
      "aw": 3490,
      "ee": 3491,
      "paid": 3492,
      "gn": 3493,
      "sey": 3494,
      "ctors": 3495,
      "heim": 3496,
      "airbus": 3497,
      "buys": 3498,
      "budget": 3499,
      "sadd": 3500,
      "thom": 3501,
      "threw": 3502,
      "semic": 3503,
      "const": 3504,
      "worst": 3505,
      "onduct": 3506,
      "published": 3507,
      "hotel": 3508,
      "advertising": 3509,
      "semiconduct": 3510,
      "gate": 3511,
      "lack": 3512,
      "alter": 3513,
      "istic": 3514,
      "struck": 3515,
      "caused": 3516,
      "blog": 3517,
      "struggling": 3518,
      "pacific": 3519,
      "arial": 3520,
      "plot": 3521,
      "flash": 3522,
      "damage": 3523,
      "subsid": 3524,
      "iod": 3525,
      "enrich": 3526,
      "convention": 3527,
      "indic": 3528,
      "collect": 3529,
      "wrong": 3530,
      "ification": 3531,
      "approval": 3532,
      "instead": 3533,
      "orig": 3534,
      "roger": 3535,
      "pakistani": 3536,
      "cra": 3537,
      "expos": 3538,
      "rent": 3539,
      "revealed": 3540,
      "pittsburgh": 3541,
      "theast": 3542,
      "vetic": 3543,
      "verdana": 3544,
      "plus": 3545,
      "serif": 3546,
      "period": 3547,
      "helvetic": 3548,
      "=\"#": 3549,
      "=\"-": 3550,
      "producer": 3551,
      "complete": 3552,
      "climate": 3553,
      "666666": 3554,
      "helvetica": 3555,
      "argent": 3556,
      "termin": 3557,
      "goals": 3558,
      "image": 3559,
      "prince": 3560,
      "surprise": 3561,
      "38": 3562,
      "dail": 3563,
      "tig": 3564,
      "eli": 3565,
      "viox": 3566,
      "respons": 3567,
      "vioxx": 3568,
      "bing": 3569,
      "smith": 3570,
      "estic": 3571,
      "backed": 3572,
      "industrial": 3573,
      "greek": 3574,
      "massive": 3575,
      "jerusal": 3576,
      "manufacturing": 3577,
      "delayed": 3578,
      "jerusalem": 3579,
      "nar": 3580,
      "smo": 3581,
      "wish": 3582,
      "wake": 3583,
      "apolis": 3584,
      "daily": 3585,
      "sound": 3586,
      "beck": 3587,
      "alliance": 3588,
      "moz": 3589,
      "opens": 3590,
      "word": 3591,
      "warming": 3592,
      "cutting": 3593,
      "summit": 3594,
      "retailers": 3595,
      "critical": 3596,
      "republican": 3597,
      "federer": 3598,
      "atom": 3599,
      "withdra": 3600,
      "advance": 3601,
      "troubled": 3602,
      "knee": 3603,
      "ires": 3604,
      "traff": 3605,
      "ansion": 3606,
      "subscri": 3607,
      "ordered": 3608,
      "cks": 3609,
      "opport": 3610,
      "mushar": 3611,
      "gra": 3612,
      "nintend": 3613,
      "itself": 3614,
      "unity": 3615,
      "musharraf": 3616,
      "pent": 3617,
      "pga": 3618,
      "cars": 3619,
      "decades": 3620,
      "helping": 3621,
      "details": 3622,
      "arizona": 3623,
      "defin": 3624,
      "tops": 3625,
      "extended": 3626,
      "estimates": 3627,
      "nintendo": 3628,
      "jacks": 3629,
      "vul": 3630,
      "owner": 3631,
      "cul": 3632,
      "terms": 3633,
      "setting": 3634,
      "prevent": 3635,
      "positive": 3636,
      "decade": 3637,
      "operator": 3638,
      "mers": 3639,
      "story": 3640,
      "leban": 3641,
      "bears": 3642,
      "surpr": 3643,
      "cd": 3644,
      "fan": 3645,
      "jim": 3646,
      "mr": 3647,
      "lee": 3648,
      "delhi": 3649,
      "victims": 3650,
      "historic": 3651,
      "cause": 3652,
      "minute": 3653,
      "feel": 3654,
      "ashed": 3655,
      "ministers": 3656,
      "malays": 3657,
      "cingular": 3658,
      "bably": 3659,
      "stan": 3660,
      "roman": 3661,
      "probably": 3662,
      "extra": 3663,
      "link": 3664,
      "heads": 3665,
      "scott": 3666,
      "gather": 3667,
      "domestic": 3668,
      "machines": 3669,
      "pulled": 3670,
      "dney": 3671,
      "ov": 3672,
      "uation": 3673,
      "sydney": 3674,
      "miles": 3675,
      "rangers": 3676,
      "ook": 3677,
      "ero": 3678,
      "trophy": 3679,
      "racing": 3680,
      "platform": 3681,
      "saddam": 3682,
      "33": 3683,
      "income": 3684,
      "erson": 3685,
      "moment": 3686,
      "something": 3687,
      "puts": 3688,
      "showing": 3689,
      "introduced": 3690,
      "done": 3691,
      "rare": 3692,
      "spread": 3693,
      "clinch": 3694,
      "sung": 3695,
      "planet": 3696,
      "score": 3697,
      "switch": 3698,
      "replace": 3699,
      "itution": 3700,
      "finds": 3701,
      "nikkei": 3702,
      "erial": 3703,
      "laho": 3704,
      "2000": 3705,
      "community": 3706,
      "itz": 3707,
      "convict": 3708,
      "testing": 3709,
      "species": 3710,
      "keeping": 3711,
      "wil": 3712,
      "hole": 3713,
      "raising": 3714,
      "cancer": 3715,
      "highs": 3716,
      "regular": 3717,
      "walk": 3718,
      "deadly": 3719,
      "demands": 3720,
      "numbers": 3721,
      "liverpool": 3722,
      "pie": 3723,
      "penn": 3724,
      "upd": 3725,
      "clip": 3726,
      "flights": 3727,
      "option": 3728,
      "criminal": 3729,
      "heating": 3730,
      "typho": 3731,
      "falling": 3732,
      "piracy": 3733,
      "41": 3734,
      "ung": 3735,
      "arta": 3736,
      "inside": 3737,
      "opener": 3738,
      "returns": 3739,
      "conflict": 3740,
      "semiconductor": 3741,
      "jackson": 3742,
      "fann": 3743,
      "renew": 3744,
      "toy": 3745,
      "rook": 3746,
      "lett": 3747,
      "imir": 3748,
      "owed": 3749,
      "pitcher": 3750,
      "touchdowns": 3751,
      "bury": 3752,
      "dame": 3753,
      "mand": 3754,
      "antit": 3755,
      "48": 3756,
      "vlad": 3757,
      "advis": 3758,
      "spent": 3759,
      "notre": 3760,
      "profession": 3761,
      "benefits": 3762,
      "admit": 3763,
      "iet": 3764,
      "century": 3765,
      "links": 3766,
      "expansion": 3767,
      "developing": 3768,
      "beginning": 3769,
      "believe": 3770,
      "fannie": 3771,
      "(\\$": 3772,
      "plc": 3773,
      "berg": 3774,
      "flag": 3775,
      "tribut": 3776,
      "purchase": 3777,
      "oppon": 3778,
      "teh": 3779,
      "pose": 3780,
      "forest": 3781,
      "broke": 3782,
      "jak": 3783,
      "anticip": 3784,
      "conduct": 3785,
      "richard": 3786,
      "ci": 3787,
      "fill": 3788,
      "tosh": 3789,
      "discovered": 3790,
      "hands": 3791,
      "appears": 3792,
      "watchdog": 3793,
      "message": 3794,
      "arrived": 3795,
      "):": 3796,
      "anger": 3797,
      "ato": 3798,
      "verizon": 3799,
      "utah": 3800,
      "abs": 3801,
      "strikes": 3802,
      "commerce": 3803,
      "demon": 3804,
      "heading": 3805,
      "diego": 3806,
      "scor": 3807,
      "ences": 3808,
      "hurricanes": 3809,
      "skins": 3810,
      "tehran": 3811,
      "cs": 3812,
      "jason": 3813,
      "rout": 3814,
      "inet": 3815,
      "lows": 3816,
      "assist": 3817,
      "iraqis": 3818,
      "appers": 3819,
      "adds": 3820,
      "extend": 3821,
      "glades": 3822,
      "gia": 3823,
      "alla": 3824,
      "slide": 3825,
      "aims": 3826,
      "wrap": 3827,
      "associated": 3828,
      "bryant": 3829,
      "vladimir": 3830,
      "ele": 3831,
      "joy": 3832,
      "banglades": 3833,
      "english": 3834,
      "handheld": 3835,
      "value": 3836,
      "resolution": 3837,
      "dat": 3838,
      "records": 3839,
      "scot": 3840,
      "morrow": 3841,
      "distr": 3842,
      "polls": 3843,
      "fiscal": 3844,
      "kaz": 3845,
      "cow": 3846,
      "webs": 3847,
      "bridge": 3848,
      "bon": 3849,
      "inal": 3850,
      "shell": 3851,
      "ensions": 3852,
      "fielder": 3853,
      "izing": 3854,
      "dram": 3855,
      "threats": 3856,
      "vulner": 3857,
      "annan": 3858,
      "filing": 3859,
      "students": 3860,
      "remained": 3861,
      "dodgers": 3862,
      "amazon": 3863,
      "pip": 3864,
      "tomorrow": 3865,
      "announces": 3866,
      "penal": 3867,
      "moder": 3868,
      "seconds": 3869,
      "witt": 3870,
      "living": 3871,
      "zim": 3872,
      "unions": 3873,
      "cruc": 3874,
      "timore": 3875,
      "capt": 3876,
      "slam": 3877,
      "baltimore": 3878,
      "falluja": 3879,
      "typhoon": 3880,
      "34": 3881,
      "nast": 3882,
      "ultim": 3883,
      "sue": 3884,
      "phill": 3885,
      "corporation": 3886,
      "nin": 3887,
      "tum": 3888,
      "agent": 3889,
      "detain": 3890,
      "iba": 3891,
      "assets": 3892,
      "neigh": 3893,
      "quit": 3894,
      "boys": 3895,
      "microsystems": 3896,
      "starts": 3897,
      "options": 3898,
      "hewlett": 3899,
      "iled": 3900,
      "colin": 3901,
      "urges": 3902,
      "nothing": 3903,
      "viet": 3904,
      "votes": 3905,
      "voice": 3906,
      "install": 3907,
      "silver": 3908,
      "indonesian": 3909,
      "mozilla": 3910,
      "eigh": 3911,
      "kind": 3912,
      "oust": 3913,
      "ador": 3914,
      "portable": 3915,
      "format": 3916,
      "telephone": 3917,
      "montreal": 3918,
      "witnesses": 3919,
      "tha": 3920,
      "amed": 3921,
      "tried": 3922,
      "beats": 3923,
      "traders": 3924,
      "forecasts": 3925,
      "silicon": 3926,
      "june": 3927,
      "antitrust": 3928,
      "banking": 3929,
      "defence": 3930,
      "holdings": 3931,
      "rush": 3932,
      "spur": 3933,
      "offense": 3934,
      "gov": 3935,
      "doctors": 3936,
      "burg": 3937,
      "packard": 3938,
      "greenspan": 3939,
      "shuttle": 3940,
      "gates": 3941,
      "wol": 3942,
      "restruct": 3943,
      "ola": 3944,
      "deals": 3945,
      "upset": 3946,
      "print": 3947,
      "province": 3948,
      "driver": 3949,
      "samsung": 3950,
      "resume": 3951,
      "master": 3952,
      "residents": 3953,
      "exports": 3954,
      "hewitt": 3955,
      "regist": 3956,
      "fastest": 3957,
      "leaves": 3958,
      "explorer": 3959,
      "gulf": 3960,
      "user": 3961,
      "trail": 3962,
      "perfect": 3963,
      "handed": 3964,
      "georgia": 3965,
      "qualifying": 3966,
      "placed": 3967,
      "kel": 3968,
      "manning": 3969,
      "seventh": 3970,
      "material": 3971,
      "treasury": 3972,
      "rookie": 3973,
      "las": 3974,
      "lank": 3975,
      "iles": 3976,
      "une": 3977,
      "wards": 3978,
      "address": 3979,
      "reportedly": 3980,
      "nascar": 3981,
      "sixth": 3982,
      "braves": 3983,
      "considering": 3984,
      "colorado": 3985,
      "cabinet": 3986,
      "jakarta": 3987,
      "mits": 3988,
      "ws": 3989,
      "pric": 3990,
      "twice": 3991,
      "defensive": 3992,
      "atlantic": 3993,
      "announcement": 3994,
      "familiar": 3995,
      "toshiba": 3996,
      "lon": 3997,
      "rall": 3998,
      "petro": 3999,
      "reduc": 4000,
      "sudanese": 4001,
      "exploded": 4002,
      "lets": 4003,
      "display": 4004,
      "2002": 4005,
      "string": 4006,
      "speech": 4007,
      "bills": 4008,
      "blasts": 4009,
      "wounding": 4010,
      "strength": 4011,
      "java": 4012,
      "tigers": 4013,
      "sie": 4014,
      "beach": 4015,
      "clar": 4016,
      "marath": 4017,
      "changed": 4018,
      "upgrade": 4019,
      "traffic": 4020,
      "contr": 4021,
      "proto": 4022,
      "quarters": 4023,
      "speak": 4024,
      "levels": 4025,
      "enrichment": 4026,
      "ule": 4027,
      "theft": 4028,
      "mae": 4029,
      "advant": 4030,
      "democracy": 4031,
      "copyright": 4032,
      "faster": 4033,
      "gear": 4034,
      "native": 4035,
      "zens": 4036,
      "arctic": 4037,
      "alan": 4038,
      "oklaho": 4039,
      "standing": 4040,
      "sels": 4041,
      "selves": 4042,
      "hawks": 4043,
      "partner": 4044,
      "dozens": 4045,
      "zimbab": 4046,
      "marathon": 4047,
      "sens": 4048,
      "becoming": 4049,
      "crim": 4050,
      "bern": 4051,
      "salv": 4052,
      "saturn": 4053,
      "managers": 4054,
      "oklahoma": 4055,
      "oping": 4056,
      "halt": 4057,
      "solid": 4058,
      "roddick": 4059,
      "zimbabwe": 4060,
      "zar": 4061,
      "repe": 4062,
      "really": 4063,
      "allowed": 4064,
      "respond": 4065,
      "partnership": 4066,
      "coalition": 4067,
      "semif": 4068,
      "47": 4069,
      "ival": 4070,
      "pharm": 4071,
      "angu": 4072,
      "motors": 4073,
      "allegations": 4074,
      "candidates": 4075,
      "600": 4076,
      "sri": 4077,
      "text": 4078,
      "reform": 4079,
      "areas": 4080,
      "2001": 4081,
      "turns": 4082,
      "suffered": 4083,
      "drew": 4084,
      "jam": 4085,
      "sand": 4086,
      "table": 4087,
      "defending": 4088,
      "associates": 4089,
      "crowd": 4090,
      "700": 4091,
      "pad": 4092,
      "unexpected": 4093,
      "titan": 4094,
      "standards": 4095
    },
    "merges": [
      "i n",
      "t h",
      "e r",
      "a n",
      "o n",
      "r e",
      "s t",
      "th e",
      "o r",
      "a t",
      "e n",
      "e d",
      "a r",
      "a l",
      "e s",
      "t o",
      "in g",
      "i t",
      "o f",
      "a s",
      "i c",
      "i s",
      "r o",
      "l e",
      "a y",
      "o u",
      "an d",
      "i l",
      "i on",
      "c h",
      "s e",
      "i d",
      "t er",
      "c o",
      "a d",
      "f or",
      "e l",
      "a c",
      "a m",
      "en t",
      "i r",
      "u n",
      "n e",
      "u r",
      "d ay",
      "i g",
      "u s",
      "o l",
      "v e",
      "a p",
      "a g",
      "er s",
      "d e",
      "b e",
      "o t",
      "3 9",
      "il l",
      "l o",
      "co m",
      "i m",
      "t s",
      "v er",
      "c on",
      "q u",
      "u p",
      "p e",
      "re s",
      "w i",
      "u t",
      "at ion",
      "e st",
      "k e",
      "h o",
      "al l",
      "c e",
      "p l",
      "a f",
      "m o",
      "c t",
      "r i",
      "wi th",
      "p ro",
      "u l",
      "ig h",
      "o p",
      "ne w",
      "th at",
      "e x",
      "it s",
      "a re",
      "a b",
      "s h",
      "a in",
      "e ar",
      "a st",
      "o w",
      "e m",
      "s a",
      "ter s",
      "i st",
      "g e",
      "p r",
      "o m",
      "l d",
      "k s",
      "w or",
      "b y",
      "ou n",
      "t r",
      "l y",
      "h e",
      "i an",
      "s u",
      "w e",
      "s p",
      "o ver",
      "at e",
      "t e",
      "0 0",
      "m an",
      "u ters",
      "sa id",
      "a k",
      "ou t",
      "p o",
      "h as",
      "of f",
      "i a",
      "w h",
      "re uters",
      "ou r",
      "en d",
      "i es",
      "es s",
      "ro m",
      "m ent",
      "m on",
      "w as",
      "p or",
      "f rom",
      "igh t",
      "c l",
      "com p",
      "u st",
      "ac k",
      "m ar",
      "in d",
      "it y",
      "i f",
      "r a",
      "w ill",
      "h a",
      "ar d",
      "t w",
      "c or",
      "i e",
      "i v",
      "th er",
      "o c",
      "on e",
      "h is",
      "b o",
      "in e",
      "i p",
      ". .",
      "af ter",
      "qu ot",
      "es day",
      "s er",
      "i al",
      "i ve",
      "y ear",
      "f o",
      "l t",
      "u m",
      "re d",
      "f ir",
      "ar t",
      "p er",
      "f r",
      "p res",
      "g t",
      "ic e",
      "b l",
      "u g",
      "c r",
      "b r",
      "an t",
      "in ter",
      "ac e",
      "m e",
      "re e",
      "n o",
      "b er",
      "g o",
      "el l",
      "por t",
      "ou ld",
      "t a",
      "ol d",
      "l a",
      "an s",
      "un d",
      "ha ve",
      "in c",
      "m a",
      "b ut",
      "s of",
      "n ing",
      "ac t",
      "\\ $",
      "g ro",
      "u d",
      "a ir",
      "ill ion",
      "the ir",
      "lo w",
      "on g",
      "am p",
      "ne t",
      "m er",
      "p h",
      "comp an",
      "am e",
      "tw o",
      "ow n",
      "a v",
      "n ation",
      "j o",
      "a q",
      "at t",
      "t im",
      "as s",
      "id e",
      "t u",
      "er e",
      "fir st",
      "c ent",
      "i le",
      "id ent",
      "is h",
      "le ad",
      "m ic",
      "m in",
      "wor ld",
      "b us",
      "f in",
      "se c",
      "ion s",
      "ic k",
      "ig n",
      "w ed",
      "u e",
      "in t",
      "mo re",
      "ir aq",
      "o d",
      "we e",
      "an n",
      "ag e",
      "r y",
      "ay s",
      "o g",
      "- -",
      "n ot",
      "d is",
      "o k",
      "2 00",
      "ag ain",
      "s o",
      "or s",
      "f l",
      "u c",
      "in s",
      "f e",
      "a ch",
      "c an",
      "ic es",
      "as e",
      "g r",
      "t on",
      "st r",
      "b an",
      "th is",
      "t ing",
      "en s",
      "est er",
      "f i",
      "l i",
      "e u",
      "at es",
      "ur s",
      "pl ay",
      "s s",
      "o il",
      "c oun",
      "compan y",
      "b ack",
      "it e",
      "th an",
      "wor k",
      "id ay",
      "h el",
      "m is",
      "h igh",
      "mon day",
      "w ar",
      "pres ident",
      "s un",
      "wed n",
      "wedn esday",
      ".. .",
      "tu esday",
      "p ol",
      "f ul",
      "ar ch",
      "a u",
      "v en",
      "t ro",
      "re l",
      "p t",
      "th urs",
      "thurs day",
      "or y",
      "oun d",
      "l ar",
      "ic h",
      "st oc",
      "cor d",
      "i z",
      "g er",
      "i b",
      "ar y",
      "le ct",
      "m ed",
      "se t",
      "wee k",
      "b u",
      "mic ro",
      "ad e",
      "w ho",
      "en ce",
      "c ar",
      "again st",
      "ser v",
      "ke t",
      "fr iday",
      "d own",
      "ge t",
      "at ed",
      "s y",
      "in to",
      "re n",
      "it ed",
      "l and",
      "s ho",
      "l ast",
      "ve st",
      "fo re",
      "ation s",
      "p art",
      "se arch",
      "an ce",
      "w in",
      "k ill",
      "in vest",
      "m ak",
      "qu ar",
      "g h",
      "re port",
      "ou s",
      "the y",
      "re t",
      "er ic",
      "sof t",
      "m illion",
      "ab out",
      "off ic",
      "s c",
      "y or",
      "s al",
      "; /",
      "nation al",
      "l in",
      "yor k",
      "ur n",
      "an c",
      "pr of",
      "as on",
      "pe ct",
      "l ine",
      "s up",
      "all y",
      "quar ter",
      "eu ro",
      "tim e",
      "y ester",
      "yester day",
      "ic t",
      "l l",
      "e lect",
      "to p",
      "con d",
      "th ree",
      "ap p",
      "an g",
      "as h",
      "c k",
      "micro soft",
      "over n",
      "g ame",
      "b ro",
      "mis s",
      "in a",
      "op en",
      "w ere",
      "d es",
      "p re",
      "he ad",
      "it al",
      "m il",
      "st e",
      "o ther",
      "w ay",
      "min ist",
      "te ch",
      "al s",
      "sec ur",
      "g overn",
      "h ad",
      "te am",
      "s at",
      "p ar",
      "d o",
      "j e",
      "m s",
      "be en",
      "it ion",
      "t y",
      "gro up",
      "c ut",
      "n or",
      "a il",
      "g est",
      "om e",
      "cor p",
      "ab le",
      "am eric",
      "f our",
      "t al",
      "en g",
      "s ays",
      "r al",
      "g en",
      "d er",
      "u re",
      "ir d",
      "m ay",
      "mon th",
      "at ing",
      "offic ial",
      "c ap",
      "ri v",
      "se ason",
      "c ed",
      "un ited",
      "b all",
      "1 0",
      "ug h",
      "govern ment",
      "b s",
      "t ri",
      "wh en",
      "r is",
      "b el",
      "c ould",
      "er al",
      "as ed",
      "ne x",
      "o re",
      "s ur",
      "se cond",
      "stoc ks",
      "sun day",
      "pro v",
      "w ould",
      "s ou",
      "s l",
      "nex t",
      "secur ity",
      "quot e",
      "pr ices",
      "c y",
      "at ch",
      "re at",
      "ann oun",
      "us s",
      "de v",
      "on d",
      "euro pe",
      "re g",
      "h ing",
      "u ct",
      "b ig",
      "i re",
      "t est",
      "ch ar",
      "c ess",
      "f er",
      "d r",
      "pl an",
      "to day",
      "r ic",
      "year s",
      "s ome",
      "op le",
      "pe ople",
      "n s",
      "c all",
      "a z",
      "per cent",
      "ban k",
      "wh ich",
      "ful l",
      "lo s",
      "le g",
      "new s",
      "ol og",
      "mo st",
      "d el",
      "v i",
      "tw are",
      "af p",
      "a im",
      "re cord",
      "tr y",
      "in ess",
      "c our",
      "sof tware",
      "st em",
      "ic al",
      "pro d",
      "c al",
      "b ar",
      "w w",
      "bus iness",
      "n ight",
      "ic s",
      "p u",
      "m us",
      "r un",
      "s pe",
      "po s",
      "p al",
      "mil it",
      "g u",
      "br it",
      "de al",
      "ch amp",
      "th ird",
      "c er",
      "de f",
      "e f",
      "co l",
      "con t",
      "com m",
      "n ow",
      "p ed",
      "em ent",
      "t ar",
      "el y",
      "p ut",
      "ex pect",
      "a th",
      "st ate",
      "for m",
      "i x",
      "s ch",
      "und er",
      "o s",
      "a ust",
      "un ch",
      "e t",
      "inter net",
      "f ed",
      "po st",
      "sat ur",
      "satur day",
      "tech n",
      "ex p",
      "mar ket",
      "de c",
      "sy stem",
      "la w",
      "op er",
      "was hing",
      "t t",
      "ch ina",
      "v ict",
      "j ap",
      "washing ton",
      "v is",
      "jap an",
      "b illion",
      "ie f",
      "j ust",
      "w ard",
      "be t",
      "u k",
      "re le",
      "l ed",
      "h old",
      "ist s",
      "sal es",
      "bus h",
      "m p",
      "s co",
      "c es",
      "minist er",
      "p ow",
      "f all",
      "ing s",
      "ta ke",
      "re f",
      "s an",
      "le ar",
      "gro w",
      "b le",
      "ag re",
      "e con",
      "ur ing",
      "g ian",
      "en ter",
      "r uss",
      "econ om",
      "aust ral",
      "st art",
      "pu bl",
      "sh ip",
      "ne ar",
      "techn olog",
      "il d",
      "full quote",
      "or t",
      "am es",
      "= \"",
      "ra el",
      "is rael",
      "200 4",
      "sp ace",
      "s ign",
      "s ay",
      "s en",
      "f t",
      "v ers",
      "m ain",
      "for mer",
      "l ong",
      "d ol",
      "bu y",
      "u ter",
      "prof it",
      "inter national",
      "h al",
      "la unch",
      "b om",
      "announ ced",
      "g ed",
      "m y",
      "e p",
      "us ed",
      "th ro",
      "s on",
      "on es",
      "ho me",
      "ke y",
      "h er",
      "i ed",
      "v ent",
      "m i",
      "comp uter",
      "t ed",
      "kill ed",
      "v ie",
      "re search",
      "se e",
      "sh a",
      "n er",
      "00 0",
      "l es",
      "j or",
      "es e",
      "ch ief",
      "ou gh",
      "d an",
      "ag o",
      "cour t",
      "ist an",
      "ol y",
      "im e",
      "t ak",
      "it ies",
      "h am",
      "t ain",
      "i ent",
      "c ity",
      "c lo",
      "pres s",
      "i o",
      "man ag",
      "st ri",
      "vict ory",
      "y ou",
      "com e",
      "official s",
      "le ag",
      "off er",
      "mak er",
      "c up",
      "h ou",
      "serv ice",
      "b re",
      "hel p",
      "b al",
      "lo ok",
      "ho st",
      "k ing",
      "ad d",
      "h it",
      "in ce",
      "l if",
      "pl ans",
      "k y",
      "ex e",
      "r on",
      "ac ks",
      "re ad",
      "st ates",
      "k er",
      "u ch",
      "report ed",
      "t le",
      "expect ed",
      "p ay",
      "sho w",
      "st on",
      "europe an",
      "c a",
      "el d",
      "we b",
      "g y",
      "be fore",
      "1 9",
      "w a",
      "americ an",
      "jo h",
      "ind ust",
      "pow er",
      "c u",
      "iv es",
      "b id",
      "r an",
      "fin al",
      "re st",
      "technolog y",
      "1 5",
      "l at",
      "sou th",
      "t it",
      "w on",
      "ma jor",
      "leag ue",
      "dol lar",
      "h and",
      "coun try",
      "champ ion",
      "sh ar",
      "be g",
      "c ast",
      "is e",
      "can ad",
      "tal ks",
      "net work",
      "man y",
      "oly mp",
      "h u",
      "tar get",
      "s us",
      "d ate",
      "st ar",
      "an ts",
      "ul t",
      "on line",
      "wh at",
      "ta il",
      "w al",
      "end ing",
      "v ir",
      "f ive",
      "k ed",
      "mo b",
      "m em",
      "w n",
      "h ur",
      "f il",
      "ter r",
      "go og",
      "publ ic",
      "exe cut",
      "dev el",
      "co ach",
      "cl aim",
      "ning s",
      "v es",
      "u al",
      "str ong",
      "2 0",
      "pal est",
      "brit ish",
      "te le",
      "lar gest",
      "bom b",
      "n as",
      "in ian",
      "ph one",
      "be at",
      "co st",
      "b lo",
      "at a",
      "palest inian",
      "sha res",
      "cont in",
      "the m",
      "ind ia",
      "ch e",
      "w ind",
      "mus ic",
      "h d",
      "ac cord",
      "b ag",
      "ma ke",
      "g old",
      "ment s",
      "l ing",
      "lo ss",
      "por ts",
      "fed eral",
      "m ot",
      "pr ime",
      "m or",
      "goog le",
      "ver y",
      "ric an",
      "u se",
      "h im",
      "p s",
      "w est",
      "ib m",
      "h ol",
      "in cl",
      "se ll",
      "thro ugh",
      "pol ice",
      "le ast",
      "h ar",
      "; ...",
      "miss ion",
      "ur y",
      ";... &",
      "de m",
      "d ro",
      "iraq i",
      "f ound",
      "elect ion",
      "ap pe",
      "\" &",
      "i um",
      "an other",
      "ick er",
      "1 1",
      "p ing",
      "lead er",
      "m ade",
      "ro und",
      "ac c",
      "e y",
      "s ing",
      "nor th",
      "s ix",
      "wh ile",
      "en n",
      "mob ile",
      "s w",
      "accord ing",
      "be c",
      "tr ad",
      "dr ug",
      "b a",
      "sp or",
      "inc re",
      "ex t",
      "v ot",
      "devel op",
      "g es",
      "up date",
      "c amp",
      "compan ies",
      "i er",
      "on s",
      "v o",
      "terr or",
      "6 6",
      "f act",
      "u res",
      ". ,",
      "g ames",
      "con s",
      "st ud",
      "is ion",
      "qu ick",
      "st and",
      "we en",
      "ther e",
      "mar t",
      "l ond",
      "ser ies",
      "d uring",
      "p ass",
      "lond on",
      "mo ve",
      "ther n",
      "th reat",
      "st ill",
      "p at",
      "p ers",
      "ul ar",
      "au se",
      "f ur",
      "ch ip",
      "att ack",
      "le y",
      "w r",
      "v ol",
      "5 0",
      "de ad",
      "sh are",
      "bet ween",
      "indust ry",
      "in j",
      "i ous",
      "m en",
      "stoc k",
      "end ed",
      "t icker",
      "su m",
      "ow s",
      "g lo",
      "fi eld",
      "1 2",
      "spor ts",
      "fo ot",
      "bag hd",
      "baghd ad",
      "c re",
      "prod uc",
      "tt p",
      "/ /",
      "h ttp",
      "s our",
      "an ge",
      "lo y",
      "p a",
      "el s",
      "gian t",
      "res s",
      "c ur",
      "am s",
      "vie w",
      ": //",
      "w o",
      "hel d",
      "g a",
      "le t",
      "se pt",
      "po int",
      "bo o",
      "re ach",
      "comm un",
      "ret urn",
      "al th",
      "ct ion",
      "spe c",
      "b ased",
      "se l",
      "ro w",
      "att le",
      "incl ud",
      "ag es",
      "ke ep",
      "f ol",
      "grow th",
      "r ul",
      "n ed",
      "is co",
      "re al",
      "ot s",
      "en se",
      "st er",
      "rel ess",
      "serv ices",
      "s ince",
      "p ak",
      "ww w",
      "of t",
      "g re",
      "r up",
      "are d",
      "ear ly",
      "f ace",
      "n uc",
      "in fo",
      "d ata",
      "s m",
      "le ft",
      "an y",
      "ent s",
      "p c",
      "wi reless",
      "con tro",
      "un ion",
      "ins ur",
      "pro gr",
      "ard s",
      "m id",
      "f ree",
      "joh n",
      "z e",
      "invest or",
      "tr ade",
      "nuc lear",
      "hal f",
      "h ref",
      "high er",
      "u b",
      "d ou",
      "dem and",
      "fir m",
      "s old",
      "us h",
      "ac le",
      "k ore",
      "t urn",
      "ac qu",
      "v ed",
      "op s",
      "milit ary",
      "il ity",
      "st or",
      "austral ia",
      "l ess",
      "ic ations",
      "g ain",
      "s ol",
      "ear nings",
      "tr act",
      "pak istan",
      "e ven",
      "u de",
      "f ight",
      "d av",
      "fi re",
      "li ke",
      "1 4",
      "ne y",
      "w om",
      "be ing",
      "p ri",
      "pe ace",
      "hou se",
      "g az",
      "y a",
      "on ly",
      "ir an",
      "b ur",
      "g ot",
      "pl es",
      "af gh",
      "it ch",
      "qu est",
      "3 0",
      "iv ers",
      "h ear",
      "em p",
      "re tail",
      "gen eral",
      "b ill",
      "d on",
      "a h",
      "ch ange",
      "as p",
      "in ts",
      "c ts",
      "app le",
      "int el",
      "id er",
      "r ad",
      "play ers",
      "m c",
      "se ven",
      "so x",
      "ut ion",
      "m at",
      "r ight",
      "h ard",
      "low er",
      "igh ts",
      "n um",
      "c ust",
      "go od",
      "d en",
      "u x",
      "u el",
      "f ac",
      "agre ed",
      "ra w",
      "month s",
      "is su",
      "ge ts",
      "je ct",
      "prod uct",
      "day s",
      "afgh an",
      "no v",
      "fin anc",
      "clo se",
      "low ing",
      "in es",
      "if ic",
      "ag en",
      "b as",
      "st ree",
      "b or",
      "or acle",
      "ast er",
      "bec ause",
      "g an",
      "l im",
      "d ar",
      "re bel",
      "at or",
      "ad v",
      "m ber",
      "f ut",
      "fr anc",
      "glo bal",
      "israel i",
      "pr ice",
      "wh ere",
      "w ell",
      "y an",
      "system s",
      "m atch",
      "wind ows",
      "ne ed",
      "vi ol",
      "b ers",
      "sc ient",
      "ro ss",
      "a head",
      "f und",
      "t or",
      "lat est",
      "v al",
      "eng land",
      "on t",
      "russ ian",
      "d ire",
      "olymp ic",
      "rup t",
      "c le",
      "d ig",
      "tro ops",
      "= /",
      "quick info",
      "asp x",
      "sh ould",
      "pl y",
      "c ell",
      "v ide",
      "po ints",
      "com pe",
      "gaz a",
      "l ab",
      "russ ia",
      "ro se",
      "ib le",
      "big gest",
      "foot ball",
      "re main",
      "execut ive",
      "read y",
      "bo ston",
      "pol it",
      "us ing",
      "w all",
      "th ing",
      "is on",
      "us ers",
      "ind ian",
      "k n",
      "lin es",
      "pl ace",
      "at ors",
      "des p",
      "a ke",
      "jo bs",
      "ris e",
      "v ing",
      "end s",
      "3 6",
      "lif e",
      "fe at",
      "champion ship",
      "d om",
      "includ ing",
      "al y",
      "ho w",
      "su b",
      "a the",
      "d s",
      "hur rican",
      "t ur",
      "ky o",
      "c ase",
      "sup port",
      "p ast",
      "re ports",
      "pe o",
      "mar k",
      "peo ples",
      "ph il",
      "b ase",
      "canad ian",
      "f am",
      "rele ased",
      "f ind",
      "de ath",
      "cust om",
      "lead ers",
      "desp ite",
      "progr am",
      "is ed",
      "con cer",
      "p ack",
      "it ing",
      "su c",
      "econom y",
      "h ip",
      "is m",
      "id a",
      "pro cess",
      "fore ign",
      "com ing",
      "bu ild",
      "ke ts",
      "peoples oft",
      "wo od",
      "o ol",
      "f ail",
      "for ces",
      "m uch",
      "boo st",
      "y our",
      "dro p",
      "athe ns",
      "h ist",
      "n a",
      "com mission",
      "po ss",
      "invest ors",
      "a ug",
      "econom ic",
      "1 8",
      "1 6",
      "de b",
      "oc i",
      "riv al",
      "p ur",
      "sch ool",
      "rele ase",
      "id n",
      "con tract",
      "fe ct",
      "ass oci",
      "stree t",
      "su re",
      "call ed",
      "d iv",
      "de cl",
      "me e",
      "dire ct",
      "re cent",
      "1 7",
      "contin u",
      "for ce",
      "ren ch",
      "c are",
      "ef for",
      "li k",
      "vide o",
      "bo ard",
      "c ard",
      "af t",
      "1 3",
      "co ver",
      "ma il",
      "s k",
      "200 5",
      "bro ad",
      "d ri",
      "h ere",
      "gre en",
      "ar ound",
      "j ud",
      "at ive",
      "b en",
      "be st",
      "r ich",
      "sour ce",
      "ta x",
      "p ho",
      "pos ition",
      "four th",
      "reg ion",
      "b c",
      "ul l",
      "th or",
      "il y",
      "2 5",
      "ar m",
      "camp a",
      "iz e",
      "austral ian",
      "p op",
      "g l",
      "sh e",
      "; &",
      "nation s",
      "president ial",
      "he alth",
      "su dan",
      "f rench",
      "n y",
      "tit le",
      "g ress",
      "med ia",
      "m al",
      "lead ing",
      "ar s",
      "bre ak",
      "wee ks",
      "se ver",
      "b ay",
      "invest ig",
      "eng ine",
      "near ly",
      "w atch",
      "de p",
      "and s",
      "for d",
      "lin ux",
      "work ers",
      "h i",
      "w ins",
      "de mo",
      "ex per",
      "w ays",
      "to kyo",
      "am ent",
      "g ing",
      "ac y",
      "s ent",
      "b it",
      "att acks",
      "americ a",
      "k o",
      "financ ial",
      "u red",
      "wor ks",
      "g as",
      "s af",
      "sh ort",
      "ou ts",
      "st o",
      "h ot",
      "campa ign",
      "d y",
      "d ist",
      "i po",
      "l it",
      "cap ital",
      "kore a",
      "a i",
      "ro d",
      "ig er",
      "nas a",
      "an k",
      "an aly",
      "inter est",
      "1 00",
      "ant i",
      "play er",
      "ker ry",
      "re ce",
      "sup er",
      "fer ence",
      "v el",
      "ch ic",
      "p es",
      "s pr",
      "ap pl",
      "agen cy",
      "o se",
      "is l",
      "b ra",
      "i ers",
      "iz ed",
      "af f",
      "t re",
      "c enter",
      "yan ke",
      "franc isco",
      "dig ital",
      "demo cr",
      "i or",
      "ar rest",
      "sec ret",
      "g iv",
      "v a",
      "al leg",
      "emp loy",
      "agre ement",
      "num ber",
      "pers on",
      "f ell",
      "l ate",
      "st op",
      "fl or",
      "suc cess",
      "ul ts",
      "r ain",
      "e qu",
      "un t",
      "r ace",
      "oc to",
      "y s",
      "em ber",
      "cor por",
      "mee ting",
      "part y",
      "octo ber",
      "p le",
      "sm all",
      "sept ember",
      "a way",
      "fore cast",
      "chic ago",
      "cr ude",
      "al low",
      "to ok",
      "cent ral",
      "it es",
      "leg al",
      "al so",
      "b attle",
      "sus p",
      "p an",
      "qu e",
      "in k",
      "st ra",
      "scient ists",
      "l ist",
      "af at",
      "t v",
      "ar afat",
      "a id",
      "go ing",
      "kill ing",
      "flor ida",
      "or gan",
      "cr it",
      "con su",
      "lik ely",
      "vers ion",
      "au thor",
      "jo b",
      "hurrican e",
      "un ivers",
      "de part",
      "fol lowing",
      "w ant",
      "g reat",
      "consu mer",
      "hu man",
      "ad r",
      "are n",
      "ug g",
      "n am",
      "act ion",
      "dar fur",
      "char ges",
      "ar my",
      "dis c",
      "w he",
      "su it",
      "ap prov",
      "u j",
      "en er",
      "id ed",
      "stri ke",
      "to uch",
      "b i",
      "ve il",
      "vot e",
      "w at",
      "j an",
      "m it",
      "b ow",
      "d ue",
      "r ation",
      "g ive",
      "w are",
      "stud y",
      "mak ing",
      "fr ance",
      "e ver",
      "n ess",
      "ch all",
      "japan ese",
      "spe ed",
      "des ign",
      "bo th",
      "m ight",
      "un veil",
      "elect ron",
      "yanke es",
      "s oc",
      "commun ications",
      "tri al",
      "m ing",
      "fut ure",
      "brit ain",
      "w ide",
      "re ven",
      "bl ack",
      "reg ul",
      "el es",
      "s ite",
      "f a",
      "se ts",
      "pro te",
      "2 4",
      "n ia",
      "to ur",
      "tim es",
      "e v",
      "o b",
      "t ic",
      "ch in",
      "ste p",
      "f f",
      "ens ive",
      "beg in",
      "d am",
      "ge or",
      "produc ts",
      "i for",
      "set tle",
      "s im",
      "sh ot",
      "tr ans",
      "sel f",
      "prof ile",
      "g ree",
      "def ense",
      "app ed",
      "con ference",
      "ear th",
      "e very",
      "manag er",
      "will i",
      "cur ren",
      "d raw",
      "manag ement",
      "b and",
      "e ast",
      "wom en",
      "off ice",
      "au to",
      "is ing",
      "id ence",
      "cal ifor",
      "custom ers",
      "t ex",
      "res ults",
      "i ver",
      "ish ed",
      "c ing",
      "ro c",
      "ch air",
      "a ve",
      "dec ision",
      "pol l",
      "e as",
      "or der",
      "res er",
      "no ve",
      "p ush",
      "ener gy",
      "sever al",
      "nove mber",
      "b ed",
      "e ight",
      "lit tle",
      "bl ast",
      "p itch",
      "st at",
      "cl ub",
      "pro ble",
      "fo od",
      "m ac",
      "nor thern",
      "h our",
      "im in",
      "son y",
      "sou thern",
      "b at",
      "fe w",
      "tak ing",
      "cost s",
      "gr and",
      "ch ang",
      "qu al",
      "with out",
      "polit ical",
      "if y",
      "tak es",
      "milit ants",
      "n ers",
      "vis ion",
      "host age",
      "in o",
      "r ate",
      "con f",
      "run ning",
      "des k",
      "um p",
      "str uct",
      "th ers",
      "en ed",
      "ro ll",
      "elect ions",
      "contro l",
      "ad es",
      "in st",
      "to o",
      "base ball",
      "on to",
      "califor nia",
      "do es",
      "id es",
      "at ic",
      "bank rupt",
      "champ ions",
      "cu ts",
      "u ce",
      "isl am",
      "win ning",
      "f ar",
      "jud ge",
      "ch ild",
      "pol ic",
      "canad a",
      "uc k",
      "stra ight",
      "ac coun",
      "sp am",
      "c am",
      "i k",
      "g un",
      "m ess",
      "c lear",
      "st ation",
      "su ch",
      "pl ac",
      "p riv",
      "se a",
      "ph ones",
      "f ear",
      "m ass",
      ") ,",
      "p on",
      "r ac",
      "am i",
      "quarter ly",
      "analy st",
      "claim s",
      "f ans",
      "f re",
      "ho pes",
      "l ight",
      "to ld",
      "mic ha",
      "pr ison",
      "depart ment",
      "th ough",
      "tri es",
      "cons ider",
      "s low",
      "at l",
      "jo in",
      "ce o",
      "g in",
      "desk top",
      "l ou",
      "h ind",
      "micha el",
      "b ri",
      "d ie",
      "am id",
      "ian s",
      "bet ter",
      "un it",
      "cr aft",
      "whe ther",
      "lo ad",
      "in form",
      "or d",
      "bar rel",
      "k en",
      "bl ed",
      "pos ed",
      "k idn",
      "c ash",
      "d if",
      "s il",
      "cl ass",
      "n at",
      "r ates",
      "f oc",
      "ro ad",
      "call s",
      "exp los",
      "ens ion",
      "gian ts",
      "w ound",
      "ro y",
      "f lo",
      "sco red",
      "bl ue",
      "incre ase",
      "ter m",
      "ac cess",
      "ho o",
      "pro ve",
      "launch ed",
      "poss ible",
      "viol ence",
      "2 1",
      "ac ross",
      "n al",
      "atl ant",
      "f uel",
      "comp le",
      "aug ust",
      "univers ity",
      "h y",
      "mon ey",
      "bro w",
      "lo st",
      "pr ise",
      "ser ver",
      "ang eles",
      "to ol",
      "say ing",
      "z er",
      "chair man",
      "be come",
      "cl im",
      "tex as",
      "s ide",
      "f ast",
      "h or",
      "hist ory",
      "willi ams",
      "st ad",
      "al e",
      "tr av",
      "mem bers",
      "j er",
      "k ar",
      "cr ash",
      "ce pt",
      "th ous",
      "the n",
      "co ast",
      "saf e",
      "sto res",
      "chin ese",
      "trad ing",
      "hou ston",
      "act iv",
      "as es",
      "ger man",
      "to wn",
      "w ester",
      "mor ning",
      "week end",
      "rad io",
      "c los",
      "am ong",
      "sp an",
      "mak ers",
      "per for",
      "h its",
      "c el",
      "us es",
      "ger many",
      "blo ck",
      "pro mis",
      "wh ite",
      "st ore",
      "op t",
      "it i",
      "ro b",
      "net works",
      "m b",
      "r ap",
      "secret ary",
      "inform ation",
      "ab ility",
      "med al",
      "tr ain",
      "bo ok",
      "str ugg",
      "bel ie",
      "to ward",
      "re w",
      "s ame",
      "ad minist",
      "mak es",
      "o ct",
      "p en",
      "r ally",
      "se en",
      "we ak",
      "m as",
      "em er",
      "so on",
      "i j",
      "gen er",
      "rebel s",
      "be hind",
      "b ab",
      "he av",
      "at s",
      "w it",
      "wester n",
      "sec ut",
      "oper ating",
      "ho m",
      "acc used",
      "ipo d",
      "ar sen",
      "fall uj",
      "m ust",
      "on a",
      "gro und",
      "ap er",
      "dav id",
      "e vent",
      "s n",
      "inj ured",
      "ya hoo",
      "d id",
      "p ac",
      "ann ed",
      "sold iers",
      "prof its",
      "pro test",
      "car ri",
      "t ies",
      "in fl",
      "m ag",
      "comm it",
      "afghan istan",
      "n ine",
      "me et",
      "o id",
      "p il",
      "vis it",
      "t en",
      "d a",
      "p y",
      "com mer",
      "af ric",
      "p m",
      "em pt",
      "ut e",
      "5 00",
      "ex change",
      "man u",
      "sen ior",
      "pho to",
      "c ame",
      "ear li",
      "bo x",
      "sus pect",
      "lab or",
      "j un",
      "ind ones",
      "reven ue",
      "al most",
      "er a",
      "ab o",
      "r u",
      "iv ed",
      "br ing",
      "q a",
      "war ned",
      "sho p",
      "dou ble",
      "bankrupt cy",
      "p ot",
      "par is",
      "\\ \\",
      "re public",
      "ri st",
      "an a",
      "col or",
      "thous ands",
      "c and",
      "air lines",
      "f ile",
      "perfor man",
      "t enn",
      "co ll",
      "g ers",
      "pop ular",
      "ugh t",
      "take over",
      "stad ium",
      "manu fact",
      "int rod",
      "open ing",
      "post ed",
      "f av",
      "touch down",
      "i ence",
      "am a",
      "sign ed",
      "reser ve",
      "mar kets",
      "m ir",
      "on y",
      "sho wed",
      "ne got",
      "negot i",
      "com es",
      "product ion",
      "y et",
      "vir gin",
      "person al",
      "organ iz",
      "afric a",
      "we ap",
      "ess ion",
      "n fl",
      "res h",
      "pa ul",
      "dom in",
      "div ision",
      "bra z",
      "a ver",
      "th ose",
      "del ay",
      "wat er",
      "tele vision",
      "c il",
      "hear t",
      "tor onto",
      "r ing",
      "c iv",
      "earli er",
      "j ones",
      "p ic",
      "v ic",
      "tu re",
      "gain s",
      "2 2",
      "st re",
      "c red",
      "i red",
      "ag ed",
      "ho pe",
      "fir ms",
      "ar i",
      "is es",
      "pe cts",
      "sp ain",
      "k now",
      "pre mi",
      "grow ing",
      "t ition",
      "sur ve",
      "d ed",
      "offer ing",
      "m ur",
      "d le",
      "as ser",
      "sal e",
      "w ants",
      "il le",
      "if ied",
      "fl ight",
      "alleg ed",
      "bo dy",
      "mus lim",
      "op position",
      "b ird",
      "con sum",
      "su g",
      "out look",
      "corpor ate",
      "mot or",
      "g ol",
      "4 0",
      "f ra",
      "tr ack",
      "fin ance",
      "st ake",
      "braz il",
      "performan ce",
      "hel ped",
      "lou is",
      "d ip",
      "olymp ics",
      "2 3",
      "le av",
      "lo cal",
      "red s",
      "is s",
      "f ont",
      "j our",
      "o ks",
      "ri es",
      "associ ation",
      "bow l",
      "s am",
      "pro be",
      "bl air",
      "ot a",
      "lo ck",
      "ho sp",
      "l ad",
      "americ ans",
      "ex pl",
      "as ia",
      "af rican",
      "beg an",
      "con ne",
      "sp ot",
      "at ely",
      "wor th",
      "concer ns",
      "g ent",
      "lt d",
      "ro ck",
      "d ied",
      "is land",
      "2 8",
      "d ell",
      "f resh",
      "ap s",
      "comp uters",
      "hosp ital",
      "m adr",
      "insur ance",
      "to m",
      "ap point",
      "go al",
      "look ing",
      "phil ip",
      "b es",
      "2 7",
      "b ell",
      "r am",
      "fo x",
      "gu ard",
      "pres ent",
      "coun cil",
      "civ il",
      "exp and",
      "cand id",
      "h un",
      "or ies",
      "fight ing",
      "i ally",
      "19 9",
      "effor ts",
      "d v",
      "d ut",
      "trav el",
      "on ce",
      "ch ester",
      "coun tries",
      "tro u",
      "kn own",
      "care er",
      "ris ing",
      "66 66",
      "chall en",
      "administ ration",
      "h p",
      "y oun",
      "b ad",
      "al ready",
      "air line",
      "invest ment",
      "ch o",
      "dri ve",
      "arrest ed",
      "char ged",
      "as ing",
      "announ ce",
      "as k",
      "sh ut",
      "sup ply",
      "geor ge",
      "analyst s",
      "sch ed",
      "w an",
      "in f",
      "de st",
      "ne ts",
      "down load",
      "ro s",
      "mi ami",
      "sp ending",
      "contin ue",
      "hol iday",
      "spec ial",
      "s ize",
      "try ing",
      "hour s",
      "n iger",
      "res p",
      "cr is",
      "weap ons",
      "ar ab",
      "exp lo",
      "fra ud",
      "b ound",
      "with in",
      "me t",
      "compe tition",
      "madr id",
      "b att",
      "team s",
      "b urn",
      "str ate",
      "fam ily",
      "arsen al",
      "m oun",
      "iv an",
      "char ge",
      "c ri",
      "e gy",
      "fr ont",
      "m ult",
      "o x",
      "res ol",
      "curren t",
      "e z",
      "st ay",
      "egy pt",
      "r ights",
      "air ways",
      "vi ous",
      "quest ion",
      "o thers",
      "de feat",
      "f ig",
      "ct ions",
      "rul es",
      "employ e",
      "pr act",
      "al ed",
      "f ri",
      "su ic",
      "ce le",
      "dis put",
      "sell ing",
      "re ve",
      "gr ap",
      "av ail",
      "adv anc",
      "kill s",
      "ste ad",
      "start ing",
      "c at",
      "be ij",
      "se es",
      "n ba",
      "beij ing",
      "ad el",
      "con gress",
      "outs ide",
      "polic y",
      "h ic",
      "tak en",
      "stor m",
      "aren t",
      "sp ok",
      "f if",
      "ch en",
      "shar on",
      "unt il",
      "f le",
      "surve y",
      "in ch",
      "v an",
      "pres sure",
      "child ren",
      "off ers",
      "par k",
      "cris is",
      "p it",
      "ic ation",
      "se em",
      "develop ment",
      "ga ve",
      "giv ing",
      "author ities",
      "en ough",
      "ic ket",
      "se attle",
      "sup pl",
      "bas ket",
      "h und",
      "p ir",
      "w ent",
      "sp ort",
      "15 1",
      "l er",
      "ta i",
      "stri p",
      "b ond",
      "y ards",
      "in als",
      "ed ge",
      "ex press",
      "consum ers",
      "p act",
      "riv als",
      "ital ian",
      "effor t",
      "plan e",
      "en ing",
      "man chester",
      "fin ally",
      "reach ed",
      "ag ing",
      "quarter back",
      "rul ing",
      "2 6",
      "n ame",
      "co s",
      "execut ives",
      "est im",
      "wom an",
      "electron ics",
      "suic ide",
      "a ward",
      "re me",
      "inj ury",
      "fear s",
      "g am",
      "ent ial",
      "e ach",
      "8 0",
      "nam ed",
      "a ud",
      "e ing",
      "y uk",
      "ad o",
      "ian ce",
      "sat ell",
      "ch rist",
      "tr a",
      "get ting",
      "col le",
      "sc re",
      "retail er",
      "v s",
      "3 5",
      "c ou",
      "g ar",
      "pl ant",
      "dev ices",
      "c isco",
      "d riv",
      "s qu",
      "d og",
      "ver t",
      "ak es",
      "aster n",
      "b acks",
      "continu ed",
      "ma ch",
      "aim ed",
      "m ex",
      "sug gest",
      "f un",
      "cl ash",
      "soc cer",
      "w ild",
      "se x",
      "lar ge",
      "miss ing",
      "c it",
      "h ill",
      "t el",
      "fail ed",
      ") .",
      "c p",
      "att empt",
      "mon t",
      "re co",
      "show s",
      "fur ther",
      "heav y",
      "in vol",
      "d ies",
      "h an",
      "yuk os",
      "oper ations",
      "colle ge",
      "pro ject",
      "research ers",
      "foc us",
      "cred it",
      "as ian",
      "proble ms",
      "priv ate",
      "spok es",
      "le vel",
      "play off",
      "fac es",
      "f fer",
      "pre vious",
      "im port",
      "n es",
      "issu e",
      "and er",
      "sco w",
      "basket ball",
      "v ille",
      "re ject",
      "power ful",
      "chip s",
      "mid dle",
      "fi red",
      "in ed",
      "st aff",
      "s end",
      "y asser",
      "ic o",
      "ben ef",
      "disc uss",
      "p red",
      "mo scow",
      "terror ism",
      "m l",
      "are a",
      "work ing",
      "ris k",
      "cer tain",
      "j ail",
      "to ugh",
      "oper ation",
      "mem ber",
      "w el",
      "part ners",
      "youn g",
      "p ick",
      "ri a",
      "a x",
      "w inter",
      "re view",
      "lead s",
      "d ow",
      "ut es",
      "ra ised",
      "palestinian s",
      "che ck",
      "fil ed",
      "dav is",
      "u ary",
      "it ions",
      "ste el",
      "in v",
      "ra id",
      "cal if",
      "b ud",
      "d oc",
      "s cr",
      "mo ved",
      "ul y",
      "no k",
      "mer ger",
      "atlant a",
      "suspect ed",
      "abo ve",
      "stor age",
      "k es",
      "ap e",
      "ul ation",
      "2 9",
      "p ull",
      "u es",
      "ne ver",
      "ch ase",
      "pe c",
      "fir med",
      "h en",
      "war ning",
      "sign s",
      "4 00",
      "le ave",
      "e ag",
      "r ang",
      "t reat",
      "h app",
      "fi x",
      "challen ge",
      "deb t",
      "w id",
      "ic ip",
      "pl anned",
      "ph ia",
      "sl ip",
      "equ ip",
      "jour nal",
      "lo oks",
      "adel phia",
      "ann ual",
      "design ed",
      "un es",
      "com pl",
      "pro po",
      "de ce",
      "a wa",
      "p ul",
      "su ffer",
      "200 6",
      "dv d",
      "sh i",
      "build ing",
      "ch ance",
      "ap pro",
      "business es",
      "satell ite",
      "e ch",
      "investig ation",
      "te e",
      "x p",
      "issu es",
      "l an",
      "sp y",
      "cover ed",
      "e ase",
      "w er",
      "w art",
      "b ass",
      "group s",
      "s wee",
      "st ren",
      "crit ic",
      "dollar s",
      "del ta",
      "ct or",
      "cap tain",
      "expect ations",
      "contro vers",
      "r ay",
      "am d",
      "avail able",
      "stren g",
      "cont ent",
      "share hold",
      "it or",
      "cr icket",
      "law suit",
      "sing ap",
      "nas d",
      "tre as",
      "if f",
      "ton y",
      "singap ore",
      "t ell",
      "th r",
      "par li",
      ". '",
      "ain ed",
      "nok ia",
      "coun ter",
      "c ro",
      "in de",
      "for t",
      "f ly",
      "de tro",
      "prov ide",
      "dut ch",
      "parli ament",
      "j af",
      "launch es",
      "to urn",
      "set t",
      "joh ns",
      "democr atic",
      "detro it",
      "dec ided",
      "hund reds",
      "dece mber",
      "run s",
      "h l",
      "er t",
      "an ium",
      "secur ities",
      "in ning",
      "im prove",
      "l ic",
      "ad vert",
      "c bs",
      "s ites",
      "it ive",
      "offic er",
      "see ks",
      "al d",
      "sh r",
      "stat ement",
      "c as",
      "d u",
      "ar riv",
      "id ing",
      "ital y",
      "deb ate",
      "c ir",
      "new sp",
      "exper ts",
      "regul ators",
      "propo sal",
      "d i",
      "ro om",
      "mo on",
      "pro per",
      "bo eing",
      "claim ed",
      "en ger",
      "ry der",
      "fed er",
      "na jaf",
      "se par",
      "sing h",
      "turn ed",
      "spr int",
      "brow ser",
      "bo ss",
      "enter prise",
      "approv ed",
      "i rel",
      "j um",
      "se ed",
      "pt ion",
      "hold ing",
      "blo od",
      "w is",
      "med ical",
      "drug s",
      "chang es",
      "h all",
      "ul a",
      "bo y",
      "go es",
      "4 9",
      "por ters",
      "gol f",
      "c row",
      "ic it",
      "milit ant",
      "giv en",
      "introd uc",
      "employe es",
      "cele br",
      "serv ers",
      "loss es",
      "phil adelphia",
      "prote ct",
      "falluj ah",
      "6 0",
      "ast ros",
      "sur v",
      "b n",
      "ran ge",
      "islam ic",
      "as ked",
      "con firmed",
      "clo ser",
      "ast ron",
      "d re",
      "ur al",
      "lo g",
      "res ign",
      "acqu is",
      "safe ty",
      "b low",
      "res um",
      "uk rain",
      "irel and",
      "re m",
      "johns on",
      "pri ze",
      "a ks",
      "a ther",
      "nasd aq",
      "ill a",
      "ce ed",
      "tai wan",
      "m el",
      "ef fect",
      "fact or",
      "r af",
      "ra v",
      "play ing",
      "for ward",
      "co de",
      "bro wn",
      "pre p",
      "p air",
      "u ally",
      "iv ing",
      "med i",
      "los ing",
      "en vir",
      "sp ir",
      "av oid",
      "unveil ed",
      "ch el",
      "sl ight",
      "not e",
      "roc ket",
      "ro le",
      "l u",
      "m ut",
      "p ound",
      "up gr",
      "envir on",
      "sc and",
      "gener ation",
      "; ,",
      "re bound",
      "fif th",
      "tourn ament",
      "ur ged",
      "appe ar",
      "h at",
      "cl eric",
      "dis ney",
      "ran ked",
      "im prov",
      "technolog ies",
      "bri ef",
      "t ight",
      "ag ree",
      "host ages",
      "mar y",
      "wood s",
      "de but",
      "je cts",
      "ri but",
      "see k",
      "th ink",
      "mo s",
      "appl ications",
      "o h",
      "equip ment",
      "fin ish",
      "put in",
      "law y",
      "lat er",
      "z en",
      "al ong",
      "re v",
      "de tail",
      "cre ate",
      "i en",
      "mic h",
      "ris es",
      "del iver",
      "f el",
      "u ge",
      "ass in",
      "m w",
      "commer c",
      "m ill",
      "br on",
      "br id",
      "k ash",
      "we ight",
      "open ed",
      "dif fer",
      "wit ness",
      "er ed",
      "er ing",
      "war ns",
      "je ts",
      "add ed",
      "ser ious",
      "200 3",
      "fl u",
      "post s",
      "vent ion",
      "fil m",
      "l ot",
      "me as",
      "want ed",
      "aver age",
      "appe al",
      "kash mir",
      "n i",
      "r um",
      "off ensive",
      "stand ard",
      "accoun ting",
      "m ort",
      "mo del",
      "ath let",
      "broad band",
      "kidn apped",
      "play ed",
      "sum mer",
      "ret ire",
      "mi ke",
      "vic tim",
      "er r",
      "mar ke",
      "g ents",
      "incre ased",
      "l ish",
      "po ol",
      "b ol",
      "r ick",
      "stre ak",
      "i ro",
      "pl ed",
      "jo int",
      "bond s",
      "commerc ial",
      "fall s",
      "sour ces",
      "direct or",
      "b ul",
      "sp ar",
      "cour se",
      "insur gents",
      "organiz ation",
      "v ia",
      "hur t",
      "acqu ire",
      "pat ri",
      "p ace",
      "p atch",
      "ic ks",
      "enter tain",
      "ch ain",
      "million s",
      "dep end",
      "ition al",
      "gree ce",
      "m ix",
      "min nes",
      "as sa",
      "je t",
      "wound ed",
      "pil ots",
      "spokes man",
      "app ing",
      "indones ia",
      "minnes ota",
      "v in",
      "wh y",
      "bor der",
      "g ives",
      "ke pt",
      "te gr",
      "col um",
      "fol low",
      "flo od",
      "mort g",
      ". \"",
      "n on",
      "n hl",
      "mo ves",
      "ast ers",
      "st age",
      "ac cept",
      "fl at",
      "ste ve",
      "gu il",
      "h us",
      "iv ely",
      "conf idence",
      "tur key",
      "environ ment",
      "c ross",
      "c iting",
      "p ain",
      "vir us",
      "ify ing",
      "pro secut",
      "mar ch",
      "cr imin",
      "bu il",
      "d ra",
      "sing le",
      "fam il",
      "rece ived",
      "virgin ia",
      "tal k",
      "ho c",
      "sa ve",
      "d od",
      "for ced",
      "ev idence",
      "g ri",
      "en a",
      "air port",
      "miss ed",
      "advanc ed",
      "d idn",
      "il ities",
      "su its",
      "fin als",
      "hu ge",
      "dou b",
      "fund s",
      "susp ended",
      "7 0",
      "r ating",
      "pl at",
      "ha ving",
      "ib ility",
      "chel sea",
      "l ay",
      "to ll",
      "ut ing",
      "ber t",
      "jo se",
      "expl or",
      "d ick",
      "co py",
      "ly wood",
      "rel ated",
      "car ry",
      "compe tit",
      "decl ine",
      "dist ribut",
      "success ful",
      "f la",
      "ve hic",
      "co al",
      "mem ory",
      "vo ters",
      "continu es",
      "s it",
      "see king",
      "dip lo",
      "to tal",
      "washington post",
      "just ice",
      "does n",
      "remain s",
      "hom es",
      "tenn is",
      "g m",
      "j uly",
      "ill ing",
      "dev ice",
      "win ner",
      "guil ty",
      "st one",
      "anc es",
      "fil es",
      "clos ed",
      "t iger",
      "al and",
      "ra ise",
      "ban ks",
      "b in",
      "pan el",
      "o ak",
      "an im",
      "ul ed",
      "bl es",
      "rul ed",
      "card inals",
      "mur der",
      "disput e",
      "y en",
      "sup reme",
      "n n",
      "z one",
      "ur ies",
      "ho mer",
      "settle ment",
      "j ump",
      "ough t",
      "jan uary",
      "than ks",
      "next el",
      "explos ion",
      "or ney",
      "se m",
      "ac es",
      "own ers",
      "att orney",
      "shar ing",
      "kore an",
      "prote ction",
      "k ick",
      "an ch",
      "re ason",
      "be y",
      "ho ward",
      "miss ile",
      "def icit",
      "process or",
      "mex ico",
      "ch er",
      "ex pects",
      "fut ures",
      "acquis ition",
      "start ed",
      "electron ic",
      "span ish",
      "philip p",
      "s pect",
      "pro posed",
      "min utes",
      "cre w",
      "it unes",
      "ct ic",
      "dis appoint",
      "commit tee",
      "scand al",
      "k ans",
      "z z",
      "co re",
      "elect ric",
      "bro ker",
      "incre asing",
      "at ives",
      "mar s",
      "bel ow",
      "hol lywood",
      "u ts",
      "br and",
      "b ot",
      "wor ries",
      "hold s",
      "sen ate",
      "appro ach",
      "f ic",
      "v end",
      "in tegr",
      "app arent",
      "san ctions",
      "doc u",
      "3 1",
      "j u",
      "s mart",
      "re present",
      "te en",
      "sec ure",
      "int ell",
      "sol ar",
      "entertain ment",
      "br y",
      "news factor",
      "kar z",
      "leav ing",
      "sc ience",
      "dep loy",
      "fre ed",
      "we ather",
      "struct ion",
      "f is",
      "ter ed",
      "ir ish",
      "po or",
      "call ing",
      "le v",
      "inter im",
      "eas y",
      "ed a",
      "us hing",
      "the se",
      "ig an",
      "be ating",
      "lo c",
      "ab ul",
      "class ic",
      "karz ai",
      "we igh",
      "pow ell",
      "threat ened",
      "ze aland",
      "mo vie",
      "cr ack",
      "head ed",
      "pot ential",
      "scre en",
      "g or",
      "s ir",
      "diplo mat",
      "intell ig",
      "c atch",
      "car ol",
      "suppl ies",
      "kans as",
      "concer n",
      "m asters",
      "ir l",
      "tr an",
      "shop ping",
      "k ong",
      "s ong",
      "il legal",
      "ad a",
      "par ts",
      "vent ure",
      "ru le",
      "th in",
      "ident s",
      "c ab",
      "m un",
      "al ex",
      "gen cy",
      "t em",
      "war ner",
      "offer ed",
      "f ish",
      "in it",
      "air craft",
      "fire fox",
      "ar ing",
      "buy ing",
      "need s",
      "appl ication",
      "ord ers",
      "h ong",
      "in vent",
      "who se",
      "though t",
      "r ust",
      "in fr",
      "ar med",
      "con fl",
      "re plac",
      "co lo",
      "em bass",
      "sc ri",
      "ham as",
      "slight ly",
      "a ol",
      "and y",
      "he at",
      "infl ation",
      ". \\",
      "at ory",
      "ke i",
      "shar ply",
      "ey e",
      "terror ist",
      "newsp aper",
      "f air",
      "ent ion",
      "don ald",
      "reject ed",
      "m ad",
      "im ent",
      "pro gress",
      "tar gets",
      "quest ions",
      "broad cast",
      "3 00",
      "c able",
      "ic on",
      "carri er",
      "n ames",
      "dre am",
      "b uc",
      "s ky",
      "ke e",
      "ste wart",
      "form ula",
      "drop ped",
      "init ial",
      "st ro",
      "4 5",
      "n l",
      "ar ms",
      "se ctor",
      "no on",
      "test s",
      "fri end",
      "ar iz",
      "return ed",
      "e astern",
      "f law",
      "com mon",
      "7 5",
      "k abul",
      "ab u",
      "bec ame",
      "j ay",
      "j ames",
      "o pec",
      "in depend",
      "des cri",
      "prov ider",
      "dol ph",
      "mortg age",
      "it er",
      "ref uge",
      "ukrain e",
      "d all",
      "qa eda",
      "6 4",
      "s i",
      "ou l",
      "pc s",
      "fav or",
      "patri ots",
      "k i",
      "if t",
      "pri x",
      "hist or",
      "s adr",
      "end er",
      "niger ia",
      "oak land",
      "qu ake",
      "ud i",
      "ny se",
      "eag les",
      "hoc key",
      "mo ving",
      "ton ight",
      "high est",
      "vot ing",
      "import ant",
      "pred ict",
      "v ar",
      "ic ally",
      "; .",
      "h ack",
      "st y",
      "us al",
      "me ts",
      "al i",
      "el der",
      "res ult",
      "proble m",
      "sharehold ers",
      "assa ult",
      "carol ina",
      "j ack",
      "lo se",
      "sa w",
      "pri or",
      "need ed",
      "oh io",
      "n ik",
      "bo b",
      "ph y",
      "sign ific",
      "k ings",
      "in iti",
      "lif t",
      "kn oc",
      "chall eng",
      "buil t",
      "n ic",
      "n av",
      "am az",
      "pass es",
      "recent ly",
      "inde x",
      "; -",
      "ir ing",
      "ri an",
      "cr u",
      "coun t",
      "au ction",
      "one y",
      "ms n",
      "ient s",
      "premi er",
      "k ne",
      "su bs",
      "wa it",
      "candid ate",
      "ur anium",
      "b ull",
      "iv ory",
      "fr ank",
      "rel ief",
      "pract ice",
      "christ mas",
      "f c",
      "o va",
      "ag u",
      "with draw",
      "tr ust",
      "ha iti",
      "minist ry",
      "bomb ing",
      "tool s",
      "dolph ins",
      "m ou",
      "p his",
      "w ing",
      "ad s",
      "ri al",
      "pre par",
      "mi th",
      "ap ol",
      "alth ough",
      ", \\",
      "c ards",
      "s ending",
      "id ers",
      "sched uled",
      "intellig ence",
      "embass y",
      ". &",
      "k u",
      "l ive",
      "p ension",
      "v ill",
      "en ron",
      "op tim",
      "bom bs",
      "mich igan",
      "g al",
      "in y",
      "ger y",
      "long er",
      "6 5",
      "a a",
      "m ine",
      "s ans",
      "t ie",
      "pro mot",
      "ha w",
      "li ver",
      "ty pe",
      "vol ution",
      "dall as",
      "m our",
      "s bc",
      "th ail",
      "an e",
      "ho ping",
      "bro ught",
      "cap e",
      "roy al",
      "re quest",
      "lin ked",
      "break ing",
      "negoti ations",
      "marke ting",
      "to ge",
      "im pact",
      "sur ge",
      "space craft",
      "a ut",
      "b our",
      "c ies",
      "mer ck",
      "toge ther",
      "5 5",
      "de ep",
      "im medi",
      "con secut",
      "shar p",
      "tele com",
      "thail and",
      "consecut ive",
      "9 0",
      "je an",
      "sur gery",
      "feat ures",
      "ol es",
      "sho ck",
      "bur gh",
      "k id",
      "de fe",
      "ot ing",
      "ab d",
      "star s",
      "t ack",
      "li ber",
      "develop ed",
      "issu ed",
      "train ing",
      "c ia",
      "e th",
      "g irl",
      "s ant",
      "y ard",
      "int end",
      "publ ish",
      "beg ins",
      "progr ams",
      "strate gy",
      "h on",
      "i i",
      "ust er",
      "world wide",
      "plan ning",
      "stri ker",
      "j av",
      "in nings",
      "mar sh",
      "je ff",
      "tri p",
      "beat en",
      "host ile",
      "ari el",
      "fig ures",
      "signific ant",
      "i ar",
      "m ind",
      "re qu",
      "id el",
      "ain s",
      "spy ware",
      "v ice",
      "bl ing",
      "dan ger",
      "ey es",
      "differ ent",
      "s wed",
      "co ol",
      "ang els",
      "appe ared",
      "pass ed",
      "dead line",
      "manufact ur",
      "s pl",
      "ve ter",
      "inter view",
      "vir tu",
      "b ir",
      "g ary",
      "st un",
      "is n",
      "ven ez",
      "iz on",
      "dan a",
      "unveil s",
      "controvers ial",
      "venez uel",
      ", \"",
      "e bay",
      "f it",
      "m ig",
      "him self",
      "h ous",
      "for ms",
      "out put",
      "comp uting",
      "land s",
      "plan es",
      "law suits",
      "cu bs",
      "g ul",
      "vo y",
      "sa udi",
      "after noon",
      "ste ps",
      "mart in",
      "nov ell",
      "pit ts",
      "mix ed",
      "d ing",
      "and re",
      "me an",
      "pat ent",
      "grap h",
      "wor ds",
      "he w",
      "ra ises",
      "s ession",
      "th ings",
      "er y",
      "it zer",
      "ac ts",
      "ig ning",
      "pl ays",
      "red uce",
      "cy ber",
      "boo ks",
      "sold ier",
      "fac ing",
      "cle vel",
      "reco very",
      "clevel and",
      "a w",
      "e e",
      "pa id",
      "g n",
      "se y",
      "ct ors",
      "he im",
      "air bus",
      "buy s",
      "bud get",
      "s add",
      "th om",
      "th rew",
      "se mic",
      "con st",
      "wor st",
      "ond uct",
      "publ ished",
      "hot el",
      "advert ising",
      "semic onduct",
      "g ate",
      "l ack",
      "al ter",
      "ist ic",
      "str uck",
      "ca used",
      "blo g",
      "strugg ling",
      "pac ific",
      "ar ial",
      "pl ot",
      "fl ash",
      "dam age",
      "subs id",
      "i od",
      "en rich",
      "con vention",
      "ind ic",
      "col lect",
      "wr ong",
      "ific ation",
      "approv al",
      "in stead",
      "or ig",
      "ro ger",
      "pakistan i",
      "c ra",
      "ex pos",
      "ren t",
      "reve aled",
      "pitts burgh",
      "the ast",
      "ve tic",
      "ver dana",
      "pl us",
      "ser if",
      "per iod",
      "hel vetic",
      "=\" #",
      "=\" -",
      "produc er",
      "comple te",
      "clim ate",
      "6666 66",
      "helvetic a",
      "ar gent",
      "ter min",
      "go als",
      "im age",
      "pr ince",
      "sur prise",
      "3 8",
      "d ail",
      "t ig",
      "el i",
      "vi ox",
      "resp ons",
      "viox x",
      "b ing",
      "s mith",
      "est ic",
      "back ed",
      "indust rial",
      "gree k",
      "mass ive",
      "jer usal",
      "manufact uring",
      "delay ed",
      "jerusal em",
      "n ar",
      "s mo",
      "w ish",
      "wa ke",
      "apol is",
      "dail y",
      "s ound",
      "be ck",
      "all iance",
      "mo z",
      "op ens",
      "wor d",
      "war ming",
      "cut ting",
      "sum mit",
      "retail ers",
      "crit ical",
      "republic an",
      "feder er",
      "at om",
      "with dra",
      "adv ance",
      "trou bled",
      "kne e",
      "i res",
      "tr aff",
      "ans ion",
      "sub scri",
      "order ed",
      "c ks",
      "op port",
      "mus har",
      "g ra",
      "n intend",
      "it self",
      "un ity",
      "mushar raf",
      "p ent",
      "p ga",
      "car s",
      "dec ades",
      "help ing",
      "detail s",
      "ariz ona",
      "de fin",
      "top s",
      "ext ended",
      "estim ates",
      "nintend o",
      "j acks",
      "v ul",
      "own er",
      "c ul",
      "ter ms",
      "set ting",
      "pre vent",
      "pos itive",
      "dec ade",
      "oper ator",
      "m ers",
      "st ory",
      "le ban",
      "be ars",
      "sur pr",
      "c d",
      "f an",
      "j im",
      "m r",
      "le e",
      "del hi",
      "victim s",
      "histor ic",
      "c ause",
      "min ute",
      "fe el",
      "ash ed",
      "minist ers",
      "mal ays",
      "cing ular",
      "bab ly",
      "st an",
      "ro man",
      "pro bably",
      "ex tra",
      "lin k",
      "head s",
      "sco tt",
      "ga ther",
      "dom estic",
      "mach ines",
      "pul led",
      "d ney",
      "o v",
      "u ation",
      "sy dney",
      "mil es",
      "rang ers",
      "o ok",
      "er o",
      "tro phy",
      "rac ing",
      "plat form",
      "sadd am",
      "3 3",
      "in come",
      "ers on",
      "mo ment",
      "some thing",
      "pu ts",
      "show ing",
      "introduc ed",
      "d one",
      "r are",
      "sp read",
      "cl inch",
      "sun g",
      "plan et",
      "sco re",
      "sw itch",
      "re place",
      "it ution",
      "find s",
      "nik kei",
      "er ial",
      "la ho",
      "200 0",
      "commun ity",
      "it z",
      "con vict",
      "test ing",
      "spec ies",
      "keep ing",
      "w il",
      "ho le",
      "ra ising",
      "can cer",
      "high s",
      "reg ular",
      "wal k",
      "dead ly",
      "demand s",
      "num bers",
      "liver pool",
      "p ie",
      "p enn",
      "up d",
      "cl ip",
      "fl ights",
      "opt ion",
      "crimin al",
      "he ating",
      "ty pho",
      "fall ing",
      "pir acy",
      "4 1",
      "un g",
      "art a",
      "ins ide",
      "open er",
      "return s",
      "confl ict",
      "semiconduct or",
      "jacks on",
      "f ann",
      "re new",
      "to y",
      "ro ok",
      "le tt",
      "im ir",
      "ow ed",
      "pitch er",
      "touchdown s",
      "b ury",
      "d ame",
      "m and",
      "ant it",
      "4 8",
      "v lad",
      "ad vis",
      "sp ent",
      "not re",
      "prof ession",
      "benef its",
      "ad mit",
      "ie t",
      "cent ury",
      "lin ks",
      "exp ansion",
      "develop ing",
      "begin ning",
      "belie ve",
      "fann ie",
      "( \\$",
      "pl c",
      "ber g",
      "fl ag",
      "tri but",
      "pur chase",
      "op pon",
      "te h",
      "po se",
      "fore st",
      "bro ke",
      "j ak",
      "ant icip",
      "cond uct",
      "rich ard",
      "c i",
      "f ill",
      "to sh",
      "dis covered",
      "hand s",
      "appe ars",
      "watch dog",
      "mess age",
      "arriv ed",
      ") :",
      "an ger",
      "at o",
      "ver izon",
      "ut ah",
      "ab s",
      "stri kes",
      "commer ce",
      "de mon",
      "head ing",
      "die go",
      "s cor",
      "en ces",
      "hurrican es",
      "sk ins",
      "teh ran",
      "c s",
      "j ason",
      "ro ut",
      "ine t",
      "low s",
      "ass ist",
      "iraq is",
      "app ers",
      "add s",
      "ext end",
      "gl ades",
      "g ia",
      "all a",
      "sl ide",
      "aim s",
      "wr ap",
      "associ ated",
      "bry ant",
      "vlad imir",
      "e le",
      "jo y",
      "ban glades",
      "eng lish",
      "hand held",
      "val ue",
      "resol ution",
      "d at",
      "record s",
      "sco t",
      "mor row",
      "dist r",
      "poll s",
      "fis cal",
      "k az",
      "co w",
      "we bs",
      "brid ge",
      "b on",
      "in al",
      "sh ell",
      "ens ions",
      "fi elder",
      "iz ing",
      "dr am",
      "threat s",
      "vul ner",
      "ann an",
      "fil ing",
      "stud ents",
      "remain ed",
      "dod gers",
      "amaz on",
      "p ip",
      "to morrow",
      "announ ces",
      "pen al",
      "mo der",
      "second s",
      "wit t",
      "l iving",
      "z im",
      "un ions",
      "cr uc",
      "tim ore",
      "cap t",
      "sl am",
      "bal timore",
      "falluj a",
      "typho on",
      "3 4",
      "n ast",
      "ul tim",
      "su e",
      "ph ill",
      "corpor ation",
      "n in",
      "t um",
      "ag ent",
      "de tain",
      "ib a",
      "as sets",
      "ne igh",
      "qu it",
      "bo ys",
      "micro systems",
      "star ts",
      "opt ions",
      "hew lett",
      "il ed",
      "co lin",
      "ur ges",
      "no thing",
      "vie t",
      "vot es",
      "vo ice",
      "inst all",
      "sil ver",
      "indones ian",
      "moz illa",
      "e igh",
      "k ind",
      "ou st",
      "ad or",
      "port able",
      "form at",
      "tele phone",
      "mont real",
      "witness es",
      "th a",
      "am ed",
      "tri ed",
      "beat s",
      "trad ers",
      "forecast s",
      "sil icon",
      "jun e",
      "antit rust",
      "bank ing",
      "def ence",
      "hold ings",
      "r ush",
      "sp ur",
      "off ense",
      "go v",
      "do ctors",
      "bur g",
      "pack ard",
      "green span",
      "shut tle",
      "g ates",
      "w ol",
      "re struct",
      "ol a",
      "de als",
      "up set",
      "pr int",
      "prov ince",
      "dri ver",
      "sam sung",
      "resum e",
      "m aster",
      "res idents",
      "ex ports",
      "he witt",
      "reg ist",
      "fast est",
      "leav es",
      "explor er",
      "gul f",
      "us er",
      "tr ail",
      "per fect",
      "hand ed",
      "geor gia",
      "qual ifying",
      "plac ed",
      "k el",
      "man ning",
      "seven th",
      "mat erial",
      "treas ury",
      "rook ie",
      "l as",
      "l ank",
      "il es",
      "un e",
      "ward s",
      "add ress",
      "reported ly",
      "nas car",
      "six th",
      "bra ves",
      "consider ing",
      "color ado",
      "cab inet",
      "jak arta",
      "m its",
      "w s",
      "pr ic",
      "tw ice",
      "def ensive",
      "atlant ic",
      "announce ment",
      "famil iar",
      "tosh iba",
      "l on",
      "r all",
      "pe tro",
      "red uc",
      "sudan ese",
      "explo ded",
      "le ts",
      "dis play",
      "200 2",
      "str ing",
      "spe ech",
      "bill s",
      "blast s",
      "wound ing",
      "streng th",
      "jav a",
      "tig ers",
      "s ie",
      "be ach",
      "cl ar",
      "mar ath",
      "chang ed",
      "upgr ade",
      "traff ic",
      "con tr",
      "pro to",
      "quar ters",
      "spe ak",
      "lev els",
      "enrich ment",
      "u le",
      "the ft",
      "ma e",
      "adv ant",
      "democr acy",
      "copy right",
      "f aster",
      "g ear",
      "n ative",
      "z ens",
      "ar ctic",
      "al an",
      "ok laho",
      "stand ing",
      "sel s",
      "sel ves",
      "haw ks",
      "part ner",
      "do zens",
      "zim bab",
      "marath on",
      "s ens",
      "be coming",
      "cr im",
      "ber n",
      "sal v",
      "sat urn",
      "manag ers",
      "oklaho ma",
      "op ing",
      "hal t",
      "sol id",
      "rod dick",
      "zimbab we",
      "z ar",
      "re pe",
      "re ally",
      "allow ed",
      "resp ond",
      "partners hip",
      "coal ition",
      "sem if",
      "4 7",
      "iv al",
      "ph arm",
      "ang u",
      "mot ors",
      "alleg ations",
      "candid ates",
      "6 00",
      "s ri",
      "t ext",
      "re form",
      "are as",
      "200 1",
      "turn s",
      "suffer ed",
      "d rew",
      "j am",
      "s and",
      "t able",
      "def ending",
      "associ ates",
      "crow d",
      "7 00",
      "p ad",
      "un expected",
      "tit an",
      "stand ards"
    ]
  }
}