{
  "version": "1.0",
  "truncation": null,
  "padding": null,
  "added_tokens": [
    {
      "id": 0,
      "content": "[PAD]",
      "single_word": false,
      "lstrip": false,
      "rstrip": false,
      "normalized": false,
      "special": true
    },
    {
      "id": 1,
      "content": "[UNK]",
      "single_word": false,
      "lstrip": false,
      "rstrip": false,
      "normalized": false,
      "special": true
    },
    {
      "id": 2,
      "content": "[CLS]",
      "single_word": false,
      "lstrip": false,
      "rstrip": false,
      "normalized": false,
      "special": true
    },
    {
      "id": 3,
      "content": "[MASK], [SEP]",
      "single_word": false,
      "lstrip": false,
      "rstrip": false,
      "normalized": false,
      "special": true
    }
  ],
  "normalizer": {
    "type": "BertNormalizer",
    "clean_text": true,
    "handle_chinese_chars": true,
    "strip_accents": true,
    "lowercase": true
  },
  "pre_tokenizer": {
    "type": "Whitespace"
  },
  "post_processor": null,
  "decoder": null,
  "model": {
    "type": "BPE",
    "dropout": null,
    "unk_token": "[UNK]",
    "continuing_subword_prefix": null,
    "end_of_word_suffix": null,
    "fuse_unk": false,
    "byte_fallback": false,
    "ignore_merges": false,
    "vocab": {
      "[PAD]": 0,
      "[UNK]": 1,
      "[CLS]": 2,
      "[MASK], [SEP]": 3,
      "#": 4,
      "&": 5,
      "'": 6,
      ",": 7,
      "-": 8,
      ".": 9,
      "0": 10,
      "1": 11,
      "2": 12,
      "3": 13,
      "5": 14,
      "6": 15,
      "8": 16,
      "9": 17,
      ":": 18,
      "<": 19,
      ">": 20,
      "?": 21,
      "@": 22,
      "[": 23,
      "]": 24,
      "_": 25,
      "a": 26,
      "b": 27,
      "c": 28,
      "d": 29,
      "e": 30,
      "f": 31,
      "g": 32,
      "h": 33,
      "i": 34,
      "j": 35,
      "k": 36,
      "l": 37,
      "m": 38,
      "n": 39,
      "o": 40,
      "p": 41,
      "q": 42,
      "r": 43,
      "s": 44,
      "t": 45,
      "u": 46,
      "v": 47,
      "w": 48,
      "x": 49,
      "y": 50,
      "z": 51,
      "th": 52,
      "in": 53,
      "at": 54,
      "re": 55,
      "the": 56,
      "on": 57,
      "an": 58,
      "me": 59,
      "ou": 60,
      "to": 61,
      "is": 62,
      "le": 63,
      "se": 64,
      "or": 65,
      "ve": 66,
      "ay": 67,
      "wh": 68,
      "ar": 69,
      "st": 70,
      "you": 71,
      "ll": 72,
      "er": 73,
      "ing": 74,
      "what": 75,
      "ch": 76,
      "en": 77,
      "ow": 78,
      "ase": 79,
      "it": 80,
      "ne": 81,
      "ple": 82,
      "please": 83,
      "my": 84,
      "pl": 85,
      "for": 86,
      "et": 87,
      "of": 88,
      "om": 89,
      "ai": 90,
      "day": 91,
      "ic": 92,
      "te": 93,
      "and": 94,
      "we": 95,
      "do": 96,
      "play": 97,
      "nt": 98,
      "gh": 99,
      "li": 100,
      "es": 101,
      "ur": 102,
      "ha": 103,
      "ail": 104,
      "nd": 105,
      "ti": 106,
      "ke": 107,
      "ist": 108,
      "ra": 109,
      "ed": 110,
      "ght": 111,
      "oo": 112,
      "al": 113,
      "em": 114,
      "wi": 115,
      "fr": 116,
      "ck": 117,
      "ld": 118,
      "how": 119,
      "list": 120,
      "this": 121,
      "no": 122,
      "can": 123,
      "ca": 124,
      "new": 125,
      "di": 126,
      "that": 127,
      "ate": 128,
      "as": 129,
      "one": 130,
      "de": 131,
      "ind": 132,
      "email": 133,
      "mo": 134,
      "ab": 135,
      "out": 136,
      "ce": 137,
      "ri": 138,
      "eve": 139,
      "ould": 140,
      "from": 141,
      "any": 142,
      "ad": 143,
      "have": 144,
      "ct": 145,
      "us": 146,
      "are": 147,
      "am": 148,
      "po": 149,
      "fi": 150,
      "time": 151,
      "ong": 152,
      "be": 153,
      "ro": 154,
      "today": 155,
      "con": 156,
      "ion": 157,
      "up": 158,
      "tell": 159,
      "ag": 160,
      "ain": 161,
      "he": 162,
      "com": 163,
      "about": 164,
      "all": 165,
      "ap": 166,
      "so": 167,
      "go": 168,
      "ry": 169,
      "event": 170,
      "ant": 171,
      "ook": 172,
      "mind": 173,
      "not": 174,
      "ast": 175,
      "with": 176,
      "ake": 177,
      "now": 178,
      "tra": 179,
      "ther": 180,
      "set": 181,
      "che": 182,
      "meet": 183,
      "art": 184,
      "sh": 185,
      "mor": 186,
      "meeting": 187,
      "song": 188,
      "ly": 189,
      "oll": 190,
      "lo": 191,
      "off": 192,
      "remind": 193,
      "tw": 194,
      "light": 195,
      "ut": 196,
      "will": 197,
      "rec": 198,
      "pe": 199,
      "check": 200,
      "olly": 201,
      "res": 202,
      "ation": 203,
      "xt": 204,
      "ent": 205,
      "would": 206,
      "ge": 207,
      "lend": 208,
      "calend": 209,
      "calendar": 210,
      "get": 211,
      "next": 212,
      "tur": 213,
      "like": 214,
      "un": 215,
      "arm": 216,
      "last": 217,
      "ex": 218,
      "was": 219,
      "wor": 220,
      "right": 221,
      "turn": 222,
      "um": 223,
      "mus": 224,
      "again": 225,
      "ek": 226,
      "week": 227,
      "add": 228,
      "ir": 229,
      "sto": 230,
      "jo": 231,
      "row": 232,
      "ter": 233,
      "alarm": 234,
      "book": 235,
      "news": 236,
      "op": 237,
      "need": 238,
      "ank": 239,
      "our": 240,
      "want": 241,
      "tomor": 242,
      "tomorrow": 243,
      "fir": 244,
      "aid": 245,
      "said": 246,
      "cor": 247,
      "ive": 248,
      "did": 249,
      "music": 250,
      "co": 251,
      "train": 252,
      "send": 253,
      "ice": 254,
      "ine": 255,
      "thank": 256,
      "pm": 257,
      "ather": 258,
      "your": 259,
      "ye": 260,
      "weather": 261,
      "mu": 262,
      "ju": 263,
      "chan": 264,
      "some": 265,
      "ood": 266,
      "ick": 267,
      "does": 268,
      "si": 269,
      "dio": 270,
      "lights": 271,
      "ere": 272,
      "show": 273,
      "there": 274,
      "by": 275,
      "und": 276,
      "sw": 277,
      "more": 278,
      "cur": 279,
      "ers": 280,
      "ta": 281,
      "rect": 282,
      "could": 283,
      "curre": 284,
      "vi": 285,
      "correct": 286,
      "confir": 287,
      "make": 288,
      "ac": 289,
      "ink": 290,
      "when": 291,
      "mar": 292,
      "cle": 293,
      "thing": 294,
      "reci": 295,
      "cast": 296,
      "events": 297,
      "start": 298,
      "emails": 299,
      "ame": 300,
      "two": 301,
      "ue": 302,
      "late": 303,
      "bo": 304,
      "ight": 305,
      "if": 306,
      "just": 307,
      "move": 308,
      "confirm": 309,
      "think": 310,
      "current": 311,
      "ff": 312,
      "find": 313,
      "twe": 314,
      "change": 315,
      "fa": 316,
      "where": 317,
      "remove": 318,
      "ven": 319,
      "ph": 320,
      "comm": 321,
      "ten": 322,
      "command": 323,
      "red": 324,
      "tion": 325,
      "five": 326,
      "answ": 327,
      "der": 328,
      "give": 329,
      "per": 330,
      "ul": 331,
      "ber": 332,
      "ment": 333,
      "ak": 334,
      "ning": 335,
      "sch": 336,
      "much": 337,
      "mi": 338,
      "edu": 339,
      "let": 340,
      "fe": 341,
      "know": 342,
      "app": 343,
      "edule": 344,
      "radio": 345,
      "int": 346,
      "plain": 347,
      "date": 348,
      "ume": 349,
      "ree": 350,
      "pon": 351,
      "latest": 352,
      "dele": 353,
      "going": 354,
      "schedule": 355,
      "end": 356,
      "ho": 357,
      "ty": 358,
      "ver": 359,
      "respon": 360,
      "icket": 361,
      "but": 362,
      "point": 363,
      "fri": 364,
      "delete": 365,
      "don": 366,
      "doll": 367,
      "tweet": 368,
      "ticket": 369,
      "work": 370,
      "pod": 371,
      "dollar": 372,
      "mon": 373,
      "podcast": 374,
      "done": 375,
      "good": 376,
      "fo": 377,
      "take": 378,
      "seven": 379,
      "open": 380,
      "ite": 381,
      "pp": 382,
      "response": 383,
      "cre": 384,
      "many": 385,
      "playlist": 386,
      "ss": 387,
      "answer": 388,
      "pr": 389,
      "hear": 390,
      "appreci": 391,
      "ated": 392,
      "cl": 393,
      "au": 394,
      "loc": 395,
      "hi": 396,
      "room": 397,
      "reminder": 398,
      "conta": 399,
      "wr": 400,
      "cel": 401,
      "contact": 402,
      "el": 403,
      "order": 404,
      "bir": 405,
      "happ": 406,
      "ah": 407,
      "ol": 408,
      "got": 409,
      "twent": 410,
      "twenty": 411,
      "clear": 412,
      "three": 413,
      "stock": 414,
      "read": 415,
      "spe": 416,
      "ave": 417,
      "tu": 418,
      "ee": 419,
      "birth": 420,
      "ack": 421,
      "det": 422,
      "once": 423,
      "por": 424,
      "ard": 425,
      "thanks": 426,
      "birthday": 427,
      "detail": 428,
      "pro": 429,
      "thir": 430,
      "who": 431,
      "coff": 432,
      "four": 433,
      "coffee": 434,
      "ity": 435,
      "under": 436,
      "su": 437,
      "rate": 438,
      "appoint": 439,
      "ru": 440,
      "ally": 441,
      "appointment": 442,
      "ep": 443,
      "ound": 444,
      "ction": 445,
      "vol": 446,
      "way": 447,
      "ork": 448,
      "form": 449,
      "hund": 450,
      "say": 451,
      "morning": 452,
      "hundred": 453,
      "shop": 454,
      "port": 455,
      "sor": 456,
      "own": 457,
      "nine": 458,
      "af": 459,
      "hn": 460,
      "john": 461,
      "fore": 462,
      "mail": 463,
      "cer": 464,
      "volume": 465,
      "sorry": 466,
      "sun": 467,
      "ser": 468,
      "york": 469,
      "down": 470,
      "fur": 471,
      "ton": 472,
      "happen": 473,
      "rest": 474,
      "qu": 475,
      "six": 476,
      "hour": 477,
      "exchange": 478,
      "ful": 479,
      "def": 480,
      "every": 481,
      "speak": 482,
      "further": 483,
      "ask": 484,
      "ffic": 485,
      "part": 486,
      "inform": 487,
      "traffic": 488,
      "bet": 489,
      "ma": 490,
      "songs": 491,
      "cancel": 492,
      "after": 493,
      "bi": 494,
      "put": 495,
      "eight": 496,
      "very": 497,
      "teen": 498,
      "wrong": 499,
      "ous": 500,
      "face": 501,
      "que": 502,
      "inst": 503,
      "really": 504,
      "should": 505,
      "br": 506,
      "look": 507,
      "pi": 508,
      "whi": 509,
      "zz": 510,
      "repl": 511,
      "friday": 512,
      "im": 513,
      "hel": 514,
      "fav": 515,
      "movi": 516,
      "hey": 517,
      "ving": 518,
      "ount": 519,
      "help": 520,
      "explain": 521,
      "facebook": 522,
      "has": 523,
      "bu": 524,
      "information": 525,
      "which": 526,
      "clo": 527,
      "tif": 528,
      "ctly": 529,
      "complain": 530,
      "cook": 531,
      "ner": 532,
      "stand": 533,
      "playing": 534,
      "post": 535,
      "age": 536,
      "col": 537,
      "gre": 538,
      "game": 539,
      "ition": 540,
      "ween": 541,
      "march": 542,
      "appreciated": 543,
      "between": 544,
      "id": 545,
      "vac": 546,
      "near": 547,
      "stop": 548,
      "sent": 549,
      "station": 550,
      "listen": 551,
      "name": 552,
      "rain": 553,
      "shut": 554,
      "serv": 555,
      "tr": 556,
      "reply": 557,
      "sday": 558,
      "call": 559,
      "word": 560,
      "month": 561,
      "les": 562,
      "mat": 563,
      "anything": 564,
      "best": 565,
      "aur": 566,
      "whats": 567,
      "fif": 568,
      "dollars": 569,
      "yes": 570,
      "year": 571,
      "clean": 572,
      "thirty": 573,
      "price": 574,
      "instru": 575,
      "complaint": 576,
      "sear": 577,
      "item": 578,
      "rock": 579,
      "alarms": 580,
      "service": 581,
      "iso": 582,
      "perfe": 583,
      "home": 584,
      "favor": 585,
      "repe": 586,
      "quest": 587,
      "vacu": 588,
      "search": 589,
      "repeat": 590,
      "ace": 591,
      "des": 592,
      "long": 593,
      "job": 594,
      "instruction": 595,
      "food": 596,
      "s1": 597,
      "able": 598,
      "happening": 599,
      "restaur": 600,
      "restaurant": 601,
      "ping": 602,
      "use": 603,
      "ance": 604,
      "here": 605,
      "coming": 606,
      "recent": 607,
      "audio": 608,
      "vacuum": 609,
      "bre": 610,
      "je": 611,
      "man": 612,
      "try": 613,
      "ure": 614,
      "most": 615,
      "ama": 616,
      "ress": 617,
      "create": 618,
      "gro": 619,
      "understand": 620,
      "min": 621,
      "episo": 622,
      "cri": 623,
      "details": 624,
      "ates": 625,
      "mean": 626,
      "itch": 627,
      "world": 628,
      "grocer": 629,
      "correctly": 630,
      "episode": 631,
      "av": 632,
      "eur": 633,
      "il": 634,
      "low": 635,
      "esday": 636,
      "tuesday": 637,
      "shopping": 638,
      "os": 639,
      "ass": 640,
      "tonight": 641,
      "car": 642,
      "ny": 643,
      "recipe": 644,
      "party": 645,
      "ies": 646,
      "num": 647,
      "top": 648,
      "yeah": 649,
      "clar": 650,
      "notif": 651,
      "bl": 652,
      "ute": 653,
      "times": 654,
      "yeap": 655,
      "gra": 656,
      "pre": 657,
      "days": 658,
      "abor": 659,
      "area": 660,
      "phone": 661,
      "city": 662,
      "nin": 663,
      "thous": 664,
      "noon": 665,
      "elabor": 666,
      "thousand": 667,
      "elaborate": 668,
      "count": 669,
      "est": 670,
      "lists": 671,
      "weekend": 672,
      "grocery": 673,
      "din": 674,
      "gle": 675,
      "well": 676,
      "ump": 677,
      "friend": 678,
      "descri": 679,
      "ia": 680,
      "wed": 681,
      "deli": 682,
      "ify": 683,
      "appreciate": 684,
      "clarify": 685,
      "rase": 686,
      "xi": 687,
      "phrase": 688,
      "local": 689,
      "pizz": 690,
      "bright": 691,
      "goo": 692,
      "ines": 693,
      "place": 694,
      "sock": 695,
      "mark": 696,
      "hou": 697,
      "s2": 698,
      "head": 699,
      "exa": 700,
      "ele": 701,
      "before": 702,
      "first": 703,
      "taxi": 704,
      "number": 705,
      "pizza": 706,
      "socket": 707,
      "atch": 708,
      "rece": 709,
      "ish": 710,
      "ary": 711,
      "update": 712,
      "trump": 713,
      "see": 714,
      "contacts": 715,
      "ject": 716,
      "amaz": 717,
      "jack": 718,
      "sing": 719,
      "atur": 720,
      "mer": 721,
      "mess": 722,
      "defin": 723,
      "movie": 724,
      "save": 725,
      "stat": 726,
      "ication": 727,
      "dia": 728,
      "sub": 729,
      "great": 730,
      "favorite": 731,
      "minute": 732,
      "ninet": 733,
      "google": 734,
      "mom": 735,
      "par": 736,
      "tem": 737,
      "pop": 738,
      "reminders": 739,
      "scheduled": 740,
      "receive": 741,
      "ale": 742,
      "back": 743,
      "spo": 744,
      "cont": 745,
      "joke": 746,
      "house": 747,
      "away": 748,
      "mart": 749,
      "satur": 750,
      "monday": 751,
      "dinner": 752,
      "ug": 753,
      "ster": 754,
      "itter": 755,
      "ted": 756,
      "ci": 757,
      "old": 758,
      "meetings": 759,
      "twitter": 760,
      "unch": 761,
      "location": 762,
      "definition": 763,
      "lve": 764,
      "na": 765,
      "side": 766,
      "saturday": 767,
      "air": 768,
      "dot": 769,
      "cond": 770,
      "address": 771,
      "minutes": 772,
      "ble": 773,
      "od": 774,
      "ater": 775,
      "rephrase": 776,
      "ence": 777,
      "her": 778,
      "la": 779,
      "perfectly": 780,
      "nice": 781,
      "ange": 782,
      "plug": 783,
      "ool": 784,
      "question": 785,
      "perat": 786,
      "matter": 787,
      "euro": 788,
      "temperat": 789,
      "ric": 790,
      "son": 791,
      "incorrect": 792,
      "vel": 793,
      "star": 794,
      "musch": 795,
      "import": 796,
      "color": 797,
      "sed": 798,
      "answers": 799,
      "define": 800,
      "upcoming": 801,
      "comp": 802,
      "cleaner": 803,
      "describe": 804,
      "tor": 805,
      "around": 806,
      "ami": 807,
      "forecast": 808,
      "temperature": 809,
      "ip": 810,
      "tal": 811,
      "thur": 812,
      "evening": 813,
      "didn": 814,
      "thursday": 815,
      "pu": 816,
      "sp": 817,
      "uh": 818,
      "living": 819,
      "notification": 820,
      "status": 821,
      "fm": 822,
      "gr": 823,
      "ts": 824,
      "plan": 825,
      "mute": 826,
      "ninety": 827,
      "audiobook": 828,
      "avail": 829,
      "received": 830,
      "dis": 831,
      "ger": 832,
      "gard": 833,
      "lunch": 834,
      "pers": 835,
      "ting": 836,
      "uber": 837,
      "med": 838,
      "live": 839,
      "love": 840,
      "cus": 841,
      "night": 842,
      "over": 843,
      "inter": 844,
      "upd": 845,
      "resume": 846,
      "switch": 847,
      "takeaway": 848,
      "hours": 849,
      "buy": 850,
      "ach": 851,
      "ball": 852,
      "uff": 853,
      "won": 854,
      "sele": 855,
      "crease": 856,
      "person": 857,
      "bus": 858,
      "cy": 859,
      "pres": 860,
      "task": 861,
      "chine": 862,
      "hot": 863,
      "high": 864,
      "bb": 865,
      "ide": 866,
      "lit": 867,
      "tow": 868,
      "led": 869,
      "stood": 870,
      "twelve": 871,
      "understood": 872,
      "instructions": 873,
      "exactly": 874,
      "available": 875,
      "bed": 876,
      "val": 877,
      "ise": 878,
      "nesday": 879,
      "ever": 880,
      "ago": 881,
      "class": 882,
      "bill": 883,
      "sentence": 884,
      "lower": 885,
      "wednesday": 886,
      "cial": 887,
      "ft": 888,
      "wake": 889,
      "ald": 890,
      "conver": 891,
      "recly": 892,
      "correcly": 893,
      "something": 894,
      "teenth": 895,
      "words": 896,
      "land": 897,
      "wemo": 898,
      "outside": 899,
      "astic": 900,
      "bring": 901,
      "movies": 902,
      "custo": 903,
      "cent": 904,
      "ding": 905,
      "fun": 906,
      "ok": 907,
      "tle": 908,
      "acti": 909,
      "write": 910,
      "message": 911,
      "customer": 912,
      "fant": 913,
      "run": 914,
      "chic": 915,
      "neare": 916,
      "bot": 917,
      "afternoon": 918,
      "fantastic": 919,
      "chicago": 920,
      "nearest": 921,
      "catch": 922,
      "foll": 923,
      "oh": 924,
      "lent": 925,
      "ril": 926,
      "vide": 927,
      "donald": 928,
      "follow": 929,
      "gg": 930,
      "lines": 931,
      "may": 932,
      "mes": 933,
      "ough": 934,
      "tions": 935,
      "gotten": 936,
      "ja": 937,
      "nce": 938,
      "pes": 939,
      "snow": 940,
      "box": 941,
      "gmail": 942,
      "lf": 943,
      "pick": 944,
      "nel": 945,
      "april": 946,
      "yester": 947,
      "things": 948,
      "helpful": 949,
      "bbc": 950,
      "bor": 951,
      "bur": 952,
      "du": 953,
      "fl": 954,
      "nn": 955,
      "sha": 956,
      "sup": 957,
      "its": 958,
      "wear": 959,
      "robot": 960,
      "channel": 961,
      "sunday": 962,
      "country": 963,
      "subject": 964,
      "important": 965,
      "bar": 966,
      "dy": 967,
      "ople": 968,
      "ics": 969,
      "ices": 970,
      "apple": 971,
      "people": 972,
      "tune": 973,
      "close": 974,
      "useful": 975,
      "blue": 976,
      "gram": 977,
      "wonder": 978,
      "yesterday": 979,
      "ba": 980,
      "ear": 981,
      "smart": 982,
      "increase": 983,
      "inbox": 984,
      "leave": 985,
      "chick": 986,
      "ess": 987,
      "direc": 988,
      "rive": 989,
      "mil": 990,
      "delivery": 991,
      "select": 992,
      "cool": 993,
      "cnn": 994,
      "his": 995,
      "jan": 996,
      "line": 997,
      "ob": 998,
      "media": 999,
      "second": 1000,
      "ical": 1001,
      "doc": 1002,
      "care": 1003,
      "diff": 1004,
      "currently": 1005,
      "understanding": 1006,
      "updates": 1007,
      "town": 1008,
      "activ": 1009,
      "wonderful": 1010,
      "awe": 1011,
      "da": 1012,
      "free": 1013,
      "ken": 1014,
      "mber": 1015,
      "wa": 1016,
      "tom": 1017,
      "chr": 1018,
      "plus": 1019,
      "ked": 1020,
      "shuff": 1021,
      "joe": 1022,
      "come": 1023,
      "americ": 1024,
      "program": 1025,
      "amazing": 1026,
      "talk": 1027,
      "presid": 1028,
      "jazz": 1029,
      "chicken": 1030,
      "ps": 1031,
      "vis": 1032,
      "lla": 1033,
      "had": 1034,
      "dian": 1035,
      "wouldn": 1036,
      "store": 1037,
      "seventeen": 1038,
      "clock": 1039,
      "idea": 1040,
      "differe": 1041,
      "cal": 1042,
      "kitch": 1043,
      "las": 1044,
      "ang": 1045,
      "doing": 1046,
      "note": 1047,
      "bob": 1048,
      "ular": 1049,
      "third": 1050,
      "nearby": 1051,
      "following": 1052,
      "kitchen": 1053,
      "bum": 1054,
      "fre": 1055,
      "pound": 1056,
      "request": 1057,
      "them": 1058,
      "too": 1059,
      "west": 1060,
      "oose": 1061,
      "concer": 1062,
      "excel": 1063,
      "fifty": 1064,
      "perfect": 1065,
      "king": 1066,
      "mit": 1067,
      "sa": 1068,
      "tri": 1069,
      "zone": 1070,
      "ans": 1071,
      "men": 1072,
      "keep": 1073,
      "shit": 1074,
      "worth": 1075,
      "cold": 1076,
      "doesn": 1077,
      "vid": 1078,
      "happy": 1079,
      "appointments": 1080,
      "headlines": 1081,
      "doctor": 1082,
      "shuffle": 1083,
      "kes": 1084,
      "mm": 1085,
      "wal": 1086,
      "left": 1087,
      "album": 1088,
      "curren": 1089,
      "confirmed": 1090,
      "boss": 1091,
      "break": 1092,
      "amazon": 1093,
      "company": 1094,
      "bedroom": 1095,
      "excellent": 1096,
      "bad": 1097,
      "cup": 1098,
      "fami": 1099,
      "gy": 1100,
      "gave": 1101,
      "lon": 1102,
      "nia": 1103,
      "other": 1104,
      "sound": 1105,
      "choose": 1106,
      "ites": 1107,
      "forty": 1108,
      "fornia": 1109,
      "lifornia": 1110,
      "california": 1111,
      "ries": 1112,
      "umbre": 1113,
      "percent": 1114,
      "qui": 1115,
      "awesome": 1116,
      "gin": 1117,
      "later": 1118,
      "past": 1119,
      "they": 1120,
      "ness": 1121,
      "played": 1122,
      "social": 1123,
      "umer": 1124,
      "speakers": 1125,
      "looking": 1126,
      "london": 1127,
      "umbrella": 1128,
      "hmm": 1129,
      "ie": 1130,
      "sk": 1131,
      "sy": 1132,
      "sar": 1133,
      "smi": 1134,
      "tre": 1135,
      "info": 1136,
      "only": 1137,
      "ann": 1138,
      "ston": 1139,
      "whatever": 1140,
      "rid": 1141,
      "pot": 1142,
      "cons": 1143,
      "ages": 1144,
      "artist": 1145,
      "gest": 1146,
      "aler": 1147,
      "contin": 1148,
      "family": 1149,
      "cr": 1150,
      "mount": 1151,
      "tit": 1152,
      "regard": 1153,
      "member": 1154,
      "sti": 1155,
      "cha": 1156,
      "dim": 1157,
      "del": 1158,
      "lot": 1159,
      "wash": 1160,
      "shops": 1161,
      "pull": 1162,
      "convert": 1163,
      "born": 1164,
      "president": 1165,
      "east": 1166,
      "egg": 1167,
      "gen": 1168,
      "igh": 1169,
      "mas": 1170,
      "pay": 1171,
      "pur": 1172,
      "sam": 1173,
      "ward": 1174,
      "ina": 1175,
      "india": 1176,
      "their": 1177,
      "erase": 1178,
      "player": 1179,
      "unclear": 1180,
      "made": 1181,
      "fifth": 1182,
      "messed": 1183,
      "directions": 1184,
      "currency": 1185,
      "den": 1186,
      "pit": 1187,
      "san": 1188,
      "sport": 1189,
      "ze": 1190,
      "report": 1191,
      "ari": 1192,
      "ste": 1193,
      "stre": 1194,
      "rap": 1195,
      "oot": 1196,
      "hell": 1197,
      "setting": 1198,
      "office": 1199,
      "micha": 1200,
      "saying": 1201,
      "manner": 1202,
      "meaning": 1203,
      "notify": 1204,
      "market": 1205,
      "eleven": 1206,
      "uhh": 1207,
      "consumer": 1208,
      "michael": 1209,
      "eat": 1210,
      "gi": 1211,
      "gan": 1212,
      "pow": 1213,
      "inte": 1214,
      "remember": 1215,
      "enough": 1216,
      "key": 1217,
      "oney": 1218,
      "mary": 1219,
      "marri": 1220,
      "happened": 1221,
      "speaker": 1222,
      "alert": 1223,
      "cen": 1224,
      "dam": 1225,
      "ese": 1226,
      "far": 1227,
      "lou": 1228,
      "mist": 1229,
      "pend": 1230,
      "isn": 1231,
      "ley": 1232,
      "ord": 1233,
      "why": 1234,
      "ington": 1235,
      "enn": 1236,
      "enti": 1237,
      "dog": 1238,
      "been": 1239,
      "comme": 1240,
      "coat": 1241,
      "vie": 1242,
      "prices": 1243,
      "located": 1244,
      "ready": 1245,
      "euros": 1246,
      "graph": 1247,
      "deliver": 1248,
      "election": 1249,
      "wait": 1250,
      ",.": 1251,
      "bro": 1252,
      "dent": 1253,
      "gar": 1254,
      "yen": 1255,
      "recomme": 1256,
      "ned": 1257,
      "net": 1258,
      "ham": 1259,
      "nope": 1260,
      "tickets": 1261,
      "sunny": 1262,
      "items": 1263,
      "chinese": 1264,
      "milk": 1265,
      "concert": 1266,
      "smith": 1267,
      "regarding": 1268,
      "dammit": 1269,
      "pending": 1270,
      "recommend": 1271,
      "lar": 1272,
      "mc": 1273,
      "ring": 1274,
      "rus": 1275,
      "replay": 1276,
      "eng": 1277,
      "als": 1278,
      "los": 1279,
      "ational": 1280,
      "ents": 1281,
      "provide": 1282,
      "cooking": 1283,
      "iness": 1284,
      "park": 1285,
      "power": 1286,
      "ali": 1287,
      "bit": 1288,
      "dom": 1289,
      "ms": 1290,
      "ni": 1291,
      "pand": 1292,
      "ption": 1293,
      "sou": 1294,
      "sof": 1295,
      "sus": 1296,
      "watch": 1297,
      "inv": 1298,
      "ating": 1299,
      "len": 1300,
      "llow": 1301,
      "char": 1302,
      "cks": 1303,
      "die": 1304,
      "unread": 1305,
      "boston": 1306,
      "mike": 1307,
      "lets": 1308,
      "machine": 1309,
      "green": 1310,
      "favorites": 1311,
      "exact": 1312,
      "paris": 1313,
      "business": 1314,
      "sports": 1315,
      "view": 1316,
      "dentist": 1317,
      "gas": 1318,
      "national": 1319,
      "pet": 1320,
      "unt": 1321,
      "into": 1322,
      "incorrectly": 1323,
      "then": 1324,
      "level": 1325,
      "ses": 1326,
      "chi": 1327,
      "travel": 1328,
      "restaurants": 1329,
      "friends": 1330,
      "wedding": 1331,
      "jackson": 1332,
      "messages": 1333,
      "spoken": 1334,
      "trend": 1335,
      "bs": 1336,
      "band": 1337,
      "ces": 1338,
      "dance": 1339,
      "fast": 1340,
      "gu": 1341,
      "mak": 1342,
      "oc": 1343,
      "ograph": 1344,
      "pare": 1345,
      "rs": 1346,
      "tall": 1347,
      "uck": 1348,
      "warm": 1349,
      "these": 1350,
      "onna": 1351,
      "ora": 1352,
      "arrive": 1353,
      "ney": 1354,
      "polit": 1355,
      "begin": 1356,
      "cheese": 1357,
      "cost": 1358,
      "bother": 1359,
      "brightness": 1360,
      "spoke": 1361,
      "garden": 1362,
      "american": 1363,
      "difference": 1364,
      "sarah": 1365,
      "mountain": 1366,
      "washington": 1367,
      "street": 1368,
      "interest": 1369,
      "equ": 1370,
      "fall": 1371,
      "han": 1372,
      "main": 1373,
      "nor": 1374,
      "rou": 1375,
      "rup": 1376,
      "wan": 1377,
      "than": 1378,
      "reset": 1379,
      "retry": 1380,
      "vent": 1381,
      "cho": 1382,
      "ited": 1383,
      "ister": 1384,
      "raise": 1385,
      "artic": 1386,
      "geor": 1387,
      "mid": 1388,
      "miami": 1389,
      "takeout": 1390,
      "sung": 1391,
      "big": 1392,
      "favour": 1393,
      "tify": 1394,
      "games": 1395,
      "recently": 1396,
      "funny": 1397,
      "skip": 1398,
      "domin": 1399,
      "bru": 1400,
      "dail": 1401,
      "mall": 1402,
      "money": 1403,
      "war": 1404,
      "indian": 1405,
      "pol": 1406,
      "siri": 1407,
      "account": 1408,
      "bert": 1409,
      "aust": 1410,
      "produ": 1411,
      "sure": 1412,
      "colour": 1413,
      "description": 1414,
      "condition": 1415,
      "angeles": 1416,
      "highest": 1417,
      "little": 1418,
      "activate": 1419,
      "christ": 1420,
      "easter": 1421,
      "hello": 1422,
      "pandora": 1423,
      "route": 1424,
      "daily": 1425,
      "bai": 1426,
      "dan": 1427,
      "dar": 1428,
      "kind": 1429,
      "lin": 1430,
      "mad": 1431,
      "pa": 1432,
      "pri": 1433,
      "sn": 1434,
      "scre": 1435,
      "win": 1436,
      "wind": 1437,
      "ones": 1438,
      "tech": 1439,
      "ram": 1440,
      "ash": 1441,
      "via": 1442,
      "feed": 1443,
      "him": 1444,
      "fourth": 1445,
      "brit": 1446,
      "searching": 1447,
      "brighten": 1448,
      "popular": 1449,
      "continue": 1450,
      "until": 1451,
      "bow": 1452,
      "bra": 1453,
      "cin": 1454,
      "dr": 1455,
      "dri": 1456,
      "eth": 1457,
      "yet": 1458,
      "ince": 1459,
      "atten": 1460,
      "rel": 1461,
      "theat": 1462,
      "seat": 1463,
      "orid": 1464,
      "state": 1465,
      "life": 1466,
      "having": 1467,
      "cele": 1468,
      "pos": 1469,
      "beat": 1470,
      "road": 1471,
      "cheap": 1472,
      "pho": 1473,
      "feel": 1474,
      "holi": 1475,
      "eighty": 1476,
      "match": 1477,
      "fifteen": 1478,
      "prepare": 1479,
      "jacket": 1480,
      "airport": 1481,
      "busy": 1482,
      "florid": 1483,
      "closest": 1484,
      "earth": 1485,
      "object": 1486,
      "walmart": 1487,
      "christmas": 1488,
      "florida": 1489,
      ",,": 1490,
      "mum": 1491,
      "oes": 1492,
      "rates": 1493,
      "sand": 1494,
      "sco": 1495,
      "tar": 1496,
      "yo": 1497,
      "thes": 1498,
      "mex": 1499,
      "self": 1500,
      "sevent": 1501,
      "ased": 1502,
      "itu": 1503,
      "newest": 1504,
      "istance": 1505,
      "track": 1506,
      "unimportant": 1507,
      "added": 1508,
      "ivers": 1509,
      "june": 1510,
      "everything": 1511,
      "raining": 1512,
      "brighter": 1513,
      "importance": 1514,
      "display": 1515,
      "classical": 1516,
      "super": 1517,
      "david": 1518,
      "quiet": 1519,
      "title": 1520,
      "eggs": 1521,
      "settings": 1522,
      "trending": 1523,
      "favourite": 1524,
      "cu": 1525,
      "cli": 1526,
      "dc": 1527,
      "eigh": 1528,
      "har": 1529,
      "lam": 1530,
      "mr": 1531,
      "pen": 1532,
      "wish": 1533,
      "throom": 1534,
      "redi": 1535,
      "anc": 1536,
      "states": 1537,
      "ingredi": 1538,
      "plac": 1539,
      "were": 1540,
      "wife": 1541,
      "ride": 1542,
      "ady": 1543,
      "soon": 1544,
      "load": 1545,
      "tomorrows": 1546,
      "trains": 1547,
      "july": 1548,
      "ments": 1549,
      "quite": 1550,
      "listening": 1551,
      "okay": 1552,
      "pesos": 1553,
      "burger": 1554,
      "bathroom": 1555,
      "fresh": 1556,
      "mistake": 1557,
      "soft": 1558,
      "george": 1559,
      "product": 1560,
      "mexic": 1561,
      "seventy": 1562,
      "ban": 1563,
      "cra": 1564,
      "fin": 1565,
      "foot": 1566,
      "gn": 1567,
      "jap": 1568,
      "ki": 1569,
      "lady": 1570,
      "swe": 1571,
      "china": 1572,
      "forward": 1573,
      "ica": 1574,
      "lia": 1575,
      "oops": 1576,
      "depart": 1577,
      "pose": 1578,
      "ross": 1579,
      "xty": 1580,
      "enter": 1581,
      "unk": 1582,
      "united": 1583,
      "weeks": 1584,
      "jokes": 1585,
      "sixty": 1586,
      "couldn": 1587,
      "respond": 1588,
      "workout": 1589,
      "seventh": 1590,
      "fifteenth": 1591,
      "years": 1592,
      "topic": 1593,
      "singer": 1594,
      "notifications": 1595,
      "classic": 1596,
      "genre": 1597,
      "married": 1598,
      "screen": 1599,
      "japan": 1600,
      "cted": 1601,
      "dad": 1602,
      "een": 1603,
      "iphone": 1604,
      "jame": 1605,
      "ker": 1606,
      "kid": 1607,
      "ore": 1608,
      "pra": 1609,
      "pap": 1610,
      "rand": 1611,
      "sum": 1612,
      "tv": 1613,
      "review": 1614,
      "meal": 1615,
      "chess": 1616,
      "franc": 1617,
      "ason": 1618,
      "mobi": 1619,
      "usa": 1620,
      "record": 1621,
      "geograph": 1622,
      "stories": 1623,
      "yellow": 1624,
      "ific": 1625,
      "ffe": 1626,
      "festi": 1627,
      "podcasts": 1628,
      "stocks": 1629,
      "colle": 1630,
      "value": 1631,
      "jane": 1632,
      "chris": 1633,
      "breaking": 1634,
      "gym": 1635,
      "annivers": 1636,
      "james": 1637,
      "festival": 1638,
      "anniversary": 1639,
      "drive": 1640,
      "econ": 1641,
      "fere": 1642,
      "hit": 1643,
      "hand": 1644,
      "ka": 1645,
      "kar": 1646,
      "lis": 1647,
      "npr": 1648,
      "pic": 1649,
      "pac": 1650,
      "pau": 1651,
      "ron": 1652,
      "range": 1653,
      "squ": 1654,
      "wood": 1655,
      "rele": 1656,
      "vegas": 1657,
      "ings": 1658,
      "ailed": 1659,
      "test": 1660,
      "text": 1661,
      "ems": 1662,
      "cab": 1663,
      "mother": 1664,
      "posed": 1665,
      "file": 1666,
      "aga": 1667,
      "tral": 1668,
      "someone": 1669,
      "partic": 1670,
      "wrongly": 1671,
      "true": 1672,
      "repeating": 1673,
      "spotify": 1674,
      "content": 1675,
      "ground": 1676,
      "obama": 1677,
      "vided": 1678,
      "politics": 1679,
      "wanted": 1680,
      "dark": 1681,
      "seattle": 1682,
      "mumbai": 1683,
      "random": 1684,
      "bab": 1685,
      "bers": 1686,
      "cess": 1687,
      "dra": 1688,
      "dall": 1689,
      "fu": 1690,
      "fut": 1691,
      "fine": 1692,
      "hair": 1693,
      "lle": 1694,
      "press": 1695,
      "rice": 1696,
      "sister": 1697,
      "yah": 1698,
      "thr": 1699,
      "ata": 1700,
      "ative": 1701,
      "meat": 1702,
      "chuck": 1703,
      "ities": 1704,
      "never": 1705,
      "rage": 1706,
      "capit": 1707,
      "inder": 1708,
      "rible": 1709,
      "robert": 1710,
      "agram": 1711,
      "lighting": 1712,
      "resul": 1713,
      "joy": 1714,
      "opin": 1715,
      "school": 1716,
      "type": 1717,
      "proble": 1718,
      "serve": 1719,
      "instagram": 1720,
      "avy": 1721,
      "hero": 1722,
      "compare": 1723,
      "spa": 1724,
      "grand": 1725,
      "planned": 1726,
      "internet": 1727,
      "share": 1728,
      "pasta": 1729,
      "still": 1730,
      "steak": 1731,
      "mcdonald": 1732,
      "interesting": 1733,
      "eastern": 1734,
      "madonna": 1735,
      "beatles": 1736,
      "holiday": 1737,
      "football": 1738,
      "yahoo": 1739,
      "capital": 1740,
      "boo": 1741,
      "bank": 1742,
      "cut": 1743,
      "due": 1744,
      "ef": 1745,
      "ga": 1746,
      "hu": 1747,
      "hor": 1748,
      "hut": 1749,
      "jer": 1750,
      "jim": 1751,
      "jenn": 1752,
      "she": 1753,
      "ual": 1754,
      "vo": 1755,
      "vin": 1756,
      "ys": 1757,
      "ana": 1758,
      "ought": 1759,
      "iss": 1760,
      "less": 1761,
      "seems": 1762,
      "orange": 1763,
      "steve": 1764,
      "lls": 1765,
      "ital": 1766,
      "etti": 1767,
      "tex": 1768,
      "tele": 1769,
      "alth": 1770,
      "allen": 1771,
      "divided": 1772,
      "fix": 1773,
      "being": 1774,
      "compose": 1775,
      "expe": 1776,
      "must": 1777,
      "vious": 1778,
      "recipes": 1779,
      "justin": 1780,
      "ulation": 1781,
      "miles": 1782,
      "working": 1783,
      "mails": 1784,
      "downtown": 1785,
      "better": 1786,
      "math": 1787,
      "clothes": 1788,
      "blank": 1789,
      "previous": 1790,
      "updated": 1791,
      "running": 1792,
      "supposed": 1793,
      "america": 1794,
      "different": 1795,
      "requested": 1796,
      "trip": 1797,
      "samsung": 1798,
      "central": 1799,
      "louder": 1800,
      "invite": 1801,
      "cheapest": 1802,
      "target": 1803,
      "lamp": 1804,
      "ingredients": 1805,
      "places": 1806,
      "mexican": 1807,
      "kids": 1808,
      "francis": 1809,
      "square": 1810,
      "particular": 1811,
      "future": 1812,
      "adian": 1813,
      "blo": 1814,
      "each": 1815,
      "ged": 1816,
      "gaga": 1817,
      "hop": 1818,
      "lor": 1819,
      "mic": 1820,
      "rating": 1821,
      "sur": 1822,
      "slow": 1823,
      "zer": 1824,
      "rema": 1825,
      "theater": 1826,
      "oni": 1827,
      "tory": 1828,
      "ler": 1829,
      "white": 1830,
      "ars": 1831,
      "plo": 1832,
      "team": 1833,
      "ghetti": 1834,
      "lie": 1835,
      "libr": 1836,
      "canadian": 1837,
      "cause": 1838,
      "asked": 1839,
      "mode": 1840,
      "ada": 1841,
      "adjust": 1842,
      "todays": 1843,
      "health": 1844,
      "comcast": 1845,
      "solve": 1846,
      "ations": 1847,
      "ifer": 1848,
      "akes": 1849,
      "roomba": 1850,
      "average": 1851,
      "ture": 1852,
      "queue": 1853,
      "cleaning": 1854,
      "ila": 1855,
      "starbu": 1856,
      "international": 1857,
      "convers": 1858,
      "lando": 1859,
      "articles": 1860,
      "brad": 1861,
      "celebr": 1862,
      "mobile": 1863,
      "pacific": 1864,
      "dallas": 1865,
      "opinion": 1866,
      "spaghetti": 1867,
      "jennifer": 1868,
      "adele": 1869,
      "card": 1870,
      "data": 1871,
      "eas": 1872,
      "ggest": 1873,
      "hard": 1874,
      "kat": 1875,
      "lu": 1876,
      "lish": 1877,
      "omy": 1878,
      "oven": 1879,
      "pt": 1880,
      "pat": 1881,
      "pass": 1882,
      "ror": 1883,
      "rom": 1884,
      "since": 1885,
      "tic": 1886,
      "tab": 1887,
      "vir": 1888,
      "water": 1889,
      "reg": 1890,
      "online": 1891,
      "meant": 1892,
      "toge": 1893,
      "sea": 1894,
      "orlando": 1895,
      "stone": 1896,
      "lling": 1897,
      "ery": 1898,
      "itali": 1899,
      "tel": 1900,
      "hall": 1901,
      "dev": 1902,
      "dest": 1903,
      "decrease": 1904,
      "rich": 1905,
      "using": 1906,
      "heavy": 1907,
      "appl": 1908,
      "god": 1909,
      "logy": 1910,
      "recur": 1911,
      "turkey": 1912,
      "weekly": 1913,
      "shows": 1914,
      "taco": 1915,
      "given": 1916,
      "clu": 1917,
      "aught": 1918,
      "else": 1919,
      "tube": 1920,
      "provi": 1921,
      "suggest": 1922,
      "pie": 1923,
      "helped": 1924,
      "cookies": 1925,
      "present": 1926,
      "elect": 1927,
      "population": 1928,
      "background": 1929,
      "grou": 1930,
      "plans": 1931,
      "cricket": 1932,
      "delhi": 1933,
      "purch": 1934,
      "denver": 1935,
      "english": 1936,
      "making": 1937,
      "photo": 1938,
      "pract": 1939,
      "pause": 1940,
      "full": 1941,
      "through": 1942,
      "mcdonalds": 1943,
      "remainder": 1944,
      "library": 1945,
      "celebrity": 1946,
      "together": 1947,
      "bal": 1948,
      "bri": 1949,
      "bake": 1950,
      "bought": 1951,
      "dur": 1952,
      "ees": 1953,
      "fer": 1954,
      "fish": 1955,
      "gers": 1956,
      "hits": 1957,
      "olive": 1958,
      "pink": 1959,
      "rated": 1960,
      "swi": 1961,
      "situ": 1962,
      "uk": 1963,
      "ures": 1964,
      "uary": 1965,
      "ona": 1966,
      "ane": 1967,
      "ani": 1968,
      "issu": 1969,
      "str": 1970,
      "enjoy": 1971,
      "doe": 1972,
      "tim": 1973,
      "ember": 1974,
      "frank": 1975,
      "canada": 1976,
      "dec": 1977,
      "anyone": 1978,
      "poker": 1979,
      "anta": 1980,
      "without": 1981,
      "ship": 1982,
      "sia": 1983,
      "ville": 1984,
      "febru": 1985,
      "augh": 1986,
      "locate": 1987,
      "hip": 1988,
      "project": 1989,
      "whole": 1990,
      "ways": 1991,
      "sunscreen": 1992,
      "asking": 1993,
      "months": 1994,
      "brew": 1995,
      "numbers": 1996,
      "nineteen": 1997,
      "colors": 1998,
      "video": 1999,
      "january": 2000,
      "programme": 2001,
      "visit": 2002,
      "vision": 2003,
      "called": 2004,
      "pounds": 2005,
      "marriage": 2006,
      "rupees": 2007,
      "austra": 2008,
      "techno": 2009,
      "attend": 2010,
      "geographic": 2011,
      "economy": 2012,
      "ference": 2013,
      "texas": 2014,
      "micro": 2015,
      "italian": 2016,
      "issues": 2017,
      "february": 2018,
      "act": 2019,
      "bread": 2020,
      "cat": 2021,
      "cow": 2022,
      "dro": 2023,
      "distance": 2024,
      "flo": 2025,
      "gir": 2026,
      "hur": 2027,
      "ko": 2028,
      "non": 2029,
      "oce": 2030,
      "pan": 2031,
      "root": 2032,
      "small": 2033,
      "tain": 2034,
      "went": 2035,
      "ator": 2036,
      "real": 2037,
      "requi": 2038,
      "refresh": 2039,
      "reserve": 2040,
      "anim": 2041,
      "met": 2042,
      "sen": 2043,
      "sey": 2044,
      "whe": 2045,
      "arri": 2046,
      "youtube": 2047,
      "chat": 2048,
      "chedule": 2049,
      "forget": 2050,
      "ici": 2051,
      "webs": 2052,
      "half": 2053,
      "emailed": 2054,
      "came": 2055,
      "moment": 2056,
      "river": 2057,
      "fil": 2058,
      "comput": 2059,
      "ants": 2060,
      "within": 2061,
      "sho": 2062,
      "reschedule": 2063,
      "express": 2064,
      "story": 2065,
      "tern": 2066,
      "needed": 2067,
      "yourself": 2068,
      "silent": 2069,
      "undry": 2070,
      "phi": 2071,
      "peri": 2072,
      "mill": 2073,
      "schedules": 2074,
      "butter": 2075,
      "clou": 2076,
      "elvis": 2077,
      "reading": 2078,
      "special": 2079,
      "fourteenth": 2080,
      "everyday": 2081,
      "max": 2082,
      "inste": 2083,
      "bud": 2084,
      "standard": 2085,
      "posted": 2086,
      "listened": 2087,
      "names": 2088,
      "trans": 2089,
      "jeff": 2090,
      "groceries": 2091,
      "topics": 2092,
      "alex": 2093,
      "contro": 2094,
      "law": 2095,
      "laundry": 2096,
      "angel": 2097,
      "space": 2098,
      "personal": 2099,
      "earli": 2100,
      "mento": 2101,
      "pitt": 2102,
      "giving": 2103,
      "brother": 2104,
      "rush": 2105,
      "soup": 2106,
      "peter": 2107,
      "domino": 2108,
      "austin": 2109,
      "paul": 2110,
      "possi": 2111,
      "picture": 2112,
      "starbucks": 2113,
      "recurring": 2114,
      "group": 2115,
      "practice": 2116,
      "situation": 2117,
      "strong": 2118,
      "december": 2119,
      "girl": 2120,
      "bay": 2121,
      "base": 2122,
      "ccer": 2123,
      "daught": 2124,
      "hy": 2125,
      "hum": 2126,
      "jit": 2127,
      "jes": 2128,
      "kin": 2129,
      "lti": 2130,
      "lanta": 2131,
      "mb": 2132,
      "mis": 2133,
      "mate": 2134,
      "map": 2135,
      "mac": 2136,
      "mass": 2137,
      "ove": 2138,
      "pack": 2139,
      "sle": 2140,
      "spr": 2141,
      "scen": 2142,
      "tay": 2143,
      "inr": 2144,
      "atlanta": 2145,
      "reach": 2146,
      "lear": 2147,
      "vered": 2148,
      "arrange": 2149,
      "stuff": 2150,
      "likes": 2151,
      "emi": 2152,
      "cake": 2153,
      "cell": 2154,
      "rihan": 2155,
      "adv": 2156,
      "cts": 2157,
      "ams": 2158,
      "held": 2159,
      "comple": 2160,
      "soccer": 2161,
      "shor": 2162,
      "twenti": 2163,
      "stores": 2164,
      "tery": 2165,
      "multi": 2166,
      "lately": 2167,
      "boil": 2168,
      "body": 2169,
      "perry": 2170,
      "mile": 2171,
      "created": 2172,
      "hib": 2173,
      "thirteenth": 2174,
      "download": 2175,
      "sixth": 2176,
      "vacation": 2177,
      "singh": 2178,
      "saved": 2179,
      "stars": 2180,
      "bills": 2181,
      "history": 2182,
      "lasses": 2183,
      "breakfast": 2184,
      "potat": 2185,
      "payment": 2186,
      "arijit": 2187,
      "mistakes": 2188,
      "ential": 2189,
      "large": 2190,
      "largest": 2191,
      "snap": 2192,
      "yoga": 2193,
      "harry": 2194,
      "listed": 2195,
      "expect": 2196,
      "francisco": 2197,
      "block": 2198,
      "richard": 2199,
      "provider": 2200,
      "purchase": 2201,
      "during": 2202,
      "microsoft": 2203,
      "whether": 2204,
      "taylor": 2205,
      "twentieth": 2206,
      "ath": 2207,
      "amy": 2208,
      "aven": 2209,
      "brow": 2210,
      "based": 2211,
      "cc": 2212,
      "cir": 2213,
      "cul": 2214,
      "ckey": 2215,
      "dh": 2216,
      "effe": 2217,
      "gon": 2218,
      "gone": 2219,
      "gonna": 2220,
      "hat": 2221,
      "ied": 2222,
      "ild": 2223,
      "ji": 2224,
      "jay": 2225,
      "lap": 2226,
      "mal": 2227,
      "ng": 2228,
      "ris": 2229,
      "sac": 2230,
      "sity": 2231,
      "ually": 2232,
      "va": 2233,
      "wine": 2234,
      "ya": 2235,
      "inclu": 2236,
      "ren": 2237,
      "another": 2238,
      "toe": 2239,
      "tober": 2240,
      "ori": 2241,
      "stem": 2242,
      "chur": 2243,
      "iti": 2244,
      "web": 2245,
      "playback": 2246,
      "rah": 2247,
      "alask": 2248,
      "already": 2249,
      "above": 2250,
      "everest": 2251,
      "because": 2252,
      "rome": 2253,
      "conference": 2254,
      "gold": 2255,
      "shoes": 2256,
      "log": 2257,
      "exhib": 2258,
      "code": 2259,
      "tac": 2260,
      "acc": 2261,
      "mars": 2262,
      "starts": 2263,
      "hotel": 2264,
      "hockey": 2265,
      "versus": 2266,
      "johns": 2267,
      "queen": 2268,
      "imum": 2269,
      "helps": 2270,
      "helping": 2271,
      "build": 2272,
      "calls": 2273,
      "longest": 2274,
      "assist": 2275,
      "countries": 2276,
      "contain": 2277,
      "disable": 2278,
      "ideas": 2279,
      "burgh": 2280,
      "calcu": 2281,
      "lasag": 2282,
      "notes": 2283,
      "menu": 2284,
      "system": 2285,
      "potter": 2286,
      "gener": 2287,
      "loud": 2288,
      "susan": 2289,
      "child": 2290,
      "october": 2291,
      "rupee": 2292,
      "polic": 2293,
      "bowie": 2294,
      "driver": 2295,
      "driving": 2296,
      "theatre": 2297,
      "climate": 2298,
      "papa": 2299,
      "baby": 2300,
      "results": 2301,
      "horrible": 2302,
      "easy": 2303,
      "application": 2304,
      "australia": 2305,
      "floor": 2306,
      "animal": 2307,
      "website": 2308,
      "computer": 2309,
      "possible": 2310,
      "daughter": 2311,
      "sleep": 2312,
      "church": 2313,
      "alaska": 2314,
      "calculate": 2315,
      "award": 2316,
      "cand": 2317,
      "cti": 2318,
      "cil": 2319,
      "cross": 2320,
      "dle": 2321,
      "dates": 2322,
      "dish": 2323,
      "eber": 2324,
      "fra": 2325,
      "flight": 2326,
      "gs": 2327,
      "gue": 2328,
      "hai": 2329,
      "jing": 2330,
      "kiss": 2331,
      "ling": 2332,
      "oil": 2333,
      "penn": 2334,
      "rail": 2335,
      "rick": 2336,
      "tx": 2337,
      "tap": 2338,
      "tour": 2339,
      "tru": 2340,
      "wo": 2341,
      "tha": 2342,
      "inch": 2343,
      "inten": 2344,
      "remain": 2345,
      "ont": 2346,
      "mel": 2347,
      "lest": 2348,
      "sess": 2349,
      "ory": 2350,
      "organ": 2351,
      "vest": 2352,
      "vember": 2353,
      "step": 2354,
      "ita": 2355,
      "teach": 2356,
      "plays": 2357,
      "ties": 2358,
      "ramento": 2359,
      "altern": 2360,
      "november": 2361,
      "dium": 2362,
      "dead": 2363,
      "mos": 2364,
      "fie": 2365,
      "roy": 2366,
      "ions": 2367,
      "telling": 2368,
      "agree": 2369,
      "agend": 2370,
      "antic": 2371,
      "trash": 2372,
      "lyric": 2373,
      "offer": 2374,
      "ource": 2375,
      "colate": 2376,
      "mari": 2377,
      "starting": 2378,
      "ift": 2379,
      "twelf": 2380,
      "removed": 2381,
      "tenth": 2382,
      "redu": 2383,
      "migr": 2384,
      "fold": 2385,
      "opening": 2386,
      "bird": 2387,
      "spears": 2388,
      "sugar": 2389,
      "sucks": 2390,
      "sundays": 2391,
      "bieber": 2392,
      "while": 2393,
      "means": 2394,
      "black": 2395,
      "pret": 2396,
      "ninth": 2397,
      "delivered": 2398,
      "sings": 2399,
      "subway": 2400,
      "airs": 2401,
      "publ": 2402,
      "tasks": 2403,
      "function": 2404,
      "active": 2405,
      "early": 2406,
      "activity": 2407,
      "activities": 2408,
      "safe": 2409,
      "sales": 2410,
      "doctors": 2411,
      "russia": 2412,
      "south": 2413,
      "diego": 2414,
      "maker": 2415,
      "equals": 2416,
      "north": 2417,
      "chocolate": 2418,
      "article": 2419,
      "biggest": 2420,
      "dominos": 2421,
      "windy": 2422,
      "cinem": 2423,
      "drink": 2424,
      "related": 2425,
      "paper": 2426,
      "reviews": 2427,
      "released": 2428,
      "meatball": 2429,
      "boots": 2430,
      "katy": 2431,
      "romantic": 2432,
      "destin": 2433,
      "brief": 2434,
      "nineteenth": 2435,
      "technology": 2436,
      "phili": 2437,
      "million": 2438,
      "cloudy": 2439,
      "maximum": 2440,
      "budget": 2441,
      "baseball": 2442,
      "laptop": 2443,
      "sacramento": 2444,
      "exhibition": 2445,
      "agenda": 2446,
      "lyrics": 2447,
      "twelfth": 2448,
      "bc": 2449,
      "bat": 2450,
      "ben": 2451,
      "bask": 2452,
      "coo": 2453,
      "cru": 2454,
      "dave": 2455,
      "fli": 2456,
      "fam": 2457,
      "ges": 2458,
      "hate": 2459,
      "hue": 2460,
      "ig": 2461,
      "iv": 2462,
      "ign": 2463,
      "jour": 2464,
      "kim": 2465,
      "kans": 2466,
      "mt": 2467,
      "mood": 2468,
      "mah": 2469,
      "ns": 2470,
      "nat": 2471,
      "nces": 2472,
      "ohi": 2473,
      "py": 2474,
      "pred": 2475,
      "page": 2476,
      "pool": 2477,
      "round": 2478,
      "rcc": 2479,
      "ssi": 2480,
      "sally": 2481,
      "sale": 2482,
      "tag": 2483,
      "table": 2484,
      "ues": 2485,
      "ware": 2486,
      "wall": 2487,
      "ins": 2488,
      "inburgh": 2489,
      "invest": 2490,
      "reed": 2491,
      "return": 2492,
      "anas": 2493,
      "anna": 2494,
      "lee": 2495,
      "stit": 2496,
      "young": 2497,
      "chap": 2498,
      "enable": 2499,
      "nes": 2500,
      "neigh": 2501,
      "myself": 2502,
      "etball": 2503,
      "door": 2504,
      "kee": 2505,
      "edinburgh": 2506,
      "also": 2507,
      "alore": 2508,
      "always": 2509,
      "emma": 2510,
      "france": 2511,
      "cap": 2512,
      "cade": 2513,
      "direct": 2514,
      "asss": 2515,
      "ashi": 2516,
      "inda": 2517,
      "modi": 2518,
      "fire": 2519,
      "bei": 2520,
      "become": 2521,
      "rohit": 2522,
      "ague": 2523,
      "heart": 2524,
      "height": 2525,
      "ryan": 2526,
      "chel": 2527,
      "chester": 2528,
      "reminded": 2529,
      "utter": 2530,
      "pep": 2531,
      "getting": 2532,
      "turned": 2533,
      "against": 2534,
      "books": 2535,
      "options": 2536,
      "coast": 2537,
      "size": 2538,
      "taking": 2539,
      "marked": 2540,
      "clevel": 2541,
      "boy": 2542,
      "board": 2543,
      "phia": 2544,
      "phones": 2545,
      "fox": 2546,
      "pped": 2547,
      "cream": 2548,
      "prom": 2549,
      "prince": 2550,
      "heard": 2551,
      "brunch": 2552,
      "raincoat": 2553,
      "jobs": 2554,
      "cars": 2555,
      "carry": 2556,
      "substit": 2557,
      "stern": 2558,
      "sony": 2559,
      "pub": 2560,
      "peso": 2561,
      "snowing": 2562,
      "apples": 2563,
      "direction": 2564,
      "presidential": 2565,
      "angry": 2566,
      "concerts": 2567,
      "cups": 2568,
      "sara": 2569,
      "ridge": 2570,
      "lottery": 2571,
      "entire": 2572,
      "delivers": 2573,
      "elections": 2574,
      "bitco": 2575,
      "choice": 2576,
      "sunglasses": 2577,
      "conditions": 2578,
      "british": 2579,
      "britney": 2580,
      "bananas": 2581,
      "finan": 2582,
      "television": 2583,
      "conversation": 2584,
      "swift": 2585,
      "drop": 2586,
      "ocean": 2587,
      "control": 2588,
      "scenari": 2589,
      "brown": 2590,
      "golden": 2591,
      "accid": 2592,
      "lasagna": 2593,
      "women": 2594,
      "intensity": 2595,
      "reduce": 2596,
      "migration": 2597,
      "folder": 2598,
      "basketball": 2599,
      "famous": 2600,
      "kansas": 2601,
      "ohio": 2602,
      "rccg": 2603,
      "asssistance": 2604,
      "utterance": 2605,
      "cleveland": 2606,
      "substitute": 2607,
      "apo": 2608,
      "aving": 2609,
      "ahead": 2610,
      "bag": 2611,
      "bour": 2612,
      "cing": 2613,
      "cong": 2614,
      "cred": 2615,
      "cedu": 2616,
      "dic": 2617,
      "dem": 2618,
      "dress": 2619,
      "fac": 2620,
      "gand": 2621,
      "glo": 2622,
      "hus": 2623,
      "hong": 2624,
      "hood": 2625,
      "ire": 2626,
      "jai": 2627,
      "jam": 2628,
      "jake": 2629,
      "ks": 2630,
      "kard": 2631,
      "kyo": 2632,
      "lan": 2633,
      "lab": 2634,
      "lag": 2635,
      "mp": 2636,
      "nch": 2637,
      "nit": 2638,
      "nail": 2639,
      "nal": 2640,
      "nsa": 2641,
      "pty": 2642,
      "ran": 2643,
      "riso": 2644,
      "sal": 2645,
      "sad": 2646,
      "sang": 2647,
      "source": 2648,
      "tan": 2649,
      "tou": 2650,
      "tto": 2651,
      "tast": 2652,
      "van": 2653,
      "wat": 2654,
      "wis": 2655,
      "xit": 2656,
      "yon": 2657,
      "initi": 2658,
      "melo": 2659,
      "metal": 2660,
      "metall": 2661,
      "medium": 2662,
      "tori": 2663,
      "tomat": 2664,
      "lence": 2665,
      "leaving": 2666,
      "lewis": 2667,
      "sean": 2668,
      "veget": 2669,
      "whom": 2670,
      "ara": 2671,
      "lly": 2672,
      "error": 2673,
      "necess": 2674,
      "pleas": 2675,
      "ford": 2676,
      "liber": 2677,
      "limb": 2678,
      "hallow": 2679,
      "tian": 2680,
      "raj": 2681,
      "alo": 2682,
      "ality": 2683,
      "empty": 2684,
      "cad": 2685,
      "thats": 2686,
      "assi": 2687,
      "asia": 2688,
      "asses": 2689,
      "moon": 2690,
      "ctic": 2691,
      "ush": 2692,
      "usually": 2693,
      "bea": 2694,
      "bell": 2695,
      "beach": 2696,
      "role": 2697,
      "agreed": 2698,
      "hectic": 2699,
      "commute": 2700,
      "golf": 2701,
      "reminding": 2702,
      "peking": 2703,
      "entry": 2704,
      "exam": 2705,
      "extra": 2706,
      "expen": 2707,
      "experi": 2708,
      "iron": 2709,
      "jodh": 2710,
      "terrible": 2711,
      "cording": 2712,
      "comes": 2713,
      "changed": 2714,
      "across": 2715,
      "according": 2716,
      "castle": 2717,
      "bored": 2718,
      "phila": 2719,
      "ult": 2720,
      "mention": 2721,
      "button": 2722,
      "dont": 2723,
      "dolly": 2724,
      "tweets": 2725,
      "works": 2726,
      "fol": 2727,
      "prof": 2728,
      "classes": 2729,
      "celona": 2730,
      "thanksgiving": 2731,
      "procedu": 2732,
      "thirteen": 2733,
      "sunset": 2734,
      "quart": 2735,
      "replied": 2736,
      "bull": 2737,
      "clothing": 2738,
      "posts": 2739,
      "colum": 2740,
      "named": 2741,
      "monthly": 2742,
      "longer": 2743,
      "manila": 2744,
      "minus": 2745,
      "carpet": 2746,
      "headline": 2747,
      "single": 2748,
      "singing": 2749,
      "statue": 2750,
      "launch": 2751,
      "started": 2752,
      "disney": 2753,
      "interview": 2754,
      "buying": 2755,
      "selected": 2756,
      "billy": 2757,
      "barack": 2758,
      "barcelona": 2759,
      "tunes": 2760,
      "seconds": 2761,
      "calor": 2762,
      "continent": 2763,
      "delphia": 2764,
      "lotte": 2765,
      "orders": 2766,
      "waiting": 2767,
      "garage": 2768,
      "sushi": 2769,
      "equal": 2770,
      "midnight": 2771,
      "middle": 2772,
      "colours": 2773,
      "winning": 2774,
      "theatres": 2775,
      "feeling": 2776,
      "sandy": 2777,
      "scores": 2778,
      "itunes": 2779,
      "eighteen": 2780,
      "pencil": 2781,
      "products": 2782,
      "sweet": 2783,
      "sweater": 2784,
      "department": 2785,
      "summer": 2786,
      "release": 2787,
      "result": 2788,
      "problem": 2789,
      "compared": 2790,
      "jersey": 2791,
      "italy": 2792,
      "conversion": 2793,
      "device": 2794,
      "electric": 2795,
      "electron": 2796,
      "required": 2797,
      "filter": 2798,
      "angelina": 2799,
      "strongly": 2800,
      "learn": 2801,
      "advance": 2802,
      "complete": 2803,
      "rahman": 2804,
      "ctive": 2805,
      "remaining": 2806,
      "alternative": 2807,
      "public": 2808,
      "meatballs": 2809,
      "destination": 2810,
      "philipp": 2811,
      "predic": 2812,
      "neighbor": 2813,
      "ashian": 2814,
      "pepper": 2815,
      "bitcoin": 2816,
      "financial": 2817,
      "scenario": 2818,
      "credit": 2819,
      "gandhi": 2820,
      "husband": 2821,
      "kardashian": 2822,
      "lagos": 2823,
      "risotto": 2824,
      "touch": 2825,
      "metallica": 2826,
      "liberty": 2827,
      "limbaugh": 2828,
      "jodhpur": 2829,
      "philadelphia": 2830,
      "afr": 2831,
      "aff": 2832,
      "alive": 2833,
      "apol": 2834,
      "bing": 2835,
      "bak": 2836,
      "bang": 2837,
      "cked": 2838,
      "ds": 2839,
      "dou": 2840,
      "dav": 2841,
      "dale": 2842,
      "einste": 2843,
      "fb": 2844,
      "fc": 2845,
      "fan": 2846,
      "fit": 2847,
      "fly": 2848,
      "fund": 2849,
      "fash": 2850,
      "gl": 2851,
      "gri": 2852,
      "gent": 2853,
      "gary": 2854,
      "gift": 2855,
      "hun": 2856,
      "hank": 2857,
      "hroom": 2858,
      "ian": 2859,
      "ile": 2860,
      "ill": 2861,
      "iow": 2862,
      "ious": 2863,
      "iled": 2864,
      "jor": 2865,
      "jason": 2866,
      "kno": 2867,
      "kate": 2868,
      "kip": 2869,
      "lat": 2870,
      "laugh": 2871,
      "mur": 2872,
      "mag": 2873,
      "mine": 2874,
      "nam": 2875,
      "ome": 2876,
      "pawe": 2877,
      "pda": 2878,
      "same": 2879,
      "shell": 2880,
      "uc": 2881,
      "uplo": 2882,
      "vs": 2883,
      "vale": 2884,
      "ying": 2885,
      "za": 2886,
      "zy": 2887,
      "inem": 2888,
      "atta": 2889,
      "atma": 2890,
      "atures": 2891,
      "restart": 2892,
      "rewind": 2893,
      "reason": 2894,
      "onto": 2895,
      "anist": 2896,
      "tokyo": 2897,
      "leon": 2898,
      "lead": 2899,
      "sel": 2900,
      "secre": 2901,
      "season": 2902,
      "stu": 2903,
      "chair": 2904,
      "chip": 2905,
      "ency": 2906,
      "ences": 2907,
      "itive": 2908,
      "aire": 2909,
      "icke": 2910,
      "tea": 2911,
      "tesco": 2912,
      "lig": 2913,
      "race": 2914,
      "raham": 2915,
      "ramid": 2916,
      "eds": 2917,
      "edia": 2918,
      "ala": 2919,
      "alab": 2920,
      "emplo": 2921,
      "eminem": 2922,
      "wikip": 2923,
      "hows": 2924,
      "dig": 2925,
      "diver": 2926,
      "dible": 2927,
      "deg": 2928,
      "dere": 2929,
      "degre": 2930,
      "death": 2931,
      "abraham": 2932,
      "amount": 2933,
      "poor": 2934,
      "rot": 2935,
      "rote": 2936,
      "roger": 2937,
      "rolls": 2938,
      "ups": 2939,
      "ager": 2940,
      "heaven": 2941,
      "goes": 2942,
      "ryl": 2943,
      "tract": 2944,
      "shar": 2945,
      "lost": 2946,
      "checkout": 2947,
      "mushroom": 2948,
      "stopped": 2949,
      "booking": 2950,
      "oper": 2951,
      "option": 2952,
      "needs": 2953,
      "sender": 2954,
      "chance": 2955,
      "sometime": 2956,
      "silence": 2957,
      "action": 2958,
      "bol": 2959,
      "fact": 2960,
      "miley": 2961,
      "features": 2962,
      "hope": 2963,
      "fried": 2964,
      "celine": 2965,
      "elton": 2966,
      "spec": 2967,
      "speed": 2968,
      "porch": 2969,
      "birthdays": 2970,
      "fourteen": 2971,
      "suck": 2972,
      "says": 2973,
      "certain": 2974,
      "sert": 2975,
      "quick": 2976,
      "query": 2977,
      "quality": 2978,
      "sixteenth": 2979,
      "parton": 2980,
      "major": 2981,
      "bike": 2982,
      "biograph": 2983,
      "brand": 2984,
      "looks": 2985,
      "pire": 2986,
      "replace": 2987,
      "buff": 2988,
      "closing": 2989,
      "rainy": 2990,
      "services": 2991,
      "used": 2992,
      "brexit": 2993,
      "ility": 2994,
      "dining": 2995,
      "houston": 2996,
      "martin": 2997,
      "questions": 2998,
      "ricane": 2999,
      "tallest": 3000,
      "sphere": 3001,
      "loves": 3002,
      "overhead": 3003,
      "cyrus": 3004,
      "hottest": 3005,
      "twelveth": 3006,
      "videos": 3007,
      "dubai": 3008,
      "subjects": 3009,
      "milan": 3010,
      "kenny": 3011,
      "frequ": 3012,
      "french": 3013,
      "coldplay": 3014,
      "walk": 3015,
      "albums": 3016,
      "sky": 3017,
      "mash": 3018,
      "gira": 3019,
      "broad": 3020,
      "netfli": 3021,
      "engage": 3022,
      "england": 3023,
      "charlotte": 3024,
      "ucky": 3025,
      "political": 3026,
      "beginning": 3027,
      "mountains": 3028,
      "wanna": 3029,
      "bruno": 3030,
      "bruce": 3031,
      "prime": 3032,
      "theaters": 3033,
      "position": 3034,
      "holidays": 3035,
      "objects": 3036,
      "quieter": 3037,
      "eighth": 3038,
      "yellowstone": 3039,
      "college": 3040,
      "collection": 3041,
      "lisa": 3042,
      "draft": 3043,
      "problems": 3044,
      "voice": 3045,
      "zero": 3046,
      "patrick": 3047,
      "virgin": 3048,
      "hallway": 3049,
      "tacos": 3050,
      "presentation": 3051,
      "hurricane": 3052,
      "metro": 3053,
      "arriving": 3054,
      "arrival": 3055,
      "instead": 3056,
      "earlier": 3057,
      "earliest": 3058,
      "jesse": 3059,
      "missed": 3060,
      "shorts": 3061,
      "potato": 3062,
      "include": 3063,
      "building": 3064,
      "general": 3065,
      "policy": 3066,
      "steps": 3067,
      "field": 3068,
      "cinema": 3069,
      "huey": 3070,
      "mahatma": 3071,
      "chapter": 3072,
      "beijing": 3073,
      "chelsea": 3074,
      "promo": 3075,
      "bourne": 3076,
      "global": 3077,
      "nails": 3078,
      "initiate": 3079,
      "melody": 3080,
      "necessary": 3081,
      "halloween": 3082,
      "experience": 3083,
      "folk": 3084,
      "procedure": 3085,
      "pepperoni": 3086,
      "africa": 3087,
      "apolis": 3088,
      "einstein": 3089,
      "fashion": 3090,
      "hanks": 3091,
      "iowa": 3092,
      "knock": 3093,
      "pawel": 3094,
      "upload": 3095,
      "valent": 3096,
      "alabama": 3097,
      "wikipedia": 3098,
      "degrees": 3099,
      "biography": 3100,
      "netflix": 3101,
      "aa": 3102,
      "acade": 3103,
      "bis": 3104,
      "bom": 3105,
      "bul": 3106,
      "bhu": 3107,
      "cst": 3108,
      "cour": 3109,
      "cies": 3110,
      "cities": 3111,
      "dit": 3112,
      "dist": 3113,
      "dry": 3114,
      "dak": 3115,
      "dney": 3116,
      "eu": 3117,
      "eye": 3118,
      "fy": 3119,
      "fair": 3120,
      "gth": 3121,
      "gur": 3122,
      "gil": 3123,
      "gia": 3124,
      "glas": 3125,
      "grid": 3126,
      "gloves": 3127,
      "hang": 3128,
      "jess": 3129,
      "jord": 3130,
      "junk": 3131,
      "ky": 3132,
      "kong": 3133,
      "ls": 3134,
      "lay": 3135,
      "loo": 3136,
      "lang": 3137,
      "linda": 3138,
      "mg": 3139,
      "ming": 3140,
      "mir": 3141,
      "maid": 3142,
      "nis": 3143,
      "nas": 3144,
      "nood": 3145,
      "nbc": 3146,
      "ot": 3147,
      "ote": 3148,
      "pf": 3149,
      "pha": 3150,
      "pal": 3151,
      "pain": 3152,
      "qw": 3153,
      "rise": 3154,
      "sin": 3155,
      "smo": 3156,
      "site": 3157,
      "sci": 3158,
      "tone": 3159,
      "tum": 3160,
      "winter": 3161,
      "wings": 3162,
      "wrote": 3163,
      "xy": 3164,
      "xon": 3165,
      "yan": 3166,
      "yle": 3167,
      "yonce": 3168,
      "thai": 3169,
      "intell": 3170,
      "inven": 3171,
      "inci": 3172,
      "relig": 3173,
      "onment": 3174,
      "anic": 3175,
      "mere": 3176,
      "memor": 3177,
      "meryl": 3178,
      "told": 3179,
      "ism": 3180,
      "ison": 3181,
      "island": 3182,
      "leg": 3183,
      "lex": 3184,
      "least": 3185,
      "league": 3186,
      "sex": 3187,
      "sell": 3188,
      "section": 3189,
      "series": 3190,
      "orde": 3191,
      "ording": 3192,
      "vey": 3193,
      "vegan": 3194,
      "arrow": 3195,
      "stay": 3196,
      "stree": 3197,
      "style": 3198,
      "yout": 3199,
      "cher": 3200,
      "chem": 3201,
      "chenn": 3202,
      "envir": 3203,
      "ows": 3204,
      "netw": 3205,
      "often": 3206,
      "weight": 3207,
      "dol": 3208,
      "liz": 3209,
      "lian": 3210,
      "liver": 3211,
      "tieth": 3212,
      "kevin": 3213,
      "radi": 3214,
      "eddie": 3215,
      "albert": 3216,
      "alpha": 3217,
      "wich": 3218,
      "front": 3219,
      "howard": 3220,
      "nold": 3221,
      "noise": 3222,
      "canyon": 3223,
      "dir": 3224,
      "dion": 3225,
      "dies": 3226,
      "asure": 3227,
      "dean": 3228,
      "desert": 3229,
      "mod": 3230,
      "abc": 3231,
      "ables": 3232,
      "outlook": 3233,
      "cept": 3234,
      "haven": 3235,
      "aren": 3236,
      "amp": 3237,
      "timer": 3238,
      "beef": 3239,
      "beyonce": 3240,
      "ros": 3241,
      "roll": 3242,
      "rogers": 3243,
      "const": 3244,
      "heat": 3245,
      "apart": 3246,
      "sol": 3247,
      "solit": 3248,
      "gossi": 3249,
      "tracks": 3250,
      "cheer": 3251,
      "checked": 3252,
      "lyn": 3253,
      "lob": 3254,
      "rectify": 3255,
      "recording": 3256,
      "pear": 3257,
      "likely": 3258,
      "uncle": 3259,
      "wasn": 3260,
      "stor": 3261,
      "joes": 3262,
      "jolie": 3263,
      "terror": 3264,
      "cover": 3265,
      "yees": 3266,
      "jud": 3267,
      "julie": 3268,
      "sim": 3269,
      "shown": 3270,
      "curred": 3271,
      "acy": 3272,
      "access": 3273,
      "boiled": 3274,
      "facts": 3275,
      "phys": 3276,
      "tennis": 3277,
      "reddit": 3278,
      "berg": 3279,
      "berlin": 3280,
      "miche": 3281,
      "appro": 3282,
      "ends": 3283,
      "mondays": 3284,
      "pping": 3285,
      "pric": 3286,
      "audible": 3287,
      "ards": 3288,
      "protest": 3289,
      "thirtieth": 3290,
      "such": 3291,
      "volcan": 3292,
      "foreign": 3293,
      "furnit": 3294,
      "happens": 3295,
      "quicke": 3296,
      "sixteen": 3297,
      "everyone": 3298,
      "bio": 3299,
      "bris": 3300,
      "fridays": 3301,
      "closer": 3302,
      "cookie": 3303,
      "standing": 3304,
      "coln": 3305,
      "greg": 3306,
      "stations": 3307,
      "rainbow": 3308,
      "matic": 3309,
      "yearly": 3310,
      "rocky": 3311,
      "rockville": 3312,
      "desk": 3313,
      "manage": 3314,
      "manhat": 3315,
      "minister": 3316,
      "crime": 3317,
      "carol": 3318,
      "blues": 3319,
      "prepar": 3320,
      "goog": 3321,
      "jackie": 3322,
      "nineties": 3323,
      "para": 3324,
      "condu": 3325,
      "toronto": 3326,
      "pubs": 3327,
      "spend": 3328,
      "plane": 3329,
      "planet": 3330,
      "planning": 3331,
      "geria": 3332,
      "interpret": 3333,
      "pressure": 3334,
      "hotmail": 3335,
      "higher": 3336,
      "tower": 3337,
      "towers": 3338,
      "lands": 3339,
      "centre": 3340,
      "center": 3341,
      "pickup": 3342,
      "burgers": 3343,
      "suppl": 3344,
      "dylan": 3345,
      "smartphone": 3346,
      "docu": 3347,
      "trivia": 3348,
      "coldest": 3349,
      "currencies": 3350,
      "others": 3351,
      "syn": 3352,
      "sydney": 3353,
      "cris": 3354,
      "crush": 3355,
      "titanic": 3356,
      "delay": 3357,
      "purple": 3358,
      "denmark": 3359,
      "ariz": 3360,
      "nike": 3361,
      "nigeria": 3362,
      "length": 3363,
      "charged": 3364,
      "occur": 3365,
      "georgia": 3366,
      "dominoes": 3367,
      "sirius": 3368,
      "lincoln": 3369,
      "prior": 3370,
      "brities": 3371,
      "bowl": 3372,
      "celebrities": 3373,
      "sandals": 3374,
      "thesis": 3375,
      "client": 3376,
      "wishes": 3377,
      "ingredient": 3378,
      "mexico": 3379,
      "banana": 3380,
      "crab": 3381,
      "crash": 3382,
      "kilo": 3383,
      "departing": 3384,
      "oregon": 3385,
      "christian": 3386,
      "econom": 3387,
      "ferences": 3388,
      "karo": 3389,
      "drama": 3390,
      "jerry": 3391,
      "telephone": 3392,
      "expected": 3393,
      "region": 3394,
      "devices": 3395,
      "piece": 3396,
      "timings": 3397,
      "franklin": 3398,
      "require": 3399,
      "girlfriend": 3400,
      "hypo": 3401,
      "human": 3402,
      "humid": 3403,
      "rihana": 3404,
      "rihanna": 3405,
      "multiple": 3406,
      "potatoes": 3407,
      "snapchat": 3408,
      "richards": 3409,
      "effects": 3410,
      "assistant": 3411,
      "children": 3412,
      "drivers": 3413,
      "awards": 3414,
      "candy": 3415,
      "truck": 3416,
      "session": 3417,
      "organi": 3418,
      "moscow": 3419,
      "cooked": 3420,
      "jaipur": 3421,
      "watson": 3422,
      "assign": 3423,
      "profile": 3424,
      "bulldog": 3425,
      "calories": 3426,
      "electronic": 3427,
      "philippine": 3428,
      "neighborhood": 3429,
      "bangalore": 3430,
      "employees": 3431,
      "degree": 3432,
      "derek": 3433,
      "mushrooms": 3434,
      "frequency": 3435,
      "giraffe": 3436,
      "virginia": 3437,
      "academy": 3438,
      "jessica": 3439,
      "langu": 3440,
      "religion": 3441,
      "ordered": 3442,
      "streep": 3443,
      "chennai": 3444,
      "environment": 3445,
      "network": 3446,
      "radius": 3447,
      "furniture": 3448,
      "quickest": 3449,
      "manhattan": 3450,
      "ae": 3451,
      "aw": 3452,
      "athen": 3453,
      "affe": 3454,
      "bin": 3455,
      "bon": 3456,
      "bha": 3457,
      "bridge": 3458,
      "cd": 3459,
      "cou": 3460,
      "case": 3461,
      "ced": 3462,
      "cry": 3463,
      "cop": 3464,
      "dl": 3465,
      "dow": 3466,
      "dai": 3467,
      "dun": 3468,
      "dul": 3469,
      "drain": 3470,
      "dhan": 3471,
      "eg": 3472,
      "eag": 3473,
      "fet": 3474,
      "farm": 3475,
      "fers": 3476,
      "fred": 3477,
      "gow": 3478,
      "gate": 3479,
      "gru": 3480,
      "gure": 3481,
      "gative": 3482,
      "hp": 3483,
      "hon": 3484,
      "hay": 3485,
      "huff": 3486,
      "io": 3487,
      "ix": 3488,
      "ial": 3489,
      "idol": 3490,
      "jen": 3491,
      "jun": 3492,
      "jump": 3493,
      "jones": 3494,
      "ket": 3495,
      "kent": 3496,
      "kick": 3497,
      "koc": 3498,
      "khan": 3499,
      "kya": 3500,
      "kroger": 3501,
      "lic": 3502,
      "link": 3503,
      "lvan": 3504,
      "nz": 3505,
      "nare": 3506,
      "nag": 3507,
      "opo": 3508,
      "ota": 3509,
      "ped": 3510,
      "pump": 3511,
      "rina": 3512,
      "ryout": 3513,
      "sc": 3514,
      "sm": 3515,
      "sion": 3516,
      "sick": 3517,
      "scri": 3518,
      "scar": 3519,
      "sms": 3520,
      "tm": 3521,
      "tam": 3522,
      "ude": 3523,
      "uous": 3524,
      "vp": 3525,
      "vor": 3526,
      "vic": 3527,
      "vard": 3528,
      "vali": 3529,
      "wre": 3530,
      "wom": 3531,
      "wau": 3532,
      "xm": 3533,
      "xel": 3534,
      "yani": 3535,
      "zep": 3536,
      "zip": 3537,
      "tho": 3538,
      "thon": 3539,
      "thum": 3540,
      "infl": 3541,
      "atra": 3542,
      "rey": 3543,
      "refri": 3544,
      "reserv": 3545,
      "theme": 3546,
      "theory": 3547,
      "ons": 3548,
      "angle": 3549,
      "mez": 3550,
      "meter": 3551,
      "measure": 3552,
      "ouse": 3553,
      "tol": 3554,
      "tool": 3555,
      "total": 3556,
      "took": 3557,
      "leeds": 3558,
      "sep": 3559,
      "secur": 3560,
      "org": 3561,
      "orang": 3562,
      "velo": 3563,
      "velling": 3564,
      "artif": 3565,
      "ener": 3566,
      "enix": 3567,
      "iting": 3568,
      "itation": 3569,
      "itzer": 3570,
      "negative": 3571,
      "ply": 3572,
      "fork": 3573,
      "fort": 3574,
      "icate": 3575,
      "tes": 3576,
      "teeth": 3577,
      "andre": 3578,
      "ndra": 3579,
      "till": 3580,
      "tiff": 3581,
      "tired": 3582,
      "ists": 3583,
      "rapi": 3584,
      "rajes": 3585,
      "emo": 3586,
      "eman": 3587,
      "empire": 3588,
      "fru": 3589,
      "cash": 3590,
      "capp": 3591,
      "cable": 3592,
      "newly": 3593,
      "newcastle": 3594,
      "diet": 3595,
      "died": 3596,
      "divide": 3597,
      "deal": 3598,
      "develo": 3599,
      "moto": 3600,
      "abad": 3601,
      "abhi": 3602,
      "outing": 3603,
      "aden": 3604,
      "usual": 3605,
      "amd": 3606,
      "fill": 3607,
      "fied": 3608,
      "figure": 3609,
      "ongo": 3610,
      "beli": 3611,
      "roast": 3612,
      "rops": 3613,
      "rohan": 3614,
      "conne": 3615,
      "conven": 3616,
      "comment": 3617,
      "apa": 3618,
      "solu": 3619,
      "gover": 3620,
      "gospe": 3621,
      "gomez": 3622,
      "antoni": 3623,
      "notice": 3624,
      "travelling": 3625,
      "shine": 3626,
      "morgan": 3627,
      "logan": 3628,
      "offers": 3629,
      "pean": 3630,
      "peace": 3631,
      "pelin": 3632,
      "ently": 3633,
      "entries": 3634,
      "tural": 3635,
      "unmute": 3636,
      "washer": 3637,
      "joel": 3638,
      "wants": 3639,
      "corn": 3640,
      "musical": 3641,
      "senders": 3642,
      "juice": 3643,
      "julia": 3644,
      "chances": 3645,
      "sie": 3646,
      "simil": 3647,
      "ered": 3648,
      "swat": 3649,
      "switzer": 3650,
      "tawa": 3651,
      "vil": 3652,
      "viet": 3653,
      "marc": 3654,
      "thinking": 3655,
      "phy": 3656,
      "perform": 3657,
      "ultra": 3658,
      "lette": 3659,
      "feb": 3660,
      "few": 3661,
      "appy": 3662,
      "inton": 3663,
      "hold": 3664,
      "holy": 3665,
      "fries": 3666,
      "deleted": 3667,
      "monopo": 3668,
      "seventeenth": 3669,
      "print": 3670,
      "click": 3671,
      "ola": 3672,
      "tures": 3673,
      "tutori": 3674,
      "proces": 3675,
      "suc": 3676,
      "rude": 3677,
      "sunblock": 3678,
      "quote": 3679,
      "pile": 3680,
      "clooney": 3681,
      "cooker": 3682,
      "sentences": 3683,
      "vacuuming": 3684,
      "jean": 3685,
      "jeans": 3686,
      "mano": 3687,
      "mango": 3688,
      "manchester": 3689,
      "manager": 3690,
      "avo": 3691,
      "lowest": 3692,
      "carmen": 3693,
      "carryout": 3694,
      "grass": 3695,
      "gradu": 3696,
      "prefer": 3697,
      "preferences": 3698,
      "county": 3699,
      "weekends": 3700,
      "brighton": 3701,
      "heading": 3702,
      "headed": 3703,
      "headset": 3704,
      "ished": 3705,
      "singapo": 3706,
      "defined": 3707,
      "stating": 3708,
      "subscri": 3709,
      "temple": 3710,
      "spot": 3711,
      "contents": 3712,
      "oldies": 3713,
      "airlines": 3714,
      "ladies": 3715,
      "temperatures": 3716,
      "compan": 3717,
      "compet": 3718,
      "disco": 3719,
      "gerator": 3720,
      "interval": 3721,
      "selection": 3722,
      "cycle": 3723,
      "presley": 3724,
      "highway": 3725,
      "dust": 3726,
      "shall": 3727,
      "shape": 3728,
      "shares": 3729,
      "robotic": 3730,
      "bacon": 3731,
      "milwau": 3732,
      "daq": 3733,
      "calcul": 3734,
      "tooth": 3735,
      "trips": 3736,
      "walking": 3737,
      "sounds": 3738,
      "percentage": 3739,
      "synon": 3740,
      "sylvan": 3741,
      "smile": 3742,
      "annual": 3743,
      "artists": 3744,
      "continuous": 3745,
      "titles": 3746,
      "titled": 3747,
      "masala": 3748,
      "wards": 3749,
      "stream": 3750,
      "marketing": 3751,
      "intel": 3752,
      "keys": 3753,
      "hamburger": 3754,
      "mcdo": 3755,
      "powerball": 3756,
      "panda": 3757,
      "watching": 3758,
      "invitation": 3759,
      "charles": 3760,
      "chill": 3761,
      "chili": 3762,
      "gust": 3763,
      "guys": 3764,
      "makes": 3765,
      "occurred": 3766,
      "parent": 3767,
      "warming": 3768,
      "costa": 3769,
      "costumer": 3770,
      "equation": 3771,
      "maine": 3772,
      "normal": 3773,
      "norris": 3774,
      "favourites": 3775,
      "indianapolis": 3776,
      "darken": 3777,
      "kindly": 3778,
      "ashwin": 3779,
      "feedback": 3780,
      "cino": 3781,
      "attending": 3782,
      "relation": 3783,
      "phoenix": 3784,
      "earthqu": 3785,
      "sandwich": 3786,
      "cuit": 3787,
      "eighteenth": 3788,
      "eighties": 3789,
      "harris": 3790,
      "crazy": 3791,
      "entertain": 3792,
      "responded": 3793,
      "japanese": 3794,
      "records": 3795,
      "geography": 3796,
      "handler": 3797,
      "woodchuck": 3798,
      "haircut": 3799,
      "grandma": 3800,
      "booked": 3801,
      "steven": 3802,
      "healthy": 3803,
      "easi": 3804,
      "katrina": 3805,
      "tables": 3806,
      "register": 3807,
      "club": 3808,
      "photos": 3809,
      "cats": 3810,
      "oceans": 3811,
      "reality": 3812,
      "icial": 3813,
      "icious": 3814,
      "camera": 3815,
      "shoe": 3816,
      "period": 3817,
      "controver": 3818,
      "macy": 3819,
      "package": 3820,
      "spring": 3821,
      "sprint": 3822,
      "downloaded": 3823,
      "circuit": 3824,
      "cultural": 3825,
      "effective": 3826,
      "origin": 3827,
      "pennsylvan": 3828,
      "railway": 3829,
      "inches": 3830,
      "melbourne": 3831,
      "teacher": 3832,
      "mario": 3833,
      "safest": 3834,
      "drinks": 3835,
      "cruise": 3836,
      "journey": 3837,
      "journal": 3838,
      "modify": 3839,
      "boyfriend": 3840,
      "accident": 3841,
      "accidents": 3842,
      "taste": 3843,
      "pleasant": 3844,
      "rajdhan": 3845,
      "columbus": 3846,
      "electricity": 3847,
      "completely": 3848,
      "predictions": 3849,
      "double": 3850,
      "funds": 3851,
      "hung": 3852,
      "magic": 3853,
      "omelette": 3854,
      "shelly": 3855,
      "uccino": 3856,
      "attach": 3857,
      "aniston": 3858,
      "study": 3859,
      "ramids": 3860,
      "digital": 3861,
      "specific": 3862,
      "broadcast": 3863,
      "engagements": 3864,
      "bombay": 3865,
      "bhub": 3866,
      "dakota": 3867,
      "glasgow": 3868,
      "loop": 3869,
      "nasdaq": 3870,
      "intellig": 3871,
      "memorial": 3872,
      "liverpool": 3873,
      "alphabet": 3874,
      "constru": 3875,
      "solitaire": 3876,
      "gossip": 3877,
      "lobster": 3878,
      "parade": 3879,
      "supplies": 3880,
      "arizona": 3881,
      "organize": 3882,
      "athens": 3883,
      "bhaji": 3884,
      "grubhub": 3885,
      "kentucky": 3886,
      "kickball": 3887,
      "narendra": 3888,
      "wreck": 3889,
      "woman": 3890,
      "zeppelin": 3891,
      "thumbs": 3892,
      "refrigerator": 3893,
      "security": 3894,
      "oranges": 3895,
      "tiffany": 3896,
      "rapids": 3897,
      "rajesh": 3898,
      "cappuccino": 3899,
      "conveni": 3900,
      "solution": 3901,
      "gospel": 3902,
      "antonio": 3903,
      "similar": 3904,
      "switzerland": 3905,
      "monopoly": 3906,
      "processing": 3907,
      "graduation": 3908,
      "singapore": 3909,
      "milwaukee": 3910,
      "synony": 3911,
      "entertainment": 3912,
      "pennsylvania": 3913,
      "rajdhani": 3914,
      ".'": 3915,
      "9ne": 3916,
      "ado": 3917,
      "aus": 3918,
      "afi": 3919,
      "aol": 3920,
      "aware": 3921,
      "bj": 3922,
      "bas": 3923,
      "bone": 3924,
      "bent": 3925,
      "border": 3926,
      "bah": 3927,
      "brate": 3928,
      "bage": 3929,
      "bass": 3930,
      "bson": 3931,
      "bryan": 3932,
      "baren": 3933,
      "cz": 3934,
      "cation": 3935,
      "cco": 3936,
      "crock": 3937,
      "cure": 3938,
      "citing": 3939,
      "dp": 3940,
      "dha": 3941,
      "ded": 3942,
      "dru": 3943,
      "dating": 3944,
      "dfc": 3945,
      "eli": 3946,
      "epe": 3947,
      "ext": 3948,
      "ella": 3949,
      "equi": 3950,
      "fs": 3951,
      "fal": 3952,
      "fake": 3953,
      "flow": 3954,
      "fairs": 3955,
      "fjord": 3956,
      "fmod": 3957,
      "gal": 3958,
      "gad": 3959,
      "gall": 3960,
      "grow": 3961,
      "gather": 3962,
      "gie": 3963,
      "glasses": 3964,
      "galore": 3965,
      "gtm": 3966,
      "gdp": 3967,
      "hw": 3968,
      "hoo": 3969,
      "hul": 3970,
      "honey": 3971,
      "hunt": 3972,
      "hwood": 3973,
      "hemi": 3974,
      "hdfc": 3975,
      "iz": 3976,
      "ith": 3977,
      "iant": 3978,
      "iel": 3979,
      "ible": 3980,
      "ijer": 3981,
      "iler": 3982,
      "iroomba": 3983,
      "iko": 3984,
      "jj": 3985,
      "jon": 3986,
      "jhe": 3987,
      "jlo": 3988,
      "jpy": 3989,
      "kal": 3990,
      "kfi": 3991,
      "kers": 3992,
      "kil": 3993,
      "kki": 3994,
      "kore": 3995,
      "kka": 3996,
      "lg": 3997,
      "lau": 3998,
      "laur": 3999,
      "luck": 4000,
      "lane": 4001,
      "mast": 4002,
      "mut": 4003,
      "mun": 4004,
      "miss": 4005,
      "minton": 4006,
      "nj": 4007,
      "nu": 4008,
      "nut": 4009,
      "nif": 4010,
      "nak": 4011,
      "natur": 4012,
      "nba": 4013,
      "naught": 4014,
      "n9ne": 4015,
      "oon": 4016,
      "ost": 4017,
      "pb": 4018,
      "pin": 4019,
      "pate": 4020,
      "pas": 4021,
      "pad": 4022,
      "pong": 4023,
      "psh": 4024,
      "pav": 4025,
      "pdr": 4026,
      "pants": 4027,
      "rse": 4028,
      "roo": 4029,
      "sist": 4030,
      "scan": 4031,
      "slo": 4032,
      "sive": 4033,
      "sau": 4034,
      "sach": 4035,
      "scr": 4036,
      "saga": 4037,
      "tt": 4038,
      "twi": 4039,
      "tro": 4040,
      "tten": 4041,
      "tul": 4042,
      "tata": 4043,
      "uno": 4044,
      "uate": 4045,
      "vit": 4046,
      "vation": 4047,
      "vick": 4048,
      "wy": 4049,
      "wing": 4050,
      "wet": 4051,
      "woo": 4052,
      "wend": 4053,
      "wang": 4054,
      "yi": 4055,
      "zan": 4056,
      "zing": 4057,
      "zen": 4058,
      "zam": 4059,
      "zger": 4060,
      "zita": 4061,
      "thor": 4062,
      "thod": 4063,
      "thought": 4064,
      "ini": 4065,
      "ino": 4066,
      "ining": 4067,
      "infor": 4068,
      "indi": 4069,
      "invol": 4070,
      "input": 4071,
      "inted": 4072,
      "income": 4073,
      "indie": 4074,
      "att": 4075,
      "atmo": 4076,
      "atkin": 4077,
      "reve": 4078,
      "rent": 4079,
      "remo": 4080,
      "rebe": 4081,
      "recall": 4082,
      "research": 4083,
      "regg": 4084,
      "repet": 4085,
      "resolve": 4086,
      "recap": 4087,
      "thew": 4088,
      "onet": 4089,
      "ano": 4090,
      "anne": 4091,
      "anal": 4092,
      "ancy": 4093,
      "anthon": 4094,
      "memo": 4095
    },
    "merges": [
      "t h",
      "i n",
      "a t",
      "r e",
      "th e",
      "o n",
      "a n",
      "m e",
      "o u",
      "t o",
      "i s",
      "l e",
      "s e",
      "o r",
      "v e",
      "a y",
      "w h",
      "a r",
      "s t",
      "y ou",
      "l l",
      "e r",
      "in g",
      "wh at",
      "c h",
      "e n",
      "o w",
      "a se",
      "i t",
      "n e",
      "p le",
      "ple ase",
      "m y",
      "p l",
      "f or",
      "e t",
      "o f",
      "o m",
      "a i",
      "d ay",
      "i c",
      "t e",
      "an d",
      "w e",
      "d o",
      "pl ay",
      "n t",
      "g h",
      "l i",
      "e s",
      "u r",
      "h a",
      "ai l",
      "n d",
      "t i",
      "k e",
      "is t",
      "r a",
      "e d",
      "gh t",
      "o o",
      "a l",
      "e m",
      "w i",
      "f r",
      "c k",
      "l d",
      "h ow",
      "l ist",
      "th is",
      "n o",
      "c an",
      "c a",
      "ne w",
      "d i",
      "th at",
      "at e",
      "a s",
      "on e",
      "d e",
      "in d",
      "em ail",
      "m o",
      "a b",
      "ou t",
      "c e",
      "r i",
      "e ve",
      "ou ld",
      "fr om",
      "an y",
      "a d",
      "ha ve",
      "c t",
      "u s",
      "a re",
      "a m",
      "p o",
      "f i",
      "ti me",
      "on g",
      "b e",
      "r o",
      "to day",
      "c on",
      "i on",
      "u p",
      "te ll",
      "a g",
      "a in",
      "h e",
      "c om",
      "ab out",
      "a ll",
      "a p",
      "s o",
      "g o",
      "r y",
      "eve nt",
      "an t",
      "oo k",
      "m ind",
      "no t",
      "a st",
      "wi th",
      "a ke",
      "n ow",
      "t ra",
      "the r",
      "se t",
      "ch e",
      "me et",
      "ar t",
      "s h",
      "m or",
      "meet ing",
      "s ong",
      "l y",
      "o ll",
      "l o",
      "of f",
      "re mind",
      "t w",
      "li ght",
      "u t",
      "wi ll",
      "re c",
      "p e",
      "che ck",
      "oll y",
      "re s",
      "at ion",
      "x t",
      "en t",
      "w ould",
      "g e",
      "le nd",
      "ca lend",
      "calend ar",
      "g et",
      "ne xt",
      "t ur",
      "li ke",
      "u n",
      "ar m",
      "l ast",
      "e x",
      "w as",
      "w or",
      "ri ght",
      "tur n",
      "u m",
      "m us",
      "ag ain",
      "e k",
      "we ek",
      "ad d",
      "i r",
      "s to",
      "j o",
      "r ow",
      "t er",
      "al arm",
      "b ook",
      "new s",
      "o p",
      "ne ed",
      "an k",
      "ou r",
      "w ant",
      "to mor",
      "tomor row",
      "fi r",
      "ai d",
      "s aid",
      "c or",
      "i ve",
      "di d",
      "mus ic",
      "c o",
      "tra in",
      "se nd",
      "ic e",
      "in e",
      "th ank",
      "p m",
      "a ther",
      "you r",
      "y e",
      "we ather",
      "m u",
      "j u",
      "ch an",
      "so me",
      "oo d",
      "ic k",
      "do es",
      "s i",
      "di o",
      "light s",
      "e re",
      "s how",
      "the re",
      "b y",
      "u nd",
      "s w",
      "mo re",
      "c ur",
      "er s",
      "t a",
      "re ct",
      "c ould",
      "cur re",
      "v i",
      "cor rect",
      "con fir",
      "m ake",
      "a c",
      "in k",
      "wh en",
      "m ar",
      "c le",
      "th ing",
      "rec i",
      "ca st",
      "event s",
      "st art",
      "email s",
      "a me",
      "tw o",
      "u e",
      "l ate",
      "b o",
      "i ght",
      "i f",
      "ju st",
      "mo ve",
      "confir m",
      "th ink",
      "curre nt",
      "f f",
      "f ind",
      "t we",
      "chan ge",
      "f a",
      "wh ere",
      "re move",
      "ve n",
      "p h",
      "com m",
      "t en",
      "comm and",
      "re d",
      "ti on",
      "fi ve",
      "an sw",
      "d er",
      "g ive",
      "p er",
      "u l",
      "b er",
      "me nt",
      "a k",
      "n ing",
      "s ch",
      "mu ch",
      "m i",
      "ed u",
      "le t",
      "f e",
      "k now",
      "ap p",
      "edu le",
      "ra dio",
      "in t",
      "pl ain",
      "d ate",
      "u me",
      "re e",
      "p on",
      "late st",
      "de le",
      "go ing",
      "sch edule",
      "en d",
      "h o",
      "t y",
      "ve r",
      "res pon",
      "ick et",
      "b ut",
      "po int",
      "fr i",
      "dele te",
      "d on",
      "do ll",
      "twe et",
      "t icket",
      "wor k",
      "po d",
      "doll ar",
      "m on",
      "pod cast",
      "d one",
      "g ood",
      "f o",
      "t ake",
      "se ven",
      "op en",
      "it e",
      "p p",
      "respon se",
      "c re",
      "m any",
      "play list",
      "s s",
      "answ er",
      "p r",
      "he ar",
      "app reci",
      "at ed",
      "c l",
      "a u",
      "lo c",
      "h i",
      "ro om",
      "remind er",
      "con ta",
      "w r",
      "ce l",
      "conta ct",
      "e l",
      "or der",
      "b ir",
      "ha pp",
      "a h",
      "o l",
      "go t",
      "tw ent",
      "twent y",
      "cle ar",
      "th ree",
      "sto ck",
      "re ad",
      "s pe",
      "a ve",
      "t u",
      "e e",
      "bir th",
      "a ck",
      "d et",
      "on ce",
      "p or",
      "ar d",
      "thank s",
      "birth day",
      "det ail",
      "p ro",
      "th ir",
      "wh o",
      "c off",
      "f our",
      "coff ee",
      "it y",
      "und er",
      "s u",
      "r ate",
      "ap point",
      "r u",
      "all y",
      "appoint ment",
      "e p",
      "ou nd",
      "c tion",
      "v ol",
      "w ay",
      "or k",
      "for m",
      "h und",
      "s ay",
      "mor ning",
      "hund red",
      "sh op",
      "por t",
      "s or",
      "ow n",
      "n ine",
      "a f",
      "h n",
      "jo hn",
      "fo re",
      "m ail",
      "c er",
      "vol ume",
      "sor ry",
      "s un",
      "se r",
      "y ork",
      "d own",
      "f ur",
      "t on",
      "happ en",
      "re st",
      "q u",
      "si x",
      "h our",
      "ex change",
      "f ul",
      "de f",
      "eve ry",
      "spe ak",
      "fur ther",
      "as k",
      "ff ic",
      "p art",
      "in form",
      "tra ffic",
      "b et",
      "m a",
      "song s",
      "can cel",
      "af ter",
      "b i",
      "p ut",
      "e ight",
      "ve ry",
      "te en",
      "wr ong",
      "ou s",
      "fa ce",
      "q ue",
      "in st",
      "re ally",
      "sh ould",
      "b r",
      "l ook",
      "p i",
      "wh i",
      "z z",
      "re pl",
      "fri day",
      "i m",
      "he l",
      "fa v",
      "mo vi",
      "he y",
      "v ing",
      "ou nt",
      "hel p",
      "ex plain",
      "face book",
      "ha s",
      "b u",
      "inform ation",
      "whi ch",
      "c lo",
      "ti f",
      "ct ly",
      "com plain",
      "c ook",
      "n er",
      "st and",
      "play ing",
      "po st",
      "ag e",
      "co l",
      "g re",
      "g ame",
      "it ion",
      "we en",
      "mar ch",
      "appreci ated",
      "bet ween",
      "i d",
      "v ac",
      "ne ar",
      "sto p",
      "se nt",
      "st ation",
      "list en",
      "n ame",
      "ra in",
      "sh ut",
      "ser v",
      "t r",
      "repl y",
      "s day",
      "ca ll",
      "wor d",
      "mon th",
      "le s",
      "m at",
      "any thing",
      "be st",
      "a ur",
      "what s",
      "fi f",
      "dollar s",
      "y es",
      "ye ar",
      "cle an",
      "thir ty",
      "pr ice",
      "inst ru",
      "complain t",
      "se ar",
      "it em",
      "ro ck",
      "alarm s",
      "serv ice",
      "is o",
      "per fe",
      "ho me",
      "fav or",
      "re pe",
      "que st",
      "vac u",
      "sear ch",
      "repe at",
      "a ce",
      "d es",
      "l ong",
      "jo b",
      "instru ction",
      "f ood",
      "s 1",
      "ab le",
      "happen ing",
      "rest aur",
      "restaur ant",
      "p ing",
      "u se",
      "an ce",
      "he re",
      "com ing",
      "rec ent",
      "au dio",
      "vacu um",
      "b re",
      "j e",
      "m an",
      "t ry",
      "u re",
      "mo st",
      "am a",
      "res s",
      "cre ate",
      "g ro",
      "under stand",
      "m in",
      "ep iso",
      "c ri",
      "detail s",
      "at es",
      "me an",
      "it ch",
      "wor ld",
      "gro cer",
      "correct ly",
      "episo de",
      "a v",
      "e ur",
      "i l",
      "l ow",
      "es day",
      "tu esday",
      "shop ping",
      "o s",
      "as s",
      "ton ight",
      "c ar",
      "n y",
      "reci pe",
      "part y",
      "i es",
      "n um",
      "to p",
      "ye ah",
      "cl ar",
      "no tif",
      "b l",
      "u te",
      "time s",
      "ye ap",
      "g ra",
      "p re",
      "day s",
      "ab or",
      "are a",
      "ph one",
      "c ity",
      "n in",
      "th ous",
      "no on",
      "el abor",
      "thous and",
      "elabor ate",
      "c ount",
      "e st",
      "list s",
      "week end",
      "grocer y",
      "d in",
      "g le",
      "we ll",
      "um p",
      "fri end",
      "des cri",
      "i a",
      "we d",
      "de li",
      "if y",
      "appreci ate",
      "clar ify",
      "r ase",
      "x i",
      "ph rase",
      "loc al",
      "pi zz",
      "b right",
      "g oo",
      "in es",
      "pl ace",
      "so ck",
      "mar k",
      "h ou",
      "s 2",
      "he ad",
      "ex a",
      "e le",
      "be fore",
      "fir st",
      "ta xi",
      "num ber",
      "pizz a",
      "sock et",
      "at ch",
      "re ce",
      "is h",
      "ar y",
      "up date",
      "tr ump",
      "se e",
      "contact s",
      "je ct",
      "ama z",
      "j ack",
      "s ing",
      "at ur",
      "me r",
      "me ss",
      "def in",
      "movi e",
      "s ave",
      "st at",
      "ic ation",
      "di a",
      "su b",
      "gre at",
      "favor ite",
      "min ute",
      "nin et",
      "goo gle",
      "m om",
      "p ar",
      "te m",
      "po p",
      "remind ers",
      "schedule d",
      "rece ive",
      "a le",
      "b ack",
      "s po",
      "con t",
      "jo ke",
      "hou se",
      "a way",
      "m art",
      "s atur",
      "mon day",
      "din ner",
      "u g",
      "st er",
      "it ter",
      "te d",
      "c i",
      "o ld",
      "meeting s",
      "tw itter",
      "un ch",
      "loc ation",
      "defin ition",
      "l ve",
      "n a",
      "si de",
      "satur day",
      "ai r",
      "do t",
      "con d",
      "add ress",
      "minute s",
      "b le",
      "o d",
      "at er",
      "re phrase",
      "en ce",
      "h er",
      "l a",
      "perfe ctly",
      "n ice",
      "an ge",
      "pl ug",
      "oo l",
      "quest ion",
      "per at",
      "mat ter",
      "eur o",
      "tem perat",
      "r ic",
      "s on",
      "in correct",
      "ve l",
      "st ar",
      "mus ch",
      "im port",
      "col or",
      "se d",
      "answ ers",
      "def ine",
      "up coming",
      "com p",
      "clean er",
      "descri be",
      "to r",
      "ar ound",
      "am i",
      "fore cast",
      "temperat ure",
      "i p",
      "t al",
      "th ur",
      "eve ning",
      "did n",
      "thur sday",
      "p u",
      "s p",
      "u h",
      "li ving",
      "notif ication",
      "stat us",
      "f m",
      "g r",
      "t s",
      "pl an",
      "mu te",
      "ninet y",
      "audio book",
      "av ail",
      "receive d",
      "d is",
      "g er",
      "g ard",
      "l unch",
      "p ers",
      "t ing",
      "u ber",
      "me d",
      "li ve",
      "lo ve",
      "c us",
      "n ight",
      "o ver",
      "in ter",
      "up d",
      "res ume",
      "sw itch",
      "take away",
      "hour s",
      "bu y",
      "a ch",
      "b all",
      "u ff",
      "w on",
      "se le",
      "cre ase",
      "pers on",
      "b us",
      "c y",
      "p res",
      "t ask",
      "ch ine",
      "ho t",
      "hi gh",
      "b b",
      "i de",
      "l it",
      "to w",
      "le d",
      "sto od",
      "twe lve",
      "under stood",
      "instruction s",
      "exa ctly",
      "avail able",
      "b ed",
      "v al",
      "is e",
      "ne sday",
      "eve r",
      "ag o",
      "cl ass",
      "bi ll",
      "sent ence",
      "low er",
      "wed nesday",
      "ci al",
      "f t",
      "w ake",
      "al d",
      "con ver",
      "rec ly",
      "cor recly",
      "some thing",
      "teen th",
      "word s",
      "l and",
      "we mo",
      "out side",
      "ast ic",
      "br ing",
      "movi es",
      "cus to",
      "c ent",
      "d ing",
      "f un",
      "o k",
      "t le",
      "ac ti",
      "wr ite",
      "mess age",
      "custo mer",
      "f ant",
      "r un",
      "ch ic",
      "ne are",
      "bo t",
      "after noon",
      "fant astic",
      "chic ago",
      "neare st",
      "c atch",
      "f oll",
      "o h",
      "le nt",
      "ri l",
      "vi de",
      "don ald",
      "foll ow",
      "g g",
      "l ines",
      "m ay",
      "me s",
      "ou gh",
      "tion s",
      "got ten",
      "j a",
      "n ce",
      "p es",
      "s now",
      "bo x",
      "g mail",
      "l f",
      "p ick",
      "ne l",
      "ap ril",
      "ye ster",
      "thing s",
      "help ful",
      "bb c",
      "b or",
      "b ur",
      "d u",
      "f l",
      "n n",
      "s ha",
      "s up",
      "it s",
      "we ar",
      "ro bot",
      "chan nel",
      "sun day",
      "count ry",
      "sub ject",
      "import ant",
      "b ar",
      "d y",
      "o ple",
      "ic s",
      "ic es",
      "ap ple",
      "pe ople",
      "tu ne",
      "clo se",
      "use ful",
      "bl ue",
      "gra m",
      "won der",
      "yester day",
      "b a",
      "e ar",
      "s mart",
      "in crease",
      "in box",
      "le ave",
      "ch ick",
      "es s",
      "di rec",
      "ri ve",
      "mi l",
      "deli very",
      "sele ct",
      "c ool",
      "c nn",
      "h is",
      "j an",
      "l ine",
      "o b",
      "me dia",
      "se cond",
      "ic al",
      "do c",
      "ca re",
      "di ff",
      "current ly",
      "understand ing",
      "upd ates",
      "tow n",
      "acti v",
      "wonder ful",
      "a we",
      "d a",
      "f ree",
      "k en",
      "m ber",
      "w a",
      "to m",
      "ch r",
      "pl us",
      "ke d",
      "sh uff",
      "jo e",
      "co me",
      "ame ric",
      "pro gram",
      "amaz ing",
      "tal k",
      "pres id",
      "ja zz",
      "chick en",
      "p s",
      "v is",
      "ll a",
      "ha d",
      "di an",
      "would n",
      "sto re",
      "seven teen",
      "clo ck",
      "ide a",
      "diff ere",
      "c al",
      "k itch",
      "l as",
      "an g",
      "do ing",
      "no te",
      "bo b",
      "ul ar",
      "thir d",
      "near by",
      "follow ing",
      "kitch en",
      "b um",
      "f re",
      "p ound",
      "re quest",
      "the m",
      "to o",
      "we st",
      "oo se",
      "con cer",
      "ex cel",
      "fif ty",
      "perfe ct",
      "k ing",
      "m it",
      "s a",
      "t ri",
      "z one",
      "an s",
      "me n",
      "ke ep",
      "sh it",
      "wor th",
      "co ld",
      "does n",
      "vi d",
      "happ y",
      "appointment s",
      "head lines",
      "doc tor",
      "shuff le",
      "k es",
      "m m",
      "w al",
      "le ft",
      "al bum",
      "curre n",
      "confir med",
      "bo ss",
      "bre ak",
      "amaz on",
      "comp any",
      "bed room",
      "excel lent",
      "b ad",
      "c up",
      "f ami",
      "g y",
      "g ave",
      "l on",
      "n ia",
      "o ther",
      "s ound",
      "ch oose",
      "it es",
      "for ty",
      "for nia",
      "li fornia",
      "ca lifornia",
      "ri es",
      "um bre",
      "per cent",
      "qu i",
      "awe some",
      "g in",
      "l ater",
      "p ast",
      "the y",
      "ne ss",
      "play ed",
      "so cial",
      "ume r",
      "speak ers",
      "look ing",
      "lon don",
      "umbre lla",
      "h mm",
      "i e",
      "s k",
      "s y",
      "s ar",
      "s mi",
      "t re",
      "in fo",
      "on ly",
      "an n",
      "st on",
      "what ever",
      "ri d",
      "po t",
      "con s",
      "ag es",
      "art ist",
      "ge st",
      "ale r",
      "cont in",
      "fami ly",
      "c r",
      "m ount",
      "t it",
      "re gard",
      "me mber",
      "st i",
      "ch a",
      "di m",
      "de l",
      "lo t",
      "was h",
      "shop s",
      "pu ll",
      "conver t",
      "bor n",
      "presid ent",
      "e ast",
      "e gg",
      "g en",
      "i gh",
      "m as",
      "p ay",
      "p ur",
      "s am",
      "w ard",
      "in a",
      "in dia",
      "the ir",
      "er ase",
      "play er",
      "un clear",
      "ma de",
      "fif th",
      "mes sed",
      "direc tions",
      "curren cy",
      "d en",
      "p it",
      "s an",
      "s port",
      "z e",
      "re port",
      "ar i",
      "st e",
      "st re",
      "ra p",
      "oo t",
      "he ll",
      "set ting",
      "off ice",
      "mi cha",
      "say ing",
      "man ner",
      "mean ing",
      "notif y",
      "mark et",
      "ele ven",
      "uh h",
      "cons umer",
      "micha el",
      "e at",
      "g i",
      "g an",
      "p ow",
      "in te",
      "re member",
      "en ough",
      "ke y",
      "one y",
      "mar y",
      "mar ri",
      "happen ed",
      "speak er",
      "aler t",
      "c en",
      "d am",
      "e se",
      "f ar",
      "l ou",
      "m ist",
      "p end",
      "is n",
      "le y",
      "or d",
      "wh y",
      "ing ton",
      "en n",
      "en ti",
      "do g",
      "be en",
      "com me",
      "co at",
      "vi e",
      "pr ices",
      "loc ated",
      "read y",
      "eur os",
      "gra ph",
      "deli ver",
      "ele ction",
      "wa it",
      ", .",
      "b ro",
      "d ent",
      "g ar",
      "y en",
      "re comme",
      "ne d",
      "ne t",
      "ha m",
      "no pe",
      "ticket s",
      "sun ny",
      "item s",
      "chine se",
      "mil k",
      "concer t",
      "smi th",
      "regard ing",
      "dam mit",
      "pend ing",
      "recomme nd",
      "l ar",
      "m c",
      "r ing",
      "r us",
      "re play",
      "en g",
      "al s",
      "lo s",
      "ation al",
      "ent s",
      "pro vide",
      "cook ing",
      "ines s",
      "par k",
      "pow er",
      "a li",
      "b it",
      "d om",
      "m s",
      "n i",
      "p and",
      "p tion",
      "s ou",
      "s of",
      "s us",
      "w atch",
      "in v",
      "at ing",
      "le n",
      "ll ow",
      "ch ar",
      "ck s",
      "di e",
      "un read",
      "bo ston",
      "mi ke",
      "let s",
      "ma chine",
      "gre en",
      "favor ites",
      "exa ct",
      "par is",
      "bus iness",
      "sport s",
      "vie w",
      "dent ist",
      "g as",
      "n ational",
      "p et",
      "u nt",
      "in to",
      "in correctly",
      "the n",
      "le vel",
      "se s",
      "ch i",
      "tra vel",
      "restaurant s",
      "friend s",
      "wed ding",
      "jack son",
      "mess ages",
      "spo ken",
      "tre nd",
      "b s",
      "b and",
      "c es",
      "d ance",
      "f ast",
      "g u",
      "m ak",
      "o c",
      "o graph",
      "p are",
      "r s",
      "t all",
      "u ck",
      "w arm",
      "the se",
      "on na",
      "or a",
      "ar rive",
      "ne y",
      "po lit",
      "be gin",
      "che ese",
      "co st",
      "bo ther",
      "bright ness",
      "spo ke",
      "gard en",
      "americ an",
      "differe nce",
      "sar ah",
      "mount ain",
      "wash ington",
      "stre et",
      "inte rest",
      "e qu",
      "f all",
      "h an",
      "m ain",
      "n or",
      "r ou",
      "r up",
      "w an",
      "th an",
      "re set",
      "re try",
      "ve nt",
      "ch o",
      "it ed",
      "ist er",
      "ra ise",
      "art ic",
      "ge or",
      "mi d",
      "mi ami",
      "take out",
      "sun g",
      "bi g",
      "fav our",
      "tif y",
      "game s",
      "recent ly",
      "fun ny",
      "sk ip",
      "dom in",
      "b ru",
      "d ail",
      "m all",
      "m oney",
      "w ar",
      "in dian",
      "po l",
      "si ri",
      "ac count",
      "ber t",
      "au st",
      "pro du",
      "su re",
      "col our",
      "descri ption",
      "cond ition",
      "ange les",
      "high est",
      "lit tle",
      "activ ate",
      "chr ist",
      "east er",
      "hell o",
      "pand ora",
      "rou te",
      "dail y",
      "b ai",
      "d an",
      "d ar",
      "k ind",
      "l in",
      "m ad",
      "p a",
      "p ri",
      "s n",
      "s cre",
      "w in",
      "w ind",
      "on es",
      "te ch",
      "ra m",
      "as h",
      "vi a",
      "fe ed",
      "hi m",
      "four th",
      "br it",
      "search ing",
      "bright en",
      "pop ular",
      "contin ue",
      "unt il",
      "b ow",
      "b ra",
      "c in",
      "d r",
      "d ri",
      "e th",
      "y et",
      "in ce",
      "at ten",
      "re l",
      "the at",
      "se at",
      "or id",
      "st ate",
      "li fe",
      "ha ving",
      "ce le",
      "po s",
      "be at",
      "ro ad",
      "che ap",
      "ph o",
      "fe el",
      "ho li",
      "eight y",
      "mat ch",
      "fif teen",
      "pre pare",
      "jack et",
      "air port",
      "bus y",
      "fl orid",
      "close st",
      "ear th",
      "ob ject",
      "wal mart",
      "christ mas",
      "florid a",
      ", ,",
      "m um",
      "o es",
      "r ates",
      "s and",
      "s co",
      "t ar",
      "y o",
      "the s",
      "me x",
      "se lf",
      "se vent",
      "ase d",
      "it u",
      "ne west",
      "ist ance",
      "tra ck",
      "un important",
      "add ed",
      "ive rs",
      "ju ne",
      "every thing",
      "rain ing",
      "bright er",
      "import ance",
      "dis play",
      "class ical",
      "sup er",
      "da vid",
      "qui et",
      "tit le",
      "egg s",
      "setting s",
      "trend ing",
      "favour ite",
      "c u",
      "c li",
      "d c",
      "e igh",
      "h ar",
      "l am",
      "m r",
      "p en",
      "w ish",
      "th room",
      "re di",
      "an c",
      "st ates",
      "ing redi",
      "pl ac",
      "we re",
      "wi fe",
      "ri de",
      "ad y",
      "so on",
      "lo ad",
      "tomorrow s",
      "train s",
      "ju ly",
      "ment s",
      "qu ite",
      "listen ing",
      "ok ay",
      "pes os",
      "bur ger",
      "ba throom",
      "fre sh",
      "mist ake",
      "sof t",
      "geor ge",
      "produ ct",
      "mex ic",
      "sevent y",
      "b an",
      "c ra",
      "f in",
      "f oot",
      "g n",
      "j ap",
      "k i",
      "l ady",
      "s we",
      "ch ina",
      "for ward",
      "ic a",
      "li a",
      "oo ps",
      "de part",
      "po se",
      "ro ss",
      "xt y",
      "ent er",
      "un k",
      "un ited",
      "week s",
      "jo kes",
      "si xty",
      "could n",
      "respon d",
      "work out",
      "seven th",
      "fif teenth",
      "year s",
      "top ic",
      "sing er",
      "notification s",
      "class ic",
      "gen re",
      "marri ed",
      "scre en",
      "jap an",
      "c ted",
      "d ad",
      "e en",
      "i phone",
      "j ame",
      "k er",
      "k id",
      "o re",
      "p ra",
      "p ap",
      "r and",
      "s um",
      "t v",
      "re view",
      "me al",
      "ch ess",
      "fr anc",
      "as on",
      "mo bi",
      "us a",
      "rec ord",
      "ge ograph",
      "sto ries",
      "ye llow",
      "if ic",
      "ff e",
      "fe sti",
      "podcast s",
      "stock s",
      "col le",
      "val ue",
      "jan e",
      "chr is",
      "break ing",
      "gy m",
      "ann ivers",
      "jame s",
      "festi val",
      "annivers ary",
      "d rive",
      "e con",
      "f ere",
      "h it",
      "h and",
      "k a",
      "k ar",
      "l is",
      "n pr",
      "p ic",
      "p ac",
      "p au",
      "r on",
      "r ange",
      "s qu",
      "w ood",
      "re le",
      "ve gas",
      "ing s",
      "ai led",
      "te st",
      "te xt",
      "em s",
      "ca b",
      "mo ther",
      "po sed",
      "fi le",
      "ag a",
      "tra l",
      "some one",
      "part ic",
      "wrong ly",
      "tr ue",
      "repeat ing",
      "spo tify",
      "cont ent",
      "gr ound",
      "ob ama",
      "vid ed",
      "polit ics",
      "wan ted",
      "dar k",
      "seat tle",
      "mum bai",
      "rand om",
      "b ab",
      "b ers",
      "c ess",
      "d ra",
      "d all",
      "f u",
      "f ut",
      "f ine",
      "h air",
      "l le",
      "p ress",
      "r ice",
      "s ister",
      "y ah",
      "th r",
      "at a",
      "at ive",
      "me at",
      "ch uck",
      "it ies",
      "ne ver",
      "ra ge",
      "ca pit",
      "ind er",
      "ri ble",
      "ro bert",
      "ag ram",
      "light ing",
      "res ul",
      "jo y",
      "op in",
      "sch ool",
      "ty pe",
      "pro ble",
      "ser ve",
      "inst agram",
      "av y",
      "her o",
      "comp are",
      "sp a",
      "gr and",
      "plan ned",
      "inter net",
      "sha re",
      "past a",
      "sti ll",
      "ste ak",
      "mc donald",
      "interest ing",
      "easter n",
      "mad onna",
      "beat les",
      "holi day",
      "foot ball",
      "yah oo",
      "capit al",
      "b oo",
      "b ank",
      "c ut",
      "d ue",
      "e f",
      "g a",
      "h u",
      "h or",
      "h ut",
      "j er",
      "j im",
      "j enn",
      "s he",
      "u al",
      "v o",
      "v in",
      "y s",
      "an a",
      "ou ght",
      "is s",
      "le ss",
      "se ems",
      "or ange",
      "st eve",
      "ll s",
      "it al",
      "et ti",
      "te x",
      "te le",
      "al th",
      "al len",
      "di vided",
      "fi x",
      "be ing",
      "com pose",
      "ex pe",
      "mu st",
      "vi ous",
      "reci pes",
      "just in",
      "ul ation",
      "mi les",
      "work ing",
      "mail s",
      "down town",
      "bet ter",
      "ma th",
      "clo thes",
      "bl ank",
      "pre vious",
      "upd ated",
      "run ning",
      "sup posed",
      "americ a",
      "differe nt",
      "request ed",
      "tri p",
      "sam sung",
      "cen tral",
      "lou der",
      "inv ite",
      "cheap est",
      "tar get",
      "lam p",
      "ingredi ents",
      "plac es",
      "mexic an",
      "kid s",
      "franc is",
      "squ are",
      "partic ular",
      "fut ure",
      "a dian",
      "b lo",
      "e ach",
      "g ed",
      "g aga",
      "h op",
      "l or",
      "m ic",
      "r ating",
      "s ur",
      "s low",
      "z er",
      "re ma",
      "the ater",
      "on i",
      "to ry",
      "le r",
      "wh ite",
      "ar s",
      "pl o",
      "te am",
      "gh etti",
      "li e",
      "li br",
      "can adian",
      "ca use",
      "as ked",
      "mo de",
      "ad a",
      "ad just",
      "today s",
      "he alth",
      "com cast",
      "so lve",
      "ation s",
      "if er",
      "ak es",
      "room ba",
      "ave rage",
      "tu re",
      "que ue",
      "clean ing",
      "il a",
      "star bu",
      "inter national",
      "conver s",
      "land o",
      "artic les",
      "bra d",
      "cele br",
      "mobi le",
      "pac ific",
      "dall as",
      "opin ion",
      "spa ghetti",
      "jenn ifer",
      "a dele",
      "c ard",
      "d ata",
      "e as",
      "g gest",
      "h ard",
      "k at",
      "l u",
      "l ish",
      "o my",
      "o ven",
      "p t",
      "p at",
      "p ass",
      "r or",
      "r om",
      "s ince",
      "t ic",
      "t ab",
      "v ir",
      "w ater",
      "re g",
      "on line",
      "me ant",
      "to ge",
      "se a",
      "or lando",
      "st one",
      "ll ing",
      "er y",
      "it ali",
      "te l",
      "ha ll",
      "de v",
      "de st",
      "de crease",
      "ri ch",
      "us ing",
      "he avy",
      "ap pl",
      "go d",
      "lo gy",
      "rec ur",
      "tur key",
      "week ly",
      "show s",
      "ta co",
      "give n",
      "cl u",
      "au ght",
      "el se",
      "tu be",
      "pro vi",
      "su ggest",
      "pi e",
      "help ed",
      "cook ies",
      "pre sent",
      "ele ct",
      "pop ulation",
      "back ground",
      "gr ou",
      "plan s",
      "cr icket",
      "del hi",
      "pur ch",
      "den ver",
      "eng lish",
      "mak ing",
      "pho to",
      "pra ct",
      "pau se",
      "fu ll",
      "thr ough",
      "mcdonald s",
      "rema inder",
      "libr ary",
      "celebr ity",
      "toge ther",
      "b al",
      "b ri",
      "b ake",
      "b ought",
      "d ur",
      "e es",
      "f er",
      "f ish",
      "g ers",
      "h its",
      "o live",
      "p ink",
      "r ated",
      "s wi",
      "s itu",
      "u k",
      "u res",
      "u ary",
      "on a",
      "an e",
      "an i",
      "is su",
      "st r",
      "en joy",
      "do e",
      "ti m",
      "em ber",
      "fr ank",
      "can ada",
      "de c",
      "any one",
      "po ker",
      "ant a",
      "with out",
      "sh ip",
      "si a",
      "vi lle",
      "fe bru",
      "au gh",
      "loc ate",
      "hi p",
      "pro ject",
      "who le",
      "way s",
      "sun screen",
      "ask ing",
      "month s",
      "bre w",
      "num bers",
      "ninet een",
      "color s",
      "vide o",
      "jan uary",
      "program me",
      "vis it",
      "vis ion",
      "cal led",
      "pound s",
      "marri age",
      "rup ees",
      "aust ra",
      "tech no",
      "atten d",
      "geograph ic",
      "econ omy",
      "fere nce",
      "tex as",
      "mic ro",
      "itali an",
      "issu es",
      "febru ary",
      "a ct",
      "b read",
      "c at",
      "c ow",
      "d ro",
      "d istance",
      "f lo",
      "g ir",
      "h ur",
      "k o",
      "n on",
      "o ce",
      "p an",
      "r oot",
      "s mall",
      "t ain",
      "w ent",
      "at or",
      "re al",
      "re qui",
      "re fresh",
      "re serve",
      "an im",
      "me t",
      "se n",
      "se y",
      "wh e",
      "ar ri",
      "you tube",
      "ch at",
      "ch edule",
      "for get",
      "ic i",
      "we bs",
      "ha lf",
      "em ailed",
      "ca me",
      "mo ment",
      "ri ver",
      "fi l",
      "com put",
      "ant s",
      "with in",
      "sh o",
      "res chedule",
      "ex press",
      "sto ry",
      "ter n",
      "need ed",
      "your self",
      "si lent",
      "und ry",
      "ph i",
      "per i",
      "mi ll",
      "schedule s",
      "but ter",
      "cl ou",
      "el vis",
      "read ing",
      "spe cial",
      "four teenth",
      "every day",
      "ma x",
      "inst e",
      "bu d",
      "stand ard",
      "post ed",
      "listen ed",
      "name s",
      "tr ans",
      "je ff",
      "grocer ies",
      "top ics",
      "ale x",
      "cont ro",
      "la w",
      "la undry",
      "ange l",
      "sp ace",
      "person al",
      "ear li",
      "men to",
      "pit t",
      "gi ving",
      "bro ther",
      "rus h",
      "sou p",
      "pet er",
      "domin o",
      "aust in",
      "pa ul",
      "pos si",
      "pic ture",
      "starbu cks",
      "recur ring",
      "grou p",
      "pract ice",
      "situ ation",
      "str ong",
      "dec ember",
      "gir l",
      "b ay",
      "b ase",
      "c cer",
      "d aught",
      "h y",
      "h um",
      "j it",
      "j es",
      "k in",
      "l ti",
      "l anta",
      "m b",
      "m is",
      "m ate",
      "m ap",
      "m ac",
      "m ass",
      "o ve",
      "p ack",
      "s le",
      "s pr",
      "s cen",
      "t ay",
      "in r",
      "at lanta",
      "re ach",
      "le ar",
      "ve red",
      "ar range",
      "st uff",
      "li kes",
      "em i",
      "ca ke",
      "ce ll",
      "ri han",
      "ad v",
      "ct s",
      "am s",
      "he ld",
      "com ple",
      "so ccer",
      "sh or",
      "tw enti",
      "sto res",
      "ter y",
      "mu lti",
      "late ly",
      "bo il",
      "bo dy",
      "per ry",
      "mi le",
      "cre ated",
      "hi b",
      "thir teenth",
      "down load",
      "six th",
      "vac ation",
      "sing h",
      "save d",
      "star s",
      "bill s",
      "his tory",
      "las ses",
      "break fast",
      "pot at",
      "pay ment",
      "ari jit",
      "mist akes",
      "enti al",
      "lar ge",
      "lar gest",
      "sn ap",
      "yo ga",
      "har ry",
      "lis ted",
      "expe ct",
      "francis co",
      "blo ck",
      "rich ard",
      "provi der",
      "purch ase",
      "dur ing",
      "micro soft",
      "whe ther",
      "tay lor",
      "twenti eth",
      "a th",
      "a my",
      "a ven",
      "b row",
      "b ased",
      "c c",
      "c ir",
      "c ul",
      "c key",
      "d h",
      "e ffe",
      "g on",
      "g one",
      "g onna",
      "h at",
      "i ed",
      "i ld",
      "j i",
      "j ay",
      "l ap",
      "m al",
      "n g",
      "r is",
      "s ac",
      "s ity",
      "u ally",
      "v a",
      "w ine",
      "y a",
      "in clu",
      "re n",
      "an other",
      "to e",
      "to ber",
      "or i",
      "st em",
      "ch ur",
      "it i",
      "we b",
      "play back",
      "ra h",
      "al ask",
      "al ready",
      "ab ove",
      "eve rest",
      "be cause",
      "ro me",
      "con ference",
      "go ld",
      "sh oes",
      "lo g",
      "ex hib",
      "co de",
      "ta c",
      "ac c",
      "mar s",
      "start s",
      "ho tel",
      "ho ckey",
      "ver sus",
      "john s",
      "que en",
      "im um",
      "help s",
      "help ing",
      "bu ild",
      "call s",
      "long est",
      "ass ist",
      "count ries",
      "cont ain",
      "dis able",
      "ide as",
      "bur gh",
      "cal cu",
      "las ag",
      "note s",
      "men u",
      "sy stem",
      "pot ter",
      "gen er",
      "lou d",
      "sus an",
      "chi ld",
      "oc tober",
      "rup ee",
      "pol ic",
      "bow ie",
      "dri ver",
      "dri ving",
      "theat re",
      "cli mate",
      "pap a",
      "bab y",
      "resul ts",
      "hor rible",
      "eas y",
      "appl ication",
      "austra lia",
      "flo or",
      "anim al",
      "webs ite",
      "comput er",
      "possi ble",
      "daught er",
      "sle ep",
      "chur ch",
      "alask a",
      "calcu late",
      "a ward",
      "c and",
      "c ti",
      "c il",
      "c ross",
      "d le",
      "d ates",
      "d ish",
      "e ber",
      "f ra",
      "f light",
      "g s",
      "g ue",
      "h ai",
      "j ing",
      "k iss",
      "l ing",
      "o il",
      "p enn",
      "r ail",
      "r ick",
      "t x",
      "t ap",
      "t our",
      "t ru",
      "w o",
      "th a",
      "in ch",
      "in ten",
      "re main",
      "on t",
      "me l",
      "le st",
      "se ss",
      "or y",
      "or gan",
      "ve st",
      "ve mber",
      "st ep",
      "it a",
      "te ach",
      "play s",
      "ti es",
      "ra mento",
      "al tern",
      "no vember",
      "di um",
      "de ad",
      "mo s",
      "fi e",
      "ro y",
      "ion s",
      "tell ing",
      "ag ree",
      "ag end",
      "ant ic",
      "tra sh",
      "ly ric",
      "off er",
      "our ce",
      "co late",
      "mar i",
      "start ing",
      "if t",
      "twe lf",
      "remove d",
      "ten th",
      "red u",
      "mi gr",
      "fo ld",
      "open ing",
      "bir d",
      "spe ars",
      "su gar",
      "su cks",
      "sun days",
      "bi eber",
      "whi le",
      "mean s",
      "bl ack",
      "pre t",
      "nin th",
      "deli vered",
      "sing s",
      "sub way",
      "air s",
      "pu bl",
      "task s",
      "fun ction",
      "acti ve",
      "ear ly",
      "activ ity",
      "activ ities",
      "sa fe",
      "sa les",
      "doctor s",
      "rus sia",
      "sou th",
      "die go",
      "mak er",
      "equ als",
      "nor th",
      "cho colate",
      "artic le",
      "big gest",
      "domin os",
      "wind y",
      "cin em",
      "dr ink",
      "rel ated",
      "pap er",
      "review s",
      "rele ased",
      "meat ball",
      "boo ts",
      "kat y",
      "rom antic",
      "dest in",
      "bri ef",
      "nineteen th",
      "techno logy",
      "phi li",
      "mill ion",
      "clou dy",
      "max imum",
      "bud get",
      "base ball",
      "lap top",
      "sac ramento",
      "exhib ition",
      "agend a",
      "lyric s",
      "twelf th",
      "b c",
      "b at",
      "b en",
      "b ask",
      "c oo",
      "c ru",
      "d ave",
      "f li",
      "f am",
      "g es",
      "h ate",
      "h ue",
      "i g",
      "i v",
      "i gn",
      "j our",
      "k im",
      "k ans",
      "m t",
      "m ood",
      "m ah",
      "n s",
      "n at",
      "n ces",
      "o hi",
      "p y",
      "p red",
      "p age",
      "p ool",
      "r ound",
      "r cc",
      "s si",
      "s ally",
      "s ale",
      "t ag",
      "t able",
      "u es",
      "w are",
      "w all",
      "in s",
      "in burgh",
      "in vest",
      "re ed",
      "re turn",
      "an as",
      "an na",
      "le e",
      "st it",
      "you ng",
      "ch ap",
      "en able",
      "ne s",
      "ne igh",
      "my self",
      "et ball",
      "do or",
      "ke e",
      "ed inburgh",
      "al so",
      "al ore",
      "al ways",
      "em ma",
      "fr ance",
      "ca p",
      "ca de",
      "di rect",
      "as ss",
      "as hi",
      "ind a",
      "mo di",
      "fi re",
      "be i",
      "be come",
      "ro hit",
      "ag ue",
      "he art",
      "he ight",
      "ry an",
      "che l",
      "che ster",
      "remind ed",
      "ut ter",
      "pe p",
      "get ting",
      "tur ned",
      "again st",
      "book s",
      "op tions",
      "co ast",
      "si ze",
      "ta king",
      "mar ked",
      "cle vel",
      "bo y",
      "bo ard",
      "ph ia",
      "ph ones",
      "fo x",
      "pp ed",
      "cre am",
      "pr om",
      "pr ince",
      "hear d",
      "br unch",
      "rain coat",
      "job s",
      "car s",
      "car ry",
      "sub stit",
      "ster n",
      "son y",
      "pu b",
      "pes o",
      "snow ing",
      "apple s",
      "direc tion",
      "presid ential",
      "ang ry",
      "concer ts",
      "cup s",
      "sar a",
      "rid ge",
      "lot tery",
      "enti re",
      "deliver s",
      "election s",
      "bit co",
      "cho ice",
      "sung lasses",
      "condition s",
      "brit ish",
      "brit ney",
      "ban anas",
      "fin an",
      "tele vision",
      "convers ation",
      "swi ft",
      "dro p",
      "oce an",
      "contro l",
      "scen ari",
      "brow n",
      "gold en",
      "acc id",
      "lasag na",
      "wo men",
      "inten sity",
      "redu ce",
      "migr ation",
      "fold er",
      "bask etball",
      "fam ous",
      "kans as",
      "ohi o",
      "rcc g",
      "asss istance",
      "utter ance",
      "clevel and",
      "substit ute",
      "a po",
      "a ving",
      "a head",
      "b ag",
      "b our",
      "c ing",
      "c ong",
      "c red",
      "c edu",
      "d ic",
      "d em",
      "d ress",
      "f ac",
      "g and",
      "g lo",
      "h us",
      "h ong",
      "h ood",
      "i re",
      "j ai",
      "j am",
      "j ake",
      "k s",
      "k ard",
      "k yo",
      "l an",
      "l ab",
      "l ag",
      "m p",
      "n ch",
      "n it",
      "n ail",
      "n al",
      "n sa",
      "p ty",
      "r an",
      "r iso",
      "s al",
      "s ad",
      "s ang",
      "s ource",
      "t an",
      "t ou",
      "t to",
      "t ast",
      "v an",
      "w at",
      "w is",
      "x it",
      "y on",
      "in iti",
      "me lo",
      "me tal",
      "me tall",
      "me dium",
      "to ri",
      "to mat",
      "le nce",
      "le aving",
      "le wis",
      "se an",
      "ve get",
      "wh om",
      "ar a",
      "ll y",
      "er ror",
      "ne cess",
      "ple as",
      "for d",
      "li ber",
      "li mb",
      "ha llow",
      "ti an",
      "ra j",
      "al o",
      "al ity",
      "em pty",
      "ca d",
      "that s",
      "as si",
      "as ia",
      "as ses",
      "mo on",
      "ct ic",
      "us h",
      "us ually",
      "be a",
      "be ll",
      "be ach",
      "ro le",
      "ag reed",
      "he ctic",
      "com mute",
      "go lf",
      "remind ing",
      "pe king",
      "ent ry",
      "ex am",
      "ex tra",
      "ex pen",
      "ex peri",
      "ir on",
      "jo dh",
      "ter rible",
      "cor ding",
      "co mes",
      "chan ged",
      "ac ross",
      "ac cording",
      "cast le",
      "bo red",
      "ph ila",
      "ul t",
      "ment ion",
      "but ton",
      "don t",
      "doll y",
      "tweet s",
      "work s",
      "fo l",
      "pr of",
      "cl asses",
      "cel ona",
      "thanks giving",
      "pro cedu",
      "thir teen",
      "sun set",
      "qu art",
      "repl ied",
      "bu ll",
      "clo thing",
      "post s",
      "col um",
      "name d",
      "month ly",
      "long er",
      "man ila",
      "min us",
      "car pet",
      "head line",
      "sing le",
      "sing ing",
      "stat ue",
      "la unch",
      "star ted",
      "dis ney",
      "inter view",
      "buy ing",
      "sele cted",
      "bill y",
      "bar ack",
      "bar celona",
      "tune s",
      "second s",
      "cal or",
      "contin ent",
      "del phia",
      "lot te",
      "ord ers",
      "wait ing",
      "gar age",
      "sus hi",
      "equ al",
      "mid night",
      "mid dle",
      "colour s",
      "win ning",
      "theat res",
      "feel ing",
      "sand y",
      "sco res",
      "itu nes",
      "eigh teen",
      "pen cil",
      "product s",
      "swe et",
      "swe ater",
      "depart ment",
      "sum mer",
      "rele ase",
      "resul t",
      "proble m",
      "compare d",
      "jer sey",
      "ital y",
      "convers ion",
      "dev ice",
      "elect ric",
      "elect ron",
      "requi red",
      "fil ter",
      "angel ina",
      "strong ly",
      "lear n",
      "adv ance",
      "comple te",
      "rah man",
      "cti ve",
      "remain ing",
      "altern ative",
      "publ ic",
      "meatball s",
      "destin ation",
      "phili pp",
      "pred ic",
      "neigh bor",
      "ashi an",
      "pep per",
      "bitco in",
      "finan cial",
      "scenari o",
      "cred it",
      "gand hi",
      "hus band",
      "kard ashian",
      "lag os",
      "riso tto",
      "tou ch",
      "metall ica",
      "liber ty",
      "limb augh",
      "jodh pur",
      "phila delphia",
      "a fr",
      "a ff",
      "a live",
      "a pol",
      "b ing",
      "b ak",
      "b ang",
      "c ked",
      "d s",
      "d ou",
      "d av",
      "d ale",
      "e inste",
      "f b",
      "f c",
      "f an",
      "f it",
      "f ly",
      "f und",
      "f ash",
      "g l",
      "g ri",
      "g ent",
      "g ary",
      "g ift",
      "h un",
      "h ank",
      "h room",
      "i an",
      "i le",
      "i ll",
      "i ow",
      "i ous",
      "i led",
      "j or",
      "j ason",
      "k no",
      "k ate",
      "k ip",
      "l at",
      "l augh",
      "m ur",
      "m ag",
      "m ine",
      "n am",
      "o me",
      "p awe",
      "p da",
      "s ame",
      "s hell",
      "u c",
      "u plo",
      "v s",
      "v ale",
      "y ing",
      "z a",
      "z y",
      "in em",
      "at ta",
      "at ma",
      "at ures",
      "re start",
      "re wind",
      "re ason",
      "on to",
      "an ist",
      "to kyo",
      "le on",
      "le ad",
      "se l",
      "se cre",
      "se ason",
      "st u",
      "ch air",
      "ch ip",
      "en cy",
      "en ces",
      "it ive",
      "ai re",
      "ic ke",
      "te a",
      "te sco",
      "li g",
      "ra ce",
      "ra ham",
      "ra mid",
      "ed s",
      "ed ia",
      "al a",
      "al ab",
      "em plo",
      "em inem",
      "wi kip",
      "how s",
      "di g",
      "di ver",
      "di ble",
      "de g",
      "de re",
      "de gre",
      "de ath",
      "ab raham",
      "am ount",
      "po or",
      "ro t",
      "ro te",
      "ro ger",
      "ro lls",
      "up s",
      "ag er",
      "he aven",
      "go es",
      "ry l",
      "tra ct",
      "sh ar",
      "lo st",
      "check out",
      "mus hroom",
      "sto pped",
      "book ing",
      "op er",
      "op tion",
      "need s",
      "send er",
      "chan ce",
      "some time",
      "si lence",
      "ac tion",
      "bo l",
      "fa ct",
      "mi ley",
      "fe atures",
      "ho pe",
      "fri ed",
      "cel ine",
      "el ton",
      "spe c",
      "spe ed",
      "por ch",
      "birthday s",
      "four teen",
      "su ck",
      "say s",
      "cer tain",
      "ser t",
      "qu ick",
      "qu ery",
      "qu ality",
      "six teenth",
      "part on",
      "ma jor",
      "bi ke",
      "bi ograph",
      "br and",
      "look s",
      "pi re",
      "repl ace",
      "bu ff",
      "clo sing",
      "rain y",
      "serv ices",
      "use d",
      "bre xit",
      "il ity",
      "din ing",
      "hou ston",
      "mart in",
      "question s",
      "ric ane",
      "tal lest",
      "sp here",
      "love s",
      "over head",
      "cy rus",
      "hot test",
      "twelve th",
      "vide os",
      "du bai",
      "subject s",
      "mil an",
      "ken ny",
      "fre qu",
      "fre nch",
      "cold play",
      "wal k",
      "album s",
      "sk y",
      "mas h",
      "gi ra",
      "bro ad",
      "net fli",
      "eng age",
      "eng land",
      "char lotte",
      "uck y",
      "polit ical",
      "begin ning",
      "mountain s",
      "wan na",
      "bru no",
      "bru ce",
      "pri me",
      "theat ers",
      "pos ition",
      "holi days",
      "object s",
      "quiet er",
      "eigh th",
      "yellow stone",
      "colle ge",
      "colle ction",
      "lis a",
      "dra ft",
      "proble ms",
      "vo ice",
      "zer o",
      "pat rick",
      "vir gin",
      "hall way",
      "taco s",
      "present ation",
      "hur ricane",
      "met ro",
      "arri ving",
      "arri val",
      "inste ad",
      "earli er",
      "earli est",
      "jes se",
      "mis sed",
      "shor ts",
      "potat o",
      "inclu de",
      "build ing",
      "gener al",
      "polic y",
      "step s",
      "fie ld",
      "cinem a",
      "hue y",
      "mah atma",
      "chap ter",
      "bei jing",
      "chel sea",
      "prom o",
      "bour ne",
      "glo bal",
      "nail s",
      "initi ate",
      "melo dy",
      "necess ary",
      "hallow een",
      "experi ence",
      "fol k",
      "procedu re",
      "pepper oni",
      "afr ica",
      "apol is",
      "einste in",
      "fash ion",
      "hank s",
      "iow a",
      "kno ck",
      "pawe l",
      "uplo ad",
      "vale nt",
      "alab ama",
      "wikip edia",
      "degre es",
      "biograph y",
      "netfli x",
      "a a",
      "a cade",
      "b is",
      "b om",
      "b ul",
      "b hu",
      "c st",
      "c our",
      "c ies",
      "c ities",
      "d it",
      "d ist",
      "d ry",
      "d ak",
      "d ney",
      "e u",
      "e ye",
      "f y",
      "f air",
      "g th",
      "g ur",
      "g il",
      "g ia",
      "g las",
      "g rid",
      "g loves",
      "h ang",
      "j ess",
      "j ord",
      "j unk",
      "k y",
      "k ong",
      "l s",
      "l ay",
      "l oo",
      "l ang",
      "l inda",
      "m g",
      "m ing",
      "m ir",
      "m aid",
      "n is",
      "n as",
      "n ood",
      "n bc",
      "o t",
      "o te",
      "p f",
      "p ha",
      "p al",
      "p ain",
      "q w",
      "r ise",
      "s in",
      "s mo",
      "s ite",
      "s ci",
      "t one",
      "t um",
      "w inter",
      "w ings",
      "w rote",
      "x y",
      "x on",
      "y an",
      "y le",
      "y once",
      "th ai",
      "in tell",
      "in ven",
      "in ci",
      "re lig",
      "on ment",
      "an ic",
      "me re",
      "me mor",
      "me ryl",
      "to ld",
      "is m",
      "is on",
      "is land",
      "le g",
      "le x",
      "le ast",
      "le ague",
      "se x",
      "se ll",
      "se ction",
      "se ries",
      "or de",
      "or ding",
      "ve y",
      "ve gan",
      "ar row",
      "st ay",
      "st ree",
      "st yle",
      "you t",
      "ch er",
      "ch em",
      "ch enn",
      "en vir",
      "ow s",
      "ne tw",
      "of ten",
      "we ight",
      "do l",
      "li z",
      "li an",
      "li ver",
      "ti eth",
      "ke vin",
      "ra di",
      "ed die",
      "al bert",
      "al pha",
      "wi ch",
      "fr ont",
      "how ard",
      "no ld",
      "no ise",
      "can yon",
      "di r",
      "di on",
      "di es",
      "as ure",
      "de an",
      "de sert",
      "mo d",
      "ab c",
      "ab les",
      "out look",
      "ce pt",
      "have n",
      "are n",
      "am p",
      "time r",
      "be ef",
      "be yonce",
      "ro s",
      "ro ll",
      "ro gers",
      "con st",
      "he at",
      "ap art",
      "so l",
      "so lit",
      "go ssi",
      "tra cks",
      "che er",
      "che cked",
      "ly n",
      "lo b",
      "rec tify",
      "rec ording",
      "pe ar",
      "like ly",
      "un cle",
      "was n",
      "sto r",
      "jo es",
      "jo lie",
      "ter ror",
      "co ver",
      "ye es",
      "ju d",
      "ju lie",
      "si m",
      "show n",
      "curre d",
      "ac y",
      "ac cess",
      "bo iled",
      "fa cts",
      "ph ys",
      "ten nis",
      "red dit",
      "ber g",
      "ber lin",
      "mi che",
      "app ro",
      "end s",
      "mon days",
      "pp ing",
      "pr ic",
      "au dible",
      "ard s",
      "pro test",
      "thir tieth",
      "su ch",
      "vol can",
      "fore ign",
      "fur nit",
      "happen s",
      "qu icke",
      "six teen",
      "every one",
      "bi o",
      "br is",
      "friday s",
      "clo ser",
      "cook ie",
      "stand ing",
      "col n",
      "gre g",
      "station s",
      "rain bow",
      "mat ic",
      "year ly",
      "rock y",
      "rock ville",
      "des k",
      "man age",
      "man hat",
      "min ister",
      "cri me",
      "car ol",
      "bl ues",
      "pre par",
      "goo g",
      "jack ie",
      "ninet ies",
      "par a",
      "cond u",
      "tor onto",
      "pu bs",
      "sp end",
      "plan e",
      "plan et",
      "plan ning",
      "ger ia",
      "inter pret",
      "pres sure",
      "hot mail",
      "high er",
      "tow er",
      "tow ers",
      "land s",
      "cent re",
      "cent er",
      "pick up",
      "bur gers",
      "sup pl",
      "dy lan",
      "smart phone",
      "doc u",
      "tri via",
      "cold est",
      "curren cies",
      "other s",
      "sy n",
      "sy dney",
      "cr is",
      "cr ush",
      "tit anic",
      "del ay",
      "pur ple",
      "den mark",
      "ari z",
      "ni ke",
      "ni geria",
      "len gth",
      "char ged",
      "oc cur",
      "geor gia",
      "domin oes",
      "siri us",
      "lin coln",
      "pri or",
      "brit ies",
      "bow l",
      "cele brities",
      "sand als",
      "thes is",
      "cli ent",
      "wish es",
      "ingredi ent",
      "mexic o",
      "ban ana",
      "cra b",
      "cra sh",
      "ki lo",
      "depart ing",
      "ore gon",
      "chris tian",
      "econ om",
      "fere nces",
      "kar o",
      "dra ma",
      "jer ry",
      "tele phone",
      "expe cted",
      "reg ion",
      "dev ices",
      "pie ce",
      "tim ings",
      "frank lin",
      "requi re",
      "girl friend",
      "hy po",
      "hum an",
      "hum id",
      "rihan a",
      "rihan na",
      "multi ple",
      "potat oes",
      "snap chat",
      "richard s",
      "effe cts",
      "assist ant",
      "child ren",
      "driver s",
      "award s",
      "cand y",
      "tru ck",
      "sess ion",
      "organ i",
      "mos cow",
      "coo ked",
      "jai pur",
      "wat son",
      "assi gn",
      "prof ile",
      "bull dog",
      "calor ies",
      "electron ic",
      "philipp ine",
      "neighbor hood",
      "bang alore",
      "emplo yees",
      "deg ree",
      "dere k",
      "mushroom s",
      "frequ ency",
      "gira ffe",
      "virgin ia",
      "acade my",
      "jess ica",
      "lang u",
      "relig ion",
      "orde red",
      "stree p",
      "chenn ai",
      "envir onment",
      "netw ork",
      "radi us",
      "furnit ure",
      "quicke st",
      "manhat tan",
      "a e",
      "a w",
      "a then",
      "a ffe",
      "b in",
      "b on",
      "b ha",
      "b ridge",
      "c d",
      "c ou",
      "c ase",
      "c ed",
      "c ry",
      "c op",
      "d l",
      "d ow",
      "d ai",
      "d un",
      "d ul",
      "d rain",
      "d han",
      "e g",
      "e ag",
      "f et",
      "f arm",
      "f ers",
      "f red",
      "g ow",
      "g ate",
      "g ru",
      "g ure",
      "g ative",
      "h p",
      "h on",
      "h ay",
      "h uff",
      "i o",
      "i x",
      "i al",
      "i dol",
      "j en",
      "j un",
      "j ump",
      "j ones",
      "k et",
      "k ent",
      "k ick",
      "k oc",
      "k han",
      "k ya",
      "k roger",
      "l ic",
      "l ink",
      "l van",
      "n z",
      "n are",
      "n ag",
      "o po",
      "o ta",
      "p ed",
      "p ump",
      "r ina",
      "r yout",
      "s c",
      "s m",
      "s ion",
      "s ick",
      "s cri",
      "s car",
      "s ms",
      "t m",
      "t am",
      "u de",
      "u ous",
      "v p",
      "v or",
      "v ic",
      "v ard",
      "v ali",
      "w re",
      "w om",
      "w au",
      "x m",
      "x el",
      "y ani",
      "z ep",
      "z ip",
      "th o",
      "th on",
      "th um",
      "in fl",
      "at ra",
      "re y",
      "re fri",
      "re serv",
      "the me",
      "the ory",
      "on s",
      "an gle",
      "me z",
      "me ter",
      "me asure",
      "ou se",
      "to l",
      "to ol",
      "to tal",
      "to ok",
      "le eds",
      "se p",
      "se cur",
      "or g",
      "or ang",
      "ve lo",
      "ve lling",
      "ar tif",
      "en er",
      "en ix",
      "it ing",
      "it ation",
      "it zer",
      "ne gative",
      "pl y",
      "for k",
      "for t",
      "ic ate",
      "te s",
      "te eth",
      "and re",
      "nd ra",
      "ti ll",
      "ti ff",
      "ti red",
      "ist s",
      "ra pi",
      "ra jes",
      "em o",
      "em an",
      "em pire",
      "fr u",
      "ca sh",
      "ca pp",
      "ca ble",
      "new ly",
      "new castle",
      "di et",
      "di ed",
      "di vide",
      "de al",
      "de velo",
      "mo to",
      "ab ad",
      "ab hi",
      "out ing",
      "ad en",
      "us ual",
      "am d",
      "fi ll",
      "fi ed",
      "fi gure",
      "ong o",
      "be li",
      "ro ast",
      "ro ps",
      "ro han",
      "con ne",
      "con ven",
      "com ment",
      "ap a",
      "so lu",
      "go ver",
      "go spe",
      "go mez",
      "ant oni",
      "not ice",
      "tra velling",
      "sh ine",
      "mor gan",
      "lo gan",
      "off ers",
      "pe an",
      "pe ace",
      "pe lin",
      "ent ly",
      "ent ries",
      "tur al",
      "un mute",
      "was her",
      "jo el",
      "want s",
      "cor n",
      "music al",
      "send ers",
      "ju ice",
      "ju lia",
      "chan ces",
      "si e",
      "si mil",
      "ere d",
      "sw at",
      "sw itzer",
      "ta wa",
      "vi l",
      "vi et",
      "mar c",
      "think ing",
      "ph y",
      "per form",
      "ul tra",
      "let te",
      "fe b",
      "fe w",
      "app y",
      "int on",
      "ho ld",
      "ho ly",
      "fri es",
      "delete d",
      "mon opo",
      "seven teenth",
      "pr int",
      "cl ick",
      "ol a",
      "tu res",
      "tu tori",
      "pro ces",
      "su c",
      "ru de",
      "sun block",
      "qu ote",
      "pi le",
      "clo oney",
      "cook er",
      "sent ences",
      "vacuum ing",
      "je an",
      "je ans",
      "man o",
      "man go",
      "man chester",
      "man ager",
      "av o",
      "low est",
      "car men",
      "car ryout",
      "gra ss",
      "gra du",
      "pre fer",
      "pre ferences",
      "count y",
      "weekend s",
      "bright on",
      "head ing",
      "head ed",
      "head set",
      "ish ed",
      "sing apo",
      "defin ed",
      "stat ing",
      "sub scri",
      "tem ple",
      "spo t",
      "cont ents",
      "old ies",
      "air lines",
      "la dies",
      "temperat ures",
      "comp an",
      "comp et",
      "dis co",
      "ger ator",
      "inter val",
      "sele ction",
      "cy cle",
      "pres ley",
      "high way",
      "du st",
      "sha ll",
      "sha pe",
      "sha res",
      "robot ic",
      "ba con",
      "mil wau",
      "da q",
      "cal cul",
      "too th",
      "tri ps",
      "wal king",
      "sound s",
      "percent age",
      "sy non",
      "sy lvan",
      "smi le",
      "ann ual",
      "artist s",
      "contin uous",
      "tit les",
      "tit led",
      "mas ala",
      "ward s",
      "stre am",
      "market ing",
      "inte l",
      "key s",
      "ham burger",
      "mc do",
      "power ball",
      "pand a",
      "watch ing",
      "inv itation",
      "char les",
      "chi ll",
      "chi li",
      "gu st",
      "gu ys",
      "mak es",
      "oc curred",
      "pare nt",
      "warm ing",
      "cost a",
      "cost umer",
      "equ ation",
      "main e",
      "nor mal",
      "nor ris",
      "favour ites",
      "indian apolis",
      "dar ken",
      "kind ly",
      "ash win",
      "feed back",
      "cin o",
      "atten ding",
      "rel ation",
      "pho enix",
      "earth qu",
      "sand wich",
      "cu it",
      "eigh teenth",
      "eigh ties",
      "har ris",
      "cra zy",
      "enter tain",
      "respond ed",
      "japan ese",
      "record s",
      "geograph y",
      "hand ler",
      "wood chuck",
      "hair cut",
      "grand ma",
      "boo ked",
      "steve n",
      "health y",
      "eas i",
      "kat rina",
      "tab les",
      "reg ister",
      "clu b",
      "photo s",
      "cat s",
      "oce ans",
      "real ity",
      "ici al",
      "ici ous",
      "came ra",
      "sho e",
      "peri od",
      "contro ver",
      "mac y",
      "pack age",
      "spr ing",
      "spr int",
      "download ed",
      "cir cuit",
      "cul tural",
      "effe ctive",
      "ori gin",
      "penn sylvan",
      "rail way",
      "inch es",
      "mel bourne",
      "teach er",
      "mari o",
      "safe st",
      "drink s",
      "cru ise",
      "jour ney",
      "jour nal",
      "modi fy",
      "boy friend",
      "accid ent",
      "accid ents",
      "tast e",
      "pleas ant",
      "raj dhan",
      "colum bus",
      "electric ity",
      "complete ly",
      "predic tions",
      "dou ble",
      "fund s",
      "hun g",
      "mag ic",
      "ome lette",
      "shell y",
      "uc cino",
      "atta ch",
      "anist on",
      "stu dy",
      "ramid s",
      "dig ital",
      "spec ific",
      "broad cast",
      "engage ments",
      "bom bay",
      "bhu b",
      "dak ota",
      "glas gow",
      "loo p",
      "nas daq",
      "intell ig",
      "memor ial",
      "liver pool",
      "alpha bet",
      "const ru",
      "solit aire",
      "gossi p",
      "lob ster",
      "para de",
      "suppl ies",
      "ariz ona",
      "organi ze",
      "athen s",
      "bha ji",
      "gru bhub",
      "kent ucky",
      "kick ball",
      "nare ndra",
      "wre ck",
      "wom an",
      "zep pelin",
      "thum bs",
      "refri gerator",
      "secur ity",
      "orang es",
      "tiff any",
      "rapi ds",
      "rajes h",
      "capp uccino",
      "conven i",
      "solu tion",
      "gospe l",
      "antoni o",
      "simil ar",
      "switzer land",
      "monopo ly",
      "proces sing",
      "gradu ation",
      "singapo re",
      "milwau kee",
      "synon y",
      "entertain ment",
      "pennsylvan ia",
      "rajdhan i",
      ". '",
      "9 ne",
      "a do",
      "a us",
      "a fi",
      "a ol",
      "a ware",
      "b j",
      "b as",
      "b one",
      "b ent",
      "b order",
      "b ah",
      "b rate",
      "b age",
      "b ass",
      "b son",
      "b ryan",
      "b aren",
      "c z",
      "c ation",
      "c co",
      "c rock",
      "c ure",
      "c iting",
      "d p",
      "d ha",
      "d ed",
      "d ru",
      "d ating",
      "d fc",
      "e li",
      "e pe",
      "e xt",
      "e lla",
      "e qui",
      "f s",
      "f al",
      "f ake",
      "f low",
      "f airs",
      "f jord",
      "f mod",
      "g al",
      "g ad",
      "g all",
      "g row",
      "g ather",
      "g ie",
      "g lasses",
      "g alore",
      "g tm",
      "g dp",
      "h w",
      "h oo",
      "h ul",
      "h oney",
      "h unt",
      "h wood",
      "h emi",
      "h dfc",
      "i z",
      "i th",
      "i ant",
      "i el",
      "i ble",
      "i jer",
      "i ler",
      "i roomba",
      "i ko",
      "j j",
      "j on",
      "j he",
      "j lo",
      "j py",
      "k al",
      "k fi",
      "k ers",
      "k il",
      "k ki",
      "k ore",
      "k ka",
      "l g",
      "l au",
      "l aur",
      "l uck",
      "l ane",
      "m ast",
      "m ut",
      "m un",
      "m iss",
      "m inton",
      "n j",
      "n u",
      "n ut",
      "n if",
      "n ak",
      "n atur",
      "n ba",
      "n aught",
      "n 9ne",
      "o on",
      "o st",
      "p b",
      "p in",
      "p ate",
      "p as",
      "p ad",
      "p ong",
      "p sh",
      "p av",
      "p dr",
      "p ants",
      "r se",
      "r oo",
      "s ist",
      "s can",
      "s lo",
      "s ive",
      "s au",
      "s ach",
      "s cr",
      "s aga",
      "t t",
      "t wi",
      "t ro",
      "t ten",
      "t ul",
      "t ata",
      "u no",
      "u ate",
      "v it",
      "v ation",
      "v ick",
      "w y",
      "w ing",
      "w et",
      "w oo",
      "w end",
      "w ang",
      "y i",
      "z an",
      "z ing",
      "z en",
      "z am",
      "z ger",
      "z ita",
      "th or",
      "th od",
      "th ought",
      "in i",
      "in o",
      "in ing",
      "in for",
      "in di",
      "in vol",
      "in put",
      "in ted",
      "in come",
      "in die",
      "at t",
      "at mo",
      "at kin",
      "re ve",
      "re nt",
      "re mo",
      "re be",
      "re call",
      "re search",
      "re gg",
      "re pet",
      "re solve",
      "re cap",
      "the w",
      "on et",
      "an o",
      "an ne",
      "an al",
      "an cy",
      "an thon",
      "me mo"
    ]
  }
}