{
  "version": "1.0",
  "truncation": null,
  "padding": null,
  "added_tokens": [
    {
      "id": 0,
      "content": "[PAD]",
      "single_word": false,
      "lstrip": false,
      "rstrip": false,
      "normalized": false,
      "special": true
    },
    {
      "id": 1,
      "content": "[UNK]",
      "single_word": false,
      "lstrip": false,
      "rstrip": false,
      "normalized": false,
      "special": true
    },
    {
      "id": 2,
      "content": "[CLS]",
      "single_word": false,
      "lstrip": false,
      "rstrip": false,
      "normalized": false,
      "special": true
    },
    {
      "id": 3,
      "content": "[MASK]",
      "single_word": false,
      "lstrip": false,
      "rstrip": false,
      "normalized": false,
      "special": true
    },
    {
      "id": 4,
      "content": "[SEP]",
      "single_word": false,
      "lstrip": false,
      "rstrip": false,
      "normalized": false,
      "special": true
    }
  ],
  "normalizer": {
    "type": "BertNormalizer",
    "clean_text": true,
    "handle_chinese_chars": true,
    "strip_accents": true,
    "lowercase": true
  },
  "pre_tokenizer": {
    "type": "Whitespace"
  },
  "post_processor": null,
  "decoder": null,
  "model": {
    "type": "BPE",
    "dropout": null,
    "unk_token": "[UNK]",
    "continuing_subword_prefix": null,
    "end_of_word_suffix": null,
    "fuse_unk": false,
    "byte_fallback": false,
    "ignore_merges": false,
    "vocab": {
      "[PAD]": 0,
      "[UNK]": 1,
      "[CLS]": 2,
      "[MASK]": 3,
      "[SEP]": 4,
      "!": 5,
      "\"": 6,
      "#": 7,
      "$": 8,
      "%": 9,
      "&": 10,
      "'": 11,
      "(": 12,
      ")": 13,
      "*": 14,
      "+": 15,
      ",": 16,
      "-": 17,
      ".": 18,
      "/": 19,
      "0": 20,
      "1": 21,
      "2": 22,
      "3": 23,
      "4": 24,
      "5": 25,
      "6": 26,
      "7": 27,
      "8": 28,
      "9": 29,
      ":": 30,
      ";": 31,
      "<": 32,
      "=": 33,
      ">": 34,
      "?": 35,
      "@": 36,
      "[": 37,
      "\\": 38,
      "]": 39,
      "^": 40,
      "_": 41,
      "`": 42,
      "a": 43,
      "b": 44,
      "c": 45,
      "d": 46,
      "e": 47,
      "f": 48,
      "g": 49,
      "h": 50,
      "i": 51,
      "j": 52,
      "k": 53,
      "l": 54,
      "m": 55,
      "n": 56,
      "o": 57,
      "p": 58,
      "q": 59,
      "r": 60,
      "s": 61,
      "t": 62,
      "u": 63,
      "v": 64,
      "w": 65,
      "x": 66,
      "y": 67,
      "z": 68,
      "{": 69,
      "|": 70,
      "}": 71,
      "~": 72,
      "¡": 73,
      "¢": 74,
      "£": 75,
      "¤": 76,
      "¦": 77,
      "§": 78,
      "¨": 79,
      "«": 80,
      "®": 81,
      "°": 82,
      "³": 83,
      "´": 84,
      "·": 85,
      "º": 86,
      "»": 87,
      "½": 88,
      "¾": 89,
      "¿": 90,
      "ß": 91,
      "æ": 92,
      "ð": 93,
      "ø": 94,
      "–": 95,
      "‘": 96,
      "’": 97,
      "“": 98,
      "”": 99,
      "…": 100,
      "₤": 101,
      "th": 102,
      "in": 103,
      "the": 104,
      "an": 105,
      "er": 106,
      "is": 107,
      "re": 108,
      "on": 109,
      "at": 110,
      "en": 111,
      "to": 112,
      "ou": 113,
      "ing": 114,
      "es": 115,
      "al": 116,
      "it": 117,
      "as": 118,
      "and": 119,
      "or": 120,
      "ar": 121,
      "of": 122,
      "ed": 123,
      "il": 124,
      "st": 125,
      "ly": 126,
      "ch": 127,
      "br": 128,
      "le": 129,
      "se": 130,
      "om": 131,
      "/>": 132,
      "be": 133,
      "mo": 134,
      "wh": 135,
      "ac": 136,
      "ic": 137,
      "ve": 138,
      "this": 139,
      "no": 140,
      "ie": 141,
      "ad": 142,
      "that": 143,
      "ver": 144,
      "ut": 145,
      "lo": 146,
      "ent": 147,
      "for": 148,
      "he": 149,
      "im": 150,
      "ion": 151,
      "ay": 152,
      "ter": 153,
      "am": 154,
      "gh": 155,
      "li": 156,
      "mov": 157,
      "was": 158,
      "id": 159,
      "un": 160,
      "wi": 161,
      "fil": 162,
      "/><": 163,
      "ro": 164,
      "film": 165,
      "ke": 166,
      "with": 167,
      "ab": 168,
      "el": 169,
      "ho": 170,
      "one": 171,
      "you": 172,
      "ld": 173,
      "ha": 174,
      "but": 175,
      "movie": 176,
      "ir": 177,
      "are": 178,
      "ge": 179,
      "su": 180,
      "out": 181,
      "ri": 182,
      "so": 183,
      "go": 184,
      ".<": 185,
      "pe": 186,
      "all": 187,
      "de": 188,
      "ce": 189,
      "com": 190,
      "ul": 191,
      "not": 192,
      "po": 193,
      "do": 194,
      "ally": 195,
      "ther": 196,
      "fe": 197,
      "tor": 198,
      "his": 199,
      "her": 200,
      "ts": 201,
      "ne": 202,
      "sc": 203,
      "od": 204,
      "ma": 205,
      "ome": 206,
      "tr": 207,
      "ill": 208,
      "man": 209,
      "ex": 210,
      "ap": 211,
      "if": 212,
      "ould": 213,
      "us": 214,
      "ur": 215,
      "me": 216,
      "act": 217,
      "have": 218,
      "some": 219,
      "..": 220,
      "fr": 221,
      "ust": 222,
      "per": 223,
      "who": 224,
      "pl": 225,
      "ght": 226,
      "est": 227,
      "we": 228,
      "ct": 229,
      "end": 230,
      "con": 231,
      "ess": 232,
      "by": 233,
      "very": 234,
      "thing": 235,
      "ain": 236,
      "di": 237,
      "they": 238,
      "wor": 239,
      "au": 240,
      "like": 241,
      "see": 242,
      "ere": 243,
      "how": 244,
      "ant": 245,
      "ell": 246,
      "tim": 247,
      "ag": 248,
      "ple": 249,
      "from": 250,
      "te": 251,
      "ok": 252,
      "art": 253,
      "ous": 254,
      "bo": 255,
      "up": 256,
      "there": 257,
      "pre": 258,
      "qu": 259,
      "ven": 260,
      "pro": 261,
      "ol": 262,
      "sh": 263,
      "ies": 264,
      "just": 265,
      "char": 266,
      "ast": 267,
      "ation": 268,
      "ack": 269,
      "what": 270,
      "ough": 271,
      "my": 272,
      "way": 273,
      "has": 274,
      "oun": 275,
      "ind": 276,
      "other": 277,
      "about": 278,
      "can": 279,
      "ate": 280,
      "ers": 281,
      "atch": 282,
      "any": 283,
      "ive": 284,
      "ig": 285,
      "ist": 286,
      "she": 287,
      "good": 288,
      "ment": 289,
      "der": 290,
      "more": 291,
      "ard": 292,
      "tory": 293,
      "co": 294,
      "get": 295,
      "acter": 296,
      "character": 297,
      "watch": 298,
      "now": 299,
      "when": 300,
      "ine": 301,
      "ich": 302,
      "ure": 303,
      "reat": 304,
      "gr": 305,
      "ong": 306,
      "jo": 307,
      "even": 308,
      "would": 309,
      "able": 310,
      "ss": 311,
      "ity": 312,
      "time": 313,
      "sp": 314,
      "ite": 315,
      "ak": 316,
      "story": 317,
      "wn": 318,
      "most": 319,
      "our": 320,
      "ful": 321,
      "ound": 322,
      "ame": 323,
      "um": 324,
      "cl": 325,
      "gu": 326,
      "int": 327,
      "ck": 328,
      "which": 329,
      "only": 330,
      "ty": 331,
      "wo": 332,
      "ye": 333,
      "ide": 334,
      "well": 335,
      "really": 336,
      "had": 337,
      "af": 338,
      "aw": 339,
      "ight": 340,
      "its": 341,
      "show": 342,
      "than": 343,
      "ble": 344,
      "their": 345,
      "scen": 346,
      "uch": 347,
      "were": 348,
      "pt": 349,
      "him": 350,
      "lot": 351,
      "play": 352,
      "av": 353,
      "ade": 354,
      "fo": 355,
      "cr": 356,
      "sel": 357,
      "ink": 358,
      "did": 359,
      "pr": 360,
      "over": 361,
      "does": 362,
      "ick": 363,
      "ious": 364,
      "don": 365,
      "ep": 366,
      "look": 367,
      "itt": 368,
      "age": 369,
      "dis": 370,
      "great": 371,
      "bad": 372,
      "cau": 373,
      "bl": 374,
      "bet": 375,
      "pp": 376,
      "ars": 377,
      "will": 378,
      "ence": 379,
      "off": 380,
      "low": 381,
      "ice": 382,
      "much": 383,
      "them": 384,
      "ass": 385,
      "ish": 386,
      "fir": 387,
      "cause": 388,
      "ci": 389,
      "dire": 390,
      "peo": 391,
      "could": 392,
      "every": 393,
      "people": 394,
      "know": 395,
      "been": 396,
      "real": 397,
      "...": 398,
      "into": 399,
      "also": 400,
      "first": 401,
      "because": 402,
      "mak": 403,
      "think": 404,
      "ber": 405,
      "ud": 406,
      "ser": 407,
      "make": 408,
      "ort": 409,
      "ves": 410,
      "ire": 411,
      "fun": 412,
      "son": 413,
      "made": 414,
      "wr": 415,
      "dr": 416,
      "then": 417,
      "thr": 418,
      "too": 419,
      "du": 420,
      "after": 421,
      "where": 422,
      "work": 423,
      "inter": 424,
      "ace": 425,
      "mar": 426,
      "fa": 427,
      "self": 428,
      "ile": 429,
      "part": 430,
      "str": 431,
      "ll": 432,
      "movies": 433,
      "ever": 434,
      "cre": 435,
      "say": 436,
      "seem": 437,
      "ated": 438,
      "vie": 439,
      "spe": 440,
      "ical": 441,
      "though": 442,
      "fl": 443,
      "ach": 444,
      "ps": 445,
      "actor": 446,
      "fin": 447,
      "characters": 448,
      "view": 449,
      "ren": 450,
      "ting": 451,
      "des": 452,
      "back": 453,
      "tain": 454,
      "love": 455,
      "ance": 456,
      "ans": 457,
      "less": 458,
      "life": 459,
      "ving": 460,
      "two": 461,
      "many": 462,
      "films": 463,
      "hor": 464,
      "plot": 465,
      "ang": 466,
      "acting": 467,
      "ny": 468,
      "seen": 469,
      "min": 470,
      "your": 471,
      "never": 472,
      "being": 473,
      "ary": 474,
      "day": 475,
      "here": 476,
      "sho": 477,
      "tal": 478,
      "bel": 479,
      "ces": 480,
      "best": 481,
      "mat": 482,
      "ittle": 483,
      "gi": 484,
      "little": 485,
      "),": 486,
      "through": 487,
      "ta": 488,
      ").": 489,
      "ction": 490,
      "ctor": 491,
      "che": 492,
      "new": 493,
      "tur": 494,
      "ree": 495,
      "try": 496,
      "cent": 497,
      "ens": 498,
      "may": 499,
      "point": 500,
      "19": 501,
      "igh": 502,
      "mis": 503,
      "iz": 504,
      "ily": 505,
      "kill": 506,
      "car": 507,
      "fore": 508,
      "ict": 509,
      "ually": 510,
      "ose": 511,
      "ved": 512,
      "while": 513,
      "ra": 514,
      "fer": 515,
      "still": 516,
      "ot": 517,
      "better": 518,
      "ef": 519,
      "amer": 520,
      "sur": 521,
      "gen": 522,
      "ning": 523,
      "fri": 524,
      "--": 525,
      "tru": 526,
      "won": 527,
      "should": 528,
      "perfor": 529,
      "under": 530,
      "ave": 531,
      "old": 532,
      "again": 533,
      "find": 534,
      "mon": 535,
      "scene": 536,
      "these": 537,
      "ild": 538,
      "cast": 539,
      "read": 540,
      "ase": 541,
      "want": 542,
      "come": 543,
      "ste": 544,
      "why": 545,
      "feel": 546,
      "augh": 547,
      "!!": 548,
      "op": 549,
      "ry": 550,
      "par": 551,
      "sim": 552,
      "scenes": 553,
      "vers": 554,
      "ertain": 555,
      "stand": 556,
      "ought": 557,
      "such": 558,
      "something": 559,
      "director": 560,
      "interest": 561,
      "10": 562,
      "happ": 563,
      "fam": 564,
      "cho": 565,
      "les": 566,
      "az": 567,
      "ath": 568,
      "friend": 569,
      "irl": 570,
      "red": 571,
      "ev": 572,
      "tri": 573,
      "belie": 574,
      "ise": 575,
      "ably": 576,
      "girl": 577,
      "ian": 578,
      "sto": 579,
      "ph": 580,
      "ions": 581,
      "scre": 582,
      "wom": 583,
      "et": 584,
      "joy": 585,
      "ason": 586,
      "ating": 587,
      "mus": 588,
      "turn": 589,
      "ense": 590,
      "performan": 591,
      "ror": 592,
      "down": 593,
      "got": 594,
      "pret": 595,
      "those": 596,
      "star": 597,
      "arly": 598,
      "ins": 599,
      "ob": 600,
      "watching": 601,
      "tak": 602,
      "war": 603,
      "actors": 604,
      "doesn": 605,
      "funny": 606,
      "years": 607,
      "big": 608,
      "pos": 609,
      "gl": 610,
      "times": 611,
      "comm": 612,
      "ents": 613,
      "inal": 614,
      "ip": 615,
      "ial": 616,
      "mem": 617,
      "ash": 618,
      "ng": 619,
      "didn": 620,
      "before": 621,
      "guy": 622,
      "enjoy": 623,
      "long": 624,
      "em": 625,
      "set": 626,
      "another": 627,
      "att": 628,
      "young": 629,
      "comed": 630,
      "nothing": 631,
      "vi": 632,
      "makes": 633,
      "ways": 634,
      "bu": 635,
      "ater": 636,
      "actually": 637,
      "own": 638,
      "high": 639,
      "going": 640,
      "produ": 641,
      "orig": 642,
      "vis": 643,
      "bit": 644,
      "world": 645,
      "put": 646,
      "col": 647,
      "king": 648,
      "fect": 649,
      "hu": 650,
      "few": 651,
      "ual": 652,
      "sm": 653,
      "right": 654,
      "exc": 655,
      "action": 656,
      "same": 657,
      "let": 658,
      "sa": 659,
      "dif": 660,
      "comes": 661,
      "icul": 662,
      "laugh": 663,
      "rel": 664,
      "hard": 665,
      "cor": 666,
      "je": 667,
      "wood": 668,
      "far": 669,
      "appe": 670,
      "light": 671,
      "sin": 672,
      "sub": 673,
      "cts": 674,
      "sing": 675,
      "cle": 676,
      "**": 677,
      "ted": 678,
      "ute": 679,
      "bor": 680,
      "por": 681,
      "pect": 682,
      "screen": 683,
      "horror": 684,
      "quite": 685,
      "comple": 686,
      "original": 687,
      "things": 688,
      "kid": 689,
      "ween": 690,
      "need": 691,
      "pretty": 692,
      "fact": 693,
      "ia": 694,
      "ress": 695,
      "writ": 696,
      "pa": 697,
      "around": 698,
      "person": 699,
      "seems": 700,
      "hel": 701,
      "mind": 702,
      "thought": 703,
      "sure": 704,
      "ript": 705,
      "wonder": 706,
      "ks": 707,
      "ten": 708,
      "aut": 709,
      "take": 710,
      "howe": 711,
      "ner": 712,
      "inv": 713,
      "however": 714,
      "beg": 715,
      "give": 716,
      "kind": 717,
      "tell": 718,
      "cial": 719,
      "bas": 720,
      "ster": 721,
      "cept": 722,
      "cont": 723,
      "enough": 724,
      "ically": 725,
      "saw": 726,
      "fort": 727,
      "pare": 728,
      "series": 729,
      "gets": 730,
      "both": 731,
      "class": 732,
      "sex": 733,
      "ody": 734,
      "interesting": 735,
      "between": 736,
      "americ": 737,
      "cour": 738,
      "ward": 739,
      "care": 740,
      "press": 741,
      "ately": 742,
      "script": 743,
      "must": 744,
      "hand": 745,
      "ness": 746,
      "vel": 747,
      "main": 748,
      "ations": 749,
      "clo": 750,
      "child": 751,
      "mom": 752,
      "worth": 753,
      "beaut": 754,
      "boy": 755,
      "expect": 756,
      "ced": 757,
      "without": 758,
      "done": 759,
      "cine": 760,
      "cess": 761,
      "form": 762,
      "comedy": 763,
      "used": 764,
      "reason": 765,
      "grap": 766,
      "add": 767,
      "always": 768,
      "ending": 769,
      "music": 770,
      "call": 771,
      "family": 772,
      "line": 773,
      "isn": 774,
      "role": 775,
      "lead": 776,
      "night": 777,
      "vious": 778,
      "bar": 779,
      "last": 780,
      "illi": 781,
      "ale": 782,
      "row": 783,
      "hy": 784,
      "almost": 785,
      "mas": 786,
      "book": 787,
      "pol": 788,
      "\",": 789,
      "sequ": 790,
      "cap": 791,
      "least": 792,
      "ouse": 793,
      "tem": 794,
      "led": 795,
      "wer": 796,
      "whole": 797,
      "making": 798,
      "ger": 799,
      "utes": 800,
      "ff": 801,
      "head": 802,
      "start": 803,
      "might": 804,
      "sound": 805,
      "ings": 806,
      "alo": 807,
      "coun": 808,
      "sid": 809,
      "ue": 810,
      "val": 811,
      "vo": 812,
      "use": 813,
      "away": 814,
      "run": 815,
      "differ": 816,
      "prob": 817,
      "spo": 818,
      "lin": 819,
      "na": 820,
      "mot": 821,
      "ying": 822,
      "minutes": 823,
      "woman": 824,
      "complete": 825,
      "anything": 826,
      "lly": 827,
      "ible": 828,
      "yes": 829,
      "tv": 830,
      "super": 831,
      "pie": 832,
      "sent": 833,
      "audi": 834,
      "since": 835,
      "espe": 836,
      "ane": 837,
      "hal": 838,
      "med": 839,
      "performance": 840,
      "blo": 841,
      "joh": 842,
      "sy": 843,
      "chr": 844,
      "fol": 845,
      "00": 846,
      "stu": 847,
      "ms": 848,
      "sol": 849,
      "ature": 850,
      "probably": 851,
      "men": 852,
      "ign": 853,
      "ug": 854,
      "entertain": 855,
      "dec": 856,
      "rible": 857,
      "cond": 858,
      "yet": 859,
      "mean": 860,
      "tit": 861,
      "bre": 862,
      "tw": 863,
      "iful": 864,
      "land": 865,
      "poss": 866,
      "came": 867,
      "den": 868,
      "john": 869,
      "ional": 870,
      "ton": 871,
      "house": 872,
      "poor": 873,
      "dram": 874,
      "wal": 875,
      "rather": 876,
      "found": 877,
      "worst": 878,
      "played": 879,
      "cially": 880,
      "oney": 881,
      "ange": 882,
      "\".": 883,
      "pris": 884,
      "ked": 885,
      "place": 886,
      "unt": 887,
      "ark": 888,
      "ments": 889,
      "top": 890,
      "uring": 891,
      "epis": 892,
      "sl": 893,
      "dan": 894,
      "ult": 895,
      "cut": 896,
      "anyone": 897,
      "mer": 898,
      "cu": 899,
      "sense": 900,
      "ped": 901,
      "beautiful": 902,
      "mur": 903,
      "tre": 904,
      "rest": 905,
      "having": 906,
      "cur": 907,
      "har": 908,
      "each": 909,
      "ative": 910,
      "mor": 911,
      "anim": 912,
      "dialo": 913,
      "happen": 914,
      "hum": 915,
      "ft": 916,
      "course": 917,
      "body": 918,
      "although": 919,
      "especially": 920,
      "bud": 921,
      "keep": 922,
      "side": 923,
      "believe": 924,
      "looking": 925,
      "lu": 926,
      "second": 927,
      "job": 928,
      "father": 929,
      "pict": 930,
      "nor": 931,
      "different": 932,
      "trying": 933,
      "direct": 934,
      "dv": 935,
      "goes": 936,
      "year": 937,
      "black": 938,
      ".\"": 939,
      "imp": 940,
      "istic": 941,
      "peri": 942,
      "looks": 943,
      "dvd": 944,
      "ither": 945,
      "fall": 946,
      "human": 947,
      "ney": 948,
      "fan": 949,
      "sup": 950,
      "plays": 951,
      "member": 952,
      "fully": 953,
      "true": 954,
      "creat": 955,
      "money": 956,
      "posed": 957,
      "proble": 958,
      "commend": 959,
      "imag": 960,
      "toge": 961,
      "together": 962,
      "ingly": 963,
      "maybe": 964,
      "once": 965,
      "someone": 966,
      "ele": 967,
      "wasn": 968,
      "certain": 969,
      "vin": 970,
      "miss": 971,
      "ics": 972,
      "stead": 973,
      "everything": 974,
      "nice": 975,
      "usu": 976,
      "half": 977,
      "shows": 978,
      "ear": 979,
      "follow": 980,
      "three": 981,
      "fects": 982,
      "perfect": 983,
      "american": 984,
      "fav": 985,
      "vide": 986,
      "pul": 987,
      "rom": 988,
      "amp": 989,
      "ond": 990,
      "sty": 991,
      "fel": 992,
      "recommend": 993,
      "bly": 994,
      "ca": 995,
      "dead": 996,
      "watched": 997,
      "version": 998,
      "sit": 999,
      "death": 1000,
      "bur": 1001,
      "rele": 1002,
      "obvious": 1003,
      "later": 1004,
      "special": 1005,
      "takes": 1006,
      "plain": 1007,
      "ants": 1008,
      "everyone": 1009,
      "la": 1010,
      "plo": 1011,
      "wife": 1012,
      "iting": 1013,
      "io": 1014,
      "effects": 1015,
      "sha": 1016,
      "ality": 1017,
      "said": 1018,
      "paren": 1019,
      "audience": 1020,
      "spect": 1021,
      "cy": 1022,
      "wa": 1023,
      "understand": 1024,
      "instead": 1025,
      "excell": 1026,
      "gre": 1027,
      "review": 1028,
      "ank": 1029,
      "ni": 1030,
      "ru": 1031,
      "ilar": 1032,
      "word": 1033,
      "piece": 1034,
      "hour": 1035,
      "rid": 1036,
      "cou": 1037,
      "short": 1038,
      "shot": 1039,
      "ates": 1040,
      "himself": 1041,
      "mi": 1042,
      "else": 1043,
      "que": 1044,
      "others": 1045,
      "simp": 1046,
      "help": 1047,
      "left": 1048,
      "gy": 1049,
      "incl": 1050,
      "ism": 1051,
      "ship": 1052,
      "ames": 1053,
      "gener": 1054,
      "sk": 1055,
      "excellent": 1056,
      "during": 1057,
      "gue": 1058,
      "begin": 1059,
      "als": 1060,
      "tray": 1061,
      "camer": 1062,
      "heart": 1063,
      "seeing": 1064,
      "ences": 1065,
      "cer": 1066,
      "llywood": 1067,
      "defin": 1068,
      "fre": 1069,
      "hero": 1070,
      "pass": 1071,
      "itch": 1072,
      "eas": 1073,
      "home": 1074,
      "ah": 1075,
      "entire": 1076,
      "ling": 1077,
      "idea": 1078,
      "face": 1079,
      "serious": 1080,
      "ross": 1081,
      "ned": 1082,
      "remember": 1083,
      "fortun": 1084,
      "ited": 1085,
      "invol": 1086,
      "0s": 1087,
      "....": 1088,
      "ters": 1089,
      "cal": 1090,
      "ists": 1091,
      "cing": 1092,
      "dre": 1093,
      "stup": 1094,
      "production": 1095,
      "picture": 1096,
      "ition": 1097,
      "omb": 1098,
      "using": 1099,
      "ired": 1100,
      "ore": 1101,
      "simply": 1102,
      "given": 1103,
      "fair": 1104,
      "suc": 1105,
      "sil": 1106,
      "stupid": 1107,
      "song": 1108,
      "win": 1109,
      "friends": 1110,
      "ird": 1111,
      "sci": 1112,
      "disap": 1113,
      "attem": 1114,
      "air": 1115,
      "hollywood": 1116,
      "lack": 1117,
      "video": 1118,
      "xt": 1119,
      "pport": 1120,
      "vic": 1121,
      "wrong": 1122,
      "dou": 1123,
      "ject": 1124,
      "sad": 1125,
      "full": 1126,
      "portray": 1127,
      "dark": 1128,
      "open": 1129,
      "mess": 1130,
      "sat": 1131,
      "num": 1132,
      "budget": 1133,
      "completely": 1134,
      "ons": 1135,
      "along": 1136,
      "supposed": 1137,
      "disappoint": 1138,
      "ones": 1139,
      "ends": 1140,
      "either": 1141,
      "absol": 1142,
      "except": 1143,
      "scho": 1144,
      "kids": 1145,
      "band": 1146,
      "consid": 1147,
      "mother": 1148,
      "dri": 1149,
      "fight": 1150,
      "school": 1151,
      "absolute": 1152,
      "boring": 1153,
      "classic": 1154,
      "amaz": 1155,
      "women": 1156,
      "bro": 1157,
      "small": 1158,
      "sul": 1159,
      "performances": 1160,
      "particul": 1161,
      "cus": 1162,
      "pain": 1163,
      "fail": 1164,
      "mid": 1165,
      "tic": 1166,
      "consider": 1167,
      "itten": 1168,
      "camera": 1169,
      "surpris": 1170,
      "awful": 1171,
      "ries": 1172,
      "lig": 1173,
      "until": 1174,
      "ident": 1175,
      "comp": 1176,
      "power": 1177,
      "exam": 1178,
      "ley": 1179,
      "live": 1180,
      "graphy": 1181,
      "fi": 1182,
      "viol": 1183,
      "cas": 1184,
      "vent": 1185,
      "emot": 1186,
      "murder": 1187,
      "ler": 1188,
      "truly": 1189,
      "stars": 1190,
      "eng": 1191,
      "ready": 1192,
      "christ": 1193,
      "velo": 1194,
      "name": 1195,
      "favor": 1196,
      "jack": 1197,
      "case": 1198,
      "mich": 1199,
      "god": 1200,
      "cover": 1201,
      "couple": 1202,
      "present": 1203,
      "next": 1204,
      "tra": 1205,
      "tom": 1206,
      "mr": 1207,
      "haps": 1208,
      "typ": 1209,
      "hope": 1210,
      "mag": 1211,
      "playing": 1212,
      "definite": 1213,
      "ode": 1214,
      "cli": 1215,
      "fant": 1216,
      "sever": 1217,
      "ming": 1218,
      "dy": 1219,
      "perhaps": 1220,
      "getting": 1221,
      "gar": 1222,
      "develo": 1223,
      "ors": 1224,
      "slow": 1225,
      "ities": 1226,
      "feature": 1227,
      "flick": 1228,
      "moments": 1229,
      "written": 1230,
      "deser": 1231,
      "episode": 1232,
      "wonderful": 1233,
      "sort": 1234,
      "ides": 1235,
      "quest": 1236,
      "room": 1237,
      "lines": 1238,
      "bed": 1239,
      "includ": 1240,
      "terrible": 1241,
      "bert": 1242,
      "dist": 1243,
      "ory": 1244,
      "uni": 1245,
      "often": 1246,
      "doing": 1247,
      "loved": 1248,
      "style": 1249,
      "ush": 1250,
      "iness": 1251,
      "spir": 1252,
      "humor": 1253,
      "male": 1254,
      "strong": 1255,
      "town": 1256,
      "ring": 1257,
      "ize": 1258,
      "early": 1259,
      "felt": 1260,
      "cop": 1261,
      "non": 1262,
      "drama": 1263,
      "oh": 1264,
      "mention": 1265,
      "liked": 1266,
      "gives": 1267,
      "deli": 1268,
      "ital": 1269,
      "ility": 1270,
      "actress": 1271,
      "unch": 1272,
      "mark": 1273,
      "plan": 1274,
      "cinemat": 1275,
      "definitely": 1276,
      "dav": 1277,
      "talent": 1278,
      "ased": 1279,
      "brilli": 1280,
      "unfortun": 1281,
      "master": 1282,
      "impress": 1283,
      "experi": 1284,
      "guess": 1285,
      "break": 1286,
      "aged": 1287,
      "oc": 1288,
      "itself": 1289,
      "turns": 1290,
      "appear": 1291,
      "lost": 1292,
      "ese": 1293,
      "pri": 1294,
      "coming": 1295,
      "leg": 1296,
      "reg": 1297,
      "ages": 1298,
      "become": 1299,
      "dialogue": 1300,
      "children": 1301,
      "crim": 1302,
      "finally": 1303,
      "log": 1304,
      "cinema": 1305,
      "white": 1306,
      "desp": 1307,
      "gun": 1308,
      "credi": 1309,
      ",\"": 1310,
      "hon": 1311,
      "title": 1312,
      "close": 1313,
      "list": 1314,
      "thrill": 1315,
      "tly": 1316,
      "couldn": 1317,
      "extre": 1318,
      "dep": 1319,
      "wish": 1320,
      "possible": 1321,
      "ier": 1322,
      "ith": 1323,
      "fine": 1324,
      "went": 1325,
      "pu": 1326,
      "van": 1327,
      "blood": 1328,
      "direction": 1329,
      "absolutely": 1330,
      "evil": 1331,
      "against": 1332,
      "fac": 1333,
      "ground": 1334,
      "waste": 1335,
      "worse": 1336,
      "certainly": 1337,
      "psy": 1338,
      "killer": 1339,
      "called": 1340,
      "conf": 1341,
      "problem": 1342,
      "ael": 1343,
      "entertaining": 1344,
      "sis": 1345,
      "brilliant": 1346,
      "pur": 1347,
      "teen": 1348,
      "overall": 1349,
      "ben": 1350,
      "ball": 1351,
      "ended": 1352,
      "cred": 1353,
      "based": 1354,
      "sor": 1355,
      "tern": 1356,
      "fans": 1357,
      "os": 1358,
      "relation": 1359,
      "hit": 1360,
      "spoil": 1361,
      "tries": 1362,
      "beginning": 1363,
      "lear": 1364,
      "extreme": 1365,
      "myster": 1366,
      "ann": 1367,
      "several": 1368,
      "success": 1369,
      "lives": 1370,
      "known": 1371,
      "ized": 1372,
      "lad": 1373,
      "nam": 1374,
      "support": 1375,
      "prom": 1376,
      "sou": 1377,
      "track": 1378,
      "works": 1379,
      "hind": 1380,
      "vable": 1381,
      "dict": 1382,
      "gg": 1383,
      "ues": 1384,
      "die": 1385,
      "ention": 1386,
      "pat": 1387,
      "nat": 1388,
      "writer": 1389,
      "lar": 1390,
      "genre": 1391,
      "already": 1392,
      "selves": 1393,
      "michael": 1394,
      "mal": 1395,
      "becomes": 1396,
      "effect": 1397,
      "wanted": 1398,
      "engl": 1399,
      "example": 1400,
      "arch": 1401,
      "vision": 1402,
      "ture": 1403,
      "days": 1404,
      "despite": 1405,
      "seemed": 1406,
      "jor": 1407,
      "zomb": 1408,
      "throughout": 1409,
      "ude": 1410,
      "sum": 1411,
      "key": 1412,
      "dream": 1413,
      "tent": 1414,
      "touch": 1415,
      "past": 1416,
      "unfortunately": 1417,
      "vill": 1418,
      "writing": 1419,
      "ief": 1420,
      "mentary": 1421,
      "attempt": 1422,
      "daugh": 1423,
      "crap": 1424,
      "tech": 1425,
      "rif": 1426,
      "ific": 1427,
      "game": 1428,
      "final": 1429,
      "susp": 1430,
      "history": 1431,
      "adm": 1432,
      "hold": 1433,
      "tot": 1434,
      "quality": 1435,
      "pick": 1436,
      "200": 1437,
      "amazing": 1438,
      "rock": 1439,
      "anno": 1440,
      "crit": 1441,
      "vir": 1442,
      "type": 1443,
      "foot": 1444,
      "scar": 1445,
      "bi": 1446,
      "allow": 1447,
      "indi": 1448,
      "guys": 1449,
      "ided": 1450,
      "totally": 1451,
      "convin": 1452,
      "soon": 1453,
      "bus": 1454,
      "aim": 1455,
      "iv": 1456,
      "atic": 1457,
      "und": 1458,
      "deal": 1459,
      "colle": 1460,
      "stay": 1461,
      "wants": 1462,
      "si": 1463,
      "behind": 1464,
      ").<": 1465,
      "wise": 1466,
      "usual": 1467,
      "explo": 1468,
      "viewer": 1469,
      "aring": 1470,
      "ino": 1471,
      "antic": 1472,
      "pho": 1473,
      "late": 1474,
      "girls": 1475,
      "fig": 1476,
      "city": 1477,
      "stuff": 1478,
      "ull": 1479,
      "orge": 1480,
      "rating": 1481,
      "sle": 1482,
      "prof": 1483,
      "novel": 1484,
      "docu": 1485,
      "parts": 1486,
      "bb": 1487,
      "enjoyed": 1488,
      "contin": 1489,
      "import": 1490,
      "today": 1491,
      "mil": 1492,
      "trans": 1493,
      "unk": 1494,
      "mad": 1495,
      "ket": 1496,
      "intel": 1497,
      "ek": 1498,
      "eyes": 1499,
      "none": 1500,
      "hop": 1501,
      "favorite": 1502,
      "ding": 1503,
      "step": 1504,
      "apparen": 1505,
      "!<": 1506,
      "dam": 1507,
      "ord": 1508,
      "hot": 1509,
      "police": 1510,
      "speak": 1511,
      "starts": 1512,
      "gave": 1513,
      "sometimes": 1514,
      "directed": 1515,
      "etc": 1516,
      "??": 1517,
      "level": 1518,
      "swe": 1519,
      "ali": 1520,
      "del": 1521,
      "arr": 1522,
      "horrible": 1523,
      "event": 1524,
      "bal": 1525,
      "ris": 1526,
      "incredi": 1527,
      "grou": 1528,
      "moment": 1529,
      "ow": 1530,
      "vol": 1531,
      "situ": 1532,
      "exact": 1533,
      "thinking": 1534,
      "ches": 1535,
      "chang": 1536,
      "themselves": 1537,
      "decent": 1538,
      "stories": 1539,
      "ham": 1540,
      "ried": 1541,
      "pay": 1542,
      "figure": 1543,
      "ago": 1544,
      "predict": 1545,
      "major": 1546,
      "mc": 1547,
      "sw": 1548,
      "voice": 1549,
      "musical": 1550,
      "daughter": 1551,
      "hilar": 1552,
      "killed": 1553,
      "leav": 1554,
      "obviously": 1555,
      "brit": 1556,
      "matter": 1557,
      "cult": 1558,
      "feeling": 1559,
      "ination": 1560,
      "pose": 1561,
      "score": 1562,
      "law": 1563,
      "rent": 1564,
      "cinemato": 1565,
      "highly": 1566,
      "myself": 1567,
      "believable": 1568,
      "hus": 1569,
      "mill": 1570,
      "stud": 1571,
      "fron": 1572,
      "anger": 1573,
      "brother": 1574,
      "hell": 1575,
      "four": 1576,
      "inst": 1577,
      "heard": 1578,
      "roll": 1579,
      "paul": 1580,
      "looked": 1581,
      "stop": 1582,
      "aren": 1583,
      "taking": 1584,
      "weak": 1585,
      "ridicul": 1586,
      "order": 1587,
      "graph": 1588,
      ".)": 1589,
      "tail": 1590,
      "bring": 1591,
      "check": 1592,
      "appro": 1593,
      "tele": 1594,
      "umb": 1595,
      "move": 1596,
      "ery": 1597,
      "anyway": 1598,
      "strange": 1599,
      "explain": 1600,
      "gn": 1601,
      "jok": 1602,
      "oper": 1603,
      "var": 1604,
      "avo": 1605,
      "roles": 1606,
      "took": 1607,
      "says": 1608,
      "james": 1609,
      "lee": 1610,
      "leave": 1611,
      "free": 1612,
      "desc": 1613,
      "husband": 1614,
      "bers": 1615,
      "mart": 1616,
      "living": 1617,
      "antly": 1618,
      "fut": 1619,
      "uses": 1620,
      "rated": 1621,
      "polit": 1622,
      "cannot": 1623,
      "ridiculous": 1624,
      "cool": 1625,
      "dev": 1626,
      "violence": 1627,
      "astic": 1628,
      "ker": 1629,
      "ail": 1630,
      "recent": 1631,
      "told": 1632,
      "sav": 1633,
      "whe": 1634,
      "ished": 1635,
      "shock": 1636,
      "ared": 1637,
      "forget": 1638,
      "ake": 1639,
      "happens": 1640,
      "involved": 1641,
      "particularly": 1642,
      "lan": 1643,
      "season": 1644,
      "ys": 1645,
      "happened": 1646,
      "ret": 1647,
      "experience": 1648,
      "chance": 1649,
      "gore": 1650,
      "makers": 1651,
      "extremely": 1652,
      "dest": 1653,
      "lou": 1654,
      "wouldn": 1655,
      "moder": 1656,
      "opin": 1657,
      "alone": 1658,
      "res": 1659,
      "ards": 1660,
      "bab": 1661,
      "tract": 1662,
      "happy": 1663,
      "honest": 1664,
      "hilarious": 1665,
      "fire": 1666,
      "thor": 1667,
      "ints": 1668,
      "change": 1669,
      "david": 1670,
      "resul": 1671,
      "chard": 1672,
      "country": 1673,
      "including": 1674,
      "group": 1675,
      "dle": 1676,
      "please": 1677,
      "turned": 1678,
      "memor": 1679,
      "natur": 1680,
      "deep": 1681,
      "bat": 1682,
      "sym": 1683,
      "cheap": 1684,
      "sequel": 1685,
      "itive": 1686,
      "jap": 1687,
      "quick": 1688,
      "hen": 1689,
      "mist": 1690,
      "simple": 1691,
      "stree": 1692,
      "expected": 1693,
      "ung": 1694,
      "develop": 1695,
      "sn": 1696,
      "pleas": 1697,
      "doub": 1698,
      "annoying": 1699,
      "wit": 1700,
      "usually": 1701,
      "stra": 1702,
      "cost": 1703,
      "cat": 1704,
      "richard": 1705,
      "dog": 1706,
      "illiam": 1707,
      "beat": 1708,
      "...<": 1709,
      "pal": 1710,
      "urb": 1711,
      "save": 1712,
      "stru": 1713,
      "fast": 1714,
      "earth": 1715,
      "english": 1716,
      "photo": 1717,
      "oo": 1718,
      "number": 1719,
      "ls": 1720,
      "japan": 1721,
      "lik": 1722,
      "career": 1723,
      "fur": 1724,
      "frank": 1725,
      "realistic": 1726,
      "huge": 1727,
      "near": 1728,
      "similar": 1729,
      "ied": 1730,
      "ax": 1731,
      "dro": 1732,
      "seriously": 1733,
      "ances": 1734,
      "treat": 1735,
      "secre": 1736,
      "rip": 1737,
      "taken": 1738,
      "jud": 1739,
      "scary": 1740,
      "reality": 1741,
      "running": 1742,
      "eye": 1743,
      "apart": 1744,
      "clear": 1745,
      "released": 1746,
      "exactly": 1747,
      "ky": 1748,
      "lie": 1749,
      "wes": 1750,
      "shown": 1751,
      "azy": 1752,
      "modern": 1753,
      "ational": 1754,
      "198": 1755,
      "20": 1756,
      "box": 1757,
      "yourself": 1758,
      "whose": 1759,
      "cinematography": 1760,
      "hours": 1761,
      "wards": 1762,
      "pped": 1763,
      "opening": 1764,
      "across": 1765,
      "jokes": 1766,
      "hear": 1767,
      "shots": 1768,
      "learn": 1769,
      "rench": 1770,
      "197": 1771,
      "sch": 1772,
      "episod": 1773,
      "ator": 1774,
      "team": 1775,
      "hom": 1776,
      "sam": 1777,
      "gold": 1778,
      "relationship": 1779,
      "opinion": 1780,
      "somewhat": 1781,
      "typical": 1782,
      "william": 1783,
      "build": 1784,
      "started": 1785,
      "ral": 1786,
      "words": 1787,
      "straight": 1788,
      "ili": 1789,
      "bey": 1790,
      "sen": 1791,
      "itting": 1792,
      "villain": 1793,
      "abo": 1794,
      "exist": 1795,
      "middle": 1796,
      "pres": 1797,
      "possi": 1798,
      "talking": 1799,
      "lit": 1800,
      "mee": 1801,
      "iety": 1802,
      "enty": 1803,
      "plac": 1804,
      "documentary": 1805,
      "robert": 1806,
      "important": 1807,
      "plic": 1808,
      "due": 1809,
      "odd": 1810,
      "finds": 1811,
      "bill": 1812,
      "among": 1813,
      "dom": 1814,
      "pac": 1815,
      "ina": 1816,
      "sold": 1817,
      "female": 1818,
      "saying": 1819,
      "famous": 1820,
      "mostly": 1821,
      "sign": 1822,
      "episodes": 1823,
      "comment": 1824,
      "ju": 1825,
      "loc": 1826,
      "appre": 1827,
      "predictable": 1828,
      "tle": 1829,
      "suspense": 1830,
      "five": 1831,
      "gan": 1832,
      "rob": 1833,
      "bot": 1834,
      "ines": 1835,
      "respect": 1836,
      "ield": 1837,
      "roy": 1838,
      "rap": 1839,
      "tar": 1840,
      "stick": 1841,
      "single": 1842,
      "sequence": 1843,
      "publ": 1844,
      "talk": 1845,
      "batt": 1846,
      "yor": 1847,
      "space": 1848,
      "popul": 1849,
      "prov": 1850,
      "intellig": 1851,
      "ken": 1852,
      "appears": 1853,
      "apparently": 1854,
      "disappointed": 1855,
      "camp": 1856,
      "ref": 1857,
      "necess": 1858,
      "local": 1859,
      "remind": 1860,
      "future": 1861,
      "events": 1862,
      "dialog": 1863,
      "atmo": 1864,
      "sets": 1865,
      "!\"": 1866,
      "avoid": 1867,
      "comic": 1868,
      "songs": 1869,
      "atmosp": 1870,
      "hi": 1871,
      "attention": 1872,
      "basically": 1873,
      "equ": 1874,
      "utter": 1875,
      "creep": 1876,
      "giving": 1877,
      "!!!!": 1878,
      "television": 1879,
      "romantic": 1880,
      "uro": 1881,
      "ump": 1882,
      "knows": 1883,
      "falls": 1884,
      "british": 1885,
      "gang": 1886,
      "199": 1887,
      "lady": 1888,
      "supporting": 1889,
      "clearly": 1890,
      "knew": 1891,
      "front": 1892,
      "thriller": 1893,
      "sexual": 1894,
      "stage": 1895,
      "compare": 1896,
      "easily": 1897,
      "points": 1898,
      "match": 1899,
      "eless": 1900,
      "question": 1901,
      "ised": 1902,
      "silly": 1903,
      "****": 1904,
      "tells": 1905,
      "problems": 1906,
      "hood": 1907,
      "suck": 1908,
      "grand": 1909,
      "diff": 1910,
      "detail": 1911,
      "shi": 1912,
      "andy": 1913,
      "moving": 1914,
      "acy": 1915,
      "ext": 1916,
      "ctive": 1917,
      "cru": 1918,
      "mary": 1919,
      "chris": 1920,
      "agon": 1921,
      "entertainment": 1922,
      "ask": 1923,
      "ford": 1924,
      "ined": 1925,
      "flo": 1926,
      "aver": 1927,
      "appreci": 1928,
      "erial": 1929,
      "ently": 1930,
      "upon": 1931,
      "train": 1932,
      "asy": 1933,
      "george": 1934,
      "anna": 1935,
      "attack": 1936,
      "beyond": 1937,
      "ba": 1938,
      "ost": 1939,
      "post": 1940,
      "effort": 1941,
      "rad": 1942,
      "thetic": 1943,
      "oscar": 1944,
      "ures": 1945,
      "narr": 1946,
      "ze": 1947,
      "unlike": 1948,
      "const": 1949,
      "prise": 1950,
      "usion": 1951,
      "lim": 1952,
      "state": 1953,
      "soc": 1954,
      "whether": 1955,
      "water": 1956,
      "zz": 1957,
      "ability": 1958,
      "ultim": 1959,
      "theat": 1960,
      "easy": 1961,
      "claim": 1962,
      "hate": 1963,
      "sequences": 1964,
      "twist": 1965,
      "dull": 1966,
      "mel": 1967,
      "pping": 1968,
      "carto": 1969,
      "mystery": 1970,
      "search": 1971,
      "material": 1972,
      "afr": 1973,
      "ged": 1974,
      "wait": 1975,
      "fly": 1976,
      "intro": 1977,
      "cident": 1978,
      "enjoyable": 1979,
      "named": 1980,
      "period": 1981,
      "difficul": 1982,
      "ana": 1983,
      "adap": 1984,
      "joe": 1985,
      "needs": 1986,
      "setting": 1987,
      "york": 1988,
      "throw": 1989,
      "lies": 1990,
      "deed": 1991,
      "bes": 1992,
      "fest": 1993,
      "previous": 1994,
      "working": 1995,
      "studi": 1996,
      "dden": 1997,
      "jer": 1998,
      "within": 1999,
      "trou": 2000,
      "app": 2001,
      "actual": 2002,
      "french": 2003,
      "kept": 2004,
      "subject": 2005,
      "met": 2006,
      "message": 2007,
      "theater": 2008,
      "ott": 2009,
      "sister": 2010,
      "ension": 2011,
      "telling": 2012,
      "animation": 2013,
      "advent": 2014,
      "tale": 2015,
      "ony": 2016,
      "rich": 2017,
      "ceed": 2018,
      "concer": 2019,
      "prin": 2020,
      "port": 2021,
      "arely": 2022,
      "above": 2023,
      "bunch": 2024,
      "ses": 2025,
      "flash": 2026,
      "peter": 2027,
      "victim": 2028,
      "theme": 2029,
      "haven": 2030,
      "mise": 2031,
      "lon": 2032,
      "lots": 2033,
      "nearly": 2034,
      "doubt": 2035,
      "herself": 2036,
      "flaw": 2037,
      "personal": 2038,
      "feels": 2039,
      "iel": 2040,
      "net": 2041,
      "truth": 2042,
      "jim": 2043,
      "release": 2044,
      "note": 2045,
      "lat": 2046,
      "path": 2047,
      "clim": 2048,
      "slight": 2049,
      "storyline": 2050,
      "visual": 2051,
      "surprised": 2052,
      "western": 2053,
      "parents": 2054,
      "fantastic": 2055,
      "round": 2056,
      "pet": 2057,
      "public": 2058,
      "sun": 2059,
      "kills": 2060,
      "third": 2061,
      "mach": 2062,
      "capture": 2063,
      "begins": 2064,
      "dramatic": 2065,
      "count": 2066,
      "ution": 2067,
      "rown": 2068,
      "da": 2069,
      "fas": 2070,
      "potent": 2071,
      "drug": 2072,
      "minute": 2073,
      "inno": 2074,
      "agree": 2075,
      "gone": 2076,
      "nature": 2077,
      "50": 2078,
      "sudden": 2079,
      "reve": 2080,
      "ica": 2081,
      "shoo": 2082,
      "rus": 2083,
      "viewers": 2084,
      "large": 2085,
      "bs": 2086,
      "buy": 2087,
      "general": 2088,
      "issu": 2089,
      "forward": 2090,
      "30": 2091,
      "elements": 2092,
      "iment": 2093,
      "dance": 2094,
      "comments": 2095,
      "disney": 2096,
      "ered": 2097,
      "express": 2098,
      "soundtrack": 2099,
      "profess": 2100,
      "tried": 2101,
      "?<": 2102,
      "editing": 2103,
      "showing": 2104,
      "',": 2105,
      "contro": 2106,
      "difficult": 2107,
      "bul": 2108,
      "sugg": 2109,
      "catch": 2110,
      "thy": 2111,
      "viewing": 2112,
      "sorry": 2113,
      "tori": 2114,
      "brain": 2115,
      "baby": 2116,
      "decided": 2117,
      "mix": 2118,
      "secret": 2119,
      "filmed": 2120,
      "!)": 2121,
      "ga": 2122,
      "pts": 2123,
      "rit": 2124,
      "natural": 2125,
      "means": 2126,
      "pathetic": 2127,
      "contain": 2128,
      "grow": 2129,
      "ening": 2130,
      "exe": 2131,
      "paris": 2132,
      "kick": 2133,
      "crime": 2134,
      "vamp": 2135,
      "conne": 2136,
      "flu": 2137,
      "lame": 2138,
      "rate": 2139,
      "demon": 2140,
      "somehow": 2141,
      "writers": 2142,
      "meaning": 2143,
      "lier": 2144,
      "heav": 2145,
      "psycho": 2146,
      "bil": 2147,
      "ously": 2148,
      "repe": 2149,
      "leads": 2150,
      "lect": 2151,
      "zombie": 2152,
      "pure": 2153,
      "street": 2154,
      "weird": 2155,
      "business": 2156,
      "greatest": 2157,
      "resp": 2158,
      "ii": 2159,
      "ially": 2160,
      "appeal": 2161,
      "atmosphere": 2162,
      "brought": 2163,
      "introdu": 2164,
      "fict": 2165,
      "hur": 2166,
      "hol": 2167,
      "acted": 2168,
      "deliver": 2169,
      "imagine": 2170,
      "ives": 2171,
      "week": 2172,
      "liter": 2173,
      "shame": 2174,
      "whatever": 2175,
      "serv": 2176,
      "fit": 2177,
      "ray": 2178,
      "accent": 2179,
      "possibly": 2180,
      "ular": 2181,
      "hun": 2182,
      "particular": 2183,
      "america": 2184,
      "descri": 2185,
      "!!!": 2186,
      "fred": 2187,
      "accept": 2188,
      "ghost": 2189,
      "gest": 2190,
      "revol": 2191,
      "venge": 2192,
      "convincing": 2193,
      "average": 2194,
      "field": 2195,
      "stun": 2196,
      "prison": 2197,
      "indeed": 2198,
      "background": 2199,
      "angel": 2200,
      "eventually": 2201,
      "otic": 2202,
      "standing": 2203,
      "reviews": 2204,
      "spirit": 2205,
      "ights": 2206,
      "db": 2207,
      "ering": 2208,
      "surprise": 2209,
      "japanese": 2210,
      "wall": 2211,
      "okay": 2212,
      "teach": 2213,
      "poorly": 2214,
      "ior": 2215,
      "premise": 2216,
      "rific": 2217,
      "unity": 2218,
      "chees": 2219,
      "write": 2220,
      "jane": 2221,
      "strug": 2222,
      "medi": 2223,
      "ury": 2224,
      "luck": 2225,
      "berg": 2226,
      "ram": 2227,
      "doctor": 2228,
      "exper": 2229,
      "pen": 2230,
      "imdb": 2231,
      "ban": 2232,
      "ched": 2233,
      "forced": 2234,
      "leading": 2235,
      "focus": 2236,
      "reading": 2237,
      "effective": 2238,
      "aust": 2239,
      "fresh": 2240,
      "sleep": 2241,
      "mentioned": 2242,
      "logical": 2243,
      "became": 2244,
      "scream": 2245,
      "aid": 2246,
      "concl": 2247,
      "euro": 2248,
      "screenplay": 2249,
      "uck": 2250,
      "killing": 2251,
      "romance": 2252,
      "?\"": 2253,
      "jour": 2254,
      "needed": 2255,
      "further": 2256,
      "gay": 2257,
      "cons": 2258,
      "'.": 2259,
      "phil": 2260,
      "scott": 2261,
      "thank": 2262,
      "hair": 2263,
      "fran": 2264,
      "aging": 2265,
      "interested": 2266,
      "sed": 2267,
      "casting": 2268,
      "leaves": 2269,
      "han": 2270,
      "reco": 2271,
      "adv": 2272,
      "amoun": 2273,
      "ffer": 2274,
      "len": 2275,
      "mass": 2276,
      "ub": 2277,
      "trad": 2278,
      "fasc": 2279,
      "memorable": 2280,
      "vampire": 2281,
      "ging": 2282,
      "barr": 2283,
      "mac": 2284,
      "flat": 2285,
      "emotional": 2286,
      "meets": 2287,
      "sick": 2288,
      "credits": 2289,
      "society": 2290,
      "unless": 2291,
      "directors": 2292,
      "bored": 2293,
      "sal": 2294,
      "dress": 2295,
      "refer": 2296,
      "boys": 2297,
      "superb": 2298,
      "comb": 2299,
      "trash": 2300,
      "otherwise": 2301,
      "situation": 2302,
      "battle": 2303,
      "pan": 2304,
      "design": 2305,
      "meant": 2306,
      "meet": 2307,
      "mir": 2308,
      "popular": 2309,
      "dumb": 2310,
      "ran": 2311,
      "monster": 2312,
      "emotion": 2313,
      "unique": 2314,
      "ugh": 2315,
      "vid": 2316,
      "badly": 2317,
      "clever": 2318,
      "earlier": 2319,
      "plus": 2320,
      "fu": 2321,
      "total": 2322,
      "stal": 2323,
      "era": 2324,
      "worked": 2325,
      "crazy": 2326,
      "laughs": 2327,
      "sweet": 2328,
      "social": 2329,
      "older": 2330,
      "green": 2331,
      "discover": 2332,
      "execut": 2333,
      "beauty": 2334,
      "rede": 2335,
      "realize": 2336,
      "80": 2337,
      "cers": 2338,
      "gotten": 2339,
      "walk": 2340,
      "fantasy": 2341,
      "cul": 2342,
      "wol": 2343,
      "stere": 2344,
      "sens": 2345,
      "footage": 2346,
      "ager": 2347,
      "create": 2348,
      "rac": 2349,
      "neg": 2350,
      "stereo": 2351,
      "whom": 2352,
      "sounds": 2353,
      "directing": 2354,
      "development": 2355,
      "thus": 2356,
      "features": 2357,
      "keeps": 2358,
      "satis": 2359,
      "result": 2360,
      "adapt": 2361,
      "ka": 2362,
      "nud": 2363,
      "196": 2364,
      "hands": 2365,
      "perfectly": 2366,
      "quickly": 2367,
      "emp": 2368,
      "creepy": 2369,
      "recogn": 2370,
      "wil": 2371,
      "ising": 2372,
      "towards": 2373,
      "girlfriend": 2374,
      "broad": 2375,
      "cro": 2376,
      "aven": 2377,
      "cir": 2378,
      "san": 2379,
      "suffer": 2380,
      "board": 2381,
      "cheesy": 2382,
      "ko": 2383,
      "test": 2384,
      "brings": 2385,
      "science": 2386,
      "ats": 2387,
      "attract": 2388,
      "plenty": 2389,
      "christmas": 2390,
      "necessary": 2391,
      "rand": 2392,
      "stre": 2393,
      "lock": 2394,
      "aked": 2395,
      "occas": 2396,
      "incredibly": 2397,
      "acts": 2398,
      "techn": 2399,
      "cartoon": 2400,
      "ron": 2401,
      "awn": 2402,
      "sar": 2403,
      "suggest": 2404,
      "joke": 2405,
      "scient": 2406,
      "return": 2407,
      "allen": 2408,
      "anti": 2409,
      "famili": 2410,
      "ges": 2411,
      "/>\"": 2412,
      "lyn": 2413,
      "fighting": 2414,
      "admit": 2415,
      "?)": 2416,
      "dim": 2417,
      "imm": 2418,
      "desper": 2419,
      "powerful": 2420,
      "hill": 2421,
      "suit": 2422,
      "potential": 2423,
      "wers": 2424,
      "ague": 2425,
      "german": 2426,
      "fairly": 2427,
      "cute": 2428,
      "familiar": 2429,
      "cape": 2430,
      "copy": 2431,
      "political": 2432,
      "fat": 2433,
      "talented": 2434,
      "stri": 2435,
      "concept": 2436,
      "cry": 2437,
      "offic": 2438,
      "hardly": 2439,
      "masterpiece": 2440,
      "aste": 2441,
      "dies": 2442,
      "ders": 2443,
      "spl": 2444,
      "members": 2445,
      "py": 2446,
      "ns": 2447,
      "fear": 2448,
      "various": 2449,
      "ghts": 2450,
      "fails": 2451,
      "langu": 2452,
      "sem": 2453,
      "histor": 2454,
      "prim": 2455,
      "married": 2456,
      "drag": 2457,
      "color": 2458,
      "portrayed": 2459,
      "193": 2460,
      "island": 2461,
      "cold": 2462,
      "inside": 2463,
      "gram": 2464,
      "missing": 2465,
      "ric": 2466,
      "ero": 2467,
      "outside": 2468,
      "regard": 2469,
      "nudity": 2470,
      "ians": 2471,
      "vil": 2472,
      "filled": 2473,
      "shad": 2474,
      "crew": 2475,
      "reasons": 2476,
      "logy": 2477,
      "force": 2478,
      "trave": 2479,
      "ideas": 2480,
      "apped": 2481,
      "positive": 2482,
      "wel": 2483,
      "wild": 2484,
      "relig": 2485,
      "store": 2486,
      "company": 2487,
      "expecting": 2488,
      "deserves": 2489,
      "trail": 2490,
      "ices": 2491,
      "base": 2492,
      "ki": 2493,
      "table": 2494,
      "achie": 2495,
      "former": 2496,
      "ient": 2497,
      "missed": 2498,
      "embarr": 2499,
      "sky": 2500,
      "15": 2501,
      "biz": 2502,
      "wro": 2503,
      "ths": 2504,
      "remake": 2505,
      "iet": 2506,
      "cei": 2507,
      "manages": 2508,
      "194": 2509,
      "attempts": 2510,
      "spoilers": 2511,
      "ti": 2512,
      "za": 2513,
      "road": 2514,
      "invest": 2515,
      "doll": 2516,
      "embarrass": 2517,
      "wrote": 2518,
      "dete": 2519,
      "wind": 2520,
      "elling": 2521,
      "draw": 2522,
      "recently": 2523,
      "amount": 2524,
      "recor": 2525,
      "lid": 2526,
      "phys": 2527,
      "90": 2528,
      "insp": 2529,
      "gover": 2530,
      "sadly": 2531,
      "dad": 2532,
      "danger": 2533,
      "onic": 2534,
      "sess": 2535,
      "reveal": 2536,
      "gor": 2537,
      "ival": 2538,
      "rain": 2539,
      "\")": 2540,
      "gress": 2541,
      "accident": 2542,
      "ula": 2543,
      "west": 2544,
      "produced": 2545,
      "office": 2546,
      "sell": 2547,
      "thur": 2548,
      "asher": 2549,
      "reach": 2550,
      "filmmakers": 2551,
      "itted": 2552,
      "created": 2553,
      "following": 2554,
      "wart": 2555,
      "ded": 2556,
      "smo": 2557,
      "scare": 2558,
      "impressive": 2559,
      "incredible": 2560,
      "brief": 2561,
      "wasted": 2562,
      "common": 2563,
      "195": 2564,
      "annel": 2565,
      "accur": 2566,
      "wash": 2567,
      "cted": 2568,
      "hid": 2569,
      "project": 2570,
      "bility": 2571,
      "glo": 2572,
      "national": 2573,
      "pace": 2574,
      "ws": 2575,
      "escape": 2576,
      "brothers": 2577,
      "subtle": 2578,
      "europe": 2579,
      "mes": 2580,
      "intri": 2581,
      "passion": 2582,
      "credit": 2583,
      "revenge": 2584,
      "caught": 2585,
      "survi": 2586,
      "successful": 2587,
      "glad": 2588,
      "faith": 2589,
      "fash": 2590,
      "approach": 2591,
      "ius": 2592,
      "witch": 2593,
      "intelligent": 2594,
      "wed": 2595,
      "immedi": 2596,
      "comput": 2597,
      "party": 2598,
      "ordin": 2599,
      "rup": 2600,
      "channel": 2601,
      "complex": 2602,
      "waiting": 2603,
      "mere": 2604,
      "cross": 2605,
      "iff": 2606,
      "disturb": 2607,
      "(\"": 2608,
      "arre": 2609,
      "moves": 2610,
      "decides": 2611,
      "considering": 2612,
      "tes": 2613,
      "chase": 2614,
      "door": 2615,
      "dancing": 2616,
      "tension": 2617,
      "magic": 2618,
      "ai": 2619,
      "sand": 2620,
      "smith": 2621,
      "ships": 2622,
      "sees": 2623,
      "def": 2624,
      "delight": 2625,
      "pointless": 2626,
      "slightly": 2627,
      "esome": 2628,
      "slasher": 2629,
      "spent": 2630,
      "maker": 2631,
      "tough": 2632,
      "contri": 2633,
      "exciting": 2634,
      "compared": 2635,
      "suddenly": 2636,
      "neither": 2637,
      "extra": 2638,
      "funni": 2639,
      "lor": 2640,
      "worthy": 2641,
      "kar": 2642,
      "solid": 2643,
      "pack": 2644,
      "entirely": 2645,
      "six": 2646,
      "language": 2647,
      "actions": 2648,
      "choice": 2649,
      "italian": 2650,
      "gory": 2651,
      "andre": 2652,
      "compe": 2653,
      "mou": 2654,
      "century": 2655,
      "laughing": 2656,
      "trouble": 2657,
      "terror": 2658,
      "spot": 2659,
      "dar": 2660,
      "requ": 2661,
      "bling": 2662,
      "culture": 2663,
      "terri": 2664,
      "manner": 2665,
      "basic": 2666,
      "value": 2667,
      "animated": 2668,
      "bizarre": 2669,
      "bru": 2670,
      "tony": 2671,
      "itation": 2672,
      "violent": 2673,
      "heavy": 2674,
      "inform": 2675,
      "continu": 2676,
      "hang": 2677,
      "chur": 2678,
      "ultimately": 2679,
      "izing": 2680,
      "singing": 2681,
      "presented": 2682,
      "adventure": 2683,
      "tone": 2684,
      "zombies": 2685,
      "bon": 2686,
      "arri": 2687,
      "died": 2688,
      "studio": 2689,
      "ensive": 2690,
      "books": 2691,
      "pieces": 2692,
      "depend": 2693,
      "psych": 2694,
      "genu": 2695,
      "biggest": 2696,
      "runs": 2697,
      "adult": 2698,
      "spend": 2699,
      "shooting": 2700,
      "control": 2701,
      "squ": 2702,
      "depth": 2703,
      "critic": 2704,
      "bust": 2705,
      "amusing": 2706,
      "types": 2707,
      "hall": 2708,
      "lam": 2709,
      "ples": 2710,
      "fashion": 2711,
      "lab": 2712,
      "brut": 2713,
      "akes": 2714,
      "portrayal": 2715,
      "planet": 2716,
      "nom": 2717,
      "ults": 2718,
      "club": 2719,
      "appreciate": 2720,
      "genuine": 2721,
      "crow": 2722,
      "gle": 2723,
      "milit": 2724,
      "alien": 2725,
      "date": 2726,
      "gent": 2727,
      "stan": 2728,
      "hey": 2729,
      "pract": 2730,
      "criminal": 2731,
      "taste": 2732,
      "lets": 2733,
      "grade": 2734,
      "finish": 2735,
      "answer": 2736,
      "bomb": 2737,
      "nic": 2738,
      "uc": 2739,
      "younger": 2740,
      "changed": 2741,
      "iss": 2742,
      "chan": 2743,
      "proper": 2744,
      "awesome": 2745,
      "south": 2746,
      "born": 2747,
      "fascin": 2748,
      "opport": 2749,
      "enn": 2750,
      "appearance": 2751,
      "aside": 2752,
      "stone": 2753,
      "trip": 2754,
      "follows": 2755,
      "alex": 2756,
      "adam": 2757,
      "legend": 2758,
      "dem": 2759,
      "depress": 2760,
      "favour": 2761,
      "college": 2762,
      "impossible": 2763,
      "craf": 2764,
      "bond": 2765,
      "noir": 2766,
      "haun": 2767,
      "mistry": 2768,
      "ises": 2769,
      "ald": 2770,
      "rog": 2771,
      "fool": 2772,
      "carry": 2773,
      "ateur": 2774,
      "remark": 2775,
      "aster": 2776,
      "depict": 2777,
      "contr": 2778,
      "chemistry": 2779,
      "producers": 2780,
      "weren": 2781,
      "recommended": 2782,
      "ener": 2783,
      "thanks": 2784,
      "conclusion": 2785,
      "bage": 2786,
      "ened": 2787,
      "showed": 2788,
      "dir": 2789,
      "amateur": 2790,
      "ella": 2791,
      "starring": 2792,
      "obsess": 2793,
      "exception": 2794,
      "redeem": 2795,
      "sion": 2796,
      "rema": 2797,
      "shar": 2798,
      "considered": 2799,
      "situations": 2800,
      "million": 2801,
      "govern": 2802,
      "cam": 2803,
      "ites": 2804,
      "iced": 2805,
      "normal": 2806,
      "iers": 2807,
      "100": 2808,
      "disturbing": 2809,
      "complain": 2810,
      "steve": 2811,
      "involving": 2812,
      "barely": 2813,
      "somewhere": 2814,
      "author": 2815,
      "boss": 2816,
      "minor": 2817,
      "failed": 2818,
      "surprisingly": 2819,
      "developed": 2820,
      "sters": 2821,
      "ican": 2822,
      "decide": 2823,
      "leaving": 2824,
      "loud": 2825,
      "wolf": 2826,
      "assu": 2827,
      "bother": 2828,
      "pictures": 2829,
      "purpose": 2830,
      "grad": 2831,
      "added": 2832,
      "questions": 2833,
      "fiction": 2834,
      "essent": 2835,
      "longer": 2836,
      "gas": 2837,
      "fox": 2838,
      "bles": 2839,
      "likes": 2840,
      "computer": 2841,
      "program": 2842,
      "audiences": 2843,
      "blow": 2844,
      "enter": 2845,
      "fake": 2846,
      "consist": 2847,
      "dick": 2848,
      "rect": 2849,
      "neigh": 2850,
      "yed": 2851,
      "mood": 2852,
      "turning": 2853,
      "nie": 2854,
      "pil": 2855,
      "arthur": 2856,
      "prove": 2857,
      "charming": 2858,
      "counter": 2859,
      "images": 2860,
      "shoot": 2861,
      "appeared": 2862,
      "drive": 2863,
      "inspired": 2864,
      "gust": 2865,
      "bear": 2866,
      "grant": 2867,
      "values": 2868,
      "harry": 2869,
      "aus": 2870,
      "fell": 2871,
      "award": 2872,
      "stewart": 2873,
      "generally": 2874,
      "literally": 2875,
      "stunning": 2876,
      "lay": 2877,
      "leng": 2878,
      "load": 2879,
      "aper": 2880,
      "yeah": 2881,
      "curi": 2882,
      "london": 2883,
      "journey": 2884,
      "jef": 2885,
      "kes": 2886,
      "grace": 2887,
      "motion": 2888,
      "costum": 2889,
      "tun": 2890,
      "iny": 2891,
      "alive": 2892,
      "11": 2893,
      "tro": 2894,
      "prop": 2895,
      "edge": 2896,
      "moon": 2897,
      "standard": 2898,
      "mysterious": 2899,
      "pop": 2900,
      "plane": 2901,
      "cliche": 2902,
      "garbage": 2903,
      "likable": 2904,
      "immediately": 2905,
      "military": 2906,
      "jump": 2907,
      "kno": 2908,
      "rick": 2909,
      "insul": 2910,
      "smart": 2911,
      "walking": 2912,
      "humour": 2913,
      "detective": 2914,
      "anth": 2915,
      "belief": 2916,
      "70": 2917,
      "bought": 2918,
      "justice": 2919,
      "respons": 2920,
      "random": 2921,
      "mare": 2922,
      "thin": 2923,
      "pects": 2924,
      "core": 2925,
      "avail": 2926,
      "christian": 2927,
      "sher": 2928,
      "ining": 2929,
      "mental": 2930,
      "impression": 2931,
      "cell": 2932,
      "nast": 2933,
      "aspect": 2934,
      "arily": 2935,
      "knowing": 2936,
      "honestly": 2937,
      "innocent": 2938,
      "army": 2939,
      "seg": 2940,
      "notice": 2941,
      "feat": 2942,
      "genius": 2943,
      "***": 2944,
      "pair": 2945,
      "utterly": 2946,
      "adaptation": 2947,
      "shadow": 2948,
      "investig": 2949,
      "rare": 2950,
      "nobody": 2951,
      "indust": 2952,
      "marri": 2953,
      "ization": 2954,
      "jes": 2955,
      "sitting": 2956,
      "ison": 2957,
      "serial": 2958,
      "festival": 2959,
      "fal": 2960,
      "sof": 2961,
      "ilt": 2962,
      "roc": 2963,
      "cock": 2964,
      "drawn": 2965,
      "succeed": 2966,
      "\".<": 2967,
      "jones": 2968,
      "lord": 2969,
      "tend": 2970,
      "melo": 2971,
      "moral": 2972,
      "ceived": 2973,
      "sexy": 2974,
      "soul": 2975,
      "climax": 2976,
      "nu": 2977,
      "init": 2978,
      "threat": 2979,
      "personally": 2980,
      "mission": 2981,
      "naked": 2982,
      "absur": 2983,
      "wow": 2984,
      "40": 2985,
      "nowhere": 2986,
      "intent": 2987,
      "steal": 2988,
      "woods": 2989,
      "witness": 2990,
      "wid": 2991,
      "blue": 2992,
      "intrigu": 2993,
      "ds": 2994,
      "itor": 2995,
      "ride": 2996,
      "orts": 2997,
      "dreams": 2998,
      "satisf": 2999,
      "oli": 3000,
      "sey": 3001,
      "occur": 3002,
      "ordinary": 3003,
      "spec": 3004,
      "minis": 3005,
      "comedies": 3006,
      "silent": 3007,
      "charlie": 3008,
      "bled": 3009,
      "bottom": 3010,
      "remains": 3011,
      "thinks": 3012,
      "wis": 3013,
      "torture": 3014,
      "producer": 3015,
      "twists": 3016,
      "beha": 3017,
      "trust": 3018,
      "beautifully": 3019,
      "gag": 3020,
      "terrific": 3021,
      "unbelievable": 3022,
      "charm": 3023,
      "touching": 3024,
      "aire": 3025,
      "moun": 3026,
      "thom": 3027,
      "moved": 3028,
      "batman": 3029,
      "issues": 3030,
      "bod": 3031,
      "names": 3032,
      "terms": 3033,
      "places": 3034,
      "equally": 3035,
      "russ": 3036,
      "bir": 3037,
      "kelly": 3038,
      "confl": 3039,
      "block": 3040,
      "syste": 3041,
      "topher": 3042,
      "enced": 3043,
      "suspect": 3044,
      "phy": 3045,
      "position": 3046,
      "devil": 3047,
      "mistake": 3048,
      "anda": 3049,
      "managed": 3050,
      "jean": 3051,
      "fellow": 3052,
      "professional": 3053,
      "church": 3054,
      "18": 3055,
      "ito": 3056,
      "mm": 3057,
      "mild": 3058,
      "chick": 3059,
      "nightmare": 3060,
      "gree": 3061,
      "nel": 3062,
      "bell": 3063,
      "drunk": 3064,
      "narrative": 3065,
      "government": 3066,
      "push": 3067,
      "thes": 3068,
      "exp": 3069,
      "lovely": 3070,
      "laughable": 3071,
      "ano": 3072,
      "esh": 3073,
      "themes": 3074,
      "soldiers": 3075,
      "dor": 3076,
      "likely": 3077,
      "cele": 3078,
      "ified": 3079,
      "bob": 3080,
      "queen": 3081,
      "disappointing": 3082,
      "absurd": 3083,
      "verse": 3084,
      "commun": 3085,
      "brid": 3086,
      "termin": 3087,
      "outstanding": 3088,
      "excuse": 3089,
      "appropri": 3090,
      "marriage": 3091,
      "contem": 3092,
      "painful": 3093,
      "spoiler": 3094,
      "attractive": 3095,
      "costumes": 3096,
      "nick": 3097,
      "trick": 3098,
      "affair": 3099,
      "aware": 3100,
      "disco": 3101,
      "correct": 3102,
      "surely": 3103,
      "flashback": 3104,
      "cher": 3105,
      "loy": 3106,
      "held": 3107,
      "central": 3108,
      "izes": 3109,
      "laughter": 3110,
      "000": 3111,
      "christopher": 3112,
      "constantly": 3113,
      "mult": 3114,
      "chin": 3115,
      "watchable": 3116,
      "gry": 3117,
      "offer": 3118,
      "views": 3119,
      "cinematic": 3120,
      "bour": 3121,
      "flow": 3122,
      "thrown": 3123,
      "ires": 3124,
      "medio": 3125,
      "individ": 3126,
      "hotel": 3127,
      "changes": 3128,
      "hat": 3129,
      "loves": 3130,
      "everybody": 3131,
      "breath": 3132,
      "slowly": 3133,
      "destroy": 3134,
      "fle": 3135,
      "influ": 3136,
      "idence": 3137,
      "presence": 3138,
      "contains": 3139,
      "available": 3140,
      "charles": 3141,
      "buck": 3142,
      "animals": 3143,
      "indian": 3144,
      "photography": 3145,
      "details": 3146,
      "besides": 3147,
      "historical": 3148,
      "eli": 3149,
      "page": 3150,
      "wide": 3151,
      "escap": 3152,
      "dig": 3153,
      "gri": 3154,
      "lish": 3155,
      "isa": 3156,
      "ify": 3157,
      "gain": 3158,
      "independ": 3159,
      "remain": 3160,
      "scenery": 3161,
      "hoping": 3162,
      "henry": 3163,
      "13": 3164,
      "bing": 3165,
      "inspir": 3166,
      "prote": 3167,
      "billy": 3168,
      "onto": 3169,
      "boo": 3170,
      "oughly": 3171,
      "disappointment": 3172,
      "speaking": 3173,
      "intended": 3174,
      "crack": 3175,
      "expectations": 3176,
      "ledge": 3177,
      "numbers": 3178,
      "ini": 3179,
      "park": 3180,
      "commer": 3181,
      "building": 3182,
      "sight": 3183,
      "subst": 3184,
      "double": 3185,
      "theless": 3186,
      "qual": 3187,
      "stands": 3188,
      "clean": 3189,
      "univers": 3190,
      "summer": 3191,
      "ahead": 3192,
      "inner": 3193,
      "loose": 3194,
      "ively": 3195,
      "critics": 3196,
      "graphic": 3197,
      "zero": 3198,
      "inger": 3199,
      "lover": 3200,
      "discus": 3201,
      "boyfriend": 3202,
      "addition": 3203,
      "imagin": 3204,
      "opera": 3205,
      "alan": 3206,
      "aspects": 3207,
      "suppose": 3208,
      "bits": 3209,
      "seven": 3210,
      "model": 3211,
      "via": 3212,
      "fascinating": 3213,
      "arts": 3214,
      "suff": 3215,
      "comfort": 3216,
      "dub": 3217,
      "phone": 3218,
      "placed": 3219,
      "dated": 3220,
      "eat": 3221,
      "pun": 3222,
      "ades": 3223,
      "heaven": 3224,
      "holes": 3225,
      "compl": 3226,
      "inder": 3227,
      "intense": 3228,
      "willing": 3229,
      "feelings": 3230,
      "aa": 3231,
      "image": 3232,
      "dow": 3233,
      "span": 3234,
      "forever": 3235,
      "lighting": 3236,
      "12": 3237,
      "ston": 3238,
      "filming": 3239,
      "hosp": 3240,
      "surround": 3241,
      "fright": 3242,
      "mainly": 3243,
      "norm": 3244,
      "bruce": 3245,
      "opportunity": 3246,
      "element": 3247,
      "compelling": 3248,
      "student": 3249,
      "wy": 3250,
      "icide": 3251,
      "prot": 3252,
      "inated": 3253,
      "lived": 3254,
      "drink": 3255,
      "sident": 3256,
      "hurt": 3257,
      "individual": 3258,
      "eth": 3259,
      "resem": 3260,
      "shak": 3261,
      "emotions": 3262,
      "neighbor": 3263,
      "gorge": 3264,
      "traged": 3265,
      "proves": 3266,
      "jan": 3267,
      "content": 3268,
      "twice": 3269,
      "celebr": 3270,
      "cel": 3271,
      "inc": 3272,
      "trag": 3273,
      "safe": 3274,
      "protagon": 3275,
      "race": 3276,
      "ured": 3277,
      "magn": 3278,
      "gro": 3279,
      "intention": 3280,
      "happening": 3281,
      "impact": 3282,
      "falling": 3283,
      "birth": 3284,
      "mex": 3285,
      "pi": 3286,
      "tired": 3287,
      "anders": 3288,
      "idi": 3289,
      "jects": 3290,
      "virt": 3291,
      "kr": 3292,
      "argu": 3293,
      "vert": 3294,
      "canad": 3295,
      "mont": 3296,
      "puts": 3297,
      "mut": 3298,
      "brand": 3299,
      "priv": 3300,
      "collection": 3301,
      "jerry": 3302,
      "hide": 3303,
      "zen": 3304,
      "arm": 3305,
      "ante": 3306,
      "bland": 3307,
      "giant": 3308,
      "winning": 3309,
      "confused": 3310,
      "aine": 3311,
      "hasn": 3312,
      "rape": 3313,
      "victims": 3314,
      "trailer": 3315,
      "adults": 3316,
      "amed": 3317,
      "disgust": 3318,
      "news": 3319,
      "difference": 3320,
      "titles": 3321,
      "include": 3322,
      "games": 3323,
      "grat": 3324,
      "paid": 3325,
      "helps": 3326,
      "pull": 3327,
      "behavi": 3328,
      "commercial": 3329,
      "card": 3330,
      "eight": 3331,
      "steven": 3332,
      "ura": 3333,
      "gem": 3334,
      "artist": 3335,
      "followed": 3336,
      "damn": 3337,
      "system": 3338,
      "pin": 3339,
      "anne": 3340,
      "ado": 3341,
      "gene": 3342,
      "porn": 3343,
      "creative": 3344,
      "plots": 3345,
      "martin": 3346,
      "slo": 3347,
      "putting": 3348,
      "share": 3349,
      "ku": 3350,
      "blind": 3351,
      "decis": 3352,
      "dread": 3353,
      "fli": 3354,
      "stock": 3355,
      "actresses": 3356,
      "gorgeous": 3357,
      "mine": 3358,
      "host": 3359,
      "div": 3360,
      "origin": 3361,
      "laughed": 3362,
      "confusing": 3363,
      "negative": 3364,
      "cum": 3365,
      "ests": 3366,
      "progress": 3367,
      "americans": 3368,
      "ugly": 3369,
      "murders": 3370,
      "pleasant": 3371,
      "latter": 3372,
      "mediocre": 3373,
      "bak": 3374,
      "bird": 3375,
      "rout": 3376,
      "itional": 3377,
      "asts": 3378,
      "proved": 3379,
      "hospital": 3380,
      "nan": 3381,
      "yer": 3382,
      "lying": 3383,
      "brad": 3384,
      "lacks": 3385,
      "supposedly": 3386,
      "gin": 3387,
      "asks": 3388,
      "chill": 3389,
      "bright": 3390,
      "rot": 3391,
      "crash": 3392,
      "impressed": 3393,
      "flaws": 3394,
      "funniest": 3395,
      "onna": 3396,
      "mote": 3397,
      "agent": 3398,
      "bol": 3399,
      "relationships": 3400,
      "rey": 3401,
      "lif": 3402,
      "igno": 3403,
      "emplo": 3404,
      "occasion": 3405,
      "multi": 3406,
      "tragedy": 3407,
      "gs": 3408,
      "wing": 3409,
      "tour": 3410,
      "frust": 3411,
      "faces": 3412,
      "students": 3413,
      "ya": 3414,
      "hook": 3415,
      "auto": 3416,
      "speed": 3417,
      "warm": 3418,
      "childhood": 3419,
      "nasty": 3420,
      "fish": 3421,
      "ties": 3422,
      "aps": 3423,
      "estab": 3424,
      "foc": 3425,
      "lessly": 3426,
      "wondering": 3427,
      "freak": 3428,
      "fied": 3429,
      "merely": 3430,
      "knock": 3431,
      "cup": 3432,
      "jul": 3433,
      "rose": 3434,
      "finding": 3435,
      "cab": 3436,
      "uous": 3437,
      "resc": 3438,
      "brian": 3439,
      "flicks": 3440,
      "flying": 3441,
      "bank": 3442,
      "eper": 3443,
      "lau": 3444,
      "ands": 3445,
      "lia": 3446,
      "folks": 3447,
      "imagination": 3448,
      "delivers": 3449,
      "explained": 3450,
      "struct": 3451,
      "fif": 3452,
      "irrit": 3453,
      "tran": 3454,
      "viet": 3455,
      "standards": 3456,
      "formula": 3457,
      "cliches": 3458,
      "davis": 3459,
      "itude": 3460,
      "ander": 3461,
      "forgotten": 3462,
      "soldier": 3463,
      "mouth": 3464,
      "aton": 3465,
      "station": 3466,
      "becoming": 3467,
      "loving": 3468,
      "lights": 3469,
      "matic": 3470,
      "compan": 3471,
      "deserved": 3472,
      "tragic": 3473,
      "60": 3474,
      "sant": 3475,
      "remote": 3476,
      "ases": 3477,
      "conve": 3478,
      "stuck": 3479,
      "spectac": 3480,
      "bum": 3481,
      "powers": 3482,
      "offers": 3483,
      "robin": 3484,
      "afraid": 3485,
      "?!": 3486,
      "jon": 3487,
      "castle": 3488,
      "seconds": 3489,
      "skin": 3490,
      "thoroughly": 3491,
      "provides": 3492,
      "soft": 3493,
      "shakespe": 3494,
      "los": 3495,
      "soci": 3496,
      "extr": 3497,
      "forgettable": 3498,
      "achieve": 3499,
      "nal": 3500,
      "rush": 3501,
      "cow": 3502,
      "cook": 3503,
      "seemingly": 3504,
      "information": 3505,
      "ister": 3506,
      "states": 3507,
      "convent": 3508,
      "ctions": 3509,
      "warning": 3510,
      "williams": 3511,
      "reminded": 3512,
      "bath": 3513,
      "uts": 3514,
      "lose": 3515,
      "animal": 3516,
      "jackson": 3517,
      "breaking": 3518,
      "accurate": 3519,
      "ech": 3520,
      "mic": 3521,
      "thats": 3522,
      "industry": 3523,
      "uk": 3524,
      "stein": 3525,
      "ov": 3526,
      "buff": 3527,
      "length": 3528,
      "brok": 3529,
      "captain": 3530,
      "hidden": 3531,
      "hab": 3532,
      "acade": 3533,
      "artistic": 3534,
      "food": 3535,
      "listen": 3536,
      "location": 3537,
      ".,": 3538,
      "hack": 3539,
      "zo": 3540,
      "heal": 3541,
      "area": 3542,
      "agger": 3543,
      "rend": 3544,
      "horse": 3545,
      "shouldn": 3546,
      "relative": 3547,
      "creature": 3548,
      "heroes": 3549,
      "shocking": 3550,
      "presents": 3551,
      "remarkable": 3552,
      "andon": 3553,
      "youth": 3554,
      "pot": 3555,
      "wooden": 3556,
      "burn": 3557,
      "apartment": 3558,
      "scientist": 3559,
      "pra": 3560,
      "rented": 3561,
      "gling": 3562,
      "personality": 3563,
      "tie": 3564,
      "ww": 3565,
      "chuck": 3566,
      "beth": 3567,
      "accor": 3568,
      ".....": 3569,
      "weap": 3570,
      "shel": 3571,
      "adds": 3572,
      "dirty": 3573,
      "chinese": 3574,
      "angry": 3575,
      "prefer": 3576,
      "clothes": 3577,
      "punch": 3578,
      "itions": 3579,
      "uncle": 3580,
      "explan": 3581,
      "therefore": 3582,
      "heads": 3583,
      "radio": 3584,
      "wars": 3585,
      "filmmaker": 3586,
      "process": 3587,
      "finished": 3588,
      "pleasure": 3589,
      "shakespeare": 3590,
      "gal": 3591,
      "jum": 3592,
      "jason": 3593,
      "naz": 3594,
      "stren": 3595,
      "depart": 3596,
      "ups": 3597,
      "anymore": 3598,
      "glas": 3599,
      "judge": 3600,
      "austral": 3601,
      "cate": 3602,
      "hs": 3603,
      "aries": 3604,
      "mob": 3605,
      "lake": 3606,
      "picked": 3607,
      "jeff": 3608,
      "sac": 3609,
      "sli": 3610,
      "unexpected": 3611,
      "stephen": 3612,
      "tay": 3613,
      "ington": 3614,
      "sco": 3615,
      "aud": 3616,
      "danny": 3617,
      "martial": 3618,
      "describe": 3619,
      "possess": 3620,
      "techno": 3621,
      "favourite": 3622,
      "east": 3623,
      "fare": 3624,
      "rul": 3625,
      "max": 3626,
      "superior": 3627,
      "machine": 3628,
      "ency": 3629,
      "wee": 3630,
      "barbar": 3631,
      "intelligence": 3632,
      "struggle": 3633,
      "redeeming": 3634,
      "streng": 3635,
      "cgi": 3636,
      "hitch": 3637,
      "rage": 3638,
      "chap": 3639,
      "fill": 3640,
      "wearing": 3641,
      "bow": 3642,
      "fold": 3643,
      "syn": 3644,
      "allowed": 3645,
      "drugs": 3646,
      "mountain": 3647,
      "harris": 3648,
      "engaging": 3649,
      "teenage": 3650,
      "religious": 3651,
      "sour": 3652,
      "entious": 3653,
      "tears": 3654,
      "helped": 3655,
      "wonderfully": 3656,
      "desperate": 3657,
      "apo": 3658,
      "fits": 3659,
      "hic": 3660,
      "hund": 3661,
      "tex": 3662,
      "theatre": 3663,
      "repeated": 3664,
      "rupt": 3665,
      "bid": 3666,
      "soever": 3667,
      "jose": 3668,
      "disaster": 3669,
      "realized": 3670,
      "motiv": 3671,
      "humans": 3672,
      "transform": 3673,
      "teacher": 3674,
      "bound": 3675,
      "fights": 3676,
      "pse": 3677,
      "thir": 3678,
      "comparis": 3679,
      "mann": 3680,
      "convers": 3681,
      "includes": 3682,
      "deeply": 3683,
      "revolution": 3684,
      "pit": 3685,
      "zan": 3686,
      "research": 3687,
      "aly": 3688,
      "loss": 3689,
      "whatsoever": 3690,
      "realism": 3691,
      "drop": 3692,
      "issue": 3693,
      "commentary": 3694,
      "epic": 3695,
      "oppos": 3696,
      "pretentious": 3697,
      "began": 3698,
      "brook": 3699,
      "sympath": 3700,
      "bio": 3701,
      "cable": 3702,
      "vit": 3703,
      "stat": 3704,
      "brown": 3705,
      "leon": 3706,
      "limited": 3707,
      "technical": 3708,
      "vac": 3709,
      "ico": 3710,
      "suicide": 3711,
      "flesh": 3712,
      "gret": 3713,
      "skip": 3714,
      "energy": 3715,
      ".'": 3716,
      "cars": 3717,
      "soap": 3718,
      "civil": 3719,
      "physical": 3720,
      "independent": 3721,
      "taylor": 3722,
      "ape": 3723,
      "dying": 3724,
      "rarely": 3725,
      "els": 3726,
      "manage": 3727,
      "comedic": 3728,
      "cali": 3729,
      "douglas": 3730,
      "philo": 3731,
      "brutal": 3732,
      "river": 3733,
      "ppy": 3734,
      "johnny": 3735,
      "spective": 3736,
      "introduced": 3737,
      "stream": 3738,
      "hay": 3739,
      "ja": 3740,
      "slap": 3741,
      "conflict": 3742,
      "kate": 3743,
      "grave": 3744,
      "strain": 3745,
      "morgan": 3746,
      "appropriate": 3747,
      "eddie": 3748,
      "debut": 3749,
      "ption": 3750,
      "player": 3751,
      "desire": 3752,
      "oted": 3753,
      "superman": 3754,
      "sentiment": 3755,
      "victori": 3756,
      "responsible": 3757,
      "tight": 3758,
      "asure": 3759,
      "ilo": 3760,
      "unusual": 3761,
      "prec": 3762,
      "anybody": 3763,
      "coher": 3764,
      "aff": 3765,
      "holds": 3766,
      "magnific": 3767,
      "nation": 3768,
      "asp": 3769,
      "ira": 3770,
      "bbish": 3771,
      "apparent": 3772,
      "prince": 3773,
      "80s": 3774,
      "dun": 3775,
      "educ": 3776,
      "unknown": 3777,
      "keaton": 3778,
      "apes": 3779,
      "boat": 3780,
      "awk": 3781,
      "partner": 3782,
      "media": 3783,
      "twenty": 3784,
      "continue": 3785,
      "normally": 3786,
      "dum": 3787,
      "vive": 3788,
      "resol": 3789,
      "returns": 3790,
      "unnecessary": 3791,
      "joan": 3792,
      "kidn": 3793,
      "capt": 3794,
      "hitler": 3795,
      "cage": 3796,
      "oud": 3797,
      "knowledge": 3798,
      "perform": 3799,
      "memory": 3800,
      "surprising": 3801,
      "provide": 3802,
      "azz": 3803,
      "england": 3804,
      "wedding": 3805,
      "itous": 3806,
      "cere": 3807,
      "nia": 3808,
      "asing": 3809,
      "scared": 3810,
      "anywhere": 3811,
      "dry": 3812,
      "bloody": 3813,
      "cuts": 3814,
      "bian": 3815,
      "jr": 3816,
      "kin": 3817,
      "lind": 3818,
      "mate": 3819,
      "erous": 3820,
      "stret": 3821,
      "signific": 3822,
      "russian": 3823,
      "70s": 3824,
      "jay": 3825,
      "capable": 3826,
      "hundred": 3827,
      "sir": 3828,
      "asked": 3829,
      "complic": 3830,
      "president": 3831,
      "cops": 3832,
      "aves": 3833,
      "iously": 3834,
      "shop": 3835,
      "smile": 3836,
      "grapher": 3837,
      "leader": 3838,
      "constant": 3839,
      "experiment": 3840,
      "record": 3841,
      "pilot": 3842,
      "intriguing": 3843,
      "stor": 3844,
      "illa": 3845,
      "ifer": 3846,
      "shir": 3847,
      "price": 3848,
      "north": 3849,
      "paced": 3850,
      "broken": 3851,
      "fate": 3852,
      "gam": 3853,
      "rise": 3854,
      "thous": 3855,
      "atter": 3856,
      "stink": 3857,
      "somebody": 3858,
      "charis": 3859,
      "blon": 3860,
      "interpret": 3861,
      "creating": 3862,
      "nicely": 3863,
      "guns": 3864,
      "growing": 3865,
      "lynch": 3866,
      "candy": 3867,
      "itty": 3868,
      "ils": 3869,
      "wanting": 3870,
      "ladies": 3871,
      "hated": 3872,
      "sea": 3873,
      "separ": 3874,
      "vehic": 3875,
      "cris": 3876,
      "understanding": 3877,
      "mike": 3878,
      "pacing": 3879,
      "reminds": 3880,
      "academy": 3881,
      "tu": 3882,
      "humanity": 3883,
      "according": 3884,
      "gary": 3885,
      "hart": 3886,
      "paper": 3887,
      "reck": 3888,
      "acqu": 3889,
      "accompl": 3890,
      "noticed": 3891,
      "fet": 3892,
      "ipul": 3893,
      "dressed": 3894,
      "pup": 3895,
      "donald": 3896,
      "chore": 3897,
      "heroine": 3898,
      "lucky": 3899,
      "buster": 3900,
      "lust": 3901,
      "repor": 3902,
      "ene": 3903,
      "quiet": 3904,
      "angle": 3905,
      "calls": 3906,
      "awkward": 3907,
      "lovers": 3908,
      "forces": 3909,
      "abs": 3910,
      "court": 3911,
      "cass": 3912,
      "peace": 3913,
      "freed": 3914,
      "passed": 3915,
      "tarzan": 3916,
      "freddy": 3917,
      "dangerous": 3918,
      "jesus": 3919,
      "explanation": 3920,
      ":<": 3921,
      "explic": 3922,
      "blame": 3923,
      "community": 3924,
      "higher": 3925,
      "chester": 3926,
      "mixed": 3927,
      "discovered": 3928,
      "originally": 3929,
      "nes": 3930,
      "represent": 3931,
      "kevin": 3932,
      "soph": 3933,
      "ousy": 3934,
      "visit": 3935,
      "visible": 3936,
      "instance": 3937,
      ")<": 3938,
      "bag": 3939,
      "cil": 3940,
      "dut": 3941,
      "vs": 3942,
      "frame": 3943,
      "pers": 3944,
      "nonsense": 3945,
      "intellect": 3946,
      "dimens": 3947,
      "fond": 3948,
      "itz": 3949,
      "iron": 3950,
      "spring": 3951,
      "players": 3952,
      "owner": 3953,
      "invent": 3954,
      "deserve": 3955,
      "vul": 3956,
      "belong": 3957,
      "---": 3958,
      "techni": 3959,
      "ote": 3960,
      "rat": 3961,
      "eric": 3962,
      "toward": 3963,
      "virgin": 3964,
      "iest": 3965,
      "lone": 3966,
      "lap": 3967,
      "wanna": 3968,
      "organ": 3969,
      "brave": 3970,
      "whil": 3971,
      "mature": 3972,
      "corpor": 3973,
      "singer": 3974,
      "starting": 3975,
      "european": 3976,
      "vhs": 3977,
      "chief": 3978,
      "lied": 3979,
      "friendship": 3980,
      "frequ": 3981,
      "rifying": 3982,
      "sympathetic": 3983,
      "nine": 3984,
      "edited": 3985,
      "union": 3986,
      "sole": 3987,
      "hadn": 3988,
      "served": 3989,
      "current": 3990,
      "floor": 3991,
      "princi": 3992,
      "spanish": 3993,
      "whilst": 3994,
      "14": 3995,
      "cash": 3996,
      "eating": 3997,
      "roo": 3998,
      "fection": 3999,
      "market": 4000,
      "courage": 4001,
      "naive": 4002,
      "keeping": 4003,
      "rubbish": 4004,
      "sucks": 4005,
      "ez": 4006,
      "mum": 4007,
      "nold": 4008,
      "anton": 4009,
      "simon": 4010,
      "officer": 4011,
      "contrast": 4012,
      "abr": 4013,
      "tt": 4014,
      "proceed": 4015,
      "saved": 4016,
      "memories": 4017,
      "naturally": 4018,
      "villains": 4019,
      "satisfying": 4020,
      "jess": 4021,
      "icate": 4022,
      "prepare": 4023,
      "affect": 4024,
      "finest": 4025,
      "satur": 4026,
      "service": 4027,
      "iac": 4028,
      "pless": 4029,
      "sport": 4030,
      "monsters": 4031,
      "lacking": 4032,
      "saving": 4033,
      "featuring": 4034,
      "kong": 4035,
      "lewis": 4036,
      "golden": 4037,
      "cruel": 4038,
      "empty": 4039,
      "santa": 4040,
      "ike": 4041,
      "mu": 4042,
      "text": 4043,
      "chair": 4044,
      "below": 4045,
      "abandon": 4046,
      "neck": 4047,
      "constru": 4048,
      "saur": 4049,
      "kinda": 4050,
      "regular": 4051,
      "treated": 4052,
      "concerned": 4053,
      "send": 4054,
      "forts": 4055,
      "werewolf": 4056,
      "marry": 4057,
      "horri": 4058,
      "insane": 4059,
      "glass": 4060,
      "pulled": 4061,
      "results": 4062,
      "jimmy": 4063,
      "washington": 4064,
      "delightful": 4065,
      "terribly": 4066,
      "weight": 4067,
      "related": 4068,
      "trek": 4069,
      "luke": 4070,
      ".\"<": 4071,
      "relev": 4072,
      "hopes": 4073,
      "witty": 4074,
      "domin": 4075,
      "hits": 4076,
      "rings": 4077,
      "dish": 4078,
      "months": 4079,
      "morning": 4080,
      "hearted": 4081,
      "included": 4082,
      "bbing": 4083,
      "grown": 4084,
      "jam": 4085,
      "elle": 4086,
      "assist": 4087,
      "marvel": 4088,
      "object": 4089,
      "target": 4090,
      "appealing": 4091,
      "screaming": 4092,
      "private": 4093,
      "jenn": 4094,
      "kim": 4095,
      "snow": 4096,
      "incident": 4097,
      "reaction": 4098,
      "weal": 4099,
      "whenever": 4100,
      "numerous": 4101,
      "driving": 4102,
      "streets": 4103,
      "urban": 4104,
      "behavior": 4105,
      "blonde": 4106,
      "gard": 4107,
      "skills": 4108,
      "von": 4109,
      "zel": 4110,
      "international": 4111,
      "versions": 4112,
      "corn": 4113,
      "context": 4114,
      "liber": 4115,
      "finale": 4116,
      "talents": 4117,
      "bigger": 4118,
      "unders": 4119,
      "dealing": 4120,
      "traditional": 4121,
      "gentle": 4122,
      ");": 4123,
      "rical": 4124,
      "reed": 4125,
      "atory": 4126,
      "albert": 4127,
      "/>-": 4128,
      "unfunny": 4129,
      "fault": 4130,
      "reviewers": 4131,
      "allows": 4132,
      "travel": 4133,
      "curious": 4134,
      "gross": 4135,
      "manipul": 4136,
      "perspective": 4137,
      "wear": 4138,
      "thered": 4139,
      "guard": 4140,
      "seless": 4141,
      "strict": 4142,
      "captured": 4143,
      "psychological": 4144,
      "circum": 4145,
      "opposite": 4146,
      "vy": 4147,
      "ators": 4148,
      "marks": 4149,
      "tape": 4150,
      "glor": 4151,
      "colum": 4152,
      "humorous": 4153,
      "ultimate": 4154,
      "shallow": 4155,
      "distr": 4156,
      "parody": 4157,
      "locations": 4158,
      "anthony": 4159,
      "kir": 4160,
      "incre": 4161,
      "sean": 4162,
      "loses": 4163,
      "ider": 4164,
      "plant": 4165,
      "plaus": 4166,
      "agers": 4167,
      "meeting": 4168,
      "gangster": 4169,
      "nich": 4170,
      "received": 4171,
      "associ": 4172,
      "deals": 4173,
      "clar": 4174,
      "minim": 4175,
      "daniel": 4176,
      "breaks": 4177,
      "ivity": 4178,
      "existence": 4179,
      "competent": 4180,
      "essentially": 4181,
      "gags": 4182,
      "choreo": 4183,
      "omen": 4184,
      "ime": 4185,
      "marie": 4186,
      "window": 4187,
      "satire": 4188,
      "continues": 4189,
      "connection": 4190,
      "magnificent": 4191,
      "dimensional": 4192,
      "ease": 4193,
      "gif": 4194,
      "erotic": 4195,
      "atra": 4196,
      "veter": 4197,
      "format": 4198,
      "rival": 4199,
      "howard": 4200,
      "serve": 4201,
      "achel": 4202,
      "viewed": 4203,
      "survive": 4204,
      "opens": 4205,
      "cameo": 4206,
      "remembered": 4207,
      "murdered": 4208,
      "covered": 4209,
      "mrs": 4210,
      "miles": 4211,
      "revealed": 4212,
      "labor": 4213,
      "comfortable": 4214,
      "chain": 4215,
      "deb": 4216,
      "consc": 4217,
      "insight": 4218,
      "visually": 4219,
      "corny": 4220,
      "advice": 4221,
      "jennifer": 4222,
      "lum": 4223,
      "lud": 4224,
      "buddy": 4225,
      "graphed": 4226,
      "segment": 4227,
      "junk": 4228,
      "inct": 4229,
      "ilies": 4230,
      "goof": 4231,
      "spell": 4232,
      "rolling": 4233,
      "cand": 4234,
      "united": 4235,
      "bog": 4236,
      "lesson": 4237,
      "center": 4238,
      "foreign": 4239,
      "creates": 4240,
      "identity": 4241,
      "village": 4242,
      "frankly": 4243,
      "african": 4244,
      "contribut": 4245,
      "occasionally": 4246,
      "cath": 4247,
      "wat": 4248,
      "tho": 4249,
      "ender": 4250,
      "welles": 4251,
      "ishing": 4252,
      "decade": 4253,
      "grew": 4254,
      "logic": 4255,
      "learned": 4256,
      "promise": 4257,
      "bourne": 4258,
      "!).": 4259,
      "ario": 4260,
      "quir": 4261,
      "code": 4262,
      "efforts": 4263,
      "hallo": 4264,
      "ruth": 4265,
      "priest": 4266,
      "symbol": 4267,
      "thomas": 4268,
      "circumst": 4269,
      "ather": 4270,
      "caine": 4271,
      "mitch": 4272,
      "wound": 4273,
      "winter": 4274,
      "regret": 4275,
      "iling": 4276,
      "preh": 4277,
      "print": 4278,
      "mini": 4279,
      "tribut": 4280,
      "vote": 4281,
      "bringing": 4282,
      "visuals": 4283,
      "spectacular": 4284,
      "unfold": 4285,
      "ulous": 4286,
      "killers": 4287,
      "gig": 4288,
      "raw": 4289,
      "sche": 4290,
      "tack": 4291,
      "sports": 4292,
      "miser": 4293,
      "drew": 4294,
      "desert": 4295,
      "sucked": 4296,
      "references": 4297,
      "genuinely": 4298,
      "craft": 4299,
      "comparison": 4300,
      "dent": 4301,
      "nav": 4302,
      "ration": 4303,
      "uitous": 4304,
      "anic": 4305,
      "altern": 4306,
      "seat": 4307,
      "alleng": 4308,
      "determin": 4309,
      "fairy": 4310,
      "study": 4311,
      "suffering": 4312,
      "freedom": 4313,
      "envir": 4314,
      "ching": 4315,
      "ays": 4316,
      "ambit": 4317,
      "overly": 4318,
      "rence": 4319,
      "emer": 4320,
      "sake": 4321,
      "meanwhile": 4322,
      "demonstr": 4323,
      "vampires": 4324,
      "haunting": 4325,
      "ctr": 4326,
      "pity": 4327,
      "anci": 4328,
      "moore": 4329,
      "trade": 4330,
      "built": 4331,
      "brilliantly": 4332,
      "admir": 4333,
      "sheriff": 4334,
      "bodies": 4335,
      "dino": 4336,
      "hunt": 4337,
      "rant": 4338,
      "unable": 4339,
      "sheer": 4340,
      "evening": 4341,
      "relief": 4342,
      "porary": 4343,
      "failure": 4344,
      "document": 4345,
      "louis": 4346,
      "hunter": 4347,
      "gordon": 4348,
      "coherent": 4349,
      "iled": 4350,
      "strip": 4351,
      "advert": 4352,
      "authen": 4353,
      "sett": 4354,
      "statement": 4355,
      "mirror": 4356,
      "stereotypes": 4357,
      "cis": 4358,
      "cant": 4359,
      "nau": 4360,
      "pitch": 4361,
      "zard": 4362,
      "awards": 4363,
      "sinatra": 4364,
      "anime": 4365,
      "promising": 4366,
      "irritating": 4367,
      "technology": 4368,
      "strength": 4369,
      "halloween": 4370,
      "environ": 4371,
      "16": 4372,
      "kung": 4373,
      "site": 4374,
      "ende": 4375,
      "cha": 4376,
      "thern": 4377,
      "spoof": 4378,
      "generation": 4379,
      "gratuitous": 4380,
      "decision": 4381,
      "joseph": 4382,
      "eer": 4383,
      "ping": 4384,
      "rous": 4385,
      "parker": 4386,
      "colour": 4387,
      "delivered": 4388,
      "emotionally": 4389,
      "broadway": 4390,
      "discovers": 4391,
      "barbara": 4392,
      "gonna": 4393,
      "ibility": 4394,
      "refresh": 4395,
      "atroc": 4396,
      "edy": 4397,
      "lem": 4398,
      "shine": 4399,
      "grim": 4400,
      "spin": 4401,
      "crappy": 4402,
      "sedu": 4403,
      "rough": 4404,
      "asian": 4405,
      "heck": 4406,
      "amor": 4407,
      "usive": 4408,
      "excite": 4409,
      "blown": 4410,
      "victor": 4411,
      "???": 4412,
      "executed": 4413,
      "sharp": 4414,
      "wick": 4415,
      "encounter": 4416,
      "stated": 4417,
      "challeng": 4418,
      "frid": 4419,
      "produce": 4420,
      "woody": 4421,
      "reviewer": 4422,
      "painfully": 4423,
      "transl": 4424,
      "switch": 4425,
      "claims": 4426,
      "flashbacks": 4427,
      "dreadful": 4428,
      "cinder": 4429,
      "native": 4430,
      "rie": 4431,
      "ato": 4432,
      "rix": 4433,
      "wayne": 4434,
      "families": 4435,
      "addict": 4436,
      "silver": 4437,
      "driven": 4438,
      "range": 4439,
      "sword": 4440,
      "feet": 4441,
      "offensive": 4442,
      "product": 4443,
      "corrupt": 4444,
      "patrick": 4445,
      "majority": 4446,
      "religion": 4447,
      "protagonist": 4448,
      "fab": 4449,
      "hip": 4450,
      "compreh": 4451,
      "guar": 4452,
      "speech": 4453,
      "ette": 4454,
      "command": 4455,
      "attitude": 4456,
      "entertained": 4457,
      "caused": 4458,
      "seasons": 4459,
      "costs": 4460,
      "recall": 4461,
      "nevertheless": 4462,
      "matt": 4463,
      "underrated": 4464,
      "relate": 4465,
      "handsome": 4466,
      "treatment": 4467,
      "vehicle": 4468,
      "==": 4469,
      "mend": 4470,
      "ador": 4471,
      "hearing": 4472,
      "endless": 4473,
      "ache": 4474,
      "classics": 4475,
      "walks": 4476,
      "experienced": 4477,
      "levels": 4478,
      "obsessed": 4479,
      "authentic": 4480,
      "25": 4481,
      "eve": 4482,
      "jar": 4483,
      "icts": 4484,
      "france": 4485,
      "gray": 4486,
      "aka": 4487,
      "serves": 4488,
      "exploitation": 4489,
      "practically": 4490,
      "amateurish": 4491,
      "17": 4492,
      "whel": 4493,
      "ication": 4494,
      "guil": 4495,
      "sons": 4496,
      "angles": 4497,
      "excited": 4498,
      "winner": 4499,
      "theatrical": 4500,
      "expression": 4501,
      "described": 4502,
      "victoria": 4503,
      "ancient": 4504,
      "cinderella": 4505,
      "meth": 4506,
      "inept": 4507,
      "scenario": 4508,
      "udes": 4509,
      "chosen": 4510,
      "evol": 4511,
      "jackie": 4512,
      "cliched": 4513,
      "rescue": 4514,
      "rules": 4515,
      "understo": 4516,
      "ena": 4517,
      "asking": 4518,
      "rober": 4519,
      "monkey": 4520,
      "handed": 4521,
      "combination": 4522,
      "dubbed": 4523,
      "fame": 4524,
      "bra": 4525,
      "fornia": 4526,
      "robot": 4527,
      "ached": 4528,
      "lesbian": 4529,
      "stopped": 4530,
      "ignor": 4531,
      "honor": 4532,
      "francis": 4533,
      "understood": 4534,
      "hoff": 4535,
      "link": 4536,
      "skill": 4537,
      "wrest": 4538,
      "stum": 4539,
      "secur": 4540,
      "inevit": 4541,
      "rental": 4542,
      "highlight": 4543,
      "mask": 4544,
      "harsh": 4545,
      "........": 4546,
      "portrays": 4547,
      "theaters": 4548,
      "assume": 4549,
      "nancy": 4550,
      "hitchcock": 4551,
      "ey": 4552,
      "nis": 4553,
      "inte": 4554,
      "noon": 4555,
      "iding": 4556,
      "angers": 4557,
      "believes": 4558,
      "cares": 4559,
      "fix": 4560,
      "adventures": 4561,
      "karl": 4562,
      "extras": 4563,
      "lion": 4564,
      "va": 4565,
      "supp": 4566,
      "choose": 4567,
      "germany": 4568,
      "ruined": 4569,
      "portraying": 4570,
      "refle": 4571,
      "largely": 4572,
      "faithful": 4573,
      "contrived": 4574,
      "focused": 4575,
      "sie": 4576,
      "alco": 4577,
      "account": 4578,
      "unrealistic": 4579,
      "aret": 4580,
      "mates": 4581,
      "facts": 4582,
      "sisters": 4583,
      "football": 4584,
      "learns": 4585,
      "embarrassing": 4586,
      "crowd": 4587,
      "depressing": 4588,
      "canadian": 4589,
      "fro": 4590,
      "pher": 4591,
      "reput": 4592,
      "section": 4593,
      "scale": 4594,
      "maid": 4595,
      "proud": 4596,
      "assass": 4597,
      "welcome": 4598,
      "intentionally": 4599,
      "anderson": 4600,
      "alcohol": 4601,
      "forth": 4602,
      "clue": 4603,
      "cia": 4604,
      "matters": 4605,
      "ryan": 4606,
      "commit": 4607,
      "involves": 4608,
      "prior": 4609,
      "descript": 4610,
      "sequels": 4611,
      "necessarily": 4612,
      "fictional": 4613,
      "cit": 4614,
      "hes": 4615,
      "oz": 4616,
      "yl": 4617,
      "icated": 4618,
      "pregn": 4619,
      "costu": 4620,
      "clark": 4621,
      "thoughts": 4622,
      "truck": 4623,
      "evidence": 4624,
      "walter": 4625,
      "propag": 4626,
      "costume": 4627,
      "bac": 4628,
      "ec": 4629,
      "fic": 4630,
      "kat": 4631,
      "till": 4632,
      "trilo": 4633,
      "aint": 4634,
      "spects": 4635,
      "poses": 4636,
      "barry": 4637,
      "strongly": 4638,
      "teenager": 4639,
      "nominated": 4640,
      "oliver": 4641,
      "nar": 4642,
      "nut": 4643,
      "xious": 4644,
      "enthus": 4645,
      "beach": 4646,
      "neat": 4647,
      "lower": 4648,
      "partic": 4649,
      "tedious": 4650,
      "convinced": 4651,
      "ville": 4652,
      "disgusting": 4653,
      "routine": 4654,
      "excitement": 4655,
      "lousy": 4656,
      "wend": 4657,
      "isher": 4658,
      "losing": 4659,
      "ama": 4660,
      "femin": 4661,
      "scr": 4662,
      "talks": 4663,
      "surreal": 4664,
      "bitter": 4665,
      "dynam": 4666,
      "faced": 4667,
      "saturday": 4668,
      "enthusi": 4669,
      "factor": 4670,
      "kh": 4671,
      "som": 4672,
      "sno": 4673,
      "vague": 4674,
      "analy": 4675,
      "rep": 4676,
      "ada": 4677,
      "poster": 4678,
      "uss": 4679,
      "electr": 4680,
      "holding": 4681,
      "apping": 4682,
      "substance": 4683,
      "nichol": 4684,
      "gate": 4685,
      "revel": 4686,
      "shut": 4687,
      "capital": 4688,
      "voices": 4689,
      "cutting": 4690,
      "passing": 4691,
      "training": 4692,
      "captures": 4693,
      "hanging": 4694,
      "universal": 4695,
      "relevant": 4696,
      "circumstances": 4697,
      "bren": 4698,
      "plor": 4699,
      "distri": 4700,
      "teenagers": 4701,
      "baseball": 4702,
      "haunted": 4703,
      "imaginative": 4704,
      "gm": 4705,
      "hint": 4706,
      "tast": 4707,
      "haw": 4708,
      "dragon": 4709,
      "anged": 4710,
      "hyster": 4711,
      "existent": 4712,
      "essential": 4713,
      "trilogy": 4714,
      "tiny": 4715,
      "shall": 4716,
      "forest": 4717,
      "handled": 4718,
      "murphy": 4719,
      "directly": 4720,
      "involve": 4721,
      "swim": 4722,
      "false": 4723,
      "intellectual": 4724,
      "figh": 4725,
      "ium": 4726,
      "jung": 4727,
      "wins": 4728,
      "yard": 4729,
      "reminis": 4730,
      "asle": 4731,
      "/>*": 4732,
      "beast": 4733,
      "pets": 4734,
      "powell": 4735,
      "maint": 4736,
      "sides": 4737,
      "creatures": 4738,
      "hopefully": 4739,
      "virtually": 4740,
      "horribly": 4741,
      "citiz": 4742,
      "asleep": 4743,
      "bush": 4744,
      "kins": 4745,
      "phis": 4746,
      "pile": 4747,
      "sne": 4748,
      "destru": 4749,
      "continuity": 4750,
      "insult": 4751,
      "initial": 4752,
      "relatively": 4753,
      "reporter": 4754,
      ",'": 4755,
      "gie": 4756,
      "spre": 4757,
      "thro": 4758,
      "alle": 4759,
      "arrest": 4760,
      "irish": 4761,
      "rights": 4762,
      "doom": 4763,
      "function": 4764,
      "steals": 4765,
      "ashing": 4766,
      "ski": 4767,
      "sorts": 4768,
      "figured": 4769,
      "appreciated": 4770,
      "africa": 4771,
      "professor": 4772,
      "influence": 4773,
      "cowboy": 4774,
      "category": 4775,
      "ludic": 4776,
      "iles": 4777,
      "champ": 4778,
      "semi": 4779,
      "icious": 4780,
      "mented": 4781,
      "excess": 4782,
      "adding": 4783,
      "ugs": 4784,
      "sitcom": 4785,
      "lawyer": 4786,
      "politics": 4787,
      "unlikely": 4788,
      "controvers": 4789,
      "contemporary": 4790,
      "texas": 4791,
      "dinosaur": 4792,
      "method": 4793,
      "__": 4794,
      "fed": 4795,
      "stit": 4796,
      "chi": 4797,
      "decl": 4798,
      "friendly": 4799,
      "liners": 4800,
      "pursu": 4801,
      "shocked": 4802,
      "claimed": 4803,
      "depicted": 4804,
      "multiple": 4805,
      "maintain": 4806,
      "1st": 4807,
      "chant": 4808,
      "mock": 4809,
      "tural": 4810,
      "unfortunate": 4811,
      "hammer": 4812,
      "expert": 4813,
      "prime": 4814,
      "loyal": 4815,
      "rebel": 4816,
      "alice": 4817,
      "spy": 4818,
      "firm": 4819,
      "osex": 4820,
      "believed": 4821,
      "cases": 4822,
      "resist": 4823,
      "anagh": 4824,
      "russell": 4825,
      "columbo": 4826,
      "):": 4827,
      "bin": 4828,
      "sab": 4829,
      "inher": 4830,
      "cooper": 4831,
      "tons": 4832,
      "changing": 4833,
      "movement": 4834,
      "provided": 4835,
      "weekend": 4836,
      "designed": 4837,
      "qualities": 4838,
      "structure": 4839,
      "source": 4840,
      "conscious": 4841,
      "security": 4842,
      "jaw": 4843,
      "sink": 4844,
      "oul": 4845,
      "quar": 4846,
      "makeup": 4847,
      "----": 4848,
      "warri": 4849,
      "closer": 4850,
      "fortune": 4851,
      "painting": 4852,
      "touches": 4853,
      "australian": 4854,
      "enemy": 4855,
      "refreshing": 4856,
      "mort": 4857,
      "pier": 4858,
      "vig": 4859,
      "atl": 4860,
      "outrage": 4861,
      "trap": 4862,
      "conv": 4863,
      "display": 4864,
      "render": 4865,
      "landsc": 4866,
      "roman": 4867,
      "deaths": 4868,
      "ruin": 4869,
      "speaks": 4870,
      "cartoons": 4871,
      "wilder": 4872,
      "habit": 4873,
      "osexual": 4874,
      "dd": 4875,
      "fid": 4876,
      "mous": 4877,
      "ole": 4878,
      "report": 4879,
      "edward": 4880,
      "hole": 4881,
      "degree": 4882,
      "notch": 4883,
      "dos": 4884,
      "fee": 4885,
      "mail": 4886,
      "exagger": 4887,
      "plans": 4888,
      "preach": 4889,
      "colon": 4890,
      "supernatural": 4891,
      "paint": 4892,
      "surprises": 4893,
      "cliff": 4894,
      "critical": 4895,
      "dogs": 4896,
      "provok": 4897,
      "previously": 4898,
      "integr": 4899,
      "cous": 4900,
      "fing": 4901,
      "jail": 4902,
      "nur": 4903,
      "ert": 4904,
      "arms": 4905,
      "brick": 4906,
      "roger": 4907,
      "pool": 4908,
      "shan": 4909,
      "treasure": 4910,
      "accents": 4911,
      "demand": 4912,
      "weeks": 4913,
      "propaganda": 4914,
      "dust": 4915,
      "gand": 4916,
      "jen": 4917,
      "chose": 4918,
      "abuse": 4919,
      "whoever": 4920,
      "teens": 4921,
      "emma": 4922,
      "mainstream": 4923,
      "pacino": 4924,
      "princess": 4925,
      "franch": 4926,
      "convict": 4927,
      "din": 4928,
      "kore": 4929,
      "wreck": 4930,
      "intr": 4931,
      "thel": 4932,
      "isol": 4933,
      "rell": 4934,
      "headed": 4935,
      "deadly": 4936,
      "cyn": 4937,
      "latest": 4938,
      "emphas": 4939,
      "granted": 4940,
      "protect": 4941,
      "suffers": 4942,
      "idiot": 4943,
      "storm": 4944,
      "veteran": 4945,
      "invisible": 4946,
      "rece": 4947,
      "stair": 4948,
      "gosi": 4949,
      "grab": 4950,
      "ideal": 4951,
      "flor": 4952,
      "evident": 4953,
      "driver": 4954,
      "experiences": 4955,
      "benef": 4956,
      "mistakes": 4957,
      "execution": 4958,
      "wilson": 4959,
      "dollars": 4960,
      "accidentally": 4961,
      "eliza": 4962,
      "roberts": 4963,
      "aunt": 4964,
      "eu": 4965,
      "mgm": 4966,
      "rhy": 4967,
      "ued": 4968,
      "uninteresting": 4969,
      "robo": 4970,
      "dol": 4971,
      "feed": 4972,
      "bore": 4973,
      "pted": 4974,
      "crude": 4975,
      "realizes": 4976,
      "carol": 4977,
      "colors": 4978,
      "aliens": 4979,
      "twisted": 4980,
      "sensitive": 4981,
      "sympathy": 4982,
      "gles": 4983,
      "kur": 4984,
      "nn": 4985,
      "nude": 4986,
      "uted": 4987,
      "compar": 4988,
      "poe": 4989,
      "doo": 4990,
      "prostit": 4991,
      "blah": 4992,
      "tales": 4993,
      "porno": 4994,
      "voc": 4995,
      "combined": 4996,
      "atrocious": 4997,
      "friday": 4998,
      "guilty": 4999,
      "particip": 5000,
      "bone": 5001,
      "pitt": 5002,
      "improve": 5003,
      "idio": 5004,
      "dozen": 5005,
      "matrix": 5006,
      "universe": 5007,
      "convince": 5008,
      "connect": 5009,
      "struggling": 5010,
      "bull": 5011,
      "hong": 5012,
      "tan": 5013,
      "acle": 5014,
      "rod": 5015,
      "poign": 5016,
      "torn": 5017,
      "metal": 5018,
      "gritty": 5019,
      "surface": 5020,
      "pati": 5021,
      "dal": 5022,
      "uel": 5023,
      "committed": 5024,
      "walked": 5025,
      "lugosi": 5026,
      "connected": 5027,
      "recognize": 5028,
      "technically": 5029,
      "frightening": 5030,
      "establish": 5031,
      "plausible": 5032,
      "!),": 5033,
      "modest": 5034,
      "dean": 5035,
      "meat": 5036,
      "sulli": 5037,
      "magical": 5038,
      "confess": 5039,
      "figures": 5040,
      "sarah": 5041,
      "department": 5042,
      "\"),": 5043,
      "wwi": 5044,
      "sophis": 5045,
      "arded": 5046,
      "foster": 5047,
      "overwhel": 5048,
      "offered": 5049,
      "warned": 5050,
      "kinds": 5051,
      "spoken": 5052,
      "darkness": 5053,
      "factory": 5054,
      "explains": 5055,
      "occasional": 5056,
      "sullivan": 5057,
      "lane": 5058,
      "thumb": 5059,
      "theory": 5060,
      "ara": 5061,
      "stro": 5062,
      "gues": 5063,
      "crying": 5064,
      "crush": 5065,
      "performed": 5066,
      "featured": 5067,
      "variety": 5068,
      "suspenseful": 5069,
      "narration": 5070,
      "demons": 5071,
      "journal": 5072,
      "massive": 5073,
      "legendary": 5074,
      "vietnam": 5075,
      "reputation": 5076,
      "pas": 5077,
      "tap": 5078,
      "instru": 5079,
      "explor": 5080,
      "conce": 5081,
      "happiness": 5082,
      "subtitles": 5083,
      "johnson": 5084,
      "rub": 5085,
      "rule": 5086,
      "touched": 5087,
      "sunday": 5088,
      "nazi": 5089,
      "aur": 5090,
      "flight": 5091,
      "mst": 5092,
      "tag": 5093,
      "tong": 5094,
      "china": 5095,
      "bron": 5096,
      "het": 5097,
      "alling": 5098,
      "concent": 5099,
      "everywhere": 5100,
      "drum": 5101,
      "stolen": 5102,
      "hugh": 5103,
      "borrow": 5104,
      "titanic": 5105,
      "bbc": 5106,
      "steps": 5107,
      "network": 5108,
      "required": 5109,
      "lonely": 5110,
      "hr": 5111,
      "rachel": 5112,
      "nostal": 5113,
      "seek": 5114,
      "spite": 5115,
      "cring": 5116,
      "dude": 5117,
      "turkey": 5118,
      "border": 5119,
      "jobs": 5120,
      "scares": 5121,
      "melodrama": 5122,
      "remotely": 5123,
      "conversation": 5124,
      "california": 5125,
      "jungle": 5126,
      "sophistic": 5127,
      "cence": 5128,
      "hired": 5129,
      "mud": 5130,
      "tree": 5131,
      "alas": 5132,
      "chased": 5133,
      "challen": 5134,
      "betray": 5135,
      "notori": 5136,
      "susan": 5137,
      "trapped": 5138,
      "spends": 5139,
      "afternoon": 5140,
      "gia": 5141,
      "tax": 5142,
      "downright": 5143,
      "obsc": 5144,
      "ashed": 5145,
      "contest": 5146,
      "lands": 5147,
      "freeman": 5148,
      "julia": 5149,
      "philip": 5150,
      "mexico": 5151,
      "complicated": 5152,
      "hoffman": 5153,
      "dare": 5154,
      "lisa": 5155,
      "toler": 5156,
      "chor": 5157,
      "acc": 5158,
      "kets": 5159,
      "holi": 5160,
      "bothered": 5161,
      "prevent": 5162,
      "lifetime": 5163,
      "warming": 5164,
      "minds": 5165,
      "worthwhile": 5166,
      "burns": 5167,
      "favorites": 5168,
      "listening": 5169,
      "effectively": 5170,
      "surviv": 5171,
      "blockbuster": 5172,
      "birds": 5173,
      "captiv": 5174,
      "abandoned": 5175,
      "iat": 5176,
      "branagh": 5177,
      "unconvincing": 5178,
      "goth": 5179,
      "peck": 5180,
      "otes": 5181,
      "believ": 5182,
      "folk": 5183,
      "imagery": 5184,
      "legal": 5185,
      "admitted": 5186,
      "advant": 5187,
      "cultural": 5188,
      "60s": 5189,
      "gren": 5190,
      "pig": 5191,
      "wave": 5192,
      "thed": 5193,
      "alright": 5194,
      "chy": 5195,
      "beck": 5196,
      "libr": 5197,
      "mechan": 5198,
      "indul": 5199,
      "cheese": 5200,
      "starred": 5201,
      "jeal": 5202,
      "minded": 5203,
      "address": 5204,
      "tremend": 5205,
      "aham": 5206,
      "stays": 5207,
      "tradition": 5208,
      "mexican": 5209,
      "cod": 5210,
      "toy": 5211,
      "web": 5212,
      "worry": 5213,
      "upper": 5214,
      "bern": 5215,
      "maria": 5216,
      "phan": 5217,
      "buying": 5218,
      "pulls": 5219,
      "delivery": 5220,
      "larry": 5221,
      "stayed": 5222,
      "paying": 5223,
      "divor": 5224,
      "praise": 5225,
      "bach": 5226,
      "jun": 5227,
      "kni": 5228,
      "ida": 5229,
      "closing": 5230,
      "shaw": 5231,
      "productions": 5232,
      "amazed": 5233,
      "uniform": 5234,
      "reveals": 5235,
      "prepared": 5236,
      "bic": 5237,
      "nest": 5238,
      "ners": 5239,
      "zed": 5240,
      "access": 5241,
      "iran": 5242,
      "sus": 5243,
      "outs": 5244,
      "tear": 5245,
      "artists": 5246,
      "1950": 5247,
      "caring": 5248,
      "grey": 5249,
      "focuses": 5250,
      "thankfully": 5251,
      "status": 5252,
      "significant": 5253,
      "ji": 5254,
      "zy": 5255,
      "attr": 5256,
      "ita": 5257,
      "rious": 5258,
      "teeth": 5259,
      "indie": 5260,
      "adequ": 5261,
      "interview": 5262,
      "hardy": 5263,
      "curt": 5264,
      "examples": 5265,
      "clips": 5266,
      "appearing": 5267,
      "device": 5268,
      "campy": 5269,
      "studios": 5270,
      "ghosts": 5271,
      "ludicrous": 5272,
      "jac": 5273,
      "las": 5274,
      "ads": 5275,
      "doc": 5276,
      "trav": 5277,
      "grues": 5278,
      "intens": 5279,
      "sidney": 5280,
      "india": 5281,
      "miller": 5282,
      ".)<": 5283,
      "heavily": 5284,
      "environment": 5285,
      "bare": 5286,
      "bang": 5287,
      "inn": 5288,
      "ilities": 5289,
      "olic": 5290,
      "canni": 5291,
      "mono": 5292,
      "stomach": 5293,
      "warner": 5294,
      "illian": 5295,
      "murderer": 5296,
      "profound": 5297,
      "install": 5298,
      "sleeping": 5299,
      "desperately": 5300,
      "regarding": 5301,
      "dur": 5302,
      "ee": 5303,
      "hil": 5304,
      "atives": 5305,
      "braz": 5306,
      "beloved": 5307,
      "forgot": 5308,
      "illust": 5309,
      "cole": 5310,
      "aken": 5311,
      "blat": 5312,
      "obno": 5313,
      "dramat": 5314,
      "midnight": 5315,
      "facial": 5316,
      "summary": 5317,
      "daughters": 5318,
      "smoo": 5319,
      "initially": 5320,
      "destroyed": 5321,
      "ignore": 5322,
      "slapstick": 5323,
      "fabulous": 5324,
      "pregnant": 5325,
      "knight": 5326,
      "ensu": 5327,
      "term": 5328,
      "deeper": 5329,
      "ques": 5330,
      "renting": 5331,
      "decades": 5332,
      "condition": 5333,
      "magaz": 5334,
      "severe": 5335,
      "occup": 5336,
      "successfully": 5337,
      "anticip": 5338,
      "fourth": 5339,
      "racist": 5340,
      "stereotypical": 5341,
      "elizabeth": 5342,
      "24": 5343,
      "cure": 5344,
      "dud": 5345,
      "pes": 5346,
      "pic": 5347,
      "phe": 5348,
      "astr": 5349,
      "league": 5350,
      "aming": 5351,
      "pled": 5352,
      "eston": 5353,
      "craw": 5354,
      "marg": 5355,
      "spector": 5356,
      "answers": 5357,
      "coln": 5358,
      "corner": 5359,
      "calling": 5360,
      "lincoln": 5361,
      "dennis": 5362,
      "walker": 5363,
      "helping": 5364,
      "hopeless": 5365,
      "struck": 5366,
      "metap": 5367,
      "gruesome": 5368,
      "\").": 5369,
      "pian": 5370,
      "rab": 5371,
      "task": 5372,
      "neth": 5373,
      "umph": 5374,
      "claire": 5375,
      "disbelief": 5376,
      "workers": 5377,
      "pointed": 5378,
      "underground": 5379,
      "screening": 5380,
      "originality": 5381,
      "sounded": 5382,
      "learning": 5383,
      "musicals": 5384,
      "1980": 5385,
      "settings": 5386,
      "splend": 5387,
      "drinking": 5388,
      "cabin": 5389,
      "guarante": 5390,
      "description": 5391,
      "reminiscent": 5392,
      "lished": 5393,
      "nit": 5394,
      "nights": 5395,
      "rein": 5396,
      "shif": 5397,
      "grin": 5398,
      "greater": 5399,
      "mond": 5400,
      "ashamed": 5401,
      "burst": 5402,
      "amazingly": 5403,
      "picks": 5404,
      "graphics": 5405,
      "throwing": 5406,
      "sandler": 5407,
      "criminals": 5408,
      "mildly": 5409,
      "bridge": 5410,
      "julie": 5411,
      "quirky": 5412,
      "sions": 5413,
      "intim": 5414,
      "ari": 5415,
      "storytelling": 5416,
      "leslie": 5417,
      "philli": 5418,
      "tition": 5419,
      "halfway": 5420,
      "southern": 5421,
      "rolled": 5422,
      "locked": 5423,
      "extraordinary": 5424,
      "funnier": 5425,
      "criticism": 5426,
      "inspiring": 5427,
      "cket": 5428,
      "kiss": 5429,
      "mble": 5430,
      "mouse": 5431,
      "slaughter": 5432,
      "redu": 5433,
      "amber": 5434,
      "outing": 5435,
      "scars": 5436,
      "usa": 5437,
      "shr": 5438,
      "charge": 5439,
      "join": 5440,
      "finan": 5441,
      "carp": 5442,
      "vivid": 5443,
      "handle": 5444,
      "stylish": 5445,
      "michelle": 5446,
      "alike": 5447,
      "swed": 5448,
      "depiction": 5449,
      "sentimental": 5450,
      "determined": 5451,
      "notorious": 5452,
      "bun": 5453,
      "error": 5454,
      "reward": 5455,
      "hears": 5456,
      "det": 5457,
      "dece": 5458,
      "comical": 5459,
      "therine": 5460,
      "extent": 5461,
      "proof": 5462,
      "craz": 5463,
      "choices": 5464,
      "triumph": 5465,
      "vincent": 5466,
      "trait": 5467,
      "deliber": 5468,
      "balance": 5469,
      "massac": 5470,
      "rogers": 5471,
      "convey": 5472,
      "jessica": 5473,
      "99": 5474,
      "cave": 5475,
      "hh": 5476,
      "hous": 5477,
      "robb": 5478,
      "elli": 5479,
      "sham": 5480,
      "mentally": 5481,
      "tooth": 5482,
      "raised": 5483,
      "clock": 5484,
      "deni": 5485,
      "harm": 5486,
      "2000": 5487,
      "striking": 5488,
      "chilling": 5489,
      "vacation": 5490,
      "bay": 5491,
      "gil": 5492,
      "nin": 5493,
      "stunt": 5494,
      "/>(": 5495,
      "timing": 5496,
      "bollywood": 5497,
      "bette": 5498,
      "matth": 5499,
      "carl": 5500,
      "bug": 5501,
      "basis": 5502,
      "elev": 5503,
      "burton": 5504,
      "laid": 5505,
      "shape": 5506,
      "homosexual": 5507,
      "purely": 5508,
      "dollar": 5509,
      "inspiration": 5510,
      "weapons": 5511,
      "brooks": 5512,
      "ego": 5513,
      "lazy": 5514,
      "mul": 5515,
      "alter": 5516,
      "seag": 5517,
      "noble": 5518,
      "ami": 5519,
      "notable": 5520,
      "titled": 5521,
      "burt": 5522,
      "novels": 5523,
      "throws": 5524,
      "introduction": 5525,
      "stanley": 5526,
      "properly": 5527,
      "crafted": 5528,
      "consistent": 5529,
      "breathtaking": 5530,
      "weapon": 5531,
      "hing": 5532,
      "pg": 5533,
      "vast": 5534,
      "inspector": 5535,
      "adays": 5536,
      "aby": 5537,
      "wears": 5538,
      "nowadays": 5539,
      "aking": 5540,
      "blair": 5541,
      "assign": 5542,
      "everyday": 5543,
      "simpl": 5544,
      "happily": 5545,
      "subsequ": 5546,
      "fallen": 5547,
      "fiance": 5548,
      "strangely": 5549,
      "bilities": 5550,
      "succeeds": 5551,
      "fay": 5552,
      "stoo": 5553,
      "andering": 5554,
      "stab": 5555,
      "iring": 5556,
      "conspir": 5557,
      "elled": 5558,
      "pred": 5559,
      "cheer": 5560,
      "phen": 5561,
      "causes": 5562,
      "laura": 5563,
      "riding": 5564,
      "ratings": 5565,
      "atmospher": 5566,
      "reference": 5567,
      "psychiat": 5568,
      "provoking": 5569,
      "smooth": 5570,
      "ware": 5571,
      "yle": 5572,
      "orient": 5573,
      "acing": 5574,
      "ader": 5575,
      "tracy": 5576,
      "lesser": 5577,
      "raj": 5578,
      "posing": 5579,
      "spook": 5580,
      "2006": 5581,
      "1970": 5582,
      "reflect": 5583,
      "!!!!!!!!": 5584,
      "daily": 5585,
      "carrying": 5586,
      "intentional": 5587,
      "interpretation": 5588,
      "challenge": 5589,
      "obnoxious": 5590,
      "hence": 5591,
      "sna": 5592,
      "chasing": 5593,
      "mol": 5594,
      "advan": 5595,
      "ironic": 5596,
      "rial": 5597,
      "premi": 5598,
      "spiel": 5599,
      "bettie": 5600,
      "...\"": 5601,
      "raise": 5602,
      "letter": 5603,
      "relax": 5604,
      "jewish": 5605,
      "sinister": 5606,
      "busy": 5607,
      "sleazy": 5608,
      "nonetheless": 5609,
      "amongst": 5610,
      "westerns": 5611,
      "wyck": 5612,
      "established": 5613,
      "gad": 5614,
      "pound": 5615,
      "sive": 5616,
      "uff": 5617,
      "thunder": 5618,
      "inations": 5619,
      "isto": 5620,
      "ading": 5621,
      "ament": 5622,
      "aston": 5623,
      "iger": 5624,
      "shower": 5625,
      "creation": 5626,
      "carries": 5627,
      "carried": 5628,
      "legs": 5629,
      "confusion": 5630,
      "attempting": 5631,
      "retarded": 5632,
      "holmes": 5633,
      "embarrassed": 5634,
      "escapes": 5635,
      "replaced": 5636,
      "eness": 5637,
      "aces": 5638,
      "absor": 5639,
      "therland": 5640,
      "paralle": 5641,
      "enjoying": 5642,
      "needless": 5643,
      "pressed": 5644,
      "dramas": 5645,
      "opened": 5646,
      "broke": 5647,
      "2001": 5648,
      "madness": 5649,
      "risk": 5650,
      "*****": 5651,
      "arrives": 5652,
      "obsession": 5653,
      "navy": 5654,
      "champion": 5655,
      "advantage": 5656,
      "fisher": 5657,
      "isms": 5658,
      "doors": 5659,
      "mansion": 5660,
      "exists": 5661,
      "seeking": 5662,
      "shell": 5663,
      "screenwriter": 5664,
      "topic": 5665,
      "fortunately": 5666,
      "transfer": 5667,
      "angels": 5668,
      "official": 5669,
      "stanwyck": 5670,
      "intentions": 5671,
      "widow": 5672,
      "frequently": 5673,
      "goofy": 5674,
      "carpenter": 5675,
      "bast": 5676,
      "jake": 5677,
      "rum": 5678,
      "tick": 5679,
      "thre": 5680,
      "sutherland": 5681,
      "scrip": 5682,
      "trau": 5683,
      "manager": 5684,
      "horrific": 5685,
      "phant": 5686,
      "lucy": 5687,
      "presentation": 5688,
      "listed": 5689,
      "oddly": 5690,
      "attacked": 5691,
      "brando": 5692,
      "jumps": 5693,
      "marvelous": 5694,
      "catholic": 5695,
      "\"?": 5696,
      "myst": 5697,
      "cox": 5698,
      "disgu": 5699,
      "stops": 5700,
      "comedian": 5701,
      "addy": 5702,
      "valent": 5703,
      "passes": 5704,
      "packed": 5705,
      "mst3": 5706,
      "brazil": 5707,
      "bart": 5708,
      "eg": 5709,
      "hick": 5710,
      "hud": 5711,
      "hatt": 5712,
      "thief": 5713,
      "abor": 5714,
      "geor": 5715,
      "pover": 5716,
      "ural": 5717,
      "diam": 5718,
      "disagree": 5719,
      "interviews": 5720,
      "stupidity": 5721,
      "balls": 5722,
      "patient": 5723,
      "ralph": 5724,
      "equal": 5725,
      "attacks": 5726,
      "dawn": 5727,
      "immense": 5728,
      "neighborhood": 5729,
      "intensity": 5730,
      "rever": 5731,
      "albe": 5732,
      "lean": 5733,
      "shines": 5734,
      "bugs": 5735,
      "farm": 5736,
      "void": 5737,
      "cube": 5738,
      "thrilling": 5739,
      "wheel": 5740,
      "destro": 5741,
      "personalities": 5742,
      "spiritual": 5743,
      "conventional": 5744,
      "distribut": 5745,
      "kurt": 5746,
      "wwii": 5747,
      "tongue": 5748,
      "matthau": 5749,
      "albeit": 5750,
      "dinner": 5751,
      "nd": 5752,
      "sag": 5753,
      "chil": 5754,
      "beating": 5755,
      "abilities": 5756,
      "elder": 5757,
      "suspects": 5758,
      "rian": 5759,
      "math": 5760,
      "exer": 5761,
      "perfection": 5762,
      "eva": 5763,
      "warn": 5764,
      "drives": 5765,
      "flawed": 5766,
      "torial": 5767,
      "kicks": 5768,
      "1950s": 5769,
      "baker": 5770,
      "poignant": 5771,
      "seagal": 5772,
      "dere": 5773,
      "kis": 5774,
      "vous": 5775,
      "bride": 5776,
      "ieu": 5777,
      "terrifying": 5778,
      "rochester": 5779,
      "elvir": 5780,
      "butt": 5781,
      "actic": 5782,
      "confront": 5783,
      "dign": 5784,
      "dubbing": 5785,
      "internet": 5786,
      "stranger": 5787,
      "horrend": 5788,
      "letting": 5789,
      "mindless": 5790,
      "credible": 5791,
      "wishes": 5792,
      "announ": 5793,
      "oooo": 5794,
      "innov": 5795,
      "expressions": 5796,
      "struggles": 5797,
      "andrew": 5798,
      "widmark": 5799,
      "franchise": 5800,
      "cynical": 5801,
      "phenomen": 5802,
      "etern": 5803,
      "rates": 5804,
      "isand": 5805,
      "isra": 5806,
      "arrog": 5807,
      "aded": 5808,
      "elvis": 5809,
      "dear": 5810,
      "scoo": 5811,
      "plastic": 5812,
      "contract": 5813,
      "upset": 5814,
      "covers": 5815,
      "pride": 5816,
      "overcome": 5817,
      "dislike": 5818,
      "greatly": 5819,
      "month": 5820,
      "attend": 5821,
      "medical": 5822,
      "logist": 5823,
      "credibility": 5824,
      "refuses": 5825,
      "adapted": 5826,
      "innocence": 5827,
      "revolves": 5828,
      "redem": 5829,
      "hills": 5830,
      "minimal": 5831,
      "spielberg": 5832,
      "scripts": 5833,
      "boun": 5834,
      "fbi": 5835,
      "mund": 5836,
      "pion": 5837,
      "pap": 5838,
      "sque": 5839,
      "sket": 5840,
      "tense": 5841,
      "wan": 5842,
      "yu": 5843,
      "infer": 5844,
      "infamous": 5845,
      "stress": 5846,
      "forbid": 5847,
      "geon": 5848,
      "trite": 5849,
      "disc": 5850,
      "lessons": 5851,
      "vier": 5852,
      "contact": 5853,
      "titive": 5854,
      "exceptional": 5855,
      "brow": 5856,
      "italy": 5857,
      "patri": 5858,
      "britain": 5859,
      "gather": 5860,
      "racism": 5861,
      "bearable": 5862,
      "tune": 5863,
      "nelson": 5864,
      "thousands": 5865,
      "wealthy": 5866,
      "dentist": 5867,
      "scratch": 5868,
      "controversial": 5869,
      "diamond": 5870,
      "elvira": 5871,
      ":)": 5872,
      "xon": 5873,
      "nose": 5874,
      "adol": 5875,
      "poke": 5876,
      "shy": 5877,
      "shark": 5878,
      "indu": 5879,
      "joint": 5880,
      "awa": 5881,
      "blance": 5882,
      "gio": 5883,
      "trial": 5884,
      "helen": 5885,
      "basket": 5886,
      "puzz": 5887,
      "streisand": 5888,
      "fatal": 5889,
      "crisis": 5890,
      "tribute": 5891,
      "aired": 5892,
      "cise": 5893,
      "fx": 5894,
      "jol": 5895,
      "ology": 5896,
      "tat": 5897,
      "tire": 5898,
      "zone": 5899,
      "reunion": 5900,
      "enor": 5901,
      "asm": 5902,
      "chases": 5903,
      "iments": 5904,
      "amy": 5905,
      "poet": 5906,
      "shorts": 5907,
      "erson": 5908,
      "blond": 5909,
      "caric": 5910,
      "carter": 5911,
      "vised": 5912,
      "countries": 5913,
      "guessing": 5914,
      "thrillers": 5915,
      "physically": 5916,
      "andrews": 5917,
      "expensive": 5918,
      "hundreds": 5919,
      "derek": 5920,
      "fitting": 5921,
      "nas": 5922,
      "tied": 5923,
      "yo": 5924,
      "alleg": 5925,
      "sevent": 5926,
      "wasting": 5927,
      "iffer": 5928,
      "conven": 5929,
      "aught": 5930,
      "shoes": 5931,
      "enjoyment": 5932,
      "sincere": 5933,
      "sexuality": 5934,
      "franco": 5935,
      "panic": 5936,
      "suffered": 5937,
      "gripping": 5938,
      "chaplin": 5939,
      "performers": 5940,
      "technique": 5941,
      "eager": 5942,
      "mit": 5943,
      "rist": 5944,
      "tab": 5945,
      "zor": 5946,
      "err": 5947,
      "nov": 5948,
      "lovable": 5949,
      "uncomfortable": 5950,
      "hoo": 5951,
      "irony": 5952,
      "boll": 5953,
      "spark": 5954,
      "ourselves": 5955,
      "wells": 5956,
      "whereas": 5957,
      "horses": 5958,
      "parano": 5959,
      "ensemble": 5960,
      "glimp": 5961,
      "sings": 5962,
      "dancer": 5963,
      "satan": 5964,
      "millions": 5965,
      "appy": 5966,
      "hunting": 5967,
      "separate": 5968,
      "mst3k": 5969,
      "glimpse": 5970,
      "jere": 5971,
      "jet": 5972,
      "oscars": 5973,
      "anity": 5974,
      "arnold": 5975,
      "imit": 5976,
      "tors": 5977,
      "quote": 5978,
      "pray": 5979,
      "flav": 5980,
      "turing": 5981,
      "counters": 5982,
      "solve": 5983,
      "osity": 5984,
      "flynn": 5985,
      "assistant": 5986,
      "wicked": 5987,
      "karloff": 5988,
      "sophisticated": 5989,
      "holiday": 5990,
      "atmospheric": 5991,
      "thick": 5992,
      "allo": 5993,
      "itar": 5994,
      "elabor": 5995,
      "presum": 5996,
      "quis": 5997,
      "192": 5998,
      "oblig": 5999,
      "glory": 6000,
      "curse": 6001,
      "weakness": 6002,
      "homeless": 6003,
      "searching": 6004,
      "troubled": 6005,
      "meaningful": 6006,
      "acceptable": 6007,
      "satisfied": 6008,
      "basement": 6009,
      "cousin": 6010,
      "knife": 6011,
      "massacre": 6012,
      "''": 6013,
      "mup": 6014,
      "tall": 6015,
      "eral": 6016,
      "restrain": 6017,
      "leo": 6018,
      "icing": 6019,
      "entry": 6020,
      "tery": 6021,
      "ambig": 6022,
      "neil": 6023,
      "plague": 6024,
      "shed": 6025,
      "istan": 6026,
      "coach": 6027,
      "aki": 6028,
      "clum": 6029,
      "reads": 6030,
      "ception": 6031,
      "cameos": 6032,
      "burning": 6033,
      "appearances": 6034,
      "savage": 6035,
      "battles": 6036,
      "jerk": 6037,
      "respond": 6038,
      "iii": 6039,
      "split": 6040,
      "specific": 6041,
      "protagonists": 6042,
      "fighter": 6043,
      "caricature": 6044,
      "45": 6045,
      "lur": 6046,
      "oil": 6047,
      "toile": 6048,
      "editor": 6049,
      "stiff": 6050,
      "seed": 6051,
      "vey": 6052,
      "lian": 6053,
      "ifi": 6054,
      "frag": 6055,
      "condu": 6056,
      "shay": 6057,
      "miscast": 6058,
      "relent": 6059,
      "portrait": 6060,
      "hamlet": 6061,
      "sticks": 6062,
      "hipp": 6063,
      "shoots": 6064,
      "suggests": 6065,
      "medium": 6066,
      "passionate": 6067,
      "idiotic": 6068,
      "stretch": 6069,
      "thousand": 6070,
      "kirk": 6071,
      "?),": 6072,
      "daw": 6073,
      "pam": 6074,
      "unforgettable": 6075,
      "hoped": 6076,
      "noted": 6077,
      "maf": 6078,
      "maniac": 6079,
      "guilt": 6080,
      "afford": 6081,
      "worlds": 6082,
      "superfic": 6083,
      "develops": 6084,
      "concert": 6085,
      "accepted": 6086,
      "consists": 6087,
      "colorful": 6088,
      "scarecrow": 6089,
      "hiding": 6090,
      "insulting": 6091,
      "tender": 6092,
      "stealing": 6093,
      "health": 6094,
      "thirty": 6095,
      "explicit": 6096,
      "splendid": 6097,
      "econ": 6098,
      "gic": 6099,
      "guts": 6100,
      "inexplic": 6101,
      "rely": 6102,
      "stall": 6103,
      "bears": 6104,
      "ela": 6105,
      "demo": 6106,
      "scor": 6107,
      "boom": 6108,
      "believing": 6109,
      "spots": 6110,
      "lucas": 6111,
      "rooms": 6112,
      "larger": 6113,
      "annoyed": 6114,
      "bald": 6115,
      "saves": 6116,
      "repeat": 6117,
      "doro": 6118,
      "attraction": 6119,
      "redemption": 6120,
      "ien": 6121,
      "lil": 6122,
      "pon": 6123,
      "alt": 6124,
      "ultra": 6125,
      "tea": 6126,
      "worker": 6127,
      "walken": 6128,
      "restaur": 6129,
      "catherine": 6130,
      "ification": 6131,
      "drops": 6132,
      "dialogs": 6133,
      "hibit": 6134,
      "portion": 6135,
      "glover": 6136,
      "belongs": 6137,
      "destruction": 6138,
      "curtis": 6139,
      "econom": 6140,
      "dorothy": 6141,
      "anced": 6142,
      "ona": 6143,
      "todd": 6144,
      "ingen": 6145,
      "chamber": 6146,
      "icting": 6147,
      "dod": 6148,
      "appl": 6149,
      "essence": 6150,
      "afore": 6151,
      "opath": 6152,
      "phr": 6153,
      "screw": 6154,
      "counts": 6155,
      "denzel": 6156,
      "curren": 6157,
      "burg": 6158,
      "wake": 6159,
      "cusack": 6160,
      "typically": 6161,
      "virus": 6162,
      "rita": 6163,
      "hanks": 6164,
      "boredom": 6165,
      "loyd": 6166,
      "charismatic": 6167,
      "tube": 6168,
      "accomplish": 6169,
      "eerie": 6170,
      "hudson": 6171,
      "2nd": 6172,
      "kane": 6173,
      "encounters": 6174,
      "loid": 6175,
      "loser": 6176,
      "cheek": 6177,
      "newsp": 6178,
      "insist": 6179,
      "eleg": 6180,
      "vices": 6181,
      "crimes": 6182,
      "closely": 6183,
      "2005": 6184,
      "concerns": 6185,
      "scientists": 6186,
      "achieved": 6187,
      "rushed": 6188,
      "endearing": 6189,
      "believably": 6190,
      "library": 6191,
      "metaphor": 6192,
      "\"...": 6193,
      "awe": 6194,
      "fired": 6195,
      "lloyd": 6196,
      "sends": 6197,
      "enters": 6198,
      "goal": 6199,
      "ause": 6200,
      "voy": 6201,
      "launch": 6202,
      "elsewhere": 6203,
      "males": 6204,
      "rocks": 6205,
      "swing": 6206,
      "checking": 6207,
      "stunts": 6208,
      "complaint": 6209,
      "segments": 6210,
      "canada": 6211,
      "hooked": 6212,
      "citizen": 6213,
      "cannibal": 6214,
      "kum": 6215,
      "kaz": 6216,
      "oke": 6217,
      "useless": 6218,
      "yan": 6219,
      "yel": 6220,
      "incoherent": 6221,
      "lol": 6222,
      "ripped": 6223,
      "huh": 6224,
      "drown": 6225,
      "raped": 6226,
      "secretary": 6227,
      "dragged": 6228,
      "fashioned": 6229,
      "bobby": 6230,
      "eastwood": 6231,
      "charisma": 6232,
      "jeremy": 6233,
      "?).": 6234,
      "finger": 6235,
      "hitting": 6236,
      "macy": 6237,
      "ramp": 6238,
      "tool": 6239,
      "noise": 6240,
      "idy": 6241,
      "bold": 6242,
      "stood": 6243,
      "muslim": 6244,
      "attle": 6245,
      "cake": 6246,
      "godfather": 6247,
      "dealt": 6248,
      "photographer": 6249,
      "tricks": 6250,
      "birthday": 6251,
      "abrup": 6252,
      "scooby": 6253,
      "ggy": 6254,
      "heston": 6255,
      "kath": 6256,
      "sally": 6257,
      "tte": 6258,
      "reactions": 6259,
      "heat": 6260,
      "wives": 6261,
      "rol": 6262,
      "clint": 6263,
      "selling": 6264,
      "blank": 6265,
      "assa": 6266,
      "direc": 6267,
      "centric": 6268,
      "videos": 6269,
      "attempted": 6270,
      "resour": 6271,
      "hearts": 6272,
      "countless": 6273,
      "ritter": 6274,
      "smoking": 6275,
      "briefly": 6276,
      "adams": 6277,
      "pseu": 6278,
      "techniques": 6279,
      "atlant": 6280,
      "thumbs": 6281,
      "gothic": 6282,
      "magazine": 6283,
      "gut": 6284,
      "gall": 6285,
      "hust": 6286,
      "hire": 6287,
      "pir": 6288,
      "thew": 6289,
      "redi": 6290,
      "replace": 6291,
      "enstein": 6292,
      "toss": 6293,
      "unintentionally": 6294,
      "conceived": 6295,
      "guest": 6296,
      "pran": 6297,
      "sexually": 6298,
      "clown": 6299,
      "hype": 6300,
      "morality": 6301,
      "1990": 6302,
      "strikes": 6303,
      "horrendous": 6304,
      "bible": 6305,
      "eyed": 6306,
      "kor": 6307,
      "kay": 6308,
      "mile": 6309,
      "pper": 6310,
      "uct": 6311,
      "reel": 6312,
      "ingredi": 6313,
      "forgive": 6314,
      "poison": 6315,
      "user": 6316,
      "pleased": 6317,
      "aving": 6318,
      "selfish": 6319,
      "string": 6320,
      "ashes": 6321,
      "attached": 6322,
      "carefully": 6323,
      "greg": 6324,
      "frey": 6325,
      "custo": 6326,
      "engine": 6327,
      "importance": 6328,
      "grandmother": 6329,
      "limit": 6330,
      "grows": 6331,
      "strike": 6332,
      "surrounding": 6333,
      "surrounded": 6334,
      "philoso": 6335,
      "admittedly": 6336,
      "amo": 6337,
      "cies": 6338,
      "gus": 6339,
      "kitch": 6340,
      "lily": 6341,
      "patch": 6342,
      "rome": 6343,
      "rex": 6344,
      "represents": 6345,
      "asingly": 6346,
      "chances": 6347,
      "haha": 6348,
      "comics": 6349,
      "uristic": 6350,
      "ellar": 6351,
      "spending": 6352,
      "spike": 6353,
      "gotta": 6354,
      "styles": 6355,
      "cycl": 6356,
      "engage": 6357,
      "stronger": 6358,
      "homage": 6359,
      "robber": 6360,
      "walls": 6361,
      "luckily": 6362,
      "kubrick": 6363,
      "revelation": 6364,
      "sneak": 6365,
      "stairs": 6366,
      "adequate": 6367,
      "poverty": 6368,
      "cen": 6369,
      "confron": 6370,
      "shining": 6371,
      "astaire": 6372,
      "spar": 6373,
      "aft": 6374,
      "bleak": 6375,
      "....<": 6376,
      "duke": 6377,
      "killings": 6378,
      "carrey": 6379,
      "mons": 6380,
      "mighty": 6381,
      "miike": 6382,
      "easier": 6383,
      "picking": 6384,
      "hamil": 6385,
      "dropped": 6386,
      "1970s": 6387,
      "executive": 6388,
      "university": 6389,
      "reynold": 6390,
      "philosoph": 6391,
      "shirt": 6392,
      "childish": 6393,
      "bby": 6394,
      "iation": 6395,
      "jazz": 6396,
      "mars": 6397,
      "hem": 6398,
      "root": 6399,
      "holy": 6400,
      "ifies": 6401,
      "usions": 6402,
      "active": 6403,
      "conserv": 6404,
      "projects": 6405,
      "performing": 6406,
      "scripted": 6407,
      "reasonable": 6408,
      "messages": 6409,
      "2002": 6410,
      "boxing": 6411,
      "juven": 6412,
      "requires": 6413,
      "shadows": 6414,
      "threatening": 6415,
      "occurs": 6416,
      "cardboard": 6417,
      "resolution": 6418,
      "vulner": 6419,
      "increasingly": 6420,
      "associated": 6421,
      "gift": 6422,
      "inevitable": 6423,
      "korean": 6424,
      "exercise": 6425,
      "mafia": 6426,
      "reynolds": 6427,
      "kol": 6428,
      "sadd": 6429,
      "size": 6430,
      "tad": 6431,
      "inser": 6432,
      "onse": 6433,
      "motor": 6434,
      "excl": 6435,
      "bye": 6436,
      "temper": 6437,
      "fancy": 6438,
      "misses": 6439,
      "silence": 6440,
      "identify": 6441,
      "spirited": 6442,
      "mistaken": 6443,
      "matched": 6444,
      "gabr": 6445,
      "ginger": 6446,
      "drags": 6447,
      "continued": 6448,
      "jesse": 6449,
      "bakshi": 6450,
      "fifteen": 6451,
      "toilet": 6452,
      "dawson": 6453,
      "ae": 6454,
      "bis": 6455,
      "cun": 6456,
      "gul": 6457,
      "hank": 6458,
      "mall": 6459,
      "tel": 6460,
      "wack": 6461,
      "reject": 6462,
      "beer": 6463,
      "terior": 6464,
      "butch": 6465,
      "suits": 6466,
      "bless": 6467,
      "drac": 6468,
      "bub": 6469,
      "handful": 6470,
      "yester": 6471,
      "twin": 6472,
      "davies": 6473,
      "brilliance": 6474,
      "thrills": 6475,
      "allowing": 6476,
      "1980s": 6477,
      "advance": 6478,
      "salv": 6479,
      "splatter": 6480,
      "depression": 6481,
      "gradu": 6482,
      "investigation": 6483,
      "nuclear": 6484,
      "bucks": 6485,
      "strictly": 6486,
      "ambitious": 6487,
      "outrageous": 6488,
      "!.": 6489,
      "ique": 6490,
      "ske": 6491,
      "infect": 6492,
      "icy": 6493,
      "rive": 6494,
      "fever": 6495,
      "ifying": 6496,
      "estate": 6497,
      "convol": 6498,
      "timeless": 6499,
      "prejud": 6500,
      "myth": 6501,
      "guide": 6502,
      "cra": 6503,
      "overlooked": 6504,
      "disease": 6505,
      "afterwards": 6506,
      "beings": 6507,
      "carn": 6508,
      "reluct": 6509,
      "worthless": 6510,
      "breasts": 6511,
      "slim": 6512,
      "brosn": 6513,
      "instantly": 6514,
      "pleasantly": 6515,
      "cruise": 6516,
      "joey": 6517,
      "digital": 6518,
      "kudos": 6519,
      "kidnapped": 6520,
      "jamie": 6521,
      "throat": 6522,
      "brosnan": 6523,
      "dled": 6524,
      "glow": 6525,
      "sg": 6526,
      "tier": 6527,
      "wright": 6528,
      "chen": 6529,
      "chand": 6530,
      "omin": 6531,
      "neo": 6532,
      "webs": 6533,
      "artific": 6534,
      "akshay": 6535,
      "partly": 6536,
      "pses": 6537,
      "buried": 6538,
      "corpse": 6539,
      "persona": 6540,
      "breed": 6541,
      "luc": 6542,
      "norman": 6543,
      "creators": 6544,
      "drey": 6545,
      "spoiled": 6546,
      "rifice": 6547,
      "importantly": 6548,
      "politic": 6549,
      "bullet": 6550,
      "competition": 6551,
      "pushed": 6552,
      "sacrifice": 6553,
      "garden": 6554,
      "tremendous": 6555,
      "presumably": 6556,
      "superficial": 6557,
      "ril": 6558,
      "returning": 6559,
      "lifest": 6560,
      "abc": 6561,
      "notes": 6562,
      "fears": 6563,
      "manu": 6564,
      "urai": 6565,
      "activ": 6566,
      "esty": 6567,
      "coy": 6568,
      "realise": 6569,
      "serving": 6570,
      "strang": 6571,
      "talked": 6572,
      "farce": 6573,
      "wondered": 6574,
      "temple": 6575,
      "superbly": 6576,
      "menacing": 6577,
      "morris": 6578,
      "parent": 6579,
      "generous": 6580,
      "photographed": 6581,
      "appalling": 6582,
      "flawless": 6583,
      "regardless": 6584,
      "loaded": 6585,
      "drunken": 6586,
      "individuals": 6587,
      "companion": 6588,
      "australia": 6589,
      "precise": 6590,
      "liberal": 6591,
      "eccentric": 6592,
      "arrested": 6593,
      "exaggerated": 6594,
      "conspiracy": 6595,
      "aforementioned": 6596,
      "cag": 6597,
      "hung": 6598,
      "mun": 6599,
      "tin": 6600,
      "aced": 6601,
      "scot": 6602,
      "coinc": 6603,
      "wonders": 6604,
      "highlights": 6605,
      "jewel": 6606,
      "audio": 6607,
      "slick": 6608,
      "drivel": 6609,
      "planning": 6610,
      "promised": 6611,
      "admire": 6612,
      "orders": 6613,
      "laws": 6614,
      "samurai": 6615,
      "narrator": 6616,
      "jumping": 6617,
      "falk": 6618,
      "frustrated": 6619,
      "accomplished": 6620,
      "wannabe": 6621,
      "mitchell": 6622,
      "nurse": 6623,
      "gandhi": 6624,
      "jealous": 6625,
      "muse": 6626,
      "resort": 6627,
      "stir": 6628,
      "icop": 6629,
      "height": 6630,
      "lix": 6631,
      "poll": 6632,
      "manhatt": 6633,
      "ellen": 6634,
      "boot": 6635,
      "veness": 6636,
      "characterization": 6637,
      "josh": 6638,
      "duo": 6639,
      "duck": 6640,
      "mato": 6641,
      "aze": 6642,
      "horrors": 6643,
      "helicop": 6644,
      "murray": 6645,
      "ticket": 6646,
      "distant": 6647,
      "annie": 6648,
      "beaten": 6649,
      "rapid": 6650,
      "bullets": 6651,
      "empire": 6652,
      "scientific": 6653,
      "draws": 6654,
      "smoke": 6655,
      "curiosity": 6656,
      "laurel": 6657,
      "achievement": 6658,
      "corporate": 6659,
      "affected": 6660,
      "miserably": 6661,
      "francisco": 6662,
      "electric": 6663,
      "piano": 6664,
      "houses": 6665,
      "spooky": 6666,
      "craig": 6667,
      "cagney": 6668,
      "35": 6669,
      "flies": 6670,
      "hmm": 6671,
      "ib": 6672,
      "oce": 6673,
      "punk": 6674,
      "uninspired": 6675,
      "unpleasant": 6676,
      "exposed": 6677,
      "perry": 6678,
      "enda": 6679,
      "consequences": 6680,
      "clues": 6681,
      "craven": 6682,
      "reasonably": 6683,
      "tones": 6684,
      "cameron": 6685,
      "distinct": 6686,
      "goldberg": 6687,
      "population": 6688,
      "repetitive": 6689,
      "attracted": 6690,
      "revealing": 6691,
      "territory": 6692,
      "alexander": 6693,
      "argument": 6694,
      "ironically": 6695,
      "accused": 6696,
      "snake": 6697,
      ",,": 6698,
      "dah": 6699,
      "lav": 6700,
      "nun": 6701,
      "rd": 6702,
      "tha": 6703,
      "inj": 6704,
      "isha": 6705,
      "resid": 6706,
      "armed": 6707,
      "stain": 6708,
      "oman": 6709,
      "ential": 6710,
      "lip": 6711,
      "peak": 6712,
      "defe": 6713,
      "antics": 6714,
      "watches": 6715,
      "clu": 6716,
      "distract": 6717,
      "ishes": 6718,
      "marke": 6719,
      "ensible": 6720,
      "opposed": 6721,
      "turner": 6722,
      "emily": 6723,
      "empath": 6724,
      "blob": 6725,
      "brea": 6726,
      "label": 6727,
      "shortly": 6728,
      "......": 6729,
      "failing": 6730,
      "souls": 6731,
      "indians": 6732,
      "doubted": 6733,
      "cats": 6734,
      "20th": 6735,
      "slightest": 6736,
      "response": 6737,
      "timo": 6738,
      "blows": 6739,
      "melodramatic": 6740,
      "discovery": 6741,
      "hatred": 6742,
      "griff": 6743,
      "motivation": 6744,
      "modesty": 6745,
      "psychiatrist": 6746,
      "manhattan": 6747,
      "dating": 6748,
      "fist": 6749,
      "foul": 6750,
      "tomato": 6751,
      "verho": 6752,
      "gee": 6753,
      "felix": 6754,
      "grav": 6755,
      "subplot": 6756,
      "cared": 6757,
      "wallow": 6758,
      "pulling": 6759,
      "lacked": 6760,
      "vicious": 6761,
      "credited": 6762,
      "possibility": 6763,
      "precious": 6764,
      "documentaries": 6765,
      "warrior": 6766,
      "dolph": 6767,
      "captivating": 6768,
      "installment": 6769,
      "subsequent": 6770,
      "directorial": 6771,
      "pseudo": 6772,
      "dracula": 6773,
      "convoluted": 6774,
      "bent": 6775,
      "mour": 6776,
      "rank": 6777,
      "tiger": 6778,
      "enchant": 6779,
      "arab": 6780,
      "bris": 6781,
      "ligh": 6782,
      "filling": 6783,
      "pear": 6784,
      "combat": 6785,
      "overdone": 6786,
      "horrid": 6787,
      "superhero": 6788,
      "2004": 6789,
      "aimed": 6790,
      "explored": 6791,
      "futuristic": 6792,
      "broadcast": 6793,
      "drawing": 6794,
      "psychotic": 6795,
      "tunes": 6796,
      "intrigued": 6797,
      "remaining": 6798,
      "ignored": 6799,
      "biography": 6800,
      "musc": 6801,
      "candid": 6802,
      "settling": 6803,
      "forbidden": 6804,
      "bite": 6805,
      "gimm": 6806,
      "kas": 6807,
      "ops": 6808,
      "encing": 6809,
      "staged": 6810,
      "liking": 6811,
      "kell": 6812,
      "holly": 6813,
      "notably": 6814,
      "worried": 6815,
      "spider": 6816,
      "blast": 6817,
      "backs": 6818,
      "taker": 6819,
      "coll": 6820,
      "imagined": 6821,
      "satir": 6822,
      "unky": 6823,
      "instit": 6824,
      "paulie": 6825,
      "repeatedly": 6826,
      "translation": 6827,
      "cringe": 6828,
      "obscure": 6829,
      "gadget": 6830,
      "elderly": 6831,
      "restaurant": 6832,
      "kitchen": 6833,
      "verhoeven": 6834,
      "'.<": 6835,
      "bc": 6836,
      "cig": 6837,
      "flee": 6838,
      "ix": 6839,
      "ika": 6840,
      "isation": 6841,
      "resur": 6842,
      "stard": 6843,
      "whale": 6844,
      "supre": 6845,
      "outcome": 6846,
      "soviet": 6847,
      "dee": 6848,
      "decor": 6849,
      "estic": 6850,
      "agan": 6851,
      "giallo": 6852,
      "glenn": 6853,
      "settle": 6854,
      "distance": 6855,
      "2003": 6856,
      "explore": 6857,
      "providing": 6858,
      "rambo": 6859,
      "crook": 6860,
      "gradually": 6861,
      "pushing": 6862,
      "loosely": 6863,
      "discussion": 6864,
      "juliet": 6865,
      "scope": 6866,
      "hysterical": 6867,
      "idiots": 6868,
      "margaret": 6869,
      "reduced": 6870,
      "dignity": 6871,
      "elaborate": 6872,
      "timothy": 6873,
      "griffith": 6874,
      "cried": 6875,
      "dave": 6876,
      "hul": 6877,
      "kris": 6878,
      "karen": 6879,
      "rics": 6880,
      "returned": 6881,
      "ingu": 6882,
      "logue": 6883,
      "clay": 6884,
      "anski": 6885,
      "carrie": 6886,
      "stiller": 6887,
      "pretend": 6888,
      "warren": 6889,
      "slave": 6890,
      "romero": 6891,
      "bury": 6892,
      "darker": 6893,
      "kenneth": 6894,
      "sunshine": 6895,
      "screams": 6896,
      "recognized": 6897,
      "sloppy": 6898,
      "wealth": 6899,
      "gimmick": 6900,
      "reli": 6901,
      "album": 6902,
      "staff": 6903,
      "chest": 6904,
      "sep": 6905,
      "adul": 6906,
      "uneven": 6907,
      "unbearable": 6908,
      "unbelievably": 6909,
      "roth": 6910,
      "areas": 6911,
      "suited": 6912,
      "guin": 6913,
      "donna": 6914,
      "uded": 6915,
      "ireland": 6916,
      "glamor": 6917,
      "formed": 6918,
      "hyp": 6919,
      "twel": 6920,
      "danes": 6921,
      "dancers": 6922,
      "heroic": 6923,
      "engaged": 6924,
      "purple": 6925,
      "builds": 6926,
      "extended": 6927,
      "wallace": 6928,
      "1930s": 6929,
      "defend": 6930,
      "require": 6931,
      "arrive": 6932,
      "contrary": 6933,
      "specif": 6934,
      "tortured": 6935,
      "commercials": 6936,
      "absence": 6937,
      "divorce": 6938,
      "adoles": 6939,
      "altman": 6940,
      "yesterday": 6941,
      "50s": 6942,
      "baf": 6943,
      "hbo": 6944,
      "iveness": 6945,
      "tam": 6946,
      "ont": 6947,
      "assem": 6948,
      "chic": 6949,
      "forgiven": 6950,
      "improved": 6951,
      "trum": 6952,
      "inda": 6953,
      "psis": 6954,
      "matthew": 6955,
      "stole": 6956,
      "observ": 6957,
      "kings": 6958,
      "smug": 6959,
      "forms": 6960,
      "differences": 6961,
      "syno": 6962,
      "movements": 6963,
      "existed": 6964,
      "royal": 6965,
      "concerning": 6966,
      "lected": 6967,
      "hollow": 6968,
      "sales": 6969,
      "ranks": 6970,
      "kapoor": 6971,
      "reached": 6972,
      "occurred": 6973,
      "mildred": 6974,
      "possessed": 6975,
      "construction": 6976,
      "choreography": 6977,
      "eyre": 6978,
      "landscape": 6979,
      "currently": 6980,
      "twelve": 6981,
      "daring": 6982,
      "rational": 6983,
      "yon": 6984,
      "zing": 6985,
      "inhabit": 6986,
      "outer": 6987,
      "lips": 6988,
      "unit": 6989,
      "anyways": 6990,
      "grass": 6991,
      "spare": 6992,
      "fulci": 6993,
      "overrated": 6994,
      "displays": 6995,
      "blake": 6996,
      "udge": 6997,
      "atten": 6998,
      "collabor": 6999,
      "sounding": 7000,
      "merit": 7001,
      "burned": 7002,
      "tommy": 7003,
      "oses": 7004,
      "beats": 7005,
      "secrets": 7006,
      "bathroom": 7007,
      "nazis": 7008,
      "sacrific": 7009,
      "symbolism": 7010,
      "involvement": 7011,
      "journalist": 7012,
      "newspaper": 7013,
      "yellow": 7014,
      "cof": 7015,
      "dill": 7016,
      "gid": 7017,
      "imo": 7018,
      "argue": 7019,
      "ilted": 7020,
      "stare": 7021,
      "mod": 7022,
      "terry": 7023,
      "undoubted": 7024,
      "astro": 7025,
      "characteristic": 7026,
      "blend": 7027,
      "blunt": 7028,
      "nery": 7029,
      "cycle": 7030,
      "genres": 7031,
      "swear": 7032,
      "devast": 7033,
      "beatty": 7034,
      "cruci": 7035,
      "machines": 7036,
      "contained": 7037,
      "global": 7038,
      "demands": 7039,
      "greek": 7040,
      "resembles": 7041,
      "dynamic": 7042,
      "nicholson": 7043,
      "hamilton": 7044,
      "90s": 7045,
      "iently": 7046,
      "lun": 7047,
      "tame": 7048,
      "wag": 7049,
      "altogether": 7050,
      "/>'": 7051,
      "verted": 7052,
      "aman": 7053,
      "coast": 7054,
      "grain": 7055,
      "blade": 7056,
      "...)": 7057,
      "centered": 7058,
      "optim": 7059,
      "trio": 7060,
      "enjoys": 7061,
      "harder": 7062,
      "pulp": 7063,
      "cameras": 7064,
      "sadness": 7065,
      "sadistic": 7066,
      "bene": 7067,
      "exploit": 7068,
      "explosion": 7069,
      "lawrence": 7070,
      "ridiculously": 7071,
      "meaningless": 7072,
      "popcorn": 7073,
      "investigate": 7074,
      "punish": 7075,
      "dutch": 7076,
      "proceedings": 7077,
      "waters": 7078,
      "ruthless": 7079,
      "receive": 7080,
      "robots": 7081,
      "swedish": 7082,
      "threw": 7083,
      "innovative": 7084,
      "pokemon": 7085,
      "seventies": 7086,
      "website": 7087,
      "daddy": 7088,
      "echo": 7089,
      "nt": 7090,
      "vest": 7091,
      "thugs": 7092,
      "asion": 7093,
      "edly": 7094,
      "brig": 7095,
      "accompan": 7096,
      "icon": 7097,
      "imper": 7098,
      "defeat": 7099,
      "composed": 7100,
      "persu": 7101,
      "aux": 7102,
      "quel": 7103,
      "acknow": 7104,
      "istically": 7105,
      "grasp": 7106,
      "producing": 7107,
      "leton": 7108,
      "clothing": 7109,
      "closet": 7110,
      "voight": 7111,
      "humili": 7112,
      "madonna": 7113,
      "hopper": 7114,
      "photograph": 7115,
      "kenned": 7116,
      "********": 7117,
      "nett": 7118,
      "racial": 7119,
      "crocod": 7120,
      "mesmer": 7121,
      "intrigue": 7122,
      "square": 7123,
      "blowing": 7124,
      "models": 7125,
      "leonard": 7126,
      "fonda": 7127,
      "dinosaurs": 7128,
      "atlantis": 7129,
      "synopsis": 7130,
      "\";": 7131,
      "22": 7132,
      "cd": 7133,
      "rural": 7134,
      "swi": 7135,
      "orches": 7136,
      "ental": 7137,
      "apt": 7138,
      "urbed": 7139,
      "pert": 7140,
      "plate": 7141,
      "aggress": 7142,
      "offering": 7143,
      "newcom": 7144,
      "fried": 7145,
      "embr": 7146,
      "bargain": 7147,
      "masters": 7148,
      "dialogues": 7149,
      "disturbed": 7150,
      "gging": 7151,
      "2007": 7152,
      "pays": 7153,
      "devoted": 7154,
      "zzy": 7155,
      "brains": 7156,
      "nicol": 7157,
      "escaped": 7158,
      "brady": 7159,
      "mountains": 7160,
      "conversations": 7161,
      "distracting": 7162,
      "assassin": 7163,
      "prostitute": 7164,
      "abysm": 7165,
      "juvenile": 7166,
      "coffee": 7167,
      "zilla": 7168,
      "react": 7169,
      "resto": 7170,
      "edie": 7171,
      "versus": 7172,
      "amuse": 7173,
      "elim": 7174,
      "excruci": 7175,
      "whoop": 7176,
      "worn": 7177,
      "1930": 7178,
      "sail": 7179,
      "kidding": 7180,
      "closed": 7181,
      "hypo": 7182,
      "nail": 7183,
      "cuba": 7184,
      "buddies": 7185,
      "murderous": 7186,
      "staying": 7187,
      "explosions": 7188,
      "cinematographer": 7189,
      "marty": 7190,
      "palma": 7191,
      "nearby": 7192,
      "senseless": 7193,
      "pressure": 7194,
      "odds": 7195,
      "latin": 7196,
      "penn": 7197,
      "banned": 7198,
      "immig": 7199,
      "answered": 7200,
      "cellu": 7201,
      "constructed": 7202,
      "lemmon": 7203,
      "====": 7204,
      "overwhelming": 7205,
      "philosophy": 7206,
      "excruciating": 7207,
      "3rd": 7208,
      "cary": 7209,
      "iser": 7210,
      "rees": 7211,
      "repul": 7212,
      "removed": 7213,
      "toys": 7214,
      "arc": 7215,
      "implausible": 7216,
      "unintentional": 7217,
      "roof": 7218,
      "elic": 7219,
      "guided": 7220,
      "march": 7221,
      "gian": 7222,
      "collap": 7223,
      "damage": 7224,
      "groups": 7225,
      "instant": 7226,
      "mistress": 7227,
      "homer": 7228,
      "detailed": 7229,
      "flop": 7230,
      "historic": 7231,
      "loads": 7232,
      "nightmares": 7233,
      "mickey": 7234,
      "mummy": 7235,
      "errors": 7236,
      "deliberately": 7237,
      "kennedy": 7238,
      "celluloid": 7239,
      "bread": 7240,
      "elo": 7241,
      "pants": 7242,
      "waves": 7243,
      "relies": 7244,
      "stack": 7245,
      "unwatchable": 7246,
      "solo": 7247,
      "goers": 7248,
      "exotic": 7249,
      "este": 7250,
      "awak": 7251,
      "belle": 7252,
      "subjects": 7253,
      "writes": 7254,
      "thoughtful": 7255,
      "classes": 7256,
      "careers": 7257,
      "hyper": 7258,
      "valu": 7259,
      "harvey": 7260,
      "causing": 7261,
      "bedroom": 7262,
      "confident": 7263,
      "promin": 7264,
      "scores": 7265,
      "explaining": 7266,
      "politically": 7267,
      "1996": 7268,
      "stalker": 7269,
      "officers": 7270,
      "survival": 7271,
      "opportun": 7272,
      "consistently": 7273,
      "jeffrey": 7274,
      "olivier": 7275,
      "influenced": 7276,
      "discuss": 7277,
      "resemblance": 7278,
      "lifting": 7279,
      "brooklyn": 7280,
      "vulgar": 7281,
      "florida": 7282,
      "ingredients": 7283,
      "cunning": 7284,
      "undoubtedly": 7285,
      "pink": 7286,
      "pars": 7287,
      "uh": 7288,
      "yok": 7289,
      "retain": 7290,
      "encour": 7291,
      "leans": 7292,
      "sele": 7293,
      "wizard": 7294,
      "rook": 7295,
      "hob": 7296,
      "doz": 7297,
      "plat": 7298,
      "consu": 7299,
      "props": 7300,
      "shin": 7301,
      "goodness": 7302,
      "wore": 7303,
      "awake": 7304,
      "bleed": 7305,
      "blues": 7306,
      "funeral": 7307,
      "surfing": 7308,
      "highest": 7309,
      "jection": 7310,
      "polanski": 7311,
      "chronic": 7312,
      "trees": 7313,
      "godzilla": 7314,
      "garner": 7315,
      "facing": 7316,
      "tracks": 7317,
      "signs": 7318,
      "catches": 7319,
      "furthermore": 7320,
      "suitable": 7321,
      "primary": 7322,
      "winds": 7323,
      "remarkably": 7324,
      "succeeded": 7325,
      "hideous": 7326,
      "focusing": 7327,
      "duty": 7328,
      "scheme": 7329,
      "chaos": 7330,
      "colonel": 7331,
      "rubber": 7332,
      "clumsy": 7333,
      "hou": 7334,
      "lund": 7335,
      "wt": 7336,
      "represented": 7337,
      "ala": 7338,
      "itudes": 7339,
      "exor": 7340,
      "measure": 7341,
      "pros": 7342,
      "woo": 7343,
      "affection": 7344,
      "disjoint": 7345,
      "backdrop": 7346,
      "endings": 7347,
      "sentence": 7348,
      "sidekick": 7349,
      "secondly": 7350,
      "mixt": 7351,
      "generic": 7352,
      "defined": 7353,
      "smaller": 7354,
      "maggie": 7355,
      "spirits": 7356,
      "gundam": 7357,
      "mysteries": 7358,
      "plicity": 7359,
      "1999": 7360,
      "1960": 7361,
      "kov": 7362,
      "travels": 7363,
      "rocket": 7364,
      "decisions": 7365,
      "employed": 7366,
      "revolutionary": 7367,
      "linda": 7368,
      "fetched": 7369,
      "principal": 7370,
      "winters": 7371,
      "blatant": 7372,
      "financial": 7373,
      "cart": 7374,
      "cingly": 7375,
      "gon": 7376,
      "hates": 7377,
      "khan": 7378,
      "yawn": 7379,
      "zes": 7380,
      "enem": 7381,
      "lyrics": 7382,
      "util": 7383,
      "forty": 7384,
      "decess": 7385,
      "devoid": 7386,
      "notion": 7387,
      "wet": 7388,
      "predecess": 7389,
      "offended": 7390,
      "directs": 7391,
      "fundam": 7392,
      "relations": 7393,
      "rukh": 7394,
      "painted": 7395,
      "covering": 7396,
      "fantas": 7397,
      "planned": 7398,
      "collect": 7399,
      "destiny": 7400,
      "honesty": 7401,
      "snip": 7402,
      "fluff": 7403,
      "circle": 7404,
      "streep": 7405,
      "desperation": 7406,
      "primarily": 7407,
      "recorded": 7408,
      "surviving": 7409,
      "practice": 7410,
      "enterprise": 7411,
      "flir": 7412,
      "frustration": 7413,
      "mobile": 7414,
      "stinker": 7415,
      "glorious": 7416,
      "unfolds": 7417,
      "doomed": 7418,
      "grinch": 7419,
      "lifestyle": 7420,
      "museum": 7421,
      "ocean": 7422,
      "beneath": 7423,
      "enemies": 7424,
      "bau": 7425,
      "egy": 7426,
      "hints": 7427,
      "ik": 7428,
      "jaf": 7429,
      "mcl": 7430,
      "insur": 7431,
      "iter": 7432,
      "stellar": 7433,
      "acies": 7434,
      "abh": 7435,
      "diane": 7436,
      "akin": 7437,
      "horrifying": 7438,
      "cheating": 7439,
      "performer": 7440,
      "nervous": 7441,
      "gerald": 7442,
      "motives": 7443,
      "danie": 7444,
      "dances": 7445,
      "wax": 7446,
      "garbo": 7447,
      "undance": 7448,
      "countryside": 7449,
      "judging": 7450,
      "grandfather": 7451,
      "immort": 7452,
      "traveling": 7453,
      "subtlety": 7454,
      "terrorist": 7455,
      "communist": 7456,
      "celebrity": 7457,
      "montage": 7458,
      "shelf": 7459,
      "shirley": 7460,
      "wrestling": 7461,
      "inferior": 7462,
      "enormous": 7463,
      "gabriel": 7464,
      "artificial": 7465,
      "dozens": 7466,
      "disjointed": 7467,
      "mixture": 7468,
      "athan": 7469,
      "dil": 7470,
      "ears": 7471,
      "fon": 7472,
      "ibly": 7473,
      "nell": 7474,
      "rag": 7475,
      "trow": 7476,
      "uth": 7477,
      "uwe": 7478,
      "yn": 7479,
      "incompreh": 7480,
      "theo": 7481,
      "topless": 7482,
      "posure": 7483,
      "neuro": 7484,
      "urge": 7485,
      "tee": 7486,
      "prepar": 7487,
      "cler": 7488,
      "mayor": 7489,
      "obtain": 7490,
      "hardcore": 7491,
      "pax": 7492,
      "shake": 7493,
      "calm": 7494,
      "convincingly": 7495,
      "avoided": 7496,
      "developing": 7497,
      "possibilities": 7498,
      "domino": 7499,
      "matches": 7500,
      "trained": 7501,
      "babe": 7502,
      "melting": 7503,
      "describes": 7504,
      "mirac": 7505,
      "trailers": 7506,
      "reaches": 7507,
      "eighties": 7508,
      "inventive": 7509,
      "emphasis": 7510,
      "benefit": 7511,
      "immensely": 7512,
      "saga": 7513,
      "dazz": 7514,
      "honey": 7515,
      "iors": 7516,
      "jed": 7517,
      "mp": 7518,
      "thread": 7519,
      "recru": 7520,
      "ata": 7521,
      "enh": 7522,
      "enlight": 7523,
      "ila": 7524,
      "illogical": 7525,
      "chess": 7526,
      "oms": 7527,
      "whis": 7528,
      "acid": 7529,
      "adle": 7530,
      "amit": 7531,
      "amanda": 7532,
      "outfit": 7533,
      "ularly": 7534,
      "scroo": 7535,
      "april": 7536,
      "meg": 7537,
      "contrad": 7538,
      "diana": 7539,
      "timon": 7540,
      "agrees": 7541,
      "blew": 7542,
      "disappear": 7543,
      "blur": 7544,
      "berlin": 7545,
      "drain": 7546,
      "izable": 7547,
      "wont": 7548,
      "earned": 7549,
      "niro": 7550,
      "skull": 7551,
      "compens": 7552,
      "towns": 7553,
      "suspic": 7554,
      "soccer": 7555,
      "backgrounds": 7556,
      "angeles": 7557,
      "technic": 7558,
      "authority": 7559,
      "transport": 7560,
      "buffs": 7561,
      "iraq": 7562,
      "hartley": 7563,
      "glasses": 7564,
      "miserable": 7565,
      "adorable": 7566,
      "survivors": 7567,
      "simplistic": 7568,
      "hypnot": 7569,
      "specifically": 7570,
      "')": 7571,
      "cards": 7572,
      "rud": 7573,
      "rang": 7574,
      "infl": 7575,
      "anded": 7576,
      "edith": 7577,
      "vet": 7578,
      "heim": 7579,
      "illness": 7580,
      "dian": 7581,
      "agues": 7582,
      "proving": 7583,
      "grate": 7584,
      "lotte": 7585,
      "offs": 7586,
      "peoples": 7587,
      "mario": 7588,
      "steel": 7589,
      "oph": 7590,
      "parad": 7591,
      "simil": 7592,
      "phony": 7593,
      "gerard": 7594,
      "useful": 7595,
      "solution": 7596,
      "menace": 7597,
      "lumet": 7598,
      "caly": 7599,
      "distingu": 7600,
      "judy": 7601,
      "commented": 7602,
      "faster": 7603,
      "kicked": 7604,
      "introduces": 7605,
      "hurts": 7606,
      "aids": 7607,
      "1940": 7608,
      "sellers": 7609,
      "rotten": 7610,
      "frustrating": 7611,
      "apocaly": 7612,
      "transformation": 7613,
      "choreographed": 7614,
      "corruption": 7615,
      "philosophical": 7616,
      "cg": 7617,
      "kn": 7618,
      "nons": 7619,
      "nuts": 7620,
      "pard": 7621,
      "anch": 7622,
      "republic": 7623,
      "orter": 7624,
      "moody": 7625,
      "imperson": 7626,
      "ambi": 7627,
      "lifel": 7628,
      "unreal": 7629,
      "unsettling": 7630,
      "rio": 7631,
      "pee": 7632,
      "nephe": 7633,
      "fru": 7634,
      "endure": 7635,
      "quotes": 7636,
      "igner": 7637,
      "displayed": 7638,
      "disappeared": 7639,
      "blan": 7640,
      "serge": 7641,
      "interaction": 7642,
      "faults": 7643,
      "viv": 7644,
      "lasted": 7645,
      "aneously": 7646,
      "elephant": 7647,
      "guessed": 7648,
      "????": 7649,
      "roller": 7650,
      "weakest": 7651,
      "!!!!!": 7652,
      "limits": 7653,
      "bergman": 7654,
      "banks": 7655,
      "lena": 7656,
      "trashy": 7657,
      "dedicated": 7658,
      "psychopath": 7659,
      "depressed": 7660,
      "species": 7661,
      "suffic": 7662,
      "formulaic": 7663,
      "jonathan": 7664,
      "chorus": 7665,
      "israel": 7666,
      "arrogant": 7667,
      "riveting": 7668,
      "cens": 7669,
      "gere": 7670,
      "rav": 7671,
      "rice": 7672,
      "tz": 7673,
      "inse": 7674,
      "thet": 7675,
      "revers": 7676,
      "aristo": 7677,
      "kel": 7678,
      "holo": 7679,
      "geo": 7680,
      "preview": 7681,
      "justify": 7682,
      "charlotte": 7683,
      "myr": 7684,
      "shee": 7685,
      "realizing": 7686,
      "fled": 7687,
      "flag": 7688,
      "rail": 7689,
      "lett": 7690,
      "hyde": 7691,
      "voiced": 7692,
      "legit": 7693,
      "similarities": 7694,
      "questionable": 7695,
      "macarthur": 7696,
      "stereotype": 7697,
      "washed": 7698,
      "sandra": 7699,
      "nomination": 7700,
      "ethnic": 7701,
      "safety": 7702,
      "education": 7703,
      "frequent": 7704,
      "monkeys": 7705,
      "wendy": 7706,
      "functional": 7707,
      "isolated": 7708,
      "ponder": 7709,
      "pearl": 7710,
      "abysmal": 7711,
      "similarly": 7712,
      "gender": 7713,
      "kers": 7714,
      "sni": 7715,
      "inane": 7716,
      "rec": 7717,
      "enger": 7718,
      "chave": 7719,
      "bearing": 7720,
      "implic": 7721,
      "ros": 7722,
      "button": 7723,
      "poon": 7724,
      "pole": 7725,
      "pops": 7726,
      "scrap": 7727,
      "apple": 7728,
      "peror": 7729,
      "quer": 7730,
      "myers": 7731,
      "cope": 7732,
      "assy": 7733,
      "berry": 7734,
      "thru": 7735,
      "newly": 7736,
      "tribe": 7737,
      "emperor": 7738,
      "kingdom": 7739,
      "sawa": 7740,
      "chron": 7741,
      "understandable": 7742,
      "gym": 7743,
      "considerable": 7744,
      "casual": 7745,
      "christy": 7746,
      "puer": 7747,
      "confidence": 7748,
      "rising": 7749,
      "snl": 7750,
      "treats": 7751,
      "1972": 7752,
      "campbell": 7753,
      "concern": 7754,
      "dolls": 7755,
      "bonus": 7756,
      "cracking": 7757,
      "stinks": 7758,
      "solely": 7759,
      "swimming": 7760,
      "dalton": 7761,
      "nostalgic": 7762,
      "conservative": 7763,
      "helicopter": 7764,
      "amitabh": 7765,
      "chavez": 7766,
      "kent": 7767,
      "lic": 7768,
      "lain": 7769,
      "lately": 7770,
      "pals": 7771,
      "sits": 7772,
      "vice": 7773,
      "alert": 7774,
      "orson": 7775,
      "edgar": 7776,
      "stilted": 7777,
      "loren": 7778,
      "unhappy": 7779,
      "peters": 7780,
      "deaf": 7781,
      "ulate": 7782,
      "coward": 7783,
      "claus": 7784,
      "marion": 7785,
      "despair": 7786,
      "carrad": 7787,
      "downhill": 7788,
      "tonight": 7789,
      "simpson": 7790,
      "distin": 7791,
      "purchase": 7792,
      "ballet": 7793,
      "kyle": 7794,
      "dais": 7795,
      "profession": 7796,
      "embarrassment": 7797,
      "reaching": 7798,
      "gloss": 7799,
      "fooled": 7800,
      "foolish": 7801,
      "dickens": 7802,
      "incidentally": 7803,
      "ignorant": 7804,
      "comparing": 7805,
      "poetic": 7806,
      "quisite": 7807,
      ",<": 7808,
      "cav": 7809,
      "mers": 7810,
      "oly": 7811,
      "pom": 7812,
      "taught": 7813,
      "vance": 7814,
      "online": 7815,
      "attor": 7816,
      "assum": 7817,
      "vegas": 7818,
      "poo": 7819,
      "poem": 7820,
      "nee": 7821,
      "agreed": 7822,
      "ollie": 7823,
      "astically": 7824,
      "cancel": 7825,
      "wrap": 7826,
      "monot": 7827,
      "pretending": 7828,
      "vibr": 7829,
      "visits": 7830,
      "letters": 7831,
      "capturing": 7832,
      "waited": 7833,
      "ruby": 7834,
      "lacklust": 7835,
      "bands": 7836,
      "namely": 7837,
      "prize": 7838,
      "wished": 7839,
      "retro": 7840,
      "paltrow": 7841,
      "photos": 7842,
      "1983": 7843,
      "signed": 7844,
      "halluc": 7845,
      "appropriately": 7846,
      "krist": 7847,
      "arguably": 7848,
      "montana": 7849,
      "shelley": 7850,
      "motivations": 7851,
      "____": 7852,
      "stooges": 7853,
      "tiresome": 7854,
      "adolescent": 7855,
      "attorney": 7856,
      "sest": 7857,
      "sappy": 7858,
      "aling": 7859,
      "behave": 7860,
      "amid": 7861,
      "liar": 7862,
      "wig": 7863,
      "holl": 7864,
      "connery": 7865,
      "dixon": 7866,
      "agents": 7867,
      "joined": 7868,
      "bela": 7869,
      "raising": 7870,
      "staring": 7871,
      "glim": 7872,
      "borough": 7873,
      "closest": 7874,
      "tember": 7875,
      "dana": 7876,
      "humble": 7877,
      "luci": 7878,
      "generated": 7879,
      "christians": 7880,
      "dys": 7881,
      "transition": 7882,
      "schlock": 7883,
      "buildings": 7884,
      "gangsters": 7885,
      "delivering": 7886,
      "vengeance": 7887,
      "combine": 7888,
      "miracle": 7889,
      "cleverly": 7890,
      "prophe": 7891,
      "aaaa": 7892,
      "incest": 7893,
      "grotes": 7894,
      "stevens": 7895,
      "employe": 7896,
      "civilization": 7897,
      "virginia": 7898,
      "nause": 7899,
      "jenny": 7900,
      "destroying": 7901,
      "crocodile": 7902,
      "carradine": 7903,
      "dump": 7904,
      "gers": 7905,
      "oting": 7906,
      "swallow": 7907,
      "ule": 7908,
      "issa": 7909,
      "chak": 7910,
      "subl": 7911,
      "antino": 7912,
      "quie": 7913,
      "grie": 7914,
      "bett": 7915,
      "wrapped": 7916,
      "matically": 7917,
      "obli": 7918,
      "visions": 7919,
      "nathan": 7920,
      "morrow": 7921,
      "elect": 7922,
      "couples": 7923,
      "airport": 7924,
      "airplane": 7925,
      "engross": 7926,
      "patric": 7927,
      "summar": 7928,
      "secretly": 7929,
      "climactic": 7930,
      "hunters": 7931,
      "scottish": 7932,
      "wolves": 7933,
      "1968": 7934,
      "accuracy": 7935,
      "rupted": 7936,
      "arrived": 7937,
      "industrial": 7938,
      "conflicts": 7939,
      "robinson": 7940,
      "jumped": 7941,
      "educated": 7942,
      "sirk": 7943,
      "abraham": 7944,
      "gentleman": 7945,
      "alcoholic": 7946,
      "june": 7947,
      "guarantee": 7948,
      "phillip": 7949,
      "paranoia": 7950,
      "elegant": 7951,
      "september": 7952,
      "valuable": 7953,
      "lundgren": 7954,
      "scrooge": 7955,
      "\"!": 7956,
      "ethan": 7957,
      "jod": 7958,
      "juni": 7959,
      "tank": 7960,
      "uity": 7961,
      "wret": 7962,
      "yell": 7963,
      "yelling": 7964,
      "eries": 7965,
      "molly": 7966,
      "abort": 7967,
      "sume": 7968,
      "trace": 7969,
      "exped": 7970,
      "exposure": 7971,
      "boli": 7972,
      "quin": 7973,
      "quent": 7974,
      "grind": 7975,
      "claust": 7976,
      "willis": 7977,
      "lowest": 7978,
      "marc": 7979,
      "cheated": 7980,
      "misery": 7981,
      "understated": 7982,
      "hello": 7983,
      "spock": 7984,
      "syl": 7985,
      "creator": 7986,
      "ridden": 7987,
      "promises": 7988,
      "annoy": 7989,
      "richardson": 7990,
      "frankenstein": 7991,
      "annah": 7992,
      "waitress": 7993,
      "catching": 7994,
      "kicking": 7995,
      "raymond": 7996,
      "austen": 7997,
      "1960s": 7998,
      "dimension": 7999,
      "witches": 8000,
      "beliefs": 8001,
      "witnesses": 8002,
      "itors": 8003,
      "correctly": 8004,
      "audition": 8005,
      "naught": 8006,
      "analysis": 8007,
      "nicholas": 8008,
      "poetry": 8009,
      "exploration": 8010,
      "parallel": 8011,
      "phrase": 8012,
      "robbery": 8013,
      "chicago": 8014,
      "cue": 8015,
      "duch": 8016,
      "gum": 8017,
      "lers": 8018,
      "plight": 8019,
      "rer": 8020,
      "sas": 8021,
      "sung": 8022,
      "remarks": 8023,
      "oured": 8024,
      "arian": 8025,
      "nod": 8026,
      "lift": 8027,
      "ropho": 8028,
      "abusive": 8029,
      "sue": 8030,
      "goo": 8031,
      "dose": 8032,
      "fem": 8033,
      "map": 8034,
      "traff": 8035,
      "preced": 8036,
      "protest": 8037,
      "indic": 8038,
      "firstly": 8039,
      "descent": 8040,
      "desired": 8041,
      "centers": 8042,
      "simplicity": 8043,
      "stark": 8044,
      "visiting": 8045,
      "lette": 8046,
      "sabr": 8047,
      "persons": 8048,
      "invasion": 8049,
      "spoke": 8050,
      "greedy": 8051,
      "messed": 8052,
      "ushi": 8053,
      "copies": 8054,
      "logically": 8055,
      "prompt": 8056,
      "rocky": 8057,
      "thorn": 8058,
      "richards": 8059,
      "bottle": 8060,
      "equival": 8061,
      "potentially": 8062,
      "catchy": 8063,
      "literature": 8064,
      "fields": 8065,
      "advise": 8066,
      "designs": 8067,
      "germans": 8068,
      "ceiving": 8069,
      "survived": 8070,
      "brutally": 8071,
      "tunnel": 8072,
      "responsibility": 8073,
      "progresses": 8074,
      "advertising": 8075,
      "spread": 8076,
      "nostalgia": 8077,
      "taxi": 8078,
      "stallone": 8079,
      "vulnerable": 8080,
      "tomatoes": 8081,
      "restored": 8082,
      "egypt": 8083,
      "junior": 8084,
      "claustropho": 8085,
      ":-": 8086,
      "egg": 8087,
      "hk": 8088,
      "kuro": 8089,
      "lens": 8090,
      "wrench": 8091,
      "wandering": 8092,
      "inappropriate": 8093,
      "incompetent": 8094,
      "reid": 8095,
      "recycl": 8096,
      "tos": 8097,
      "asto": 8098,
      "asia": 8099,
      "illegal": 8100,
      "seld": 8101,
      "bever": 8102,
      "rooney": 8103,
      "absent": 8104,
      "soder": 8105,
      "deer": 8106,
      "demented": 8107,
      "condem": 8108,
      "shre": 8109,
      "shield": 8110,
      "justin": 8111,
      "guitar": 8112,
      "showcase": 8113,
      "ptic": 8114,
      "marine": 8115,
      "rave": 8116,
      "ashley": 8117,
      "attitudes": 8118,
      "buzz": 8119,
      "farrell": 8120,
      "borg": 8121,
      "careful": 8122,
      "rows": 8123,
      "nails": 8124,
      "alongside": 8125,
      "casts": 8126,
      "depicts": 8127,
      "purchased": 8128,
      "operation": 8129,
      "louise": 8130,
      "hench": 8131,
      "frankie": 8132,
      "ritual": 8133,
      "experiments": 8134,
      "amounts": 8135,
      "recognition": 8136,
      "complexity": 8137,
      "issance": 8138,
      "lengthy": 8139,
      "eaten": 8140,
      "transc": 8141,
      "rendition": 8142,
      "chapter": 8143,
      "bacall": 8144,
      "vaguely": 8145,
      "advanced": 8146,
      "mclag": 8147,
      "aristocr": 8148,
      "legitim": 8149,
      "grotesque": 8150,
      "wretched": 8151,
      "3d": 8152,
      "mand": 8153,
      "pid": 8154,
      "rats": 8155,
      "tang": 8156,
      "yr": 8157,
      "reign": 8158,
      "tower": 8159,
      "edition": 8160,
      "ilight": 8161,
      "whack": 8162,
      "iceless": 8163,
      "detr": 8164,
      "mankind": 8165,
      "exhibit": 8166,
      "likewise": 8167,
      "boob": 8168,
      "betty": 8169,
      "drake": 8170,
      "horn": 8171,
      "carri": 8172,
      "smiling": 8173,
      "relatives": 8174,
      "polished": 8175,
      "gery": 8176,
      "twilight": 8177,
      "biased": 8178,
      "biko": 8179,
      "damon": 8180,
      "instinct": 8181,
      "opinions": 8182,
      "1973": 8183,
      "domestic": 8184,
      "floating": 8185,
      "petty": 8186,
      "prisoner": 8187,
      "prisoners": 8188,
      "terrorists": 8189,
      "arrival": 8190,
      "troops": 8191
    },
    "merges": [
      [
        "t",
        "h"
      ],
      [
        "i",
        "n"
      ],
      [
        "th",
        "e"
      ],
      [
        "a",
        "n"
      ],
      [
        "e",
        "r"
      ],
      [
        "i",
        "s"
      ],
      [
        "r",
        "e"
      ],
      [
        "o",
        "n"
      ],
      [
        "a",
        "t"
      ],
      [
        "e",
        "n"
      ],
      [
        "t",
        "o"
      ],
      [
        "o",
        "u"
      ],
      [
        "in",
        "g"
      ],
      [
        "e",
        "s"
      ],
      [
        "a",
        "l"
      ],
      [
        "i",
        "t"
      ],
      [
        "a",
        "s"
      ],
      [
        "an",
        "d"
      ],
      [
        "o",
        "r"
      ],
      [
        "a",
        "r"
      ],
      [
        "o",
        "f"
      ],
      [
        "e",
        "d"
      ],
      [
        "i",
        "l"
      ],
      [
        "s",
        "t"
      ],
      [
        "l",
        "y"
      ],
      [
        "c",
        "h"
      ],
      [
        "b",
        "r"
      ],
      [
        "l",
        "e"
      ],
      [
        "s",
        "e"
      ],
      [
        "o",
        "m"
      ],
      [
        "/",
        ">"
      ],
      [
        "b",
        "e"
      ],
      [
        "m",
        "o"
      ],
      [
        "w",
        "h"
      ],
      [
        "a",
        "c"
      ],
      [
        "i",
        "c"
      ],
      [
        "v",
        "e"
      ],
      [
        "th",
        "is"
      ],
      [
        "n",
        "o"
      ],
      [
        "i",
        "e"
      ],
      [
        "a",
        "d"
      ],
      [
        "th",
        "at"
      ],
      [
        "v",
        "er"
      ],
      [
        "u",
        "t"
      ],
      [
        "l",
        "o"
      ],
      [
        "en",
        "t"
      ],
      [
        "f",
        "or"
      ],
      [
        "h",
        "e"
      ],
      [
        "i",
        "m"
      ],
      [
        "i",
        "on"
      ],
      [
        "a",
        "y"
      ],
      [
        "t",
        "er"
      ],
      [
        "a",
        "m"
      ],
      [
        "g",
        "h"
      ],
      [
        "l",
        "i"
      ],
      [
        "mo",
        "v"
      ],
      [
        "w",
        "as"
      ],
      [
        "i",
        "d"
      ],
      [
        "u",
        "n"
      ],
      [
        "w",
        "i"
      ],
      [
        "f",
        "il"
      ],
      [
        "/>",
        "<"
      ],
      [
        "r",
        "o"
      ],
      [
        "fil",
        "m"
      ],
      [
        "k",
        "e"
      ],
      [
        "wi",
        "th"
      ],
      [
        "a",
        "b"
      ],
      [
        "e",
        "l"
      ],
      [
        "h",
        "o"
      ],
      [
        "on",
        "e"
      ],
      [
        "y",
        "ou"
      ],
      [
        "l",
        "d"
      ],
      [
        "h",
        "a"
      ],
      [
        "b",
        "ut"
      ],
      [
        "mov",
        "ie"
      ],
      [
        "i",
        "r"
      ],
      [
        "a",
        "re"
      ],
      [
        "g",
        "e"
      ],
      [
        "s",
        "u"
      ],
      [
        "ou",
        "t"
      ],
      [
        "r",
        "i"
      ],
      [
        "s",
        "o"
      ],
      [
        "g",
        "o"
      ],
      [
        ".",
        "<"
      ],
      [
        "p",
        "e"
      ],
      [
        "al",
        "l"
      ],
      [
        "d",
        "e"
      ],
      [
        "c",
        "e"
      ],
      [
        "c",
        "om"
      ],
      [
        "u",
        "l"
      ],
      [
        "no",
        "t"
      ],
      [
        "p",
        "o"
      ],
      [
        "d",
        "o"
      ],
      [
        "al",
        "ly"
      ],
      [
        "the",
        "r"
      ],
      [
        "f",
        "e"
      ],
      [
        "to",
        "r"
      ],
      [
        "h",
        "is"
      ],
      [
        "h",
        "er"
      ],
      [
        "t",
        "s"
      ],
      [
        "n",
        "e"
      ],
      [
        "s",
        "c"
      ],
      [
        "o",
        "d"
      ],
      [
        "m",
        "a"
      ],
      [
        "om",
        "e"
      ],
      [
        "t",
        "r"
      ],
      [
        "il",
        "l"
      ],
      [
        "m",
        "an"
      ],
      [
        "e",
        "x"
      ],
      [
        "a",
        "p"
      ],
      [
        "i",
        "f"
      ],
      [
        "ou",
        "ld"
      ],
      [
        "u",
        "s"
      ],
      [
        "u",
        "r"
      ],
      [
        "m",
        "e"
      ],
      [
        "ac",
        "t"
      ],
      [
        "ha",
        "ve"
      ],
      [
        "s",
        "ome"
      ],
      [
        ".",
        "."
      ],
      [
        "f",
        "r"
      ],
      [
        "u",
        "st"
      ],
      [
        "p",
        "er"
      ],
      [
        "wh",
        "o"
      ],
      [
        "p",
        "l"
      ],
      [
        "gh",
        "t"
      ],
      [
        "es",
        "t"
      ],
      [
        "w",
        "e"
      ],
      [
        "c",
        "t"
      ],
      [
        "en",
        "d"
      ],
      [
        "c",
        "on"
      ],
      [
        "es",
        "s"
      ],
      [
        "b",
        "y"
      ],
      [
        "ver",
        "y"
      ],
      [
        "th",
        "ing"
      ],
      [
        "a",
        "in"
      ],
      [
        "d",
        "i"
      ],
      [
        "the",
        "y"
      ],
      [
        "w",
        "or"
      ],
      [
        "a",
        "u"
      ],
      [
        "li",
        "ke"
      ],
      [
        "se",
        "e"
      ],
      [
        "er",
        "e"
      ],
      [
        "ho",
        "w"
      ],
      [
        "an",
        "t"
      ],
      [
        "el",
        "l"
      ],
      [
        "t",
        "im"
      ],
      [
        "a",
        "g"
      ],
      [
        "p",
        "le"
      ],
      [
        "fr",
        "om"
      ],
      [
        "t",
        "e"
      ],
      [
        "o",
        "k"
      ],
      [
        "ar",
        "t"
      ],
      [
        "ou",
        "s"
      ],
      [
        "b",
        "o"
      ],
      [
        "u",
        "p"
      ],
      [
        "the",
        "re"
      ],
      [
        "p",
        "re"
      ],
      [
        "q",
        "u"
      ],
      [
        "v",
        "en"
      ],
      [
        "p",
        "ro"
      ],
      [
        "o",
        "l"
      ],
      [
        "s",
        "h"
      ],
      [
        "i",
        "es"
      ],
      [
        "j",
        "ust"
      ],
      [
        "ch",
        "ar"
      ],
      [
        "as",
        "t"
      ],
      [
        "at",
        "ion"
      ],
      [
        "ac",
        "k"
      ],
      [
        "wh",
        "at"
      ],
      [
        "ou",
        "gh"
      ],
      [
        "m",
        "y"
      ],
      [
        "w",
        "ay"
      ],
      [
        "h",
        "as"
      ],
      [
        "ou",
        "n"
      ],
      [
        "in",
        "d"
      ],
      [
        "o",
        "ther"
      ],
      [
        "ab",
        "out"
      ],
      [
        "c",
        "an"
      ],
      [
        "at",
        "e"
      ],
      [
        "er",
        "s"
      ],
      [
        "at",
        "ch"
      ],
      [
        "an",
        "y"
      ],
      [
        "i",
        "ve"
      ],
      [
        "i",
        "g"
      ],
      [
        "is",
        "t"
      ],
      [
        "s",
        "he"
      ],
      [
        "go",
        "od"
      ],
      [
        "m",
        "ent"
      ],
      [
        "d",
        "er"
      ],
      [
        "mo",
        "re"
      ],
      [
        "ar",
        "d"
      ],
      [
        "tor",
        "y"
      ],
      [
        "c",
        "o"
      ],
      [
        "ge",
        "t"
      ],
      [
        "ac",
        "ter"
      ],
      [
        "char",
        "acter"
      ],
      [
        "w",
        "atch"
      ],
      [
        "no",
        "w"
      ],
      [
        "wh",
        "en"
      ],
      [
        "in",
        "e"
      ],
      [
        "i",
        "ch"
      ],
      [
        "u",
        "re"
      ],
      [
        "re",
        "at"
      ],
      [
        "g",
        "r"
      ],
      [
        "on",
        "g"
      ],
      [
        "j",
        "o"
      ],
      [
        "e",
        "ven"
      ],
      [
        "w",
        "ould"
      ],
      [
        "ab",
        "le"
      ],
      [
        "s",
        "s"
      ],
      [
        "it",
        "y"
      ],
      [
        "tim",
        "e"
      ],
      [
        "s",
        "p"
      ],
      [
        "it",
        "e"
      ],
      [
        "a",
        "k"
      ],
      [
        "s",
        "tory"
      ],
      [
        "w",
        "n"
      ],
      [
        "mo",
        "st"
      ],
      [
        "ou",
        "r"
      ],
      [
        "f",
        "ul"
      ],
      [
        "oun",
        "d"
      ],
      [
        "am",
        "e"
      ],
      [
        "u",
        "m"
      ],
      [
        "c",
        "l"
      ],
      [
        "g",
        "u"
      ],
      [
        "in",
        "t"
      ],
      [
        "c",
        "k"
      ],
      [
        "wh",
        "ich"
      ],
      [
        "on",
        "ly"
      ],
      [
        "t",
        "y"
      ],
      [
        "w",
        "o"
      ],
      [
        "y",
        "e"
      ],
      [
        "id",
        "e"
      ],
      [
        "w",
        "ell"
      ],
      [
        "re",
        "ally"
      ],
      [
        "h",
        "ad"
      ],
      [
        "a",
        "f"
      ],
      [
        "a",
        "w"
      ],
      [
        "i",
        "ght"
      ],
      [
        "it",
        "s"
      ],
      [
        "s",
        "how"
      ],
      [
        "th",
        "an"
      ],
      [
        "b",
        "le"
      ],
      [
        "the",
        "ir"
      ],
      [
        "sc",
        "en"
      ],
      [
        "u",
        "ch"
      ],
      [
        "w",
        "ere"
      ],
      [
        "p",
        "t"
      ],
      [
        "h",
        "im"
      ],
      [
        "lo",
        "t"
      ],
      [
        "pl",
        "ay"
      ],
      [
        "a",
        "v"
      ],
      [
        "ad",
        "e"
      ],
      [
        "f",
        "o"
      ],
      [
        "c",
        "r"
      ],
      [
        "se",
        "l"
      ],
      [
        "in",
        "k"
      ],
      [
        "d",
        "id"
      ],
      [
        "p",
        "r"
      ],
      [
        "o",
        "ver"
      ],
      [
        "do",
        "es"
      ],
      [
        "ic",
        "k"
      ],
      [
        "i",
        "ous"
      ],
      [
        "d",
        "on"
      ],
      [
        "e",
        "p"
      ],
      [
        "lo",
        "ok"
      ],
      [
        "it",
        "t"
      ],
      [
        "a",
        "ge"
      ],
      [
        "d",
        "is"
      ],
      [
        "g",
        "reat"
      ],
      [
        "b",
        "ad"
      ],
      [
        "c",
        "au"
      ],
      [
        "b",
        "l"
      ],
      [
        "be",
        "t"
      ],
      [
        "p",
        "p"
      ],
      [
        "ar",
        "s"
      ],
      [
        "w",
        "ill"
      ],
      [
        "en",
        "ce"
      ],
      [
        "of",
        "f"
      ],
      [
        "lo",
        "w"
      ],
      [
        "ic",
        "e"
      ],
      [
        "m",
        "uch"
      ],
      [
        "the",
        "m"
      ],
      [
        "as",
        "s"
      ],
      [
        "is",
        "h"
      ],
      [
        "f",
        "ir"
      ],
      [
        "cau",
        "se"
      ],
      [
        "c",
        "i"
      ],
      [
        "di",
        "re"
      ],
      [
        "pe",
        "o"
      ],
      [
        "c",
        "ould"
      ],
      [
        "e",
        "very"
      ],
      [
        "peo",
        "ple"
      ],
      [
        "k",
        "now"
      ],
      [
        "be",
        "en"
      ],
      [
        "re",
        "al"
      ],
      [
        "..",
        "."
      ],
      [
        "in",
        "to"
      ],
      [
        "al",
        "so"
      ],
      [
        "fir",
        "st"
      ],
      [
        "be",
        "cause"
      ],
      [
        "ma",
        "k"
      ],
      [
        "th",
        "ink"
      ],
      [
        "b",
        "er"
      ],
      [
        "u",
        "d"
      ],
      [
        "s",
        "er"
      ],
      [
        "ma",
        "ke"
      ],
      [
        "or",
        "t"
      ],
      [
        "v",
        "es"
      ],
      [
        "i",
        "re"
      ],
      [
        "f",
        "un"
      ],
      [
        "s",
        "on"
      ],
      [
        "m",
        "ade"
      ],
      [
        "w",
        "r"
      ],
      [
        "d",
        "r"
      ],
      [
        "the",
        "n"
      ],
      [
        "th",
        "r"
      ],
      [
        "to",
        "o"
      ],
      [
        "d",
        "u"
      ],
      [
        "af",
        "ter"
      ],
      [
        "wh",
        "ere"
      ],
      [
        "wor",
        "k"
      ],
      [
        "in",
        "ter"
      ],
      [
        "ac",
        "e"
      ],
      [
        "m",
        "ar"
      ],
      [
        "f",
        "a"
      ],
      [
        "sel",
        "f"
      ],
      [
        "il",
        "e"
      ],
      [
        "p",
        "art"
      ],
      [
        "st",
        "r"
      ],
      [
        "l",
        "l"
      ],
      [
        "mov",
        "ies"
      ],
      [
        "e",
        "ver"
      ],
      [
        "c",
        "re"
      ],
      [
        "s",
        "ay"
      ],
      [
        "see",
        "m"
      ],
      [
        "at",
        "ed"
      ],
      [
        "v",
        "ie"
      ],
      [
        "s",
        "pe"
      ],
      [
        "ic",
        "al"
      ],
      [
        "th",
        "ough"
      ],
      [
        "f",
        "l"
      ],
      [
        "a",
        "ch"
      ],
      [
        "p",
        "s"
      ],
      [
        "ac",
        "tor"
      ],
      [
        "f",
        "in"
      ],
      [
        "character",
        "s"
      ],
      [
        "vie",
        "w"
      ],
      [
        "re",
        "n"
      ],
      [
        "t",
        "ing"
      ],
      [
        "d",
        "es"
      ],
      [
        "b",
        "ack"
      ],
      [
        "t",
        "ain"
      ],
      [
        "lo",
        "ve"
      ],
      [
        "an",
        "ce"
      ],
      [
        "an",
        "s"
      ],
      [
        "l",
        "ess"
      ],
      [
        "li",
        "fe"
      ],
      [
        "v",
        "ing"
      ],
      [
        "t",
        "wo"
      ],
      [
        "man",
        "y"
      ],
      [
        "film",
        "s"
      ],
      [
        "h",
        "or"
      ],
      [
        "p",
        "lot"
      ],
      [
        "an",
        "g"
      ],
      [
        "act",
        "ing"
      ],
      [
        "n",
        "y"
      ],
      [
        "se",
        "en"
      ],
      [
        "m",
        "in"
      ],
      [
        "you",
        "r"
      ],
      [
        "ne",
        "ver"
      ],
      [
        "be",
        "ing"
      ],
      [
        "ar",
        "y"
      ],
      [
        "d",
        "ay"
      ],
      [
        "her",
        "e"
      ],
      [
        "s",
        "ho"
      ],
      [
        "t",
        "al"
      ],
      [
        "be",
        "l"
      ],
      [
        "c",
        "es"
      ],
      [
        "b",
        "est"
      ],
      [
        "m",
        "at"
      ],
      [
        "itt",
        "le"
      ],
      [
        "g",
        "i"
      ],
      [
        "l",
        "ittle"
      ],
      [
        ")",
        ","
      ],
      [
        "thr",
        "ough"
      ],
      [
        "t",
        "a"
      ],
      [
        ")",
        "."
      ],
      [
        "ct",
        "ion"
      ],
      [
        "c",
        "tor"
      ],
      [
        "ch",
        "e"
      ],
      [
        "ne",
        "w"
      ],
      [
        "t",
        "ur"
      ],
      [
        "re",
        "e"
      ],
      [
        "tr",
        "y"
      ],
      [
        "c",
        "ent"
      ],
      [
        "en",
        "s"
      ],
      [
        "m",
        "ay"
      ],
      [
        "po",
        "int"
      ],
      [
        "1",
        "9"
      ],
      [
        "i",
        "gh"
      ],
      [
        "m",
        "is"
      ],
      [
        "i",
        "z"
      ],
      [
        "il",
        "y"
      ],
      [
        "k",
        "ill"
      ],
      [
        "c",
        "ar"
      ],
      [
        "fo",
        "re"
      ],
      [
        "ic",
        "t"
      ],
      [
        "u",
        "ally"
      ],
      [
        "o",
        "se"
      ],
      [
        "v",
        "ed"
      ],
      [
        "wh",
        "ile"
      ],
      [
        "r",
        "a"
      ],
      [
        "f",
        "er"
      ],
      [
        "st",
        "ill"
      ],
      [
        "o",
        "t"
      ],
      [
        "bet",
        "ter"
      ],
      [
        "e",
        "f"
      ],
      [
        "am",
        "er"
      ],
      [
        "su",
        "r"
      ],
      [
        "g",
        "en"
      ],
      [
        "n",
        "ing"
      ],
      [
        "f",
        "ri"
      ],
      [
        "-",
        "-"
      ],
      [
        "tr",
        "u"
      ],
      [
        "w",
        "on"
      ],
      [
        "sh",
        "ould"
      ],
      [
        "per",
        "for"
      ],
      [
        "un",
        "der"
      ],
      [
        "a",
        "ve"
      ],
      [
        "o",
        "ld"
      ],
      [
        "ag",
        "ain"
      ],
      [
        "f",
        "ind"
      ],
      [
        "m",
        "on"
      ],
      [
        "scen",
        "e"
      ],
      [
        "the",
        "se"
      ],
      [
        "il",
        "d"
      ],
      [
        "c",
        "ast"
      ],
      [
        "re",
        "ad"
      ],
      [
        "as",
        "e"
      ],
      [
        "w",
        "ant"
      ],
      [
        "com",
        "e"
      ],
      [
        "st",
        "e"
      ],
      [
        "wh",
        "y"
      ],
      [
        "fe",
        "el"
      ],
      [
        "au",
        "gh"
      ],
      [
        "!",
        "!"
      ],
      [
        "o",
        "p"
      ],
      [
        "r",
        "y"
      ],
      [
        "p",
        "ar"
      ],
      [
        "s",
        "im"
      ],
      [
        "scen",
        "es"
      ],
      [
        "ver",
        "s"
      ],
      [
        "er",
        "tain"
      ],
      [
        "st",
        "and"
      ],
      [
        "ou",
        "ght"
      ],
      [
        "su",
        "ch"
      ],
      [
        "some",
        "thing"
      ],
      [
        "dire",
        "ctor"
      ],
      [
        "inter",
        "est"
      ],
      [
        "1",
        "0"
      ],
      [
        "ha",
        "pp"
      ],
      [
        "f",
        "am"
      ],
      [
        "ch",
        "o"
      ],
      [
        "l",
        "es"
      ],
      [
        "a",
        "z"
      ],
      [
        "a",
        "th"
      ],
      [
        "fri",
        "end"
      ],
      [
        "ir",
        "l"
      ],
      [
        "re",
        "d"
      ],
      [
        "e",
        "v"
      ],
      [
        "t",
        "ri"
      ],
      [
        "bel",
        "ie"
      ],
      [
        "is",
        "e"
      ],
      [
        "ab",
        "ly"
      ],
      [
        "g",
        "irl"
      ],
      [
        "i",
        "an"
      ],
      [
        "s",
        "to"
      ],
      [
        "p",
        "h"
      ],
      [
        "ion",
        "s"
      ],
      [
        "sc",
        "re"
      ],
      [
        "w",
        "om"
      ],
      [
        "e",
        "t"
      ],
      [
        "jo",
        "y"
      ],
      [
        "as",
        "on"
      ],
      [
        "at",
        "ing"
      ],
      [
        "m",
        "us"
      ],
      [
        "tur",
        "n"
      ],
      [
        "en",
        "se"
      ],
      [
        "perfor",
        "man"
      ],
      [
        "r",
        "or"
      ],
      [
        "do",
        "wn"
      ],
      [
        "go",
        "t"
      ],
      [
        "pre",
        "t"
      ],
      [
        "th",
        "ose"
      ],
      [
        "st",
        "ar"
      ],
      [
        "ar",
        "ly"
      ],
      [
        "in",
        "s"
      ],
      [
        "o",
        "b"
      ],
      [
        "watch",
        "ing"
      ],
      [
        "t",
        "ak"
      ],
      [
        "w",
        "ar"
      ],
      [
        "actor",
        "s"
      ],
      [
        "does",
        "n"
      ],
      [
        "fun",
        "ny"
      ],
      [
        "ye",
        "ars"
      ],
      [
        "b",
        "ig"
      ],
      [
        "po",
        "s"
      ],
      [
        "g",
        "l"
      ],
      [
        "tim",
        "es"
      ],
      [
        "com",
        "m"
      ],
      [
        "ent",
        "s"
      ],
      [
        "in",
        "al"
      ],
      [
        "i",
        "p"
      ],
      [
        "i",
        "al"
      ],
      [
        "me",
        "m"
      ],
      [
        "as",
        "h"
      ],
      [
        "n",
        "g"
      ],
      [
        "did",
        "n"
      ],
      [
        "be",
        "fore"
      ],
      [
        "gu",
        "y"
      ],
      [
        "en",
        "joy"
      ],
      [
        "l",
        "ong"
      ],
      [
        "e",
        "m"
      ],
      [
        "se",
        "t"
      ],
      [
        "an",
        "other"
      ],
      [
        "at",
        "t"
      ],
      [
        "you",
        "ng"
      ],
      [
        "com",
        "ed"
      ],
      [
        "no",
        "thing"
      ],
      [
        "v",
        "i"
      ],
      [
        "mak",
        "es"
      ],
      [
        "way",
        "s"
      ],
      [
        "b",
        "u"
      ],
      [
        "at",
        "er"
      ],
      [
        "act",
        "ually"
      ],
      [
        "o",
        "wn"
      ],
      [
        "h",
        "igh"
      ],
      [
        "go",
        "ing"
      ],
      [
        "pro",
        "du"
      ],
      [
        "or",
        "ig"
      ],
      [
        "v",
        "is"
      ],
      [
        "b",
        "it"
      ],
      [
        "wor",
        "ld"
      ],
      [
        "p",
        "ut"
      ],
      [
        "c",
        "ol"
      ],
      [
        "k",
        "ing"
      ],
      [
        "fe",
        "ct"
      ],
      [
        "h",
        "u"
      ],
      [
        "fe",
        "w"
      ],
      [
        "u",
        "al"
      ],
      [
        "s",
        "m"
      ],
      [
        "ri",
        "ght"
      ],
      [
        "ex",
        "c"
      ],
      [
        "act",
        "ion"
      ],
      [
        "s",
        "ame"
      ],
      [
        "le",
        "t"
      ],
      [
        "s",
        "a"
      ],
      [
        "d",
        "if"
      ],
      [
        "com",
        "es"
      ],
      [
        "ic",
        "ul"
      ],
      [
        "l",
        "augh"
      ],
      [
        "re",
[...]
