{
  "version": "1.0",
  "truncation": null,
  "padding": null,
  "added_tokens": [
    {
      "id": 0,
      "content": "[PAD]",
      "single_word": false,
      "lstrip": false,
      "rstrip": false,
      "normalized": false,
      "special": true
    },
    {
      "id": 1,
      "content": "[UNK]",
      "single_word": false,
      "lstrip": false,
      "rstrip": false,
      "normalized": false,
      "special": true
    },
    {
      "id": 2,
      "content": "[CLS]",
      "single_word": false,
      "lstrip": false,
      "rstrip": false,
      "normalized": false,
      "special": true
    },
    {
      "id": 3,
      "content": "[MASK], [SEP]",
      "single_word": false,
      "lstrip": false,
      "rstrip": false,
      "normalized": false,
      "special": true
    }
  ],
  "normalizer": {
    "type": "BertNormalizer",
    "clean_text": true,
    "handle_chinese_chars": true,
    "strip_accents": true,
    "lowercase": true
  },
  "pre_tokenizer": {
    "type": "Whitespace"
  },
  "post_processor": null,
  "decoder": null,
  "model": {
    "type": "BPE",
    "dropout": null,
    "unk_token": "[UNK]",
    "continuing_subword_prefix": null,
    "end_of_word_suffix": null,
    "fuse_unk": false,
    "byte_fallback": false,
    "ignore_merges": false,
    "vocab": {
      "[PAD]": 0,
      "[UNK]": 1,
      "[CLS]": 2,
      "[MASK], [SEP]": 3,
      "!": 4,
      "\"": 5,
      "#": 6,
      "$": 7,
      "%": 8,
      "&": 9,
      "'": 10,
      "(": 11,
      ")": 12,
      "*": 13,
      "+": 14,
      ",": 15,
      "-": 16,
      ".": 17,
      "/": 18,
      "0": 19,
      "1": 20,
      "2": 21,
      "3": 22,
      "4": 23,
      "5": 24,
      "6": 25,
      "7": 26,
      "8": 27,
      "9": 28,
      ":": 29,
      ";": 30,
      "<": 31,
      "=": 32,
      ">": 33,
      "?": 34,
      "@": 35,
      "[": 36,
      "\\": 37,
      "]": 38,
      "^": 39,
      "_": 40,
      "`": 41,
      "a": 42,
      "b": 43,
      "c": 44,
      "d": 45,
      "e": 46,
      "f": 47,
      "g": 48,
      "h": 49,
      "i": 50,
      "j": 51,
      "k": 52,
      "l": 53,
      "m": 54,
      "n": 55,
      "o": 56,
      "p": 57,
      "q": 58,
      "r": 59,
      "s": 60,
      "t": 61,
      "u": 62,
      "v": 63,
      "w": 64,
      "x": 65,
      "y": 66,
      "z": 67,
      "{": 68,
      "|": 69,
      "}": 70,
      "~": 71,
      "¡": 72,
      "¢": 73,
      "£": 74,
      "¤": 75,
      "¦": 76,
      "§": 77,
      "¨": 78,
      "«": 79,
      "®": 80,
      "°": 81,
      "³": 82,
      "´": 83,
      "·": 84,
      "º": 85,
      "»": 86,
      "½": 87,
      "¾": 88,
      "¿": 89,
      "ß": 90,
      "æ": 91,
      "ð": 92,
      "ø": 93,
      "–": 94,
      "‘": 95,
      "’": 96,
      "“": 97,
      "”": 98,
      "…": 99,
      "₤": 100,
      "th": 101,
      "in": 102,
      "the": 103,
      "an": 104,
      "er": 105,
      "is": 106,
      "re": 107,
      "on": 108,
      "at": 109,
      "en": 110,
      "to": 111,
      "ou": 112,
      "ing": 113,
      "es": 114,
      "al": 115,
      "it": 116,
      "as": 117,
      "and": 118,
      "or": 119,
      "ar": 120,
      "of": 121,
      "ed": 122,
      "il": 123,
      "st": 124,
      "ly": 125,
      "ch": 126,
      "br": 127,
      "le": 128,
      "se": 129,
      "om": 130,
      "/>": 131,
      "be": 132,
      "mo": 133,
      "wh": 134,
      "ac": 135,
      "ic": 136,
      "ve": 137,
      "this": 138,
      "no": 139,
      "ie": 140,
      "ad": 141,
      "that": 142,
      "ver": 143,
      "ut": 144,
      "lo": 145,
      "ent": 146,
      "for": 147,
      "he": 148,
      "im": 149,
      "ion": 150,
      "ay": 151,
      "ter": 152,
      "am": 153,
      "gh": 154,
      "li": 155,
      "mov": 156,
      "was": 157,
      "id": 158,
      "un": 159,
      "wi": 160,
      "fil": 161,
      "/><": 162,
      "ro": 163,
      "film": 164,
      "ke": 165,
      "with": 166,
      "ab": 167,
      "el": 168,
      "ho": 169,
      "one": 170,
      "you": 171,
      "ld": 172,
      "ha": 173,
      "but": 174,
      "movie": 175,
      "ir": 176,
      "are": 177,
      "ge": 178,
      "su": 179,
      "out": 180,
      "ri": 181,
      "so": 182,
      "go": 183,
      ".<": 184,
      "pe": 185,
      "all": 186,
      "de": 187,
      "ce": 188,
      "com": 189,
      "ul": 190,
      "not": 191,
      "po": 192,
      "do": 193,
      "ally": 194,
      "ther": 195,
      "fe": 196,
      "tor": 197,
      "his": 198,
      "her": 199,
      "ts": 200,
      "ne": 201,
      "sc": 202,
      "od": 203,
      "ma": 204,
      "ome": 205,
      "tr": 206,
      "ill": 207,
      "man": 208,
      "ex": 209,
      "ap": 210,
      "if": 211,
      "ould": 212,
      "us": 213,
      "ur": 214,
      "me": 215,
      "act": 216,
      "have": 217,
      "some": 218,
      "..": 219,
      "fr": 220,
      "ust": 221,
      "per": 222,
      "who": 223,
      "pl": 224,
      "ght": 225,
      "est": 226,
      "we": 227,
      "ct": 228,
      "end": 229,
      "con": 230,
      "ess": 231,
      "by": 232,
      "very": 233,
      "thing": 234,
      "ain": 235,
      "di": 236,
      "they": 237,
      "wor": 238,
      "au": 239,
      "like": 240,
      "see": 241,
      "ere": 242,
      "how": 243,
      "ant": 244,
      "ell": 245,
      "tim": 246,
      "ag": 247,
      "ple": 248,
      "from": 249,
      "te": 250,
      "ok": 251,
      "art": 252,
      "ous": 253,
      "bo": 254,
      "up": 255,
      "there": 256,
      "pre": 257,
      "qu": 258,
      "ven": 259,
      "pro": 260,
      "ol": 261,
      "sh": 262,
      "ies": 263,
      "just": 264,
      "char": 265,
      "ast": 266,
      "ation": 267,
      "ack": 268,
      "what": 269,
      "ough": 270,
      "my": 271,
      "way": 272,
      "has": 273,
      "oun": 274,
      "ind": 275,
      "other": 276,
      "about": 277,
      "can": 278,
      "ate": 279,
      "ers": 280,
      "atch": 281,
      "any": 282,
      "ive": 283,
      "ig": 284,
      "ist": 285,
      "she": 286,
      "good": 287,
      "ment": 288,
      "der": 289,
      "more": 290,
      "ard": 291,
      "tory": 292,
      "co": 293,
      "get": 294,
      "acter": 295,
      "character": 296,
      "watch": 297,
      "now": 298,
      "when": 299,
      "ine": 300,
      "ich": 301,
      "ure": 302,
      "reat": 303,
      "gr": 304,
      "ong": 305,
      "jo": 306,
      "even": 307,
      "would": 308,
      "able": 309,
      "ss": 310,
      "ity": 311,
      "time": 312,
      "sp": 313,
      "ite": 314,
      "ak": 315,
      "story": 316,
      "wn": 317,
      "most": 318,
      "our": 319,
      "ful": 320,
      "ound": 321,
      "ame": 322,
      "um": 323,
      "cl": 324,
      "gu": 325,
      "int": 326,
      "ck": 327,
      "which": 328,
      "only": 329,
      "ty": 330,
      "wo": 331,
      "ye": 332,
      "ide": 333,
      "well": 334,
      "really": 335,
      "had": 336,
      "af": 337,
      "aw": 338,
      "ight": 339,
      "its": 340,
      "show": 341,
      "than": 342,
      "ble": 343,
      "their": 344,
      "scen": 345,
      "uch": 346,
      "were": 347,
      "pt": 348,
      "him": 349,
      "lot": 350,
      "play": 351,
      "av": 352,
      "ade": 353,
      "fo": 354,
      "cr": 355,
      "sel": 356,
      "ink": 357,
      "did": 358,
      "pr": 359,
      "over": 360,
      "does": 361,
      "ick": 362,
      "ious": 363,
      "don": 364,
      "ep": 365,
      "look": 366,
      "itt": 367,
      "age": 368,
      "dis": 369,
      "great": 370,
      "bad": 371,
      "cau": 372,
      "bl": 373,
      "bet": 374,
      "pp": 375,
      "ars": 376,
      "will": 377,
      "ence": 378,
      "off": 379,
      "low": 380,
      "ice": 381,
      "much": 382,
      "them": 383,
      "ass": 384,
      "ish": 385,
      "fir": 386,
      "cause": 387,
      "ci": 388,
      "dire": 389,
      "peo": 390,
      "could": 391,
      "every": 392,
      "people": 393,
      "know": 394,
      "been": 395,
      "real": 396,
      "...": 397,
      "into": 398,
      "also": 399,
      "first": 400,
      "because": 401,
      "mak": 402,
      "think": 403,
      "ber": 404,
      "ud": 405,
      "ser": 406,
      "make": 407,
      "ort": 408,
      "ves": 409,
      "ire": 410,
      "fun": 411,
      "son": 412,
      "made": 413,
      "wr": 414,
      "dr": 415,
      "then": 416,
      "thr": 417,
      "too": 418,
      "du": 419,
      "after": 420,
      "where": 421,
      "work": 422,
      "inter": 423,
      "ace": 424,
      "mar": 425,
      "fa": 426,
      "self": 427,
      "ile": 428,
      "part": 429,
      "str": 430,
      "ll": 431,
      "movies": 432,
      "ever": 433,
      "cre": 434,
      "say": 435,
      "seem": 436,
      "ated": 437,
      "vie": 438,
      "spe": 439,
      "ical": 440,
      "though": 441,
      "fl": 442,
      "ach": 443,
      "ps": 444,
      "actor": 445,
      "fin": 446,
      "characters": 447,
      "view": 448,
      "ren": 449,
      "ting": 450,
      "des": 451,
      "back": 452,
      "tain": 453,
      "love": 454,
      "ance": 455,
      "ans": 456,
      "less": 457,
      "life": 458,
      "ving": 459,
      "two": 460,
      "many": 461,
      "films": 462,
      "hor": 463,
      "plot": 464,
      "ang": 465,
      "acting": 466,
      "ny": 467,
      "seen": 468,
      "min": 469,
      "your": 470,
      "never": 471,
      "being": 472,
      "ary": 473,
      "day": 474,
      "here": 475,
      "sho": 476,
      "tal": 477,
      "bel": 478,
      "ces": 479,
      "best": 480,
      "mat": 481,
      "ittle": 482,
      "gi": 483,
      "little": 484,
      "),": 485,
      "through": 486,
      "ta": 487,
      ").": 488,
      "ction": 489,
      "ctor": 490,
      "che": 491,
      "new": 492,
      "tur": 493,
      "ree": 494,
      "try": 495,
      "cent": 496,
      "ens": 497,
      "may": 498,
      "point": 499,
      "19": 500,
      "igh": 501,
      "mis": 502,
      "iz": 503,
      "ily": 504,
      "kill": 505,
      "car": 506,
      "fore": 507,
      "ict": 508,
      "ually": 509,
      "ose": 510,
      "ved": 511,
      "while": 512,
      "ra": 513,
      "fer": 514,
      "still": 515,
      "ot": 516,
      "better": 517,
      "ef": 518,
      "amer": 519,
      "sur": 520,
      "gen": 521,
      "ning": 522,
      "fri": 523,
      "--": 524,
      "tru": 525,
      "won": 526,
      "should": 527,
      "perfor": 528,
      "under": 529,
      "ave": 530,
      "old": 531,
      "again": 532,
      "find": 533,
      "mon": 534,
      "scene": 535,
      "these": 536,
      "ild": 537,
      "cast": 538,
      "read": 539,
      "ase": 540,
      "want": 541,
      "come": 542,
      "ste": 543,
      "why": 544,
      "feel": 545,
      "augh": 546,
      "!!": 547,
      "op": 548,
      "ry": 549,
      "par": 550,
      "sim": 551,
      "scenes": 552,
      "vers": 553,
      "ertain": 554,
      "stand": 555,
      "ought": 556,
      "such": 557,
      "something": 558,
      "director": 559,
      "interest": 560,
      "10": 561,
      "happ": 562,
      "fam": 563,
      "cho": 564,
      "les": 565,
      "az": 566,
      "ath": 567,
      "friend": 568,
      "irl": 569,
      "red": 570,
      "ev": 571,
      "tri": 572,
      "belie": 573,
      "ise": 574,
      "ably": 575,
      "girl": 576,
      "ian": 577,
      "sto": 578,
      "ph": 579,
      "ions": 580,
      "scre": 581,
      "wom": 582,
      "et": 583,
      "joy": 584,
      "ason": 585,
      "ating": 586,
      "mus": 587,
      "turn": 588,
      "ense": 589,
      "performan": 590,
      "ror": 591,
      "down": 592,
      "got": 593,
      "pret": 594,
      "those": 595,
      "star": 596,
      "arly": 597,
      "ins": 598,
      "ob": 599,
      "watching": 600,
      "tak": 601,
      "war": 602,
      "actors": 603,
      "doesn": 604,
      "funny": 605,
      "years": 606,
      "big": 607,
      "pos": 608,
      "gl": 609,
      "times": 610,
      "comm": 611,
      "ents": 612,
      "inal": 613,
      "ip": 614,
      "ial": 615,
      "mem": 616,
      "ash": 617,
      "ng": 618,
      "didn": 619,
      "before": 620,
      "guy": 621,
      "enjoy": 622,
      "long": 623,
      "em": 624,
      "set": 625,
      "another": 626,
      "att": 627,
      "young": 628,
      "comed": 629,
      "nothing": 630,
      "vi": 631,
      "makes": 632,
      "ways": 633,
      "bu": 634,
      "ater": 635,
      "actually": 636,
      "own": 637,
      "high": 638,
      "going": 639,
      "produ": 640,
      "orig": 641,
      "vis": 642,
      "bit": 643,
      "world": 644,
      "put": 645,
      "col": 646,
      "king": 647,
      "fect": 648,
      "hu": 649,
      "few": 650,
      "ual": 651,
      "sm": 652,
      "right": 653,
      "exc": 654,
      "action": 655,
      "same": 656,
      "let": 657,
      "sa": 658,
      "dif": 659,
      "comes": 660,
      "icul": 661,
      "laugh": 662,
      "rel": 663,
      "hard": 664,
      "cor": 665,
      "je": 666,
      "wood": 667,
      "far": 668,
      "appe": 669,
      "light": 670,
      "sin": 671,
      "sub": 672,
      "cts": 673,
      "sing": 674,
      "cle": 675,
      "**": 676,
      "ted": 677,
      "ute": 678,
      "bor": 679,
      "por": 680,
      "pect": 681,
      "screen": 682,
      "horror": 683,
      "quite": 684,
      "comple": 685,
      "original": 686,
      "things": 687,
      "kid": 688,
      "ween": 689,
      "need": 690,
      "pretty": 691,
      "fact": 692,
      "ia": 693,
      "ress": 694,
      "writ": 695,
      "pa": 696,
      "around": 697,
      "person": 698,
      "seems": 699,
      "hel": 700,
      "mind": 701,
      "thought": 702,
      "sure": 703,
      "ript": 704,
      "wonder": 705,
      "ks": 706,
      "ten": 707,
      "aut": 708,
      "take": 709,
      "howe": 710,
      "ner": 711,
      "inv": 712,
      "however": 713,
      "beg": 714,
      "give": 715,
      "kind": 716,
      "tell": 717,
      "cial": 718,
      "bas": 719,
      "ster": 720,
      "cept": 721,
      "cont": 722,
      "enough": 723,
      "ically": 724,
      "saw": 725,
      "fort": 726,
      "pare": 727,
      "series": 728,
      "gets": 729,
      "both": 730,
      "class": 731,
      "sex": 732,
      "ody": 733,
      "interesting": 734,
      "between": 735,
      "americ": 736,
      "cour": 737,
      "ward": 738,
      "care": 739,
      "press": 740,
      "ately": 741,
      "script": 742,
      "must": 743,
      "hand": 744,
      "ness": 745,
      "vel": 746,
      "main": 747,
      "ations": 748,
      "clo": 749,
      "child": 750,
      "mom": 751,
      "worth": 752,
      "beaut": 753,
      "boy": 754,
      "expect": 755,
      "ced": 756,
      "without": 757,
      "done": 758,
      "cine": 759,
      "cess": 760,
      "form": 761,
      "comedy": 762,
      "used": 763,
      "reason": 764,
      "grap": 765,
      "add": 766,
      "always": 767,
      "ending": 768,
      "music": 769,
      "call": 770,
      "family": 771,
      "line": 772,
      "isn": 773,
      "role": 774,
      "lead": 775,
      "night": 776,
      "vious": 777,
      "bar": 778,
      "last": 779,
      "illi": 780,
      "ale": 781,
      "row": 782,
      "hy": 783,
      "almost": 784,
      "mas": 785,
      "book": 786,
      "pol": 787,
      "\",": 788,
      "sequ": 789,
      "cap": 790,
      "least": 791,
      "ouse": 792,
      "tem": 793,
      "led": 794,
      "wer": 795,
      "whole": 796,
      "making": 797,
      "ger": 798,
      "utes": 799,
      "ff": 800,
      "head": 801,
      "start": 802,
      "might": 803,
      "sound": 804,
      "ings": 805,
      "alo": 806,
      "coun": 807,
      "sid": 808,
      "ue": 809,
      "val": 810,
      "vo": 811,
      "use": 812,
      "away": 813,
      "run": 814,
      "differ": 815,
      "prob": 816,
      "spo": 817,
      "lin": 818,
      "na": 819,
      "mot": 820,
      "ying": 821,
      "minutes": 822,
      "woman": 823,
      "complete": 824,
      "anything": 825,
      "lly": 826,
      "ible": 827,
      "yes": 828,
      "tv": 829,
      "super": 830,
      "pie": 831,
      "sent": 832,
      "audi": 833,
      "since": 834,
      "espe": 835,
      "ane": 836,
      "hal": 837,
      "med": 838,
      "performance": 839,
      "blo": 840,
      "joh": 841,
      "sy": 842,
      "chr": 843,
      "fol": 844,
      "00": 845,
      "stu": 846,
      "ms": 847,
      "sol": 848,
      "ature": 849,
      "probably": 850,
      "men": 851,
      "ign": 852,
      "ug": 853,
      "entertain": 854,
      "dec": 855,
      "rible": 856,
      "cond": 857,
      "yet": 858,
      "mean": 859,
      "tit": 860,
      "bre": 861,
      "tw": 862,
      "iful": 863,
      "land": 864,
      "poss": 865,
      "came": 866,
      "den": 867,
      "john": 868,
      "ional": 869,
      "ton": 870,
      "house": 871,
      "poor": 872,
      "dram": 873,
      "wal": 874,
      "rather": 875,
      "found": 876,
      "worst": 877,
      "played": 878,
      "cially": 879,
      "oney": 880,
      "ange": 881,
      "\".": 882,
      "pris": 883,
      "ked": 884,
      "place": 885,
      "unt": 886,
      "ark": 887,
      "ments": 888,
      "top": 889,
      "uring": 890,
      "epis": 891,
      "sl": 892,
      "dan": 893,
      "ult": 894,
      "cut": 895,
      "anyone": 896,
      "mer": 897,
      "cu": 898,
      "sense": 899,
      "ped": 900,
      "beautiful": 901,
      "mur": 902,
      "tre": 903,
      "rest": 904,
      "having": 905,
      "cur": 906,
      "har": 907,
      "each": 908,
      "ative": 909,
      "mor": 910,
      "anim": 911,
      "dialo": 912,
      "happen": 913,
      "hum": 914,
      "ft": 915,
      "course": 916,
      "body": 917,
      "although": 918,
      "especially": 919,
      "bud": 920,
      "keep": 921,
      "side": 922,
      "believe": 923,
      "looking": 924,
      "lu": 925,
      "second": 926,
      "job": 927,
      "father": 928,
      "pict": 929,
      "nor": 930,
      "different": 931,
      "trying": 932,
      "direct": 933,
      "dv": 934,
      "goes": 935,
      "year": 936,
      "black": 937,
      ".\"": 938,
      "imp": 939,
      "istic": 940,
      "peri": 941,
      "looks": 942,
      "dvd": 943,
      "ither": 944,
      "fall": 945,
      "human": 946,
      "ney": 947,
      "fan": 948,
      "sup": 949,
      "plays": 950,
      "member": 951,
      "fully": 952,
      "true": 953,
      "creat": 954,
      "money": 955,
      "posed": 956,
      "proble": 957,
      "commend": 958,
      "imag": 959,
      "toge": 960,
      "together": 961,
      "ingly": 962,
      "maybe": 963,
      "once": 964,
      "someone": 965,
      "ele": 966,
      "wasn": 967,
      "certain": 968,
      "vin": 969,
      "miss": 970,
      "ics": 971,
      "stead": 972,
      "everything": 973,
      "nice": 974,
      "usu": 975,
      "half": 976,
      "shows": 977,
      "ear": 978,
      "follow": 979,
      "three": 980,
      "fects": 981,
      "perfect": 982,
      "american": 983,
      "fav": 984,
      "vide": 985,
      "pul": 986,
      "rom": 987,
      "amp": 988,
      "ond": 989,
      "sty": 990,
      "fel": 991,
      "recommend": 992,
      "bly": 993,
      "ca": 994,
      "dead": 995,
      "watched": 996,
      "version": 997,
      "sit": 998,
      "death": 999,
      "bur": 1000,
      "rele": 1001,
      "obvious": 1002,
      "later": 1003,
      "special": 1004,
      "takes": 1005,
      "plain": 1006,
      "ants": 1007,
      "everyone": 1008,
      "la": 1009,
      "plo": 1010,
      "wife": 1011,
      "iting": 1012,
      "io": 1013,
      "effects": 1014,
      "sha": 1015,
      "ality": 1016,
      "said": 1017,
      "paren": 1018,
      "audience": 1019,
      "spect": 1020,
      "cy": 1021,
      "wa": 1022,
      "understand": 1023,
      "instead": 1024,
      "excell": 1025,
      "gre": 1026,
      "review": 1027,
      "ank": 1028,
      "ni": 1029,
      "ru": 1030,
      "ilar": 1031,
      "word": 1032,
      "piece": 1033,
      "hour": 1034,
      "rid": 1035,
      "cou": 1036,
      "short": 1037,
      "shot": 1038,
      "ates": 1039,
      "himself": 1040,
      "mi": 1041,
      "else": 1042,
      "que": 1043,
      "others": 1044,
      "simp": 1045,
      "help": 1046,
      "left": 1047,
      "gy": 1048,
      "incl": 1049,
      "ism": 1050,
      "ship": 1051,
      "ames": 1052,
      "gener": 1053,
      "sk": 1054,
      "excellent": 1055,
      "during": 1056,
      "gue": 1057,
      "begin": 1058,
      "als": 1059,
      "tray": 1060,
      "camer": 1061,
      "heart": 1062,
      "seeing": 1063,
      "ences": 1064,
      "cer": 1065,
      "llywood": 1066,
      "defin": 1067,
      "fre": 1068,
      "hero": 1069,
      "pass": 1070,
      "itch": 1071,
      "eas": 1072,
      "home": 1073,
      "ah": 1074,
      "entire": 1075,
      "ling": 1076,
      "idea": 1077,
      "face": 1078,
      "serious": 1079,
      "ross": 1080,
      "ned": 1081,
      "remember": 1082,
      "fortun": 1083,
      "ited": 1084,
      "invol": 1085,
      "0s": 1086,
      "....": 1087,
      "ters": 1088,
      "cal": 1089,
      "ists": 1090,
      "cing": 1091,
      "dre": 1092,
      "stup": 1093,
      "production": 1094,
      "picture": 1095,
      "ition": 1096,
      "omb": 1097,
      "using": 1098,
      "ired": 1099,
      "ore": 1100,
      "simply": 1101,
      "given": 1102,
      "fair": 1103,
      "suc": 1104,
      "sil": 1105,
      "stupid": 1106,
      "song": 1107,
      "win": 1108,
      "friends": 1109,
      "ird": 1110,
      "sci": 1111,
      "disap": 1112,
      "attem": 1113,
      "air": 1114,
      "hollywood": 1115,
      "lack": 1116,
      "video": 1117,
      "xt": 1118,
      "pport": 1119,
      "vic": 1120,
      "wrong": 1121,
      "dou": 1122,
      "ject": 1123,
      "sad": 1124,
      "full": 1125,
      "portray": 1126,
      "dark": 1127,
      "open": 1128,
      "mess": 1129,
      "sat": 1130,
      "num": 1131,
      "budget": 1132,
      "completely": 1133,
      "ons": 1134,
      "along": 1135,
      "supposed": 1136,
      "disappoint": 1137,
      "ones": 1138,
      "ends": 1139,
      "either": 1140,
      "absol": 1141,
      "except": 1142,
      "scho": 1143,
      "kids": 1144,
      "band": 1145,
      "consid": 1146,
      "mother": 1147,
      "dri": 1148,
      "fight": 1149,
      "school": 1150,
      "absolute": 1151,
      "boring": 1152,
      "classic": 1153,
      "amaz": 1154,
      "women": 1155,
      "bro": 1156,
      "small": 1157,
      "sul": 1158,
      "performances": 1159,
      "particul": 1160,
      "cus": 1161,
      "pain": 1162,
      "fail": 1163,
      "mid": 1164,
      "tic": 1165,
      "consider": 1166,
      "itten": 1167,
      "camera": 1168,
      "surpris": 1169,
      "awful": 1170,
      "ries": 1171,
      "lig": 1172,
      "until": 1173,
      "ident": 1174,
      "comp": 1175,
      "power": 1176,
      "exam": 1177,
      "ley": 1178,
      "live": 1179,
      "graphy": 1180,
      "fi": 1181,
      "viol": 1182,
      "cas": 1183,
      "vent": 1184,
      "emot": 1185,
      "murder": 1186,
      "ler": 1187,
      "truly": 1188,
      "stars": 1189,
      "eng": 1190,
      "ready": 1191,
      "christ": 1192,
      "velo": 1193,
      "name": 1194,
      "favor": 1195,
      "jack": 1196,
      "case": 1197,
      "mich": 1198,
      "god": 1199,
      "cover": 1200,
      "couple": 1201,
      "present": 1202,
      "next": 1203,
      "tra": 1204,
      "tom": 1205,
      "mr": 1206,
      "haps": 1207,
      "typ": 1208,
      "hope": 1209,
      "mag": 1210,
      "playing": 1211,
      "definite": 1212,
      "ode": 1213,
      "cli": 1214,
      "fant": 1215,
      "sever": 1216,
      "ming": 1217,
      "dy": 1218,
      "perhaps": 1219,
      "getting": 1220,
      "gar": 1221,
      "develo": 1222,
      "ors": 1223,
      "slow": 1224,
      "ities": 1225,
      "feature": 1226,
      "flick": 1227,
      "moments": 1228,
      "written": 1229,
      "deser": 1230,
      "episode": 1231,
      "wonderful": 1232,
      "sort": 1233,
      "ides": 1234,
      "quest": 1235,
      "room": 1236,
      "lines": 1237,
      "bed": 1238,
      "includ": 1239,
      "terrible": 1240,
      "bert": 1241,
      "dist": 1242,
      "ory": 1243,
      "uni": 1244,
      "often": 1245,
      "doing": 1246,
      "loved": 1247,
      "style": 1248,
      "ush": 1249,
      "iness": 1250,
      "spir": 1251,
      "humor": 1252,
      "male": 1253,
      "strong": 1254,
      "town": 1255,
      "ring": 1256,
      "ize": 1257,
      "early": 1258,
      "felt": 1259,
      "cop": 1260,
      "non": 1261,
      "drama": 1262,
      "oh": 1263,
      "mention": 1264,
      "liked": 1265,
      "gives": 1266,
      "deli": 1267,
      "ital": 1268,
      "ility": 1269,
      "actress": 1270,
      "unch": 1271,
      "mark": 1272,
      "plan": 1273,
      "cinemat": 1274,
      "definitely": 1275,
      "dav": 1276,
      "talent": 1277,
      "ased": 1278,
      "brilli": 1279,
      "unfortun": 1280,
      "master": 1281,
      "impress": 1282,
      "experi": 1283,
      "guess": 1284,
      "break": 1285,
      "aged": 1286,
      "oc": 1287,
      "itself": 1288,
      "turns": 1289,
      "appear": 1290,
      "lost": 1291,
      "ese": 1292,
      "pri": 1293,
      "coming": 1294,
      "leg": 1295,
      "reg": 1296,
      "ages": 1297,
      "become": 1298,
      "dialogue": 1299,
      "children": 1300,
      "crim": 1301,
      "finally": 1302,
      "log": 1303,
      "cinema": 1304,
      "white": 1305,
      "desp": 1306,
      "gun": 1307,
      "credi": 1308,
      ",\"": 1309,
      "hon": 1310,
      "title": 1311,
      "close": 1312,
      "list": 1313,
      "thrill": 1314,
      "tly": 1315,
      "couldn": 1316,
      "extre": 1317,
      "dep": 1318,
      "wish": 1319,
      "possible": 1320,
      "ier": 1321,
      "ith": 1322,
      "fine": 1323,
      "went": 1324,
      "pu": 1325,
      "van": 1326,
      "blood": 1327,
      "direction": 1328,
      "absolutely": 1329,
      "evil": 1330,
      "against": 1331,
      "fac": 1332,
      "ground": 1333,
      "waste": 1334,
      "worse": 1335,
      "certainly": 1336,
      "psy": 1337,
      "killer": 1338,
      "called": 1339,
      "conf": 1340,
      "problem": 1341,
      "ael": 1342,
      "entertaining": 1343,
      "sis": 1344,
      "brilliant": 1345,
      "pur": 1346,
      "teen": 1347,
      "overall": 1348,
      "ben": 1349,
      "ball": 1350,
      "ended": 1351,
      "cred": 1352,
      "based": 1353,
      "sor": 1354,
      "tern": 1355,
      "fans": 1356,
      "os": 1357,
      "relation": 1358,
      "hit": 1359,
      "spoil": 1360,
      "tries": 1361,
      "beginning": 1362,
      "lear": 1363,
      "extreme": 1364,
      "myster": 1365,
      "ann": 1366,
      "several": 1367,
      "success": 1368,
      "lives": 1369,
      "known": 1370,
      "ized": 1371,
      "lad": 1372,
      "nam": 1373,
      "support": 1374,
      "prom": 1375,
      "sou": 1376,
      "track": 1377,
      "works": 1378,
      "hind": 1379,
      "vable": 1380,
      "dict": 1381,
      "gg": 1382,
      "ues": 1383,
      "die": 1384,
      "ention": 1385,
      "pat": 1386,
      "nat": 1387,
      "writer": 1388,
      "lar": 1389,
      "genre": 1390,
      "already": 1391,
      "selves": 1392,
      "michael": 1393,
      "mal": 1394,
      "becomes": 1395,
      "effect": 1396,
      "wanted": 1397,
      "engl": 1398,
      "example": 1399,
      "arch": 1400,
      "vision": 1401,
      "ture": 1402,
      "days": 1403,
      "despite": 1404,
      "seemed": 1405,
      "jor": 1406,
      "zomb": 1407,
      "throughout": 1408,
      "ude": 1409,
      "sum": 1410,
      "key": 1411,
      "dream": 1412,
      "tent": 1413,
      "touch": 1414,
      "past": 1415,
      "unfortunately": 1416,
      "vill": 1417,
      "writing": 1418,
      "ief": 1419,
      "mentary": 1420,
      "attempt": 1421,
      "daugh": 1422,
      "crap": 1423,
      "tech": 1424,
      "rif": 1425,
      "ific": 1426,
      "game": 1427,
      "final": 1428,
      "susp": 1429,
      "history": 1430,
      "adm": 1431,
      "hold": 1432,
      "tot": 1433,
      "quality": 1434,
      "pick": 1435,
      "200": 1436,
      "amazing": 1437,
      "rock": 1438,
      "anno": 1439,
      "crit": 1440,
      "vir": 1441,
      "type": 1442,
      "foot": 1443,
      "scar": 1444,
      "bi": 1445,
      "allow": 1446,
      "indi": 1447,
      "guys": 1448,
      "ided": 1449,
      "totally": 1450,
      "convin": 1451,
      "soon": 1452,
      "bus": 1453,
      "aim": 1454,
      "iv": 1455,
      "atic": 1456,
      "und": 1457,
      "deal": 1458,
      "colle": 1459,
      "stay": 1460,
      "wants": 1461,
      "si": 1462,
      "behind": 1463,
      ").<": 1464,
      "wise": 1465,
      "usual": 1466,
      "explo": 1467,
      "viewer": 1468,
      "aring": 1469,
      "ino": 1470,
      "antic": 1471,
      "pho": 1472,
      "late": 1473,
      "girls": 1474,
      "fig": 1475,
      "city": 1476,
      "stuff": 1477,
      "ull": 1478,
      "orge": 1479,
      "rating": 1480,
      "sle": 1481,
      "prof": 1482,
      "novel": 1483,
      "docu": 1484,
      "parts": 1485,
      "bb": 1486,
      "enjoyed": 1487,
      "contin": 1488,
      "import": 1489,
      "today": 1490,
      "mil": 1491,
      "trans": 1492,
      "unk": 1493,
      "mad": 1494,
      "ket": 1495,
      "intel": 1496,
      "ek": 1497,
      "eyes": 1498,
      "none": 1499,
      "hop": 1500,
      "favorite": 1501,
      "ding": 1502,
      "step": 1503,
      "apparen": 1504,
      "!<": 1505,
      "dam": 1506,
      "ord": 1507,
      "hot": 1508,
      "police": 1509,
      "speak": 1510,
      "starts": 1511,
      "gave": 1512,
      "sometimes": 1513,
      "directed": 1514,
      "etc": 1515,
      "??": 1516,
      "level": 1517,
      "swe": 1518,
      "ali": 1519,
      "del": 1520,
      "arr": 1521,
      "horrible": 1522,
      "event": 1523,
      "bal": 1524,
      "ris": 1525,
      "incredi": 1526,
      "grou": 1527,
      "moment": 1528,
      "ow": 1529,
      "vol": 1530,
      "situ": 1531,
      "exact": 1532,
      "thinking": 1533,
      "ches": 1534,
      "chang": 1535,
      "themselves": 1536,
      "decent": 1537,
      "stories": 1538,
      "ham": 1539,
      "ried": 1540,
      "pay": 1541,
      "figure": 1542,
      "ago": 1543,
      "predict": 1544,
      "major": 1545,
      "mc": 1546,
      "sw": 1547,
      "voice": 1548,
      "musical": 1549,
      "daughter": 1550,
      "hilar": 1551,
      "killed": 1552,
      "leav": 1553,
      "obviously": 1554,
      "brit": 1555,
      "matter": 1556,
      "cult": 1557,
      "feeling": 1558,
      "ination": 1559,
      "pose": 1560,
      "score": 1561,
      "law": 1562,
      "rent": 1563,
      "cinemato": 1564,
      "highly": 1565,
      "myself": 1566,
      "believable": 1567,
      "hus": 1568,
      "mill": 1569,
      "stud": 1570,
      "fron": 1571,
      "anger": 1572,
      "brother": 1573,
      "hell": 1574,
      "four": 1575,
      "inst": 1576,
      "heard": 1577,
      "roll": 1578,
      "paul": 1579,
      "looked": 1580,
      "stop": 1581,
      "aren": 1582,
      "taking": 1583,
      "weak": 1584,
      "ridicul": 1585,
      "order": 1586,
      "graph": 1587,
      ".)": 1588,
      "tail": 1589,
      "bring": 1590,
      "check": 1591,
      "appro": 1592,
      "tele": 1593,
      "umb": 1594,
      "move": 1595,
      "ery": 1596,
      "anyway": 1597,
      "strange": 1598,
      "explain": 1599,
      "gn": 1600,
      "jok": 1601,
      "oper": 1602,
      "var": 1603,
      "avo": 1604,
      "roles": 1605,
      "took": 1606,
      "says": 1607,
      "james": 1608,
      "lee": 1609,
      "leave": 1610,
      "free": 1611,
      "desc": 1612,
      "husband": 1613,
      "bers": 1614,
      "mart": 1615,
      "living": 1616,
      "antly": 1617,
      "fut": 1618,
      "uses": 1619,
      "rated": 1620,
      "polit": 1621,
      "cannot": 1622,
      "ridiculous": 1623,
      "cool": 1624,
      "dev": 1625,
      "violence": 1626,
      "astic": 1627,
      "ker": 1628,
      "ail": 1629,
      "recent": 1630,
      "told": 1631,
      "sav": 1632,
      "whe": 1633,
      "ished": 1634,
      "shock": 1635,
      "ared": 1636,
      "forget": 1637,
      "ake": 1638,
      "happens": 1639,
      "involved": 1640,
      "particularly": 1641,
      "lan": 1642,
      "season": 1643,
      "ys": 1644,
      "happened": 1645,
      "ret": 1646,
      "experience": 1647,
      "chance": 1648,
      "gore": 1649,
      "makers": 1650,
      "extremely": 1651,
      "dest": 1652,
      "lou": 1653,
      "wouldn": 1654,
      "moder": 1655,
      "opin": 1656,
      "alone": 1657,
      "res": 1658,
      "ards": 1659,
      "bab": 1660,
      "tract": 1661,
      "happy": 1662,
      "honest": 1663,
      "hilarious": 1664,
      "fire": 1665,
      "thor": 1666,
      "ints": 1667,
      "change": 1668,
      "david": 1669,
      "resul": 1670,
      "chard": 1671,
      "country": 1672,
      "including": 1673,
      "group": 1674,
      "dle": 1675,
      "please": 1676,
      "turned": 1677,
      "memor": 1678,
      "natur": 1679,
      "deep": 1680,
      "bat": 1681,
      "sym": 1682,
      "cheap": 1683,
      "sequel": 1684,
      "itive": 1685,
      "jap": 1686,
      "quick": 1687,
      "hen": 1688,
      "mist": 1689,
      "simple": 1690,
      "stree": 1691,
      "expected": 1692,
      "ung": 1693,
      "develop": 1694,
      "sn": 1695,
      "pleas": 1696,
      "doub": 1697,
      "annoying": 1698,
      "wit": 1699,
      "usually": 1700,
      "stra": 1701,
      "cost": 1702,
      "cat": 1703,
      "richard": 1704,
      "dog": 1705,
      "illiam": 1706,
      "beat": 1707,
      "...<": 1708,
      "pal": 1709,
      "urb": 1710,
      "save": 1711,
      "stru": 1712,
      "fast": 1713,
      "earth": 1714,
      "english": 1715,
      "photo": 1716,
      "oo": 1717,
      "number": 1718,
      "ls": 1719,
      "japan": 1720,
      "lik": 1721,
      "career": 1722,
      "fur": 1723,
      "frank": 1724,
      "realistic": 1725,
      "huge": 1726,
      "near": 1727,
      "similar": 1728,
      "ied": 1729,
      "ax": 1730,
      "dro": 1731,
      "seriously": 1732,
      "ances": 1733,
      "treat": 1734,
      "secre": 1735,
      "rip": 1736,
      "taken": 1737,
      "jud": 1738,
      "scary": 1739,
      "reality": 1740,
      "running": 1741,
      "eye": 1742,
      "apart": 1743,
      "clear": 1744,
      "released": 1745,
      "exactly": 1746,
      "ky": 1747,
      "lie": 1748,
      "wes": 1749,
      "shown": 1750,
      "azy": 1751,
      "modern": 1752,
      "ational": 1753,
      "198": 1754,
      "20": 1755,
      "box": 1756,
      "yourself": 1757,
      "whose": 1758,
      "cinematography": 1759,
      "hours": 1760,
      "wards": 1761,
      "pped": 1762,
      "opening": 1763,
      "across": 1764,
      "jokes": 1765,
      "hear": 1766,
      "shots": 1767,
      "learn": 1768,
      "rench": 1769,
      "197": 1770,
      "sch": 1771,
      "episod": 1772,
      "ator": 1773,
      "team": 1774,
      "hom": 1775,
      "sam": 1776,
      "gold": 1777,
      "relationship": 1778,
      "opinion": 1779,
      "somewhat": 1780,
      "typical": 1781,
      "william": 1782,
      "build": 1783,
      "started": 1784,
      "ral": 1785,
      "words": 1786,
      "straight": 1787,
      "ili": 1788,
      "bey": 1789,
      "sen": 1790,
      "itting": 1791,
      "villain": 1792,
      "abo": 1793,
      "exist": 1794,
      "middle": 1795,
      "pres": 1796,
      "possi": 1797,
      "talking": 1798,
      "lit": 1799,
      "mee": 1800,
      "iety": 1801,
      "enty": 1802,
      "plac": 1803,
      "documentary": 1804,
      "robert": 1805,
      "important": 1806,
      "plic": 1807,
      "due": 1808,
      "odd": 1809,
      "finds": 1810,
      "bill": 1811,
      "among": 1812,
      "dom": 1813,
      "pac": 1814,
      "ina": 1815,
      "sold": 1816,
      "female": 1817,
      "saying": 1818,
      "famous": 1819,
      "mostly": 1820,
      "sign": 1821,
      "episodes": 1822,
      "comment": 1823,
      "ju": 1824,
      "loc": 1825,
      "appre": 1826,
      "predictable": 1827,
      "tle": 1828,
      "suspense": 1829,
      "five": 1830,
      "gan": 1831,
      "rob": 1832,
      "bot": 1833,
      "ines": 1834,
      "respect": 1835,
      "ield": 1836,
      "roy": 1837,
      "rap": 1838,
      "tar": 1839,
      "stick": 1840,
      "single": 1841,
      "sequence": 1842,
      "publ": 1843,
      "talk": 1844,
      "batt": 1845,
      "yor": 1846,
      "space": 1847,
      "popul": 1848,
      "prov": 1849,
      "intellig": 1850,
      "ken": 1851,
      "appears": 1852,
      "apparently": 1853,
      "disappointed": 1854,
      "camp": 1855,
      "ref": 1856,
      "necess": 1857,
      "local": 1858,
      "remind": 1859,
      "future": 1860,
      "events": 1861,
      "dialog": 1862,
      "atmo": 1863,
      "sets": 1864,
      "!\"": 1865,
      "avoid": 1866,
      "comic": 1867,
      "songs": 1868,
      "atmosp": 1869,
      "hi": 1870,
      "attention": 1871,
      "basically": 1872,
      "equ": 1873,
      "utter": 1874,
      "creep": 1875,
      "giving": 1876,
      "!!!!": 1877,
      "television": 1878,
      "romantic": 1879,
      "uro": 1880,
      "ump": 1881,
      "knows": 1882,
      "falls": 1883,
      "british": 1884,
      "gang": 1885,
      "199": 1886,
      "lady": 1887,
      "supporting": 1888,
      "clearly": 1889,
      "knew": 1890,
      "front": 1891,
      "thriller": 1892,
      "sexual": 1893,
      "stage": 1894,
      "compare": 1895,
      "easily": 1896,
      "points": 1897,
      "match": 1898,
      "eless": 1899,
      "question": 1900,
      "ised": 1901,
      "silly": 1902,
      "****": 1903,
      "tells": 1904,
      "problems": 1905,
      "hood": 1906,
      "suck": 1907,
      "grand": 1908,
      "diff": 1909,
      "detail": 1910,
      "shi": 1911,
      "andy": 1912,
      "moving": 1913,
      "acy": 1914,
      "ext": 1915,
      "ctive": 1916,
      "cru": 1917,
      "mary": 1918,
      "chris": 1919,
      "agon": 1920,
      "entertainment": 1921,
      "ask": 1922,
      "ford": 1923,
      "ined": 1924,
      "flo": 1925,
      "aver": 1926,
      "appreci": 1927,
      "erial": 1928,
      "ently": 1929,
      "upon": 1930,
      "train": 1931,
      "asy": 1932,
      "george": 1933,
      "anna": 1934,
      "attack": 1935,
      "beyond": 1936,
      "ba": 1937,
      "ost": 1938,
      "post": 1939,
      "effort": 1940,
      "rad": 1941,
      "thetic": 1942,
      "oscar": 1943,
      "ures": 1944,
      "narr": 1945,
      "ze": 1946,
      "unlike": 1947,
      "const": 1948,
      "prise": 1949,
      "usion": 1950,
      "lim": 1951,
      "state": 1952,
      "soc": 1953,
      "whether": 1954,
      "water": 1955,
      "zz": 1956,
      "ability": 1957,
      "ultim": 1958,
      "theat": 1959,
      "easy": 1960,
      "claim": 1961,
      "hate": 1962,
      "sequences": 1963,
      "twist": 1964,
      "dull": 1965,
      "mel": 1966,
      "pping": 1967,
      "carto": 1968,
      "mystery": 1969,
      "search": 1970,
      "material": 1971,
      "afr": 1972,
      "ged": 1973,
      "wait": 1974,
      "fly": 1975,
      "intro": 1976,
      "cident": 1977,
      "enjoyable": 1978,
      "named": 1979,
      "period": 1980,
      "difficul": 1981,
      "ana": 1982,
      "adap": 1983,
      "joe": 1984,
      "needs": 1985,
      "setting": 1986,
      "york": 1987,
      "throw": 1988,
      "lies": 1989,
      "deed": 1990,
      "bes": 1991,
      "fest": 1992,
      "previous": 1993,
      "working": 1994,
      "studi": 1995,
      "dden": 1996,
      "jer": 1997,
      "within": 1998,
      "trou": 1999,
      "app": 2000,
      "actual": 2001,
      "french": 2002,
      "kept": 2003,
      "subject": 2004,
      "met": 2005,
      "message": 2006,
      "theater": 2007,
      "ott": 2008,
      "sister": 2009,
      "ension": 2010,
      "telling": 2011,
      "animation": 2012,
      "advent": 2013,
      "tale": 2014,
      "ony": 2015,
      "rich": 2016,
      "ceed": 2017,
      "concer": 2018,
      "prin": 2019,
      "port": 2020,
      "arely": 2021,
      "above": 2022,
      "bunch": 2023,
      "ses": 2024,
      "flash": 2025,
      "peter": 2026,
      "victim": 2027,
      "theme": 2028,
      "haven": 2029,
      "mise": 2030,
      "lon": 2031,
      "lots": 2032,
      "nearly": 2033,
      "doubt": 2034,
      "herself": 2035,
      "flaw": 2036,
      "personal": 2037,
      "feels": 2038,
      "iel": 2039,
      "net": 2040,
      "truth": 2041,
      "jim": 2042,
      "release": 2043,
      "note": 2044,
      "lat": 2045,
      "path": 2046,
      "clim": 2047,
      "slight": 2048,
      "storyline": 2049,
      "visual": 2050,
      "surprised": 2051,
      "western": 2052,
      "parents": 2053,
      "fantastic": 2054,
      "round": 2055,
      "pet": 2056,
      "public": 2057,
      "sun": 2058,
      "kills": 2059,
      "third": 2060,
      "mach": 2061,
      "capture": 2062,
      "begins": 2063,
      "dramatic": 2064,
      "count": 2065,
      "ution": 2066,
      "rown": 2067,
      "da": 2068,
      "fas": 2069,
      "potent": 2070,
      "drug": 2071,
      "minute": 2072,
      "inno": 2073,
      "agree": 2074,
      "gone": 2075,
      "nature": 2076,
      "50": 2077,
      "sudden": 2078,
      "reve": 2079,
      "ica": 2080,
      "shoo": 2081,
      "rus": 2082,
      "viewers": 2083,
      "large": 2084,
      "bs": 2085,
      "buy": 2086,
      "general": 2087,
      "issu": 2088,
      "forward": 2089,
      "30": 2090,
      "elements": 2091,
      "iment": 2092,
      "dance": 2093,
      "comments": 2094,
      "disney": 2095,
      "ered": 2096,
      "express": 2097,
      "soundtrack": 2098,
      "profess": 2099,
      "tried": 2100,
      "?<": 2101,
      "editing": 2102,
      "showing": 2103,
      "',": 2104,
      "contro": 2105,
      "difficult": 2106,
      "bul": 2107,
      "sugg": 2108,
      "catch": 2109,
      "thy": 2110,
      "viewing": 2111,
      "sorry": 2112,
      "tori": 2113,
      "brain": 2114,
      "baby": 2115,
      "decided": 2116,
      "mix": 2117,
      "secret": 2118,
      "filmed": 2119,
      "!)": 2120,
      "ga": 2121,
      "pts": 2122,
      "rit": 2123,
      "natural": 2124,
      "means": 2125,
      "pathetic": 2126,
      "contain": 2127,
      "grow": 2128,
      "ening": 2129,
      "exe": 2130,
      "paris": 2131,
      "kick": 2132,
      "crime": 2133,
      "vamp": 2134,
      "conne": 2135,
      "flu": 2136,
      "lame": 2137,
      "rate": 2138,
      "demon": 2139,
      "somehow": 2140,
      "writers": 2141,
      "meaning": 2142,
      "lier": 2143,
      "heav": 2144,
      "psycho": 2145,
      "bil": 2146,
      "ously": 2147,
      "repe": 2148,
      "leads": 2149,
      "lect": 2150,
      "zombie": 2151,
      "pure": 2152,
      "street": 2153,
      "weird": 2154,
      "business": 2155,
      "greatest": 2156,
      "resp": 2157,
      "ii": 2158,
      "ially": 2159,
      "appeal": 2160,
      "atmosphere": 2161,
      "brought": 2162,
      "introdu": 2163,
      "fict": 2164,
      "hur": 2165,
      "hol": 2166,
      "acted": 2167,
      "deliver": 2168,
      "imagine": 2169,
      "ives": 2170,
      "week": 2171,
      "liter": 2172,
      "shame": 2173,
      "whatever": 2174,
      "serv": 2175,
      "fit": 2176,
      "ray": 2177,
      "accent": 2178,
      "possibly": 2179,
      "ular": 2180,
      "hun": 2181,
      "particular": 2182,
      "america": 2183,
      "descri": 2184,
      "!!!": 2185,
      "fred": 2186,
      "accept": 2187,
      "ghost": 2188,
      "gest": 2189,
      "revol": 2190,
      "venge": 2191,
      "convincing": 2192,
      "average": 2193,
      "field": 2194,
      "stun": 2195,
      "prison": 2196,
      "indeed": 2197,
      "background": 2198,
      "angel": 2199,
      "eventually": 2200,
      "otic": 2201,
      "standing": 2202,
      "reviews": 2203,
      "spirit": 2204,
      "ights": 2205,
      "db": 2206,
      "ering": 2207,
      "surprise": 2208,
      "japanese": 2209,
      "wall": 2210,
      "okay": 2211,
      "teach": 2212,
      "poorly": 2213,
      "ior": 2214,
      "premise": 2215,
      "rific": 2216,
      "unity": 2217,
      "chees": 2218,
      "write": 2219,
      "jane": 2220,
      "strug": 2221,
      "medi": 2222,
      "ury": 2223,
      "luck": 2224,
      "berg": 2225,
      "ram": 2226,
      "doctor": 2227,
      "exper": 2228,
      "pen": 2229,
      "imdb": 2230,
      "ban": 2231,
      "ched": 2232,
      "forced": 2233,
      "leading": 2234,
      "focus": 2235,
      "reading": 2236,
      "effective": 2237,
      "aust": 2238,
      "fresh": 2239,
      "sleep": 2240,
      "mentioned": 2241,
      "logical": 2242,
      "became": 2243,
      "scream": 2244,
      "aid": 2245,
      "concl": 2246,
      "euro": 2247,
      "screenplay": 2248,
      "uck": 2249,
      "killing": 2250,
      "romance": 2251,
      "?\"": 2252,
      "jour": 2253,
      "needed": 2254,
      "further": 2255,
      "gay": 2256,
      "cons": 2257,
      "'.": 2258,
      "phil": 2259,
      "scott": 2260,
      "thank": 2261,
      "hair": 2262,
      "fran": 2263,
      "aging": 2264,
      "interested": 2265,
      "sed": 2266,
      "casting": 2267,
      "leaves": 2268,
      "han": 2269,
      "reco": 2270,
      "adv": 2271,
      "amoun": 2272,
      "ffer": 2273,
      "len": 2274,
      "mass": 2275,
      "ub": 2276,
      "trad": 2277,
      "fasc": 2278,
      "memorable": 2279,
      "vampire": 2280,
      "ging": 2281,
      "barr": 2282,
      "mac": 2283,
      "flat": 2284,
      "emotional": 2285,
      "meets": 2286,
      "sick": 2287,
      "credits": 2288,
      "society": 2289,
      "unless": 2290,
      "directors": 2291,
      "bored": 2292,
      "sal": 2293,
      "dress": 2294,
      "refer": 2295,
      "boys": 2296,
      "superb": 2297,
      "comb": 2298,
      "trash": 2299,
      "otherwise": 2300,
      "situation": 2301,
      "battle": 2302,
      "pan": 2303,
      "design": 2304,
      "meant": 2305,
      "meet": 2306,
      "mir": 2307,
      "popular": 2308,
      "dumb": 2309,
      "ran": 2310,
      "monster": 2311,
      "emotion": 2312,
      "unique": 2313,
      "ugh": 2314,
      "vid": 2315,
      "badly": 2316,
      "clever": 2317,
      "earlier": 2318,
      "plus": 2319,
      "fu": 2320,
      "total": 2321,
      "stal": 2322,
      "era": 2323,
      "worked": 2324,
      "crazy": 2325,
      "laughs": 2326,
      "sweet": 2327,
      "social": 2328,
      "older": 2329,
      "green": 2330,
      "discover": 2331,
      "execut": 2332,
      "beauty": 2333,
      "rede": 2334,
      "realize": 2335,
      "80": 2336,
      "cers": 2337,
      "gotten": 2338,
      "walk": 2339,
      "fantasy": 2340,
      "cul": 2341,
      "wol": 2342,
      "stere": 2343,
      "sens": 2344,
      "footage": 2345,
      "ager": 2346,
      "create": 2347,
      "rac": 2348,
      "neg": 2349,
      "stereo": 2350,
      "whom": 2351,
      "sounds": 2352,
      "directing": 2353,
      "development": 2354,
      "thus": 2355,
      "features": 2356,
      "keeps": 2357,
      "satis": 2358,
      "result": 2359,
      "adapt": 2360,
      "ka": 2361,
      "nud": 2362,
      "196": 2363,
      "hands": 2364,
      "perfectly": 2365,
      "quickly": 2366,
      "emp": 2367,
      "creepy": 2368,
      "recogn": 2369,
      "wil": 2370,
      "ising": 2371,
      "towards": 2372,
      "girlfriend": 2373,
      "broad": 2374,
      "cro": 2375,
      "aven": 2376,
      "cir": 2377,
      "san": 2378,
      "suffer": 2379,
      "board": 2380,
      "cheesy": 2381,
      "ko": 2382,
      "test": 2383,
      "brings": 2384,
      "science": 2385,
      "ats": 2386,
      "attract": 2387,
      "plenty": 2388,
      "christmas": 2389,
      "necessary": 2390,
      "rand": 2391,
      "stre": 2392,
      "lock": 2393,
      "aked": 2394,
      "occas": 2395,
      "incredibly": 2396,
      "acts": 2397,
      "techn": 2398,
      "cartoon": 2399,
      "ron": 2400,
      "awn": 2401,
      "sar": 2402,
      "suggest": 2403,
      "joke": 2404,
      "scient": 2405,
      "return": 2406,
      "allen": 2407,
      "anti": 2408,
      "famili": 2409,
      "ges": 2410,
      "/>\"": 2411,
      "lyn": 2412,
      "fighting": 2413,
      "admit": 2414,
      "?)": 2415,
      "dim": 2416,
      "imm": 2417,
      "desper": 2418,
      "powerful": 2419,
      "hill": 2420,
      "suit": 2421,
      "potential": 2422,
      "wers": 2423,
      "ague": 2424,
      "german": 2425,
      "fairly": 2426,
      "cute": 2427,
      "familiar": 2428,
      "cape": 2429,
      "copy": 2430,
      "political": 2431,
      "fat": 2432,
      "talented": 2433,
      "stri": 2434,
      "concept": 2435,
      "cry": 2436,
      "offic": 2437,
      "hardly": 2438,
      "masterpiece": 2439,
      "aste": 2440,
      "dies": 2441,
      "ders": 2442,
      "spl": 2443,
      "members": 2444,
      "py": 2445,
      "ns": 2446,
      "fear": 2447,
      "various": 2448,
      "ghts": 2449,
      "fails": 2450,
      "langu": 2451,
      "sem": 2452,
      "histor": 2453,
      "prim": 2454,
      "married": 2455,
      "drag": 2456,
      "color": 2457,
      "portrayed": 2458,
      "193": 2459,
      "island": 2460,
      "cold": 2461,
      "inside": 2462,
      "gram": 2463,
      "missing": 2464,
      "ric": 2465,
      "ero": 2466,
      "outside": 2467,
      "regard": 2468,
      "nudity": 2469,
      "ians": 2470,
      "vil": 2471,
      "filled": 2472,
      "shad": 2473,
      "crew": 2474,
      "reasons": 2475,
      "logy": 2476,
      "force": 2477,
      "trave": 2478,
      "ideas": 2479,
      "apped": 2480,
      "positive": 2481,
      "wel": 2482,
      "wild": 2483,
      "relig": 2484,
      "store": 2485,
      "company": 2486,
      "expecting": 2487,
      "deserves": 2488,
      "trail": 2489,
      "ices": 2490,
      "base": 2491,
      "ki": 2492,
      "table": 2493,
      "achie": 2494,
      "former": 2495,
      "ient": 2496,
      "missed": 2497,
      "embarr": 2498,
      "sky": 2499,
      "15": 2500,
      "biz": 2501,
      "wro": 2502,
      "ths": 2503,
      "remake": 2504,
      "iet": 2505,
      "cei": 2506,
      "manages": 2507,
      "194": 2508,
      "attempts": 2509,
      "spoilers": 2510,
      "ti": 2511,
      "za": 2512,
      "road": 2513,
      "invest": 2514,
      "doll": 2515,
      "embarrass": 2516,
      "wrote": 2517,
      "dete": 2518,
      "wind": 2519,
      "elling": 2520,
      "draw": 2521,
      "recently": 2522,
      "amount": 2523,
      "recor": 2524,
      "lid": 2525,
      "phys": 2526,
      "90": 2527,
      "insp": 2528,
      "gover": 2529,
      "sadly": 2530,
      "dad": 2531,
      "danger": 2532,
      "onic": 2533,
      "sess": 2534,
      "reveal": 2535,
      "gor": 2536,
      "ival": 2537,
      "rain": 2538,
      "\")": 2539,
      "gress": 2540,
      "accident": 2541,
      "ula": 2542,
      "west": 2543,
      "produced": 2544,
      "office": 2545,
      "sell": 2546,
      "thur": 2547,
      "asher": 2548,
      "reach": 2549,
      "filmmakers": 2550,
      "itted": 2551,
      "created": 2552,
      "following": 2553,
      "wart": 2554,
      "ded": 2555,
      "smo": 2556,
      "scare": 2557,
      "impressive": 2558,
      "incredible": 2559,
      "brief": 2560,
      "wasted": 2561,
      "common": 2562,
      "195": 2563,
      "annel": 2564,
      "accur": 2565,
      "wash": 2566,
      "cted": 2567,
      "hid": 2568,
      "project": 2569,
      "bility": 2570,
      "glo": 2571,
      "national": 2572,
      "pace": 2573,
      "ws": 2574,
      "escape": 2575,
      "brothers": 2576,
      "subtle": 2577,
      "europe": 2578,
      "mes": 2579,
      "intri": 2580,
      "passion": 2581,
      "credit": 2582,
      "revenge": 2583,
      "caught": 2584,
      "survi": 2585,
      "successful": 2586,
      "glad": 2587,
      "faith": 2588,
      "fash": 2589,
      "approach": 2590,
      "ius": 2591,
      "witch": 2592,
      "intelligent": 2593,
      "wed": 2594,
      "immedi": 2595,
      "comput": 2596,
      "party": 2597,
      "ordin": 2598,
      "rup": 2599,
      "channel": 2600,
      "complex": 2601,
      "waiting": 2602,
      "mere": 2603,
      "cross": 2604,
      "iff": 2605,
      "disturb": 2606,
      "(\"": 2607,
      "arre": 2608,
      "moves": 2609,
      "decides": 2610,
      "considering": 2611,
      "tes": 2612,
      "chase": 2613,
      "door": 2614,
      "dancing": 2615,
      "tension": 2616,
      "magic": 2617,
      "ai": 2618,
      "sand": 2619,
      "smith": 2620,
      "ships": 2621,
      "sees": 2622,
      "def": 2623,
      "delight": 2624,
      "pointless": 2625,
      "slightly": 2626,
      "esome": 2627,
      "slasher": 2628,
      "spent": 2629,
      "maker": 2630,
      "tough": 2631,
      "contri": 2632,
      "exciting": 2633,
      "compared": 2634,
      "suddenly": 2635,
      "neither": 2636,
      "extra": 2637,
      "funni": 2638,
      "lor": 2639,
      "worthy": 2640,
      "kar": 2641,
      "solid": 2642,
      "pack": 2643,
      "entirely": 2644,
      "six": 2645,
      "language": 2646,
      "actions": 2647,
      "choice": 2648,
      "italian": 2649,
      "gory": 2650,
      "andre": 2651,
      "compe": 2652,
      "mou": 2653,
      "century": 2654,
      "laughing": 2655,
      "trouble": 2656,
      "terror": 2657,
      "spot": 2658,
      "dar": 2659,
      "requ": 2660,
      "bling": 2661,
      "culture": 2662,
      "terri": 2663,
      "manner": 2664,
      "basic": 2665,
      "value": 2666,
      "animated": 2667,
      "bizarre": 2668,
      "bru": 2669,
      "tony": 2670,
      "itation": 2671,
      "violent": 2672,
      "heavy": 2673,
      "inform": 2674,
      "continu": 2675,
      "hang": 2676,
      "chur": 2677,
      "ultimately": 2678,
      "izing": 2679,
      "singing": 2680,
      "presented": 2681,
      "adventure": 2682,
      "tone": 2683,
      "zombies": 2684,
      "bon": 2685,
      "arri": 2686,
      "died": 2687,
      "studio": 2688,
      "ensive": 2689,
      "books": 2690,
      "pieces": 2691,
      "depend": 2692,
      "psych": 2693,
      "genu": 2694,
      "biggest": 2695,
      "runs": 2696,
      "adult": 2697,
      "spend": 2698,
      "shooting": 2699,
      "control": 2700,
      "squ": 2701,
      "depth": 2702,
      "critic": 2703,
      "bust": 2704,
      "amusing": 2705,
      "types": 2706,
      "hall": 2707,
      "lam": 2708,
      "ples": 2709,
      "fashion": 2710,
      "lab": 2711,
      "brut": 2712,
      "akes": 2713,
      "portrayal": 2714,
      "planet": 2715,
      "nom": 2716,
      "ults": 2717,
      "club": 2718,
      "appreciate": 2719,
      "genuine": 2720,
      "crow": 2721,
      "gle": 2722,
      "milit": 2723,
      "alien": 2724,
      "date": 2725,
      "gent": 2726,
      "stan": 2727,
      "hey": 2728,
      "pract": 2729,
      "criminal": 2730,
      "taste": 2731,
      "lets": 2732,
      "grade": 2733,
      "finish": 2734,
      "answer": 2735,
      "bomb": 2736,
      "nic": 2737,
      "uc": 2738,
      "younger": 2739,
      "changed": 2740,
      "iss": 2741,
      "chan": 2742,
      "proper": 2743,
      "awesome": 2744,
      "south": 2745,
      "born": 2746,
      "fascin": 2747,
      "opport": 2748,
      "enn": 2749,
      "appearance": 2750,
      "aside": 2751,
      "stone": 2752,
      "trip": 2753,
      "follows": 2754,
      "alex": 2755,
      "adam": 2756,
      "legend": 2757,
      "dem": 2758,
      "depress": 2759,
      "favour": 2760,
      "college": 2761,
      "impossible": 2762,
      "craf": 2763,
      "bond": 2764,
      "noir": 2765,
      "haun": 2766,
      "mistry": 2767,
      "ises": 2768,
      "ald": 2769,
      "rog": 2770,
      "fool": 2771,
      "carry": 2772,
      "ateur": 2773,
      "remark": 2774,
      "aster": 2775,
      "depict": 2776,
      "contr": 2777,
      "chemistry": 2778,
      "producers": 2779,
      "weren": 2780,
      "recommended": 2781,
      "ener": 2782,
      "thanks": 2783,
      "conclusion": 2784,
      "bage": 2785,
      "ened": 2786,
      "showed": 2787,
      "dir": 2788,
      "amateur": 2789,
      "ella": 2790,
      "starring": 2791,
      "obsess": 2792,
      "exception": 2793,
      "redeem": 2794,
      "sion": 2795,
      "rema": 2796,
      "shar": 2797,
      "considered": 2798,
      "situations": 2799,
      "million": 2800,
      "govern": 2801,
      "cam": 2802,
      "ites": 2803,
      "iced": 2804,
      "normal": 2805,
      "iers": 2806,
      "100": 2807,
      "disturbing": 2808,
      "complain": 2809,
      "steve": 2810,
      "involving": 2811,
      "barely": 2812,
      "somewhere": 2813,
      "author": 2814,
      "boss": 2815,
      "minor": 2816,
      "failed": 2817,
      "surprisingly": 2818,
      "developed": 2819,
      "sters": 2820,
      "ican": 2821,
      "decide": 2822,
      "leaving": 2823,
      "loud": 2824,
      "wolf": 2825,
      "assu": 2826,
      "bother": 2827,
      "pictures": 2828,
      "purpose": 2829,
      "grad": 2830,
      "added": 2831,
      "questions": 2832,
      "fiction": 2833,
      "essent": 2834,
      "longer": 2835,
      "gas": 2836,
      "fox": 2837,
      "bles": 2838,
      "likes": 2839,
      "computer": 2840,
      "program": 2841,
      "audiences": 2842,
      "blow": 2843,
      "enter": 2844,
      "fake": 2845,
      "consist": 2846,
      "dick": 2847,
      "rect": 2848,
      "neigh": 2849,
      "yed": 2850,
      "mood": 2851,
      "turning": 2852,
      "nie": 2853,
      "pil": 2854,
      "arthur": 2855,
      "prove": 2856,
      "charming": 2857,
      "counter": 2858,
      "images": 2859,
      "shoot": 2860,
      "appeared": 2861,
      "drive": 2862,
      "inspired": 2863,
      "gust": 2864,
      "bear": 2865,
      "grant": 2866,
      "values": 2867,
      "harry": 2868,
      "aus": 2869,
      "fell": 2870,
      "award": 2871,
      "stewart": 2872,
      "generally": 2873,
      "literally": 2874,
      "stunning": 2875,
      "lay": 2876,
      "leng": 2877,
      "load": 2878,
      "aper": 2879,
      "yeah": 2880,
      "curi": 2881,
      "london": 2882,
      "journey": 2883,
      "jef": 2884,
      "kes": 2885,
      "grace": 2886,
      "motion": 2887,
      "costum": 2888,
      "tun": 2889,
      "iny": 2890,
      "alive": 2891,
      "11": 2892,
      "tro": 2893,
      "prop": 2894,
      "edge": 2895,
      "moon": 2896,
      "standard": 2897,
      "mysterious": 2898,
      "pop": 2899,
      "plane": 2900,
      "cliche": 2901,
      "garbage": 2902,
      "likable": 2903,
      "immediately": 2904,
      "military": 2905,
      "jump": 2906,
      "kno": 2907,
      "rick": 2908,
      "insul": 2909,
      "smart": 2910,
      "walking": 2911,
      "humour": 2912,
      "detective": 2913,
      "anth": 2914,
      "belief": 2915,
      "70": 2916,
      "bought": 2917,
      "justice": 2918,
      "respons": 2919,
      "random": 2920,
      "mare": 2921,
      "thin": 2922,
      "pects": 2923,
      "core": 2924,
      "avail": 2925,
      "christian": 2926,
      "sher": 2927,
      "ining": 2928,
      "mental": 2929,
      "impression": 2930,
      "cell": 2931,
      "nast": 2932,
      "aspect": 2933,
      "arily": 2934,
      "knowing": 2935,
      "honestly": 2936,
      "innocent": 2937,
      "army": 2938,
      "seg": 2939,
      "notice": 2940,
      "feat": 2941,
      "genius": 2942,
      "***": 2943,
      "pair": 2944,
      "utterly": 2945,
      "adaptation": 2946,
      "shadow": 2947,
      "investig": 2948,
      "rare": 2949,
      "nobody": 2950,
      "indust": 2951,
      "marri": 2952,
      "ization": 2953,
      "jes": 2954,
      "sitting": 2955,
      "ison": 2956,
      "serial": 2957,
      "festival": 2958,
      "fal": 2959,
      "sof": 2960,
      "ilt": 2961,
      "roc": 2962,
      "cock": 2963,
      "drawn": 2964,
      "succeed": 2965,
      "\".<": 2966,
      "jones": 2967,
      "lord": 2968,
      "tend": 2969,
      "melo": 2970,
      "moral": 2971,
      "ceived": 2972,
      "sexy": 2973,
      "soul": 2974,
      "climax": 2975,
      "nu": 2976,
      "init": 2977,
      "threat": 2978,
      "personally": 2979,
      "mission": 2980,
      "naked": 2981,
      "absur": 2982,
      "wow": 2983,
      "40": 2984,
      "nowhere": 2985,
      "intent": 2986,
      "steal": 2987,
      "woods": 2988,
      "witness": 2989,
      "wid": 2990,
      "blue": 2991,
      "intrigu": 2992,
      "ds": 2993,
      "itor": 2994,
      "ride": 2995,
      "orts": 2996,
      "dreams": 2997,
      "satisf": 2998,
      "oli": 2999,
      "sey": 3000,
      "occur": 3001,
      "ordinary": 3002,
      "spec": 3003,
      "minis": 3004,
      "comedies": 3005,
      "silent": 3006,
      "charlie": 3007,
      "bled": 3008,
      "bottom": 3009,
      "remains": 3010,
      "thinks": 3011,
      "wis": 3012,
      "torture": 3013,
      "producer": 3014,
      "twists": 3015,
      "beha": 3016,
      "trust": 3017,
      "beautifully": 3018,
      "gag": 3019,
      "terrific": 3020,
      "unbelievable": 3021,
      "charm": 3022,
      "touching": 3023,
      "aire": 3024,
      "moun": 3025,
      "thom": 3026,
      "moved": 3027,
      "batman": 3028,
      "issues": 3029,
      "bod": 3030,
      "names": 3031,
      "terms": 3032,
      "places": 3033,
      "equally": 3034,
      "russ": 3035,
      "bir": 3036,
      "kelly": 3037,
      "confl": 3038,
      "block": 3039,
      "syste": 3040,
      "topher": 3041,
      "enced": 3042,
      "suspect": 3043,
      "phy": 3044,
      "position": 3045,
      "devil": 3046,
      "mistake": 3047,
      "anda": 3048,
      "managed": 3049,
      "jean": 3050,
      "fellow": 3051,
      "professional": 3052,
      "church": 3053,
      "18": 3054,
      "ito": 3055,
      "mm": 3056,
      "mild": 3057,
      "chick": 3058,
      "nightmare": 3059,
      "gree": 3060,
      "nel": 3061,
      "bell": 3062,
      "drunk": 3063,
      "narrative": 3064,
      "government": 3065,
      "push": 3066,
      "thes": 3067,
      "exp": 3068,
      "lovely": 3069,
      "laughable": 3070,
      "ano": 3071,
      "esh": 3072,
      "themes": 3073,
      "soldiers": 3074,
      "dor": 3075,
      "likely": 3076,
      "cele": 3077,
      "ified": 3078,
      "bob": 3079,
      "queen": 3080,
      "disappointing": 3081,
      "absurd": 3082,
      "verse": 3083,
      "commun": 3084,
      "brid": 3085,
      "termin": 3086,
      "outstanding": 3087,
      "excuse": 3088,
      "appropri": 3089,
      "marriage": 3090,
      "contem": 3091,
      "painful": 3092,
      "spoiler": 3093,
      "attractive": 3094,
      "costumes": 3095,
      "nick": 3096,
      "trick": 3097,
      "affair": 3098,
      "aware": 3099,
      "disco": 3100,
      "correct": 3101,
      "surely": 3102,
      "flashback": 3103,
      "cher": 3104,
      "loy": 3105,
      "held": 3106,
      "central": 3107,
      "izes": 3108,
      "laughter": 3109,
      "000": 3110,
      "christopher": 3111,
      "constantly": 3112,
      "mult": 3113,
      "chin": 3114,
      "watchable": 3115,
      "gry": 3116,
      "offer": 3117,
      "views": 3118,
      "cinematic": 3119,
      "bour": 3120,
      "flow": 3121,
      "thrown": 3122,
      "ires": 3123,
      "medio": 3124,
      "individ": 3125,
      "hotel": 3126,
      "changes": 3127,
      "hat": 3128,
      "loves": 3129,
      "everybody": 3130,
      "breath": 3131,
      "slowly": 3132,
      "destroy": 3133,
      "fle": 3134,
      "influ": 3135,
      "idence": 3136,
      "presence": 3137,
      "contains": 3138,
      "available": 3139,
      "charles": 3140,
      "buck": 3141,
      "animals": 3142,
      "indian": 3143,
      "photography": 3144,
      "details": 3145,
      "besides": 3146,
      "historical": 3147,
      "eli": 3148,
      "page": 3149,
      "wide": 3150,
      "escap": 3151,
      "dig": 3152,
      "gri": 3153,
      "lish": 3154,
      "isa": 3155,
      "ify": 3156,
      "gain": 3157,
      "independ": 3158,
      "remain": 3159,
      "scenery": 3160,
      "hoping": 3161,
      "henry": 3162,
      "13": 3163,
      "bing": 3164,
      "inspir": 3165,
      "prote": 3166,
      "billy": 3167,
      "onto": 3168,
      "boo": 3169,
      "oughly": 3170,
      "disappointment": 3171,
      "speaking": 3172,
      "intended": 3173,
      "crack": 3174,
      "expectations": 3175,
      "ledge": 3176,
      "numbers": 3177,
      "ini": 3178,
      "park": 3179,
      "commer": 3180,
      "building": 3181,
      "sight": 3182,
      "subst": 3183,
      "double": 3184,
      "theless": 3185,
      "qual": 3186,
      "stands": 3187,
      "clean": 3188,
      "univers": 3189,
      "summer": 3190,
      "ahead": 3191,
      "inner": 3192,
      "loose": 3193,
      "ively": 3194,
      "critics": 3195,
      "graphic": 3196,
      "zero": 3197,
      "inger": 3198,
      "lover": 3199,
      "discus": 3200,
      "boyfriend": 3201,
      "addition": 3202,
      "imagin": 3203,
      "opera": 3204,
      "alan": 3205,
      "aspects": 3206,
      "suppose": 3207,
      "bits": 3208,
      "seven": 3209,
      "model": 3210,
      "via": 3211,
      "fascinating": 3212,
      "arts": 3213,
      "suff": 3214,
      "comfort": 3215,
      "dub": 3216,
      "phone": 3217,
      "placed": 3218,
      "dated": 3219,
      "eat": 3220,
      "pun": 3221,
      "ades": 3222,
      "heaven": 3223,
      "holes": 3224,
      "compl": 3225,
      "inder": 3226,
      "intense": 3227,
      "willing": 3228,
      "feelings": 3229,
      "aa": 3230,
      "image": 3231,
      "dow": 3232,
      "span": 3233,
      "forever": 3234,
      "lighting": 3235,
      "12": 3236,
      "ston": 3237,
      "filming": 3238,
      "hosp": 3239,
      "surround": 3240,
      "fright": 3241,
      "mainly": 3242,
      "norm": 3243,
      "bruce": 3244,
      "opportunity": 3245,
      "element": 3246,
      "compelling": 3247,
      "student": 3248,
      "wy": 3249,
      "icide": 3250,
      "prot": 3251,
      "inated": 3252,
      "lived": 3253,
      "drink": 3254,
      "sident": 3255,
      "hurt": 3256,
      "individual": 3257,
      "eth": 3258,
      "resem": 3259,
      "shak": 3260,
      "emotions": 3261,
      "neighbor": 3262,
      "gorge": 3263,
      "traged": 3264,
      "proves": 3265,
      "jan": 3266,
      "content": 3267,
      "twice": 3268,
      "celebr": 3269,
      "cel": 3270,
      "inc": 3271,
      "trag": 3272,
      "safe": 3273,
      "protagon": 3274,
      "race": 3275,
      "ured": 3276,
      "magn": 3277,
      "gro": 3278,
      "intention": 3279,
      "happening": 3280,
      "impact": 3281,
      "falling": 3282,
      "birth": 3283,
      "mex": 3284,
      "pi": 3285,
      "tired": 3286,
      "anders": 3287,
      "idi": 3288,
      "jects": 3289,
      "virt": 3290,
      "kr": 3291,
      "argu": 3292,
      "vert": 3293,
      "canad": 3294,
      "mont": 3295,
      "puts": 3296,
      "mut": 3297,
      "brand": 3298,
      "priv": 3299,
      "collection": 3300,
      "jerry": 3301,
      "hide": 3302,
      "zen": 3303,
      "arm": 3304,
      "ante": 3305,
      "bland": 3306,
      "giant": 3307,
      "winning": 3308,
      "confused": 3309,
      "aine": 3310,
      "hasn": 3311,
      "rape": 3312,
      "victims": 3313,
      "trailer": 3314,
      "adults": 3315,
      "amed": 3316,
      "disgust": 3317,
      "news": 3318,
      "difference": 3319,
      "titles": 3320,
      "include": 3321,
      "games": 3322,
      "grat": 3323,
      "paid": 3324,
      "helps": 3325,
      "pull": 3326,
      "behavi": 3327,
      "commercial": 3328,
      "card": 3329,
      "eight": 3330,
      "steven": 3331,
      "ura": 3332,
      "gem": 3333,
      "artist": 3334,
      "followed": 3335,
      "damn": 3336,
      "system": 3337,
      "pin": 3338,
      "anne": 3339,
      "ado": 3340,
      "gene": 3341,
      "porn": 3342,
      "creative": 3343,
      "plots": 3344,
      "martin": 3345,
      "slo": 3346,
      "putting": 3347,
      "share": 3348,
      "ku": 3349,
      "blind": 3350,
      "decis": 3351,
      "dread": 3352,
      "fli": 3353,
      "stock": 3354,
      "actresses": 3355,
      "gorgeous": 3356,
      "mine": 3357,
      "host": 3358,
      "div": 3359,
      "origin": 3360,
      "laughed": 3361,
      "confusing": 3362,
      "negative": 3363,
      "cum": 3364,
      "ests": 3365,
      "progress": 3366,
      "americans": 3367,
      "ugly": 3368,
      "murders": 3369,
      "pleasant": 3370,
      "latter": 3371,
      "mediocre": 3372,
      "bak": 3373,
      "bird": 3374,
      "rout": 3375,
      "itional": 3376,
      "asts": 3377,
      "proved": 3378,
      "hospital": 3379,
      "nan": 3380,
      "yer": 3381,
      "lying": 3382,
      "brad": 3383,
      "lacks": 3384,
      "supposedly": 3385,
      "gin": 3386,
      "asks": 3387,
      "chill": 3388,
      "bright": 3389,
      "rot": 3390,
      "crash": 3391,
      "impressed": 3392,
      "flaws": 3393,
      "funniest": 3394,
      "onna": 3395,
      "mote": 3396,
      "agent": 3397,
      "bol": 3398,
      "relationships": 3399,
      "rey": 3400,
      "lif": 3401,
      "igno": 3402,
      "emplo": 3403,
      "occasion": 3404,
      "multi": 3405,
      "tragedy": 3406,
      "gs": 3407,
      "wing": 3408,
      "tour": 3409,
      "frust": 3410,
      "faces": 3411,
      "students": 3412,
      "ya": 3413,
      "hook": 3414,
      "auto": 3415,
      "speed": 3416,
      "warm": 3417,
      "childhood": 3418,
      "nasty": 3419,
      "fish": 3420,
      "ties": 3421,
      "aps": 3422,
      "estab": 3423,
      "foc": 3424,
      "lessly": 3425,
      "wondering": 3426,
      "freak": 3427,
      "fied": 3428,
      "merely": 3429,
      "knock": 3430,
      "cup": 3431,
      "jul": 3432,
      "rose": 3433,
      "finding": 3434,
      "cab": 3435,
      "uous": 3436,
      "resc": 3437,
      "brian": 3438,
      "flicks": 3439,
      "flying": 3440,
      "bank": 3441,
      "eper": 3442,
      "lau": 3443,
      "ands": 3444,
      "lia": 3445,
      "folks": 3446,
      "imagination": 3447,
      "delivers": 3448,
      "explained": 3449,
      "struct": 3450,
      "fif": 3451,
      "irrit": 3452,
      "tran": 3453,
      "viet": 3454,
      "standards": 3455,
      "formula": 3456,
      "cliches": 3457,
      "davis": 3458,
      "itude": 3459,
      "ander": 3460,
      "forgotten": 3461,
      "soldier": 3462,
      "mouth": 3463,
      "aton": 3464,
      "station": 3465,
      "becoming": 3466,
      "loving": 3467,
      "lights": 3468,
      "matic": 3469,
      "compan": 3470,
      "deserved": 3471,
      "tragic": 3472,
      "60": 3473,
      "sant": 3474,
      "remote": 3475,
      "ases": 3476,
      "conve": 3477,
      "stuck": 3478,
      "spectac": 3479,
      "bum": 3480,
      "powers": 3481,
      "offers": 3482,
      "robin": 3483,
      "afraid": 3484,
      "?!": 3485,
      "jon": 3486,
      "castle": 3487,
      "seconds": 3488,
      "skin": 3489,
      "thoroughly": 3490,
      "provides": 3491,
      "soft": 3492,
      "shakespe": 3493,
      "los": 3494,
      "soci": 3495,
      "extr": 3496,
      "forgettable": 3497,
      "achieve": 3498,
      "nal": 3499,
      "rush": 3500,
      "cow": 3501,
      "cook": 3502,
      "seemingly": 3503,
      "information": 3504,
      "ister": 3505,
      "states": 3506,
      "convent": 3507,
      "ctions": 3508,
      "warning": 3509,
      "williams": 3510,
      "reminded": 3511,
      "bath": 3512,
      "uts": 3513,
      "lose": 3514,
      "animal": 3515,
      "jackson": 3516,
      "breaking": 3517,
      "accurate": 3518,
      "ech": 3519,
      "mic": 3520,
      "thats": 3521,
      "industry": 3522,
      "uk": 3523,
      "stein": 3524,
      "ov": 3525,
      "buff": 3526,
      "length": 3527,
      "brok": 3528,
      "captain": 3529,
      "hidden": 3530,
      "hab": 3531,
      "acade": 3532,
      "artistic": 3533,
      "food": 3534,
      "listen": 3535,
      "location": 3536,
      ".,": 3537,
      "hack": 3538,
      "zo": 3539,
      "heal": 3540,
      "area": 3541,
      "agger": 3542,
      "rend": 3543,
      "horse": 3544,
      "shouldn": 3545,
      "relative": 3546,
      "creature": 3547,
      "heroes": 3548,
      "shocking": 3549,
      "presents": 3550,
      "remarkable": 3551,
      "andon": 3552,
      "youth": 3553,
      "pot": 3554,
      "wooden": 3555,
      "burn": 3556,
      "apartment": 3557,
      "scientist": 3558,
      "pra": 3559,
      "rented": 3560,
      "gling": 3561,
      "personality": 3562,
      "tie": 3563,
      "ww": 3564,
      "chuck": 3565,
      "beth": 3566,
      "accor": 3567,
      ".....": 3568,
      "weap": 3569,
      "shel": 3570,
      "adds": 3571,
      "dirty": 3572,
      "chinese": 3573,
      "angry": 3574,
      "prefer": 3575,
      "clothes": 3576,
      "punch": 3577,
      "itions": 3578,
      "uncle": 3579,
      "explan": 3580,
      "therefore": 3581,
      "heads": 3582,
      "radio": 3583,
      "wars": 3584,
      "filmmaker": 3585,
      "process": 3586,
      "finished": 3587,
      "pleasure": 3588,
      "shakespeare": 3589,
      "gal": 3590,
      "jum": 3591,
      "jason": 3592,
      "naz": 3593,
      "stren": 3594,
      "depart": 3595,
      "ups": 3596,
      "anymore": 3597,
      "glas": 3598,
      "judge": 3599,
      "austral": 3600,
      "cate": 3601,
      "hs": 3602,
      "aries": 3603,
      "mob": 3604,
      "lake": 3605,
      "picked": 3606,
      "jeff": 3607,
      "sac": 3608,
      "sli": 3609,
      "unexpected": 3610,
      "stephen": 3611,
      "tay": 3612,
      "ington": 3613,
      "sco": 3614,
      "aud": 3615,
      "danny": 3616,
      "martial": 3617,
      "describe": 3618,
      "possess": 3619,
      "techno": 3620,
      "favourite": 3621,
      "east": 3622,
      "fare": 3623,
      "rul": 3624,
      "max": 3625,
      "superior": 3626,
      "machine": 3627,
      "ency": 3628,
      "wee": 3629,
      "barbar": 3630,
      "intelligence": 3631,
      "struggle": 3632,
      "redeeming": 3633,
      "streng": 3634,
      "cgi": 3635,
      "hitch": 3636,
      "rage": 3637,
      "chap": 3638,
      "fill": 3639,
      "wearing": 3640,
      "bow": 3641,
      "fold": 3642,
      "syn": 3643,
      "allowed": 3644,
      "drugs": 3645,
      "mountain": 3646,
      "harris": 3647,
      "engaging": 3648,
      "teenage": 3649,
      "religious": 3650,
      "sour": 3651,
      "entious": 3652,
      "tears": 3653,
      "helped": 3654,
      "wonderfully": 3655,
      "desperate": 3656,
      "apo": 3657,
      "fits": 3658,
      "hic": 3659,
      "hund": 3660,
      "tex": 3661,
      "theatre": 3662,
      "repeated": 3663,
      "rupt": 3664,
      "bid": 3665,
      "soever": 3666,
      "jose": 3667,
      "disaster": 3668,
      "realized": 3669,
      "motiv": 3670,
      "humans": 3671,
      "transform": 3672,
      "teacher": 3673,
      "bound": 3674,
      "fights": 3675,
      "pse": 3676,
      "thir": 3677,
      "comparis": 3678,
      "mann": 3679,
      "convers": 3680,
      "includes": 3681,
      "deeply": 3682,
      "revolution": 3683,
      "pit": 3684,
      "zan": 3685,
      "research": 3686,
      "aly": 3687,
      "loss": 3688,
      "whatsoever": 3689,
      "realism": 3690,
      "drop": 3691,
      "issue": 3692,
      "commentary": 3693,
      "epic": 3694,
      "oppos": 3695,
      "pretentious": 3696,
      "began": 3697,
      "brook": 3698,
      "sympath": 3699,
      "bio": 3700,
      "cable": 3701,
      "vit": 3702,
      "stat": 3703,
      "brown": 3704,
      "leon": 3705,
      "limited": 3706,
      "technical": 3707,
      "vac": 3708,
      "ico": 3709,
      "suicide": 3710,
      "flesh": 3711,
      "gret": 3712,
      "skip": 3713,
      "energy": 3714,
      ".'": 3715,
      "cars": 3716,
      "soap": 3717,
      "civil": 3718,
      "physical": 3719,
      "independent": 3720,
      "taylor": 3721,
      "ape": 3722,
      "dying": 3723,
      "rarely": 3724,
      "els": 3725,
      "manage": 3726,
      "comedic": 3727,
      "cali": 3728,
      "douglas": 3729,
      "philo": 3730,
      "brutal": 3731,
      "river": 3732,
      "ppy": 3733,
      "johnny": 3734,
      "spective": 3735,
      "introduced": 3736,
      "stream": 3737,
      "hay": 3738,
      "ja": 3739,
      "slap": 3740,
      "conflict": 3741,
      "kate": 3742,
      "grave": 3743,
      "strain": 3744,
      "morgan": 3745,
      "appropriate": 3746,
      "eddie": 3747,
      "debut": 3748,
      "ption": 3749,
      "player": 3750,
      "desire": 3751,
      "oted": 3752,
      "superman": 3753,
      "sentiment": 3754,
      "victori": 3755,
      "responsible": 3756,
      "tight": 3757,
      "asure": 3758,
      "ilo": 3759,
      "unusual": 3760,
      "prec": 3761,
      "anybody": 3762,
      "coher": 3763,
      "aff": 3764,
      "holds": 3765,
      "magnific": 3766,
      "nation": 3767,
      "asp": 3768,
      "ira": 3769,
      "bbish": 3770,
      "apparent": 3771,
      "prince": 3772,
      "80s": 3773,
      "dun": 3774,
      "educ": 3775,
      "unknown": 3776,
      "keaton": 3777,
      "apes": 3778,
      "boat": 3779,
      "awk": 3780,
      "partner": 3781,
      "media": 3782,
      "twenty": 3783,
      "continue": 3784,
      "normally": 3785,
      "dum": 3786,
      "vive": 3787,
      "resol": 3788,
      "returns": 3789,
      "unnecessary": 3790,
      "joan": 3791,
      "kidn": 3792,
      "capt": 3793,
      "hitler": 3794,
      "cage": 3795,
      "oud": 3796,
      "knowledge": 3797,
      "perform": 3798,
      "memory": 3799,
      "surprising": 3800,
      "provide": 3801,
      "azz": 3802,
      "england": 3803,
      "wedding": 3804,
      "itous": 3805,
      "cere": 3806,
      "nia": 3807,
      "asing": 3808,
      "scared": 3809,
      "anywhere": 3810,
      "dry": 3811,
      "bloody": 3812,
      "cuts": 3813,
      "bian": 3814,
      "jr": 3815,
      "kin": 3816,
      "lind": 3817,
      "mate": 3818,
      "erous": 3819,
      "stret": 3820,
      "signific": 3821,
      "russian": 3822,
      "70s": 3823,
      "jay": 3824,
      "capable": 3825,
      "hundred": 3826,
      "sir": 3827,
      "asked": 3828,
      "complic": 3829,
      "president": 3830,
      "cops": 3831,
      "aves": 3832,
      "iously": 3833,
      "shop": 3834,
      "smile": 3835,
      "grapher": 3836,
      "leader": 3837,
      "constant": 3838,
      "experiment": 3839,
      "record": 3840,
      "pilot": 3841,
      "intriguing": 3842,
      "stor": 3843,
      "illa": 3844,
      "ifer": 3845,
      "shir": 3846,
      "price": 3847,
      "north": 3848,
      "paced": 3849,
      "broken": 3850,
      "fate": 3851,
      "gam": 3852,
      "rise": 3853,
      "thous": 3854,
      "atter": 3855,
      "stink": 3856,
      "somebody": 3857,
      "charis": 3858,
      "blon": 3859,
      "interpret": 3860,
      "creating": 3861,
      "nicely": 3862,
      "guns": 3863,
      "growing": 3864,
      "lynch": 3865,
      "candy": 3866,
      "itty": 3867,
      "ils": 3868,
      "wanting": 3869,
      "ladies": 3870,
      "hated": 3871,
      "sea": 3872,
      "separ": 3873,
      "vehic": 3874,
      "cris": 3875,
      "understanding": 3876,
      "mike": 3877,
      "pacing": 3878,
      "reminds": 3879,
      "academy": 3880,
      "tu": 3881,
      "humanity": 3882,
      "according": 3883,
      "gary": 3884,
      "hart": 3885,
      "paper": 3886,
      "reck": 3887,
      "acqu": 3888,
      "accompl": 3889,
      "noticed": 3890,
      "fet": 3891,
      "ipul": 3892,
      "dressed": 3893,
      "pup": 3894,
      "donald": 3895,
      "chore": 3896,
      "heroine": 3897,
      "lucky": 3898,
      "buster": 3899,
      "lust": 3900,
      "repor": 3901,
      "ene": 3902,
      "quiet": 3903,
      "angle": 3904,
      "calls": 3905,
      "awkward": 3906,
      "lovers": 3907,
      "forces": 3908,
      "abs": 3909,
      "court": 3910,
      "cass": 3911,
      "peace": 3912,
      "freed": 3913,
      "passed": 3914,
      "tarzan": 3915,
      "freddy": 3916,
      "dangerous": 3917,
      "jesus": 3918,
      "explanation": 3919,
      ":<": 3920,
      "explic": 3921,
      "blame": 3922,
      "community": 3923,
      "higher": 3924,
      "chester": 3925,
      "mixed": 3926,
      "discovered": 3927,
      "originally": 3928,
      "nes": 3929,
      "represent": 3930,
      "kevin": 3931,
      "soph": 3932,
      "ousy": 3933,
      "visit": 3934,
      "visible": 3935,
      "instance": 3936,
      ")<": 3937,
      "bag": 3938,
      "cil": 3939,
      "dut": 3940,
      "vs": 3941,
      "frame": 3942,
      "pers": 3943,
      "nonsense": 3944,
      "intellect": 3945,
      "dimens": 3946,
      "fond": 3947,
      "itz": 3948,
      "iron": 3949,
      "spring": 3950,
      "players": 3951,
      "owner": 3952,
      "invent": 3953,
      "deserve": 3954,
      "vul": 3955,
      "belong": 3956,
      "---": 3957,
      "techni": 3958,
      "ote": 3959,
      "rat": 3960,
      "eric": 3961,
      "toward": 3962,
      "virgin": 3963,
      "iest": 3964,
      "lone": 3965,
      "lap": 3966,
      "wanna": 3967,
      "organ": 3968,
      "brave": 3969,
      "whil": 3970,
      "mature": 3971,
      "corpor": 3972,
      "singer": 3973,
      "starting": 3974,
      "european": 3975,
      "vhs": 3976,
      "chief": 3977,
      "lied": 3978,
      "friendship": 3979,
      "frequ": 3980,
      "rifying": 3981,
      "sympathetic": 3982,
      "nine": 3983,
      "edited": 3984,
      "union": 3985,
      "sole": 3986,
      "hadn": 3987,
      "served": 3988,
      "current": 3989,
      "floor": 3990,
      "princi": 3991,
      "spanish": 3992,
      "whilst": 3993,
      "14": 3994,
      "cash": 3995,
      "eating": 3996,
      "roo": 3997,
      "fection": 3998,
      "market": 3999,
      "courage": 4000,
      "naive": 4001,
      "keeping": 4002,
      "rubbish": 4003,
      "sucks": 4004,
      "ez": 4005,
      "mum": 4006,
      "nold": 4007,
      "anton": 4008,
      "simon": 4009,
      "officer": 4010,
      "contrast": 4011,
      "abr": 4012,
      "tt": 4013,
      "proceed": 4014,
      "saved": 4015,
      "memories": 4016,
      "naturally": 4017,
      "villains": 4018,
      "satisfying": 4019,
      "jess": 4020,
      "icate": 4021,
      "prepare": 4022,
      "affect": 4023,
      "finest": 4024,
      "satur": 4025,
      "service": 4026,
      "iac": 4027,
      "pless": 4028,
      "sport": 4029,
      "monsters": 4030,
      "lacking": 4031,
      "saving": 4032,
      "featuring": 4033,
      "kong": 4034,
      "lewis": 4035,
      "golden": 4036,
      "cruel": 4037,
      "empty": 4038,
      "santa": 4039,
      "ike": 4040,
      "mu": 4041,
      "text": 4042,
      "chair": 4043,
      "below": 4044,
      "abandon": 4045,
      "neck": 4046,
      "constru": 4047,
      "saur": 4048,
      "kinda": 4049,
      "regular": 4050,
      "treated": 4051,
      "concerned": 4052,
      "send": 4053,
      "forts": 4054,
      "werewolf": 4055,
      "marry": 4056,
      "horri": 4057,
      "insane": 4058,
      "glass": 4059,
      "pulled": 4060,
      "results": 4061,
      "jimmy": 4062,
      "washington": 4063,
      "delightful": 4064,
      "terribly": 4065,
      "weight": 4066,
      "related": 4067,
      "trek": 4068,
      "luke": 4069,
      ".\"<": 4070,
      "relev": 4071,
      "hopes": 4072,
      "witty": 4073,
      "domin": 4074,
      "hits": 4075,
      "rings": 4076,
      "dish": 4077,
      "months": 4078,
      "morning": 4079,
      "hearted": 4080,
      "included": 4081,
      "bbing": 4082,
      "grown": 4083,
      "jam": 4084,
      "elle": 4085,
      "assist": 4086,
      "marvel": 4087,
      "object": 4088,
      "target": 4089,
      "appealing": 4090,
      "screaming": 4091,
      "private": 4092,
      "jenn": 4093,
      "kim": 4094,
      "snow": 4095
    },
    "merges": [
      "t h",
      "i n",
      "th e",
      "a n",
      "e r",
      "i s",
      "r e",
      "o n",
      "a t",
      "e n",
      "t o",
      "o u",
      "in g",
      "e s",
      "a l",
      "i t",
      "a s",
      "an d",
      "o r",
      "a r",
      "o f",
      "e d",
      "i l",
      "s t",
      "l y",
      "c h",
      "b r",
      "l e",
      "s e",
      "o m",
      "/ >",
      "b e",
      "m o",
      "w h",
      "a c",
      "i c",
      "v e",
      "th is",
      "n o",
      "i e",
      "a d",
      "th at",
      "v er",
      "u t",
      "l o",
      "en t",
      "f or",
      "h e",
      "i m",
      "i on",
      "a y",
      "t er",
      "a m",
      "g h",
      "l i",
      "mo v",
      "w as",
      "i d",
      "u n",
      "w i",
      "f il",
      "/> <",
      "r o",
      "fil m",
      "k e",
      "wi th",
      "a b",
      "e l",
      "h o",
      "on e",
      "y ou",
      "l d",
      "h a",
      "b ut",
      "mov ie",
      "i r",
      "a re",
      "g e",
      "s u",
      "ou t",
      "r i",
      "s o",
      "g o",
      ". <",
      "p e",
      "al l",
      "d e",
      "c e",
      "c om",
      "u l",
      "no t",
      "p o",
      "d o",
      "al ly",
      "the r",
      "f e",
      "to r",
      "h is",
      "h er",
      "t s",
      "n e",
      "s c",
      "o d",
      "m a",
      "om e",
      "t r",
      "il l",
      "m an",
      "e x",
      "a p",
      "i f",
      "ou ld",
      "u s",
      "u r",
      "m e",
      "ac t",
      "ha ve",
      "s ome",
      ". .",
      "f r",
      "u st",
      "p er",
      "wh o",
      "p l",
      "gh t",
      "es t",
      "w e",
      "c t",
      "en d",
      "c on",
      "es s",
      "b y",
      "ver y",
      "th ing",
      "a in",
      "d i",
      "the y",
      "w or",
      "a u",
      "li ke",
      "se e",
      "er e",
      "ho w",
      "an t",
      "el l",
      "t im",
      "a g",
      "p le",
      "fr om",
      "t e",
      "o k",
      "ar t",
      "ou s",
      "b o",
      "u p",
      "the re",
      "p re",
      "q u",
      "v en",
      "p ro",
      "o l",
      "s h",
      "i es",
      "j ust",
      "ch ar",
      "as t",
      "at ion",
      "ac k",
      "wh at",
      "ou gh",
      "m y",
      "w ay",
      "h as",
      "ou n",
      "in d",
      "o ther",
      "ab out",
      "c an",
      "at e",
      "er s",
      "at ch",
      "an y",
      "i ve",
      "i g",
      "is t",
      "s he",
      "go od",
      "m ent",
      "d er",
      "mo re",
      "ar d",
      "tor y",
      "c o",
      "ge t",
      "ac ter",
      "char acter",
      "w atch",
      "no w",
      "wh en",
      "in e",
      "i ch",
      "u re",
      "re at",
      "g r",
      "on g",
      "j o",
      "e ven",
      "w ould",
      "ab le",
      "s s",
      "it y",
      "tim e",
      "s p",
      "it e",
      "a k",
      "s tory",
      "w n",
      "mo st",
      "ou r",
      "f ul",
      "oun d",
      "am e",
      "u m",
      "c l",
      "g u",
      "in t",
      "c k",
      "wh ich",
      "on ly",
      "t y",
      "w o",
      "y e",
      "id e",
      "w ell",
      "re ally",
      "h ad",
      "a f",
      "a w",
      "i ght",
      "it s",
      "s how",
      "th an",
      "b le",
      "the ir",
      "sc en",
      "u ch",
      "w ere",
      "p t",
      "h im",
      "lo t",
      "pl ay",
      "a v",
      "ad e",
      "f o",
      "c r",
      "se l",
      "in k",
      "d id",
      "p r",
      "o ver",
      "do es",
      "ic k",
      "i ous",
      "d on",
      "e p",
      "lo ok",
      "it t",
      "a ge",
      "d is",
      "g reat",
      "b ad",
      "c au",
      "b l",
      "be t",
      "p p",
      "ar s",
      "w ill",
      "en ce",
      "of f",
      "lo w",
      "ic e",
      "m uch",
      "the m",
      "as s",
      "is h",
      "f ir",
      "cau se",
      "c i",
      "di re",
      "pe o",
      "c ould",
      "e very",
      "peo ple",
      "k now",
      "be en",
      "re al",
      ".. .",
      "in to",
      "al so",
      "fir st",
      "be cause",
      "ma k",
      "th ink",
      "b er",
      "u d",
      "s er",
      "ma ke",
      "or t",
      "v es",
      "i re",
      "f un",
      "s on",
      "m ade",
      "w r",
      "d r",
      "the n",
      "th r",
      "to o",
      "d u",
      "af ter",
      "wh ere",
      "wor k",
      "in ter",
      "ac e",
      "m ar",
      "f a",
      "sel f",
      "il e",
      "p art",
      "st r",
      "l l",
      "mov ies",
      "e ver",
      "c re",
      "s ay",
      "see m",
      "at ed",
      "v ie",
      "s pe",
      "ic al",
      "th ough",
      "f l",
      "a ch",
      "p s",
      "ac tor",
      "f in",
      "character s",
      "vie w",
      "re n",
      "t ing",
      "d es",
      "b ack",
      "t ain",
      "lo ve",
      "an ce",
      "an s",
      "l ess",
      "li fe",
      "v ing",
      "t wo",
      "man y",
      "film s",
      "h or",
      "p lot",
      "an g",
      "act ing",
      "n y",
      "se en",
      "m in",
      "you r",
      "ne ver",
      "be ing",
      "ar y",
      "d ay",
      "her e",
      "s ho",
      "t al",
      "be l",
      "c es",
      "b est",
      "m at",
      "itt le",
      "g i",
      "l ittle",
      ") ,",
      "thr ough",
      "t a",
      ") .",
      "ct ion",
      "c tor",
      "ch e",
      "ne w",
      "t ur",
      "re e",
      "tr y",
      "c ent",
      "en s",
      "m ay",
      "po int",
      "1 9",
      "i gh",
      "m is",
      "i z",
      "il y",
      "k ill",
      "c ar",
      "fo re",
      "ic t",
      "u ally",
      "o se",
      "v ed",
      "wh ile",
      "r a",
      "f er",
      "st ill",
      "o t",
      "bet ter",
      "e f",
      "am er",
      "su r",
      "g en",
      "n ing",
      "f ri",
      "- -",
      "tr u",
      "w on",
      "sh ould",
      "per for",
      "un der",
      "a ve",
      "o ld",
      "ag ain",
      "f ind",
      "m on",
      "scen e",
      "the se",
      "il d",
      "c ast",
      "re ad",
      "as e",
      "w ant",
      "com e",
      "st e",
      "wh y",
      "fe el",
      "au gh",
      "! !",
      "o p",
      "r y",
      "p ar",
      "s im",
      "scen es",
      "ver s",
      "er tain",
      "st and",
      "ou ght",
      "su ch",
      "some thing",
      "dire ctor",
      "inter est",
      "1 0",
      "ha pp",
      "f am",
      "ch o",
      "l es",
      "a z",
      "a th",
      "fri end",
      "ir l",
      "re d",
      "e v",
      "t ri",
      "bel ie",
      "is e",
      "ab ly",
      "g irl",
      "i an",
      "s to",
      "p h",
      "ion s",
      "sc re",
      "w om",
      "e t",
      "jo y",
      "as on",
      "at ing",
      "m us",
      "tur n",
      "en se",
      "perfor man",
      "r or",
      "do wn",
      "go t",
      "pre t",
      "th ose",
      "st ar",
      "ar ly",
      "in s",
      "o b",
      "watch ing",
      "t ak",
      "w ar",
      "actor s",
      "does n",
      "fun ny",
      "ye ars",
      "b ig",
      "po s",
      "g l",
      "tim es",
      "com m",
      "ent s",
      "in al",
      "i p",
      "i al",
      "me m",
      "as h",
      "n g",
      "did n",
      "be fore",
      "gu y",
      "en joy",
      "l ong",
      "e m",
      "se t",
      "an other",
      "at t",
      "you ng",
      "com ed",
      "no thing",
      "v i",
      "mak es",
      "way s",
      "b u",
      "at er",
      "act ually",
      "o wn",
      "h igh",
      "go ing",
      "pro du",
      "or ig",
      "v is",
      "b it",
      "wor ld",
      "p ut",
      "c ol",
      "k ing",
      "fe ct",
      "h u",
      "fe w",
      "u al",
      "s m",
      "ri ght",
      "ex c",
      "act ion",
      "s ame",
      "le t",
      "s a",
      "d if",
      "com es",
      "ic ul",
      "l augh",
      "re l",
      "h ard",
      "c or",
      "j e",
      "wo od",
      "f ar",
      "ap pe",
      "li ght",
      "s in",
      "su b",
      "c ts",
      "s ing",
      "c le",
      "* *",
      "t ed",
      "ut e",
      "b or",
      "p or",
      "pe ct",
      "scre en",
      "hor ror",
      "qu ite",
      "com ple",
      "orig inal",
      "thing s",
      "k id",
      "we en",
      "ne ed",
      "pret ty",
      "f act",
      "i a",
      "re ss",
      "wr it",
      "p a",
      "ar ound",
      "per son",
      "seem s",
      "he l",
      "m ind",
      "th ought",
      "su re",
      "ri pt",
      "won der",
      "k s",
      "t en",
      "a ut",
      "ta ke",
      "ho we",
      "n er",
      "in v",
      "howe ver",
      "be g",
      "g ive",
      "k ind",
      "t ell",
      "ci al",
      "b as",
      "st er",
      "ce pt",
      "con t",
      "en ough",
      "ic ally",
      "s aw",
      "for t",
      "p are",
      "ser ies",
      "ge ts",
      "bo th",
      "cl ass",
      "se x",
      "od y",
      "interest ing",
      "bet ween",
      "amer ic",
      "c our",
      "w ard",
      "c are",
      "pre ss",
      "ate ly",
      "sc ript",
      "m ust",
      "h and",
      "n ess",
      "ve l",
      "ma in",
      "ation s",
      "c lo",
      "ch ild",
      "m om",
      "wor th",
      "be aut",
      "bo y",
      "ex pect",
      "c ed",
      "with out",
      "d one",
      "c ine",
      "c ess",
      "for m",
      "comed y",
      "us ed",
      "re ason",
      "gr ap",
      "ad d",
      "al ways",
      "end ing",
      "mus ic",
      "c all",
      "fam ily",
      "l ine",
      "is n",
      "ro le",
      "le ad",
      "n ight",
      "v ious",
      "b ar",
      "l ast",
      "il li",
      "al e",
      "ro w",
      "h y",
      "al most",
      "m as",
      "bo ok",
      "po l",
      "\" ,",
      "se qu",
      "c ap",
      "le ast",
      "ou se",
      "te m",
      "l ed",
      "w er",
      "who le",
      "mak ing",
      "g er",
      "ut es",
      "f f",
      "he ad",
      "st art",
      "m ight",
      "s ound",
      "ing s",
      "al o",
      "c oun",
      "s id",
      "u e",
      "v al",
      "v o",
      "u se",
      "a way",
      "r un",
      "dif fer",
      "pro b",
      "s po",
      "l in",
      "n a",
      "mo t",
      "y ing",
      "min utes",
      "wom an",
      "comple te",
      "any thing",
      "l ly",
      "i ble",
      "y es",
      "t v",
      "su per",
      "p ie",
      "s ent",
      "au di",
      "sin ce",
      "es pe",
      "an e",
      "h al",
      "m ed",
      "performan ce",
      "b lo",
      "jo h",
      "s y",
      "ch r",
      "f ol",
      "0 0",
      "st u",
      "m s",
      "so l",
      "at ure",
      "prob ably",
      "m en",
      "ig n",
      "u g",
      "ent ertain",
      "de c",
      "ri ble",
      "con d",
      "ye t",
      "me an",
      "t it",
      "b re",
      "t w",
      "if ul",
      "l and",
      "po ss",
      "c ame",
      "d en",
      "joh n",
      "ion al",
      "t on",
      "h ouse",
      "po or",
      "dr am",
      "w al",
      "ra ther",
      "f ound",
      "wor st",
      "play ed",
      "ci ally",
      "one y",
      "an ge",
      "\" .",
      "pr is",
      "k ed",
      "pl ace",
      "un t",
      "ar k",
      "ment s",
      "to p",
      "ur ing",
      "ep is",
      "s l",
      "d an",
      "ul t",
      "c ut",
      "any one",
      "m er",
      "c u",
      "s ense",
      "p ed",
      "beaut iful",
      "m ur",
      "t re",
      "re st",
      "ha ving",
      "c ur",
      "h ar",
      "e ach",
      "at ive",
      "m or",
      "an im",
      "di alo",
      "happ en",
      "h um",
      "f t",
      "cour se",
      "b ody",
      "al though",
      "espe cially",
      "b ud",
      "ke ep",
      "s ide",
      "belie ve",
      "look ing",
      "l u",
      "se cond",
      "jo b",
      "fa ther",
      "p ict",
      "n or",
      "differ ent",
      "try ing",
      "dire ct",
      "d v",
      "go es",
      "ye ar",
      "bl ack",
      ". \"",
      "im p",
      "ist ic",
      "per i",
      "look s",
      "dv d",
      "i ther",
      "f all",
      "hu man",
      "ne y",
      "f an",
      "su p",
      "play s",
      "mem ber",
      "ful ly",
      "tru e",
      "c reat",
      "m oney",
      "pos ed",
      "pro ble",
      "comm end",
      "im ag",
      "to ge",
      "toge ther",
      "ing ly",
      "may be",
      "on ce",
      "some one",
      "e le",
      "was n",
      "c ertain",
      "v in",
      "mis s",
      "ic s",
      "ste ad",
      "every thing",
      "n ice",
      "u su",
      "hal f",
      "show s",
      "e ar",
      "fol low",
      "th ree",
      "fe cts",
      "per fect",
      "americ an",
      "f av",
      "v ide",
      "p ul",
      "r om",
      "am p",
      "on d",
      "st y",
      "f el",
      "re commend",
      "b ly",
      "c a",
      "de ad",
      "watch ed",
      "vers ion",
      "s it",
      "de ath",
      "b ur",
      "re le",
      "ob vious",
      "l ater",
      "spe cial",
      "tak es",
      "pl ain",
      "an ts",
      "every one",
      "l a",
      "p lo",
      "wi fe",
      "it ing",
      "i o",
      "ef fects",
      "s ha",
      "al ity",
      "sa id",
      "pare n",
      "audi ence",
      "spe ct",
      "c y",
      "w a",
      "under stand",
      "in stead",
      "exc ell",
      "g re",
      "re view",
      "an k",
      "n i",
      "r u",
      "il ar",
      "wor d",
      "pie ce",
      "h our",
      "r id",
      "c ou",
      "sh ort",
      "sho t",
      "at es",
      "him self",
      "m i",
      "el se",
      "qu e",
      "other s",
      "sim p",
      "hel p",
      "le ft",
      "g y",
      "in cl",
      "is m",
      "sh ip",
      "am es",
      "gen er",
      "s k",
      "excell ent",
      "d uring",
      "gu e",
      "beg in",
      "al s",
      "tr ay",
      "c amer",
      "he art",
      "see ing",
      "en ces",
      "c er",
      "lly wood",
      "de fin",
      "f re",
      "her o",
      "p ass",
      "it ch",
      "e as",
      "h ome",
      "a h",
      "ent ire",
      "l ing",
      "ide a",
      "f ace",
      "ser ious",
      "ro ss",
      "n ed",
      "re member",
      "fort un",
      "it ed",
      "inv ol",
      "0 s",
      ".. ..",
      "ter s",
      "c al",
      "is ts",
      "c ing",
      "d re",
      "st up",
      "produ ction",
      "pict ure",
      "it ion",
      "om b",
      "us ing",
      "ire d",
      "o re",
      "simp ly",
      "gi ven",
      "fa ir",
      "su c",
      "s il",
      "stup id",
      "s ong",
      "w in",
      "friend s",
      "ir d",
      "sc i",
      "dis ap",
      "at tem",
      "a ir",
      "ho llywood",
      "l ack",
      "vide o",
      "x t",
      "pp ort",
      "v ic",
      "wr ong",
      "d ou",
      "je ct",
      "s ad",
      "ful l",
      "por tray",
      "d ark",
      "op en",
      "m ess",
      "s at",
      "n um",
      "bud get",
      "complete ly",
      "on s",
      "al ong",
      "sup posed",
      "disap point",
      "on es",
      "end s",
      "e ither",
      "ab sol",
      "ex cept",
      "s cho",
      "kid s",
      "b and",
      "con sid",
      "mo ther",
      "d ri",
      "f ight",
      "scho ol",
      "absol ute",
      "bor ing",
      "class ic",
      "am az",
      "wom en",
      "br o",
      "sm all",
      "su l",
      "performan ces",
      "part icul",
      "c us",
      "p ain",
      "fa il",
      "m id",
      "t ic",
      "consid er",
      "itt en",
      "camer a",
      "sur pris",
      "aw ful",
      "ri es",
      "li g",
      "unt il",
      "id ent",
      "com p",
      "po wer",
      "ex am",
      "le y",
      "li ve",
      "grap hy",
      "f i",
      "vi ol",
      "c as",
      "v ent",
      "e mot",
      "mur der",
      "l er",
      "tru ly",
      "st ars",
      "en g",
      "read y",
      "chr ist",
      "ve lo",
      "n ame",
      "fav or",
      "j ack",
      "c ase",
      "m ich",
      "go d",
      "co ver",
      "cou ple",
      "pre sent",
      "ne xt",
      "tr a",
      "to m",
      "m r",
      "ha ps",
      "ty p",
      "ho pe",
      "ma g",
      "play ing",
      "defin ite",
      "o de",
      "c li",
      "f ant",
      "se ver",
      "m ing",
      "d y",
      "per haps",
      "get ting",
      "g ar",
      "de velo",
      "or s",
      "s low",
      "it ies",
      "fe ature",
      "fl ick",
      "mom ents",
      "wr itten",
      "des er",
      "epis ode",
      "wonder ful",
      "s ort",
      "id es",
      "qu est",
      "ro om",
      "lin es",
      "b ed",
      "incl ud",
      "ter rible",
      "ber t",
      "d ist",
      "or y",
      "un i",
      "of ten",
      "do ing",
      "lo ved",
      "sty le",
      "us h",
      "in ess",
      "sp ir",
      "hum or",
      "m ale",
      "str ong",
      "to wn",
      "r ing",
      "iz e",
      "e arly",
      "fel t",
      "co p",
      "n on",
      "dram a",
      "o h",
      "ment ion",
      "li ked",
      "gi ves",
      "de li",
      "it al",
      "il ity",
      "act ress",
      "un ch",
      "mar k",
      "pl an",
      "cine mat",
      "definite ly",
      "d av",
      "tal ent",
      "as ed",
      "br illi",
      "un fortun",
      "mas ter",
      "im press",
      "ex peri",
      "gu ess",
      "bre ak",
      "ag ed",
      "o c",
      "it self",
      "turn s",
      "appe ar",
      "lo st",
      "es e",
      "p ri",
      "com ing",
      "le g",
      "re g",
      "ag es",
      "be come",
      "dialo gue",
      "child ren",
      "cr im",
      "fin ally",
      "lo g",
      "cine ma",
      "wh ite",
      "des p",
      "g un",
      "cre di",
      ", \"",
      "h on",
      "tit le",
      "clo se",
      "l ist",
      "thr ill",
      "t ly",
      "could n",
      "ex tre",
      "de p",
      "w ish",
      "poss ible",
      "i er",
      "i th",
      "f ine",
      "w ent",
      "p u",
      "v an",
      "blo od",
      "dire ction",
      "absolute ly",
      "ev il",
      "again st",
      "f ac",
      "gr ound",
      "was te",
      "wor se",
      "certain ly",
      "ps y",
      "kill er",
      "call ed",
      "con f",
      "proble m",
      "a el",
      "entertain ing",
      "s is",
      "brilli ant",
      "p ur",
      "te en",
      "over all",
      "b en",
      "b all",
      "end ed",
      "cre d",
      "bas ed",
      "s or",
      "ter n",
      "f ans",
      "o s",
      "rel ation",
      "h it",
      "spo il",
      "tri es",
      "begin ning",
      "le ar",
      "extre me",
      "my ster",
      "an n",
      "sever al",
      "suc cess",
      "li ves",
      "know n",
      "iz ed",
      "l ad",
      "n am",
      "su pport",
      "pr om",
      "s ou",
      "tr ack",
      "work s",
      "h ind",
      "v able",
      "d ict",
      "g g",
      "u es",
      "d ie",
      "ent ion",
      "p at",
      "n at",
      "writ er",
      "l ar",
      "gen re",
      "al ready",
      "sel ves",
      "mich ael",
      "m al",
      "be comes",
      "ef fect",
      "want ed",
      "en gl",
      "exam ple",
      "ar ch",
      "vis ion",
      "t ure",
      "day s",
      "desp ite",
      "seem ed",
      "j or",
      "z omb",
      "through out",
      "u de",
      "su m",
      "ke y",
      "dre am",
      "t ent",
      "to uch",
      "p ast",
      "unfortun ately",
      "v ill",
      "writ ing",
      "ie f",
      "ment ary",
      "attem pt",
      "d augh",
      "cr ap",
      "te ch",
      "ri f",
      "if ic",
      "g ame",
      "fin al",
      "su sp",
      "his tory",
      "ad m",
      "ho ld",
      "to t",
      "qu ality",
      "p ick",
      "2 00",
      "amaz ing",
      "ro ck",
      "an no",
      "cr it",
      "v ir",
      "ty pe",
      "fo ot",
      "sc ar",
      "b i",
      "al low",
      "in di",
      "guy s",
      "id ed",
      "tot ally",
      "con vin",
      "so on",
      "b us",
      "a im",
      "i v",
      "at ic",
      "un d",
      "de al",
      "col le",
      "st ay",
      "w ants",
      "s i",
      "be hind",
      ") .<",
      "w ise",
      "usu al",
      "ex plo",
      "view er",
      "ar ing",
      "in o",
      "ant ic",
      "p ho",
      "l ate",
      "girl s",
      "f ig",
      "c ity",
      "stu ff",
      "ul l",
      "or ge",
      "r ating",
      "s le",
      "pr of",
      "no vel",
      "do cu",
      "par ts",
      "b b",
      "enjoy ed",
      "cont in",
      "imp ort",
      "to day",
      "m il",
      "tr ans",
      "un k",
      "m ad",
      "ke t",
      "int el",
      "e k",
      "e yes",
      "n one",
      "ho p",
      "favor ite",
      "d ing",
      "st ep",
      "ap paren",
      "! <",
      "d am",
      "or d",
      "ho t",
      "pol ice",
      "spe ak",
      "star ts",
      "g ave",
      "some times",
      "direct ed",
      "et c",
      "? ?",
      "le vel",
      "s we",
      "al i",
      "d el",
      "ar r",
      "hor rible",
      "ev ent",
      "b al",
      "r is",
      "in credi",
      "gr ou",
      "mom ent",
      "o w",
      "v ol",
      "sit u",
      "ex act",
      "think ing",
      "ch es",
      "ch ang",
      "them selves",
      "de cent",
      "sto ries",
      "h am",
      "ri ed",
      "p ay",
      "fig ure",
      "a go",
      "pre dict",
      "ma jor",
      "m c",
      "s w",
      "vo ice",
      "mus ical",
      "daugh ter",
      "h ilar",
      "kill ed",
      "le av",
      "obvious ly",
      "br it",
      "mat ter",
      "c ult",
      "feel ing",
      "in ation",
      "po se",
      "sc ore",
      "l aw",
      "ren t",
      "cinemat o",
      "high ly",
      "my self",
      "belie vable",
      "h us",
      "m ill",
      "st ud",
      "fr on",
      "ang er",
      "br other",
      "he ll",
      "f our",
      "in st",
      "he ard",
      "ro ll",
      "pa ul",
      "look ed",
      "sto p",
      "are n",
      "tak ing",
      "we ak",
      "rid icul",
      "or der",
      "grap h",
      ". )",
      "ta il",
      "br ing",
      "che ck",
      "ap pro",
      "te le",
      "um b",
      "mo ve",
      "er y",
      "any way",
      "str ange",
      "ex plain",
      "g n",
      "j ok",
      "o per",
      "v ar",
      "av o",
      "ro les",
      "to ok",
      "say s",
      "j ames",
      "le e",
      "le ave",
      "f ree",
      "des c",
      "hus band",
      "b ers",
      "m art",
      "li ving",
      "ant ly",
      "f ut",
      "us es",
      "r ated",
      "pol it",
      "can not",
      "ridicul ous",
      "co ol",
      "de v",
      "viol ence",
      "ast ic",
      "k er",
      "a il",
      "re cent",
      "to ld",
      "s av",
      "wh e",
      "ish ed",
      "sho ck",
      "are d",
      "for get",
      "a ke",
      "happ ens",
      "invol ved",
      "particul arly",
      "l an",
      "se ason",
      "y s",
      "happen ed",
      "re t",
      "experi ence",
      "ch ance",
      "go re",
      "mak ers",
      "extreme ly",
      "d est",
      "l ou",
      "would n",
      "mo der",
      "op in",
      "al one",
      "re s",
      "ard s",
      "b ab",
      "tr act",
      "happ y",
      "hon est",
      "hilar ious",
      "f ire",
      "th or",
      "in ts",
      "ch ange",
      "dav id",
      "re sul",
      "char d",
      "coun try",
      "includ ing",
      "grou p",
      "d le",
      "ple ase",
      "turn ed",
      "mem or",
      "nat ur",
      "de ep",
      "b at",
      "sy m",
      "che ap",
      "sequ el",
      "it ive",
      "j ap",
      "qu ick",
      "h en",
      "m ist",
      "sim ple",
      "st ree",
      "expect ed",
      "un g",
      "develo p",
      "s n",
      "ple as",
      "dou b",
      "anno ying",
      "w it",
      "usu ally",
      "str a",
      "co st",
      "c at",
      "ri chard",
      "do g",
      "illi am",
      "be at",
      ".. .<",
      "p al",
      "ur b",
      "s ave",
      "str u",
      "f ast",
      "ear th",
      "engl ish",
      "pho to",
      "o o",
      "num ber",
      "l s",
      "jap an",
      "li k",
      "care er",
      "f ur",
      "fr ank",
      "real istic",
      "hu ge",
      "ne ar",
      "sim ilar",
      "i ed",
      "a x",
      "d ro",
      "serious ly",
      "an ces",
      "t reat",
      "se cre",
      "ri p",
      "tak en",
      "j ud",
      "sc ary",
      "real ity",
      "run ning",
      "e ye",
      "ap art",
      "cle ar",
      "rele ased",
      "exact ly",
      "k y",
      "l ie",
      "w es",
      "show n",
      "az y",
      "moder n",
      "ation al",
      "19 8",
      "2 0",
      "bo x",
      "your self",
      "who se",
      "cinemato graphy",
      "hour s",
      "ward s",
      "pp ed",
      "open ing",
      "ac ross",
      "jok es",
      "he ar",
      "sho ts",
      "lear n",
      "ren ch",
      "19 7",
      "s ch",
      "epis od",
      "at or",
      "te am",
      "h om",
      "s am",
      "go ld",
      "relation ship",
      "opin ion",
      "some what",
      "typ ical",
      "w illiam",
      "bu ild",
      "start ed",
      "r al",
      "word s",
      "stra ight",
      "il i",
      "be y",
      "s en",
      "itt ing",
      "vill ain",
      "ab o",
      "ex ist",
      "mid dle",
      "pre s",
      "poss i",
      "tal king",
      "l it",
      "me e",
      "ie ty",
      "ent y",
      "pl ac",
      "docu mentary",
      "ro bert",
      "import ant",
      "pl ic",
      "du e",
      "od d",
      "find s",
      "b ill",
      "am ong",
      "d om",
      "p ac",
      "in a",
      "so ld",
      "fe male",
      "say ing",
      "fam ous",
      "most ly",
      "s ign",
      "episod es",
      "com ment",
      "j u",
      "lo c",
      "ap pre",
      "predict able",
      "t le",
      "susp ense",
      "f ive",
      "g an",
      "ro b",
      "bo t",
      "in es",
      "re spect",
      "ie ld",
      "ro y",
      "r ap",
      "t ar",
      "st ick",
      "sing le",
      "sequ ence",
      "pu bl",
      "tal k",
      "b att",
      "y or",
      "sp ace",
      "po pul",
      "pro v",
      "intel lig",
      "k en",
      "appe ars",
      "apparen tly",
      "disappoint ed",
      "c amp",
      "re f",
      "ne cess",
      "lo cal",
      "re mind",
      "fut ure",
      "ev ents",
      "dialo g",
      "at mo",
      "se ts",
      "! \"",
      "avo id",
      "com ic",
      "song s",
      "atmo sp",
      "h i",
      "att ention",
      "bas ically",
      "e qu",
      "ut ter",
      "cre ep",
      "gi ving",
      "!! !!",
      "tele vision",
      "rom antic",
      "u ro",
      "um p",
      "know s",
      "fall s",
      "brit ish",
      "g ang",
      "19 9",
      "lad y",
      "support ing",
      "cle arly",
      "k new",
      "fron t",
      "thrill er",
      "sex ual",
      "st age",
      "com pare",
      "eas ily",
      "po ints",
      "m atch",
      "el ess",
      "quest ion",
      "is ed",
      "sil ly",
      "** **",
      "tell s",
      "proble ms",
      "ho od",
      "su ck",
      "gr and",
      "dif f",
      "de tail",
      "sh i",
      "and y",
      "mov ing",
      "ac y",
      "ex t",
      "ct ive",
      "cr u",
      "mar y",
      "chr is",
      "ag on",
      "entertain ment",
      "as k",
      "for d",
      "in ed",
      "f lo",
      "a ver",
      "appre ci",
      "er ial",
      "ent ly",
      "up on",
      "tr ain",
      "as y",
      "ge orge",
      "an na",
      "att ack",
      "bey ond",
      "b a",
      "o st",
      "po st",
      "ef fort",
      "r ad",
      "the tic",
      "o scar",
      "ure s",
      "n arr",
      "z e",
      "un like",
      "con st",
      "pr ise",
      "us ion",
      "l im",
      "st ate",
      "so c",
      "whe ther",
      "w ater",
      "z z",
      "ab ility",
      "ul tim",
      "the at",
      "eas y",
      "cl aim",
      "h ate",
      "sequ ences",
      "tw ist",
      "d ull",
      "m el",
      "pp ing",
      "car to",
      "myster y",
      "se arch",
      "mat erial",
      "a fr",
      "g ed",
      "wa it",
      "f ly",
      "int ro",
      "c ident",
      "enjoy able",
      "nam ed",
      "peri od",
      "diff icul",
      "an a",
      "ad ap",
      "jo e",
      "need s",
      "set ting",
      "yor k",
      "th row",
      "li es",
      "de ed",
      "b es",
      "f est",
      "pre vious",
      "work ing",
      "stu di",
      "d den",
      "j er",
      "with in",
      "tr ou",
      "ap p",
      "act ual",
      "f rench",
      "ke pt",
      "sub ject",
      "me t",
      "mess age",
      "the ater",
      "ot t",
      "sis ter",
      "ens ion",
      "tell ing",
      "anim ation",
      "ad vent",
      "tal e",
      "on y",
      "ri ch",
      "ce ed",
      "con cer",
      "pr in",
      "p ort",
      "are ly",
      "abo ve",
      "b unch",
      "s es",
      "fl ash",
      "pe ter",
      "vic tim",
      "the me",
      "ha ven",
      "mis e",
      "l on",
      "lo ts",
      "ne arly",
      "doub t",
      "her self",
      "fl aw",
      "person al",
      "feel s",
      "ie l",
      "ne t",
      "tru th",
      "j im",
      "rele ase",
      "not e",
      "l at",
      "p ath",
      "cl im",
      "s light",
      "story line",
      "vis ual",
      "surpris ed",
      "wes tern",
      "paren ts",
      "fant astic",
      "r ound",
      "pe t",
      "publ ic",
      "s un",
      "kill s",
      "th ird",
      "ma ch",
      "cap ture",
      "beg ins",
      "dram atic",
      "coun t",
      "ut ion",
      "ro wn",
      "d a",
      "f as",
      "po tent",
      "dr ug",
      "min ute",
      "in no",
      "ag ree",
      "g one",
      "n ature",
      "5 0",
      "su dden",
      "re ve",
      "ic a",
      "sho o",
      "r us",
      "view ers",
      "lar ge",
      "b s",
      "bu y",
      "gener al",
      "is su",
      "for ward",
      "3 0",
      "ele ments",
      "im ent",
      "d ance",
      "com ments",
      "dis ney",
      "er ed",
      "ex press",
      "sound track",
      "prof ess",
      "tri ed",
      "? <",
      "ed iting",
      "show ing",
      "' ,",
      "cont ro",
      "difficul t",
      "b ul",
      "su gg",
      "c atch",
      "th y",
      "view ing",
      "sor ry",
      "to ri",
      "br ain",
      "bab y",
      "dec ided",
      "mi x",
      "secre t",
      "film ed",
      "! )",
      "g a",
      "p ts",
      "r it",
      "natur al",
      "me ans",
      "pa thetic",
      "con tain",
      "g row",
      "en ing",
      "ex e",
      "par is",
      "k ick",
      "crim e",
      "v amp",
      "con ne",
      "fl u",
      "l ame",
      "r ate",
      "de mon",
      "some how",
      "writ ers",
      "mean ing",
      "li er",
      "he av",
      "psy cho",
      "b il",
      "ous ly",
      "re pe",
      "lead s",
      "le ct",
      "zomb ie",
      "p ure",
      "stree t",
      "we ird",
      "bus iness",
      "great est",
      "re sp",
      "i i",
      "i ally",
      "appe al",
      "atmosp here",
      "br ought",
      "intro du",
      "f ict",
      "h ur",
      "ho l",
      "act ed",
      "deli ver",
      "imag ine",
      "i ves",
      "we ek",
      "lit er",
      "sh ame",
      "what ever",
      "ser v",
      "f it",
      "r ay",
      "ac cent",
      "possi bly",
      "ul ar",
      "h un",
      "particul ar",
      "americ a",
      "desc ri",
      "!! !",
      "f red",
      "ac cept",
      "gh ost",
      "g est",
      "re vol",
      "ven ge",
      "convin cing",
      "aver age",
      "f ield",
      "st un",
      "pris on",
      "in deed",
      "back ground",
      "ang el",
      "event ually",
      "ot ic",
      "stand ing",
      "review s",
      "spir it",
      "igh ts",
      "d b",
      "er ing",
      "sur prise",
      "japan ese",
      "w all",
      "ok ay",
      "te ach",
      "poor ly",
      "i or",
      "pre mise",
      "rif ic",
      "un ity",
      "che es",
      "wr ite",
      "j ane",
      "str ug",
      "med i",
      "ur y",
      "lu ck",
      "ber g",
      "r am",
      "do ctor",
      "ex per",
      "p en",
      "im db",
      "b an",
      "ch ed",
      "for ced",
      "lead ing",
      "fo cus",
      "read ing",
      "effect ive",
      "a ust",
      "fre sh",
      "sle ep",
      "mention ed",
      "log ical",
      "be came",
      "scre am",
      "a id",
      "con cl",
      "e uro",
      "screen play",
      "u ck",
      "kill ing",
      "rom ance",
      "? \"",
      "j our",
      "need ed",
      "fur ther",
      "g ay",
      "con s",
      "' .",
      "ph il",
      "sc ott",
      "than k",
      "ha ir",
      "fr an",
      "ag ing",
      "interest ed",
      "s ed",
      "cast ing",
      "leav es",
      "h an",
      "re co",
      "ad v",
      "am oun",
      "f fer",
      "l en",
      "m ass",
      "u b",
      "tr ad",
      "fas c",
      "memor able",
      "vamp ire",
      "g ing",
      "bar r",
      "m ac",
      "fl at",
      "emot ional",
      "mee ts",
      "s ick",
      "cred its",
      "soc iety",
      "un less",
      "director s",
      "bo red",
      "s al",
      "d ress",
      "re fer",
      "boy s",
      "super b",
      "com b",
      "tr ash",
      "other wise",
      "situ ation",
      "batt le",
      "p an",
      "des ign",
      "me ant",
      "me et",
      "m ir",
      "popul ar",
      "d umb",
      "r an",
      "mon ster",
      "emot ion",
      "uni que",
      "u gh",
      "v id",
      "bad ly",
      "cle ver",
      "ear lier",
      "pl us",
      "f u",
      "to tal",
      "st al",
      "er a",
      "work ed",
      "cr azy",
      "laugh s",
      "swe et",
      "so cial",
      "old er",
      "gre en",
      "dis cover",
      "exe cut",
      "beaut y",
      "re de",
      "real ize",
      "8 0",
      "c ers",
      "got ten",
      "wal k",
      "fant asy",
      "c ul",
      "w ol",
      "st ere",
      "s ens",
      "foot age",
      "ag er",
      "cre ate",
      "r ac",
      "ne g",
      "stere o",
      "wh om",
      "sound s",
      "direct ing",
      "develop ment",
      "th us",
      "feature s",
      "keep s",
      "sat is",
      "resul t",
      "adap t",
      "k a",
      "n ud",
      "19 6",
      "hand s",
      "perfect ly",
      "quick ly",
      "em p",
      "creep y",
      "reco gn",
      "w il",
      "is ing",
      "to wards",
      "girl friend",
      "bro ad",
      "c ro",
      "a ven",
      "c ir",
      "s an",
      "su ffer",
      "bo ard",
      "chees y",
      "k o",
      "t est",
      "br ings",
      "sci ence",
      "at s",
      "at tract",
      "pl enty",
      "christ mas",
      "necess ary",
      "r and",
      "st re",
      "lo ck",
      "ak ed",
      "oc cas",
      "incredi bly",
      "ac ts",
      "tech n",
      "carto on",
      "r on",
      "a wn",
      "s ar",
      "sugg est",
      "jo ke",
      "sci ent",
      "re turn",
      "all en",
      "ant i",
      "fam ili",
      "g es",
      "/> \"",
      "ly n",
      "fight ing",
      "adm it",
      "? )",
      "d im",
      "im m",
      "des per",
      "power ful",
      "h ill",
      "su it",
      "potent ial",
      "w ers",
      "ag ue",
      "ger man",
      "fair ly",
      "c ute",
      "famili ar",
      "ca pe",
      "cop y",
      "polit ical",
      "f at",
      "talent ed",
      "st ri",
      "con cept",
      "cr y",
      "off ic",
      "hard ly",
      "master piece",
      "as te",
      "di es",
      "d ers",
      "s pl",
      "mem bers",
      "p y",
      "n s",
      "fe ar",
      "var ious",
      "gh ts",
      "fail s",
      "lan gu",
      "se m",
      "his tor",
      "pr im",
      "mar ried",
      "dr ag",
      "col or",
      "portray ed",
      "19 3",
      "is land",
      "co ld",
      "ins ide",
      "gr am",
      "mis sing",
      "r ic",
      "er o",
      "out side",
      "reg ard",
      "nud ity",
      "i ans",
      "v il",
      "fil led",
      "sh ad",
      "cre w",
      "reason s",
      "lo gy",
      "for ce",
      "tr ave",
      "ide as",
      "ap ped",
      "pos itive",
      "w el",
      "w ild",
      "re lig",
      "sto re",
      "comp any",
      "expect ing",
      "deser ves",
      "tra il",
      "ic es",
      "b ase",
      "k i",
      "t able",
      "ach ie",
      "form er",
      "i ent",
      "miss ed",
      "em barr",
      "sk y",
      "1 5",
      "b iz",
      "w ro",
      "th s",
      "re make",
      "ie t",
      "ce i",
      "man ages",
      "19 4",
      "attem pts",
      "spoil ers",
      "t i",
      "z a",
      "ro ad",
      "inv est",
      "do ll",
      "embarr ass",
      "wro te",
      "de te",
      "w ind",
      "ell ing",
      "dr aw",
      "recent ly",
      "amoun t",
      "re cor",
      "li d",
      "ph ys",
      "9 0",
      "in sp",
      "go ver",
      "sad ly",
      "d ad",
      "d anger",
      "on ic",
      "s ess",
      "reve al",
      "g or",
      "i val",
      "r ain",
      "\" )",
      "g ress",
      "ac cident",
      "ul a",
      "w est",
      "produ ced",
      "off ice",
      "sel l",
      "th ur",
      "as her",
      "re ach",
      "film makers",
      "itt ed",
      "creat ed",
      "follow ing",
      "w art",
      "d ed",
      "s mo",
      "sc are",
      "impress ive",
      "incredi ble",
      "br ief",
      "was ted",
      "com mon",
      "19 5",
      "ann el",
      "ac cur",
      "was h",
      "ct ed",
      "h id",
      "pro ject",
      "b ility",
      "g lo",
      "n ational",
      "p ace",
      "w s",
      "es cape",
      "br others",
      "sub tle",
      "euro pe",
      "m es",
      "int ri",
      "pass ion",
      "cred it",
      "re venge",
      "cau ght",
      "sur vi",
      "success ful",
      "gl ad",
      "fa ith",
      "f ash",
      "appro ach",
      "i us",
      "w itch",
      "intellig ent",
      "w ed",
      "im medi",
      "com put",
      "part y",
      "ord in",
      "r up",
      "ch annel",
      "comple x",
      "wa iting",
      "m ere",
      "c ross",
      "if f",
      "dist urb",
      "( \"",
      "ar re",
      "mov es",
      "dec ides",
      "consider ing",
      "t es",
      "ch ase",
      "do or",
      "dan cing",
      "t ension",
      "mag ic",
      "a i",
      "s and",
      "sm ith",
      "shi ps",
      "se es",
      "de f",
      "de light",
      "point less",
      "slight ly",
      "es ome",
      "sl asher",
      "sp ent",
      "mak er",
      "to ugh",
      "con tri",
      "exc iting",
      "compare d",
      "sudden ly",
      "ne ither",
      "ex tra",
      "fun ni",
      "l or",
      "worth y",
      "k ar",
      "so lid",
      "p ack",
      "entire ly",
      "si x",
      "langu age",
      "act ions",
      "cho ice",
      "ital ian",
      "g ory",
      "and re",
      "com pe",
      "m ou",
      "cent ury",
      "laugh ing",
      "trou ble",
      "ter ror",
      "spo t",
      "d ar",
      "re qu",
      "bl ing",
      "cult ure",
      "ter ri",
      "man ner",
      "bas ic",
      "val ue",
      "anim ated",
      "biz arre",
      "br u",
      "ton y",
      "it ation",
      "viol ent",
      "heav y",
      "in form",
      "contin u",
      "h ang",
      "ch ur",
      "ultim ately",
      "iz ing",
      "sing ing",
      "present ed",
      "advent ure",
      "t one",
      "zomb ies",
      "b on",
      "ar ri",
      "di ed",
      "studi o",
      "ens ive",
      "book s",
      "pie ces",
      "dep end",
      "psy ch",
      "gen u",
      "big gest",
      "run s",
      "ad ult",
      "sp end",
      "shoo ting",
      "contro l",
      "s qu",
      "dep th",
      "crit ic",
      "b ust",
      "am using",
      "typ es",
      "h all",
      "l am",
      "pl es",
      "fash ion",
      "l ab",
      "br ut",
      "ak es",
      "portray al",
      "plan et",
      "n om",
      "ul ts",
      "cl ub",
      "appreci ate",
      "genu ine",
      "c row",
      "g le",
      "mil it",
      "ali en",
      "d ate",
      "g ent",
      "st an",
      "he y",
      "pr act",
      "crim inal",
      "t aste",
      "le ts",
      "gr ade",
      "fin ish",
      "ans wer",
      "b omb",
      "n ic",
      "u c",
      "young er",
      "chang ed",
      "is s",
      "ch an",
      "pro per",
      "aw esome",
      "sou th",
      "bor n",
      "fasc in",
      "o pport",
      "en n",
      "appear ance",
      "as ide",
      "st one",
      "tri p",
      "follow s",
      "al ex",
      "ad am",
      "leg end",
      "de m",
      "de press",
      "fav our",
      "colle ge",
      "im possible",
      "cr af",
      "b ond",
      "no ir",
      "ha un",
      "mis try",
      "is es",
      "al d",
      "ro g",
      "fo ol",
      "car ry",
      "ate ur",
      "re mark",
      "as ter",
      "de pict",
      "con tr",
      "che mistry",
      "produ cers",
      "wer en",
      "recommend ed",
      "en er",
      "than ks",
      "concl usion",
      "b age",
      "en ed",
      "show ed",
      "d ir",
      "am ateur",
      "ell a",
      "star ring",
      "ob sess",
      "except ion",
      "rede em",
      "s ion",
      "re ma",
      "sh ar",
      "consider ed",
      "situ ations",
      "mill ion",
      "gover n",
      "c am",
      "it es",
      "ic ed",
      "nor mal",
      "i ers",
      "10 0",
      "disturb ing",
      "com plain",
      "ste ve",
      "invol ving",
      "b arely",
      "some where",
      "au thor",
      "bo ss",
      "min or",
      "fail ed",
      "surpris ingly",
      "develo ped",
      "st ers",
      "ic an",
      "dec ide",
      "leav ing",
      "lou d",
      "wol f",
      "as su",
      "bo ther",
      "picture s",
      "pur pose",
      "gr ad",
      "add ed",
      "quest ions",
      "fict ion",
      "ess ent",
      "long er",
      "g as",
      "fo x",
      "bl es",
      "lik es",
      "comput er",
      "pro gram",
      "audi ences",
      "b low",
      "ent er",
      "fa ke",
      "cons ist",
      "d ick",
      "re ct",
      "ne igh",
      "y ed",
      "mo od",
      "tur ning",
      "n ie",
      "p il",
      "ar thur",
      "pro ve",
      "char ming",
      "coun ter",
      "imag es",
      "sho ot",
      "appe ared",
      "dri ve",
      "insp ired",
      "g ust",
      "be ar",
      "gr ant",
      "val ues",
      "har ry",
      "a us",
      "f ell",
      "aw ard",
      "ste wart",
      "gener ally",
      "liter ally",
      "stun ning",
      "l ay",
      "l eng",
      "lo ad",
      "ap er",
      "ye ah",
      "cu ri",
      "lon don",
      "jour ney",
      "j ef",
      "k es",
      "gr ace",
      "mot ion",
      "cost um",
      "t un",
      "in y",
      "al ive",
      "1 1",
      "t ro",
      "pro p",
      "ed ge",
      "mo on",
      "stand ard",
      "myster ious",
      "po p",
      "pl ane",
      "cli che",
      "gar bage",
      "lik able",
      "immedi ately",
      "milit ary",
      "j ump",
      "k no",
      "r ick",
      "in sul",
      "sm art",
      "wal king",
      "hum our",
      "dete ctive",
      "an th",
      "belie f",
      "7 0",
      "b ought",
      "just ice",
      "resp ons",
      "rand om",
      "m are",
      "th in",
      "pe cts",
      "co re",
      "av ail",
      "christ ian",
      "s her",
      "in ing",
      "ment al",
      "impress ion",
      "c ell",
      "n ast",
      "as pect",
      "ar ily",
      "know ing",
      "honest ly",
      "inno cent",
      "ar my",
      "se g",
      "not ice",
      "fe at",
      "gen ius",
      "** *",
      "pa ir",
      "utter ly",
      "adapt ation",
      "shad ow",
      "invest ig",
      "r are",
      "no body",
      "ind ust",
      "mar ri",
      "iz ation",
      "j es",
      "s itting",
      "is on",
      "ser ial",
      "fest ival",
      "f al",
      "s of",
      "il t",
      "ro c",
      "co ck",
      "dr awn",
      "suc ceed",
      "\" .<",
      "j ones",
      "l ord",
      "t end",
      "me lo",
      "mor al",
      "cei ved",
      "sex y",
      "sou l",
      "clim ax",
      "n u",
      "in it",
      "th reat",
      "person ally",
      "miss ion",
      "n aked",
      "ab sur",
      "wo w",
      "4 0",
      "no where",
      "int ent",
      "ste al",
      "wood s",
      "wit ness",
      "w id",
      "bl ue",
      "intri gu",
      "d s",
      "i tor",
      "r ide",
      "or ts",
      "dream s",
      "satis f",
      "o li",
      "se y",
      "oc cur",
      "ordin ary",
      "spe c",
      "min is",
      "comed ies",
      "sil ent",
      "char lie",
      "bl ed",
      "bot tom",
      "rema ins",
      "think s",
      "w is",
      "tor ture",
      "produ cer",
      "tw ists",
      "be ha",
      "tr ust",
      "beautiful ly",
      "g ag",
      "ter rific",
      "un believable",
      "char m",
      "touch ing",
      "a ire",
      "m oun",
      "th om",
      "mov ed",
      "bat man",
      "issu es",
      "b od",
      "n ames",
      "ter ms",
      "plac es",
      "equ ally",
      "rus s",
      "b ir",
      "ke lly",
      "con fl",
      "blo ck",
      "sy ste",
      "top her",
      "en ced",
      "su spect",
      "ph y",
      "pos ition",
      "dev il",
      "mist ake",
      "and a",
      "man aged",
      "je an",
      "fel low",
      "profess ional",
      "chur ch",
      "1 8",
      "i to",
      "m m",
      "m ild",
      "ch ick",
      "night mare",
      "g ree",
      "n el",
      "be ll",
      "dr unk",
      "narr ative",
      "govern ment",
      "p ush",
      "the s",
      "ex p",
      "love ly",
      "laugh able",
      "an o",
      "es h",
      "them es",
      "sold iers",
      "d or",
      "like ly",
      "ce le",
      "if ied",
      "bo b",
      "que en",
      "disappoint ing",
      "absur d",
      "ver se",
      "comm un",
      "br id",
      "ter min",
      "out standing",
      "exc use",
      "appro pri",
      "marri age",
      "con tem",
      "pain ful",
      "spoil er",
      "attract ive",
      "costum es",
      "n ick",
      "tr ick",
      "af fair",
      "aw are",
      "dis co",
      "cor rect",
      "sure ly",
      "flash back",
      "ch er",
      "lo y",
      "he ld",
      "cent ral",
      "iz es",
      "laugh ter",
      "00 0",
      "chris topher",
      "const antly",
      "m ult",
      "ch in",
      "watch able",
      "gr y",
      "off er",
      "view s",
      "cinemat ic",
      "b our",
      "f low",
      "th rown",
      "ire s",
      "med io",
      "indi vid",
      "hot el",
      "chang es",
      "h at",
      "lo ves",
      "every body",
      "bre ath",
      "slow ly",
      "dest roy",
      "f le",
      "in flu",
      "id ence",
      "pres ence",
      "contain s",
      "avail able",
      "char les",
      "bu ck",
      "anim als",
      "indi an",
      "photo graphy",
      "detail s",
      "bes ides",
      "histor ical",
      "e li",
      "p age",
      "w ide",
      "es cap",
      "di g",
      "g ri",
      "l ish",
      "is a",
      "if y",
      "g ain",
      "in depend",
      "re main",
      "scen ery",
      "hop ing",
      "hen ry",
      "1 3",
      "b ing",
      "in spir",
      "pro te",
      "bil ly",
      "on to",
      "bo o",
      "ough ly",
      "disappoint ment",
      "speak ing",
      "int ended",
      "cr ack",
      "expect ations",
      "led ge",
      "num bers",
      "in i",
      "par k",
      "comm er",
      "build ing",
      "s ight",
      "sub st",
      "dou ble",
      "the less",
      "qu al",
      "stand s",
      "cle an",
      "uni vers",
      "sum mer",
      "a head",
      "in ner",
      "lo ose",
      "ive ly",
      "crit ics",
      "graph ic",
      "z ero",
      "ing er",
      "lo ver",
      "dis cus",
      "boy friend",
      "add ition",
      "imag in",
      "oper a",
      "al an",
      "as pects",
      "sup pose",
      "b its",
      "se ven",
      "mo del",
      "vi a",
      "fascin ating",
      "ar ts",
      "su ff",
      "com fort",
      "du b",
      "ph one",
      "plac ed",
      "d ated",
      "e at",
      "p un",
      "ad es",
      "he aven",
      "ho les",
      "com pl",
      "ind er",
      "int ense",
      "will ing",
      "feel ings",
      "a a",
      "im age",
      "do w",
      "sp an",
      "fore ver",
      "light ing",
      "1 2",
      "st on",
      "film ing",
      "ho sp",
      "sur round",
      "fri ght",
      "main ly",
      "nor m",
      "bru ce",
      "opport unity",
      "ele ment",
      "comp elling",
      "stud ent",
      "w y",
      "ic ide",
      "pro t",
      "in ated",
      "li ved",
      "dr ink",
      "sid ent",
      "hur t",
      "individ ual",
      "e th",
      "re sem",
      "sha k",
      "emot ions",
      "neigh bor",
      "g orge",
      "tr aged",
      "pro ves",
      "j an",
      "cont ent",
      "tw ice",
      "cele br",
      "c el",
      "in c",
      "tr ag",
      "sa fe",
      "prot agon",
      "r ace",
      "ure d",
      "mag n",
      "g ro",
      "int ention",
      "happen ing",
      "imp act",
      "fall ing",
      "bir th",
      "m ex",
      "p i",
      "t ired",
      "and ers",
      "id i",
      "je cts",
      "vir t",
      "k r",
      "ar gu",
      "ver t",
      "can ad",
      "mon t",
      "put s",
      "m ut",
      "br and",
      "pri v",
      "colle ction",
      "jer ry",
      "h ide",
      "z en",
      "ar m",
      "ant e",
      "bl and",
      "gi ant",
      "win ning",
      "conf used",
      "ain e",
      "has n",
      "ra pe",
      "victim s",
      "trail er",
      "ad ults",
      "am ed",
      "dis gust",
      "new s",
      "differ ence",
      "tit les",
      "incl ude",
      "g ames",
      "gr at",
      "pa id",
      "hel ps",
      "pul l",
      "beha vi",
      "commer cial",
      "c ard",
      "e ight",
      "st even",
      "ur a",
      "ge m",
      "art ist",
      "follow ed",
      "dam n",
      "syste m",
      "p in",
      "an ne",
      "ad o",
      "gen e",
      "por n",
      "creat ive",
      "plo ts",
      "mart in",
      "s lo",
      "put ting",
      "sha re",
      "k u",
      "bl ind",
      "dec is",
      "d read",
      "f li",
      "sto ck",
      "actress es",
      "gorge ous",
      "m ine",
      "ho st",
      "di v",
      "orig in",
      "laugh ed",
      "conf using",
      "neg ative",
      "c um",
      "es ts",
      "pro gress",
      "americ ans",
      "ug ly",
      "mur ders",
      "pleas ant",
      "lat ter",
      "medio cre",
      "b ak",
      "b ird",
      "r out",
      "it ional",
      "as ts",
      "pro ved",
      "hosp ital",
      "n an",
      "y er",
      "ly ing",
      "br ad",
      "lack s",
      "supposed ly",
      "g in",
      "as ks",
      "ch ill",
      "br ight",
      "ro t",
      "cr ash",
      "impress ed",
      "flaw s",
      "funni est",
      "on na",
      "mo te",
      "ag ent",
      "bo l",
      "relation ships",
      "re y",
      "li f",
      "ig no",
      "em plo",
      "occas ion",
      "mult i",
      "traged y",
      "g s",
      "w ing",
      "to ur",
      "fr ust",
      "fac es",
      "stud ents",
      "y a",
      "ho ok",
      "au to",
      "spe ed",
      "war m",
      "child hood",
      "nast y",
      "f ish",
      "t ies",
      "ap s",
      "est ab",
      "fo c",
      "less ly",
      "wonder ing",
      "fre ak",
      "fi ed",
      "mere ly",
      "kno ck",
      "c up",
      "j ul",
      "ro se",
      "find ing",
      "c ab",
      "u ous",
      "re sc",
      "br ian",
      "flick s",
      "fly ing",
      "b ank",
      "e per",
      "l au",
      "and s",
      "li a",
      "fol ks",
      "imag ination",
      "deli vers",
      "explain ed",
      "stru ct",
      "f if",
      "ir rit",
      "tr an",
      "vie t",
      "stand ards",
      "form ula",
      "cli ches",
      "dav is",
      "it ude",
      "and er",
      "for gotten",
      "sold ier",
      "mou th",
      "at on",
      "st ation",
      "be coming",
      "lo ving",
      "li ghts",
      "mat ic",
      "comp an",
      "deser ved",
      "trag ic",
      "6 0",
      "s ant",
      "re mote",
      "as es",
      "con ve",
      "stu ck",
      "spect ac",
      "b um",
      "po wers",
      "off ers",
      "rob in",
      "afr aid",
      "? !",
      "j on",
      "cast le",
      "second s",
      "sk in",
      "thor oughly",
      "prov ides",
      "sof t",
      "shak espe",
      "lo s",
      "so ci",
      "ex tr",
      "forget table",
      "achie ve",
      "n al",
      "r ush",
      "co w",
      "co ok",
      "seem ingly",
      "inform ation",
      "is ter",
      "st ates",
      "con vent",
      "ction s",
      "war ning",
      "william s",
      "remind ed",
      "b ath",
      "ut s",
      "lo se",
      "anim al",
      "jack son",
      "break ing",
      "accur ate",
      "e ch",
      "m ic",
      "that s",
      "indust ry",
      "u k",
      "ste in",
      "o v",
      "bu ff",
      "leng th",
      "br ok",
      "cap tain",
      "hid den",
      "h ab",
      "ac ade",
      "art istic",
      "fo od",
      "list en",
      "loc ation",
      ". ,",
      "h ack",
      "z o",
      "he al",
      "are a",
      "ag ger",
      "ren d",
      "hor se",
      "should n",
      "rel ative",
      "creat ure",
      "hero es",
      "shock ing",
      "pres ents",
      "remark able",
      "and on",
      "you th",
      "po t",
      "wood en",
      "bur n",
      "apart ment",
      "scient ist",
      "pr a",
      "ren ted",
      "gl ing",
      "person ality",
      "t ie",
      "w w",
      "ch uck",
      "be th",
      "ac cor",
      ".. ...",
      "we ap",
      "she l",
      "add s",
      "dir ty",
      "chin ese",
      "an gry",
      "pre fer",
      "clo thes",
      "p unch",
      "it ions",
      "un cle",
      "ex plan",
      "there fore",
      "head s",
      "rad io",
      "w ars",
      "film maker",
      "pro cess",
      "fin ished",
      "pleas ure",
      "shakespe are",
      "g al",
      "j um",
      "j ason",
      "n az",
      "st ren",
      "de part",
      "up s",
      "any more",
      "gl as",
      "jud ge",
      "aust ral",
      "c ate",
      "h s",
      "ar ies",
      "mo b",
      "la ke",
      "pick ed",
      "jef f",
      "s ac",
      "s li",
      "un expected",
      "step hen",
      "t ay",
      "ing ton",
      "sc o",
      "au d",
      "dan ny",
      "mart ial",
      "descri be",
      "poss ess",
      "tech no",
      "favour ite",
      "e ast",
      "f are",
      "r ul",
      "ma x",
      "super ior",
      "mach ine",
      "en cy",
      "we e",
      "bar bar",
      "intellig ence",
      "strug gle",
      "redeem ing",
      "stren g",
      "c gi",
      "h itch",
      "r age",
      "ch ap",
      "fil l",
      "we aring",
      "bo w",
      "fo ld",
      "sy n",
      "allow ed",
      "drug s",
      "moun tain",
      "har ris",
      "eng aging",
      "teen age",
      "relig ious",
      "s our",
      "ent ious",
      "te ars",
      "hel ped",
      "wonder fully",
      "desper ate",
      "a po",
      "f its",
      "h ic",
      "h und",
      "t ex",
      "theat re",
      "repe ated",
      "rup t",
      "b id",
      "so ever",
      "jo se",
      "dis aster",
      "real ized",
      "mot iv",
      "human s",
      "trans form",
      "teach er",
      "b ound",
      "f ights",
      "p se",
      "th ir",
      "com paris",
      "man n",
      "con vers",
      "includ es",
      "deep ly",
      "revol ution",
      "p it",
      "z an",
      "re search",
      "al y",
      "lo ss",
      "what soever",
      "real ism",
      "dro p",
      "issu e",
      "com mentary",
      "ep ic",
      "op pos",
      "pret entious",
      "beg an",
      "bro ok",
      "sym path",
      "b io",
      "c able",
      "v it",
      "st at",
      "br own",
      "le on",
      "lim ited",
      "techn ical",
      "v ac",
      "ic o",
      "su icide",
      "fl esh",
      "gre t",
      "sk ip",
      "ener gy",
      ". '",
      "c ars",
      "so ap",
      "ci vil",
      "phys ical",
      "independ ent",
      "tay lor",
      "a pe",
      "d ying",
      "r arely",
      "el s",
      "man age",
      "comed ic",
      "cal i",
      "dou glas",
      "phil o",
      "brut al",
      "ri ver",
      "pp y",
      "john ny",
      "spect ive",
      "introdu ced",
      "stre am",
      "h ay",
      "j a",
      "sl ap",
      "confl ict",
      "k ate",
      "gr ave",
      "str ain",
      "mor gan",
      "appropri ate",
      "ed die",
      "de but",
      "pt ion",
      "play er",
      "des ire",
      "ot ed",
      "super man",
      "sent iment",
      "vic tori",
      "respons ible",
      "t ight",
      "as ure",
      "il o",
      "un usual",
      "pre c",
      "any body",
      "co her",
      "af f",
      "hold s",
      "magn ific",
      "n ation",
      "as p",
      "ir a",
      "bb ish",
      "apparen t",
      "prin ce",
      "8 0s",
      "d un",
      "ed uc",
      "un known",
      "ke aton",
      "ap es",
      "bo at",
      "aw k",
      "part ner",
      "med ia",
      "tw enty",
      "contin ue",
      "norm ally",
      "d um",
      "v ive",
      "re sol",
      "re turns",
      "un necessary",
      "jo an",
      "kid n",
      "cap t",
      "hit ler",
      "c age",
      "ou d",
      "know ledge",
      "perfor m",
      "mem ory",
      "surpris ing",
      "pro vide",
      "az z",
      "engl and",
      "wed ding",
      "ito us",
      "c ere",
      "n ia",
      "as ing",
      "sc ared",
      "any where",
      "dr y",
      "blo ody",
      "cut s",
      "b ian",
      "j r",
      "k in",
      "l ind",
      "m ate",
      "er ous",
      "st ret",
      "sign ific",
      "russ ian",
      "7 0s",
      "j ay",
      "cap able",
      "hund red",
      "s ir",
      "as ked",
      "com plic",
      "pre sident",
      "co ps",
      "av es",
      "ious ly",
      "sho p",
      "sm ile",
      "grap her",
      "lead er",
      "const ant",
      "exper iment",
      "recor d",
      "pil ot",
      "intrigu ing",
      "s tor",
      "ill a",
      "if er",
      "sh ir",
      "pr ice",
      "nor th",
      "pac ed",
      "brok en",
      "f ate",
      "g am",
      "r ise",
      "th ous",
      "at ter",
      "st ink",
      "some body",
      "char is",
      "bl on",
      "inter pret",
      "creat ing",
      "nice ly",
      "gun s",
      "grow ing",
      "lyn ch",
      "c andy",
      "it ty",
      "il s",
      "want ing",
      "lad ies",
      "h ated",
      "se a",
      "se par",
      "ve hic",
      "cr is",
      "understand ing",
      "mi ke",
      "pac ing",
      "remind s",
      "acade my",
      "t u",
      "human ity",
      "accor ding",
      "g ary",
      "h art",
      "p aper",
      "re ck",
      "ac qu",
      "ac compl",
      "not iced",
      "fe t",
      "ip ul",
      "dress ed",
      "p up",
      "don ald",
      "cho re",
      "hero ine",
      "luck y",
      "bust er",
      "l ust",
      "re por",
      "en e",
      "qu iet",
      "ang le",
      "call s",
      "awk ward",
      "lo vers",
      "for ces",
      "ab s",
      "cour t",
      "c ass",
      "pe ace",
      "fre ed",
      "pass ed",
      "tar zan",
      "fred dy",
      "danger ous",
      "jes us",
      "explan ation",
      ": <",
      "ex plic",
      "bl ame",
      "comm unity",
      "high er",
      "ches ter",
      "mix ed",
      "discover ed",
      "origin ally",
      "n es",
      "re present",
      "ke vin",
      "so ph",
      "ous y",
      "vis it",
      "vis ible",
      "inst ance",
      ") <",
      "b ag",
      "c il",
      "d ut",
      "v s",
      "fr ame",
      "per s",
      "non sense",
      "intel lect",
      "dim ens",
      "f ond",
      "it z",
      "ir on",
      "sp ring",
      "play ers",
      "own er",
      "inv ent",
      "deser ve",
      "v ul",
      "bel ong",
      "-- -",
      "tech ni",
      "o te",
      "r at",
      "er ic",
      "to ward",
      "vir gin",
      "i est",
      "l one",
      "l ap",
      "w anna",
      "or gan",
      "br ave",
      "wh il",
      "mat ure",
      "cor por",
      "sing er",
      "start ing",
      "europe an",
      "v hs",
      "ch ief",
      "li ed",
      "friend ship",
      "fre qu",
      "rif ying",
      "sym pathetic",
      "n ine",
      "ed ited",
      "un ion",
      "so le",
      "had n",
      "ser ved",
      "cur rent",
      "flo or",
      "prin ci",
      "span ish",
      "whil st",
      "1 4",
      "c ash",
      "e ating",
      "ro o",
      "fe ction",
      "mar ket",
      "cour age",
      "na ive",
      "keep ing",
      "ru bbish",
      "suck s",
      "e z",
      "m um",
      "no ld",
      "ant on",
      "sim on",
      "offic er",
      "contr ast",
      "a br",
      "t t",
      "pro ceed",
      "sav ed",
      "memor ies",
      "natur ally",
      "villain s",
      "satisf ying",
      "j ess",
      "ic ate",
      "pre pare",
      "af fect",
      "fin est",
      "sat ur",
      "serv ice",
      "i ac",
      "pl ess",
      "sp ort",
      "mon sters",
      "lack ing",
      "sav ing",
      "feat uring",
      "k ong",
      "le wis",
      "gold en",
      "cru el",
      "emp ty",
      "sant a",
      "i ke",
      "m u",
      "t ext",
      "ch air",
      "be low",
      "ab andon",
      "ne ck",
      "con stru",
      "sa ur",
      "kind a",
      "reg ular",
      "treat ed",
      "concer ned",
      "s end",
      "for ts",
      "were wolf",
      "mar ry",
      "hor ri",
      "ins ane",
      "gl ass",
      "pul led",
      "resul ts",
      "jim my",
      "wash ington",
      "delight ful",
      "terri bly",
      "we ight",
      "rel ated",
      "tre k",
      "lu ke",
      ".\" <",
      "rele v",
      "hop es",
      "wit ty",
      "dom in",
      "h its",
      "r ings",
      "dis h",
      "mon ths",
      "mor ning",
      "heart ed",
      "includ ed",
      "bb ing",
      "g rown",
      "j am",
      "el le",
      "ass ist",
      "mar vel",
      "ob ject",
      "tar get",
      "appeal ing",
      "scream ing",
      "priv ate",
      "j enn",
      "k im",
      "s now"
    ]
  }
}