{
  "version": "1.0",
  "truncation": null,
  "padding": null,
  "added_tokens": [
    {
      "id": 0,
      "content": "[PAD]",
      "single_word": false,
      "lstrip": false,
      "rstrip": false,
      "normalized": false,
      "special": true
    },
    {
      "id": 1,
      "content": "[UNK]",
      "single_word": false,
      "lstrip": false,
      "rstrip": false,
      "normalized": false,
      "special": true
    },
    {
      "id": 2,
      "content": "[CLS]",
      "single_word": false,
      "lstrip": false,
      "rstrip": false,
      "normalized": false,
      "special": true
    },
    {
      "id": 3,
      "content": "[MASK], [SEP]",
      "single_word": false,
      "lstrip": false,
      "rstrip": false,
      "normalized": false,
      "special": true
    }
  ],
  "normalizer": {
    "type": "BertNormalizer",
    "clean_text": true,
    "handle_chinese_chars": true,
    "strip_accents": true,
    "lowercase": true
  },
  "pre_tokenizer": {
    "type": "Whitespace"
  },
  "post_processor": null,
  "decoder": null,
  "model": {
    "type": "WordPiece",
    "unk_token": "[UNK]",
    "continuing_subword_prefix": "##",
    "max_input_chars_per_word": 100,
    "vocab": {
      "[PAD]": 0,
      "[UNK]": 1,
      "[CLS]": 2,
      "[MASK], [SEP]": 3,
      "!": 4,
      "\"": 5,
      "#": 6,
      "$": 7,
      "%": 8,
      "&": 9,
      "'": 10,
      "(": 11,
      ")": 12,
      "*": 13,
      "+": 14,
      ",": 15,
      "-": 16,
      ".": 17,
      "/": 18,
      "0": 19,
      "1": 20,
      "2": 21,
      "3": 22,
      "4": 23,
      "5": 24,
      "6": 25,
      "7": 26,
      "8": 27,
      "9": 28,
      ":": 29,
      ";": 30,
      "=": 31,
      ">": 32,
      "?": 33,
      "@": 34,
      "[": 35,
      "\\": 36,
      "]": 37,
      "^": 38,
      "_": 39,
      "`": 40,
      "a": 41,
      "b": 42,
      "c": 43,
      "d": 44,
      "e": 45,
      "f": 46,
      "g": 47,
      "h": 48,
      "i": 49,
      "j": 50,
      "k": 51,
      "l": 52,
      "m": 53,
      "n": 54,
      "o": 55,
      "p": 56,
      "q": 57,
      "r": 58,
      "s": 59,
      "t": 60,
      "u": 61,
      "v": 62,
      "w": 63,
      "x": 64,
      "y": 65,
      "z": 66,
      "{": 67,
      "|": 68,
      "}": 69,
      "~": 70,
      "¡": 71,
      "¢": 72,
      "£": 73,
      "¤": 74,
      "¥": 75,
      "¦": 76,
      "§": 77,
      "¨": 78,
      "©": 79,
      "ª": 80,
      "«": 81,
      "¬": 82,
      "®": 83,
      "¯": 84,
      "°": 85,
      "±": 86,
      "²": 87,
      "³": 88,
      "´": 89,
      "µ": 90,
      "¶": 91,
      "·": 92,
      "¸": 93,
      "¹": 94,
      "º": 95,
      "»": 96,
      "¼": 97,
      "½": 98,
      "¾": 99,
      "¿": 100,
      "ð": 101,
      "÷": 102,
      "ø": 103,
      "ı": 104,
      "ł": 105,
      "ŋ": 106,
      "ƒ": 107,
      "ƪ": 108,
      "ə": 109,
      "ɣ": 110,
      "ʃ": 111,
      "ʊ": 112,
      "ʰ": 113,
      "ʳ": 114,
      "ʷ": 115,
      "ʸ": 116,
      "ˆ": 117,
      "ˇ": 118,
      "˘": 119,
      "˚": 120,
      "˛": 121,
      "ˡ": 122,
      "ˢ": 123,
      "α": 124,
      "γ": 125,
      "ι": 126,
      "μ": 127,
      "ο": 128,
      "σ": 129,
      "υ": 130,
      "φ": 131,
      "а": 132,
      "б": 133,
      "д": 134,
      "е": 135,
      "з": 136,
      "и": 137,
      "к": 138,
      "л": 139,
      "н": 140,
      "о": 141,
      "п": 142,
      "р": 143,
      "у": 144,
      "щ": 145,
      "я": 146,
      "ҩ": 147,
      "ү": 148,
      "ԃ": 149,
      "،": 150,
      "ا": 151,
      "ب": 152,
      "ة": 153,
      "ت": 154,
      "ث": 155,
      "ح": 156,
      "د": 157,
      "ر": 158,
      "ز": 159,
      "س": 160,
      "ش": 161,
      "ص": 162,
      "ع": 163,
      "ف": 164,
      "ق": 165,
      "ل": 166,
      "م": 167,
      "ن": 168,
      "ه": 169,
      "و": 170,
      "ى": 171,
      "ي": 172,
      "ټ": 173,
      "پ": 174,
      "چ": 175,
      "ک": 176,
      "ہ": 177,
      "ی": 178,
      "ے": 179,
      "۔": 180,
      "अ": 181,
      "आ": 182,
      "उ": 183,
      "ऊ": 184,
      "ए": 185,
      "औ": 186,
      "क": 187,
      "ग": 188,
      "ज": 189,
      "झ": 190,
      "ट": 191,
      "ड": 192,
      "त": 193,
      "द": 194,
      "न": 195,
      "प": 196,
      "ब": 197,
      "म": 198,
      "य": 199,
      "र": 200,
      "ल": 201,
      "व": 202,
      "श": 203,
      "स": 204,
      "ह": 205,
      "ा": 206,
      "ि": 207,
      "ी": 208,
      "ो": 209,
      "।": 210,
      "५": 211,
      "ก": 212,
      "ค": 213,
      "ง": 214,
      "จ": 215,
      "ด": 216,
      "ต": 217,
      "น": 218,
      "ป": 219,
      "พ": 220,
      "ม": 221,
      "ร": 222,
      "ว": 223,
      "ส": 224,
      "ะ": 225,
      "า": 226,
      "เ": 227,
      "แ": 228,
      "ไ": 229,
      "ᄅ": 230,
      "ᄆ": 231,
      "ᄇ": 232,
      "ᄉ": 233,
      "ᄋ": 234,
      "ᄌ": 235,
      "ᄎ": 236,
      "ᅡ": 237,
      "ᅧ": 238,
      "ᅩ": 239,
      "ᅮ": 240,
      "ᅵ": 241,
      "ᆫ": 242,
      "ᆯ": 243,
      "ᆼ": 244,
      "ᵃ": 245,
      "ᵇ": 246,
      "ᵉ": 247,
      "ᵍ": 248,
      "ᵐ": 249,
      "ᵒ": 250,
      "ᵖ": 251,
      "ᵗ": 252,
      "ᵘ": 253,
      "ᵛ": 254,
      "ᶠ": 255,
      "–": 256,
      "—": 257,
      "‘": 258,
      "’": 259,
      "‚": 260,
      "“": 261,
      "”": 262,
      "„": 263,
      "•": 264,
      "․": 265,
      "…": 266,
      "›": 267,
      "‽": 268,
      "‾": 269,
      "ⁱ": 270,
      "ⁿ": 271,
      "€": 272,
      "™": 273,
      "∂": 274,
      "∫": 275,
      "⌣": 276,
      "─": 277,
      "╥": 278,
      "▶": 279,
      "►": 280,
      "▼": 281,
      "▿": 282,
      "●": 283,
      "★": 284,
      "☆": 285,
      "☑": 286,
      "☕": 287,
      "☝": 288,
      "☭": 289,
      "☹": 290,
      "☺": 291,
      "☻": 292,
      "♡": 293,
      "♣": 294,
      "♥": 295,
      "♨": 296,
      "♪": 297,
      "♫": 298,
      "⚠": 299,
      "⚡": 300,
      "⛽": 301,
      "✊": 302,
      "✋": 303,
      "✌": 304,
      "✎": 305,
      "✗": 306,
      "✨": 307,
      "❌": 308,
      "❝": 309,
      "❞": 310,
      "❤": 311,
      "➤": 312,
      "➳": 313,
      "⠀": 314,
      "⨾": 315,
      "、": 316,
      "。": 317,
      "》": 318,
      "【": 319,
      "】": 320,
      "〝": 321,
      "〞": 322,
      "ぁ": 323,
      "い": 324,
      "え": 325,
      "お": 326,
      "か": 327,
      "く": 328,
      "こ": 329,
      "し": 330,
      "す": 331,
      "た": 332,
      "ち": 333,
      "っ": 334,
      "て": 335,
      "と": 336,
      "な": 337,
      "の": 338,
      "は": 339,
      "み": 340,
      "め": 341,
      "も": 342,
      "や": 343,
      "ょ": 344,
      "よ": 345,
      "ら": 346,
      "り": 347,
      "る": 348,
      "れ": 349,
      "ろ": 350,
      "を": 351,
      "ア": 352,
      "イ": 353,
      "ウ": 354,
      "ォ": 355,
      "オ": 356,
      "ス": 357,
      "ツ": 358,
      "ト": 359,
      "ナ": 360,
      "ニ": 361,
      "ハ": 362,
      "フ": 363,
      "ホ": 364,
      "ム": 365,
      "ュ": 366,
      "ラ": 367,
      "リ": 368,
      "ル": 369,
      "レ": 370,
      "ロ": 371,
      "ワ": 372,
      "ン": 373,
      "・": 374,
      "ー": 375,
      "ㅡ": 376,
      "中": 377,
      "互": 378,
      "井": 379,
      "你": 380,
      "前": 381,
      "動": 382,
      "大": 383,
      "奈": 384,
      "少": 385,
      "山": 386,
      "川": 387,
      "年": 388,
      "後": 389,
      "志": 390,
      "憎": 391,
      "手": 392,
      "杏": 393,
      "概": 394,
      "死": 395,
      "殺": 396,
      "猫": 397,
      "田": 398,
      "発": 399,
      "的": 400,
      "相": 401,
      "石": 402,
      "自": 403,
      "裕": 404,
      "要": 405,
      "見": 406,
      "貴": 407,
      "足": 408,
      "踏": 409,
      "﹏": 410,
      "！": 411,
      "（": 412,
      "）": 413,
      "，": 414,
      "＜": 415,
      "＞": 416,
      "？": 417,
      "＿": 418,
      "｀": 419,
      "ｗ": 420,
      "ﾉ": 421,
      "𝐀": 422,
      "𝐒": 423,
      "𝐕": 424,
      "𝐚": 425,
      "𝐜": 426,
      "𝐞": 427,
      "𝐢": 428,
      "𝐥": 429,
      "𝐧": 430,
      "𝐬": 431,
      "𝐭": 432,
      "𝐮": 433,
      "𝓘": 434,
      "𝓪": 435,
      "𝓫": 436,
      "𝓬": 437,
      "𝓭": 438,
      "𝓮": 439,
      "𝓰": 440,
      "𝓱": 441,
      "𝓲": 442,
      "𝓴": 443,
      "𝓵": 444,
      "𝓷": 445,
      "𝓸": 446,
      "𝓻": 447,
      "𝓽": 448,
      "𝓾": 449,
      "𝔀": 450,
      "𝔂": 451,
      "𝕀": 452,
      "𝕒": 453,
      "𝕔": 454,
      "𝕕": 455,
      "𝕖": 456,
      "𝕘": 457,
      "𝕙": 458,
      "𝕚": 459,
      "𝕝": 460,
      "𝕞": 461,
      "𝕟": 462,
      "𝕠": 463,
      "𝕢": 464,
      "𝕣": 465,
      "𝕤": 466,
      "𝕥": 467,
      "𝕦": 468,
      "𝕧": 469,
      "𝕨": 470,
      "𝕪": 471,
      "𝕫": 472,
      "𝗼": 473,
      "𝚎": 474,
      "𝚒": 475,
      "𝚕": 476,
      "𝚜": 477,
      "𝚞": 478,
      "𝚟": 479,
      "🅰": 480,
      "🆖": 481,
      "🌋": 482,
      "🌟": 483,
      "🌸": 484,
      "🍊": 485,
      "🍋": 486,
      "🍌": 487,
      "🍓": 488,
      "🍗": 489,
      "🍦": 490,
      "🍩": 491,
      "🍳": 492,
      "🍴": 493,
      "🎁": 494,
      "🎧": 495,
      "🎵": 496,
      "🎶": 497,
      "🎼": 498,
      "🏀": 499,
      "🐀": 500,
      "🐊": 501,
      "🐎": 502,
      "🐕": 503,
      "🐙": 504,
      "🐚": 505,
      "🐟": 506,
      "🐧": 507,
      "🐸": 508,
      "👉": 509,
      "👊": 510,
      "👌": 511,
      "👍": 512,
      "👎": 513,
      "👏": 514,
      "👔": 515,
      "👗": 516,
      "👠": 517,
      "👢": 518,
      "👦": 519,
      "👧": 520,
      "👯": 521,
      "👳": 522,
      "👹": 523,
      "👿": 524,
      "💁": 525,
      "💃": 526,
      "💅": 527,
      "💉": 528,
      "💋": 529,
      "💓": 530,
      "💔": 531,
      "💕": 532,
      "💙": 533,
      "💜": 534,
      "💨": 535,
      "💩": 536,
      "💪": 537,
      "💬": 538,
      "💯": 539,
      "📖": 540,
      "📝": 541,
      "📱": 542,
      "📷": 543,
      "📺": 544,
      "🔖": 545,
      "🔥": 546,
      "🔫": 547,
      "🔵": 548,
      "😀": 549,
      "😁": 550,
      "😂": 551,
      "😃": 552,
      "😄": 553,
      "😅": 554,
      "😆": 555,
      "😇": 556,
      "😈": 557,
      "😉": 558,
      "😊": 559,
      "😋": 560,
      "😌": 561,
      "😍": 562,
      "😎": 563,
      "😏": 564,
      "😐": 565,
      "😒": 566,
      "😓": 567,
      "😔": 568,
      "😕": 569,
      "😘": 570,
      "😚": 571,
      "😛": 572,
      "😜": 573,
      "😝": 574,
      "😞": 575,
      "😟": 576,
      "😠": 577,
      "😡": 578,
      "😢": 579,
      "😣": 580,
      "😤": 581,
      "😥": 582,
      "😦": 583,
      "😧": 584,
      "😨": 585,
      "😩": 586,
      "😫": 587,
      "😬": 588,
      "😭": 589,
      "😯": 590,
      "😰": 591,
      "😱": 592,
      "😲": 593,
      "😳": 594,
      "😴": 595,
      "😵": 596,
      "😷": 597,
      "😹": 598,
      "😻": 599,
      "🙀": 600,
      "🙅": 601,
      "🙈": 602,
      "🙉": 603,
      "🙊": 604,
      "🙌": 605,
      "🙏": 606,
      "🚦": 607,
      "🚬": 608,
      "🚶": 609,
      "##b": 610,
      "##a": 611,
      "##n": 612,
      "##d": 613,
      "##o": 614,
      "##e": 615,
      "##s": 616,
      "##1": 617,
      "##9": 618,
      "##h": 619,
      "##k": 620,
      "##v": 621,
      "##u": 622,
      "##r": 623,
      "##i": 624,
      "##l": 625,
      "##t": 626,
      "##c": 627,
      "##p": 628,
      "##x": 629,
      "##m": 630,
      "##g": 631,
      "##f": 632,
      "##_": 633,
      "##2": 634,
      "##8": 635,
      "##5": 636,
      "##y": 637,
      "##w": 638,
      "##j": 639,
      "##6": 640,
      "##q": 641,
      "##3": 642,
      "##z": 643,
      "##4": 644,
      "##0": 645,
      "##ð": 646,
      "##7": 647,
      "##.": 648,
      "##!": 649,
      "##)": 650,
      "##?": 651,
      "##\"": 652,
      "##@": 653,
      "##(": 654,
      "##𝕠": 655,
      "##𝕦": 656,
      "##𝕣": 657,
      "##𝕔": 658,
      "##𝕖": 659,
      "##-": 660,
      "##'": 661,
      "##/": 662,
      "##し": 663,
      "##め": 664,
      "##…": 665,
      "##”": 666,
      "##ン": 667,
      "##ツ": 668,
      "##く": 669,
      "##ら": 670,
      "##い": 671,
      "##え": 672,
      "##や": 673,
      "##な": 674,
      "##か": 675,
      "##😂": 676,
      "##,": 677,
      "###": 678,
      "##य": 679,
      "##ा": 680,
      "##ᵒ": 681,
      "##ᵘ": 682,
      "##ʳ": 683,
      "##:": 684,
      "##[": 685,
      "##ق": 686,
      "##و": 687,
      "##ل": 688,
      "##ه": 689,
      "##م": 690,
      "##💯": 691,
      "##$": 692,
      "##+": 693,
      "##❤": 694,
      "##😘": 695,
      "##`": 696,
      "##➤": 697,
      "##&": 698,
      "##😭": 699,
      "##~": 700,
      "##’": 701,
      "##ワ": 702,
      "##イ": 703,
      "##ニ": 704,
      "##ュ": 705,
      "##ー": 706,
      "##ス": 707,
      "##त": 708,
      "##र": 709,
      "##म": 710,
      "##ı": 711,
      "##¬": 712,
      "##د": 713,
      "##ي": 714,
      "##ن": 715,
      "##ة": 716,
      "##%": 717,
      "##‾": 718,
      "##▿": 719,
      "##*": 720,
      "##=": 721,
      "##😁": 722,
      "##>": 723,
      "##˛": 724,
      "##😤": 725,
      "##🙅": 726,
      "##♪": 727,
      "##♫": 728,
      "##·": 729,
      "##💩": 730,
      "##ム": 731,
      "##ル": 732,
      "##😋": 733,
      "##！": 734,
      "##😈": 735,
      "##😆": 736,
      "##😛": 737,
      "##👎": 738,
      "##¯": 739,
      "##]": 740,
      "##न": 741,
      "##🔫": 742,
      "##º": 743,
      "##ª": 744,
      "##‘": 745,
      "##ى": 746,
      "##^": 747,
      "##🍗": 748,
      "##—": 749,
      "##♣": 750,
      "##ᶠ": 751,
      "##;": 752,
      "##👌": 753,
      "##👏": 754,
      "##}": 755,
      "##𝕝": 756,
      "##𝕕": 757,
      "##ү": 758,
      "##🎵": 759,
      "##🎼": 760,
      "##𝓪": 761,
      "##𝓷": 762,
      "##𝐢": 763,
      "##𝐥": 764,
      "##𝐞": 765,
      "##𝐧": 766,
      "##𝐭": 767,
      "##д": 768,
      "##щ": 769,
      "##😊": 770,
      "##ی": 771,
      "##س": 772,
      "##😎": 773,
      "##“": 774,
      "##𝓮": 775,
      "##|": 776,
      "##¿": 777,
      "##♡": 778,
      "##た": 779,
      "##»": 780,
      "##\\": 781,
      "##।": 782,
      "##🐀": 783,
      "##🐕": 784,
      "##⠀": 785,
      "##😹": 786,
      "##オ": 787,
      "##ｗ": 788,
      "##😢": 789,
      "##😐": 790,
      "##😍": 791,
      "##ᵃ": 792,
      "##ⁱ": 793,
      "##ˡ": 794,
      "##ʰ": 795,
      "##ᵉ": 796,
      "##ब": 797,
      "##れ": 798,
      "##よ": 799,
      "##प": 800,
      "##ो": 801,
      "##ग": 802,
      "##ر": 803,
      "##⌣": 804,
      "##😡": 805,
      "##👹": 806,
      "##🙌": 807,
      "##ト": 808,
      "##の": 809,
      "##ハ": 810,
      "##ث": 811,
      "##╥": 812,
      "##𝕪": 813,
      "##µ": 814,
      "##£": 815,
      "##ह": 816,
      "##ी": 817,
      "##𝕒": 818,
      "##𝕞": 819,
      "##𝕟": 820,
      "##«": 821,
      "##€": 822,
      "##ぁ": 823,
      "##ち": 824,
      "##ょ": 825,
      "##ᵍ": 826,
      "##ا": 827,
      "##💬": 828,
      "##✨": 829,
      "##👯": 830,
      "##🍳": 831,
      "##📺": 832,
      "##⚠": 833,
      "##🍌": 834,
      "##˘": 835,
      "##っ": 836,
      "##り": 837,
      "##ŋ": 838,
      "##ԃ": 839,
      "##𝚕": 840,
      "##𝚞": 841,
      "##𝚜": 842,
      "##𝚒": 843,
      "##𝚟": 844,
      "##𝚎": 845,
      "##？": 846,
      "##ज": 847,
      "##ि": 848,
      "##ट": 849,
      "##ᅡ": 850,
      "##ᄆ": 851,
      "##ᅮ": 852,
      "##𝕚": 853,
      "##😵": 854,
      "##🍦": 855,
      "##🐙": 856,
      "##😇": 857,
      "##🌸": 858,
      "##🌟": 859,
      "##ナ": 860,
      "##ウ": 861,
      "##👠": 862,
      "##👗": 863,
      "##❌": 864,
      "##ʷ": 865,
      "##𝓱": 866,
      "##𝓻": 867,
      "##🙉": 868,
      "##💨": 869,
      "##🚦": 870,
      "##ᅩ": 871,
      "##ᆯ": 872,
      "##ᄅ": 873,
      "##。": 874,
      "##я": 875,
      "##♥": 876,
      "##°": 877,
      "##ب": 878,
      "##😯": 879,
      "##ᵛ": 880,
      "##ⁿ": 881,
      "##ᵗ": 882,
      "##ʸ": 883,
      "##🍋": 884,
      "##𝕤": 885,
      "##द": 886,
      "##😏": 887,
      "##🚶": 888,
      "##𝔂": 889,
      "##𝓽": 890,
      "##𝓲": 891,
      "##𝓰": 892,
      "##´": 893,
      "##は": 894,
      "##も": 895,
      "##ろ": 896,
      "##と": 897,
      "##ड": 898,
      "##𝓸": 899,
      "##𝓾": 900,
      "##📷": 901,
      "##•": 902,
      "##🔥": 903,
      "##μ": 904,
      "##💋": 905,
      "##😒": 906,
      "##🐧": 907,
      "##😃": 908,
      "##ォ": 909,
      "##ロ": 910,
      "##क": 911,
      "##ए": 912,
      "##ऊ": 913,
      "##औ": 914,
      "##ش": 915,
      "##リ": 916,
      "##ア": 917,
      "##🙈": 918,
      "##🙀": 919,
      "##💉": 920,
      "##😩": 921,
      "##о": 922,
      "##и": 923,
      "##з": 924,
      "##😜": 925,
      "##𝕥": 926,
      "##𝕙": 927,
      "##ح": 928,
      "##る": 929,
      "##🍓": 930,
      "##💕": 931,
      "##😓": 932,
      "##˚": 933,
      "##✎": 934,
      "##►": 935,
      "##𝐚": 936,
      "##𝐮": 937,
      "##𝐬": 938,
      "##𝗼": 939,
      "##𝐜": 940,
      "##🙏": 941,
      "##＞": 942,
      "##ก": 943,
      "##แ": 944,
      "##ส": 945,
      "##ด": 946,
      "##ง": 947,
      "##ต": 948,
      "##เ": 949,
      "##จ": 950,
      "##ม": 951,
      "##ป": 952,
      "##น": 953,
      "##ไ": 954,
      "##ร": 955,
      "##า": 956,
      "##ะ": 957,
      "##🐸": 958,
      "##👧": 959,
      "##🔖": 960,
      "##¤": 961,
      "##☺": 962,
      "##⚡": 963,
      "##ҩ": 964,
      "##ᄋ": 965,
      "##ᅵ": 966,
      "##ᆫ": 967,
      "##ᄌ": 968,
      "##ᆼ": 969,
      "##ᄎ": 970,
      "##ᄇ": 971,
      "##ᅧ": 972,
      "##ł": 973,
      "##ت": 974,
      "##พ": 975,
      "##ว": 976,
      "##γ": 977,
      "##ι": 978,
      "##α": 979,
      "##ˇ": 980,
      "##👊": 981,
      "##ο": 982,
      "##φ": 983,
      "##✌": 984,
      "##👔": 985,
      "##👍": 986,
      "##ص": 987,
      "##ف": 988,
      "##📱": 989,
      "##ˢ": 990,
      "##🎶": 991,
      "##》": 992,
      "##ल": 993,
      "##व": 994,
      "##💁": 995,
      "##😕": 996,
      "##¦": 997,
      "##😰": 998,
      "##😅": 999,
      "##😀": 1000,
      "##😨": 1001,
      "##😱": 1002,
      "##ə": 1003,
      "##て": 1004,
      "##こ": 1005,
      "##σ": 1006,
      "##👉": 1007,
      "##𝓵": 1008,
      "##𝓭": 1009,
      "##е": 1010,
      "##п": 1011,
      "##а": 1012,
      "##б": 1013,
      "##л": 1014,
      "##к": 1015,
      "##✊": 1016,
      "##ø": 1017,
      "##پ": 1018,
      "##ک": 1019,
      "##お": 1020,
      "##ہ": 1021,
      "##ے": 1022,
      "##५": 1023,
      "##🐟": 1024,
      "##😷": 1025,
      "##🍩": 1026,
      "##ᵐ": 1027,
      "th": 1028,
      "##in": 1029,
      "##er": 1030,
      "##ou": 1031,
      "the": 1032,
      "##ll": 1033,
      "##at": 1034,
      "##ing": 1035,
      "##an": 1036,
      "##es": 1037,
      "##on": 1038,
      "##or": 1039,
      "##en": 1040,
      "##is": 1041,
      "##ed": 1042,
      "an": 1043,
      "##it": 1044,
      "to": 1045,
      "you": 1046,
      "##ar": 1047,
      "and": 1048,
      "##ot": 1049,
      "in": 1050,
      "wh": 1051,
      "##ch": 1052,
      "##re": 1053,
      "##ig": 1054,
      "##as": 1055,
      "##us": 1056,
      "##om": 1057,
      "is": 1058,
      "bu": 1059,
      "##ck": 1060,
      "##ol": 1061,
      "##ay": 1062,
      "##al": 1063,
      "be": 1064,
      "of": 1065,
      "##le": 1066,
      "##am": 1067,
      "##ow": 1068,
      "##ic": 1069,
      "##ad": 1070,
      "##ir": 1071,
      "that": 1072,
      "it": 1073,
      "re": 1074,
      "##id": 1075,
      "##ke": 1076,
      "##im": 1077,
      "##ve": 1078,
      "on": 1079,
      "##et": 1080,
      "bull": 1081,
      "##ist": 1082,
      "sh": 1083,
      "fu": 1084,
      "##igh": 1085,
      "##op": 1086,
      "st": 1087,
      "##all": 1088,
      "me": 1089,
      "##um": 1090,
      "##ool": 1091,
      "for": 1092,
      "as": 1093,
      "li": 1094,
      "sch": 1095,
      "school": 1096,
      "are": 1097,
      "##ly": 1098,
      "##se": 1099,
      "##ent": 1100,
      "not": 1101,
      "##ld": 1102,
      "##ver": 1103,
      "fuck": 1104,
      "##st": 1105,
      "##ap": 1106,
      "##ion": 1107,
      "he": 1108,
      "##oo": 1109,
      "##tt": 1110,
      "##ac": 1111,
      "ch": 1112,
      "##..": 1113,
      "my": 1114,
      "was": 1115,
      "##ur": 1116,
      "##ut": 1117,
      "ha": 1118,
      "##igg": 1119,
      "##ill": 1120,
      "##ust": 1121,
      "this": 1122,
      "jo": 1123,
      "##ith": 1124,
      "ab": 1125,
      "##ere": 1126,
      "se": 1127,
      "do": 1128,
      "##th": 1129,
      "they": 1130,
      "nigg": 1131,
      "but": 1132,
      "##ers": 1133,
      "all": 1134,
      "bulli": 1135,
      "so": 1136,
      "##em": 1137,
      "we": 1138,
      "pr": 1139,
      "##irl": 1140,
      "##ack": 1141,
      "##out": 1142,
      "like": 1143,
      "##umb": 1144,
      "with": 1145,
      "who": 1146,
      "girl": 1147,
      "ne": 1148,
      "am": 1149,
      "pe": 1150,
      "##di": 1151,
      "dumb": 1152,
      "high": 1153,
      "bl": 1154,
      "tr": 1155,
      "mus": 1156,
      "##lim": 1157,
      "don": 1158,
      "fr": 1159,
      "su": 1160,
      "about": 1161,
      "bully": 1162,
      "just": 1163,
      "rap": 1164,
      "have": 1165,
      "muslim": 1166,
      "co": 1167,
      "peop": 1168,
      "##ould": 1169,
      "people": 1170,
      "...": 1171,
      "##ct": 1172,
      "##ate": 1173,
      "can": 1174,
      "your": 1175,
      "##ight": 1176,
      "##kes": 1177,
      "gay": 1178,
      "bullied": 1179,
      ":/": 1180,
      "htt": 1181,
      "##ter": 1182,
      "http": 1183,
      "com": 1184,
      "://": 1185,
      "rape": 1186,
      "nigger": 1187,
      "##ce": 1188,
      "ma": 1189,
      "##ess": 1190,
      "go": 1191,
      "rt": 1192,
      "if": 1193,
      "##il": 1194,
      "or": 1195,
      "##oun": 1196,
      "##ally": 1197,
      "##ul": 1198,
      "##ant": 1199,
      "de": 1200,
      "##ag": 1201,
      "call": 1202,
      "no": 1203,
      "##est": 1204,
      "what": 1205,
      "##and": 1206,
      "al": 1207,
      "at": 1208,
      "##ome": 1209,
      "##ian": 1210,
      "get": 1211,
      "wor": 1212,
      "##un": 1213,
      "##one": 1214,
      "##gh": 1215,
      "##ain": 1216,
      "##use": 1217,
      "##ie": 1218,
      "##end": 1219,
      "ass": 1220,
      "up": 1221,
      "idi": 1222,
      "##pp": 1223,
      "##ind": 1224,
      "idiot": 1225,
      "jokes": 1226,
      "##ame": 1227,
      "one": 1228,
      "##ab": 1229,
      "by": 1230,
      "##el": 1231,
      "when": 1232,
      "##ort": 1233,
      "con": 1234,
      "wom": 1235,
      "##ite": 1236,
      "##err": 1237,
      "she": 1238,
      "##king": 1239,
      "any": 1240,
      "kn": 1241,
      "##os": 1242,
      "##ah": 1243,
      "ever": 1244,
      "bec": 1245,
      "##ism": 1246,
      "say": 1247,
      "##lam": 1248,
      "##itch": 1249,
      "black": 1250,
      "out": 1251,
      "##ause": 1252,
      "them": 1253,
      "##ore": 1254,
      "##ity": 1255,
      "terr": 1256,
      "ex": 1257,
      "islam": 1258,
      "un": 1259,
      "her": 1260,
      "amp": 1261,
      "some": 1262,
      "from": 1263,
      "how": 1264,
      "te": 1265,
      "##ink": 1266,
      "##kr": 1267,
      "ag": 1268,
      "terror": 1269,
      "girls": 1270,
      "tw": 1271,
      "being": 1272,
      "know": 1273,
      "##ation": 1274,
      "us": 1275,
      "##pe": 1276,
      "##ive": 1277,
      "chr": 1278,
      "##ast": 1279,
      "##ard": 1280,
      "mkr": 1281,
      "bitch": 1282,
      "le": 1283,
      "##art": 1284,
      "because": 1285,
      "man": 1286,
      "##ob": 1287,
      "##ri": 1288,
      "rac": 1289,
      "sa": 1290,
      "##ook": 1291,
      "lo": 1292,
      "christ": 1293,
      "##ry": 1294,
      "mo": 1295,
      "muslims": 1296,
      "did": 1297,
      "ar": 1298,
      "would": 1299,
      "br": 1300,
      "now": 1301,
      "every": 1302,
      "will": 1303,
      "ye": 1304,
      "think": 1305,
      "##ak": 1306,
      "fem": 1307,
      "en": 1308,
      "##ven": 1309,
      "christian": 1310,
      "right": 1311,
      "their": 1312,
      "##ough": 1313,
      "why": 1314,
      "white": 1315,
      "gr": 1316,
      "there": 1317,
      "##ood": 1318,
      "##if": 1319,
      "##!!": 1320,
      "cl": 1321,
      "##ick": 1322,
      "##ous": 1323,
      "im": 1324,
      "##ass": 1325,
      "##her": 1326,
      "joke": 1327,
      "has": 1328,
      "##ime": 1329,
      "##oy": 1330,
      "##ue": 1331,
      "his": 1332,
      "dis": 1333,
      "##der": 1334,
      "fe": 1335,
      "got": 1336,
      "##ud": 1337,
      "##ra": 1338,
      "want": 1339,
      "##ical": 1340,
      "were": 1341,
      "..": 1342,
      "gu": 1343,
      "##ies": 1344,
      "supp": 1345,
      "##ong": 1346,
      "ob": 1347,
      "see": 1348,
      "##ice": 1349,
      "##ia": 1350,
      "##pl": 1351,
      "sex": 1352,
      "women": 1353,
      "pl": 1354,
      "oth": 1355,
      "##ans": 1356,
      "po": 1357,
      "##ace": 1358,
      "than": 1359,
      "##iv": 1360,
      "off": 1361,
      "##ine": 1362,
      "then": 1363,
      "mad": 1364,
      "##ge": 1365,
      "##ide": 1366,
      "shit": 1367,
      "##ists": 1368,
      "##og": 1369,
      "only": 1370,
      "again": 1371,
      "had": 1372,
      "make": 1373,
      "##ee": 1374,
      "ur": 1375,
      "##oc": 1376,
      "##ose": 1377,
      "does": 1378,
      "fucking": 1379,
      "even": 1380,
      "more": 1381,
      "bullies": 1382,
      "##ment": 1383,
      "##ama": 1384,
      "him": 1385,
      "support": 1386,
      "##ish": 1387,
      "act": 1388,
      "cr": 1389,
      "fun": 1390,
      "##iz": 1391,
      "##thing": 1392,
      "##ound": 1393,
      "sp": 1394,
      "##fe": 1395,
      "af": 1396,
      "##hing": 1397,
      "should": 1398,
      "thing": 1399,
      "never": 1400,
      "these": 1401,
      "woman": 1402,
      "tal": 1403,
      "##act": 1404,
      "##ays": 1405,
      "called": 1406,
      "ta": 1407,
      "##lf": 1408,
      "time": 1409,
      "fir": 1410,
      "##ach": 1411,
      "##ale": 1412,
      "##our": 1413,
      "other": 1414,
      "##ile": 1415,
      "look": 1416,
      "idiots": 1417,
      "##az": 1418,
      "##ny": 1419,
      "##ro": 1420,
      "really": 1421,
      "year": 1422,
      "##up": 1423,
      "still": 1424,
      "need": 1425,
      "##so": 1426,
      "##ting": 1427,
      "too": 1428,
      "##ount": 1429,
      "hate": 1430,
      "##ber": 1431,
      "kill": 1432,
      "##app": 1433,
      "##ub": 1434,
      "first": 1435,
      "stop": 1436,
      "ve": 1437,
      "int": 1438,
      "##reat": 1439,
      "##own": 1440,
      "been": 1441,
      "said": 1442,
      "##ci": 1443,
      "##od": 1444,
      "islamic": 1445,
      "pre": 1446,
      "rel": 1447,
      "good": 1448,
      "niggers": 1449,
      "##ree": 1450,
      "fri": 1451,
      "https": 1452,
      "##ult": 1453,
      "##are": 1454,
      "obama": 1455,
      "##age": 1456,
      "##ich": 1457,
      "##pt": 1458,
      "##ib": 1459,
      "over": 1460,
      "kid": 1461,
      "friend": 1462,
      "##av": 1463,
      "bullying": 1464,
      "##oll": 1465,
      "back": 1466,
      "##ious": 1467,
      "##ws": 1468,
      "rad": 1469,
      "also": 1470,
      "guy": 1471,
      "hum": 1472,
      "ad": 1473,
      "##qu": 1474,
      "same": 1475,
      "try": 1476,
      "ac": 1477,
      "anything": 1478,
      "way": 1479,
      "sl": 1480,
      "##ks": 1481,
      "##ff": 1482,
      "##other": 1483,
      "men": 1484,
      "##ang": 1485,
      "real": 1486,
      "mu": 1487,
      "##na": 1488,
      "##sh": 1489,
      "terrorism": 1490,
      "sc": 1491,
      "##ip": 1492,
      "radical": 1493,
      "##ence": 1494,
      "bad": 1495,
      "wr": 1496,
      "##ma": 1497,
      "love": 1498,
      "##eet": 1499,
      "dr": 1500,
      "lol": 1501,
      "##atch": 1502,
      "col": 1503,
      "##ated": 1504,
      "##ash": 1505,
      "##itter": 1506,
      "qu": 1507,
      "pers": 1508,
      "##au": 1509,
      "##ump": 1510,
      "against": 1511,
      "those": 1512,
      "bel": 1513,
      "##ving": 1514,
      "##00": 1515,
      "didn": 1516,
      "tell": 1517,
      "##ure": 1518,
      "our": 1519,
      "##ih": 1520,
      "sexist": 1521,
      "res": 1522,
      "mean": 1523,
      "twitter": 1524,
      "person": 1525,
      "racist": 1526,
      "spe": 1527,
      "let": 1528,
      "##ayy": 1529,
      "hind": 1530,
      "##aw": 1531,
      "lit": 1532,
      "##ild": 1533,
      "##ath": 1534,
      "going": 1535,
      "##ves": 1536,
      "made": 1537,
      "rem": 1538,
      "##self": 1539,
      "##ions": 1540,
      "##ase": 1541,
      "##idd": 1542,
      "word": 1543,
      "indi": 1544,
      "!!!": 1545,
      "human": 1546,
      "happ": 1547,
      "##ict": 1548,
      "femin": 1549,
      "someone": 1550,
      "##int": 1551,
      "##g_": 1552,
      "its": 1553,
      "##de": 1554,
      "##day": 1555,
      "##ary": 1556,
      "count": 1557,
      "att": 1558,
      "##ne": 1559,
      "here": 1560,
      "most": 1561,
      "##oph": 1562,
      "feel": 1563,
      "tayy": 1564,
      "##oung_": 1565,
      "where": 1566,
      "tayyoung_": 1567,
      "ok": 1568,
      "aw": 1569,
      "relig": 1570,
      "funny": 1571,
      "##ways": 1572,
      "sm": 1573,
      "prob": 1574,
      "past": 1575,
      "pol": 1576,
      "much": 1577,
      "doesn": 1578,
      "life": 1579,
      "##ave": 1580,
      "som": 1581,
      "oh": 1582,
      "racism": 1583,
      "midd": 1584,
      "middle": 1585,
      "world": 1586,
      "female": 1587,
      "thr": 1588,
      "##ft": 1589,
      "into": 1590,
      "##iss": 1591,
      "##ens": 1592,
      "##ress": 1593,
      "##ihad": 1594,
      "boy": 1595,
      "yes": 1596,
      "##ock": 1597,
      "show": 1598,
      "though": 1599,
      "##fer": 1600,
      "belie": 1601,
      "ll": 1602,
      "many": 1603,
      "##per": 1604,
      "##ire": 1605,
      "jihad": 1606,
      "could": 1607,
      "##ory": 1608,
      "##eric": 1609,
      "always": 1610,
      "!!": 1611,
      "well": 1612,
      "comm": 1613,
      "rep": 1614,
      "cont": 1615,
      "god": 1616,
      "pro": 1617,
      "saying": 1618,
      "“@": 1619,
      "years": 1620,
      "##ful": 1621,
      "##wn": 1622,
      "somet": 1623,
      "fa": 1624,
      "day": 1625,
      "def": 1626,
      "after": 1627,
      "??": 1628,
      "part": 1629,
      "ver": 1630,
      "##ating": 1631,
      "isis": 1632,
      "##augh": 1633,
      "##ole": 1634,
      "tweet": 1635,
      "##tter": 1636,
      "under": 1637,
      "americ": 1638,
      "##ope": 1639,
      "##ollow": 1640,
      "har": 1641,
      "##ond": 1642,
      "read": 1643,
      "which": 1644,
      "watch": 1645,
      "use": 1646,
      "##ually": 1647,
      "comp": 1648,
      "stup": 1649,
      "neg": 1650,
      "terrorist": 1651,
      "mar": 1652,
      "stupid": 1653,
      "app": 1654,
      "##ons": 1655,
      "child": 1656,
      "take": 1657,
      "kat": 1658,
      "name": 1659,
      "old": 1660,
      "ser": 1661,
      "won": 1662,
      "start": 1663,
      "##pect": 1664,
      "color": 1665,
      "##ty": 1666,
      "trump": 1667,
      "friends": 1668,
      "em": 1669,
      "je": 1670,
      "disg": 1671,
      "##be": 1672,
      "##oth": 1673,
      "making": 1674,
      "kids": 1675,
      "##kk": 1676,
      "##able": 1677,
      "talk": 1678,
      "##bl": 1679,
      "##gn": 1680,
      "##oup": 1681,
      "play": 1682,
      "##man": 1683,
      "##get": 1684,
      "##01": 1685,
      "terrorists": 1686,
      "....": 1687,
      "##cl": 1688,
      "everyone": 1689,
      "##ote": 1690,
      "ins": 1691,
      "##ents": 1692,
      "ant": 1693,
      "##read": 1694,
      "follow": 1695,
      "better": 1696,
      "isn": 1697,
      "down": 1698,
      "things": 1699,
      "##aa": 1700,
      "##ual": 1701,
      "##uran": 1702,
      "used": 1703,
      "##eep": 1704,
      "per": 1705,
      "des": 1706,
      "class": 1707,
      "disgust": 1708,
      "own": 1709,
      "##fore": 1710,
      "lot": 1711,
      "face": 1712,
      "##tle": 1713,
      "makes": 1714,
      "may": 1715,
      "##ise": 1716,
      "getting": 1717,
      "work": 1718,
      "big": 1719,
      "acc": 1720,
      "very": 1721,
      "ph": 1722,
      "quran": 1723,
      "sw": 1724,
      "##ily": 1725,
      "##lem": 1726,
      "nothing": 1727,
      "keep": 1728,
      "something": 1729,
      "dif": 1730,
      "##imes": 1731,
      "doing": 1732,
      "before": 1733,
      "humanity": 1734,
      "disgusting": 1735,
      "ev": 1736,
      "##lp": 1737,
      "##xt": 1738,
      "##ody": 1739,
      "country": 1740,
      "##ning": 1741,
      "##ha": 1742,
      "kind": 1743,
      "find": 1744,
      "mat": 1745,
      "##ned": 1746,
      "##ance": 1747,
      "give": 1748,
      "##ved": 1749,
      "##less": 1750,
      "dont": 1751,
      "##yp": 1752,
      "inst": 1753,
      "##lle": 1754,
      "new": 1755,
      "##oss": 1756,
      "ask": 1757,
      "christians": 1758,
      "dem": 1759,
      "religion": 1760,
      "##ord": 1761,
      "op": 1762,
      "ppl": 1763,
      "##bs": 1764,
      "##uc": 1765,
      "post": 1766,
      "##ors": 1767,
      "fight": 1768,
      "##ied": 1769,
      "inter": 1770,
      "wrong": 1771,
      "fat": 1772,
      "help": 1773,
      "par": 1774,
      "##amp": 1775,
      "trying": 1776,
      "believe": 1777,
      "group": 1778,
      "##ts": 1779,
      "guys": 1780,
      "ple": 1781,
      "##azi": 1782,
      "sin": 1783,
      "stand": 1784,
      "through": 1785,
      "##ade": 1786,
      "sk": 1787,
      "come": 1788,
      "teach": 1789,
      "##tw": 1790,
      "gen": 1791,
      "##ude": 1792,
      "free": 1793,
      "##orm": 1794,
      "##istan": 1795,
      "problem": 1796,
      "calling": 1797,
      "fact": 1798,
      "yeah": 1799,
      "end": 1800,
      "negro": 1801,
      "##he": 1802,
      "stat": 1803,
      "hell": 1804,
      "ment": 1805,
      "tur": 1806,
      "##ident": 1807,
      "min": 1808,
      "ug": 1809,
      "##ial": 1810,
      "anyone": 1811,
      "india": 1812,
      "car": 1813,
      "##ics": 1814,
      "##yr": 1815,
      "talking": 1816,
      "##te": 1817,
      "care": 1818,
      "bc": 1819,
      "mom": 1820,
      "che": 1821,
      "lt": 1822,
      "##ug": 1823,
      "##ason": 1824,
      "##tty": 1825,
      "ign": 1826,
      "##oot": 1827,
      "##ember": 1828,
      "##ik": 1829,
      "differ": 1830,
      "##olog": 1831,
      "str": 1832,
      "sure": 1833,
      "##ocr": 1834,
      "##ep": 1835,
      "##amm": 1836,
      "put": 1837,
      "point": 1838,
      "today": 1839,
      "colored": 1840,
      "another": 1841,
      "##uck": 1842,
      "soci": 1843,
      "##cept": 1844,
      "please": 1845,
      "wa": 1846,
      "##lic": 1847,
      "remember": 1848,
      "bas": 1849,
      "el": 1850,
      "sec": 1851,
      "pretty": 1852,
      "##br": 1853,
      "happen": 1854,
      "commun": 1855,
      "fl": 1856,
      "actually": 1857,
      "ap": 1858,
      "sor": 1859,
      "cons": 1860,
      "head": 1861,
      "lma": 1862,
      "mur": 1863,
      "pak": 1864,
      "ugly": 1865,
      "##ute": 1866,
      "little": 1867,
      "told": 1868,
      "hom": 1869,
      "went": 1870,
      "ed": 1871,
      "##lly": 1872,
      "war": 1873,
      "such": 1874,
      "while": 1875,
      "attack": 1876,
      "pres": 1877,
      "dec": 1878,
      "gon": 1879,
      "##uss": 1880,
      "mon": 1881,
      "ly": 1882,
      "vide": 1883,
      "hard": 1884,
      "left": 1885,
      "around": 1886,
      "hope": 1887,
      "##als": 1888,
      "bitches": 1889,
      "underst": 1890,
      "ho": 1891,
      "feminazi": 1892,
      "##ird": 1893,
      "##old": 1894,
      "done": 1895,
      "says": 1896,
      "thought": 1897,
      "anti": 1898,
      "##erally": 1899,
      "##ss": 1900,
      "##ign": 1901,
      ":)": 1902,
      "##ublic": 1903,
      "gt": 1904,
      "fam": 1905,
      "##tc": 1906,
      "sorry": 1907,
      "##body": 1908,
      "two": 1909,
      "id": 1910,
      "##hh": 1911,
      "##ren": 1912,
      "##ular": 1913,
      "best": 1914,
      "must": 1915,
      "having": 1916,
      "nigga": 1917,
      "imp": 1918,
      "since": 1919,
      "gl": 1920,
      "##ats": 1921,
      "##vers": 1922,
      "##ible": 1923,
      "cle": 1924,
      "dam": 1925,
      "##ophob": 1926,
      "murder": 1927,
      "list": 1928,
      "##ww": 1929,
      "understand": 1930,
      "cause": 1931,
      "vict": 1932,
      "##ize": 1933,
      "##ert": 1934,
      "##oooo": 1935,
      "##ank": 1936,
      "ignor": 1937,
      "sy": 1938,
      "##af": 1939,
      "ide": 1940,
      "##ense": 1941,
      "##ison": 1942,
      "gonna": 1943,
      "##ings": 1944,
      "##my": 1945,
      "trans": 1946,
      "last": 1947,
      "##ix": 1948,
      "##aring": 1949,
      "##ically": 1950,
      "##ales": 1951,
      "##les": 1952,
      "##ange": 1953,
      "pakistan": 1954,
      "##ior": 1955,
      "shut": 1956,
      "hindu": 1957,
      "literally": 1958,
      "##dd": 1959,
      "##ater": 1960,
      "##ations": 1961,
      "long": 1962,
      "##of": 1963,
      "beh": 1964,
      "##ames": 1965,
      "home": 1966,
      "laugh": 1967,
      "##ok": 1968,
      "ele": 1969,
      "inc": 1970,
      "ann": 1971,
      "schools": 1972,
      "##ians": 1973,
      "med": 1974,
      "##ues": 1975,
      "hand": 1976,
      "##je": 1977,
      "whole": 1978,
      "bar": 1979,
      "etc": 1980,
      "##ards": 1981,
      "inv": 1982,
      "aren": 1983,
      "##uth": 1984,
      "great": 1985,
      "mis": 1986,
      "vi": 1987,
      "rights": 1988,
      "cor": 1989,
      "da": 1990,
      "pop": 1991,
      "##enc": 1992,
      "##ared": 1993,
      "char": 1994,
      "victim": 1995,
      ".....": 1996,
      "far": 1997,
      "ir": 1998,
      "rec": 1999,
      "##oney": 2000,
      "##gr": 2001,
      "##fr": 2002,
      "es": 2003,
      "##aj": 2004,
      "##ox": 2005,
      "???": 2006,
      "ke": 2007,
      "##ost": 2008,
      "##ont": 2009,
      "wasn": 2010,
      "comment": 2011,
      "lmao": 2012,
      "##ng": 2013,
      "##ouse": 2014,
      "##ition": 2015,
      "##ream": 2016,
      "self": 2017,
      "bre": 2018,
      "##ars": 2019,
      "##red": 2020,
      "##sel": 2021,
      "##iously": 2022,
      "polit": 2023,
      "video": 2024,
      "non": 2025,
      "##its": 2026,
      "##itt": 2027,
      "##ush": 2028,
      "##ower": 2029,
      "##oh": 2030,
      "##ew": 2031,
      "lear": 2032,
      "##ates": 2033,
      "##ities": 2034,
      "##me": 2035,
      "##aim": 2036,
      "##nn": 2037,
      "hindus": 2038,
      "boys": 2039,
      "children": 2040,
      "##ahah": 2041,
      "run": 2042,
      "seen": 2043,
      "few": 2044,
      "mor": 2045,
      "unt": 2046,
      "killed": 2047,
      "fin": 2048,
      "pu": 2049,
      "##pr": 2050,
      "different": 2051,
      "##ble": 2052,
      "##gg": 2053,
      "everything": 2054,
      "colle": 2055,
      "enough": 2056,
      "##ooking": 2057,
      "##tr": 2058,
      "##ys": 2059,
      "##ative": 2060,
      "reason": 2061,
      "seem": 2062,
      "sur": 2063,
      "##uff": 2064,
      "gays": 2065,
      "viol": 2066,
      "##ably": 2067,
      "both": 2068,
      "##ns": 2069,
      "using": 2070,
      "looks": 2071,
      "mind": 2072,
      "##cc": 2073,
      "yourself": 2074,
      "okay": 2075,
      "gre": 2076,
      "##erg": 2077,
      "matter": 2078,
      "ref": 2079,
      "away": 2080,
      "om": 2081,
      "opp": 2082,
      "wan": 2083,
      "##ail": 2084,
      "##ph": 2085,
      "##ending": 2086,
      "news": 2087,
      "speak": 2088,
      "resp": 2089,
      "sim": 2090,
      "##oice": 2091,
      "##ner": 2092,
      "##ark": 2093,
      "##esh": 2094,
      "##urs": 2095,
      "##ness": 2096,
      "##vie": 2097,
      "sad": 2098,
      "##gan": 2099,
      "##zy": 2100,
      "##erm": 2101,
      "pick": 2102,
      "damn": 2103,
      "sound": 2104,
      "##ek": 2105,
      "prison": 2106,
      "law": 2107,
      "que": 2108,
      "##bt": 2109,
      "##by": 2110,
      "##ina": 2111,
      "hey": 2112,
      "##acy": 2113,
      "bab": 2114,
      "miss": 2115,
      "money": 2116,
      "##ane": 2117,
      "next": 2118,
      "rest": 2119,
      "yet": 2120,
      "##ives": 2121,
      "##orn": 2122,
      "isra": 2123,
      "ones": 2124,
      "wait": 2125,
      "cult": 2126,
      "##led": 2127,
      "##fl": 2128,
      "##ins": 2129,
      "live": 2130,
      "##ither": 2131,
      "##unt": 2132,
      "##book": 2133,
      ";&": 2134,
      "##wa": 2135,
      "bro": 2136,
      "disc": 2137,
      "race": 2138,
      "maybe": 2139,
      "hon": 2140,
      "iss": 2141,
      "quest": 2142,
      "##selves": 2143,
      "##arly": 2144,
      "reg": 2145,
      "exp": 2146,
      "##ready": 2147,
      "else": 2148,
      "family": 2149,
      "house": 2150,
      "red": 2151,
      "##uz": 2152,
      "open": 2153,
      "##fa": 2154,
      "beat": 2155,
      "nice": 2156,
      "##20": 2157,
      "until": 2158,
      "10": 2159,
      "##iley": 2160,
      "israel": 2161,
      "times": 2162,
      "##ric": 2163,
      "##mm": 2164,
      "##wh": 2165,
      "claim": 2166,
      "skin": 2167,
      "social": 2168,
      "homophob": 2169,
      "threat": 2170,
      "##anc": 2171,
      "already": 2172,
      "others": 2173,
      "dude": 2174,
      "weird": 2175,
      "guess": 2176,
      "community": 2177,
      "equ": 2178,
      "fre": 2179,
      "hair": 2180,
      "without": 2181,
      "ext": 2182,
      "american": 2183,
      "true": 2184,
      "##ction": 2185,
      "hor": 2186,
      "##li": 2187,
      "prop": 2188,
      "hist": 2189,
      "##ear": 2190,
      "ret": 2191,
      "##plain": 2192,
      "dick": 2193,
      "male": 2194,
      "sit": 2195,
      "yo": 2196,
      "##ell": 2197,
      "police": 2198,
      ".\"": 2199,
      "12": 2200,
      "bit": 2201,
      "##ese": 2202,
      "change": 2203,
      "hal": 2204,
      "##uh": 2205,
      "once": 2206,
      "less": 2207,
      "harass": 2208,
      "president": 2209,
      "wanna": 2210,
      "##res": 2211,
      "probably": 2212,
      "females": 2213,
      "grade": 2214,
      "book": 2215,
      "##dg": 2216,
      "##ality": 2217,
      "##vel": 2218,
      "allow": 2219,
      "america": 2220,
      "pun": 2221,
      "##ever": 2222,
      "death": 2223,
      "gam": 2224,
      "la": 2225,
      "##hamm": 2226,
      "media": 2227,
      "##oud": 2228,
      "lead": 2229,
      "respect": 2230,
      "words": 2231,
      "##__": 2232,
      "##inking": 2233,
      "andre": 2234,
      "saw": 2235,
      "201": 2236,
      "##io": 2237,
      "##xist": 2238,
      "ang": 2239,
      "means": 2240,
      "ago": 2241,
      "\".": 2242,
      "##nch": 2243,
      "##_m": 2244,
      "dog": 2245,
      "##gal": 2246,
      "wouldn": 2247,
      "nation": 2248,
      "lives": 2249,
      "prom": 2250,
      "##ries": 2251,
      "watching": 2252,
      "found": 2253,
      "##alk": 2254,
      "abuse": 2255,
      "night": 2256,
      "pet": 2257,
      "stud": 2258,
      "super": 2259,
      "miley": 2260,
      "public": 2261,
      "sick": 2262,
      "##ots": 2263,
      "killing": 2264,
      "ya": 2265,
      "##fu": 2266,
      "ent": 2267,
      "apolog": 2268,
      "cool": 2269,
      "looking": 2270,
      "##een": 2271,
      "##ently": 2272,
      "power": 2273,
      "##ority": 2274,
      "##used": 2275,
      "suck": 2276,
      "pay": 2277,
      "##bar": 2278,
      "##19": 2279,
      "##ized": 2280,
      "started": 2281,
      "ca": 2282,
      "##fect": 2283,
      "listen": 2284,
      "cur": 2285,
      "might": 2286,
      "wow": 2287,
      "blame": 2288,
      "art": 2289,
      "##ject": 2290,
      "date": 2291,
      "fil": 2292,
      "##ye": 2293,
      "##ention": 2294,
      "happy": 2295,
      "##yrus": 2296,
      "mas": 2297,
      "pa": 2298,
      "##hal": 2299,
      "young": 2300,
      "team": 2301,
      "bus": 2302,
      "stuff": 2303,
      "##orts": 2304,
      "themselves": 2305,
      "thanks": 2306,
      "ro": 2307,
      "treat": 2308,
      "wish": 2309,
      "thank": 2310,
      "tweets": 2311,
      "sing": 2312,
      "##ott": 2313,
      "stra": 2314,
      "insult": 2315,
      "20": 2316,
      "hur": 2317,
      "na": 2318,
      "fucks": 2319,
      "##eral": 2320,
      "jews": 2321,
      "conf": 2322,
      "ignorant": 2323,
      "each": 2324,
      "tot": 2325,
      "##ument": 2326,
      "arab": 2327,
      "dest": 2328,
      "pass": 2329,
      "##ru": 2330,
      "##gl": 2331,
      "ty": 2332,
      "story": 2333,
      "defin": 2334,
      "pos": 2335,
      "##ised": 2336,
      "stay": 2337,
      "myself": 2338,
      "block": 2339,
      "cry": 2340,
      "hyp": 2341,
      "##outh": 2342,
      "shame": 2343,
      "hah": 2344,
      "hit": 2345,
      "##not": 2346,
      "##ta": 2347,
      "##tf": 2348,
      "##ork": 2349,
      "inf": 2350,
      "liber": 2351,
      "fake": 2352,
      "freebs": 2353,
      "days": 2354,
      "##ball": 2355,
      "place": 2356,
      "?!": 2357,
      "ban": 2358,
      "##201": 2359,
      "##uring": 2360,
      "maj": 2361,
      "hat": 2362,
      "ra": 2363,
      "peace": 2364,
      "add": 2365,
      "##ired": 2366,
      "##the": 2367,
      "gets": 2368,
      "account": 2369,
      "history": 2370,
      "came": 2371,
      "dad": 2372,
      "##ead": 2373,
      "##ather": 2374,
      "##ony": 2375,
      "##osed": 2376,
      "grow": 2377,
      "game": 2378,
      "met": 2379,
      "##ler": 2380,
      "##mir": 2381,
      "##rem": 2382,
      "cra": 2383,
      "dev": 2384,
      "##ying": 2385,
      "##itive": 2386,
      "lad": 2387,
      "##agg": 2388,
      "exact": 2389,
      "accept": 2390,
      "##ship": 2391,
      "exc": 2392,
      "needs": 2393,
      "cop": 2394,
      "mr": 2395,
      "##utt": 2396,
      "sub": 2397,
      "either": 2398,
      "jud": 2399,
      "ped": 2400,
      "##han": 2401,
      "##ement": 2402,
      "idea": 2403,
      "cour": 2404,
      "mother": 2405,
      "##ites": 2406,
      "mill": 2407,
      "www": 2408,
      "##--": 2409,
      "job": 2410,
      "become": 2411,
      "comple": 2412,
      "honest": 2413,
      "straight": 2414,
      "comed": 2415,
      "exper": 2416,
      "seeing": 2417,
      "religious": 2418,
      "happened": 2419,
      "100": 2420,
      "##aking": 2421,
      "##ey": 2422,
      "##11": 2423,
      "##yn": 2424,
      "goes": 2425,
      "jes": 2426,
      "bur": 2427,
      "hear": 2428,
      "democr": 2429,
      "ill": 2430,
      "mess": 2431,
      "##ited": 2432,
      "tar": 2433,
      "##ya": 2434,
      "full": 2435,
      "calls": 2436,
      "party": 2437,
      "omg": 2438,
      "win": 2439,
      "##ram": 2440,
      "##ered": 2441,
      "ste": 2442,
      "deal": 2443,
      "term": 2444,
      "##ules": 2445,
      "bigg": 2446,
      "##sw": 2447,
      "thinking": 2448,
      "educ": 2449,
      "bo": 2450,
      "kash": 2451,
      "wanted": 2452,
      "afric": 2453,
      "indian": 2454,
      "element": 2455,
      "19": 2456,
      "set": 2457,
      "##key": 2458,
      "haha": 2459,
      "##ants": 2460,
      "ain": 2461,
      "mem": 2462,
      "##ended": 2463,
      "mohamm": 2464,
      "report": 2465,
      "##ii": 2466,
      "##line": 2467,
      "##fs": 2468,
      "leave": 2469,
      "dep": 2470,
      "brother": 2471,
      "##lo": 2472,
      "##ms": 2473,
      "state": 2474,
      "seriously": 2475,
      "kashmir": 2476,
      "sol": 2477,
      "##ald": 2478,
      "heard": 2479,
      "dead": 2480,
      "second": 2481,
      "hol": 2482,
      "##gress": 2483,
      "max": 2484,
      "worst": 2485,
      "##ife": 2486,
      "wonder": 2487,
      "homophobic": 2488,
      "hot": 2489,
      "countries": 2490,
      "##head": 2491,
      "learn": 2492,
      "jesus": 2493,
      "creat": 2494,
      "pic": 2495,
      "vote": 2496,
      "smh": 2497,
      "##ering": 2498,
      "##ety": 2499,
      "least": 2500,
      "marri": 2501,
      "instead": 2502,
      "cuz": 2503,
      "dou": 2504,
      "##ij": 2505,
      "##erv": 2506,
      "cond": 2507,
      "culture": 2508,
      "mil": 2509,
      "betw": 2510,
      "week": 2511,
      "imag": 2512,
      "##iving": 2513,
      "hypocr": 2514,
      "eas": 2515,
      "##uu": 2516,
      "poor": 2517,
      "freebsdg": 2518,
      "son": 2519,
      "##ton": 2520,
      "##cer": 2521,
      "telling": 2522,
      "##pir": 2523,
      "##fri": 2524,
      "##??": 2525,
      "top": 2526,
      "abs": 2527,
      "cant": 2528,
      "agree": 2529,
      "wants": 2530,
      "between": 2531,
      "freebsdgirl": 2532,
      "during": 2533,
      "##ene": 2534,
      "elementary": 2535,
      "##adh": 2536,
      "##ought": 2537,
      "adv": 2538,
      "parents": 2539,
      "daugh": 2540,
      "##vid": 2541,
      "##ga": 2542,
      "##ately": 2543,
      "coming": 2544,
      "sexual": 2545,
      "month": 2546,
      "experi": 2547,
      "##atic": 2548,
      "##gether": 2549,
      "deser": 2550,
      "evil": 2551,
      "##ds": 2552,
      "##dy": 2553,
      "##ier": 2554,
      "tom": 2555,
      "##imin": 2556,
      "tried": 2557,
      "knew": 2558,
      "camp": 2559,
      "crack": 2560,
      "mohammed": 2561,
      "pat": 2562,
      "ri": 2563,
      "sent": 2564,
      "##ward": 2565,
      "##que": 2566,
      "organ": 2567,
      "arg": 2568,
      "bill": 2569,
      "inn": 2570,
      "forg": 2571,
      "proph": 2572,
      "popular": 2573,
      "fav": 2574,
      "##oke": 2575,
      "alm": 2576,
      "!!!!": 2577,
      "prof": 2578,
      "##alth": 2579,
      "truth": 2580,
      "contin": 2581,
      "check": 2582,
      "question": 2583,
      "sn": 2584,
      "##ann": 2585,
      "forget": 2586,
      "ash": 2587,
      "living": 2588,
      "status": 2589,
      "simp": 2590,
      "##ake": 2591,
      "comes": 2592,
      "##els": 2593,
      "move": 2594,
      "##ney": 2595,
      "entire": 2596,
      "kar": 2597,
      "wtf": 2598,
      "##ted": 2599,
      "##med": 2600,
      "remind": 2601,
      "##2015": 2602,
      "##arc": 2603,
      "##amed": 2604,
      "prot": 2605,
      "priv": 2606,
      "const": 2607,
      "opin": 2608,
      "\"@": 2609,
      "##go": 2610,
      "tho": 2611,
      "heart": 2612,
      "bring": 2613,
      "spread": 2614,
      "facebook": 2615,
      "college": 2616,
      "complete": 2617,
      "cyrus": 2618,
      "ran": 2619,
      "yall": 2620,
      "##for": 2621,
      "soon": 2622,
      "prote": 2623,
      "exist": 2624,
      "nor": 2625,
      "ru": 2626,
      "rid": 2627,
      "ton": 2628,
      "##roy": 2629,
      "##yy": 2630,
      "whate": 2631,
      "cunt": 2632,
      "di": 2633,
      "via": 2634,
      "##zz": 2635,
      "lil": 2636,
      "trash": 2637,
      "shouldn": 2638,
      "exactly": 2639,
      "ah": 2640,
      "cow": 2641,
      "low": 2642,
      "later": 2643,
      "##ked": 2644,
      "together": 2645,
      "##aha": 2646,
      "##!!!!": 2647,
      "taking": 2648,
      "##kkkk": 2649,
      "behind": 2650,
      "prophet": 2651,
      "ear": 2652,
      "crazy": 2653,
      ".”": 2654,
      "leg": 2655,
      "thinks": 2656,
      "##friend": 2657,
      "lg": 2658,
      "expect": 2659,
      "gamerg": 2660,
      "single": 2661,
      "whatever": 2662,
      "##har": 2663,
      "##hood": 2664,
      "niggas": 2665,
      "blood": 2666,
      "coon": 2667,
      "##cted": 2668,
      "lost": 2669,
      "gave": 2670,
      "##_s": 2671,
      "bunch": 2672,
      "cannot": 2673,
      "assh": 2674,
      "##itchen": 2675,
      ").": 2676,
      "cap": 2677,
      "foot": 2678,
      "kick": 2679,
      "val": 2680,
      "##ech": 2681,
      "##ped": 2682,
      "##xx": 2683,
      "thats": 2684,
      "amaz": 2685,
      "brain": 2686,
      "intern": 2687,
      ":(": 2688,
      "die": 2689,
      "##udi": 2690,
      "##enn": 2691,
      "obv": 2692,
      "##shit": 2693,
      "yout": 2694,
      "haven": 2695,
      "innoc": 2696,
      "almost": 2697,
      "##bo": 2698,
      "##ipp": 2699,
      "##com": 2700,
      "couldn": 2701,
      "jew": 2702,
      "destroy": 2703,
      "er": 2704,
      "sat": 2705,
      "##ret": 2706,
      "##ets": 2707,
      "allah": 2708,
      "##ender": 2709,
      "break": 2710,
      "target": 2711,
      "11": 2712,
      "hun": 2713,
      "pal": 2714,
      "piss": 2715,
      "sense": 2716,
      "##iness": 2717,
      "##edom": 2718,
      "##vern": 2719,
      "teen": 2720,
      "fol": 2721,
      "##ify": 2722,
      "throw": 2723,
      "##adhwa": 2724,
      "dri": 2725,
      "mos": 2726,
      "##hn": 2727,
      "##gy": 2728,
      "##ones": 2729,
      "##iting": 2730,
      "##ific": 2731,
      "violence": 2732,
      ".@": 2733,
      "dire": 2734,
      "sal": 2735,
      "##ced": 2736,
      "able": 2737,
      "suic": 2738,
      "absol": 2739,
      "pie": 2740,
      "sil": 2741,
      "##sy": 2742,
      "##iven": 2743,
      "chang": 2744,
      "china": 2745,
      "seems": 2746,
      "type": 2747,
      "hold": 2748,
      "##aver": 2749,
      "incl": 2750,
      "##irt": 2751,
      "govern": 2752,
      "adm": 2753,
      "groups": 2754,
      "half": 2755,
      "wash": 2756,
      "horri": 2757,
      "harassment": 2758,
      "##vin": 2759,
      "##la": 2760,
      "##urch": 2761,
      "##ution": 2762,
      "wearing": 2763,
      "pray": 2764,
      "gamergate": 2765,
      "les": 2766,
      "##wards": 2767,
      "##ley": 2768,
      "##ube": 2769,
      "feminist": 2770,
      "baby": 2771,
      "14": 2772,
      "numb": 2773,
      "vot": 2774,
      "vie": 2775,
      "##oose": 2776,
      "##ility": 2777,
      "chris": 2778,
      "##ensive": 2779,
      "consid": 2780,
      "lgbt": 2781,
      "ce": 2782,
      "gun": 2783,
      "voice": 2784,
      "##ister": 2785,
      "##itely": 2786,
      "##cially": 2787,
      "absolute": 2788,
      "sir": 2789,
      "##omb": 2790,
      "##...": 2791,
      "space": 2792,
      "playing": 2793,
      "strong": 2794,
      "victims": 2795,
      "den": 2796,
      "##lin": 2797,
      "lie": 2798,
      "interest": 2799,
      "hurt": 2800,
      "protest": 2801,
      "av": 2802,
      "side": 2803,
      "##ces": 2804,
      "##more": 2805,
      "##fort": 2806,
      "tech": 2807,
      "took": 2808,
      "asked": 2809,
      "behav": 2810,
      "hatred": 2811,
      "cut": 2812,
      "gang": 2813,
      "norm": 2814,
      "sle": 2815,
      "##ding": 2816,
      "##tm": 2817,
      "##way": 2818,
      "##ures": 2819,
      "small": 2820,
      "mention": 2821,
      "freedom": 2822,
      "lm": 2823,
      "annoy": 2824,
      "political": 2825,
      "jun": 2826,
      "pict": 2827,
      "##mer": 2828,
      "##ern": 2829,
      "##sexist": 2830,
      "working": 2831,
      "sports": 2832,
      "tv": 2833,
      "##ling": 2834,
      "##co": 2835,
      "##anda": 2836,
      "worse": 2837,
      "knows": 2838,
      "movie": 2839,
      "##ression": 2840,
      "sometimes": 2841,
      "fail": 2842,
      "harm": 2843,
      "comments": 2844,
      "##umenthal": 2845,
      "imagine": 2846,
      "cook": 2847,
      "yard": 2848,
      "##ai": 2849,
      "##rect": 2850,
      "##iger": 2851,
      "nobody": 2852,
      "offic": 2853,
      "americans": 2854,
      "hoe": 2855,
      "case": 2856,
      "typ": 2857,
      "asking": 2858,
      "church": 2859,
      "abt": 2860,
      "congress": 2861,
      "explain": 2862,
      "daughter": 2863,
      "15": 2864,
      "ep": 2865,
      "##son": 2866,
      "##side": 2867,
      "##12": 2868,
      "##con": 2869,
      "shoot": 2870,
      "fuckin": 2871,
      "health": 2872,
      "republic": 2873,
      "##ample": 2874,
      "allowed": 2875,
      "definitely": 2876,
      "honestly": 2877,
      "gone": 2878,
      "giving": 2879,
      "line": 2880,
      "tall": 2881,
      "walk": 2882,
      "##form": 2883,
      "##we": 2884,
      "raped": 2885,
      "puss": 2886,
      "rob": 2887,
      "##77": 2888,
      "##rib": 2889,
      "crit": 2890,
      "drop": 2891,
      "teacher": 2892,
      "rather": 2893,
      "##row": 2894,
      "##85": 2895,
      "slaver": 2896,
      "##anger": 2897,
      "bi": 2898,
      "fine": 2899,
      "##ten": 2900,
      "##ged": 2901,
      "online": 2902,
      "alone": 2903,
      "##raft": 2904,
      "lying": 2905,
      "import": 2906,
      "espe": 2907,
      "artic": 2908,
      "suicide": 2909,
      "cre": 2910,
      "cert": 2911,
      "##va": 2912,
      "##xic": 2913,
      "totally": 2914,
      "tonight": 2915,
      "lesb": 2916,
      "ey": 2917,
      "fool": 2918,
      "ner": 2919,
      "rich": 2920,
      "um": 2921,
      "shar": 2922,
      "notsexist": 2923,
      "cover": 2924,
      "##unch": 2925,
      "except": 2926,
      "issue": 2927,
      "slavery": 2928,
      "especially": 2929,
      "cent": 2930,
      "div": 2931,
      "fan": 2932,
      "fac": 2933,
      "ni": 2934,
      "##bh": 2935,
      "##ault": 2936,
      "##33": 2937,
      "bullshit": 2938,
      "fucked": 2939,
      "##stem": 2940,
      "proud": 2941,
      "tru": 2942,
      "fear": 2943,
      "phot": 2944,
      "general": 2945,
      "dark": 2946,
      "yr": 2947,
      "##joy": 2948,
      "answ": 2949,
      "supporting": 2950,
      "contr": 2951,
      "cy": 2952,
      "##14": 2953,
      "##ca": 2954,
      "##att": 2955,
      "##ional": 2956,
      "##andom": 2957,
      "shows": 2958,
      "mental": 2959,
      "majority": 2960,
      "innocent": 2961,
      "government": 2962,
      "##ove": 2963,
      "##lling": 2964,
      "ind": 2965,
      "##aming": 2966,
      "##istic": 2967,
      "tra": 2968,
      "##tern": 2969,
      "blacks": 2970,
      "##udes": 2971,
      "fighting": 2972,
      "dat": 2973,
      "##nd": 2974,
      "##sec": 2975,
      "blm": 2976,
      "##aves": 2977,
      "system": 2978,
      "issues": 2979,
      "protect": 2980,
      "food": 2981,
      "mt": 2982,
      "##land": 2983,
      "##antly": 2984,
      "del": 2985,
      "lock": 2986,
      "##cial": 2987,
      "defend": 2988,
      "light": 2989,
      "sign": 2990,
      "##13": 2991,
      "wear": 2992,
      "example": 2993,
      "##aken": 2994,
      "teachers": 2995,
      "eat": 2996,
      "##etic": 2997,
      "turn": 2998,
      "pedoph": 2999,
      "##aut": 3000,
      "##kat": 3001,
      "##ros": 3002,
      "##lled": 3003,
      "##oof": 3004,
      "join": 3005,
      "##blumenthal": 3006,
      "clearly": 3007,
      "biggest": 3008,
      "maxblumenthal": 3009,
      "lmfa": 3010,
      "cam": 3011,
      "land": 3012,
      "round": 3013,
      "john": 3014,
      "feminism": 3015,
      "retard": 3016,
      "opinion": 3017,
      "bor": 3018,
      "cat": 3019,
      "nat": 3020,
      "##oon": 3021,
      "##gle": 3022,
      "##gic": 3023,
      "prod": 3024,
      "##ences": 3025,
      "given": 3026,
      "mouth": 3027,
      "##nt": 3028,
      "step": 3029,
      "enjoy": 3030,
      "difference": 3031,
      "send": 3032,
      "butt": 3033,
      "##ices": 3034,
      "##ides": 3035,
      "chick": 3036,
      "front": 3037,
      "safe": 3038,
      "cloth": 3039,
      "speech": 3040,
      "palest": 3041,
      "pussy": 3042,
      "dist": 3043,
      "##rew": 3044,
      "prog": 3045,
      "plan": 3046,
      "acting": 3047,
      "##izing": 3048,
      "attention": 3049,
      "conserv": 3050,
      "##ories": 3051,
      "##ising": 3052,
      "##emin": 3053,
      "##ilar": 3054,
      "assault": 3055,
      "uni": 3056,
      "imm": 3057,
      "adult": 3058,
      "##news": 3059,
      "serious": 3060,
      "surpr": 3061,
      "civ": 3062,
      "ka": 3063,
      "##hi": 3064,
      "##_b": 3065,
      "##using": 3066,
      "##alse": 3067,
      "bet": 3068,
      "assum": 3069,
      "anymore": 3070,
      "became": 3071,
      "green": 3072,
      "aut": 3073,
      "##aph": 3074,
      "##ages": 3075,
      "grad": 3076,
      "angry": 3077,
      "cal": 3078,
      "est": 3079,
      "pot": 3080,
      "towards": 3081,
      "##ooo": 3082,
      "outside": 3083,
      "mkr2015": 3084,
      "save": 3085,
      "offensive": 3086,
      "##ourn": 3087,
      "happens": 3088,
      "fair": 3089,
      "idk": 3090,
      "sounds": 3091,
      "extrem": 3092,
      "experience": 3093,
      "deserve": 3094,
      "amazing": 3095,
      "ge": 3096,
      "##eng": 3097,
      "meet": 3098,
      "choice": 3099,
      "##ization": 3100,
      "feminists": 3101,
      "clear": 3102,
      "##respect": 3103,
      "room": 3104,
      "african": 3105,
      "football": 3106,
      "folks": 3107,
      "certain": 3108,
      "cute": 3109,
      "dream": 3110,
      "eth": 3111,
      "hated": 3112,
      "mal": 3113,
      "”.": 3114,
      "##_d": 3115,
      "##reen": 3116,
      "requ": 3117,
      "music": 3118,
      "##ology": 3119,
      "misog": 3120,
      "##where": 3121,
      "course": 3122,
      "mi": 3123,
      "vir": 3124,
      "##boy": 3125,
      "gotta": 3126,
      "##like": 3127,
      "civil": 3128,
      "ak": 3129,
      "fb": 3130,
      "fall": 3131,
      "los": 3132,
      "##your": 3133,
      "##asons": 3134,
      "press": 3135,
      "deb": 3136,
      "##unk": 3137,
      "age": 3138,
      "level": 3139,
      "##ished": 3140,
      "takes": 3141,
      "reading": 3142,
      "respons": 3143,
      "annoying": 3144,
      "due": 3145,
      "fel": 3146,
      "mass": 3147,
      "nurs": 3148,
      "sen": 3149,
      "song": 3150,
      "##10": 3151,
      "##yl": 3152,
      "##ified": 3153,
      "polic": 3154,
      "punch": 3155,
      "clothes": 3156,
      "13": 3157,
      "dar": 3158,
      "vers": 3159,
      "##_j": 3160,
      "##ðð": 3161,
      "##asc": 3162,
      "liked": 3163,
      "sup": 3164,
      "worth": 3165,
      "unless": 3166,
      "army": 3167,
      "grand": 3168,
      "basically": 3169,
      "##piracy": 3170,
      "piece": 3171,
      "horrible": 3172,
      "200": 3173,
      "gh": 3174,
      "names": 3175,
      "wadhwa": 3176,
      "##set": 3177,
      "##ugh": 3178,
      "##mp": 3179,
      "##uses": 3180,
      "beaut": 3181,
      "##lect": 3182,
      "##iden": 3183,
      "choose": 3184,
      "attacked": 3185,
      "threaten": 3186,
      "youtube": 3187,
      "jewish": 3188,
      "dan": 3189,
      "nick": 3190,
      "path": 3191,
      "##uk": 3192,
      "##ters": 3193,
      "##89": 3194,
      "abort": 3195,
      "main": 3196,
      "crime": 3197,
      "bigot": 3198,
      "father": 3199,
      "genoc": 3200,
      "facts": 3201,
      "##fully": 3202,
      "asshole": 3203,
      "number": 3204,
      "cele": 3205,
      ";)": 3206,
      "bs": 3207,
      "dom": 3208,
      "mist": 3209,
      "sam": 3210,
      "##aur": 3211,
      "##rr": 3212,
      "##onen": 3213,
      "short": 3214,
      "complain": 3215,
      "brown": 3216,
      "fell": 3217,
      "##black": 3218,
      "pain": 3219,
      "random": 3220,
      "sus": 3221,
      "##par": 3222,
      "##onse": 3223,
      "##ids": 3224,
      "mod": 3225,
      "disrespect": 3226,
      "realize": 3227,
      "spec": 3228,
      "based": 3229,
      "students": 3230,
      "positive": 3231,
      "eyes": 3232,
      "fans": 3233,
      "hu": 3234,
      "uk": 3235,
      "##over": 3236,
      "##ided": 3237,
      "pret": 3238,
      "scared": 3239,
      "response": 3240,
      "body": 3241,
      "lab": 3242,
      "niger": 3243,
      "sum": 3244,
      "wit": 3245,
      "##uf": 3246,
      "##atter": 3247,
      "supposed": 3248,
      "obs": 3249,
      "appar": 3250,
      "bout": 3251,
      "wer": 3252,
      "wife": 3253,
      "##dc": 3254,
      "##rules": 3255,
      "whites": 3256,
      "##agram": 3257,
      "##ands": 3258,
      "convers": 3259,
      "loc": 3260,
      "##mail": 3261,
      "smart": 3262,
      "laughing": 3263,
      "blameonen": 3264,
      "blameonenot": 3265,
      "sister": 3266,
      "##oz": 3267,
      "##cr": 3268,
      "##gu": 3269,
      "##jm": 3270,
      "##ines": 3271,
      "stre": 3272,
      "myk": 3273,
      "##empt": 3274,
      "everybody": 3275,
      "club": 3276,
      "speaking": 3277,
      "##tweet": 3278,
      "propag": 3279,
      "business": 3280,
      "milit": 3281,
      "journ": 3282,
      "none": 3283,
      "##don": 3284,
      "##ps": 3285,
      "decl": 3286,
      "##ield": 3287,
      "himself": 3288,
      "faith": 3289,
      "holy": 3290,
      "sleep": 3291,
      "blameonenotall": 3292,
      "poss": 3293,
      "tf": 3294,
      "##sch": 3295,
      "##17": 3296,
      "##ky": 3297,
      "##gin": 3298,
      "force": 3299,
      "##ured": 3300,
      "##ressed": 3301,
      "followers": 3302,
      "society": 3303,
      "national": 3304,
      "liberal": 3305,
      "months": 3306,
      "completely": 3307,
      "bb": 3308,
      "born": 3309,
      "lar": 3310,
      "mich": 3311,
      "##work": 3312,
      "##oul": 3313,
      "pract": 3314,
      "trust": 3315,
      "##asty": 3316,
      "close": 3317,
      "dress": 3318,
      "turned": 3319,
      "##trump": 3320,
      "normal": 3321,
      "cyber": 3322,
      "\",": 3323,
      "dav": 3324,
      "fig": 3325,
      "hour": 3326,
      "hang": 3327,
      "jack": 3328,
      "luck": 3329,
      "mine": 3330,
      "rom": 3331,
      "##cle": 3332,
      "##0s": 3333,
      "##any": 3334,
      "anim": 3335,
      "##igin": 3336,
      "##ased": 3337,
      "lies": 3338,
      "##ster": 3339,
      "##emy": 3340,
      "prin": 3341,
      "##abb": 3342,
      "mock": 3343,
      "phone": 3344,
      "##dden": 3345,
      "mykitchen": 3346,
      "##a_": 3347,
      "##iet": 3348,
      "##cess": 3349,
      "brut": 3350,
      "##aked": 3351,
      "slave": 3352,
      "problems": 3353,
      "condem": 3354,
      "absolutely": 3355,
      "mykitchenrules": 3356,
      "ny": 3357,
      "##ho": 3358,
      "##val": 3359,
      "ther": 3360,
      "sem": 3361,
      "order": 3362,
      "##aged": 3363,
      "slut": 3364,
      "!!!!!": 3365,
      "mostly": 3366,
      "kinda": 3367,
      "instagram": 3368,
      "incident": 3369,
      "##view": 3370,
      "lady": 3371,
      "bir": 3372,
      "false": 3373,
      "net": 3374,
      "uh": 3375,
      "##gs": 3376,
      "##esome": 3377,
      "star": 3378,
      "troll": 3379,
      "known": 3380,
      "##aste": 3381,
      "minor": 3382,
      "correct": 3383,
      "finally": 3384,
      "million": 3385,
      "junior": 3386,
      "important": 3387,
      "article": 3388,
      "answer": 3389,
      "journal": 3390,
      "ben": 3391,
      "taken": 3392,
      "##bu": 3393,
      "##to": 3394,
      "##gar": 3395,
      "##ator": 3396,
      "##che": 3397,
      "##idence": 3398,
      "##acter": 3399,
      "sudden": 3400,
      "terrible": 3401,
      "hadith": 3402,
      "actual": 3403,
      "swear": 3404,
      "glad": 3405,
      "proper": 3406,
      "student": 3407,
      "internet": 3408,
      "gives": 3409,
      "pand": 3410,
      "##ron": 3411,
      "##ror": 3412,
      "##69": 3413,
      "##ators": 3414,
      "##lex": 3415,
      "##oos": 3416,
      "chin": 3417,
      "##....": 3418,
      "train": 3419,
      "concer": 3420,
      "looked": 3421,
      "following": 3422,
      "daesh": 3423,
      "character": 3424,
      "obviously": 3425,
      "celebr": 3426,
      "early": 3427,
      "lond": 3428,
      "mult": 3429,
      "pur": 3430,
      "tired": 3431,
      "wal": 3432,
      "##hs": 3433,
      "##uct": 3434,
      "##23": 3435,
      "##ym": 3436,
      "##ero": 3437,
      "##ada": 3438,
      "repl": 3439,
      "likes": 3440,
      "soft": 3441,
      "##abe": 3442,
      "conver": 3443,
      "clos": 3444,
      "activ": 3445,
      "crap": 3446,
      "crimin": 3447,
      "awful": 3448,
      "##ugs": 3449,
      "2020": 3450,
      "married": 3451,
      "apparently": 3452,
      "bomb": 3453,
      "fagg": 3454,
      "gender": 3455,
      "nah": 3456,
      "##_c": 3457,
      "three": 3458,
      "##arch": 3459,
      "##reci": 3460,
      "prim": 3461,
      "slaves": 3462,
      "personal": 3463,
      "special": 3464,
      "daily": 3465,
      "##fair": 3466,
      "education": 3467,
      "favor": 3468,
      "direct": 3469,
      "ball": 3470,
      "games": 3471,
      "##uel": 3472,
      "##rop": 3473,
      "##24": 3474,
      "##oting": 3475,
      "bey": 3476,
      "##ape": 3477,
      "usually": 3478,
      "enter": 3479,
      "feeling": 3480,
      "##ocked": 3481,
      "regard": 3482,
      "equal": 3483,
      "##glish": 3484,
      "earth": 3485,
      "includ": 3486,
      "vs": 3487,
      "##femin": 3488,
      "##_in": 3489,
      "often": 3490,
      "reasons": 3491,
      "doct": 3492,
      "##iful": 3493,
      "repres": 3494,
      "appreci": 3495,
      "perfect": 3496,
      "questions": 3497,
      "control": 3498,
      "london": 3499,
      "),": 3500,
      "aint": 3501,
      "##sm": 3502,
      "##ana": 3503,
      "##adi": 3504,
      "suff": 3505,
      "fund": 3506,
      "reality": 3507,
      "write": 3508,
      "desp": 3509,
      "states": 3510,
      "morning": 3511,
      "spacekat": 3512,
      "##donald": 3513,
      "spacekatgal": 3514,
      "fire": 3515,
      "hating": 3516,
      "huh": 3517,
      "page": 3518,
      "##men": 3519,
      "##84": 3520,
      "##jp": 3521,
      "##urity": 3522,
      "uses": 3523,
      "##quin": 3524,
      "quick": 3525,
      "sweet": 3526,
      "hoes": 3527,
      "murdered": 3528,
      "running": 3529,
      "hahaha": 3530,
      "sort": 3531,
      "##nk": 3532,
      "##sl": 3533,
      "##iy": 3534,
      "##oles": 3535,
      "##aps": 3536,
      "##utes": 3537,
      "##ague": 3538,
      "hero": 3539,
      "arr": 3540,
      "eng": 3541,
      "crush": 3542,
      "reply": 3543,
      "moment": 3544,
      "lesbian": 3545,
      "abortion": 3546,
      "propaganda": 3547,
      "push": 3548,
      "tem": 3549,
      "##now": 3550,
      "##ture": 3551,
      "##_9": 3552,
      "##ino": 3553,
      "##ined": 3554,
      "build": 3555,
      "##irty": 3556,
      "refer": 3557,
      "weight": 3558,
      "works": 3559,
      "##ends": 3560,
      "herself": 3561,
      "##iban": 3562,
      "slurs": 3563,
      "quite": 3564,
      "##kki": 3565,
      "posted": 3566,
      "hands": 3567,
      "popul": 3568,
      "##itten": 3569,
      "bloody": 3570,
      "picture": 3571,
      "--": 3572,
      "det": 3573,
      "eur": 3574,
      "hop": 3575,
      "##ba": 3576,
      "##cent": 3577,
      "thequin": 3578,
      "##orter": 3579,
      "##cks": 3580,
      "shot": 3581,
      "stick": 3582,
      "form": 3583,
      "sexism": 3584,
      "##ensitive": 3585,
      "throughout": 3586,
      "##oho": 3587,
      "crying": 3588,
      "continue": 3589,
      "sharia": 3590,
      "felt": 3591,
      "##ught": 3592,
      "30": 3593,
      "dudes": 3594,
      "ira": 3595,
      "kur": 3596,
      "nasty": 3597,
      "russ": 3598,
      "##53": 3599,
      "repe": 3600,
      "fur": 3601,
      "meant": 3602,
      "liking": 3603,
      "origin": 3604,
      "disag": 3605,
      "colin": 3606,
      "invol": 3607,
      "restaur": 3608,
      "cops": 3609,
      "easy": 3610,
      "profess": 3611,
      "weren": 3612,
      "coup": 3613,
      "goo": 3614,
      "hill": 3615,
      "jail": 3616,
      "lang": 3617,
      "rss": 3618,
      "sar": 3619,
      "tim": 3620,
      "##ael": 3621,
      "##eb": 3622,
      "##sp": 3623,
      "##ger": 3624,
      "##jo": 3625,
      "buy": 3626,
      "rece": 3627,
      "weak": 3628,
      "gov": 3629,
      "brit": 3630,
      "everyday": 3631,
      "wayne": 3632,
      "tells": 3633,
      "happening": 3634,
      "iran": 3635,
      "hahahah": 3636,
      "excuse": 3637,
      "changed": 3638,
      "critic": 3639,
      "thequinns": 3640,
      "bag": 3641,
      "der": 3642,
      "eu": 3643,
      "email": 3644,
      "hi": 3645,
      "king": 3646,
      "link": 3647,
      "mer": 3648,
      "test": 3649,
      "##bers": 3650,
      "##94": 3651,
      "##tain": 3652,
      "##ping": 3653,
      "##64": 3654,
      "##isy": 3655,
      "proof": 3656,
      "justice": 3657,
      "enc": 3658,
      "needed": 3659,
      "meaning": 3660,
      "defending": 3661,
      "lmfao": 3662,
      "thequinnspiracy": 3663,
      "danger": 3664,
      "pan": 3665,
      "rock": 3666,
      "west": 3667,
      "##ges": 3668,
      "##wom": 3669,
      "##oming": 3670,
      "##iding": 3671,
      "grown": 3672,
      "offended": 3673,
      "relation": 3674,
      "didnt": 3675,
      "partic": 3676,
      "ready": 3677,
      "attacks": 3678,
      "violent": 3679,
      "discuss": 3680,
      "birth": 3681,
      "chinese": 3682,
      "!\"": 3683,
      "aaa": 3684,
      "hus": 3685,
      "jr": 3686,
      "nar": 3687,
      "ugh": 3688,
      "##oint": 3689,
      "##rain": 3690,
      "##iest": 3691,
      "##xual": 3692,
      "##erz": 3693,
      "##reme": 3694,
      "worry": 3695,
      "text": 3696,
      "modi": 3697,
      "office": 3698,
      "shitty": 3699,
      "stopped": 3700,
      "##iple": 3701,
      "belong": 3702,
      "common": 3703,
      "##itted": 3704,
      "halal": 3705,
      "simply": 3706,
      "truly": 3707,
      "beautiful": 3708,
      "eye": 3709,
      "##air": 3710,
      "##ec": 3711,
      "##sc": 3712,
      "##fic": 3713,
      "share": 3714,
      "future": 3715,
      "sell": 3716,
      "trou": 3717,
      "deep": 3718,
      "agend": 3719,
      "yea": 3720,
      "acts": 3721,
      "##front": 3722,
      "iraq": 3723,
      "jump": 3724,
      "kiss": 3725,
      "psy": 3726,
      "sour": 3727,
      "wing": 3728,
      "##bur": 3729,
      "##band": 3730,
      "##ae": 3731,
      "##ax": 3732,
      "##lt": 3733,
      "##warc": 3734,
      "##iny": 3735,
      "##ouch": 3736,
      "##iter": 3737,
      "##ural": 3738,
      "yesyour": 3739,
      "##ireg": 3740,
      "katie": 3741,
      "pakistani": 3742,
      "create": 3743,
      "minorities": 3744,
      "couple": 3745,
      "dra": 3746,
      "foc": 3747,
      "mc": 3748,
      "rules": 3749,
      "south": 3750,
      "##ko": 3751,
      "##80": 3752,
      "##eness": 3753,
      "taliban": 3754,
      "taught": 3755,
      "realdonald": 3756,
      "annie": 3757,
      "israelireg": 3758,
      "created": 3759,
      "behavior": 3760,
      "huge": 3761,
      "europe": 3762,
      "##warcraft": 3763,
      "realdonaldtrump": 3764,
      "israeliregime": 3765,
      "btw": 3766,
      "cas": 3767,
      "gold": 3768,
      "lunch": 3769,
      "port": 3770,
      "##aud": 3771,
      "##kin": 3772,
      "##iod": 3773,
      "##ple": 3774,
      "##pet": 3775,
      "##8_9": 3776,
      "##era": 3777,
      "rele": 3778,
      "##und": 3779,
      "feels": 3780,
      "##ondes": 3781,
      "phys": 3782,
      "present": 3783,
      "situ": 3784,
      "marriage": 3785,
      "constantly": 3786,
      "view": 3787,
      "mt8_9": 3788,
      "retarded": 3789,
      "dm": 3790,
      "fit": 3791,
      "ram": 3792,
      "tt": 3793,
      "##ral": 3794,
      "##gre": 3795,
      "##_e": 3796,
      "wee": 3797,
      "blow": 3798,
      "cance": 3799,
      "unf": 3800,
      "##room": 3801,
      "prev": 3802,
      "scream": 3803,
      "chriswarcraft": 3804,
      "gradu": 3805,
      "faggot": 3806,
      "relationship": 3807,
      "coun": 3808,
      "gg": 3809,
      "hilar": 3810,
      "lu": 3811,
      "sand": 3812,
      "sci": 3813,
      "tl": 3814,
      "##ht": 3815,
      "##jid": 3816,
      "##onst": 3817,
      "forever": 3818,
      "select": 3819,
      "dear": 3820,
      "##ags": 3821,
      "islamophob": 3822,
      "somebody": 3823,
      "racists": 3824,
      "actions": 3825,
      "preach": 3826,
      "pregn": 3827,
      "drive": 3828,
      "watched": 3829,
      "##others": 3830,
      "played": 3831,
      "secular": 3832,
      "politics": 3833,
      "##ledge": 3834,
      "curr": 3835,
      "randi": 3836,
      "genocide": 3837,
      "bat": 3838,
      "ig": 3839,
      "mob": 3840,
      "##99": 3841,
      "##rd": 3842,
      "##ration": 3843,
      "##rup": 3844,
      "##mo": 3845,
      "##min": 3846,
      "##66": 3847,
      "##ital": 3848,
      "rev": 3849,
      "##uts": 3850,
      "##uted": 3851,
      "sever": 3852,
      "girlfriend": 3853,
      "##erry": 3854,
      "anyway": 3855,
      "pls": 3856,
      "##olly": 3857,
      "negros": 3858,
      "desc": 3859,
      "instant": 3860,
      "blocked": 3861,
      "judge": 3862,
      "nikki": 3863,
      "suprem": 3864,
      "population": 3865,
      "auth": 3866,
      "##mas": 3867,
      "##yle": 3868,
      "##orge": 3869,
      "forced": 3870,
      "##ilt": 3871,
      "christianity": 3872,
      "awesome": 3873,
      "iron": 3874,
      "50": 3875,
      "fix": 3876,
      "nd": 3877,
      "till": 3878,
      "##ract": 3879,
      "##_f": 3880,
      "##88": 3881,
      "##eth": 3882,
      "frank": 3883,
      "along": 3884,
      "##ria": 3885,
      "##ried": 3886,
      "videos": 3887,
      "ridic": 3888,
      "beyond": 3889,
      "hilarious": 3890,
      "gar": 3891,
      "##right": 3892,
      "thous": 3893,
      "##aly": 3894,
      "liar": 3895,
      "upset": 3896,
      "racial": 3897,
      "lose": 3898,
      "##ploy": 3899,
      "##ode": 3900,
      "emot": 3901,
      "secret": 3902,
      "ident": 3903,
      "##oooooooo": 3904,
      "barbar": 3905,
      "equality": 3906,
      "dogs": 3907,
      "democrats": 3908,
      "tomor": 3909,
      "privile": 3910,
      "agenda": 3911,
      "psych": 3912,
      "16": 3913,
      "a_": 3914,
      "air": 3915,
      "##time": 3916,
      "##ja": 3917,
      "##ored": 3918,
      "stere": 3919,
      "##ooz": 3920,
      "##ther": 3921,
      "blog": 3922,
      "##ando": 3923,
      "##andal": 3924,
      "##iel": 3925,
      "ignore": 3926,
      "grew": 3927,
      "extreme": 3928,
      "paid": 3929,
      "liberals": 3930,
      "karma": 3931,
      "private": 3932,
      "##ropri": 3933,
      "##_in_": 3934,
      "tomorrow": 3935,
      "?\"": 3936,
      "alex": 3937,
      "cit": 3938,
      "died": 3939,
      "lord": 3940,
      "san": 3941,
      "vo": 3942,
      "##aign": 3943,
      "##hd": 3944,
      "##50": 3945,
      "budd": 3946,
      "##ops": 3947,
      "##ury": 3948,
      "sun": 3949,
      "screen": 3950,
      "drunk": 3951,
      "hindut": 3952,
      "posting": 3953,
      "claims": 3954,
      "david": 3955,
      "primary": 3956,
      "represent": 3957,
      "langu": 3958,
      "//": 3959,
      "jer": 3960,
      "lim": 3961,
      "mix": 3962,
      "##da": 3963,
      "##ham": 3964,
      "##vo": 3965,
      "##lc": 3966,
      "##atory": 3967,
      "##ether": 3968,
      "sho": 3969,
      "shout": 3970,
      "##tting": 3971,
      "chill": 3972,
      "cock": 3973,
      "ift": 3974,
      "english": 3975,
      "gross": 3976,
      "jihadi": 3977,
      "ended": 3978,
      "##oken": 3979,
      "learned": 3980,
      "waiting": 3981,
      "##esexist": 3982,
      "leader": 3983,
      "comedy": 3984,
      "forgot": 3985,
      "pathetic": 3986,
      "multiple": 3987,
      "stereot": 3988,
      "bil": 3989,
      "ille": 3990,
      "kay": 3991,
      "pink": 3992,
      "vis": 3993,
      "##90": 3994,
      "##lr": 3995,
      "##22": 3996,
      "##jw": 3997,
      "retweet": 3998,
      "pred": 3999,
      "mag": 4000,
      "loved": 4001,
      "brought": 4002,
      "wrote": 4003,
      "starting": 4004,
      "minutes": 4005,
      "announ": 4006,
      "leaders": 4007,
      "millions": 4008,
      "simple": 4009,
      "nurses": 4010,
      "17": 4011,
      "bh": 4012,
      "bother": 4013,
      "biden": 4014,
      "city": 4015,
      "cath": 4016,
      "ham": 4017,
      "iam": 4018,
      "por": 4019,
      "porn": 4020,
      "sr": 4021,
      "##back": 4022,
      "##ext": 4023,
      "##rass": 4024,
      "##lock": 4025,
      "##fre": 4026,
      "##52": 4027,
      "##wood": 4028,
      "trigg": 4029,
      "sugg": 4030,
      "##ieber": 4031,
      "bye": 4032,
      "##ived": 4033,
      "##eek": 4034,
      "written": 4035,
      "quit": 4036,
      "showing": 4037,
      "period": 4038,
      "mentions": 4039,
      "minority": 4040,
      "threats": 4041,
      "treated": 4042,
      "##utta": 4043,
      "pissed": 4044,
      "conservative": 4045,
      "including": 4046,
      "yesyouresexist": 4047,
      "40": 4048,
      "bible": 4049,
      "card": 4050,
      "pen": 4051,
      "sending": 4052,
      "tik": 4053,
      "##akes": 4054,
      "##ross": 4055,
      "##lor": 4056,
      "##fuck": 4057,
      "##iser": 4058,
      "##olf": 4059,
      "##ples": 4060,
      "plus": 4061,
      "inte": 4062,
      "quiet": 4063,
      "appe": 4064,
      "talked": 4065,
      "surv": 4066,
      "laws": 4067,
      "message": 4068,
      "doubt": 4069,
      "hypocrisy": 4070,
      "suggest": 4071,
      ",,": 4072,
      "1st": 4073,
      "athe": 4074,
      "bed": 4075,
      "dirty": 4076,
      "fasc": 4077,
      "jim": 4078,
      "lem": 4079,
      "##do": 4080,
      "##eg": 4081,
      "##ker": 4082,
      "##ris": 4083,
      "##rob": 4084,
      "##_p": 4085,
      "##86": 4086,
      "##ination": 4087,
      "##ani": 4088,
      "town": 4089,
      "toler": 4090,
      "##usive": 4091,
      "##star": 4092,
      "blue": 4093,
      "alive": 4094,
      "usa": 4095
    }
  }
}