<unk>	0
<s>	0
</s>	0
s	-3.40522
.	-3.45145
t	-4.05326
▁	-4.11982
,	-4.14188
▁the	-4.2378
▁a	-4.26513
▁@	-4.34722
▁to	-4.41046
▁I	-4.44904
'	-4.49073
▁and	-4.59977
▁you	-4.75585
▁in	-4.81534
▁of	-4.86522
▁is	-4.9728
ing	-5.05253
▁that	-5.10825
m	-5.13118
▁#	-5.18278
ed	-5.23301
▁it	-5.30245
d	-5.3153
’	-5.37599
▁school	-5.41059
▁for	-5.41653
▁are	-5.41987
▁me	-5.48471
?	-5.50485
/	-5.56014
y	-5.58369
:	-5.63155
▁not	-5.69129
re	-5.71135
▁be	-5.71369
▁was	-5.71719
n	-5.75087
-	-5.77583
▁on	-5.77764
▁my	-5.79827
e	-5.81011
▁i	-5.81604
▁like	-5.82619
!	-5.83098
S	-5.87714
▁who	-5.87987
▁with	-5.91017
r	-5.91481
▁but	-5.91691
_	-5.94188
▁they	-5.94258
▁this	-5.94343
▁high	-5.98867
▁about	-5.98888
a	-6.01437
...	-6.03263
▁have	-6.03818
er	-6.06086
▁dumb	-6.06241
▁bullied	-6.06373
▁people	-6.06468
i	-6.0653
://	-6.0675
co	-6.07121
▁all	-6.08325
▁so	-6.10084
ly	-6.11435
p	-6.11672
c	-6.11912
▁RT	-6.1209
"	-6.15386
h	-6.16059
▁just	-6.1859
in	-6.1941
▁fuck	-6.22869
▁he	-6.23078
;	-6.23104
▁can	-6.23216
▁your	-6.23576
▁A	-6.23703
▁"	-6.24204
b	-6.24601
▁u	-6.25222
▁nigger	-6.25465
al	-6.26812
▁rape	-6.27789
g	-6.28559
o	-6.29009
▁as	-6.29376
A	-6.30403
▁&	-6.30746
▁or	-6.349
T	-6.3532
▁don	-6.35612
▁http	-6.358
l	-6.35953
▁bully	-6.36845
▁gay	-6.37296
w	-6.3849
▁up	-6.39412
f	-6.39613
P	-6.39676
D	-6.39695
▁do	-6.39798
amp	-6.40679
▁by	-6.40991
▁jokes	-6.41896
B	-6.42262
▁at	-6.43918
▁one	-6.44002
C	-6.46889
I	-6.47112
▁You	-6.49074
▁S	-6.50817
u	-6.51008
▁we	-6.51554
▁what	-6.52019
▁when	-6.52996
▁if	-6.53096
k	-6.53364
▁from	-6.53665
”	-6.54903
M	-6.55173
▁get	-6.55279
▁out	-6.55666
▁an	-6.55731
▁no	-6.56283
▁girl	-6.58556
▁her	-6.59602
▁ass	-6.60206
v	-6.60703
le	-6.61939
▁she	-6.62659
▁The	-6.63078
▁girls	-6.63999
▁being	-6.64201
▁know	-6.65278
K	-6.66374
▁them	-6.66557
ve	-6.66801
E	-6.69695
F	-6.70072
es	-6.73305
▁because	-6.73441
G	-6.739
en	-6.76319
W	-6.7643
▁think	-6.76526
H	-6.77593
▁black	-6.78181
z	-6.78605
)	-6.7904
▁will	-6.7986
▁their	-6.80507
▁how	-6.80551
L	-6.81703
x	-6.82699
an	-6.83686
O	-6.83921
R	-6.84764
▁would	-6.85431
ll	-6.87426
U	-6.88242
▁B	-6.88476
▁“	-6.89506
▁now	-6.89614
ur	-6.91219
▁has	-6.9143
▁were	-6.94424
▁go	-6.94563
on	-6.95042
it	-6.95149
▁white	-6.95419
▁It	-6.95964
▁joke	-6.96155
Y	-6.96677
▁his	-6.96845
ic	-6.97964
or	-6.9933
▁-	-7.0126
▁Muslim	-7.01797
ar	-7.01966
▁say	-7.01971
▁idiot	-7.02254
▁re	-7.03247
▁(	-7.03505
▁Muslims	-7.03561
▁right	-7.03924
is	-7.04374
j	-7.05081
▁bitch	-7.05851
▁got	-7.05876
▁b	-7.06422
1	-7.06519
▁T	-7.08126
▁FUCK	-7.10219
N	-7.10269
▁make	-7.10318
th	-7.11034
▁C	-7.11685
▁call	-7.11723
▁F	-7.12453
J	-7.12508
▁some	-7.12903
ri	-7.13223
▁r	-7.13249
▁women	-7.13509
▁there	-7.1374
V	-7.14231
la	-7.15215
▁see	-7.15486
▁more	-7.16342
▁even	-7.16412
▁P	-7.17036
▁want	-7.17721
▁had	-7.18243
▁time	-7.18244
▁bullies	-7.18464
▁support	-7.18654
▁only	-7.19758
at	-7.19912
▁shit	-7.19952
▁him	-7.20017
▁And	-7.21225
4	-7.21583
▁f	-7.21997
▁called	-7.22013
MKR	-7.22587
el	-7.22934
▁U	-7.23483
▁why	-7.23894
▁other	-7.23988
ra	-7.24054
▁woman	-7.24946
▁de	-7.26108
▁hate	-7.26661
▁ur	-7.26951
▁then	-7.27195
▁M	-7.27374
▁never	-7.27644
2	-7.28089
▁Christian	-7.28847
ma	-7.29175
▁should	-7.30122
il	-7.30443
▁still	-7.31404
ha	-7.31567
▁been	-7.31695
▁This	-7.32245
▁really	-7.33672
▁man	-7.33674
▁He	-7.33906
Z	-7.34146
▁said	-7.34168
ter	-7.34199
▁fucking	-7.34474
ir	-7.3449
mkr	-7.34637
ie	-7.36844
▁So	-7.3806
ro	-7.38306
me	-7.38352
▁idiots	-7.38521
7	-7.39752
ate	-7.40252
all	-7.40539
▁over	-7.4076
ers	-7.41387
▁these	-7.41553
▁than	-7.41573
▁https	-7.41846
▁back	-7.42057
li	-7.42338
▁If	-7.42466
▁love	-7.43479
▁first	-7.44367
▁way	-7.44392
ive	-7.44622
▁off	-7.45146
▁anything	-7.45493
ion	-7.45533
te	-7.45841
▁But	-7.46484
▁too	-7.46613
3	-7.46651
as	-7.46656
▁mean	-7.46869
▁did	-7.46966
ation	-7.47493
un	-7.47533
q	-7.48647
▁E	-7.49075
▁We	-7.49669
▁same	-7.49884
▁W	-7.5035
▁any	-7.50783
▁need	-7.50889
▁good	-7.50968
▁D	-7.51291
▁2	-7.51593
▁w	-7.51956
us	-7.52819
▁didn	-7.53432
▁They	-7.53893
lo	-7.54073
▁against	-7.54592
▁No	-7.54838
▁sexist	-7.55124
▁That	-7.5516
▁G	-7.55351
▁Islam	-7.55474
ist	-7.5574
8	-7.56203
0	-7.5736
ne	-7.57425
6	-7.57648
com	-7.57741
ent	-7.57847
▁men	-7.58053
_:	-7.58152
5	-7.58516
the	-7.59608
▁bad	-7.59673
▁going	-7.60288
and	-7.60491
ad	-7.60499
X	-7.60795
▁OBAMA	-7.60993
▁racist	-7.61199
▁K	-7.61695
am	-7.6183
▁made	-7.61872
▁name	-7.6244
id	-7.62554
▁bullying	-7.62935
ayyoung	-7.62958
▁into	-7.63138
Q	-7.63426
▁those	-7.63452
▁also	-7.63667
▁our	-7.63691
ul	-7.63838
▁c	-7.6412
▁What	-7.64252
ity	-7.64558
de	-7.64607
▁terrorism	-7.65205
se	-7.66876
im	-7.66881
▁much	-7.67395
▁past	-7.67905
ig	-7.68191
▁am	-7.68218
ce	-7.68482
ol	-7.68528
▁doesn	-7.68586
▁someone	-7.6877
▁n	-7.69056
man	-7.69259
▁us	-7.69673
est	-7.69826
9	-7.70179
▁funny	-7.70608
ch	-7.72324
▁im	-7.72469
▁female	-7.72577
pe	-7.73177
ment	-7.73239
be	-7.73321
▁Fuck	-7.73445
▁look	-7.74865
▁radical	-7.74945
▁thing	-7.74994
▁middle	-7.75903
▁world	-7.76248
▁Islamic	-7.76353
ry	-7.76891
▁niggers	-7.77181
ke	-7.77366
▁YOU	-7.77397
▁take	-7.77632
▁saying	-7.78325
▁every	-7.78466
▁here	-7.79045
▁use	-7.7907
▁“@	-7.8009
▁life	-7.80112
▁years	-7.80147
▁day	-7.80411
▁stop	-7.80535
▁person	-7.80735
▁always	-7.80945
▁many	-7.81145
▁where	-7.81341
ty	-7.81799
▁un	-7.82076
ta	-7.82146
!!	-7.82227
ho	-7.82544
ck	-7.82638
▁p	-7.82895
▁e	-7.83288
*	-7.83743
▁st	-7.8388
mo	-7.84086
▁let	-7.85059
▁She	-7.85172
▁tell	-7.8519
et	-7.87405
lt	-7.8762
to	-7.87791
▁talk	-7.87813
ee	-7.8784
▁feel	-7.88036
▁N	-7.8837
▁O	-7.88442
▁H	-7.88773
ting	-7.89233
▁THE	-7.90226
▁work	-7.90419
▁In	-7.90738
▁most	-7.90891
▁believe	-7.90998
▁My	-7.91051
The	-7.91365
tion	-7.92327
ah	-7.92332
▁lol	-7.93048
ru	-7.93076
▁show	-7.93132
na	-7.93239
▁Why	-7.93304
▁ever	-7.93323
▁after	-7.93597
ill	-7.94577
ge	-7.94822
▁making	-7.95204
▁friends	-7.95349
no	-7.95446
sh	-7.955
ab	-7.95765
▁con	-7.96051
ice	-7.96265
▁which	-7.96944
▁racism	-7.98099
▁:	-7.98125
▁stupid	-7.98543
▁kids	-7.98843
▁terrorist	-7.99012
▁Y	-7.99292
ard	-7.99416
▁1	-7.9968
▁down	-7.99898
▁used	-7.99906
hi	-7.99907
less	-8.00039
▁give	-8.00051
ia	-8.0016
ant	-8.00543
ies	-8.00675
▁Just	-8.01187
▁L	-8.01884
▁better	-8.02212
▁d	-8.02366
▁word	-8.02424
op	-8.02447
ni	-8.02649
▁could	-8.02802
▁does	-8.02889
▁getting	-8.0311
▁care	-8.03183
!!!	-8.03283
▁religion	-8.03592
▁own	-8.03793
▁pro	-8.03819
ay	-8.0385
he	-8.04217
▁things	-8.04327
▁y	-8.05459
▁something	-8.0554
ine	-8.05864
▁muslim	-8.06217
▁guy	-8.06307
▁class	-8.06437
▁...	-8.06452
▁country	-8.06627
▁How	-8.07251
ish	-8.07453
ism	-8.07814
ian	-8.08138
▁To	-8.0861
▁find	-8.08633
▁dis	-8.08714
▁doing	-8.08743
▁everyone	-8.09028
▁well	-8.09188
ci	-8.09784
da	-8.10871
▁lot	-8.11312
▁isn	-8.1134
▁ppl	-8.11876
▁old	-8.11995
▁before	-8.12
▁ISIS	-8.12132
mi	-8.12195
go	-8.12486
lu	-8.14126
▁very	-8.14198
▁keep	-8.14509
ja	-8.15046
di	-8.15593
▁wrong	-8.15887
▁real	-8.16123
▁3	-8.1674
▁nothing	-8.17102
▁ma	-8.17142
oo	-8.17482
▁muslims	-8.17566
▁trying	-8.17646
▁*	-8.17739
▁come	-8.17741
▁point	-8.17876
▁ha	-8.17918
▁4	-8.1808
RE	-8.18115
ag	-8.18489
▁year	-8.18501
▁g	-8.18502
▁se	-8.18552
▁There	-8.18654
▁kill	-8.18847
AN	-8.1909
▁J	-8.19278
▁R	-8.1942
ff	-8.19881
po	-8.19976
▁Black	-8.20075
ful	-8.20187
▁Not	-8.20525
▁help	-8.20765
ash	-8.20883
▁Kat	-8.21313
▁Be	-8.21592
ut	-8.21601
nt	-8.21655
ING	-8.21763
son	-8.22141
▁Don	-8.22655
bo	-8.22705
▁disgusting	-8.22994
ally	-8.23145
▁Trump	-8.23157
nd	-8.23266
▁Ha	-8.23666
▁put	-8.23881
ance	-8.2397
....	-8.24056
ca	-8.24209
age	-8.24222
▁friend	-8.24238
▁talking	-8.24632
▁mad	-8.24837
▁Do	-8.24922
&	-8.25141
▁o	-8.25165
▁terrorists	-8.25181
▁po	-8.25791
▁new	-8.26165
up	-8.2644
▁again	-8.26491
▁Christians	-8.26503
▁tweet	-8.26731
▁calling	-8.26781
▁guys	-8.26846
▁Quran	-8.27214
▁Rape	-8.27451
▁fact	-8.2747
▁thought	-8.27766
ver	-8.27804
▁makes	-8.27833
ng	-8.27998
em	-8.28321
▁problem	-8.28324
▁told	-8.28328
▁face	-8.28677
▁try	-8.29509
one	-8.29935
▁anyone	-8.29964
um	-8.30761
▁around	-8.30826
▁bc	-8.30844
▁act	-8.31125
▁cause	-8.31299
▁Gay	-8.31408
▁actually	-8.3157
ba	-8.31738
▁humanity	-8.31781
▁sure	-8.32104
nk	-8.32108
▁won	-8.32131
end	-8.32404
do	-8.32491
▁All	-8.32501
▁sa	-8.32853
ton	-8.32888
▁went	-8.33478
▁When	-8.33625
▁ugly	-8.3363
▁head	-8.33859
able	-8.34086
▁little	-8.34103
ass	-8.34204
▁part	-8.34467
▁kind	-8.34586
▁stand	-8.34869
my	-8.34993
▁:)	-8.35244
▁co	-8.35294
wa	-8.35299
ick	-8.35357
gg	-8.35622
▁through	-8.35759
rs	-8.36017
▁God	-8.36347
ER	-8.36599
om	-8.3661
▁read	-8.36919
der	-8.36926
ber	-8.3702
min	-8.3731
ness	-8.37674
ld	-8.37885
▁start	-8.37887
ence	-8.38256
▁pretty	-8.38475
▁kid	-8.38819
▁reason	-8.38973
▁such	-8.39046
▁today	-8.39088
▁understand	-8.39473
os	-8.39572
▁De	-8.39653
ther	-8.39695
ot	-8.39766
▁while	-8.39963
▁home	-8.40042
ak	-8.40739
▁end	-8.40766
▁As	-8.41118
pa	-8.41137
ever	-8.41175
??	-8.41308
▁remember	-8.41501
▁Go	-8.41523
gay	-8.41559
▁twitter	-8.41652
▁India	-8.42301
▁'	-8.42348
cu	-8.42362
▁lo	-8.42458
ran	-8.42487
▁done	-8.42504
▁sp	-8.42551
IN	-8.42767
▁ho	-8.42772
▁hard	-8.42866
ga	-8.42945
dy	-8.43047
▁gonna	-8.43074
▁another	-8.43344
▁Re	-8.43505
▁Oh	-8.43748
▁anti	-8.43792
ow	-8.43816
▁follow	-8.44181
▁!	-8.44587
of	-8.44911
▁TO	-8.4501
har	-8.45056
▁having	-8.45153
▁DUMB	-8.45418
▁la	-8.45591
▁fight	-8.45642
▁5	-8.45714
▁hope	-8.45734
▁aren	-8.45966
ner	-8.47134
▁ex	-8.47214
▁V	-8.48096
▁bitches	-8.48113
ob	-8.48214
ED	-8.48315
ð	-8.48409
ure	-8.48423
▁pa	-8.48492
▁hell	-8.48662
ex	-8.48694
▁whole	-8.48806
ake	-8.49079
ack	-8.49243
▁must	-8.49334
ac	-8.49394
▁da	-8.49979
▁fun	-8.50319
ap	-8.50414
ated	-8.50582
▁Dumb	-8.50634
▁Ma	-8.50759
▁two	-8.51031
▁group	-8.51254
gt	-8.51321
▁since	-8.51467
ka	-8.51573
▁Can	-8.51807
▁last	-8.51811
ki	-8.51888
ud	-8.5204
▁ch	-8.52065
we	-8.52197
▁bo	-8.52287
ise	-8.52699
▁video	-8.5288
▁na	-8.52988
▁dont	-8.53176
▁Me	-8.53182
▁beat	-8.53286
mon	-8.53289
▁School	-8.53744
▁etc	-8.53759
lic	-8.54086
twitter	-8.54153
▁few	-8.5422
LE	-8.54244
▁k	-8.54387
ear	-8.5473
▁left	-8.54746
▁h	-8.5477
▁says	-8.54885
tic	-8.54935
▁th	-8.55163
▁best	-8.55274
ous	-8.55298
▁dude	-8.55519
▁matter	-8.56091
use	-8.56651
▁big	-8.56746
▁su	-8.56849
=	-8.57148
ny	-8.57293
ron	-8.57482
ary	-8.57505
▁colored	-8.57538
▁pre	-8.57659
ide	-8.57728
▁killed	-8.57764
▁literally	-8.58201
out	-8.58285
rr	-8.58416
▁AND	-8.59043
▁post	-8.59515
▁?	-8.59711
▁attack	-8.59794
iv	-8.59823
▁Now	-8.60272
per	-8.60407
ip	-8.6052
▁Your	-8.60585
for	-8.60663
og	-8.60663
▁cr	-8.61093
▁wasn	-8.61301
ep	-8.61421
▁jihad	-8.61439
red	-8.61469
▁game	-8.61581
▁child	-8.6188
19	-8.61982
ious	-8.62189
▁children	-8.62197
▁under	-8.62207
▁though	-8.62371
va	-8.62996
▁enough	-8.63152
▁yes	-8.63157
▁murder	-8.63247
▁NIGGER	-8.63658
▁seen	-8.63794
▁di	-8.63973
▁fat	-8.64062
▁Mo	-8.64178
▁race	-8.64239
▁far	-8.64306
▁its	-8.64321
▁idea	-8.64338
?!	-8.6449
▁mo	-8.64656
▁Who	-8.64673
▁using	-8.64727
▁great	-8.64749
you	-8.64762
▁war	-8.64906
▁boy	-8.65361
▁nigga	-8.65518
▁money	-8.65736
▁ok	-8.65777
vo	-8.6579
▁yourself	-8.65794
ight	-8.65914
io	-8.65977
▁trans	-8.66052
▁For	-8.66433
▁islamic	-8.66433
Ra	-8.66582
dd	-8.66623
www	-8.66667
▁else	-8.66709
▁live	-8.67173
▁different	-8.67366
▁wanna	-8.67382
▁abuse	-8.67385
les	-8.67443
jo	-8.67722
▁ta	-8.67936
▁away	-8.68642
OR	-8.68733
▁ask	-8.68829
bu	-8.6902
▁Pa	-8.69132
11	-8.69151
▁j	-8.69515
ating	-8.69562
▁hair	-8.69671
che	-8.69771
▁fe	-8.69977
hy	-8.69988
▁Ho	-8.70147
▁grade	-8.70752
ite	-8.7102
▁White	-8.71129
▁boys	-8.71173
fa	-8.71454
▁sex	-8.71595
▁ba	-8.71636
our	-8.7187
▁mind	-8.72046
▁play	-8.72484
▁shut	-8.72493
ea	-8.72764
▁oh	-8.73054
▁everything	-8.73172
ster	-8.73258
low	-8.73302
▁long	-8.73333
▁IS	-8.7345
au	-8.73488
AL	-8.73818
pi	-8.73859
▁community	-8.73876
cy	-8.73933
▁human	-8.73973
▁self	-8.74172
▁claim	-8.7423
▁male	-8.74259
▁hear	-8.74273
▁change	-8.7481
▁speak	-8.74843
day	-8.74992
▁People	-8.75059
▁US	-8.75171
▁next	-8.75304
▁both	-8.75323
▁non	-8.75358
▁ago	-8.75523
han	-8.75592
▁already	-8.75661
▁exp	-8.75801
▁fan	-8.75927
▁without	-8.75991
▁please	-8.76033
▁Are	-8.76128
bi	-8.76544
▁mom	-8.7656
▁Like	-8.76778
▁vote	-8.76787
▁okay	-8.76789
ph	-8.76797
▁sc	-8.76888
▁lmao	-8.76898
▁NOT	-8.76908
▁pe	-8.77149
RA	-8.77153
▁killing	-8.77155
▁que	-8.77469
â	-8.77478
▁probably	-8.77484
mer	-8.77493
IS	-8.77533
▁sorry	-8.77692
▁20	-8.77738
su	-8.77754
▁Yes	-8.77797
nn	-8.78137
▁ya	-8.78193
▁guess	-8.7822
ial	-8.78231
10	-8.78254
▁watch	-8.78609
(	-8.78782
▁v	-8.79006
▁started	-8.79019
▁Jihad	-8.79078
▁pick	-8.79276
▁ga	-8.79521
▁IN	-8.79627
fe	-8.7963
▁place	-8.79706
▁insult	-8.79709
▁Joke	-8.79709
▁yet	-8.79842
by	-8.79853
▁win	-8.79903
▁bi	-8.79927
ey	-8.80145
▁St	-8.80448
▁family	-8.80459
▁High	-8.8046
▁god	-8.80471
▁until	-8.80846
ya	-8.80936
▁job	-8.80944
▁came	-8.80954
▁respect	-8.81023
ell	-8.81028
port	-8.81242
key	-8.81593
▁prison	-8.81768
az	-8.81783
Mo	-8.81793
▁law	-8.82421
▁Hindu	-8.82466
ugh	-8.82496
▁These	-8.82503
ler	-8.82519
mar	-8.82655
▁sound	-8.82904
▁social	-8.83147
▁looks	-8.83165
ye	-8.83199
▁Idiot	-8.83333
▁pic	-8.83421
gan	-8.83485
LY	-8.83501
▁weird	-8.83539
▁hand	-8.83545
ain	-8.83735
zz	-8.83962
▁wouldn	-8.83966
De	-8.83971
▁found	-8.83998
???	-8.8403
TH	-8.84239
▁book	-8.84265
;&	-8.84277
▁rights	-8.84676
rn	-8.8477
rape	-8.84968
tri	-8.85063
▁stuff	-8.85102
▁nice	-8.85246
▁Hindus	-8.85313
▁themselves	-8.85499
▁yeah	-8.85541
AY	-8.85604
CH	-8.85688
con	-8.8588
▁Or	-8.85893
▁become	-8.85915
▁SO	-8.86117
bl	-8.86204
nc	-8.86465
▁power	-8.86555
▁negro	-8.86693
▁state	-8.8689
rk	-8.86919
▁si	-8.87292
▁Negro	-8.8736
ical	-8.87601
00	-8.87762
▁tho	-8.87887
Ma	-8.87904
ach	-8.87921
not	-8.88187
▁ME	-8.88194
▁ti	-8.88247
bb	-8.88455
▁once	-8.8855
▁dog	-8.88651
ib	-8.88687
▁Lol	-8.89002
so	-8.89009
▁saw	-8.89039
▁One	-8.89077
ST	-8.89304
▁Ro	-8.89435
▁learn	-8.89435
are	-8.89555
▁wish	-8.89686
ger	-8.89856
▁Ba	-8.89877
▁police	-8.89972
▁agree	-8.89978
Jo	-8.89988
▁wait	-8.90049
▁ain	-8.90443
led	-8.906
▁account	-8.90806
que	-8.90886
av	-8.90942
▁America	-8.90972
art	-8.91141
ans	-8.91233
AT	-8.91236
▁La	-8.91507
cr	-8.91511
▁week	-8.9167
lly	-8.91793
if	-8.9181
uck	-8.91852
__	-8.91874
tra	-8.91885
IT	-8.9194
▁looking	-8.91996
#	-8.92149
▁Th	-8.92268
▁others	-8.9236
line	-8.92364
king	-8.92387
▁mi	-8.92433
▁public	-8.92498
▁Jews	-8.92502
ko	-8.92546
▁‘	-8.92572
▁cool	-8.92616
▁ca	-8.92704
ali	-8.92737
▁bu	-8.92762
kin	-8.92782
▁Because	-8.92925
▁free	-8.93072
▁mu	-8.9314
▁laugh	-8.93171
▁pay	-8.93216
AR	-8.93339
▁media	-8.93658
▁damn	-8.93789
side	-8.93792
ES	-8.93814
nigger	-8.939
▁mention	-8.93948
▁Co	-8.93972
▁American	-8.94195
▁story	-8.94249
▁words	-8.94266
▁per	-8.94429
▁hi	-8.94466
▁Some	-8.94505
▁true	-8.94653
▁sexual	-8.94673
▁times	-8.94731
▁gr	-8.95119
▁each	-8.9515
ina	-8.95511
▁means	-8.95522
ook	-8.95524
▁might	-8.95541
▁Also	-8.95549
▁death	-8.95592
▁date	-8.95748
▁team	-8.95973
▁house	-8.96001
2015	-8.96035
▁Ch	-8.96224
▁car	-8.96319
ney	-8.96333
ling	-8.96373
▁tweets	-8.96555
▁myself	-8.96561
ban	-8.96589
but	-8.96604
/1	-8.96673
▁happened	-8.96807
ik	-8.96813
▁sick	-8.97004
cl	-8.97139
12	-8.97213
▁Call	-8.97275
▁question	-8.97304
▁@_	-8.97423
▁fake	-8.97434
▁yo	-8.97501
▁exist	-8.97587
▁pass	-8.97588
AM	-8.97732
▁close	-8.97754
head	-8.97758
act	-8.97823
ID	-8.97971
▁may	-8.98042
▁history	-8.98203
ave	-8.98215
Re	-8.98216
▁lives	-8.98255
pro	-8.9852
▁..	-8.98692
ize	-8.98711
lin	-8.98748
▁report	-8.98765
▁Indian	-8.98864
gi	-8.98913
uch	-8.99206
▁night	-8.99222
.....	-8.99298
▁ka	-8.99514
▁bit	-8.99702
tor	-8.9979
ists	-8.9984
▁watching	-8.99895
▁10	-8.99969
▁Nigger	-8.99971
▁run	-8.99985
LA	-8.99988
▁hurt	-9.00032
%	-9.00157
af	-9.00539
▁app	-9.00671
ai	-9.00818
▁full	-9.00879
▁l	-9.00918
▁ignorant	-9.00954
▁6	-9.00979
▁stay	-9.01052
▁Get	-9.01134
gu	-9.01138
ON	-9.01283
AD	-9.01348
ose	-9.01384
▁type	-9.01416
▁NO	-9.01643
▁sad	-9.01714
▁Al	-9.0176
freebsdgirl	-9.0188
▁hindu	-9.0188
▁goes	-9.01988
▁Andre	-9.02044
!!!!	-9.02139
je	-9.02311
▁open	-9.02603
sta	-9.02745
▁brother	-9.02843
14	-9.02898
tro	-9.031
20	-9.03166
joke	-9.03194
▁OF	-9.03383
▁teach	-9.03486
ors	-9.03516
wi	-9.03674
▁THIS	-9.03772
Max	-9.04011
hu	-9.04022
▁slave	-9.04206
▁miss	-9.0431
▁term	-9.04374
▁suck	-9.04377
▁FUCKING	-9.04438
▁Pakistan	-9.04441
ham	-9.04594
17	-9.04637
▁ARE	-9.04647
▁sh	-9.04938
press	-9.0525
▁deal	-9.054
▁less	-9.05464
▁young	-9.05501
▁Man	-9.05517
qu	-9.05559
lan	-9.05578
ift	-9.05638
▁straight	-9.05699
▁dick	-9.05847
▁comment	-9.05852
No	-9.05882
Co	-9.0589
LO	-9.06042
fu	-9.06076
▁happy	-9.06207
ang	-9.0624
▁cha	-9.06457
▁Yeah	-9.06583
▁days	-9.06661
▁en	-9.06778
fi	-9.06874
▁Twitter	-9.07015
cho	-9.07075
▁either	-9.0717
mb	-9.07215
▁ban	-9.07217
▁Radical	-9.07664
▁vi	-9.07818
▁Le	-9.07904
▁Did	-9.07914
EE	-9.0814
▁countries	-9.08167
Ba	-9.08184
▁listen	-9.08231
rd	-9.08327
▁bro	-9.08617
▁Pro	-9.08982
lock	-9.09095
▁hoe	-9.09101
▁turn	-9.09145
US	-9.09164
den	-9.09495
pp	-9.09499
ame	-9.0957
▁CO	-9.09626
▁movie	-9.0967
▁culture	-9.09675
▁—	-9.09737
fo	-9.09851
▁Obama	-9.09934
▁between	-9.10177
▁least	-9.10178
▁wanted	-9.10261
ath	-9.10282
▁feminazi	-9.1043
Islam	-9.10503
lar	-9.10809
▁wonder	-9.10857
▁gays	-9.10859
Al	-9.10884
▁cop	-9.10886
▁pu	-9.10887
▁grow	-9.10926
▁Ra	-9.11045
IC	-9.1109
▁ja	-9.11101
▁Po	-9.11118
mate	-9.11308
▁tw	-9.11316
qua	-9.11407
▁ne	-9.11778
land	-9.12038
16	-9.12315
▁case	-9.12343
▁die	-9.12519
▁victim	-9.1257
▁seeing	-9.12617
cc	-9.12664
▁knew	-9.12755
▁Well	-9.12847
ley	-9.1303
her	-9.13057
▁females	-9.1312
NY	-9.13239
▁religious	-9.13278
▁walk	-9.13293
ME	-9.13339
ade	-9.13339
▁ALL	-9.13388
▁rest	-9.13433
▁cuz	-9.13531
▁com	-9.13548
EN	-9.1378
status	-9.1381
▁Then	-9.14166
▁Bully	-9.14237
▁BITCH	-9.14334
▁worst	-9.14335
time	-9.14431
▁gave	-9.14551
▁heard	-9.14631
za	-9.1469
▁li	-9.14709
▁elementary	-9.14865
▁deserve	-9.14866
▁THAT	-9.14866
▁throw	-9.14884
▁BE	-9.14991
▁Li	-9.15185
▁Un	-9.15237
bit	-9.15247
oc	-9.15284
ky	-9.15296
ew	-9.1537
▁leave	-9.15405
▁color	-9.155
▁low	-9.15545
ping	-9.15568
▁Bo	-9.15942
black	-9.15961
▁side	-9.16025
ile	-9.16082
▁Ja	-9.16094
Li	-9.16127
during	-9.16174
ward	-9.16303
ord	-9.16589
To	-9.16651
Ca	-9.16689
ound	-9.16754
cent	-9.16885
mil	-9.16917
▁ones	-9.16991
▁entire	-9.17022
."	-9.17024
▁parents	-9.17049
yn	-9.17069
▁hot	-9.17132
▁islam	-9.17219
18	-9.1727
pl	-9.17286
▁7	-9.17293
dic	-9.1739
▁accept	-9.17547
▁tried	-9.17582
▁Please	-9.17596
▁Right	-9.17618
UN	-9.17671
▁Let	-9.18027
▁experience	-9.18118
▁homophobic	-9.18118
▁opinion	-9.18118
@	-9.1812
IL	-9.18121
SS	-9.18304
▁telling	-9.18314
▁Stop	-9.18612
▁ð	-9.18629
▁daughter	-9.1867
old	-9.18712
ue	-9.18804
▁=	-9.18909
▁christian	-9.18978
duc	-9.19059
don	-9.19063
▁single	-9.19232
ug	-9.19326
▁MY	-9.19338
▁later	-9.19556
Me	-9.19742
CE	-9.19769
▁together	-9.19785
▁hit	-9.20141
▁forget	-9.20169
eek	-9.20224
▁needs	-9.20262
▁crime	-9.20348
▁8	-9.20487
Da	-9.20626
bar	-9.20639
▁mother	-9.20958
▁.@	-9.20964
Muslim	-9.20987
▁Bitch	-9.20997
▁coming	-9.21336
▁shouldn	-9.2143
lie	-9.21519
▁shame	-9.21661
▁thinking	-9.21968
Blumenthal	-9.22051
▁living	-9.22052
▁eat	-9.22155
ring	-9.22217
ju	-9.22293
▁fr	-9.2253
OO	-9.22578
▁Mohammed	-9.22626
▁Miley	-9.22626
MA	-9.22661
▁skin	-9.22678
▁brain	-9.22837
An	-9.22904
ory	-9.22981
Sha	-9.23127
▁second	-9.23204
▁line	-9.23235
▁Good	-9.2325
RO	-9.2337
zi	-9.23606
▁behind	-9.23785
ric	-9.2384
▁poor	-9.24034
ris	-9.24037
rate	-9.24071
▁ASS	-9.24092
▁popular	-9.24099
ump	-9.24184
▁sha	-9.24219
mor	-9.24256
▁soon	-9.24295
▁defend	-9.24338
▁voice	-9.24371
News	-9.24518
▁Sa	-9.24608
13	-9.24774
HO	-9.24833
▁college	-9.24958
▁example	-9.24959
▁bring	-9.25067
▁feeling	-9.25097
▁party	-9.25289
TS	-9.25308
▁gu	-9.25314
▁protect	-9.2555
▁trash	-9.25595
ock	-9.25597
▁issue	-9.25906
ign	-9.25923
▁dead	-9.25929
▁comes	-9.25931
ions	-9.25975
▁:(	-9.26209
Bo	-9.26373
▁cannot	-9.26451
▁happen	-9.26457
gra	-9.2648
Be	-9.26509
Ha	-9.26598
▁pi	-9.26615
▁instead	-9.26744
Black	-9.26931
In	-9.2716
▁safe	-9.27209
▁wa	-9.27224
▁heart	-9.27253
▁wearing	-9.27333
▁target	-9.27346
giving	-9.27368
▁sense	-9.27391
You	-9.27446
▁Da	-9.27481
+	-9.27534
pr	-9.27547
qui	-9.27606
ress	-9.2792
~	-9.27952
▁maybe	-9.28013
▁lie	-9.28255
▁x	-9.28321
stan	-9.28367
▁mental	-9.28482
▁Have	-9.28515
▁expect	-9.28562
▁able	-9.28622
hahaha	-9.28636
▁Lo	-9.28691
▁em	-9.28947
▁violence	-9.29176
▁hold	-9.29263
Do	-9.29743
gar	-9.29822
▁Look	-9.29852
ail	-9.29875
▁haven	-9.29892
ok	-9.29947
men	-9.29969
Ja	-9.2998
▁GO	-9.29991
▁Terrorist	-9.30163
▁DO	-9.3019
▁pr	-9.30323
▁Cyrus	-9.30414
▁Terrorism	-9.30414
	-9.30417
▁blame	-9.30505
30	-9.30595
ator	-9.30608
imp	-9.308
;3	-9.30847
▁19	-9.30919
ble	-9.3097
	-9.31029
▁kick	-9.31119
▁asshole	-9.31128
50	-9.31161
Arab	-9.31392
▁asked	-9.3144
ized	-9.31539
ev	-9.3162
▁half	-9.31693
▁harassment	-9.31699
▁wants	-9.31798
just	-9.31798
▁Con	-9.32159
RT	-9.32173
▁million	-9.3221
oh	-9.323
]	-9.32301
▁MA	-9.32304
24	-9.32445
bra	-9.32483
▁couldn	-9.32637
▁character	-9.32938
▁super	-9.32979
99	-9.32984
Ro	-9.33126
boy	-9.33221
▁realize	-9.33482
Le	-9.33487
▁president	-9.33487
▁innocent	-9.33579
▁prophet	-9.33579
▁worse	-9.3358
▁Jesus	-9.33581
ama	-9.33621
▁bunch	-9.33622
▁lost	-9.33723
ana	-9.33779
green	-9.33796
▁"@	-9.33818
live	-9.33832
een	-9.3391
ities	-9.33963
right	-9.34092
ning	-9.34123
she	-9.34139
▁strong	-9.34225
▁general	-9.34228
▁cook	-9.34337
ze	-9.34365
ative	-9.34435
▁teacher	-9.34459
▁See	-9.3457
▁took	-9.34612
▁mis	-9.34631
Br	-9.34649
rian	-9.34656
▁taking	-9.34922
Ho	-9.34924
▁treat	-9.34995
▁Je	-9.35002
▁cut	-9.35199
▁break	-9.35199
▁piece	-9.35527
▁cunt	-9.35569
▁GAY	-9.35615
▁rule	-9.35741
▁via	-9.35809
▁Su	-9.35891
▁HA	-9.35958
▁seem	-9.36035
ker	-9.3604
▁evil	-9.36073
▁sub	-9.36153
▁truth	-9.36185
▁remind	-9.3619
dom	-9.36281
umm	-9.36358
▁yard	-9.36363
NA	-9.36389
▁Hey	-9.36444
▁dad	-9.36466
iz	-9.3648
▁add	-9.36522
Se	-9.3655
▁whatever	-9.36566
▁cu	-9.36694
▁threat	-9.36735
▁wear	-9.36779
▁check	-9.36849
▁Even	-9.36852
▁write	-9.36867
Mi	-9.36951
mu	-9.37108
▁Na	-9.37144
ami	-9.37168
/2	-9.37552
▁baby	-9.37557
▁al	-9.37586
ries	-9.37814
▁groups	-9.37992
gen	-9.3803
du	-9.38159
law	-9.38185
▁crazy	-9.38185
▁consider	-9.38186
fuck	-9.38318
▁haha	-9.38343
▁FOR	-9.38345
its	-9.38358
umb	-9.38377
car	-9.38469
▁age	-9.38584
school	-9.38597
▁comp	-9.38881
▁news	-9.38998
vid	-9.39018
▁seriously	-9.3904
▁é	-9.39075
xx	-9.39169
ani	-9.39325
▁wo	-9.39435
▁set	-9.39534
▁abt	-9.39547
▁explain	-9.3955
▁alone	-9.39592
▁working	-9.39633
cha	-9.39705
15	-9.39847
ji	-9.40048
▁WE	-9.40086
▁Every	-9.40201
▁destroy	-9.40226
▁hatred	-9.40227
▁interest	-9.40229
▁bus	-9.40282
itch	-9.40301
IR	-9.40347
ou	-9.40361
chi	-9.40434
fl	-9.40452
▁son	-9.40581
CK	-9.406
▁allowed	-9.40668
▁+	-9.407
▁YOUR	-9.40819
▁NIGGERS	-9.40831
▁calls	-9.4086
NE	-9.41008
40	-9.41114
▁asking	-9.41259
▁fear	-9.41275
▁plan	-9.41516
▁SCHOOL	-9.4161
▁action	-9.41627
gr	-9.41653
ong	-9.41727
▁An	-9.41754
KE	-9.42272
▁majority	-9.42335
▁On	-9.42348
hood	-9.42352
ians	-9.42356
ppy	-9.42523
lect	-9.42541
▁direct	-9.42541
▁almost	-9.4257
▁sit	-9.42675
▁fine	-9.42784
now	-9.42792
row	-9.42911
▁system	-9.43013
▁assault	-9.43013
bor	-9.43016
▁protest	-9.43017
▁LOL	-9.43047
▁view	-9.43116
▁continue	-9.43167
▁Israel	-9.43206
ough	-9.43359
ible	-9.43521
90	-9.43661
▁Racism	-9.43723
Go	-9.43784
▁force	-9.43794
He	-9.44221
kk	-9.44233
▁Bullying	-9.4425
ram	-9.44314
▁HE	-9.44406
▁rather	-9.44441
▁sister	-9.44473
ship	-9.44635
So	-9.44679
IM	-9.44948
get	-9.4495
▁leader	-9.45028
▁definitely	-9.45156
▁picture	-9.45157
▁hu	-9.45168
aj	-9.45261
▁round	-9.4527
ood	-9.45332
ray	-9.45391
▁victims	-9.45412
▁india	-9.45446
▁playing	-9.45759
▁small	-9.45884
lea	-9.46052
▁min	-9.46159
ara	-9.46317
uh	-9.46318
▁meet	-9.4641
fully	-9.46417
wadhwa	-9.46611
▁difference	-9.46611
▁shoot	-9.46646
▁push	-9.46686
▁seems	-9.46841
▁issues	-9.47027
app	-9.47119
ense	-9.47226
rap	-9.47386
▁[	-9.47401
▁slavery	-9.47414
▁tra	-9.47506
cept	-9.47631
▁Com	-9.47869
Christian	-9.47947
▁sw	-9.47963
ttle	-9.48029
▁government	-9.48087
▁liberal	-9.48087
▁China	-9.4811
▁thank	-9.48244
▁prove	-9.48265
▁Only	-9.48328
lf	-9.48353
▁def	-9.48365
GG	-9.48593
▁tonight	-9.48709
▁personal	-9.48898
▁exactly	-9.48921
▁fail	-9.49036
vin	-9.49049
▁main	-9.49083
▁cry	-9.49378
CT	-9.49422
nny	-9.49565
▁mouth	-9.49585
▁towards	-9.49642
▁Ex	-9.49665
▁9	-9.49823
▁supporting	-9.49924
▁tall	-9.50076
▁clear	-9.50121
sha	-9.50161
▁health	-9.50347
izing	-9.50464
▁threaten	-9.50472
▁du	-9.50522
PO	-9.50557
TER	-9.50568
HA	-9.50617
light	-9.507
▁block	-9.50702
▁yall	-9.50893
▁bra	-9.5093
▁save	-9.50952
kh	-9.51073
▁va	-9.51135
▁anymore	-9.51141
▁food	-9.51189
▁African	-9.51227
▁mar	-9.51331
▁cap	-9.5145
bitch	-9.51658
77	-9.5183
▁answer	-9.51876
▁level	-9.51877
▁short	-9.51891
2020	-9.51892
anger	-9.5196
eh	-9.5198
▁nation	-9.52044
▁teachers	-9.52072
EA	-9.52077
how	-9.52168
▁comments	-9.52477
EL	-9.52546
own	-9.52645
¦	-9.52652
▁bullshit	-9.52652
▁sho	-9.52748
▁cover	-9.52803
▁X	-9.52817
▁wh	-9.52896
IA	-9.53092
▁speech	-9.53432
▁sports	-9.53435
80	-9.53454
▁buy	-9.53466
read	-9.53467
▁move	-9.53506
▁join	-9.53616
▁political	-9.5362
Lo	-9.53773
▁sent	-9.53942
▁peace	-9.54147
▁trump	-9.54219
▁excuse	-9.54219
▁course	-9.54219
▁choice	-9.5422
▁Where	-9.54221
▁front	-9.54225
▁freedom	-9.54235
▁Mar	-9.54267
▁Here	-9.54312
ified	-9.54328
olo	-9.54333
rick	-9.54355
▁niggas	-9.54362
high	-9.54422
▁Kashmir	-9.54517
fil	-9.54745
fer	-9.54836
▁fund	-9.54987
▁became	-9.55014
▁adult	-9.55015
▁member	-9.5503
▁proud	-9.55107
hose	-9.55192
news	-9.55287
▁lying	-9.5534
uk	-9.55349
▁happens	-9.55432
▁With	-9.55445
way	-9.55518
love	-9.55724
▁response	-9.55813
girl	-9.55835
stin	-9.55904
▁gang	-9.55926
Po	-9.5597
ari	-9.56281
ix	-9.56304
hhh	-9.56317
▁col	-9.56373
▁acting	-9.56472
▁choose	-9.56619
▁football	-9.56621
▁smart	-9.56626
▁fool	-9.56731
▁attention	-9.56761
TA	-9.5686
▁Will	-9.56894
And	-9.56933
over	-9.56955
▁Make	-9.56964
ple	-9.57008
▁thanks	-9.57028
van	-9.57041
Real	-9.5727
▁$	-9.57285
cast	-9.5742
▁lesbian	-9.57432
▁offensive	-9.57432
▁raped	-9.57526
▁pull	-9.57603
Love	-9.57686
critic	-9.57697
▁Yo	-9.57719
▁fighting	-9.57748
ndo	-9.58031
▁Pu	-9.58033
NN	-9.58083
▁fall	-9.58123
▁judge	-9.58252
▁complain	-9.58258
▁normal	-9.58262
▁Ta	-9.58294
▁fair	-9.58326
HI	-9.58504
La	-9.58507
▁outside	-9.58544
▁gone	-9.58729
MT	-9.58742
ada	-9.58762
OL	-9.58837
▁online	-9.58865
fin	-9.59054
▁number	-9.59079
▁dark	-9.5913
▁;)	-9.59131
▁Of	-9.59139
that	-9.59195
▁Allah	-9.5923
▁room	-9.5924
UT	-9.5924
▁clearly	-9.59323
ALL	-9.59368
avi	-9.59394
▁list	-9.59671
▁horrible	-9.59912
▁incident	-9.59912
▁produc	-9.59963
▁folks	-9.60066
und	-9.6012
▁allow	-9.6016
▁land	-9.60215
▁shows	-9.60336
▁serious	-9.60529
▁!!	-9.60619
▁ran	-9.60656
mykitchenrules	-9.60752
▁biggest	-9.60752
▁church	-9.60752
▁omg	-9.60779
▁burn	-9.60801
▁supposed	-9.60858
▁Qu	-9.60893
▁ten	-9.60908
OS	-9.60916
Ju	-9.6092
▁annoying	-9.60944
▁equal	-9.61106
▁pray	-9.6118
LL	-9.61308
▁Ka	-9.61422
▁send	-9.61542
▁wash	-9.61592
▁certain	-9.61599
▁control	-9.616
We	-9.61632
▁tu	-9.61634
▁father	-9.61635
▁late	-9.61744
ically	-9.61777
▁Women	-9.61795
ease	-9.61822
Israeli	-9.61851
sti	-9.61967
ku	-9.62145
▁Bu	-9.62175
ita	-9.62209
▁Thanks	-9.62274
▁Was	-9.62317
▁bar	-9.62369
▁uni	-9.62378
▁especially	-9.62454
▁worth	-9.62455
John	-9.62519
▁light	-9.62599
▁Vi	-9.6261
fai	-9.62856
▁AS	-9.62861
▁Americans	-9.63022
Ni	-9.63068
▁fuckin	-9.63203
phobic	-9.63233
Matt	-9.63281
▁sign	-9.63399
▁cute	-9.63404
▁due	-9.63486
gy	-9.63518
▁gun	-9.63663
▁lik	-9.63854
ature	-9.64083
▁given	-9.64088
/3	-9.64132
▁count	-9.64155
▁pussy	-9.64186
▁cat	-9.64231
▁Girl	-9.64277
▁Thank	-9.64371
▁fucked	-9.64491
▁article	-9.64584
iya	-9.64656
▁sell	-9.6478
lk	-9.6491
▁OK	-9.6496
▁clothes	-9.65063
▁enjoy	-9.65063
▁suicide	-9.65063
▁First	-9.65063
▁scared	-9.65065
▁message	-9.65065
▁basically	-9.65077
▁punch	-9.65093
coon	-9.65129
▁Ur	-9.65135
▁totally	-9.65272
▁spread	-9.65332
▁bla	-9.65445
stop	-9.6563
▁art	-9.65733
▁harass	-9.65906
▁quran	-9.65948
▁sleep	-9.65948
▁phone	-9.65949
Col	-9.65963
▁UP	-9.66101
▁boo	-9.66206
HAHA	-9.66312
ENT	-9.664
▁Mu	-9.66518
Of	-9.6681
▁himself	-9.66915
Fa	-9.67205
star	-9.67209
▁CA	-9.67282
NG	-9.67676
▁Democrat	-9.67742
▁Sorry	-9.67744
self	-9.67816
23	-9.67843
blue	-9.67908
▁DE	-9.67968
▁followers	-9.67979
ify	-9.6807
nor	-9.68124
ool	-9.6829
▁attacked	-9.68404
can	-9.68411
/5	-9.68587
▁nurse	-9.68652
work	-9.68874
▁moment	-9.68918
rio	-9.68969
▁creat	-9.69083
▁fo	-9.6922
VE	-9.69423
▁FA	-9.6945
▁pain	-9.6946
▁share	-9.69466
33	-9.69485
▁commit	-9.69571
▁Sh	-9.69572
▁angry	-9.69575
▁honestly	-9.69707
arch	-9.7039
▁Maybe	-9.70495
▁dream	-9.70495
▁hated	-9.70623
▁students	-9.7072
▁weren	-9.70756
▁Wo	-9.70857
Ar	-9.70942
ria	-9.71067
▁reading	-9.71073
ier	-9.71142
▁red	-9.71232
▁mine	-9.71246
ND	-9.71305
IST	-9.71307
lon	-9.71312
Â	-9.71417
21	-9.71422
▁organization	-9.71429
▁looked	-9.71476
▁Anti	-9.71476
▁anyway	-9.71497
▁dress	-9.71499
▁Read	-9.71616
▁drive	-9.71781
▁yr	-9.71893
nu	-9.71896
Not	-9.71961
......	-9.71972
▁pra	-9.72045
▁ON	-9.72061
▁jo	-9.72089
000	-9.72178
atch	-9.72286
▁important	-9.72372
▁trust	-9.72372
▁After	-9.72376
IVE	-9.72394
▁turned	-9.72431
▁nor	-9.72582
ivers	-9.72584
▁shot	-9.72594
▁eye	-9.72653
pped	-9.72708
▁taken	-9.72732
▁eyes	-9.72855
▁months	-9.72901
BlameOneNotAll	-9.73324
▁special	-9.73332
▁random	-9.73335
▁swear	-9.7335
▁GET	-9.73383
▁body	-9.73405
Qu	-9.73407
▁completely	-9.73465
▁By	-9.73512
▁Most	-9.73517
▁Ok	-9.73529
war	-9.73586
▁bout	-9.73701
▁Wow	-9.73704
rica	-9.73742
▁Say	-9.73769
▁laughing	-9.73789
▁harm	-9.74036
▁wife	-9.74289
Big	-9.74509
FF	-9.74516
▁DI	-9.74523
▁near	-9.74633
bby	-9.74759
▁Idiots	-9.74779
board	-9.74956
▁actual	-9.75035
▁speaking	-9.75048
▁order	-9.75092
▁Men	-9.7515
lah	-9.75174
60	-9.75209
bro	-9.75212
▁street	-9.75259
▁sometimes	-9.75262
▁born	-9.75324
▁Niggers	-9.75499
▁His	-9.75927
cat	-9.76143
▁apologize	-9.76237
▁abortion	-9.76238
▁build	-9.76239
▁pretend	-9.76239
▁comedian	-9.76244
▁smh	-9.76249
▁crush	-9.76268
▁statement	-9.76347
▁felt	-9.76375
ung	-9.76439
▁lil	-9.76583
ISIS	-9.76633
▁broke	-9.76771
▁mass	-9.76996
▁Girls	-9.77059
War	-9.77168
bullying	-9.77185
▁text	-9.77231
▁Dr	-9.77292
pub	-9.77319
box	-9.77366
▁MO	-9.77428
white	-9.77602
pan	-9.77659
▁crack	-9.77667
▁correct	-9.77798
▁page	-9.77871
UR	-9.77973
like	-9.78042
ET	-9.78043
▁rid	-9.7817
▁lies	-9.7818
Hu	-9.78203
▁concern	-9.78227
▁criminal	-9.78227
▁restaurant	-9.78227
▁WHAT	-9.78228
▁amazing	-9.78228
RY	-9.78255
▁bomb	-9.78288
▁crap	-9.78417
IG	-9.78491
rain	-9.78549
▁terror	-9.78598
call	-9.7867
play	-9.78752
84	-9.78934
▁12	-9.78953
ball	-9.79002
AND	-9.79179
▁President	-9.79237
▁junior	-9.79237
▁terrible	-9.79237
▁surprise	-9.79237
▁nobody	-9.79238
▁imagine	-9.79238
▁tech	-9.79241
▁stopped	-9.79247
▁gender	-9.79261
EVER	-9.79292
▁throughout	-9.79318
25	-9.79385
▁mock	-9.79393
mark	-9.79444
what	-9.79696
lee	-9.79764
▁ONE	-9.79875
▁accus	-9.79941
▁student	-9.8001
▁step	-9.80137
▁Jewish	-9.80258
▁belief	-9.80259
▁early	-9.80272
▁except	-9.80288
She	-9.80327
RU	-9.8036
▁feminist	-9.80384
▁soft	-9.80399
▁Never	-9.80439
aking	-9.80643
▁dr	-9.80692
▁Ne	-9.80844
post	-9.80907
mad	-9.80938
face	-9.80963
▁Hi	-9.81136
▁propaganda	-9.81289
YouTube	-9.81293
▁music	-9.81347
▁happening	-9.81354
ken	-9.81496
▁ignore	-9.817
▁ver	-9.81702
India	-9.81803
TE	-9.8191
ILL	-9.82168
▁BLACK	-9.82331
▁blonde	-9.82331
▁drink	-9.82333
▁fit	-9.82357
▁Lmao	-9.82359
▁BUT	-9.82466
▁lead	-9.8255
▁slurs	-9.82556
▁often	-9.82634
▁wit	-9.82666
▁train	-9.82703
▁song	-9.82738
▁sort	-9.82751
▁mostly	-9.828
Chris	-9.83135
Na	-9.83219
where	-9.83232
nna	-9.83355
▁behavior	-9.83383
▁marriage	-9.83383
▁society	-9.83383
▁business	-9.83383
▁easy	-9.83386
▁refuse	-9.83387
ander	-9.83434
▁dev	-9.83463
▁HIGH	-9.83499
98	-9.83607
▁Ru	-9.83749
▁based	-9.83772
▁photo	-9.83955
70	-9.83964
some	-9.83984
▁murdered	-9.84106
0%	-9.84106
tention	-9.84294
bully	-9.84386
parent	-9.84443
notsexist	-9.84447
▁couple	-9.84447
▁morning	-9.84448
▁three	-9.84452
▁kinda	-9.84465
▁teen	-9.84472
▁awful	-9.84492
gl	-9.84498
▁absolutely	-9.84556
▁Really	-9.84566
kar	-9.84586
▁herself	-9.84611
▁HATE	-9.84644
▁false	-9.84804
▁weight	-9.84937
69	-9.85096
▁Does	-9.85106
ask	-9.85119
OM	-9.8514
▁RE	-9.85191
!!!!!	-9.85336
▁100	-9.85435
ChrisWarcraft	-9.85522
▁Facebook	-9.85522
▁education	-9.85522
▁Hadith	-9.85522
▁faith	-9.85524
▁BLM	-9.85525
▁reply	-9.85532
▁por	-9.85631
Che	-9.85671
CA	-9.85744
▁feminists	-9.85825
▁cor	-9.85864
emp	-9.85936
vol	-9.8603
feminazi	-9.86068
▁MUSLIM	-9.86609
▁disagree	-9.86609
▁married	-9.8661
▁offended	-9.86611
▁troll	-9.86614
▁perfect	-9.86618
ão	-9.86624
▁tired	-9.86694
TT	-9.86755
mag	-9.86788
▁Mr	-9.86882
▁15	-9.87018
▁following	-9.87058
fucking	-9.8711
hor	-9.87264
tree	-9.87375
hole	-9.87397
ION	-9.87548
▁crying	-9.87553
MO	-9.87683
vel	-9.87704
Spacekatgal	-9.87708
TheQuinnspiracy	-9.87708
▁violent	-9.87708
▁sudden	-9.87708
▁usually	-9.87709
▁model	-9.8771
Support	-9.87715
▁instant	-9.87735
▁wtf	-9.8774
▁drop	-9.87747
▁bigot	-9.87758
▁Watch	-9.87774
Regime	-9.87812
kr	-9.87835
▁quite	-9.87872
▁nerd	-9.87874
back	-9.87927
raw	-9.88151
▁bother	-9.8816
book	-9.88235
dies	-9.88354
equality	-9.88356
/4	-9.8836
▁shitty	-9.88399
▁star	-9.88407
down	-9.88521
▁piss	-9.88544
▁posted	-9.88546
▁LI	-9.88703
Ã	-9.88819
▁colleague	-9.88819
▁figure	-9.88819
▁Daesh	-9.8882
▁worry	-9.8882
▁agenda	-9.8882
▁sweet	-9.88821
▁belong	-9.88822
▁glad	-9.88825
▁finally	-9.88904
▁select	-9.89154
From	-9.89195
▁UN	-9.89271
_9	-9.89323
86	-9.8953
ooo	-9.89684
▁Christ	-9.89936
▁condemn	-9.89943
▁language	-9.89943
▁suffer	-9.89943
▁quick	-9.89945
▁taught	-9.89955
▁ruin	-9.89972
▁jump	-9.89976
▁luck	-9.89988
▁constantly	-9.90017
graph	-9.90042
▁grand	-9.90082
▁standard	-9.90105
ira	-9.90192
▁reality	-9.90224
▁create	-9.90312
coming	-9.90345
64	-9.90522
▁weak	-9.90832
▁lose	-9.90934
realDonaldTrump	-9.91079
▁Republican	-9.91079
▁beautiful	-9.91079
▁pedophile	-9.91079
▁rapist	-9.91085
▁New	-9.9114
▁WHO	-9.91191
▁fav	-9.9123
▁PA	-9.91311
▁yell	-9.91312
89	-9.91317
▁known	-9.91359
Another	-9.91598
▁Per	-9.91627
Pro	-9.91758
01	-9.91854
Ne	-9.91992
▁BULLIES	-9.92229
▁conservative	-9.92229
▁represent	-9.92229
▁nasty	-9.92235
▁created	-9.9225
▁running	-9.92257
▁compare	-9.92324
26	-9.92373
07	-9.92437
▁hang	-9.9247
▁CAN	-9.92557
Mr	-9.92659
▁changed	-9.92662
friend	-9.9277
▁leg	-9.92828
▁played	-9.92856
▁ready	-9.92912
feminist	-9.92922
▁gen	-9.9299
On	-9.93102
randi	-9.93154
▁office	-9.93209
▁ball	-9.93261
race	-9.93386
▁relationship	-9.93391
▁trouble	-9.93391
▁situation	-9.93392
▁London	-9.93392
▁racial	-9.93392
NO	-9.93443
▁score	-9.9348
▁defending	-9.93494
▁sexism	-9.93499
zj	-9.93533
For	-9.93577
▁legal	-9.93637
▁deep	-9.93712
88	-9.93753
▁test	-9.9382
CO	-9.93868
▁Time	-9.93938
Trump	-9.94121
other	-9.94275
▁200	-9.94563
▁argument	-9.94568
▁specific	-9.94568
▁mistake	-9.94569
▁promote	-9.9457
▁rich	-9.94596
▁Colin	-9.94612
▁link	-9.9465
▁needed	-9.9475
▁State	-9.94799
shirt	-9.94813
IE	-9.94903
▁acc	-9.94952
▁Same	-9.95044
lia	-9.95074
plus	-9.95086
All	-9.95105
▁refer	-9.95218
GOP	-9.95243
KING	-9.95523
yu	-9.9553
▁minutes	-9.95693
▁discuss	-9.95758
▁future	-9.95759
▁animal	-9.95761
▁present	-9.95766
value	-9.95832
▁sal	-9.95876
▁whe	-9.95915
▁sin	-9.95972
▁hating	-9.96141
▁eu	-9.96164
iam	-9.96352
▁Humanity	-9.96492
human	-9.96675
ired	-9.96801
▁BULLY	-9.96936
▁private	-9.96963
▁Congress	-9.96963
▁JUST	-9.96963
ability	-9.96964
▁focus	-9.96964
▁convert	-9.96969
▁slut	-9.9697
▁earth	-9.9698
▁email	-9.96983
▁More	-9.97006
▁chance	-9.97083
▁obviously	-9.97117
hol	-9.97139
▁liar	-9.9719
22	-9.97286
▁Haha	-9.97485
▁arm	-9.97624
elle	-9.97893
95	-9.97903
off	-9.9808
phe	-9.98102
▁RAPE	-9.98183
▁lunch	-9.98197
▁along	-9.98217
▁common	-9.98234
▁ev	-9.98248
anda	-9.98375
▁stick	-9.98398
eez	-9.98681
liner	-9.98759
▁EX	-9.98811
pper	-9.9891
▁grown	-9.98981
▁Sha	-9.98981
é	-9.99026
▁forced	-9.99171
erry	-9.99317
▁oppress	-9.99331
!!!!!!	-9.99362
▁extremist	-9.99417
▁population	-9.99417
▁secular	-9.99417
▁Racist	-9.99418
▁club	-9.99418
▁brown	-9.99419
▁cyber	-9.99419
▁grew	-9.99454
▁huge	-9.99481
▁upset	-9.995
▁cancel	-9.99525
▁proof	-9.99574
▁jail	-9.99633
▁card	-9.99748
▁learned	-9.99784
park	-9.99995
istic	-10.0018
▁THEY	-10.0019
QU	-10.0026
▁para	-10.0029
That	-10.0035
▁tf	-10.0045
▁Feminazi	-10.0053
nia	-10.0055
▁Chinese	-10.0067
▁internet	-10.0067
▁lmfao	-10.0067
▁truly	-10.0067
▁daily	-10.0067
▁preach	-10.0073
▁Someone	-10.0074
Mar	-10.0075
▁Today	-10.0078
▁rock	-10.0086
▁huh	-10.0135
▁LGBT	-10.015
53	-10.015
word	-10.0154
matt	-10.0161
▁feminism	-10.0168
list	-10.0171
more	-10.0192
▁favorite	-10.0193
▁husband	-10.0193
▁minorities	-10.0193
▁suggest	-10.0193
including	-10.0193
▁serve	-10.0202
▁lady	-10.0206
▁posting	-10.0206
▁ki	-10.0213
▁Her	-10.0246
▁national	-10.0247
▁none	-10.0259
▁decide	-10.0272
▁blocked	-10.0283
▁Nikki	-10.0322
▁SHIT	-10.0322
▁blind	-10.0322
field	-10.0323
▁Russia	-10.0323
▁appear	-10.0327
▁girlfriend	-10.0337
▁everyday	-10.0337
▁bloody	-10.0357
▁Islamist	-10.0357
▁month	-10.038
▁13	-10.0391
▁UR	-10.0394
▁longer	-10.0408
female	-10.0419
chris	-10.042
▁treated	-10.0428
▁source	-10.0431
▁Ya	-10.0435
ERS	-10.0438
	-10.0451
°	-10.0451
▁Europe	-10.0451
▁afraid	-10.0451
▁written	-10.0451
▁punish	-10.0451
▁100%	-10.0454
▁mask	-10.0457
▁Woman	-10.0458
▁drag	-10.0463
▁fix	-10.0465
▁ended	-10.0471
▁Tell	-10.0481
chan	-10.0496
▁handle	-10.0498
gue	-10.052
Free	-10.0524
▁fire	-10.0537
▁current	-10.0583
▁multipl	-10.0583
campaign	-10.0583
▁Nigga	-10.0583
▁record	-10.0583
▁drug	-10.0585
▁sitting	-10.0593
kept	-10.0599
▁Bro	-10.0599
Its	-10.06
▁verse	-10.0606
93	-10.0607
▁assume	-10.061
56	-10.0612
▁Pakistani	-10.0639
▁watched	-10.0643
▁wow	-10.0644
rought	-10.0656
rent	-10.0682
Women	-10.0687
▁Again	-10.0709
▁major	-10.0712
unch	-10.0716
▁apparently	-10.0716
▁Bullies	-10.0716
▁return	-10.0716
▁quote	-10.0716
▁declare	-10.0716
▁season	-10.0716
▁affect	-10.0716
▁large	-10.0719
66	-10.0728
▁paid	-10.0746
gate	-10.0749
▁blow	-10.0754
kill	-10.0756
David	-10.0759
▁GamerGate	-10.0789
38	-10.0792
phil	-10.0806
45	-10.0811
▁prefer	-10.0814
▁blood	-10.0814
▁LMAO	-10.0814
▁Gu	-10.0822
▁respond	-10.0851
▁STOP	-10.0851
▁extreme	-10.0851
▁everybody	-10.0851
▁minority	-10.0851
▁writing	-10.0851
▁quiet	-10.0852
▁LIKE	-10.0852
▁debate	-10.0853
▁facebook	-10.0855
▁thread	-10.0855
room	-10.0856
angel	-10.0861
▁older	-10.0884
Jihad	-10.0885
▁cock	-10.089
▁army	-10.0896
????	-10.0923
Star	-10.0928
▁Christianity	-10.0932
path	-10.0934
83	-10.0953
muslim	-10.0963
▁sur	-10.0968
97	-10.0968
▁forgot	-10.0974
▁appreciate	-10.0988
▁faggot	-10.0988
▁genocide	-10.0988
utm	-10.0988
▁clean	-10.0989
▁drama	-10.099
▁Which	-10.0991
▁PE	-10.0995
▁idk	-10.0996
▁shock	-10.0999
this	-10.1007
ONE	-10.1031
Fran	-10.1042
▁politics	-10.1045
▁fu	-10.1058
▁WAS	-10.1066
▁peaceful	-10.1083
spite	-10.1088
tweet	-10.1095
aid	-10.1125
▁attempt	-10.1127
	-10.1127
▁tomorrow	-10.1127
▁wrote	-10.1127
Tweet	-10.1128
▁steal	-10.1128
▁birth	-10.1129
exist	-10.113
watch	-10.1132
▁moral	-10.1133
▁teenage	-10.1133
▁moron	-10.1136
47	-10.1137
▁BO	-10.1144
logical	-10.1144
ajid	-10.1148
▁draw	-10.1151
▁Cu	-10.1152
▁justify	-10.116
63	-10.1162
▁NOW	-10.1163
▁Katie	-10.1171
▁code	-10.1171
isa	-10.118
▁decided	-10.1181
▁till	-10.1187
▁DM	-10.1189
▁Ga	-10.1204
dumb	-10.1213
▁pen	-10.1221
▁forever	-10.1231
▁Car	-10.126
YesYoureSexist	-10.1268
▁Bullied	-10.1268
▁Remember	-10.1268
▁announce	-10.1268
▁positive	-10.1268
▁privilege	-10.1268
▁beyond	-10.1268
▁WITH	-10.1268
▁finish	-10.1268
▁proper	-10.1279
▁Barr	-10.1284
▁REAL	-10.1285
oooo	-10.1287
stood	-10.1292
▁hide	-10.1297
iff	-10.1307
oooooo	-10.133
▁|	-10.1333
well	-10.1337
who	-10.1346
▁Our	-10.1366
▁forward	-10.1387
—	-10.1392
Nigger	-10.1392
▁Guy	-10.1394
phobia	-10.141
▁illegal	-10.1411
▁conversation	-10.1411
▁Saudi	-10.1412
▁address	-10.1413
▁coward	-10.1418
islam	-10.1419
▁RSS	-10.142
even	-10.143
▁involved	-10.1436
view	-10.1454
wood	-10.1455
▁HER	-10.1465
▁fired	-10.1475
▁died	-10.1498
▁emo	-10.1516
Life	-10.1518
▁Mad	-10.152
▁driver	-10.1524
Super	-10.1539
women	-10.154
▁9/11	-10.1556
▁Middle	-10.1556
▁amount	-10.1556
▁awesome	-10.1556
▁tbh	-10.1556
▁receive	-10.1556
frank	-10.1561
ebooks	-10.1562
▁OUT	-10.1563
▁kiss	-10.1573
▁Annie	-10.1574
▁Hope	-10.1575
▁town	-10.1578
▁Sad	-10.1588
James	-10.159
gger	-10.1593
▁Everyone	-10.1619
Just	-10.1623
▁Try	-10.1656
▁sending	-10.1667
Man	-10.1667
▁honest	-10.1681
White	-10.1689
85	-10.1697
night	-10.1699
	-10.1702
▁citizen	-10.1703
▁graduate	-10.1703
instagram	-10.1703
▁doubt	-10.1703
▁Would	-10.1703
ccording	-10.1703
ÂÂ	-10.1704
▁Shut	-10.1709
▁Syria	-10.1712
lick	-10.1716
▁water	-10.1723
mmm	-10.1732
▁TV	-10.1736
08	-10.1737
▁pissed	-10.1775
▁manage	-10.1781
32	-10.1812
▁slur	-10.182
ICE	-10.1822
️	-10.1852
MileyCyrus	-10.1852
▁pakistan	-10.1852
▁pregnant	-10.1852
▁responsible	-10.1852
Feminism	-10.1852
▁include	-10.1852
▁worship	-10.1852
▁simply	-10.1852
▁drunk	-10.1852
gamergate	-10.1852
bieber	-10.1853
▁gross	-10.1853
▁dying	-10.1861
▁Any	-10.1864
rag	-10.1873
▁hai	-10.1881
Fuck	-10.1884
▁char	-10.1909
?????	-10.1922
▁lived	-10.1928
ACK	-10.196
▁Boy	-10.1961
▁complete	-10.1981
cap	-10.1997
▁cooking	-10.2002
▁admit	-10.2003
▁hypocrite	-10.2004
▁context	-10.2004
▁KNOW	-10.2004
▁policy	-10.2004
▁design	-10.2004
ology	-10.2005
▁spoke	-10.2005
▁freak	-10.2007
▁apart	-10.2007
▁toxic	-10.2007
▁loud	-10.202
▁Still	-10.202
▁contra	-10.2021
▁data	-10.2031
▁•	-10.2036
grant	-10.2055
kay	-10.2062
lane	-10.2071
▁USA	-10.2084
▁Hell	-10.2088
EST	-10.2091
34	-10.2108
▁rob	-10.2129
ification	-10.2148
anna	-10.2149
aaa	-10.2154
27	-10.2155
▁Seriously	-10.2158
▁episode	-10.2158
▁evidence	-10.2158
▁retarded	-10.2158
▁pathetic	-10.2158
▁result	-10.2158
▁remove	-10.2158
Peace	-10.2158
Bilal	-10.2159
▁hours	-10.216
▁ground	-10.2161
▁sofre	-10.2162
▁Nazi	-10.2167
▁Shame	-10.2168
▁DONT	-10.2172
Islamic	-10.2179
96	-10.2182
▁lack	-10.2192
▁charge	-10.2192
gotten	-10.2195
lease	-10.2198
▁reach	-10.2201
▁dating	-10.2206
▁spend	-10.2227
▁Their	-10.2232
▁Take	-10.2237
cake	-10.2269
sexual	-10.231
Terror	-10.2312
▁Disgusting	-10.2314
▁stories	-10.2314
▁babies	-10.2314
▁trend	-10.2314
▁journalist	-10.2314
▁mosque	-10.2314
▁Keep	-10.2314
▁Biden	-10.2314
▁Think	-10.2315
▁subject	-10.2315
rooz	-10.2317
▁scream	-10.2317
wan	-10.2318
▁Smh	-10.2319
▁NEVER	-10.232
▁HAVE	-10.2328
ization	-10.2329
ATE	-10.2331
EAR	-10.2332
▁comedy	-10.2333
▁chill	-10.2334
Act	-10.2351
RR	-10.2352
29	-10.2373
Jihadi	-10.2383
ado	-10.2384
mission	-10.2395
▁itself	-10.2403
▁trip	-10.2426
▁Yea	-10.2431
▁base	-10.2457
ject	-10.2466
▁civil	-10.2472
▁military	-10.2473
▁physical	-10.2473
▁primary	-10.2473
▁across	-10.2473
▁driving	-10.2473
Egypt	-10.2473
▁simple	-10.2473
▁trauma	-10.2473
▁silent	-10.2473
▁remain	-10.2473
▁film	-10.2477
74	-10.2481
▁shout	-10.2486
▁logic	-10.2507
75	-10.2519
"@	-10.2537
your	-10.2539
defense	-10.2542
lou	-10.2558
78	-10.2561
Alex	-10.2596
82	-10.2609
68	-10.261
gotta	-10.2614
▁practice	-10.2625
▁mob	-10.2632
▁WHITE	-10.2634
▁hilarious	-10.2634
▁kashmir	-10.2634
Feminist	-10.2634
▁period	-10.2634
▁1400	-10.2634
▁program	-10.2634
▁WHY	-10.2634
▁label	-10.2634
▁caught	-10.2637
▁SHE	-10.2637
plain	-10.2642
▁cheat	-10.2652
Ghum	-10.2652
▁pls	-10.2661
▁glo	-10.2676
▁tax	-10.269
shit	-10.2725
▁spreading	-10.2752
▁IDIOT	-10.277
nnie	-10.2771
udi	-10.2779
39	-10.2782
ogue	-10.2785
^	-10.2798
▁Stupid	-10.2798
▁effect	-10.2798
▁space	-10.2798
▁rude	-10.28
▁humor	-10.28
negro	-10.2801
Imagine	-10.2801
▁movement	-10.2807
▁Modi	-10.2813
▁tear	-10.2819
▁fast	-10.2821
▁vile	-10.2848
each	-10.2865
▁//	-10.2869
▁total	-10.2901
witch	-10.2902
load	-10.2905
life	-10.2942
¤	-10.2963
▁challenge	-10.2964
▁position	-10.2964
▁negative	-10.2964
▁research	-10.2964
▁secret	-10.2964
▁somebody	-10.2964
▁Wayne	-10.2964
▁torture	-10.2965
▁About	-10.2965
▁fought	-10.2965
▁loving	-10.2965
▁require	-10.2965
▁Damn	-10.2965
▁OMG	-10.2965
▁attend	-10.2967
▁anime	-10.2967
▁boyfriend	-10.2967
▁role	-10.2975
92	-10.2982
▁lesson	-10.3
▁moved	-10.3009
rush	-10.301
OOOOO	-10.3011
▁bulling	-10.3021
Game	-10.3044
▁openly	-10.3045
rish	-10.3046
▁Need	-10.3058
▁holy	-10.3112
Wor	-10.3132
▁employ	-10.3134
▁sensitive	-10.3134
▁service	-10.3134
▁doctor	-10.3134
▁avoid	-10.3134
Hillary	-10.3134
▁Since	-10.3134
▁virus	-10.3134
▁limit	-10.3135
Liberal	-10.3135
▁argue	-10.3135
▁disrespectful	-10.3136
free	-10.3137
author	-10.3137
▁project	-10.3137
fect	-10.314
Kelly	-10.3142
terrorist	-10.3154
Dave	-10.3178
▁lip	-10.3186
Gay	-10.325
▁basic	-10.3305
▁jealous	-10.3306
▁typical	-10.3306
▁fellow	-10.3306
▁official	-10.3306
▁version	-10.3307
▁local	-10.3308
▁provide	-10.331
▁knee	-10.331
▁everywhere	-10.3313
▁atheist	-10.3313
while	-10.3318
▁express	-10.3319
▁mentality	-10.332
Girl	-10.3323
IES	-10.3328
Mark	-10.3332
▁raised	-10.3353
▁brutal	-10.341
▁porn	-10.3415
▁size	-10.3416
rose	-10.3457
▁obvious	-10.3459
55	-10.3477
TED	-10.3478
▁regard	-10.3479
ggautoblocker	-10.3482
▁English	-10.3482
▁definition	-10.3482
▁GIRL	-10.3482
▁double	-10.3482
▁dirty	-10.3482
▁object	-10.3482
▁screen	-10.3482
▁LOVE	-10.3482
american	-10.3482
▁Nothing	-10.3484
▁thug	-10.3489
▁Day	-10.349
▁stole	-10.3491
▁WILL	-10.3491
▁marry	-10.3493
▁bigger	-10.3493
Hindu	-10.3496
▁Shit	-10.351
▁topic	-10.3511
point	-10.3524
▁Nigeria	-10.3524
▁MAD	-10.3558
▁officer	-10.3576
ARD	-10.3589
▁shi	-10.364
Vandalis	-10.366
halalf	-10.366
▁request	-10.366
▁trigger	-10.366
▁ideology	-10.366
▁decade	-10.366
▁ashamed	-10.3661
▁scene	-10.3661
▁raping	-10.3664
▁catch	-10.3687
▁table	-10.3687
▁stereotype	-10.3736
▁loser	-10.3749
▁Dear	-10.376
▁cracker	-10.3773
▁raise	-10.3794
▁Pete	-10.3831
▁VIDEO	-10.3842
▁attract	-10.3842
▁confused	-10.3842
▁educated	-10.3842
▁hypocrisy	-10.3842
Michael	-10.3842
▁convince	-10.3842
▁kitchen	-10.3842
▁develop	-10.3842
▁scheme	-10.3842
▁monkey	-10.3842
▁zero	-10.3843
▁psycho	-10.3843
▁repeat	-10.3844
▁ignorance	-10.3844
▁taste	-10.3844
▁acceptable	-10.385
▁Okay	-10.3853
▁Hahaha	-10.3857
Kay	-10.386
▁among	-10.386
▁CALL	-10.3862
Feminazi	-10.3863
▁chose	-10.3867
Guess	-10.3869
AOC	-10.3877
▁image	-10.3883
▁scum	-10.3887
know	-10.3901
▁dig	-10.3928
▁leftist	-10.3945
Khan	-10.398
misogyny	-10.4027
▁Female	-10.4027
▁confront	-10.4027
▁ridiculous	-10.4027
▁progress	-10.4027
▁weapon	-10.4027
▁arrest	-10.4028
▁built	-10.4028
▁HOW	-10.4028
OTHER	-10.4029
▁style	-10.4029
▁pink	-10.4036
Against	-10.4039
▁legit	-10.4044
colored	-10.4052
▁decent	-10.4052
▁DON	-10.4069
▁GOD	-10.4077
▁deny	-10.4078
▁nut	-10.4083
Mike	-10.4087
▁host	-10.4089
Terrorists	-10.4105
▁Come	-10.4109
Fox	-10.4112
▁rub	-10.4118
with	-10.4124
▁exact	-10.4203
▁particular	-10.4216
NotSexist	-10.4216
srhbutts	-10.4216
▁PEOPLE	-10.4216
▁Palestine	-10.4216
▁appropriat	-10.4216
▁homophobia	-10.4216
▁politician	-10.4216
▁generation	-10.4216
fascist	-10.4216
▁cruel	-10.4216
▁several	-10.4216
▁stream	-10.4216
▁creep	-10.4216
▁WTF	-10.4216
▁cross	-10.4217
▁Very	-10.4217
▁chick	-10.4222
▁btw	-10.4225
▁East	-10.4235
▁guts	-10.4236
▁era	-10.4238
source	-10.4247
▁personally	-10.4311
struction	-10.435
▁trade	-10.4356
▁bull	-10.4358
under	-10.439
Jenn	-10.44
good	-10.44
▁dangerous	-10.4408
Political	-10.4408
▁World	-10.4408
▁third	-10.4409
▁above	-10.441
▁joking	-10.4412
▁blog	-10.4413
▁values	-10.4417
▁hung	-10.4421
▁store	-10.4427
afah	-10.4428
woman	-10.4442
▁useful	-10.4449
▁city	-10.4495
▁cost	-10.4545
OUS	-10.4569
IGHT	-10.458
▁British	-10.4604
▁platform	-10.4604
▁oppose	-10.4604
▁possible	-10.4604
▁knowledge	-10.4604
▁senior	-10.4605
▁further	-10.4605
information	-10.4605
▁Sikh	-10.4605
▁Great	-10.4605
▁horse	-10.4605
▁shaming	-10.4606
▁court	-10.4607
▁cancer	-10.461
▁brand	-10.4614
Brown	-10.4615
▁spell	-10.4616
▁CON	-10.4617
▁North	-10.4623
▁stuck	-10.4624
▁Bible	-10.4634
▁tryna	-10.4639
$	-10.464
Pakistan	-10.464
▁grab	-10.4651
This	-10.4653
▁Grow	-10.466
construct	-10.4664
babe	-10.4685
▁Africa	-10.4773
▁attitude	-10.4804
▁democrat	-10.4804
▁entertain	-10.4804
▁individual	-10.4804
▁struggle	-10.4804
POTUS	-10.4804
▁Nobody	-10.4804
▁yesterday	-10.4804
▁STILL	-10.4805
▁profile	-10.4806
▁demand	-10.4806
▁forgive	-10.4806
▁bigotry	-10.4813
▁nah	-10.4815
▁retweet	-10.4818
▁carry	-10.4825
▁IDIOTS	-10.4839
LifeI	-10.4841
feminism	-10.4844
▁players	-10.4845
uuu	-10.4845
racist	-10.4845
ASS	-10.4848
vice	-10.4857
▁Show	-10.486
▁Kill	-10.4868
Nick	-10.4901
ette	-10.4946
▁Whi	-10.4985
▁quit	-10.4989
▁yea	-10.4997
▁Lloyd	-10.5009
▁difficult	-10.5009
▁embarrass	-10.5009
▁nickname	-10.5009
▁purpose	-10.5009
▁Colored	-10.5009
▁anybody	-10.5009
▁coworker	-10.5009
▁related	-10.5009
▁riots	-10.5009
▁karma	-10.5009
Pretty	-10.5009
▁Dude	-10.5009
▁RIGHT	-10.5012
ATION	-10.5012
▁outrage	-10.5015
▁stalk	-10.5018
onstage	-10.5022
▁cult	-10.5022
which	-10.5053
racism	-10.5053
yyy	-10.5057
nKh	-10.5096
youtube	-10.5112
▁ven	-10.5173
tumblr	-10.5217
▁advocat	-10.5217
▁playground	-10.5217
▁uncomfortable	-10.5217
▁election	-10.5217
▁recently	-10.5217
▁problematic	-10.5217
----	-10.5217
▁insane	-10.5217
▁ladies	-10.5221
▁reject	-10.5229
ridge	-10.5231
▁paper	-10.5233
▁JOKES	-10.5236
Rich	-10.5236
evil	-10.5247
▁Over	-10.5256
▁dance	-10.5258
▁yup	-10.526
▁Asian	-10.5334
Coon	-10.5371
referring	-10.5402
▁NIGGA	-10.543
▁hundred	-10.543
▁ethnic	-10.543
▁abusive	-10.543
▁neither	-10.543
▁fault	-10.543
▁interview	-10.543
▁company	-10.543
▁Sometimes	-10.543
▁depend	-10.543
▁emotional	-10.543
▁illness	-10.543
▁THESE	-10.5431
▁civilians	-10.5431
▁kidding	-10.5432
▁strange	-10.5433
▁delete	-10.5433
cheese	-10.5435
▁risk	-10.5435
Hindutva	-10.5436
MAGA	-10.5436
▁dislike	-10.5437
▁skinny	-10.5437
▁camps	-10.544
▁tries	-10.544
Class	-10.5443
▁hitting	-10.5449
▁somehow	-10.5453
▁south	-10.5474
radical	-10.5484
OUR	-10.5485
Play	-10.5487
Stop	-10.5491
▁comic	-10.5527
▁jus	-10.5529
▁thru	-10.5541
▁slap	-10.5545
▁spen	-10.5563
▁absolute	-10.5625
123	-10.5627
▁disrespect	-10.5646
▁ISLAMIC	-10.5647
▁Positive	-10.5647
▁communist	-10.5647
▁glasses	-10.5647
▁insecure	-10.5647
▁relentlessly	-10.5647
▁Should	-10.5647
▁decision	-10.5647
▁fraud	-10.5647
▁NEED	-10.5647
▁mixed	-10.5647
▁clown	-10.5647
▁cheap	-10.5648
▁BJP	-10.5648
▁bought	-10.5648
▁advice	-10.5648
▁Sharia	-10.5649
▁smile	-10.5651
▁match	-10.5651
Wolf	-10.5656
▁invade	-10.5657
▁YES	-10.5666
▁voc	-10.567
▁successful	-10.5671
▁Arabia	-10.5675
Islamophob	-10.5676
▁PRO	-10.5679
idiot	-10.5694
▁realise	-10.5708
▁pack	-10.5715
harmless	-10.5739
▁Actually	-10.5869
▁easily	-10.5869
▁exterminat	-10.5869
▁narrative	-10.5869
▁Exactly	-10.5869
▁leaving	-10.5869
▁similar	-10.5869
▁knock	-10.5869
▁Sunni	-10.5869
▁interact	-10.587
▁Party	-10.587
Jordan	-10.587
▁bashing	-10.587
▁blaming	-10.587
▁Wait	-10.5871
lthough	-10.5871
▁Hamas	-10.5873
▁flat	-10.5874
▁cheer	-10.5876
▁sentence	-10.5876
celeb	-10.5877
▁daddy	-10.5877
National	-10.5878
▁chicken	-10.5883
▁aware	-10.5883
United	-10.5884
▁boring	-10.5884
▁devil	-10.5889
Truth	-10.5891
▁flag	-10.5904
Peter	-10.5905
200	-10.5952
talk	-10.6045
awn	-10.6065
▁Human	-10.6092
▁billion	-10.6093
▁ABOUT	-10.6097
▁^.^	-10.6097
▁bottom	-10.6097
▁activist	-10.6097
▁silence	-10.6097
▁otherwise	-10.6097
WATCH	-10.6097
▁contact	-10.6097
▁lazy	-10.6097
▁threw	-10.6097
▁Donald	-10.6098
▁content	-10.6098
▁search	-10.6104
▁Talk	-10.6105
▁stfu	-10.6116
▁edit	-10.6156
Media	-10.6169
brutally	-10.6191
heart	-10.6209
Steve	-10.6292
girlziplocked	-10.6329
▁candidate	-10.6329
▁consequence	-10.6329
▁unfortunate	-10.6329
▁revenge	-10.6329
Taylor	-10.6329
▁celebrate	-10.6329
▁impression	-10.6329
▁welcome	-10.6329
▁cousin	-10.6329
▁SJW	-10.633
▁Putin	-10.633
▁HELL	-10.6332
▁Anyone	-10.6333
▁regardless	-10.6334
▁describe	-10.6334
▁unlike	-10.6339
▁series	-10.634
▁finger	-10.6351
▁vibe	-10.6353
Twitter	-10.6403
▁1000	-10.641
media	-10.6445
▁ignor	-10.6467
Phil	-10.6477
afi	-10.648
cream	-10.6539
Paul	-10.6562
▁FIRST	-10.6567
▁STUPID	-10.6567
▁competition	-10.6567
▁industry	-10.6567
▁pedophilia	-10.6567
▁professional	-10.6567
▁channel	-10.6567
▁democracy	-10.6567
▁famous	-10.6567
▁prevent	-10.6568
▁TIME	-10.6568
▁temple	-10.6568
▁option	-10.6568
prince	-10.6569
▁divide	-10.657
udience	-10.6571
▁battle	-10.6573
▁plz	-10.6573
formed	-10.6573
▁weekend	-10.6582
▁oppression	-10.6584
▁spot	-10.6592
▁encourage	-10.661
“@	-10.6648
bird	-10.667
pyr	-10.6705
ASH	-10.6768
▁JIHAD	-10.6811
▁breakfast	-10.6811
▁effort	-10.6811
▁freshman	-10.6811
▁masculinity	-10.6811
▁microbrain	-10.6811
▁THINK	-10.6811
▁scholar	-10.6811
▁FROM	-10.6811
▁solution	-10.6811
***	-10.6811
▁KKK	-10.6812
▁dollar	-10.6812
johnny	-10.6813
▁WANT	-10.6813
▁hiding	-10.6813
▁Trans	-10.6814
▁pants	-10.6815
▁locker	-10.6817
▁misogynistic	-10.6818
▁spec	-10.6819
▁Shia	-10.6822
▁switch	-10.6822
▁track	-10.6825
▁1/2	-10.6828
Blue	-10.6829
▁tart	-10.6834
CAUS	-10.6848
▁define	-10.6859
LGBT	-10.6896
bullied	-10.6897
▁caste	-10.6902
▁congress	-10.6939
2013	-10.6988
aaaa	-10.705
¤	-10.7061
▁opportunity	-10.7061
▁organisation	-10.7061
▁tiktok	-10.7061
▁worried	-10.7061
▁corrupt	-10.7061
▁persecut	-10.7061
▁policies	-10.7061
▁regular	-10.7061
▁disgrace	-10.7061
▁domestic	-10.7061
▁survive	-10.7061
▁degree	-10.7061
discern	-10.7061
▁predator	-10.7061
▁Could	-10.7061
▁nonsense	-10.7061
▁superior	-10.7061
▁jerk	-10.7062
▁promise	-10.7062
▁Satan	-10.7063
▁Left	-10.7063
curious	-10.7064
▁sharia	-10.7065
▁govt	-10.7071
▁jew	-10.7071
cdn	-10.7077
vision	-10.709
Negro	-10.7154
power	-10.716
nything	-10.722
youtu	-10.7225
▁tem	-10.7256
George	-10.7317
PeerWorker	-10.7317
▁BULLIED	-10.7317
▁families	-10.7317
▁garbage	-10.7317
▁script	-10.7317
▁strategic	-10.7317
▁unfollow	-10.7317
▁Literally	-10.7317
▁album	-10.7318
▁obama	-10.7318
Golden	-10.7318
▁LOOK	-10.7318
▁foreign	-10.7318
▁damage	-10.7318
▁skinned	-10.7318
▁clue	-10.732
▁road	-10.732
john	-10.732
▁Kids	-10.7321
▁reference	-10.7323
emusic	-10.7323
▁colour	-10.7323
▁gym	-10.7324
;.&	-10.7325
▁property	-10.7326
Team	-10.7337
crew	-10.734
▁Kind	-10.7343
trua	-10.7386
▁snap	-10.7395
ueller	-10.7516
▁homosexual	-10.7581
Australia	-10.7581
femfreq	-10.7581
sschinke	-10.7581
▁AGAIN	-10.7581
▁behaviour	-10.7581
▁derogatory	-10.7581
▁illiterate	-10.7581
▁immediately	-10.7581
▁separate	-10.7581
▁guilty	-10.7581
▁Funny	-10.7581
▁perform	-10.7581
html	-10.7581
▁staff	-10.7581
▁True	-10.7581
▁visit	-10.7583
Daniel	-10.7585
▁ONLY	-10.7585
▁BULLYING	-10.7587
▁title	-10.7587
▁foot	-10.7592
▁utter	-10.7593
▁magic	-10.7619
greg	-10.7622
Facts	-10.7629
▁continu	-10.7792
ternational	-10.7851
▁Instead	-10.7851
▁RACIST	-10.7851
▁communities	-10.7851
▁replace	-10.7851
▁security	-10.7851
▁uneducated	-10.7851
▁companies	-10.7851
▁nursing	-10.7851
Khadi	-10.7851
▁kafir	-10.7851
▁enemy	-10.7851
▁changing	-10.7851
▁valid	-10.7851
▁loyal	-10.7852
▁voting	-10.7852
▁ratings	-10.7853
▁solve	-10.7854
▁root	-10.7855
▁Omg	-10.7856
▁sharing	-10.7857
▁pride	-10.7859
Lady	-10.7864
▁South	-10.7864
▁practic	-10.7867
▁wipe	-10.7883
Humanity	-10.7964
peace	-10.7965
world	-10.7965
jihad	-10.7965
▁execut	-10.7966
Guy	-10.7967
▁annoy	-10.8066
Chick	-10.8075
▁folk	-10.8079
▁Drasko	-10.8129
▁Instagram	-10.8129
▁RADICAL	-10.8129
▁identify	-10.8129
▁plenty	-10.8129
▁principal	-10.8129
Qaeda	-10.8129
▁bathroom	-10.8129
Kobane	-10.8129
▁arguing	-10.8129
▁statue	-10.8129
▁reaction	-10.8129
magazine	-10.8129
▁Always	-10.8129
▁portray	-10.8129
Question	-10.813
▁uncle	-10.813
▁curse	-10.8131
▁basis	-10.8132
▁honor	-10.8137
0,000	-10.8181
▁auto	-10.82
correct	-10.825
sorry	-10.8257
▁hyp	-10.8261
nsensitive	-10.8414
▁CHRISTIAN	-10.8414
▁TERRORISM	-10.8414
▁strength	-10.8414
▁delusion	-10.8414
▁dessert	-10.8414
▁engage	-10.8414
▁modern	-10.8414
▁dismiss	-10.8414
▁Before	-10.8415
▁study	-10.8415
craft	-10.8415
▁Remind	-10.8415
▁lawyer	-10.8416
▁admitted	-10.8416
Bharat	-10.8417
▁awareness	-10.8417
▁travel	-10.8418
▁tolerate	-10.8427
Front	-10.8432
▁Wtf	-10.8434
Green	-10.8439
christian	-10.8545
FUCK	-10.8545
nigga	-10.8547
think	-10.8552
aSa	-10.868
▁final	-10.8693
Official	-10.8709
RepTedYoho	-10.8709
▁Buddhist	-10.8709
▁Mexican	-10.8709
▁Muhammad	-10.8709
▁RACISM	-10.8709
▁conversion	-10.8709
▁disappointed	-10.8709
▁earlier	-10.8709
▁enslave	-10.8709
▁eventually	-10.8709
▁financial	-10.8709
▁interpret	-10.8709
▁recognize	-10.8709
▁sponsor	-10.8709
▁coffee	-10.8709
▁energy	-10.8709
▁WHEN	-10.8709
▁Luca	-10.8709
▁fashion	-10.8709
▁tactic	-10.8709
▁elected	-10.8709
▁disabled	-10.8709
Glenn	-10.8709
▁EVEN	-10.8709
▁achieve	-10.8709
▁border	-10.8709
▁wild	-10.871
Friday	-10.8711
Corona	-10.8755
GamerGate	-10.8847
photo	-10.8847
Bullying	-10.8848
popular	-10.8848
people	-10.8848
With	-10.8855
aught	-10.8879
▁disgust	-10.8948
▁involv	-10.8977
¦	-10.9011
Malcolm	-10.9012
ashleylynch	-10.9012
genuinely	-10.9012
▁Honestly	-10.9012
▁anxiety	-10.9012
▁awkward	-10.9012
▁basketball	-10.9012
▁benefit	-10.9012
▁excited	-10.9012
▁hospital	-10.9012
▁pandemic	-10.9012
▁participat	-10.9012
▁supremacist	-10.9012
▁Lmfao	-10.9012
▁mutual	-10.9012
▁miserable	-10.9012
▁bastard	-10.9012
▁scroll	-10.9012
▁dropped	-10.9012
▁breath	-10.9012
▁GDC	-10.9012
▁Anyway	-10.9013
medium	-10.9014
Next	-10.9088
Invi	-10.9143
Obama	-10.916
▁flip	-10.9165
FUL	-10.921
Music	-10.9291
▁JOKE	-10.9296
Afghanistan	-10.9324
obsurfer	-10.9324
▁Filipino	-10.9324
▁PLEASE	-10.9324
▁accident	-10.9324
▁acknowledge	-10.9324
▁believing	-10.9324
▁contribute	-10.9324
▁engineer	-10.9324
▁suspect	-10.9324
▁website	-10.9324
▁SHUT	-10.9324
▁Prophet	-10.9324
▁SUCK	-10.9324
▁authority	-10.9324
▁discover	-10.9324
▁kpop	-10.9324
▁campus	-10.9324
▁Social	-10.9324
▁monster	-10.9324
▁apology	-10.9325
▁molest	-10.9326
▁global	-10.9327
Blood	-10.933
▁panic	-10.933
▁idol	-10.9338
facing	-10.9358
Adam	-10.9367
Ryan	-10.9384
burg	-10.941
Vote	-10.9445
http	-10.9483
from	-10.9487
speak	-10.9495
▁misogynist	-10.9637
▁fundamental	-10.9647
QuestionsForMen	-10.9647
▁Brotherhood	-10.9647
▁TRUMP	-10.9647
▁conspiracy	-10.9647
Stephen	-10.9647
Wadhwa	-10.9647
▁disturb	-10.9647
▁serving	-10.9647
▁approve	-10.9647
▁regime	-10.9647
▁Police	-10.9647
▁repeatedly	-10.9647
▁moving	-10.9648
▁wedding	-10.9648
▁western	-10.9648
▁access	-10.9648
▁banned	-10.9648
rdogan	-10.9648
▁Two	-10.9648
Expose	-10.9649
▁outfit	-10.9651
Evil	-10.966
Tech	-10.9673
▁sigh	-10.9714
Judg	-10.9735
terror	-10.9796
respect	-10.9813
NIGGER	-10.9816
break	-10.9829
▁Niger	-10.9899
▁constant	-10.9958
EvvyKube	-10.998
▁Unfortunately	-10.998
▁apologist	-10.998
▁blasphemy	-10.998
▁century	-10.998
▁confirm	-10.998
▁discrimination	-10.998
▁responsibility	-10.998
▁slaughter	-10.998
Raqqa	-10.998
▁easier	-10.998
ocracy	-10.998
nfidels	-10.998
▁Romney	-10.998
michael	-10.998
▁strike	-10.998
▁Sunday	-10.998
▁LMFAO	-10.998
▁process	-10.998
▁concentrat	-10.998
▁Prison	-10.998
▁Comedian	-10.998
▁afford	-10.998
▁skills	-10.998
▁heaven	-10.9981
▁Army	-10.9981
▁barely	-10.9981
▁naked	-10.9982
▁smell	-10.9983
Teacher	-10.9987
▁bruh	-11.0012
Count	-11.0145
ctively	-11.0254
scribe	-11.0318
stitute	-11.0325
▁desperate	-11.0325
Baghdadi	-11.0325
Popehat	-11.0325
▁Religion	-11.0325
▁TERRORIST	-11.0325
▁aggressive	-11.0325
▁beginning	-11.0325
▁confidence	-11.0325
▁suspended	-11.0325
▁ethics	-11.0325
▁tradition	-11.0325
▁deconstructed	-11.0325
▁Country	-11.0325
▁document	-11.0325
▁Monday	-11.0325
▁hijab	-11.0325
▁Everything	-11.0325
▁talent	-11.0325
▁Cause	-11.0325
▁petty	-11.0326
▁market	-11.0326
warrior	-11.0333
OUND	-11.0334
Quinn	-11.0339
▁minute	-11.0344
Power	-11.0345
Change	-11.0371
Gotta	-11.0384
proving	-11.0405
|	-11.0517
stupid	-11.0518
Time	-11.0528
article	-11.0533
robably	-11.0678
	-11.0681
katandandre	-11.0682
▁Bangladesh	-11.0682
▁confident	-11.0682
▁prejudice	-11.0682
▁relevant	-11.0682
Bachelor	-11.0682
▁HINDU	-11.0682
▁enemies	-11.0682
▁environment	-11.0682
▁tattoo	-11.0682
oonstyle	-11.0682
▁Spanish	-11.0682
▁vagina	-11.0682
▁depression	-11.0682
▁machine	-11.0682
george	-11.0682
ainbolt	-11.0682
▁Family	-11.0682
▁jesus	-11.0682
▁smoke	-11.0682
▁motivat	-11.0682
▁comparing	-11.0682
▁empty	-11.0682
▁filter	-11.0683
▁detail	-11.0683
▁sweat	-11.0683
▁adopt	-11.0684
Number	-11.0686
▁HOE	-11.069
Hindusthan	-11.0721
Bruc	-11.0789
dishes	-11.0805
prison	-11.0891
▁literal	-11.103
frog	-11.1047
KivaBay	-11.1052
▁Internet	-11.1052
▁SUPPORT	-11.1052
▁Second	-11.1052
▁comfortable	-11.1052
▁equivalent	-11.1052
▁inferior	-11.1052
▁publish	-11.1052
▁soldiers	-11.1052
iseducation	-11.1052
▁approach	-11.1052
▁fantasy	-11.1052
▁advance	-11.1052
▁associate	-11.1052
▁mirror	-11.1052
clusive	-11.1052
▁replies	-11.1052
▁NOTHING	-11.1052
▁automatic	-11.1052
▁incredibl	-11.1052
▁regret	-11.1052
▁Church	-11.1052
▁complex	-11.1052
▁client	-11.1052
▁buddy	-11.1053
▁reunion	-11.1053
▁dinner	-11.1053
▁royal	-11.1053
OUGH	-11.1053
▁cultural	-11.1053
▁average	-11.1053
Turner	-11.1053
amazon	-11.1055
▁Somali	-11.1055
Labour	-11.1055
owais	-11.1056
Sarah	-11.1073
lmost	-11.1133
▁strip	-11.1236
believe	-11.1279
▁suppose	-11.1388
Religious	-11.1437
FOLLOW	-11.1437
Netflix	-11.1437
▁Everybody	-11.1437
▁FreeBSD	-11.1437
▁Hispanic	-11.1437
▁SHOULD	-11.1437
▁ancestors	-11.1437
▁apologies	-11.1437
▁atrocities	-11.1437
▁circle	-11.1437
▁communal	-11.1437
▁inspiration	-11.1437
▁necessary	-11.1437
▁opposite	-11.1437
▁perspective	-11.1437
▁recruit	-11.1437
▁sandwich	-11.1437
▁supremacy	-11.1437
▁virgin	-11.1437
▁FUNNY	-11.1437
▁WOMAN	-11.1437
▁screenshot	-11.1437
▁accurate	-11.1437
▁cartoon	-11.1437
▁condition	-11.1437
▁journalism	-11.1437
▁VERY	-11.1437
▁network	-11.1437
▁TELL	-11.1437
Zappe	-11.1437
▁summer	-11.1437
▁crowd	-11.1437
▁Club	-11.1437
shanley	-11.1437
▁pandit	-11.1437
Charlie	-11.1438
▁clip	-11.1442
▁Agree	-11.1442
▁desire	-11.1451
ville	-11.1491
congressman	-11.1629
▁stereotyp	-11.1667
politics	-11.1672
disgusting	-11.1673
izrinhariri	-11.1837
killerblondes	-11.1837
▁Apparently	-11.1837
▁Especially	-11.1837
▁Ignorant	-11.1837
▁Nightclub	-11.1837
▁controversy	-11.1837
▁influence	-11.1837
▁intellectual	-11.1837
▁possibly	-11.1837
Rebecca	-11.1837
▁Hebrew	-11.1837
▁council	-11.1837
▁identity	-11.1837
▁compliment	-11.1837
▁homophobe	-11.1837
▁Franken	-11.1837
▁league	-11.1837
▁ticket	-11.1837
▁MUCH	-11.1837
▁humour	-11.1837
▁teeth	-11.1837
▁truck	-11.1837
▁autistic	-11.1837
▁Hitler	-11.1837
▁SAID	-11.1837
▁blatant	-11.1837
▁LIFE	-11.1837
▁Learn	-11.1838
▁conquer	-11.1838
ountain	-11.1838
▁condone	-11.1841
“	-11.3954
•	-11.84
‘	-12.0143
ã	-12.365
[	-12.8599
›	-12.8599
