<unk>	0
<s>	0
</s>	0
s	-3.27175
▁the	-3.44532
,	-3.53177
.	-3.59434
▁a	-3.93149
▁and	-4.07744
▁of	-4.15246
▁to	-4.20239
'	-4.26793
▁is	-4.43677
br	-4.45448
▁/>	-4.48493
t	-4.48562
▁in	-4.56417
▁	-4.64027
▁I	-4.66833
▁it	-4.71123
▁that	-4.86951
▁this	-4.97439
<	-5.03978
ed	-5.0912
ing	-5.09858
▁was	-5.20782
d	-5.22884
▁movie	-5.25151
-	-5.25302
▁for	-5.33463
▁film	-5.35473
▁with	-5.37196
y	-5.48175
.<	-5.49492
▁as	-5.49924
▁The	-5.54704
▁but	-5.55604
ly	-5.59892
▁on	-5.60619
▁you	-5.64637
▁(	-5.66284
▁"	-5.66542
▁be	-5.67188
▁are	-5.73469
▁not	-5.76092
▁have	-5.78565
▁his	-5.82354
er	-5.83985
n	-5.84338
"	-5.84834
▁one	-5.89207
▁he	-5.89529
e	-5.96236
)	-6.0153
▁all	-6.02414
▁an	-6.04873
▁by	-6.05121
m	-6.10682
▁like	-6.11113
▁who	-6.11238
r	-6.11958
▁at	-6.12569
▁so	-6.1306
▁from	-6.15475
re	-6.15823
a	-6.2053
▁they	-6.21631
▁out	-6.23816
▁about	-6.26853
▁her	-6.2725
▁has	-6.2874
▁just	-6.28794
▁It	-6.29964
▁or	-6.29989
l	-6.36079
o	-6.38349
▁can	-6.39371
▁good	-6.40642
c	-6.40991
▁some	-6.41204
▁A	-6.43818
al	-6.44566
in	-6.46384
or	-6.46408
▁more	-6.48584
!	-6.49419
▁very	-6.50405
?	-6.51792
I	-6.5343
▁me	-6.53724
▁time	-6.55253
▁This	-6.55293
▁up	-6.55699
g	-6.56256
es	-6.57261
▁what	-6.5832
▁would	-6.59097
le	-6.59516
▁see	-6.60411
The	-6.62009
ve	-6.62717
▁S	-6.63832
▁there	-6.63837
▁story	-6.64451
▁no	-6.64916
▁when	-6.65753
▁really	-6.65786
▁she	-6.66861
▁had	-6.67815
▁even	-6.6832
▁only	-6.6989
▁my	-6.70092
b	-6.702
▁if	-6.70816
▁were	-6.72245
p	-6.74248
▁their	-6.74557
▁which	-6.75686
f	-6.78636
an	-6.79239
▁do	-6.80478
:	-6.8082
A	-6.8138
...	-6.81579
en	-6.83457
▁than	-6.83721
ri	-6.83959
on	-6.84184
ll	-6.85046
▁re	-6.85753
▁get	-6.86377
▁much	-6.86437
ic	-6.8693
▁-	-6.87482
S	-6.88844
▁will	-6.89236
▁we	-6.89348
▁bad	-6.89381
▁been	-6.89964
▁other	-6.90579
▁great	-6.90607
▁people	-6.91861
▁well	-6.92496
u	-6.931
▁into	-6.94374
ur	-6.94566
▁make	-6.95965
▁way	-6.96421
▁because	-6.96964
▁him	-6.98504
▁made	-6.99313
▁first	-7.02039
▁over	-7.02186
it	-7.02877
th	-7.04004
▁most	-7.04029
▁could	-7.04807
▁think	-7.06142
▁don	-7.078
▁end	-7.08729
▁how	-7.08884
▁also	-7.09051
ar	-7.10001
▁F	-7.10364
h	-7.10423
▁know	-7.11634
▁watch	-7.11892
▁character	-7.11937
i	-7.12321
▁too	-7.12354
▁B	-7.12659
▁any	-7.12775
▁show	-7.12793
▁them	-7.1298
▁C	-7.14853
▁plot	-7.17773
▁W	-7.18077
▁seen	-7.1898
▁characters	-7.18989
▁G	-7.1931
▁love	-7.1953
▁He	-7.19809
▁acting	-7.22719
and	-7.23122
▁i	-7.23357
▁un	-7.23724
▁But	-7.24472
;	-7.24506
k	-7.24573
el	-7.256
as	-7.25885
▁go	-7.26046
▁life	-7.26407
▁And	-7.2647
un	-7.26962
▁de	-7.26986
ra	-7.27014
▁two	-7.27723
▁many	-7.2799
▁never	-7.28246
▁'	-7.28889
▁being	-7.29938
▁after	-7.30204
▁little	-7.30751
E	-7.30963
se	-7.31139
w	-7.31321
able	-7.31567
▁did	-7.31818
▁movies	-7.31917
▁best	-7.31961
ion	-7.32174
ne	-7.32906
▁off	-7.33015
il	-7.33353
▁ever	-7.33394
▁where	-7.34278
▁In	-7.3511
▁better	-7.35325
▁then	-7.36406
O	-7.37142
ce	-7.37325
C	-7.37693
ter	-7.38161
▁your	-7.38265
▁say	-7.38319
▁does	-7.38814
).	-7.38846
lo	-7.39011
ation	-7.39247
ch	-7.39603
▁man	-7.40306
ie	-7.40859
at	-7.40874
▁should	-7.41096
li	-7.41751
ent	-7.4302
man	-7.43072
▁scene	-7.43178
D	-7.43189
▁T	-7.43232
▁P	-7.4372
ive	-7.43831
▁<	-7.44418
▁There	-7.46979
▁back	-7.47236
),	-7.47369
▁films	-7.4768
ro	-7.48085
▁still	-7.48163
est	-7.48211
ate	-7.48236
▁b	-7.49176
▁real	-7.49925
ir	-7.50035
▁here	-7.51357
/	-7.515
▁scenes	-7.52172
▁f	-7.52654
▁through	-7.53969
▁such	-7.54818
ity	-7.54918
▁something	-7.55118
B	-7.55268
▁work	-7.55688
ke	-7.56087
the	-7.56144
▁lot	-7.56864
▁thing	-7.56945
▁st	-7.57171
less	-7.57428
▁c	-7.58161
T	-7.58174
▁find	-7.58511
ers	-7.5852
ist	-7.58713
▁watching	-7.59968
▁doesn	-7.60905
▁E	-7.60995
um	-7.61299
ul	-7.61559
▁actors	-7.62804
▁director	-7.62883
▁part	-7.63181
▁these	-7.63222
▁g	-7.634
▁didn	-7.6372
▁If	-7.64168
▁those	-7.64194
ol	-7.6453
▁years	-7.64538
is	-7.64593
▁funny	-7.65076
ma	-7.65417
▁its	-7.67179
▁cast	-7.67328
ck	-7.67363
▁D	-7.67717
▁want	-7.67973
et	-7.68277
ment	-7.69009
▁H	-7.69039
▁look	-7.69106
▁old	-7.6934
▁few	-7.69469
ies	-7.69547
P	-7.70347
la	-7.70419
G	-7.70612
M	-7.70678
▁down	-7.70964
▁K	-7.71146
me	-7.7193
▁actually	-7.72248
de	-7.72501
▁R	-7.72773
x	-7.72869
▁going	-7.72984
▁same	-7.73194
id	-7.74111
te	-7.74342
co	-7.74915
▁every	-7.75176
▁bit	-7.75396
▁before	-7.75555
▁though	-7.75863
▁why	-7.77124
▁makes	-7.77236
ish	-7.77771
ant	-7.7797
ver	-7.78017
▁thought	-7.78085
na	-7.78333
sh	-7.78626
▁fact	-7.78743
▁original	-7.79009
▁M	-7.7921
▁nothing	-7.79325
▁while	-7.79705
▁again	-7.79876
ty	-7.80001
am	-7.80177
▁own	-7.80603
us	-7.80685
▁got	-7.80695
z	-7.81409
▁So	-7.8183
▁pretty	-7.82004
▁quite	-7.82187
▁new	-7.82865
H	-7.82903
▁another	-7.82919
▁far	-7.83507
▁19	-7.84513
ry	-7.84572
vi	-7.84703
be	-7.85187
▁co	-7.85357
ia	-7.86019
▁script	-7.86061
▁around	-7.8711
▁O	-7.87286
he	-7.87632
▁give	-7.87869
▁seems	-7.87869
▁young	-7.87936
▁action	-7.88252
▁long	-7.88502
▁enough	-7.88832
ness	-7.88875
im	-7.89279
▁She	-7.89357
ian	-7.89562
ful	-7.89593
▁world	-7.89638
▁take	-7.89642
▁right	-7.90499
ig	-7.90696
R	-7.91239
▁role	-7.91369
▁2	-7.91383
▁things	-7.91947
hi	-7.92092
▁kind	-7.92094
▁point	-7.92242
▁us	-7.92472
to	-7.92634
ting	-7.93124
ine	-7.93193
▁horror	-7.93222
▁saw	-7.93704
▁between	-7.93795
▁must	-7.94097
▁series	-7.94589
up	-7.94864
ad	-7.94982
▁may	-7.95161
▁now	-7.95215
▁reason	-7.95529
▁ex	-7.95552
▁come	-7.95704
▁interesting	-7.95812
▁fun	-7.96423
▁Ro	-7.96533
▁sp	-7.96605
▁always	-7.96726
bo	-7.96791
▁whole	-7.96864
▁Ma	-7.96871
▁&	-7.97076
▁mo	-7.97119
oo	-7.97589
▁Re	-7.97626
▁least	-7.97688
ance	-7.98146
▁You	-7.98273
ally	-7.98281
▁am	-7.98371
▁comedy	-7.98432
▁music	-7.98511
W	-7.98747
▁feel	-7.99225
▁De	-7.99521
▁L	-7.99666
▁family	-7.99927
ge	-8.00765
nd	-8.00974
▁big	-8.01035
▁performance	-8.01477
▁done	-8.01509
▁without	-8.02702
▁guy	-8.02752
ni	-8.02948
--	-8.0295
K	-8.03101
▁minutes	-8.03228
▁might	-8.03501
one	-8.037
▁almost	-8.03804
▁believe	-8.03919
▁both	-8.04124
▁anything	-8.05259
son	-8.05415
tic	-8.05508
▁hard	-8.05634
▁worth	-8.05859
▁last	-8.06177
po	-8.06404
ci	-8.06406
▁place	-8.06482
ha	-8.06581
▁isn	-8.07133
ton	-8.07297
▁gets	-8.07524
▁idea	-8.07563
der	-8.07804
▁main	-8.07805
▁book	-8.07985
▁help	-8.08399
▁v	-8.08536
▁They	-8.08774
min	-8.08813
age	-8.08849
▁ch	-8.09469
pe	-8.09508
▁since	-8.09592
▁Ha	-8.09727
▁screen	-8.09785
ted	-8.09893
no	-8.0995
op	-8.10361
▁girl	-8.10888
ous	-8.11125
▁put	-8.11133
▁What	-8.11292
▁times	-8.11458
1	-8.11483
This	-8.11738
▁found	-8.11916
ti	-8.11978
▁As	-8.12249
ster	-8.12421
ure	-8.12614
L	-8.12965
▁An	-8.13313
▁For	-8.13524
N	-8.13631
▁TV	-8.13645
▁La	-8.1367
mp	-8.1386
▁sure	-8.13882
▁w	-8.13971
▁We	-8.14019
▁worst	-8.14249
▁probably	-8.14587
▁hand	-8.14654
Y	-8.14817
lu	-8.1487
▁To	-8.15586
▁con	-8.15651
▁woman	-8.15736
▁Be	-8.1579
▁St	-8.1587
ta	-8.16436
▁Ba	-8.1647
▁away	-8.16789
▁Ca	-8.17086
▁audience	-8.17246
om	-8.17428
▁rather	-8.18138
(	-8.18204
▁making	-8.18413
ated	-8.1854
3	-8.19117
v	-8.19208
▁keep	-8.20381
▁set	-8.20577
ca	-8.20655
▁fan	-8.20699
▁read	-8.2073
▁10	-8.21486
▁use	-8.21574
▁play	-8.21616
▁day	-8.21699
F	-8.21719
▁job	-8.21919
▁different	-8.22088
▁DVD	-8.22283
▁sense	-8.22329
▁let	-8.22533
▁course	-8.22557
▁po	-8.22885
5	-8.23107
ee	-8.23111
▁anyone	-8.23394
▁under	-8.23395
▁trying	-8.23473
mi	-8.23509
ow	-8.23767
▁ending	-8.23789
▁That	-8.23987
▁mind	-8.24042
end	-8.24174
ag	-8.24271
▁actor	-8.24371
▁No	-8.24428
▁money	-8.24613
▁Ho	-8.2467
▁dis	-8.24834
▁each	-8.25177
▁version	-8.25535
▁goes	-8.258
▁pro	-8.25938
▁N	-8.25953
▁tr	-8.26271
▁sh	-8.26344
▁high	-8.26432
▁ra	-8.26784
7	-8.27388
▁watched	-8.27518
▁seem	-8.27806
▁car	-8.2806
▁pre	-8.28293
▁played	-8.28438
▁enjoy	-8.28751
▁short	-8.28803
ner	-8.29049
▁American	-8.29212
▁comes	-8.29515
▁Ra	-8.30019
▁ma	-8.30046
ho	-8.30272
▁our	-8.30333
▁war	-8.30472
U	-8.30715
▁laugh	-8.30746
▁wasn	-8.31179
4	-8.31532
▁rest	-8.31903
▁John	-8.31977
▁yet	-8.32232
▁half	-8.32382
",	-8.32546
ph	-8.32659
▁nice	-8.32682
▁Le	-8.32786
ward	-8.32821
ard	-8.32836
It	-8.32856
▁special	-8.33241
▁looks	-8.33299
▁effects	-8.33379
dy	-8.33582
▁start	-8.33663
▁true	-8.33868
▁together	-8.34162
ak	-8.34214
8	-8.34307
▁When	-8.3437
if	-8.34539
0	-8.34592
▁low	-8.34746
▁e	-8.34863
▁understand	-8.34936
▁second	-8.3504
▁plays	-8.35184
▁having	-8.35248
▁else	-8.3525
ill	-8.35514
▁someone	-8.35685
▁year	-8.359
▁looking	-8.35913
ring	-8.36347
▁said	-8.36432
out	-8.36655
ary	-8.3692
for	-8.37152
2	-8.37289
▁hope	-8.37365
▁Do	-8.37374
ng	-8.37398
▁head	-8.37503
▁Mar	-8.37521
▁especially	-8.37598
▁sound	-8.37675
ling	-8.37701
▁beautiful	-8.37834
▁star	-8.38437
▁excellent	-8.38582
ence	-8.38991
▁3	-8.39606
act	-8.39821
6	-8.39839
▁need	-8.40063
▁shot	-8.40191
ru	-8.40241
▁home	-8.40258
▁classic	-8.40567
▁wife	-8.40703
ab	-8.40711
▁three	-8.40813
▁himself	-8.41033
▁father	-8.41102
va	-8.41775
▁shows	-8.41797
▁Co	-8.4212
▁left	-8.42198
▁My	-8.42368
ect	-8.4272
▁1	-8.42739
".	-8.42785
▁Not	-8.4344
▁Al	-8.43614
▁remember	-8.43614
▁seeing	-8.43796
▁takes	-8.43834
▁mean	-8.43946
go	-8.44083
bi	-8.44778
▁name	-8.44802
▁recommend	-8.44812
▁live	-8.44847
▁everything	-8.45257
V	-8.4534
ever	-8.45349
▁care	-8.45521
red	-8.45561
▁di	-8.45615
pp	-8.45658
do	-8.457
▁p	-8.45919
▁face	-8.45957
▁line	-8.46089
▁ba	-8.46094
▁everyone	-8.46132
▁piece	-8.46422
▁less	-8.46434
▁Car	-8.46488
ba	-8.46494
▁stupid	-8.4653
ism	-8.46873
▁wonderful	-8.46962
▁U	-8.47063
▁later	-8.47096
▁lack	-8.4722
▁Pa	-8.47286
J	-8.47326
▁during	-8.47603
▁murder	-8.47879
▁camera	-8.48237
▁ha	-8.48433
ight	-8.48633
mer	-8.48994
▁completely	-8.49104
▁boy	-8.49132
▁once	-8.4931
▁attempt	-8.49426
▁close	-8.49428
▁person	-8.49439
▁production	-8.49781
per	-8.49872
▁Lo	-8.49981
▁poor	-8.50286
ick	-8.50329
9	-8.50995
▁simply	-8.50998
▁top	-8.51084
all	-8.5128
▁couple	-8.51364
▁won	-8.51369
mo	-8.51374
land	-8.51424
▁Hollywood	-8.5147
▁fl	-8.51506
▁tell	-8.51694
cu	-8.51697
▁house	-8.51747
▁boring	-8.51796
cy	-8.51852
▁picture	-8.51854
▁act	-8.51949
ap	-8.52208
ip	-8.52234
▁night	-8.52548
com	-8.52576
▁wrong	-8.52594
▁death	-8.52719
ably	-8.52721
▁supposed	-8.52838
▁One	-8.53067
▁try	-8.53099
ating	-8.53279
▁used	-8.53353
▁heart	-8.5337
fi	-8.53527
▁human	-8.53883
ron	-8.54082
wa	-8.54193
mon	-8.54287
em	-8.54288
▁However	-8.54568
ther	-8.54744
▁All	-8.54803
ress	-8.54984
▁video	-8.55104
▁either	-8.55165
▁awful	-8.55307
▁art	-8.55569
▁small	-8.55738
▁Bo	-8.55832
▁kids	-8.55961
ious	-8.56186
▁sex	-8.56587
▁episode	-8.56713
▁light	-8.56811
ay	-8.56818
▁com	-8.56999
ach	-8.57094
▁Man	-8.57142
▁lead	-8.57158
▁performances	-8.57229
▁Di	-8.57387
▁men	-8.58386
▁black	-8.58475
▁turn	-8.5886
▁women	-8.5905
▁sad	-8.59138
▁given	-8.59237
▁flick	-8.59413
▁cr	-8.59557
▁came	-8.5958
▁truly	-8.59581
▁--	-8.59599
che	-8.5967
▁perfect	-8.59807
▁title	-8.60029
▁until	-8.60822
."	-8.60996
▁school	-8.61051
▁dialogue	-8.61328
▁follow	-8.6159
ite	-8.6164
▁along	-8.61827
▁sort	-8.61838
ler	-8.61855
▁friends	-8.61871
▁wonder	-8.6194
tch	-8.6197
▁Well	-8.62102
ex	-8.62131
▁j	-8.62318
▁run	-8.62443
▁moments	-8.63011
▁budget	-8.63324
▁instead	-8.6364
▁terrible	-8.63782
▁waste	-8.6382
▁case	-8.6393
▁V	-8.6394
pi	-8.64095
ble	-8.64286
ff	-8.64543
▁full	-8.64935
king	-8.65019
▁pi	-8.65034
/10	-8.65092
▁friend	-8.65218
ud	-8.65644
▁kill	-8.65896
her	-8.65953
ell	-8.66019
ten	-8.66108
▁getting	-8.6614
ath	-8.66229
▁sa	-8.66811
ley	-8.67065
▁Th	-8.67134
fe	-8.67649
▁en	-8.67654
▁guess	-8.67737
▁Me	-8.67762
by	-8.67854
▁li	-8.68104
▁stand	-8.68513
▁move	-8.68594
▁Some	-8.68768
▁doing	-8.68769
▁playing	-8.69004
we	-8.69193
▁drama	-8.69398
ook	-8.6957
▁itself	-8.69627
▁Mr	-8.69798
▁feeling	-8.69834
▁Even	-8.69912
▁style	-8.70144
▁felt	-8.70144
▁next	-8.70364
▁hit	-8.70373
▁stars	-8.7065
▁become	-8.70726
ac	-8.70781
les	-8.70892
▁dr	-8.70903
In	-8.70913
▁ta	-8.71062
▁At	-8.71244
▁couldn	-8.71422
▁lines	-8.71767
▁entertaining	-8.71986
▁early	-8.72082
▁entire	-8.72084
▁gr	-8.7219
▁Mo	-8.72221
▁however	-8.72264
nk	-8.72334
side	-8.72409
▁liked	-8.72742
ger	-8.72961
ial	-8.73003
▁example	-8.73061
▁mis	-8.73145
▁children	-8.7353
▁went	-8.73573
▁rent	-8.73649
▁game	-8.73682
▁fight	-8.74128
▁fa	-8.74151
▁problem	-8.74256
▁often	-8.74364
han	-8.74443
▁experience	-8.74592
▁THE	-8.74595
▁absolutely	-8.74599
▁Li	-8.74642
▁ho	-8.74658
▁late	-8.74659
▁worse	-8.74746
led	-8.74847
▁cinema	-8.74938
j	-8.75021
▁favorite	-8.75215
▁direction	-8.7524
▁deal	-8.75304
▁side	-8.75383
▁definitely	-8.75397
vo	-8.75492
ped	-8.75552
▁4	-8.75598
ction	-8.75874
ice	-8.75916
io	-8.75963
▁maybe	-8.76078
▁mother	-8.76113
▁dead	-8.76154
▁gives	-8.76156
▁du	-8.76245
▁strong	-8.76461
▁la	-8.76581
▁killer	-8.76748
rr	-8.76797
ut	-8.76964
▁beginning	-8.77099
▁Lu	-8.77154
▁New	-8.77278
▁Po	-8.77323
▁amazing	-8.77329
▁War	-8.77379
▁written	-8.77469
▁dark	-8.77647
ual	-8.7778
ear	-8.77869
ack	-8.78313
gu	-8.78915
▁cut	-8.78964
▁fine	-8.78994
▁seemed	-8.79161
tain	-8.79261
▁His	-8.79261
▁final	-8.79374
like	-8.79614
tra	-8.79625
▁per	-8.79684
▁humor	-8.79705
▁After	-8.79974
au	-8.79996
▁against	-8.80259
▁Ar	-8.80322
od	-8.80333
▁child	-8.80533
▁Sa	-8.80612
ey	-8.80615
▁past	-8.80694
▁imp	-8.8089
▁view	-8.81078
ning	-8.8111
ical	-8.81248
lin	-8.81343
▁mu	-8.81415
wi	-8.81415
▁voice	-8.81456
▁Har	-8.81515
qu	-8.81758
▁brilliant	-8.81786
hy	-8.81805
▁type	-8.81871
▁Don	-8.81887
▁loved	-8.81931
tro	-8.81984
iv	-8.8218
▁kid	-8.82455
▁expect	-8.82475
▁learn	-8.82535
▁ca	-8.82586
light	-8.8266
▁gra	-8.8275
▁several	-8.82786
▁brother	-8.82873
con	-8.82917
lic	-8.83081
ker	-8.83098
use	-8.8316
▁certainly	-8.83249
▁already	-8.83374
▁writing	-8.83458
▁da	-8.84028
▁although	-8.8416
ub	-8.84232
▁fall	-8.8455
▁number	-8.8456
tal	-8.84693
▁matter	-8.84751
ber	-8.84899
▁call	-8.84988
▁quality	-8.85244
▁sub	-8.85257
▁wanted	-8.85429
▁relationship	-8.85502
▁ro	-8.85559
▁genre	-8.85762
▁change	-8.85828
▁viewer	-8.85888
▁inter	-8.85894
▁enjoyed	-8.85985
▁J	-8.86456
▁blood	-8.86626
ise	-8.86691
▁totally	-8.87018
▁ask	-8.87053
▁th	-8.87137
▁wish	-8.87151
▁question	-8.87158
ky	-8.87306
uck	-8.87327
▁add	-8.87346
▁lost	-8.87365
▁save	-8.87432
▁self	-8.87507
da	-8.87665
▁lives	-8.87703
▁Sp	-8.87854
ned	-8.87908
▁son	-8.87999
my	-8.88037
▁town	-8.88129
▁gave	-8.88295
▁tries	-8.88381
▁based	-8.88597
▁su	-8.88612
▁o	-8.8875
aw	-8.88859
▁age	-8.88916
▁becomes	-8.88925
▁Ne	-8.89315
old	-8.89594
▁Ja	-8.89628
▁slow	-8.89649
▁throughout	-8.90169
ney	-8.90206
▁Jo	-8.9038
▁fans	-8.90499
▁stuff	-8.90836
▁called	-8.90872
▁pass	-8.91431
▁etc	-8.91458
ping	-8.91533
▁Tr	-8.9154
but	-8.91549
▁talent	-8.91556
▁daughter	-8.91712
▁strange	-8.91841
ven	-8.91847
tion	-8.91921
time	-8.91939
▁today	-8.91965
▁twist	-8.92079
▁hero	-8.92273
▁With	-8.92444
den	-8.92481
mm	-8.92499
air	-8.92617
▁history	-8.92727
of	-8.92778
pa	-8.93421
port	-8.93475
di	-8.93485
▁l	-8.93509
*	-8.94075
▁novel	-8.94407
▁Na	-8.94429
ue	-8.94457
▁horrible	-8.94779
que	-8.94959
▁deliver	-8.94968
ain	-8.95066
AN	-8.95069
▁stay	-8.95237
ible	-8.95295
ki	-8.95351
▁Da	-8.95469
nch	-8.95556
▁Ka	-8.95628
ug	-8.9565
▁talk	-8.95691
▁myself	-8.95727
▁moment	-8.95869
ST	-8.95887
▁Michael	-8.95956
▁Un	-8.96047
▁hate	-8.96071
▁break	-8.96326
▁5	-8.96362
▁decent	-8.96449
If	-8.96598
▁finally	-8.96645
▁others	-8.9671
▁ten	-8.96869
▁Also	-8.97123
▁Mi	-8.97231
!!	-8.97255
▁Just	-8.97342
▁evil	-8.97361
▁Go	-8.97419
▁chance	-8.97444
▁situation	-8.97457
▁stop	-8.97486
!)	-8.97686
▁lo	-8.97765
▁themselves	-8.97846
▁guys	-8.98028
▁behind	-8.98041
▁Of	-8.98087
our	-8.9815
ER	-8.98182
▁group	-8.98236
line	-8.98279
▁realize	-8.98368
There	-8.98623
▁Cl	-8.98638
ugh	-8.9889
▁level	-8.9902
▁white	-8.9909
low	-8.99172
▁Du	-8.99187
▁How	-8.99226
▁thinking	-8.9929
▁pa	-8.99421
▁comic	-8.99429
way	-8.9949
▁able	-8.9958
▁actress	-8.99793
▁ago	-8.99951
fully	-8.99986
▁musical	-9.00017
▁hour	-9.00018
gen	-9.00085
ny	-9.00159
av	-9.00166
▁effort	-9.00409
▁Ri	-9.00549
▁Ta	-9.00562
▁stories	-9.00609
ities	-9.00674
▁score	-9.00809
▁deep	-9.00828
▁interest	-9.00856
▁Why	-9.01004
!<	-9.0106
▁Bu	-9.01223
▁cop	-9.01275
▁happen	-9.01437
ane	-9.01445
▁career	-9.0154
ator	-9.01575
▁crap	-9.01589
▁heard	-9.01874
ide	-9.01948
▁days	-9.02016
▁pick	-9.02273
ren	-9.0255
▁Cr	-9.02693
▁opinion	-9.02834
▁works	-9.02889
▁turns	-9.0289
▁starts	-9.03025
▁ne	-9.03026
▁complete	-9.03181
▁wants	-9.03326
▁ridiculous	-9.0345
▁involved	-9.03567
row	-9.0365
uc	-9.03736
▁cannot	-9.03917
▁directed	-9.03918
▁dream	-9.03966
▁Gra	-9.03973
▁weak	-9.04178
▁While	-9.04202
▁figure	-9.04485
▁Ki	-9.04509
zz	-9.04626
▁bring	-9.04809
▁killed	-9.04871
▁Jack	-9.04948
▁Vi	-9.04992
▁sit	-9.05291
▁soon	-9.05366
▁eyes	-9.05571
ily	-9.05573
ok	-9.05734
▁speak	-9.06163
▁took	-9.06212
▁happened	-9.06279
▁class	-9.06466
▁form	-9.06477
▁pay	-9.06547
▁Her	-9.06637
▁sequel	-9.06693
▁hear	-9.06748
▁simple	-9.06799
▁husband	-9.06906
▁similar	-9.06906
▁Robert	-9.06925
pl	-9.0694
▁20	-9.07011
▁obvious	-9.07068
▁hilarious	-9.07119
▁annoying	-9.07169
▁Sha	-9.07704
▁perhaps	-9.07762
lan	-9.07844
▁cheap	-9.07978
▁parts	-9.08011
▁power	-9.08236
▁open	-9.08241
▁order	-9.08309
▁God	-9.08357
ized	-9.08568
▁extremely	-9.08746
har	-9.08797
▁happens	-9.08799
▁Or	-9.09049
▁wouldn	-9.09054
▁violence	-9.09169
▁result	-9.09278
▁told	-9.09304
▁girls	-9.09395
istic	-9.09444
▁local	-9.09717
▁hold	-9.0983
▁present	-9.09873
▁drive	-9.09931
▁value	-9.09935
▁clich	-9.09938
▁bi	-9.10006
▁leave	-9.101
▁fo	-9.10262
▁explain	-9.10375
▁police	-9.10375
ka	-9.10638
tter	-9.10657
▁highly	-9.10905
▁die	-9.10958
▁looked	-9.11028
▁Con	-9.11316
▁roles	-9.11405
▁Oscar	-9.11485
▁yourself	-9.1182
▁important	-9.11932
▁sometimes	-9.11939
ile	-9.1197
▁Then	-9.12128
▁offer	-9.1214
▁room	-9.1215
▁se	-9.12301
▁cool	-9.12332
▁theater	-9.12567
But	-9.12568
▁dance	-9.12634
▁comment	-9.12747
▁serious	-9.128
▁Su	-9.12819
▁Dr	-9.13029
▁writer	-9.13041
▁buy	-9.13291
not	-9.13302
right	-9.13373
rry	-9.13645
▁hu	-9.13675
▁coming	-9.13806
▁female	-9.13855
▁plan	-9.13932
▁Tom	-9.13939
▁cinematography	-9.13969
▁James	-9.14087
ize	-9.14613
▁mention	-9.14646
bu	-9.14673
▁Mc	-9.1473
OR	-9.14756
▁visual	-9.14773
▁song	-9.14843
▁disappointed	-9.1498
▁review	-9.15098
▁season	-9.15141
round	-9.15375
▁usual	-9.15381
▁shown	-9.15454
▁near	-9.15546
▁trans	-9.15768
qui	-9.15774
▁7	-9.15798
200	-9.15865
▁adult	-9.15933
lock	-9.1594
▁theme	-9.15951
▁cover	-9.1602
rd	-9.16114
▁country	-9.16316
▁par	-9.16362
And	-9.16366
▁dialog	-9.16386
ga	-9.1643
▁obviously	-9.16455
▁started	-9.16484
▁released	-9.16515
lie	-9.16661
▁sexual	-9.16665
▁rating	-9.16864
▁focus	-9.1687
▁thriller	-9.16873
▁jokes	-9.17116
▁particularly	-9.17116
!"	-9.1725
▁huge	-9.17258
nny	-9.17523
....	-9.17533
▁gore	-9.17548
▁Paul	-9.17613
▁Richard	-9.17691
▁Now	-9.17725
▁body	-9.17803
▁possible	-9.17816
▁somewhat	-9.17881
▁English	-9.17934
▁non	-9.18023
▁attention	-9.18054
day	-9.18102
ran	-9.18264
▁grow	-9.18272
who	-9.18361
pre	-9.18573
▁sister	-9.18652
▁message	-9.18801
▁word	-9.1882
ink	-9.19105
gar	-9.19109
▁fast	-9.19223
▁four	-9.19306
▁taken	-9.19334
▁image	-9.19398
▁alone	-9.19641
▁include	-9.19735
!!!	-9.19777
▁Te	-9.19836
▁allow	-9.19899
▁ru	-9.19975
▁David	-9.19996
▁gun	-9.20051
AR	-9.20125
so	-9.20177
art	-9.20234
▁subject	-9.20343
▁exactly	-9.20465
▁hours	-9.20489
▁known	-9.20527
▁single	-9.20794
cho	-9.21003
ib	-9.2124
▁Gu	-9.21292
▁na	-9.21373
▁villain	-9.21569
▁due	-9.21801
van	-9.21816
▁week	-9.21917
▁return	-9.2194
off	-9.21953
▁discover	-9.22069
▁feature	-9.22079
RE	-9.22221
▁across	-9.22312
▁documentary	-9.22443
▁William	-9.22524
▁knew	-9.22561
ail	-9.22806
▁suspense	-9.2281
▁k	-9.2297
▁(19	-9.23088
▁eye	-9.23232
▁Pe	-9.2324
▁nu	-9.23305
ette	-9.23326
▁8	-9.23383
▁surprise	-9.2353
▁running	-9.23594
▁doubt	-9.23691
▁talking	-9.23741
▁pull	-9.23773
▁mess	-9.23823
ev	-9.23908
▁predictable	-9.23959
▁stage	-9.24001
▁saying	-9.24064
▁zombie	-9.24068
▁television	-9.24195
▁bar	-9.24196
▁large	-9.24211
▁opening	-9.24278
▁except	-9.2428
▁romantic	-9.24321
▁turned	-9.24363
own	-9.24369
ier	-9.24386
kin	-9.24406
▁air	-9.24527
▁episodes	-9.24552
ory	-9.24661
▁silly	-9.24703
▁wait	-9.24731
▁British	-9.2483
▁walk	-9.24836
▁living	-9.2484
▁reality	-9.24881
ition	-9.24904
▁usually	-9.24983
▁prove	-9.25001
len	-9.25094
▁enjoyable	-9.25131
▁future	-9.25469
▁scary	-9.25481
ek	-9.25554
▁check	-9.25599
▁cap	-9.25606
▁events	-9.25644
▁whose	-9.257
head	-9.25764
▁Y	-9.25863
ze	-9.25881
▁super	-9.25991
▁straight	-9.26112
▁songs	-9.26128
▁dull	-9.26299
par	-9.26303
▁meet	-9.26337
00	-9.26368
▁middle	-9.26371
cent	-9.2638
ang	-9.26464
▁typical	-9.2663
▁detail	-9.26761
▁pe	-9.26789
▁modern	-9.2689
which	-9.26964
▁Who	-9.26975
ON	-9.27052
▁Mu	-9.27325
▁box	-9.27414
▁despite	-9.27543
▁supporting	-9.27574
▁Bur	-9.27576
▁team	-9.27592
▁Je	-9.27794
▁respect	-9.28192
▁OK	-9.28203
")	-9.28379
▁entertainment	-9.28492
▁major	-9.28676
▁Bar	-9.28775
▁sequence	-9.28779
eg	-9.28899
▁storyline	-9.28907
▁shots	-9.28912
ade	-9.28924
▁happy	-9.29012
die	-9.29025
▁tale	-9.29089
wo	-9.29094
▁hell	-9.29319
▁Ben	-9.29342
▁provide	-9.29394
▁animation	-9.29528
▁mix	-9.2953
ative	-9.29555
▁seriously	-9.29565
du	-9.29566
▁fit	-9.29614
ung	-9.29746
▁including	-9.29757
▁George	-9.29761
▁On	-9.29787
▁suck	-9.29789
▁taking	-9.29828
▁easily	-9.29929
▁viewing	-9.29988
▁Che	-9.30093
▁Se	-9.30142
▁touch	-9.30163
▁aspect	-9.30199
▁release	-9.302
▁!	-9.30251
ov	-9.30293
▁spend	-9.30299
▁critic	-9.30316
▁admit	-9.30332
uff	-9.30453
▁cartoon	-9.30467
▁remain	-9.30603
▁create	-9.30743
▁Col	-9.30809
▁difficult	-9.30872
▁surprised	-9.30907
▁crime	-9.31009
▁emotional	-9.31164
▁material	-9.31279
ai	-9.31284
?)	-9.31524
range	-9.31681
▁previous	-9.31688
▁York	-9.31688
▁First	-9.31704
▁clear	-9.31727
▁win	-9.31756
▁cat	-9.31804
▁agree	-9.31833
▁Mon	-9.32073
LL	-9.32078
▁pr	-9.32212
▁emotion	-9.32221
▁fantastic	-9.32235
▁finish	-9.32236
ah	-9.32261
▁among	-9.32381
▁King	-9.3248
pri	-9.32593
▁post	-9.33125
▁clearly	-9.33162
▁cause	-9.33391
▁Peter	-9.33555
▁Although	-9.33562
▁actual	-9.337
▁says	-9.33775
ja	-9.33839
▁Sam	-9.33889
▁Si	-9.34001
app	-9.34075
▁problems	-9.34086
So	-9.34224
ties	-9.34232
ina	-9.34302
▁bunch	-9.34316
▁killing	-9.34406
lar	-9.34529
▁soundtrack	-9.34597
▁giving	-9.34773
▁superb	-9.34902
▁moving	-9.3502
▁German	-9.35021
▁lame	-9.3511
What	-9.35184
▁def	-9.35273
val	-9.35365
▁producer	-9.35379
▁count	-9.35426
▁setting	-9.35438
▁above	-9.35454
ically	-9.35611
▁rock	-9.3565
▁mostly	-9.358
No	-9.35861
▁secret	-9.3587
▁flaw	-9.35902
well	-9.3591
▁words	-9.35957
▁period	-9.36012
ush	-9.36137
pro	-9.36193
▁realistic	-9.36233
▁decided	-9.36354
▁Fi	-9.36423
ration	-9.36591
▁odd	-9.36599
▁mar	-9.36853
▁weird	-9.3688
▁appeal	-9.37015
▁victim	-9.37015
▁standard	-9.37064
fu	-9.37193
ING	-9.37203
men	-9.37254
▁perform	-9.37282
▁beyond	-9.37303
▁falls	-9.37392
qua	-9.37447
▁color	-9.37451
▁fire	-9.37682
▁tells	-9.37716
work	-9.37947
cial	-9.3795
▁please	-9.38114
▁imagine	-9.38173
▁aren	-9.38231
▁30	-9.38306
▁premise	-9.38319
▁none	-9.38347
▁free	-9.38367
long	-9.38482
▁appears	-9.3854
▁suffer	-9.38612
bur	-9.38627
over	-9.38691
lly	-9.38751
▁miss	-9.38806
▁train	-9.38949
▁editing	-9.39044
▁certain	-9.39122
▁write	-9.39127
rate	-9.39197
▁kept	-9.39205
▁shame	-9.39348
▁Dan	-9.39467
even	-9.39496
az	-9.39511
▁camp	-9.3955
▁lose	-9.39554
▁overall	-9.39567
▁consider	-9.39597
▁whi	-9.39715
▁Bro	-9.39773
cing	-9.39913
▁Cha	-9.40036
▁pace	-9.40139
▁comments	-9.4018
▁escape	-9.40234
▁appear	-9.40252
▁famous	-9.40383
ute	-9.40477
▁list	-9.40557
▁easy	-9.40832
▁Ed	-9.40913
▁personal	-9.40952
▁suggest	-9.4098
▁haven	-9.41054
▁tried	-9.41134
▁Oh	-9.41142
▁Star	-9.41293
▁drug	-9.41309
▁five	-9.41405
▁sets	-9.41411
▁Disney	-9.41582
▁needs	-9.41688
IN	-9.4171
▁herself	-9.41883
▁monster	-9.41884
▁catch	-9.41906
▁US	-9.42019
▁atmosphere	-9.42034
▁capture	-9.42035
▁attack	-9.4204
▁nearly	-9.42065
▁rare	-9.42132
▁student	-9.42338
▁Maybe	-9.42357
▁9	-9.42384
▁appreciate	-9.4249
lf	-9.42517
▁Ni	-9.42546
▁Lee	-9.42597
▁accept	-9.42645
▁America	-9.42657
▁working	-9.42801
▁finds	-9.42928
▁dumb	-9.42949
▁parents	-9.4295
▁trouble	-9.431
▁elements	-9.43136
▁accent	-9.43257
▁mistake	-9.43413
▁throw	-9.43604
?"	-9.43653
▁truth	-9.43714
▁named	-9.43771
▁forget	-9.43823
▁average	-9.44025
▁particular	-9.44115
ease	-9.44118
rew	-9.44155
▁Pro	-9.44176
▁Gar	-9.44387
rough	-9.44438
lay	-9.44461
▁nor	-9.44529
▁exception	-9.44568
▁notice	-9.44577
car	-9.44617
ire	-9.44619
▁...	-9.44688
▁em	-9.44711
▁brought	-9.44798
▁Ke	-9.44807
▁poorly	-9.44821
▁spirit	-9.44953
▁portray	-9.44958
▁upon	-9.45026
▁reviews	-9.45083
▁magic	-9.45128
▁pl	-9.45129
gi	-9.45158
ppy	-9.45195
za	-9.45251
▁believable	-9.45265
AT	-9.45609
play	-9.45732
He	-9.45782
▁treat	-9.45869
▁greatest	-9.46009
▁dog	-9.46166
▁background	-9.46208
▁contain	-9.46266
ace	-9.46524
▁male	-9.46618
▁fi	-9.46653
mar	-9.46675
▁suit	-9.4671
▁viewers	-9.46793
▁showing	-9.46831
▁Most	-9.47099
▁arm	-9.47175
▁Ber	-9.47213
▁French	-9.4732
▁choice	-9.47479
▁im	-9.47612
▁Unfortunately	-9.47655
▁using	-9.47676
▁meaning	-9.47775
▁business	-9.47804
▁NOT	-9.47814
▁basically	-9.47823
▁anyway	-9.47933
▁Joe	-9.48056
▁begins	-9.48118
mate	-9.48208
▁issue	-9.48225
▁Mor	-9.48314
read	-9.48329
▁Frank	-9.48444
▁pure	-9.48591
▁romance	-9.48605
jo	-9.48751
▁potential	-9.48766
▁city	-9.48807
▁expected	-9.48827
▁front	-9.49093
▁mini	-9.49288
EN	-9.49387
▁mystery	-9.49581
▁success	-9.49752
ore	-9.49781
▁Yes	-9.49792
▁pop	-9.49809
▁hair	-9.49898
▁became	-9.49907
▁bored	-9.49915
▁avoid	-9.49992
▁sequences	-9.50008
▁date	-9.50045
My	-9.50078
▁joke	-9.50227
▁Chi	-9.50261
▁screenplay	-9.50431
▁whether	-9.50564
▁design	-9.50564
▁begin	-9.50726
▁effective	-9.50784
▁tea	-9.50824
▁within	-9.50885
ograph	-9.50904
war	-9.51164
▁bother	-9.51191
▁Scott	-9.51225
▁reveal	-9.51228
▁battle	-9.51245
▁Like	-9.51339
▁nature	-9.51392
▁minute	-9.51424
▁development	-9.51426
mark	-9.51511
▁Good	-9.51589
▁pu	-9.516
nce	-9.51612
▁leads	-9.51649
▁masterpiece	-9.51726
▁70	-9.5177
▁Bri	-9.5202
▁describe	-9.52059
TH	-9.52079
▁comm	-9.52278
▁forward	-9.52469
pet	-9.52529
▁match	-9.52798
▁Wal	-9.52904
▁normal	-9.52908
▁term	-9.52913
▁*	-9.52947
▁sign	-9.5307
▁sleep	-9.53237
▁Cor	-9.53249
▁hot	-9.53267
▁unique	-9.53407
▁Movie	-9.53408
▁points	-9.5343
▁trip	-9.53498
▁dramatic	-9.53529
▁Mil	-9.53535
▁continue	-9.53576
▁thank	-9.53597
▁state	-9.53605
▁copy	-9.53772
▁space	-9.53786
gue	-9.53825
▁cons	-9.53837
▁Per	-9.53895
▁wear	-9.53928
▁drag	-9.53944
▁means	-9.53977
▁shoot	-9.54162
▁painful	-9.54175
▁possibly	-9.54258
▁extra	-9.54345
▁reading	-9.54538
▁third	-9.54602
▁animal	-9.54603
▁costume	-9.54776
ou	-9.5478
▁public	-9.54945
▁fear	-9.55071
▁successful	-9.55108
▁remake	-9.55118
▁flat	-9.55134
▁gone	-9.55255
▁Japanese	-9.55291
▁jump	-9.55292
iff	-9.55442
▁needed	-9.55516
▁feels	-9.55544
ES	-9.55594
▁apparently	-9.55635
▁interested	-9.55661
▁Night	-9.55714
nal	-9.55776
▁political	-9.5581
▁project	-9.5581
▁rep	-9.55856
▁rich	-9.55996
▁taste	-9.56038
▁From	-9.56091
▁unlike	-9.56141
▁effect	-9.56142
▁girlfriend	-9.56174
▁shock	-9.56271
▁direct	-9.56332
cept	-9.56478
▁Can	-9.56492
lon	-9.56593
▁sick	-9.56614
▁memorable	-9.56683
▁trash	-9.56686
▁footage	-9.56858
Ma	-9.56888
▁somehow	-9.57002
▁forced	-9.57102
iness	-9.57229
field	-9.57231
ship	-9.57346
▁Ex	-9.57352
▁era	-9.57501
▁creepy	-9.57515
▁Film	-9.57566
▁fair	-9.57619
▁positive	-9.5774
▁clever	-9.57741
▁Wood	-9.57751
▁earlier	-9.57917
▁credits	-9.58055
AL	-9.58057
▁cheesy	-9.58095
▁soldier	-9.58095
▁Will	-9.58129
▁90	-9.58178
▁plane	-9.58189
▁brain	-9.58267
▁rip	-9.58271
▁directing	-9.58363
▁badly	-9.58579
▁bla	-9.58613
▁street	-9.58631
itch	-9.58716
▁band	-9.58807
▁master	-9.58926
▁concept	-9.59197
▁ob	-9.59282
▁older	-9.59507
▁general	-9.59517
▁step	-9.59538
▁roll	-9.59958
▁opera	-9.59989
▁convincing	-9.6007
▁incredibly	-9.6007
ock	-9.60262
▁Christmas	-9.60435
▁spot	-9.60445
vin	-9.60462
▁control	-9.60616
▁water	-9.60803
▁credit	-9.60841
▁Mac	-9.60863
▁Watch	-9.60887
▁gay	-9.60951
▁Fu	-9.60956
▁concern	-9.60981
▁Tra	-9.61026
▁leaves	-9.61072
cast	-9.6117
▁quickly	-9.61201
▁social	-9.61261
form	-9.61263
▁plain	-9.61364
▁rate	-9.61374
▁IMDb	-9.61531
▁Em	-9.61544
▁natural	-9.617
▁lover	-9.61701
▁Com	-9.61726
▁Hu	-9.61737
star	-9.61771
▁By	-9.61837
▁sat	-9.61892
▁powerful	-9.62038
▁stick	-9.62061
with	-9.62062
▁popular	-9.62089
▁Jane	-9.6212
ident	-9.62229
ttle	-9.62235
now	-9.62457
You	-9.62536
night	-9.62601
▁fails	-9.62627
gan	-9.62637
▁expecting	-9.62701
▁bra	-9.62784
▁adventure	-9.62827
ien	-9.62834
▁exist	-9.62929
To	-9.63036
▁Bla	-9.63125
▁society	-9.63201
▁sea	-9.6335
▁studio	-9.63389
▁force	-9.63522
▁mad	-9.6372
▁6	-9.63748
▁embarrass	-9.63764
▁plenty	-9.63953
▁cry	-9.63956
▁worked	-9.63992
▁store	-9.64054
▁support	-9.64096
▁prison	-9.64149
▁moral	-9.64163
▁cute	-9.64194
▁Pre	-9.64291
▁steal	-9.64334
All	-9.64343
▁perfectly	-9.64629
▁total	-9.64713
get	-9.64714
▁features	-9.6472
board	-9.64863
▁eat	-9.64873
▁laughs	-9.64934
▁meets	-9.65003
▁portrayed	-9.65271
▁sweet	-9.6528
▁answer	-9.6529
▁occasion	-9.65472
▁location	-9.65472
▁acted	-9.65514
▁These	-9.65542
▁red	-9.6556
▁talented	-9.65613
▁amount	-9.65663
▁portrayal	-9.65668
▁deserves	-9.65788
▁writers	-9.658
▁sent	-9.65826
▁casting	-9.66281
▁paint	-9.66428
while	-9.66627
movie	-9.66632
▁chase	-9.66707
▁leading	-9.6671
LE	-9.66767
▁eventually	-9.6682
▁psycho	-9.66822
▁land	-9.66879
hu	-9.67123
▁intelligent	-9.67404
▁nudity	-9.67405
▁appearance	-9.67449
▁fairly	-9.6762
▁beat	-9.6779
▁beauty	-9.67992
▁anti	-9.68014
▁Pi	-9.68046
▁towards	-9.6821
▁meant	-9.6835
▁Italian	-9.68584
▁kick	-9.68617
▁brings	-9.68706
▁accident	-9.68779
▁note	-9.68803
▁outside	-9.68928
bert	-9.68929
An	-9.69056
body	-9.69094
▁recently	-9.6911
iving	-9.69113
▁track	-9.69242
▁various	-9.69375
▁honest	-9.69602
▁missing	-9.69669
▁sorry	-9.69758
▁fantasy	-9.69773
▁married	-9.69774
ified	-9.69799
pen	-9.69821
▁ruin	-9.69835
stor	-9.70234
▁Gold	-9.70389
wer	-9.70407
▁indeed	-9.70423
ana	-9.70432
▁lady	-9.70645
▁listen	-9.70932
Be	-9.70978
how	-9.7107
wood	-9.71214
▁ill	-9.71236
▁missed	-9.71286
▁doctor	-9.71385
▁remind	-9.71387
Ro	-9.71398
▁skill	-9.71588
▁Bill	-9.71706
▁hardly	-9.71709
igh	-9.7177
▁fighting	-9.71785
▁crew	-9.71862
▁wasted	-9.71917
ude	-9.7192
▁familiar	-9.71996
▁crazy	-9.71996
▁Mad	-9.72042
▁mid	-9.72044
rated	-9.7209
▁whom	-9.72137
▁purpose	-9.722
▁amusing	-9.72202
▁record	-9.72405
▁laughing	-9.72436
▁Indian	-9.72531
▁travel	-9.72816
▁wrote	-9.72816
▁manages	-9.72819
▁telling	-9.73015
▁claim	-9.73096
ose	-9.73123
▁yes	-9.73128
▁Here	-9.73165
part	-9.73186
▁tension	-9.73234
▁player	-9.73277
▁Black	-9.73281
▁Ga	-9.73288
▁artist	-9.73309
▁draw	-9.734
▁edit	-9.73434
▁caught	-9.73472
ham	-9.73494
▁disc	-9.73538
▁spent	-9.73584
▁waiting	-9.74018
dge	-9.74052
▁visit	-9.7406
▁El	-9.74098
▁blow	-9.74207
▁Great	-9.7427
▁solid	-9.74285
▁mood	-9.74373
lam	-9.74396
▁reach	-9.74414
top	-9.74453
▁Fe	-9.7452
▁subtle	-9.74692
▁fiction	-9.74709
mple	-9.7471
▁baby	-9.74753
▁manner	-9.74755
▁mentioned	-9.7476
this	-9.74823
▁Love	-9.74929
▁inside	-9.74967
room	-9.75035
▁members	-9.75199
▁scream	-9.75319
▁pointless	-9.75434
▁Van	-9.75465
▁further	-9.75531
▁leg	-9.75645
▁ghost	-9.75955
▁porn	-9.76014
▁15	-9.76015
▁mental	-9.76121
ix	-9.76299
***	-9.76316
▁common	-9.76371
log	-9.76493
▁depth	-9.76595
chi	-9.76646
▁slightly	-9.76809
ju	-9.76943
▁World	-9.77023
▁Ju	-9.77211
▁million	-9.77238
Le	-9.77363
place	-9.77527
▁Big	-9.77556
▁conclusion	-9.7767
▁Still	-9.77701
▁filmmakers	-9.77719
▁tend	-9.77761
▁destroy	-9.77886
▁soul	-9.78071
▁incredible	-9.78103
▁glad	-9.78326
▁Mary	-9.78488
izing	-9.78503
▁whatever	-9.78631
OM	-9.78717
ik	-9.7874
▁approach	-9.78756
▁language	-9.78756
▁vampire	-9.78756
▁culture	-9.78788
▁grand	-9.78856
▁develop	-9.78971
▁complex	-9.78975
▁computer	-9.78975
▁rap	-9.79104
▁decides	-9.79186
▁awesome	-9.79195
OW	-9.79371
▁impressive	-9.79414
▁entertain	-9.7943
cut	-9.7951
▁wall	-9.79552
▁bizarre	-9.79635
▁violent	-9.79635
▁exciting	-9.79635
▁Sho	-9.79712
▁mark	-9.7973
▁En	-9.79762
▁unfortunately	-9.7979
▁door	-9.79876
where	-9.79879
▁former	-9.79892
▁Every	-9.79922
▁50	-9.79965
▁achieve	-9.80078
▁western	-9.80079
▁earth	-9.8008
vy	-9.80091
▁share	-9.80176
▁commit	-9.80197
udi	-9.80244
▁disturbing	-9.80261
▁created	-9.80291
▁serve	-9.80306
▁charm	-9.80356
▁Instead	-9.80548
▁luck	-9.80562
some	-9.80651
▁recent	-9.80782
▁Pri	-9.8081
▁produced	-9.80818
▁pain	-9.80826
▁fake	-9.80944
▁dancing	-9.80967
▁biggest	-9.80967
▁dress	-9.81003
▁decide	-9.81111
▁limit	-9.81194
making	-9.81278
east	-9.81335
▁apart	-9.81489
▁pathetic	-9.8164
▁search	-9.8164
hol	-9.81712
berg	-9.81715
Do	-9.81782
▁reviewer	-9.81794
One	-9.81883
▁cost	-9.81936
cap	-9.81937
▁impression	-9.8209
▁slasher	-9.8209
wn	-9.8213
▁brief	-9.82316
CH	-9.82345
▁Park	-9.82362
▁complain	-9.82543
▁regard	-9.82545
▁following	-9.82549
▁adaptation	-9.82577
▁tough	-9.82609
▁struggle	-9.8277
ino	-9.82819
cious	-9.82893
▁shooting	-9.8313
▁chemistry	-9.83226
▁wild	-9.83463
cra	-9.83585
Re	-9.83708
▁entirely	-9.839
▁cult	-9.84004
void	-9.84193
▁bus	-9.84208
▁teen	-9.84353
atic	-9.84519
▁genuine	-9.84607
▁author	-9.84608
craft	-9.84616
De	-9.84699
▁six	-9.84879
▁Smith	-9.85073
▁unless	-9.85093
▁pan	-9.85269
Ho	-9.8528
▁bought	-9.85305
▁fashion	-9.85305
▁Tony	-9.85385
▁charming	-9.85481
▁sci	-9.85519
▁Dead	-9.85539
▁Rock	-9.85539
▁college	-9.85773
▁garbage	-9.85773
▁represent	-9.86008
▁Christ	-9.86014
▁South	-9.86031
▁otherwise	-9.86064
▁compared	-9.8615
▁loud	-9.8629
▁failed	-9.86304
zo	-9.86432
▁criminal	-9.86479
▁difference	-9.86479
▁revenge	-9.86479
▁folk	-9.8648
▁House	-9.86555
▁proper	-9.86586
OO	-9.86679
▁brutal	-9.86716
▁alien	-9.86758
▁filled	-9.86795
▁Best	-9.86919
▁Ku	-9.87046
ED	-9.87121
▁scare	-9.87164
writer	-9.87173
▁humour	-9.8719
▁excuse	-9.8719
▁manage	-9.87233
▁considered	-9.87467
ept	-9.87507
house	-9.87541
▁singing	-9.87547
▁program	-9.87666
▁consist	-9.87751
▁drop	-9.87766
ez	-9.87786
win	-9.87813
▁stunning	-9.87906
▁barely	-9.87911
▁died	-9.8805
▁suspect	-9.88145
▁trailer	-9.88146
▁thrill	-9.88385
▁genius	-9.88386
▁Angel	-9.88409
hood	-9.88514
▁Nor	-9.88522
▁ground	-9.8873
▁cur	-9.88798
▁basic	-9.88851
▁creature	-9.88868
▁younger	-9.88899
▁Christian	-9.88908
▁Jim	-9.88961
For	-9.89099
Th	-9.89147
▁building	-9.89177
ison	-9.89335
▁Tim	-9.89359
▁ball	-9.89379
▁hunt	-9.89407
ball	-9.89517
▁Pu	-9.89568
▁desperate	-9.89597
▁impossible	-9.8984
▁London	-9.89841
▁decade	-9.89844
▁changed	-9.89892
till	-9.89958
▁Sw	-9.90076
▁convince	-9.90085
▁idiot	-9.90085
▁office	-9.90088
key	-9.90178
▁Sch	-9.90332
▁insult	-9.90343
you	-9.90605
▁hang	-9.90689
that	-9.90796
▁carry	-9.90815
▁terrific	-9.90822
▁Let	-9.91112
▁wide	-9.91254
▁100	-9.91321
▁starring	-9.91431
▁Red	-9.91477
▁party	-9.91525
▁terror	-9.91565
▁animated	-9.91565
Don	-9.91651
dom	-9.91795
▁longer	-9.91807
▁weren	-9.91834
**	-9.91877
bling	-9.91943
▁smart	-9.92065
▁heavy	-9.92066
▁gang	-9.92132
▁company	-9.92313
▁historical	-9.92313
▁involve	-9.92529
▁display	-9.92607
back	-9.92683
▁suddenly	-9.92985
▁Perhaps	-9.93006
▁Director	-9.93337
▁See	-9.93457
▁High	-9.93539
▁disappointment	-9.93587
▁lab	-9.93961
▁involving	-9.94069
▁unbelievable	-9.9408
▁Mel	-9.94182
▁sitting	-9.94185
▁City	-9.94188
▁Boy	-9.94219
▁physical	-9.94336
▁faith	-9.94336
▁ran	-9.94385
▁sing	-9.94495
▁gem	-9.94558
▁mysterious	-9.94592
▁fu	-9.94827
most	-9.94843
▁affect	-9.94851
▁scientist	-9.95105
▁cross	-9.95107
▁loose	-9.95124
▁disappointing	-9.95308
position	-9.95426
▁Stewart	-9.95621
▁Martin	-9.95676
▁pack	-9.95704
▁40	-9.95705
▁succeed	-9.9588
▁laughable	-9.95965
▁touching	-9.96022
born	-9.96044
▁ultimately	-9.96078
▁People	-9.9614
pper	-9.96235
▁utterly	-9.96388
▁absurd	-9.964
▁neither	-9.964
▁torture	-9.96401
▁Earth	-9.96401
▁fresh	-9.96401
▁leaving	-9.96401
▁minor	-9.9641
▁ability	-9.96658
▁technical	-9.96661
▁sum	-9.96696
▁Another	-9.96832
▁gag	-9.9684
▁OF	-9.96884
▁scenery	-9.96909
▁climax	-9.96923
▁desire	-9.96936
▁spoil	-9.96939
LY	-9.96941
▁Sure	-9.96951
▁warm	-9.97108
▁depict	-9.97119
▁require	-9.9719
▁Day	-9.9722
▁cold	-9.9735
▁law	-9.97396
▁serial	-9.97449
▁bomb	-9.97451
▁comedies	-9.97455
▁test	-9.97627
▁occur	-9.97713
▁Bra	-9.97805
▁fill	-9.9784
▁somewhere	-9.97909
▁innocent	-9.97978
▁horse	-9.97978
▁random	-9.97983
▁generally	-9.97993
▁addition	-9.98007
Mo	-9.98057
▁added	-9.98258
▁temp	-9.98365
▁detective	-9.98508
▁silent	-9.98509
▁graphic	-9.9851
▁considering	-9.98545
▁managed	-9.9858
▁key	-9.98583
▁edge	-9.98591
▁sexy	-9.98631
▁ride	-9.98819
▁immediately	-9.9883
▁road	-9.98894
La	-9.98971
▁60	-9.99006
▁happening	-9.99058
▁Very	-9.99093
IT	-9.99333
▁rid	-9.99458
▁teenager	-9.99488
▁build	-9.99506
▁relate	-9.99691
▁nowhere	-9.99739
▁hide	-9.99855
▁boss	-9.99863
mu	-9.99898
▁Alex	-9.99939
!!!!	-10.0004
▁outstanding	-10.0012
▁send	-10.0015
▁Chris	-10.0029
iz	-10.0029
mission	-10.0038
▁expectations	-10.004
▁month	-10.0067
worth	-10.0079
▁Chan	-10.0082
▁Steve	-10.0091
▁join	-10.0094
▁reference	-10.0095
▁conflict	-10.0121
▁fail	-10.0121
▁presence	-10.0121
▁Adam	-10.0122
▁motion	-10.0124
▁makers	-10.0139
▁recommended	-10.0141
▁okay	-10.0148
▁Ste	-10.0151
▁burn	-10.0153
▁rule	-10.0163
▁80'	-10.0173
▁dad	-10.0173
▁century	-10.0176
▁channel	-10.0203
▁marriage	-10.0203
▁suppose	-10.0205
connect	-10.0207
▁chose	-10.021
Li	-10.0211
▁Miss	-10.0219
▁Allen	-10.0232
▁drunk	-10.0259
▁hurt	-10.0259
▁hoping	-10.0264
▁photography	-10.0268
▁surprisingly	-10.0286
▁narrative	-10.0286
▁Jones	-10.0288
Mar	-10.0289
OT	-10.0291
▁plus	-10.0313
down	-10.0322
We	-10.0327
▁cinematic	-10.0329
▁intention	-10.0342
▁compelling	-10.037
▁content	-10.0371
▁witness	-10.0373
raw	-10.0373
▁cameo	-10.0385
▁Dick	-10.0386
▁passion	-10.0391
illa	-10.0395
▁beautifully	-10.0397
▁Only	-10.0421
▁Though	-10.0426
▁literally	-10.0426
▁sy	-10.0439
aving	-10.044
ization	-10.0447
▁vote	-10.0448
▁government	-10.0455
▁survive	-10.0455
▁clean	-10.0455
▁interview	-10.0456
elect	-10.0484
▁science	-10.0486
uous	-10.05
▁equally	-10.0501
▁constantly	-10.0509
▁relative	-10.0511
▁Where	-10.0512
▁alive	-10.0522
▁drawn	-10.0522
▁Bob	-10.0528
▁Harry	-10.0533
▁pun	-10.0536
▁boyfriend	-10.0542
▁legend	-10.0543
dding	-10.0564
▁thrown	-10.0564
▁cla	-10.0565
▁fascinating	-10.0568
▁flashback	-10.0569
▁fell	-10.0572
▁Jeff	-10.0573
▁80	-10.0576
▁enter	-10.0577
▁element	-10.059
▁fully	-10.0593
▁lesson	-10.0594
▁military	-10.0597
▁likable	-10.0597
▁tired	-10.0597
▁formula	-10.0599
???	-10.0599
just	-10.0599
▁sell	-10.0613
▁professional	-10.0626
▁clue	-10.0627
▁seven	-10.0637
▁agent	-10.0638
budget	-10.0644
▁raise	-10.065
▁ship	-10.0652
▁available	-10.0655
▁intense	-10.0655
under	-10.0655
▁prop	-10.0669
▁soft	-10.067
▁opportunity	-10.0683
▁system	-10.0683
Lo	-10.0702
▁length	-10.0712
▁reaction	-10.0713
▁presented	-10.073
▁negative	-10.0742
▁Charlie	-10.0742
▁commercial	-10.0742
▁intended	-10.0742
▁neighbor	-10.0771
▁resembl	-10.0771
▁damn	-10.0771
▁slowly	-10.0775
▁race	-10.0815
10	-10.0816
cket	-10.0831
▁rape	-10.0832
ability	-10.0856
▁stereotype	-10.0859
▁noir	-10.0868
▁affair	-10.0888
▁fellow	-10.0891
▁fool	-10.0902
▁individual	-10.0918
▁protagonist	-10.0918
▁mouth	-10.0918
▁drink	-10.0923
▁teacher	-10.0932
▁tragic	-10.0948
▁Paris	-10.095
life	-10.098
▁Other	-10.0996
▁Young	-10.0997
▁Because	-10.1007
▁imagination	-10.1007
▁demon	-10.1011
other	-10.1034
▁journey	-10.1037
▁expression	-10.1043
▁Ko	-10.1068
▁Story	-10.1075
what	-10.1075
▁Jean	-10.1076
▁Two	-10.1081
▁promise	-10.1097
▁discuss	-10.1097
ridge	-10.1117
anger	-10.1118
▁essential	-10.1127
▁frame	-10.1127
▁fault	-10.1128
▁Green	-10.1128
▁Eli	-10.1131
▁appeared	-10.1132
ella	-10.1132
▁Too	-10.1134
▁sport	-10.1142
▁gorgeous	-10.1158
blo	-10.1169
▁blame	-10.1173
boo	-10.1177
▁Bruce	-10.1188
aught	-10.1189
▁sight	-10.1207
▁wise	-10.1213
▁mediocre	-10.1219
▁remote	-10.1219
▁creative	-10.1219
▁center	-10.122
▁Yet	-10.1233
▁photograph	-10.1238
▁confusing	-10.1249
▁broke	-10.125
▁push	-10.1264
▁chick	-10.1265
▁correct	-10.128
grade	-10.1281
▁joy	-10.1312
▁attract	-10.1314
▁quick	-10.1335
▁walking	-10.1336
▁developed	-10.1337
▁accurate	-10.1341
▁Batman	-10.1342
▁Nothing	-10.1342
▁impressed	-10.1342
US	-10.1343
▁disgust	-10.1372
▁favourite	-10.1373
▁partner	-10.1374
▁Kelly	-10.1375
more	-10.1382
▁Mal	-10.1398
▁spoiler	-10.1402
▁Christopher	-10.1403
▁pleasant	-10.1404
▁Davis	-10.1404
point	-10.1406
▁safe	-10.1413
▁ham	-10.1416
▁shocking	-10.1419
nnie	-10.1433
▁Charles	-10.1435
▁attractive	-10.1441
▁Dark	-10.1441
▁station	-10.1454
▁Anyway	-10.1457
▁superior	-10.1466
▁smile	-10.1466
▁confused	-10.1497
▁funniest	-10.1497
▁segment	-10.1497
▁Thank	-10.1497
▁double	-10.1497
▁phone	-10.1497
▁trick	-10.1511
▁paid	-10.1511
▁Roger	-10.1513
▁carrie	-10.152
▁current	-10.1529
▁Henry	-10.1529
▁model	-10.1529
▁rated	-10.1546
▁hire	-10.155
▁machine	-10.156
▁quiet	-10.156
▁childhood	-10.1562
That	-10.1567
▁highlight	-10.157
▁angle	-10.1571
▁judge	-10.1592
▁giant	-10.1592
▁Life	-10.1599
good	-10.16
▁witch	-10.1614
▁hospital	-10.1624
▁oh	-10.1625
▁flow	-10.1635
▁18	-10.1637
▁pal	-10.1641
view	-10.1643
When	-10.1654
Some	-10.1655
▁epic	-10.1656
▁logic	-10.1664
▁tape	-10.1681
▁pen	-10.1681
▁object	-10.1687
▁apartment	-10.1694
UN	-10.1708
▁unusual	-10.1719
▁gangster	-10.1724
▁factor	-10.174
▁vision	-10.1751
▁encounter	-10.1752
bound	-10.1753
ular	-10.1754
▁nobody	-10.1773
▁West	-10.1777
style	-10.1782
▁naked	-10.1784
▁combine	-10.1784
▁becoming	-10.1785
▁Billy	-10.1786
▁collection	-10.1788
▁thoroughly	-10.1816
▁pleasure	-10.1816
▁assume	-10.1822
though	-10.1831
▁Show	-10.1836
▁forgotten	-10.1849
▁twice	-10.1849
screen	-10.1849
▁reminded	-10.185
▁pair	-10.1876
▁prepar	-10.189
▁anymore	-10.189
year	-10.1894
▁actresses	-10.1898
▁Overall	-10.1911
▁Little	-10.1917
▁market	-10.1922
▁stuck	-10.1934
▁prefer	-10.1947
stone	-10.1958
▁host	-10.1975
▁Australia	-10.198
▁reflect	-10.198
▁disaster	-10.198
▁latter	-10.1985
▁Steven	-10.199
▁industry	-10.2013
film	-10.2017
▁impact	-10.2022
▁redeeming	-10.2038
▁honestly	-10.2041
▁Arthur	-10.2046
▁member	-10.2064
▁Jud	-10.2077
Overall	-10.2082
▁wind	-10.2098
▁mine	-10.2101
▁shop	-10.2102
▁extreme	-10.2109
▁afraid	-10.2112
▁DO	-10.2123
depend	-10.2124
▁compare	-10.2126
▁Nick	-10.2138
▁Time	-10.2143
imp	-10.2145
▁central	-10.2146
▁melodrama	-10.2146
▁delightful	-10.2146
▁Jerry	-10.2149
▁hook	-10.2152
▁bright	-10.2169
▁arrive	-10.218
▁gold	-10.2181
▁justice	-10.2194
▁path	-10.2199
▁artistic	-10.22
▁progress	-10.2213
▁freak	-10.2213
▁wooden	-10.2213
▁AND	-10.2213
▁pilot	-10.2213
&	-10.2217
▁Va	-10.2231
▁12	-10.2239
▁filmmaker	-10.2239
▁invent	-10.224
▁absolute	-10.2277
▁tragedy	-10.2281
▁knock	-10.2315
▁Robin	-10.2315
▁Part	-10.2318
eff	-10.2341
▁featur	-10.2342
▁officer	-10.2347
▁nasty	-10.2349
▁Prince	-10.235
▁merely	-10.2352
▁Fred	-10.2371
Fi	-10.2379
▁thin	-10.238
▁disappear	-10.2383
▁process	-10.2383
▁Russian	-10.2385
▁Hill	-10.2388
▁wit	-10.2399
▁Shakespeare	-10.2417
▁Street	-10.2417
▁initial	-10.2418
friend	-10.2419
▁Val	-10.2427
▁blind	-10.2452
▁convey	-10.2452
ombie	-10.2453
▁putting	-10.2454
▁comedic	-10.2454
▁eight	-10.2468
▁bottom	-10.2486
▁experiment	-10.2486
▁flash	-10.2487
▁express	-10.2487
▁club	-10.2487
▁clothes	-10.2494
ET	-10.2496
▁nation	-10.253
▁bank	-10.2532
▁Chinese	-10.2556
▁Despite	-10.2556
▁information	-10.2556
▁1950	-10.2559
▁held	-10.2563
▁everybody	-10.2564
lick	-10.2589
▁whatsoever	-10.2591
▁guilt	-10.2591
▁broad	-10.2591
▁martial	-10.2591
▁comparison	-10.2626
▁suicide	-10.2626
▁regular	-10.2626
▁breath	-10.2626
▁McC	-10.2645
face	-10.2649
▁instance	-10.2662
▁Harris	-10.2667
▁Once	-10.2687
▁favor	-10.2695
▁Joan	-10.2705
▁personality	-10.2709
▁buff	-10.2712
posed	-10.2727
▁Douglas	-10.2732
▁influence	-10.2732
▁Ver	-10.2733
▁soap	-10.2754
Now	-10.2756
▁deserve	-10.2762
▁Min	-10.2763
▁unexpected	-10.2768
▁Fox	-10.2768
Well	-10.2773
▁inspired	-10.2803
▁dollar	-10.2804
▁Dar	-10.2815
▁Mark	-10.2827
▁Alan	-10.2829
▁decision	-10.2839
▁choose	-10.2839
▁crash	-10.284
▁sun	-10.2852
▁Stephen	-10.2875
▁ignore	-10.2875
▁independent	-10.2875
▁desert	-10.2876
▁deserved	-10.2893
▁teach	-10.2897
▁research	-10.2911
▁Horror	-10.2911
▁distract	-10.2912
▁trust	-10.2912
▁personally	-10.2914
▁commentary	-10.2919
▁European	-10.2919
▁energy	-10.2948
▁stunt	-10.2949
▁friendship	-10.2951
▁skin	-10.296
▁repeated	-10.2961
▁insight	-10.2972
▁challenge	-10.2984
▁intelligence	-10.2984
▁satisfy	-10.2984
▁study	-10.2984
▁Both	-10.3018
▁Taylor	-10.302
▁court	-10.3023
▁holes	-10.3031
Act	-10.3033
EL	-10.3044
▁chill	-10.3046
▁perspective	-10.3057
▁Please	-10.3057
▁angry	-10.3058
▁Men	-10.306
▁teenage	-10.3075
▁Come	-10.3088
▁attitude	-10.3094
▁Hitler	-10.3094
▁Daniel	-10.3094
▁Stone	-10.3095
Second	-10.3096
▁invest	-10.3106
especially	-10.3108
TV	-10.3114
▁bill	-10.3125
▁seemingly	-10.3132
▁theatre	-10.3144
▁singer	-10.3148
▁necessary	-10.3168
▁unnecessary	-10.3168
▁possess	-10.3168
▁improve	-10.3168
▁kidnap	-10.3169
▁scared	-10.3169
99	-10.3183
▁began	-10.3202
▁engaging	-10.3205
▁strength	-10.3205
▁remarkable	-10.3205
▁memory	-10.3205
▁Louis	-10.3206
▁Brad	-10.321
Fran	-10.3231
▁generation	-10.3242
▁religious	-10.3242
▁explore	-10.3242
▁price	-10.3247
▁anywhere	-10.3256
▁bull	-10.3268
▁explanation	-10.328
▁intriguing	-10.328
▁White	-10.328
▁apparent	-10.328
▁Kar	-10.3301
▁11	-10.3304
▁church	-10.3317
▁surprising	-10.3318
▁hotel	-10.3334
▁More	-10.3337
director	-10.3342
▁punch	-10.3342
▁debut	-10.3347
▁loving	-10.3355
▁bath	-10.3356
▁ugly	-10.3356
▁Grant	-10.3359
▁Jr	-10.3377
take	-10.3382
▁Lynch	-10.3393
▁hint	-10.3393
▁Morgan	-10.3395
▁dying	-10.3398
▁bland	-10.3398
▁tune	-10.3398
▁****	-10.3399
▁food	-10.3399
American	-10.341
▁dig	-10.3429
▁awkward	-10.3431
▁connection	-10.3431
▁Sea	-10.3431
▁protect	-10.3432
▁pacing	-10.3435
▁earn	-10.3438
▁scar	-10.344
*****	-10.3454
▁product	-10.3462
▁Blood	-10.3469
▁expert	-10.3469
▁Eddie	-10.3472
put	-10.3477
▁Simon	-10.3477
made	-10.3505
▁appropriate	-10.3507
▁employ	-10.3507
▁Keaton	-10.3507
▁mild	-10.3507
▁skip	-10.3507
▁aware	-10.3511
▁scr	-10.3532
▁floor	-10.3546
▁media	-10.3555
▁movement	-10.357
▁Out	-10.3573
▁Brian	-10.3578
▁VHS	-10.3584
▁Ya	-10.3586
▁heroine	-10.36
▁gotten	-10.3609
▁rank	-10.3619
▁winning	-10.3628
▁Matt	-10.3633
▁blue	-10.3663
▁transform	-10.3664
▁utter	-10.3665
▁tight	-10.3669
away	-10.368
▁stink	-10.3685
▁rubbish	-10.3701
▁psychological	-10.3701
▁robot	-10.3702
UR	-10.371
▁behavior	-10.374
▁pretentious	-10.374
▁1970	-10.374
▁CGI	-10.3741
▁recognize	-10.3745
▁thus	-10.3762
▁memories	-10.378
▁speech	-10.378
▁crowd	-10.378
▁Girl	-10.378
▁grace	-10.378
▁woods	-10.3787
▁Jason	-10.3796
▁anybody	-10.3796
▁Kate	-10.3803
▁introduced	-10.3814
▁vehicle	-10.3819
▁knowledge	-10.3819
▁birth	-10.3819
▁dozen	-10.382
▁rescue	-10.382
▁abuse	-10.3833
▁Jackson	-10.3833
▁account	-10.3859
▁regret	-10.3859
▁stretch	-10.3859
▁refer	-10.386
▁spec	-10.3864
▁unknown	-10.3864
.......	-10.3866
▁Having	-10.3866
▁rise	-10.3868
▁target	-10.3899
▁Everything	-10.3899
▁curious	-10.3902
▁Gene	-10.3905
▁arch	-10.3912
▁hype	-10.3916
▁Dam	-10.3917
▁1980	-10.3939
▁wanna	-10.3939
▁weapon	-10.3939
▁produce	-10.3944
▁Eric	-10.3948
▁Roman	-10.3955
q	-10.3968
▁Clark	-10.3982
▁crack	-10.3989
▁load	-10.3996
▁13	-10.3999
▁dreadful	-10.4019
▁belief	-10.4019
▁France	-10.402
▁organ	-10.4021
▁loss	-10.4044
▁hundred	-10.406
ouch	-10.4062
▁radio	-10.4074
▁African	-10.4081
▁Lind	-10.4094
▁Julie	-10.4097
▁conversation	-10.41
▁symbol	-10.41
▁England	-10.41
▁dangerous	-10.4103
▁window	-10.4104
ueen	-10.4105
▁Danny	-10.4109
▁Hunt	-10.4121
corn	-10.4141
▁terribly	-10.4141
▁Japan	-10.4141
▁Since	-10.4144
▁constant	-10.4145
▁North	-10.4161
▁spell	-10.4162
gging	-10.4165
▁responsible	-10.4182
▁flesh	-10.4183
▁root	-10.4185
▁attend	-10.4186
▁summer	-10.4186
▁flying	-10.4188
▁Everyone	-10.4188
However	-10.4209
▁routine	-10.4223
▁mountain	-10.4223
▁village	-10.4223
▁satire	-10.4225
▁Space	-10.4227
defin	-10.4253
▁adapt	-10.4259
▁charisma	-10.4265
▁spectacular	-10.4265
▁twenty	-10.4265
▁uncle	-10.4265
▁opposite	-10.4266
▁paper	-10.4274
▁Andrew	-10.4284
▁document	-10.4304
▁magnificent	-10.4306
▁abandon	-10.4306
▁creating	-10.4306
▁Julia	-10.431
▁failure	-10.4311
stein	-10.4316
▁humorous	-10.4322
▁annoy	-10.4329
▁Mike	-10.434
▁unfunny	-10.4348
▁advice	-10.4348
▁demand	-10.4349
▁gut	-10.4352
dimensional	-10.4359
Even	-10.4367
▁naive	-10.4369
ONE	-10.4369
▁hidden	-10.439
▁Kevin	-10.4392
▁finest	-10.4412
▁contrast	-10.4432
▁thousand	-10.4432
▁text	-10.4432
▁Dur	-10.4449
hearted	-10.4471
▁accomplish	-10.4474
▁technique	-10.4474
▁shadow	-10.4474
▁shallow	-10.4474
wise	-10.4482
although	-10.4482
John	-10.4504
▁community	-10.4516
▁Western	-10.4517
spiring	-10.4533
While	-10.4547
▁Washington	-10.4559
▁praise	-10.4559
▁Jesus	-10.4559
▁Johnny	-10.457
pressed	-10.4572
▁Death	-10.458
break	-10.4594
▁confront	-10.4602
▁parody	-10.4602
▁practical	-10.4602
▁charge	-10.4602
ology	-10.4605
▁Those	-10.4605
▁stock	-10.4614
▁recall	-10.4629
▁context	-10.4645
▁priest	-10.4645
TER	-10.467
Also	-10.4677
▁humanity	-10.4681
▁nonsense	-10.4688
▁guard	-10.4688
▁Santa	-10.4689
▁strip	-10.4698
▁admire	-10.4731
▁witty	-10.4737
ville	-10.4756
claim	-10.4766
▁patient	-10.4774
▁rival	-10.4775
▁grew	-10.4789
▁insane	-10.4792
▁Hank	-10.4794
▁THIS	-10.4818
▁surreal	-10.4862
▁engage	-10.4862
▁proceed	-10.4862
▁mile	-10.4867
▁Lady	-10.489
▁cash	-10.489
▁trade	-10.4894
▁shine	-10.4903
▁EVER	-10.4906
▁junk	-10.4906
▁cheer	-10.4911
▁bigger	-10.4926
▁festival	-10.495
▁empty	-10.4951
▁threaten	-10.4956
▁fame	-10.4972
▁cheat	-10.4981
▁intrigue	-10.4995
▁corny	-10.4995
▁wealth	-10.4995
▁print	-10.4996
▁Nazi	-10.4997
▁Moore	-10.5
▁Sean	-10.5022
▁ladies	-10.504
▁Albert	-10.5045
existent	-10.5076
▁corrupt	-10.5084
▁Which	-10.5084
▁pretend	-10.5085
▁green	-10.5085
▁traditional	-10.5087
▁gain	-10.5109
▁tree	-10.5116
horn	-10.5116
▁sake	-10.5117
Final	-10.5122
▁gonna	-10.513
ubb	-10.5154
girl	-10.5158
▁repeat	-10.516
▁crappy	-10.5175
▁YOU	-10.5175
▁mask	-10.5179
SPOILERS	-10.5182
▁addict	-10.5182
50	-10.5199
▁gratuitous	-10.522
▁numerous	-10.522
cycle	-10.5222
▁speed	-10.5223
▁Kong	-10.5224
▁driving	-10.5224
▁yell	-10.5224
▁Look	-10.5252
First	-10.526
▁quote	-10.5266
▁Lord	-10.5281
▁marry	-10.5289
▁amateur	-10.5308
▁Spanish	-10.5311
▁cruel	-10.5312
▁wedding	-10.5328
▁realise	-10.5336
▁tack	-10.5348
▁page	-10.5354
▁advance	-10.5358
▁irritating	-10.5358
▁religion	-10.5358
▁device	-10.5358
▁therefore	-10.5358
▁14	-10.5378
▁cell	-10.5399
▁Anthony	-10.5404
▁families	-10.5404
▁sword	-10.5404
▁unfold	-10.5404
ological	-10.5406
▁amateurish	-10.5408
▁dislike	-10.5419
▁scenario	-10.545
▁morning	-10.545
▁clip	-10.5451
▁shape	-10.5456
▁existence	-10.5456
▁stopped	-10.5458
▁Wayne	-10.5497
▁spoof	-10.5497
▁gross	-10.5497
▁sharp	-10.5498
▁source	-10.5498
▁park	-10.5515
▁exploit	-10.5538
▁unrealistic	-10.5544
▁substance	-10.5544
▁comfort	-10.5544
▁boat	-10.5546
▁Freddy	-10.5548
▁underrated	-10.555
▁majority	-10.5563
conscious	-10.5563
▁contrived	-10.5591
▁lesbian	-10.5591
▁ordinary	-10.5591
▁degree	-10.5591
▁nightmare	-10.5591
▁Brown	-10.5594
▁Jimmy	-10.5594
▁warning	-10.5607
▁predict	-10.5632
Cinderella	-10.5639
▁depressing	-10.5639
▁executed	-10.5639
▁refreshing	-10.5639
▁revolution	-10.5639
▁structure	-10.5639
▁blonde	-10.5639
▁foreign	-10.5639
▁relief	-10.5639
▁separate	-10.5639
▁Okay	-10.5639
▁Trek	-10.5644
▁specific	-10.5647
▁construct	-10.5686
▁excited	-10.5686
▁civil	-10.5686
▁Gordon	-10.5686
▁condition	-10.5686
▁strike	-10.5686
▁forgive	-10.569
▁Long	-10.5706
▁frequent	-10.5734
▁combination	-10.5734
▁environment	-10.5734
▁switch	-10.5734
▁tedious	-10.5734
▁collect	-10.5775
▁Academy	-10.5782
▁colour	-10.5782
▁treatment	-10.5796
▁native	-10.5832
▁Wild	-10.5843
▁Howard	-10.5868
ggy	-10.5874
▁Broadway	-10.5879
▁Thomas	-10.5879
▁screw	-10.5879
▁lawyer	-10.5879
vision	-10.5883
▁ultimate	-10.5891
▁inspiration	-10.5928
▁Joseph	-10.5928
▁comedian	-10.5928
▁gift	-10.5929
▁peace	-10.598
▁bore	-10.6
member	-10.6017
▁built	-10.6026
▁sympathetic	-10.6026
▁wander	-10.6027
With	-10.6028
▁proud	-10.6045
▁Barbara	-10.6076
▁authentic	-10.6076
▁1930	-10.6076
▁Canadian	-10.6125
▁risk	-10.6126
▁handsome	-10.6132
▁10/10	-10.6145
▁Walter	-10.6146
▁Tarzan	-10.6175
▁convention	-10.6175
▁erotic	-10.6175
▁Cinema	-10.6175
▁multi	-10.6175
▁slap	-10.6176
▁Ryan	-10.6176
▁wrap	-10.6176
After	-10.6179
▁section	-10.6183
▁sentimental	-10.6187
▁semi	-10.6207
▁asleep	-10.6226
▁lousy	-10.6226
plot	-10.6232
▁Bond	-10.6258
▁Victoria	-10.6276
▁technology	-10.6276
▁distribut	-10.6276
▁statement	-10.629
▁auto	-10.6323
▁rebel	-10.6325
ENT	-10.6326
▁Hitchcock	-10.6327
▁zero	-10.6327
▁Power	-10.6332
▁Jennifer	-10.6378
▁Murphy	-10.6378
▁service	-10.6378
▁yeah	-10.6378
▁theatrical	-10.6378
▁ancient	-10.6378
▁incident	-10.6378
▁Lewis	-10.6378
▁kiss	-10.6379
▁bond	-10.638
▁evidence	-10.6429
▁motivation	-10.6429
▁veteran	-10.6429
▁promising	-10.6429
▁balance	-10.6429
▁harsh	-10.6429
▁depiction	-10.6442
Halloween	-10.6481
▁THAT	-10.6481
▁identity	-10.6481
▁feet	-10.6482
▁anime	-10.6484
▁exploitation	-10.6487
class	-10.6488
▁horribly	-10.6532
▁qualities	-10.6532
▁unintentional	-10.6532
▁offensive	-10.6532
▁wound	-10.6533
▁Plus	-10.6535
▁stalk	-10.6539
▁Anderson	-10.6585
▁dubbed	-10.6586
▁Russell	-10.6586
walk	-10.6604
▁Game	-10.6612
▁Europe	-10.6626
▁intellectual	-10.6637
▁nine	-10.6642
▁Edward	-10.6646
▁danger	-10.6687
▁excitement	-10.669
▁welcome	-10.669
▁convict	-10.6694
▁saving	-10.6697
Chris	-10.6698
▁sitcom	-10.67
▁winner	-10.67
▁unfortunate	-10.6705
▁alcohol	-10.6742
▁Anyone	-10.6743
bbed	-10.6745
▁solve	-10.6748
bility	-10.6763
▁MOVIE	-10.6796
▁Pacino	-10.6796
▁nominated	-10.6796
▁crude	-10.6802
▁Pitt	-10.6802
▁Francis	-10.6849
serving	-10.6849
stead	-10.6863
▁Africa	-10.6874
▁Festival	-10.6903
▁glimpse	-10.6903
▁ludicrous	-10.6903
▁revolve	-10.6903
▁vague	-10.6903
▁awake	-10.6904
▁Super	-10.6908
▁Superman	-10.6909
!!!!!!	-10.6916
▁category	-10.6957
▁explosion	-10.6957
▁Columbo	-10.6957
▁Nancy	-10.6957
▁border	-10.6957
▁subplot	-10.6958
▁execution	-10.7011
▁Wilson	-10.7011
▁blend	-10.7012
▁jerk	-10.7013
▁Sadly	-10.7013
▁Year	-10.7018
written	-10.7024
▁baseball	-10.7066
▁significant	-10.7066
▁struggling	-10.7066
▁atrocious	-10.7066
▁heaven	-10.7066
▁sudden	-10.7084
▁Russ	-10.712
▁obsessed	-10.7121
▁purchase	-10.7121
▁treasure	-10.7121
▁uninteresting	-10.7121
▁Sinatra	-10.7121
▁prevent	-10.7121
▁Water	-10.7124
▁bullet	-10.7128
▁merit	-10.7134
title	-10.7145
▁Music	-10.7153
▁private	-10.7176
▁Texas	-10.7176
▁creator	-10.7176
▁scale	-10.7176
▁false	-10.7176
▁Irish	-10.7182
▁Powell	-10.7182
▁criticism	-10.7185
▁photo	-10.7232
▁Philip	-10.7234
▁Susan	-10.7234
▁tele	-10.7236
▁upset	-10.7249
motion	-10.726
▁Vietnam	-10.7288
▁Again	-10.7288
▁task	-10.729
Anyway	-10.7303
▁severe	-10.7358
including	-10.736
▁Saturday	-10.74
▁assassin	-10.74
▁excess	-10.74
▁slave	-10.7401
▁ironic	-10.7404
Definitely	-10.7457
▁VERY	-10.7457
▁contemporary	-10.7457
▁plague	-10.7457
▁Oliver	-10.7457
▁multiple	-10.7457
▁capital	-10.7457
▁prior	-10.7458
▁creep	-10.7473
▁frightening	-10.7514
▁department	-10.7514
▁bodies	-10.7514
▁forgettable	-10.7514
▁Actually	-10.7572
▁continuity	-10.7572
▁frankly	-10.7572
▁associate	-10.7572
▁reputation	-10.7572
▁gentle	-10.7572
▁surface	-10.7572
Star	-10.7603
▁Freeman	-10.7629
▁narration	-10.7629
▁stumble	-10.7629
▁glass	-10.763
▁supernatural	-10.763
▁prime	-10.7634
▁finger	-10.7641
▁relation	-10.7687
▁Picture	-10.7688
▁propaganda	-10.7688
▁sensitive	-10.7688
▁reject	-10.7688
▁Sunday	-10.7688
▁equal	-10.7709
▁California	-10.7746
▁according	-10.7746
▁politics	-10.7746
▁unconvincing	-10.7746
▁virtually	-10.7746
▁subtitles	-10.7746
▁amazed	-10.7746
▁Evil	-10.7746
▁honor	-10.7747
▁loyal	-10.7747
▁tradition	-10.7801
▁mainstream	-10.7805
▁Captain	-10.7805
▁dirty	-10.7805
▁distinct	-10.7805
▁Dream	-10.7805
▁Devil	-10.7835
▁Especially	-10.7864
▁dinosaur	-10.7864
▁Sometimes	-10.7864
▁river	-10.7866
▁lift	-10.7868
▁settle	-10.7889
▁landscape	-10.7924
▁mirror	-10.7924
▁stomach	-10.7924
▁haunting	-10.7924
▁emerge	-10.7925
▁arrest	-10.7925
▁defeat	-10.7927
▁oppos	-10.7936
▁invite	-10.7976
▁surf	-10.7983
▁Lugosi	-10.7983
▁stereotypical	-10.7983
▁afternoon	-10.7984
▁BBC	-10.7984
▁angel	-10.7991
known	-10.8
▁Apparently	-10.8044
▁overwhelm	-10.8044
▁MGM	-10.8044
From	-10.8068
drama	-10.8069
▁India	-10.807
▁Eye	-10.8086
▁slapstick	-10.8104
▁tremendous	-10.8104
▁haunted	-10.8104
Just	-10.813
called	-10.8154
▁Lincoln	-10.8165
▁sympathy	-10.8165
▁werewolf	-10.8165
▁gritty	-10.8165
▁Finally	-10.8166
▁1990	-10.8227
▁trilogy	-10.8227
▁swear	-10.8227
▁mature	-10.8227
▁health	-10.8229
▁introduce	-10.8235
▁Phil	-10.8237
empt	-10.8246
>	-10.8288
▁Branagh	-10.8288
▁football	-10.8288
▁jealous	-10.8288
▁method	-10.8288
▁worry	-10.8289
▁United	-10.8289
▁expose	-10.829
▁twin	-10.8292
world	-10.8316
▁description	-10.835
▁understood	-10.835
▁teeth	-10.835
▁cheese	-10.8351
▁Count	-10.8354
▁irre	-10.8367
Another	-10.838
▁obnoxious	-10.8413
▁stolen	-10.8413
▁remove	-10.8413
▁ANY	-10.8413
▁gather	-10.8413
▁overcome	-10.8414
▁outfit	-10.8416
▁slip	-10.8418
▁Patrick	-10.8476
▁widow	-10.8476
▁Rachel	-10.8476
Although	-10.8506
▁complicated	-10.8539
▁education	-10.8539
▁Brooks	-10.8539
▁Child	-10.8539
▁Donald	-10.854
▁freedom	-10.8541
▁Old	-10.8542
original	-10.857
▁competent	-10.8603
▁international	-10.8603
▁sacrifice	-10.8603
▁heavily	-10.8603
▁spark	-10.8603
▁Blue	-10.8606
▁shoe	-10.8606
cult	-10.862
▁gruesome	-10.8667
▁LOVE	-10.8667
▁Mexican	-10.8667
▁disbelief	-10.8667
▁Hoffman	-10.8667
▁chief	-10.8667
▁sheriff	-10.8667
▁General	-10.8668
▁betray	-10.8668
something	-10.8699
SPOILER	-10.8721
▁breathtaking	-10.8731
▁horrific	-10.8731
▁reminiscen	-10.8731
▁evident	-10.8731
▁borrow	-10.8732
▁funnier	-10.8732
▁contact	-10.8732
▁Brando	-10.8732
▁argument	-10.8796
▁disagree	-10.8796
▁guarantee	-10.8796
▁profound	-10.8796
▁contract	-10.8796
▁interaction	-10.8796
▁network	-10.8796
▁racist	-10.8797
provoking	-10.8797
▁guest	-10.8797
Watch	-10.883
▁boot	-10.8832
ification	-10.885
▁fabulous	-10.8862
▁pregnant	-10.8862
▁quirky	-10.8862
▁strict	-10.8862
▁Friday	-10.8862
▁Bourne	-10.8862
▁Otherwise	-10.8862
▁basis	-10.8864
▁security	-10.8928
▁storytelling	-10.8928
▁uniform	-10.8928
▁summary	-10.8928
▁ticket	-10.8928
▁changing	-10.8928
▁advise	-10.8928
▁stylish	-10.8994
Character	-10.8994
▁courage	-10.8994
▁Sandler	-10.8994
▁Cooper	-10.8994
▁official	-10.8994
Enter	-10.9049
▁advantage	-10.906
▁variety	-10.906
▁Sidney	-10.9061
▁cultural	-10.9061
▁render	-10.9062
Every	-10.9099
▁Virgin	-10.9128
▁confess	-10.9128
▁status	-10.9128
▁Seagal	-10.9128
▁Sarah	-10.9128
▁lonely	-10.9128
▁ashamed	-10.9129
▁urge	-10.9133
▁Mexico	-10.9195
▁poignant	-10.9195
▁Yeah	-10.9195
▁buddy	-10.9195
▁goofy	-10.9195
▁measure	-10.9195
▁extent	-10.9197
▁hysterical	-10.9263
▁benefit	-10.9263
▁beloved	-10.9263
▁President	-10.9263
▁Dennis	-10.9332
▁Matthau	-10.9332
▁vivid	-10.9332
▁blatant	-10.9332
▁cousin	-10.9332
▁Basically	-10.9332
▁extraordinary	-10.9401
▁inhabit	-10.9401
▁introduction	-10.9401
▁obsession	-10.9401
▁assistant	-10.9401
▁access	-10.9401
▁guide	-10.9401
Brazil	-10.9401
▁Besides	-10.9402
Michael	-10.9443
▁quest	-10.9464
▁Sutherland	-10.947
▁turkey	-10.947
▁holiday	-10.947
▁robber	-10.947
▁demonstrate	-10.947
▁striking	-10.947
▁nomination	-10.947
▁wreck	-10.947
▁lazy	-10.947
Spoiler	-10.947
▁lyric	-10.9471
▁plea	-10.9511
▁universe	-10.954
▁error	-10.954
▁damage	-10.954
▁timing	-10.954
▁horrendous	-10.961
▁magazine	-10.961
▁climb	-10.961
▁pursue	-10.961
▁Winter	-10.9611
▁tiny	-10.9611
▁tongue	-10.9613
▁vast	-10.9614
stitution	-10.9681
▁Stanwyck	-10.9681
▁outrageous	-10.9681
▁sleazy	-10.9681
▁retarded	-10.9681
▁shark	-10.9681
▁queen	-10.9682
0,000	-10.9718
▁cancel	-10.9734
▁portrait	-10.9753
▁uncomfortable	-10.9753
▁enhance	-10.9753
▁relax	-10.9753
▁cloth	-10.981
▁atmospheric	-10.9825
▁virgin	-10.9825
▁triumph	-10.9825
▁concert	-10.9825
▁urban	-10.9825
▁Phillip	-10.9825
▁countries	-10.9825
▁adopt	-10.9826
▁split	-10.9827
▁Vampire	-10.9897
▁confusion	-10.9897
▁corpse	-10.9897
▁divorce	-10.9897
▁subsequent	-10.9897
▁Holmes	-10.9897
▁plastic	-10.9897
▁Channel	-10.9897
▁prince	-10.9897
▁Vega	-10.9897
▁lust	-10.9914
▁Jessica	-10.997
▁dynamic	-10.997
▁encourage	-10.997
▁thumb	-10.997
▁Actor	-10.997
▁steam	-10.9971
▁Leslie	-10.9971
▁disturb	-10.9982
direct	-11.002
Paul	-11.0023
▁credibility	-11.0044
▁happiness	-11.0044
▁homosexual	-11.0044
▁Chuck	-11.0044
▁generate	-11.0044
▁Ralph	-11.0044
▁FBI	-11.0044
▁creation	-11.0044
Excellent	-11.0118
▁blockbuster	-11.0118
▁necessarily	-11.0118
▁principal	-11.0118
▁sinister	-11.0118
▁Chaplin	-11.0118
▁Flynn	-11.0118
▁smooth	-11.0118
▁fortune	-11.0118
▁endearing	-11.0118
▁firm	-11.0119
▁corner	-11.0119
▁Bollywood	-11.0192
▁REALLY	-11.0192
▁imaginative	-11.0192
▁terrifying	-11.0192
▁Widmark	-11.0192
▁intensity	-11.0192
▁Claire	-11.0192
▁Nelson	-11.0192
▁BAD	-11.0193
▁devil	-11.0193
▁Derek	-11.0193
▁Elvis	-11.0193
▁medical	-11.0196
▁cringe	-11.0211
▁Hawk	-11.0211
horror	-11.0246
sophisticated	-11.0268
▁appalling	-11.0268
▁companion	-11.0268
▁ensemble	-11.0268
▁dubbing	-11.0268
▁monkey	-11.0268
▁Israel	-11.0268
▁WWII	-11.0343
▁Curtis	-11.0343
▁Simpson	-11.0343
▁jungle	-11.0343
▁investigate	-11.0343
▁Satan	-11.0346
▁Cuba	-11.0354
from	-11.0372
▁franchise	-11.042
▁Arnold	-11.042
▁Cusack	-11.042
▁Ghost	-11.042
▁credible	-11.042
▁Police	-11.042
when	-11.0478
▁explicit	-11.0497
▁splendid	-11.0497
▁Jewish	-11.0497
▁lovable	-11.0497
▁Stanley	-11.0497
▁Heaven	-11.0497
▁eerie	-11.0497
▁disappoint	-11.0524
▁Church	-11.0574
▁Michelle	-11.0574
▁Universal	-11.0574
▁identify	-11.0574
▁superficial	-11.0574
▁Probably	-11.0574
▁sketch	-11.0574
▁Family	-11.0574
▁trauma	-11.0574
▁Brenda	-11.0574
▁shake	-11.058
▁fianc	-11.0631
▁enormous	-11.0652
▁nowadays	-11.0652
▁tribute	-11.0652
Titanic	-11.0652
▁racism	-11.0652
▁Friend	-11.0652
▁smoke	-11.0652
▁Silver	-11.0652
▁portion	-11.0653
▁showcase	-11.0653
▁promote	-11.0654
▁Earl	-11.0689
▁expensive	-11.0731
▁incoherent	-11.0731
▁sneak	-11.0731
▁Glover	-11.0731
▁library	-11.0731
▁president	-11.0731
▁ultra	-11.0731
llusion	-11.076
▁adequate	-11.081
▁contribute	-11.081
▁journalist	-11.081
▁disguise	-11.081
▁refuses	-11.081
▁afford	-11.081
▁enemy	-11.081
▁chuckle	-11.0811
▁resort	-11.0811
▁redeem	-11.0829
▁happily	-11.089
▁practice	-11.089
▁parallel	-11.089
▁Bettie	-11.089
▁underground	-11.089
▁mechanic	-11.089
▁shift	-11.0892
▁Catholic	-11.0971
▁backdrop	-11.0971
▁ingredient	-11.0971
▁vacation	-11.0971
▁throat	-11.0971
*1/2	-11.0971
▁virus	-11.0971
▁Falk	-11.0972
▁float	-11.0981
▁Lauren	-11.1013
▁immense	-11.1052
▁Reynolds	-11.1052
▁Spielberg	-11.1052
▁executive	-11.1052
▁professor	-11.1052
▁caricature	-11.1052
▁scratch	-11.1052
▁wheel	-11.1052
▁translate	-11.1057
▁snap	-11.1078
characterization	-11.1096
▁exercise	-11.1134
▁revelation	-11.1134
▁Gabriel	-11.1134
▁scheme	-11.1134
▁Woman	-11.1135
▁deliberate	-11.1217
▁fulfill	-11.1217
▁innocence	-11.1217
▁installment	-11.1217
▁prostitute	-11.1217
▁response	-11.1217
▁Dragon	-11.1217
▁Vincent	-11.1217
▁Hudson	-11.1217
▁Matrix	-11.13
▁Muslim	-11.13
▁knife	-11.13
▁newspaper	-11.13
▁unforgettable	-11.13
▁custom	-11.13
▁attached	-11.13
▁puppet	-11.13
▁reunion	-11.1301
▁irony	-11.1301
piece	-11.1372
David	-11.1372
script	-11.1375
▁Hamilton	-11.1384
conceived	-11.1384
▁School	-11.1384
▁homage	-11.1384
▁dinner	-11.1384
▁wicked	-11.1385
▁ABC	-11.1385
▁Doctor	-11.1469
▁Lloyd	-11.1469
▁controversial	-11.1469
▁ourselves	-11.1469
▁Canada	-11.1469
▁detract	-11.147
▁Laura	-11.1471
AVE	-11.1513
▁threat	-11.1543
▁Would	-11.1554
▁elaborate	-11.1554
▁survivor	-11.1554
▁Carpenter	-11.1554
▁Elvira	-11.1554
▁Summer	-11.1555
Maybe	-11.163
▁Karloff	-11.1641
▁Scooby	-11.1641
▁metaphor	-11.1641
▁eager	-11.1641
▁Consider	-11.1641
▁nurse	-11.1641
▁slim	-11.1647
video	-11.1718
▁pseudo	-11.1728
▁Catherine	-11.1728
▁medium	-11.1728
▁essence	-11.1728
Unfortunately	-11.1806
▁favour	-11.1813
▁circle	-11.1815
▁curiosity	-11.1815
▁financial	-11.1815
▁relevant	-11.1815
▁electric	-11.1815
▁montage	-11.1815
▁sidekick	-11.1815
▁Felix	-11.1815
▁ruthless	-11.1815
▁Dorothy	-11.1904
▁Secret	-11.1904
▁believing	-11.1904
▁brilliance	-11.1904
▁generous	-11.1904
▁infamous	-11.1904
▁obscure	-11.1904
▁psychiatrist	-11.1904
▁resolution	-11.1904
▁restaurant	-11.1904
▁servant	-11.1904
▁Astaire	-11.1904
▁website	-11.1904
▁Cagney	-11.1904
▁miserably	-11.1904
▁engine	-11.1904
▁menacing	-11.1904
▁Laurel	-11.1904
▁liberal	-11.1904
▁suspend	-11.1993
▁Brosnan	-11.1993
▁easier	-11.1993
▁investigation	-11.1993
▁dentist	-11.1993
▁thirty	-11.1993
▁struck	-11.1993
▁2006	-11.1993
▁suburb	-11.1993
enchant	-11.2008
▁recogniz	-11.2073
Director	-11.2077
▁alternate	-11.2083
▁captivating	-11.2083
▁league	-11.2083
▁uninspired	-11.2083
▁unpleasant	-11.2083
▁buried	-11.2083
▁Leonard	-11.2083
▁smug	-11.2083
Scream	-11.2083
▁cannibal	-11.2174
▁conclude	-11.2174
▁eccentric	-11.2174
▁censor	-11.2174
▁nonetheless	-11.2174
▁Korean	-11.2174
utili	-11.2213
▁cowboy	-11.2266
▁fifteen	-11.2266
▁sensation	-11.2266
▁Video	-11.2266
▁concentrate	-11.2266
▁1/2	-11.2267
▁Modesty	-11.2358
▁enthusiast	-11.2358
▁crisis	-11.2359
▁smash	-11.2359
▁definite	-11.2415
OUT	-11.2431
developed	-11.2449
▁Verhoeven	-11.2452
▁announce	-11.2452
▁artificial	-11.2452
▁competition	-11.2452
▁exaggerated	-11.2452
▁clown	-11.2452
▁Kirk	-11.2452
▁dimension	-11.2522
thriller	-11.2544
▁slaughter	-11.2546
▁accused	-11.2546
▁ambitious	-11.2546
▁choreography	-11.2546
▁frustrated	-11.2546
▁Margaret	-11.2546
▁elderly	-11.2546
▁invisible	-11.2546
▁album	-11.2546
▁Miike	-11.2546
▁destruction	-11.2546
