<unk>	0
<s>	0
</s>	0
s	-3.29178
▁the	-3.44082
,	-3.52459
.	-3.61797
▁a	-3.94386
▁and	-4.0815
▁of	-4.14992
▁to	-4.18769
'	-4.2729
▁is	-4.44157
br	-4.4624
▁	-4.48834
▁/>	-4.49531
▁in	-4.55803
t	-4.591
▁it	-4.74684
▁I	-4.76671
▁that	-4.87025
▁this	-5.01595
<	-5.04917
ed	-5.0796
ing	-5.10287
-	-5.24606
▁was	-5.25422
▁movie	-5.30255
d	-5.32061
▁for	-5.33921
▁with	-5.37238
▁film	-5.38379
y	-5.46736
▁as	-5.48339
.<	-5.49581
ly	-5.53984
▁but	-5.56299
▁The	-5.58734
▁on	-5.59943
▁(	-5.65003
▁you	-5.67723
▁"	-5.68378
▁be	-5.68568
▁are	-5.74557
▁not	-5.7582
▁his	-5.78978
▁have	-5.79161
er	-5.81203
▁he	-5.85065
"	-5.85329
n	-5.8884
▁one	-5.89958
e	-5.94404
re	-5.99658
)	-6.01297
▁an	-6.0231
▁all	-6.02586
▁by	-6.03622
▁who	-6.06064
a	-6.07261
m	-6.08394
▁at	-6.1077
▁like	-6.13133
▁so	-6.14297
▁from	-6.15018
I	-6.19451
▁they	-6.19956
▁out	-6.24095
▁her	-6.27038
▁has	-6.28194
▁or	-6.29026
▁about	-6.29316
r	-6.30856
al	-6.31001
▁just	-6.32411
▁It	-6.37787
in	-6.39806
▁can	-6.40777
▁some	-6.43328
▁good	-6.43969
▁more	-6.47283
p	-6.48914
or	-6.49342
▁A	-6.5016
The	-6.50913
▁up	-6.51932
g	-6.52453
!	-6.52625
?	-6.53111
▁very	-6.53401
o	-6.54146
es	-6.55476
l	-6.55533
le	-6.56018
▁me	-6.56095
▁time	-6.56261
▁what	-6.56689
▁would	-6.58971
▁see	-6.6223
▁no	-6.64351
▁when	-6.64706
▁there	-6.65939
▁story	-6.66079
▁S	-6.66734
▁she	-6.67302
b	-6.67769
...	-6.68651
A	-6.69009
▁had	-6.69078
i	-6.69724
▁only	-6.69989
▁even	-6.70543
▁really	-6.70835
c	-6.71366
u	-6.71689
▁their	-6.71709
▁were	-6.72266
ve	-6.73399
▁if	-6.73533
▁my	-6.73646
▁which	-6.75066
ra	-6.75988
en	-6.79715
:	-6.79766
w	-6.80161
▁do	-6.80334
S	-6.82457
ri	-6.82619
▁than	-6.82909
an	-6.84208
▁we	-6.85589
▁re	-6.86627
▁will	-6.86924
▁much	-6.87361
ic	-6.877
▁been	-6.88248
▁get	-6.88372
▁B	-6.89854
f	-6.8997
on	-6.90342
▁into	-6.9084
▁-	-6.91285
▁This	-6.92091
▁other	-6.93266
▁well	-6.93863
ll	-6.93905
it	-6.9397
▁him	-6.94123
▁people	-6.94166
ur	-6.95814
▁great	-6.96721
▁make	-6.97107
▁bad	-6.97111
▁because	-6.97478
se	-6.97479
▁way	-6.98623
st	-6.99444
▁over	-7.00429
▁first	-7.03102
th	-7.03975
▁made	-7.04658
ro	-7.05219
▁could	-7.05686
▁most	-7.06139
▁think	-7.07498
▁C	-7.07698
▁also	-7.09275
▁don	-7.10148
▁how	-7.1052
▁too	-7.10745
▁un	-7.10948
▁know	-7.10967
▁them	-7.11004
▁character	-7.11172
▁any	-7.1268
ar	-7.14288
▁G	-7.14492
▁watch	-7.14585
▁He	-7.15721
▁p	-7.16546
▁g	-7.16782
il	-7.17167
▁show	-7.1777
k	-7.19224
▁plot	-7.19452
h	-7.21484
O	-7.21608
ch	-7.22674
ne	-7.22706
▁characters	-7.22868
▁But	-7.22886
▁love	-7.23083
;	-7.23571
ter	-7.23741
▁seen	-7.24709
▁go	-7.24822
▁f	-7.25612
able	-7.25781
▁two	-7.26142
▁T	-7.26224
▁And	-7.26302
▁being	-7.27679
▁de	-7.27956
▁life	-7.28208
T	-7.28512
▁F	-7.28962
▁never	-7.29499
▁after	-7.295
▁acting	-7.30246
▁little	-7.30468
ce	-7.30604
lo	-7.3074
▁i	-7.30769
▁end	-7.30901
and	-7.3113
▁off	-7.31177
el	-7.31296
This	-7.31312
▁did	-7.31351
▁'	-7.316
▁where	-7.31948
▁many	-7.32352
li	-7.33555
▁then	-7.33616
ie	-7.34224
▁best	-7.34323
▁man	-7.35432
man	-7.35532
▁does	-7.35801
C	-7.35851
▁movies	-7.36288
ent	-7.36829
▁In	-7.37483
▁ever	-7.37621
et	-7.37767
▁better	-7.38227
▁say	-7.38769
).	-7.38793
▁P	-7.38908
E	-7.40031
▁your	-7.40482
▁should	-7.40708
▁W	-7.40858
at	-7.41286
as	-7.41317
D	-7.41965
▁films	-7.42193
),	-7.42778
ation	-7.45605
▁scene	-7.45728
▁back	-7.4576
▁real	-7.46606
M	-7.46961
▁still	-7.4709
is	-7.48292
less	-7.49385
▁K	-7.49749
▁scenes	-7.50033
ir	-7.50132
ity	-7.51186
▁here	-7.51357
ers	-7.51527
▁through	-7.51548
▁<	-7.5252
/	-7.52974
the	-7.53024
ol	-7.53244
▁H	-7.53678
▁such	-7.53756
▁work	-7.54029
▁something	-7.54095
ment	-7.5418
B	-7.55727
ist	-7.57003
▁lot	-7.57275
▁find	-7.5739
ive	-7.58029
▁There	-7.58817
la	-7.59117
id	-7.59307
▁D	-7.59347
▁its	-7.59794
▁doesn	-7.60914
▁thing	-7.61999
um	-7.62067
▁watching	-7.62316
▁part	-7.6387
▁b	-7.64341
▁those	-7.64432
im	-7.65031
ion	-7.6526
▁director	-7.65435
▁didn	-7.65602
▁these	-7.65806
ant	-7.6737
▁M	-7.67738
ma	-7.67985
▁years	-7.68416
▁E	-7.68422
▁actors	-7.68425
de	-7.68601
ul	-7.69936
▁cast	-7.70054
P	-7.70133
▁before	-7.70421
▁few	-7.70599
▁same	-7.71511
me	-7.71852
▁look	-7.72024
▁down	-7.72663
est	-7.72814
▁c	-7.7285
▁though	-7.7333
▁old	-7.73472
x	-7.73558
▁funny	-7.73563
ig	-7.74409
▁want	-7.74441
▁while	-7.74829
ine	-7.75138
▁going	-7.75938
ish	-7.75967
G	-7.76027
▁&	-7.76174
▁again	-7.76341
am	-7.76702
▁actually	-7.76738
▁every	-7.77037
ke	-7.77156
▁why	-7.77178
▁original	-7.7734
ck	-7.77888
▁own	-7.781
ate	-7.78308
▁If	-7.78952
▁bit	-7.79192
▁st	-7.79888
ad	-7.80059
▁nothing	-7.80465
ill	-7.80614
he	-7.80749
▁around	-7.81128
▁makes	-7.81363
ry	-7.81421
co	-7.81522
us	-7.81604
▁fact	-7.82132
▁big	-7.82441
▁quite	-7.82965
W	-7.83086
▁another	-7.8313
▁O	-7.83664
▁far	-7.83867
▁new	-7.84002
▁thought	-7.84024
▁pretty	-7.84138
ian	-7.84205
na	-7.84207
one	-7.84247
▁got	-7.84987
no	-7.85168
ia	-7.85484
ting	-7.85646
ty	-7.85765
▁action	-7.86044
▁seems	-7.8679
▁take	-7.86874
z	-7.87346
▁point	-7.87434
▁right	-7.88961
ver	-7.89193
▁enough	-7.89261
▁world	-7.89394
to	-7.89425
te	-7.89846
▁She	-7.90277
▁things	-7.9033
▁long	-7.90422
up	-7.90556
▁us	-7.90691
▁may	-7.91285
▁co	-7.91288
▁script	-7.91372
▁So	-7.91571
▁give	-7.91595
▁now	-7.91742
age	-7.91994
▁young	-7.92063
ness	-7.93447
R	-7.9412
▁De	-7.94405
ies	-7.94436
ag	-7.94531
▁kind	-7.94666
▁horror	-7.94707
▁2	-7.94876
pe	-7.94921
▁role	-7.95004
▁between	-7.95048
be	-7.9528
▁saw	-7.95903
▁feel	-7.96491
▁always	-7.96529
un	-7.966
▁least	-7.96688
H	-7.96743
▁come	-7.96987
▁reason	-7.97318
▁must	-7.97657
▁fun	-7.97742
sh	-7.98047
▁whole	-7.98125
ni	-7.98367
▁L	-7.98702
▁sp	-7.99111
hi	-7.99185
▁series	-7.99316
▁music	-7.99482
▁19	-8.00071
▁You	-8.00271
▁mo	-8.00332
▁ch	-8.00545
▁book	-8.00817
▁guy	-8.00954
▁both	-8.01013
ain	-8.01335
▁minutes	-8.0144
ally	-8.01461
▁con	-8.01854
▁Ma	-8.02108
ful	-8.02115
▁interesting	-8.02247
▁without	-8.02382
▁performance	-8.02761
▁family	-8.02933
▁last	-8.02991
▁help	-8.03024
▁Re	-8.03122
▁R	-8.0386
▁done	-8.0403
▁La	-8.04068
▁am	-8.04088
▁place	-8.04138
ta	-8.04216
lu	-8.04359
N	-8.04648
ton	-8.04658
▁comedy	-8.0489
▁believe	-8.04965
tic	-8.05149
ance	-8.06341
▁idea	-8.06669
▁almost	-8.07035
▁gets	-8.07152
▁put	-8.07348
▁anything	-8.07561
▁hard	-8.07633
▁might	-8.07736
▁isn	-8.08179
ous	-8.08197
--	-8.08237
▁worth	-8.08394
▁rather	-8.08619
ca	-8.09184
ted	-8.09708
▁r	-8.09752
▁dis	-8.10031
U	-8.10429
▁sure	-8.10726
5	-8.10727
▁since	-8.10948
▁sh	-8.11039
▁Le	-8.1132
▁Ro	-8.1144
K	-8.11481
▁found	-8.11502
F	-8.11887
son	-8.11997
▁Ba	-8.12604
ru	-8.12659
ge	-8.12691
ha	-8.1272
mo	-8.12941
▁times	-8.13075
1	-8.13444
▁pro	-8.1351
▁audience	-8.1352
▁hand	-8.13567
L	-8.13947
▁St	-8.14186
▁They	-8.14292
▁under	-8.14522
op	-8.14786
▁woman	-8.15399
▁use	-8.1577
▁making	-8.15894
▁screen	-8.15909
▁away	-8.16259
▁girl	-8.16606
It	-8.16861
▁probably	-8.17024
▁An	-8.17094
▁read	-8.17099
3	-8.1744
min	-8.17724
▁worst	-8.18091
▁As	-8.18107
▁main	-8.18246
ci	-8.18546
▁We	-8.18712
▁play	-8.1873
▁pre	-8.18796
if	-8.19343
▁day	-8.19739
▁TV	-8.20252
▁keep	-8.20456
ling	-8.21128
Y	-8.21137
▁set	-8.21281
▁That	-8.21487
om	-8.21561
▁let	-8.21847
▁w	-8.21853
▁po	-8.21962
ated	-8.21973
vi	-8.2201
▁course	-8.22065
▁ex	-8.22116
▁job	-8.22171
▁For	-8.2223
ard	-8.22367
po	-8.22481
ap	-8.22747
▁What	-8.2278
▁To	-8.22863
▁goes	-8.23389
▁10	-8.23522
▁American	-8.23715
qu	-8.23937
▁trying	-8.24031
dy	-8.24119
▁No	-8.2426
ho	-8.24278
▁Ca	-8.24318
ff	-8.24428
▁version	-8.24528
▁V	-8.24602
ick	-8.24635
▁actor	-8.25106
▁mind	-8.25369
▁money	-8.25381
▁DVD	-8.25572
▁different	-8.25611
▁h	-8.26036
▁Be	-8.26433
▁ending	-8.26615
bo	-8.26941
ok	-8.27068
▁each	-8.2707
▁our	-8.27208
▁sense	-8.27374
▁enjoy	-8.27538
ip	-8.27607
▁ba	-8.27835
per	-8.27837
▁played	-8.27839
▁high	-8.27932
▁seem	-8.28201
▁comes	-8.28239
pp	-8.28429
▁said	-8.28448
▁fan	-8.28459
▁anyone	-8.28469
▁ma	-8.2885
▁car	-8.29045
(	-8.2951
oo	-8.2956
mi	-8.29727
▁recommend	-8.29863
v	-8.29921
ner	-8.29922
▁special	-8.30034
▁effects	-8.30842
ster	-8.30856
▁yet	-8.31199
",	-8.31519
ot	-8.3159
▁half	-8.32191
▁Ha	-8.32362
▁short	-8.32419
7	-8.32438
▁together	-8.32641
▁looks	-8.32973
▁having	-8.32988
ti	-8.33027
ary	-8.33055
▁watched	-8.33194
8	-8.3343
▁tr	-8.33626
▁head	-8.33842
ac	-8.34172
ud	-8.3475
."	-8.34966
▁himself	-8.35151
4	-8.35173
▁Do	-8.35393
V	-8.35928
▁low	-8.36085
▁nice	-8.36197
▁left	-8.36664
▁year	-8.3669
▁understand	-8.36782
▁wife	-8.36861
▁looking	-8.36879
▁John	-8.36926
▁Mo	-8.37117
▁hope	-8.37195
▁laugh	-8.37823
▁need	-8.37834
▁else	-8.37885
der	-8.37994
▁rest	-8.38036
ba	-8.38399
▁start	-8.38483
▁sound	-8.38499
▁plays	-8.38783
▁father	-8.38799
▁Ch	-8.38873
▁takes	-8.39007
▁wasn	-8.39031
nd	-8.39067
▁second	-8.39279
▁true	-8.39778
2	-8.3997
6	-8.40117
▁war	-8.4032
▁classic	-8.40422
land	-8.4078
ron	-8.40839
▁human	-8.40857
▁someone	-8.41268
▁beautiful	-8.41321
▁face	-8.41321
ring	-8.41852
▁three	-8.42211
ee	-8.42288
".	-8.42289
ven	-8.4229
▁excellent	-8.42958
▁e	-8.42967
va	-8.43024
▁star	-8.43328
▁3	-8.43358
J	-8.43367
ence	-8.43456
▁Mar	-8.43552
king	-8.43649
▁name	-8.44003
▁Lo	-8.44006
ism	-8.4433
▁Ra	-8.44359
▁home	-8.44374
ph	-8.44802
▁care	-8.44868
▁bo	-8.44902
▁com	-8.4491
▁mean	-8.44917
▁later	-8.45033
▁everything	-8.45105
▁house	-8.45394
red	-8.4581
▁Co	-8.4596
ating	-8.46091
che	-8.46207
▁piece	-8.46212
fi	-8.46257
In	-8.4646
▁Ho	-8.4654
mer	-8.46587
▁shows	-8.46645
▁seeing	-8.46703
▁used	-8.46728
iv	-8.46745
▁once	-8.46809
▁boy	-8.47051
▁during	-8.47057
▁1	-8.47357
ever	-8.47491
▁v	-8.47689
▁When	-8.48329
▁line	-8.48605
▁remember	-8.48774
▁camera	-8.48852
▁especially	-8.48904
▁live	-8.48965
side	-8.49062
▁night	-8.49262
▁shot	-8.49349
▁light	-8.49482
▁cr	-8.49501
ber	-8.49536
all	-8.49687
▁less	-8.49699
0	-8.49779
▁close	-8.49816
▁simply	-8.50076
end	-8.50186
▁everyone	-8.50294
▁murder	-8.50344
▁person	-8.50427
▁wonderful	-8.50445
for	-8.50446
▁wrong	-8.50614
ak	-8.5073
do	-8.51279
▁act	-8.51318
ial	-8.5176
▁given	-8.5177
▁lack	-8.52015
▁attempt	-8.52245
we	-8.52703
cy	-8.52765
com	-8.52776
▁Hollywood	-8.52805
▁Car	-8.52911
▁either	-8.52933
▁production	-8.53014
▁--	-8.53065
out	-8.53132
ow	-8.53417
▁couple	-8.53487
ight	-8.53502
▁art	-8.53522
▁cl	-8.53612
▁en	-8.53654
▁death	-8.53678
▁heart	-8.53703
ward	-8.53928
▁top	-8.54169
▁picture	-8.54183
▁turn	-8.54212
ther	-8.5431
▁Not	-8.54446
▁won	-8.5458
▁supposed	-8.54705
em	-8.54883
▁Al	-8.54924
act	-8.5504
▁poor	-8.55127
9	-8.55571
▁Pa	-8.55631
▁Man	-8.55633
▁stupid	-8.55875
▁U	-8.5595
led	-8.5599
▁completely	-8.56261
und	-8.56677
▁kids	-8.56732
▁My	-8.56898
ect	-8.56925
▁men	-8.5693
▁tell	-8.57053
▁However	-8.57643
▁lead	-8.57741
▁came	-8.579
▁try	-8.57962
▁kill	-8.58057
▁near	-8.58181
ably	-8.58314
▁black	-8.58321
▁li	-8.5855
mon	-8.58577
▁N	-8.58599
▁until	-8.58913
▁One	-8.59225
ture	-8.59261
▁small	-8.59346
▁title	-8.59346
ger	-8.59648
▁Li	-8.59749
▁sex	-8.59839
▁flick	-8.59952
▁boring	-8.60113
▁performances	-8.60256
▁run	-8.60353
▁case	-8.60385
pi	-8.60386
old	-8.60465
▁instead	-8.60662
mb	-8.61011
▁full	-8.61073
go	-8.61196
▁video	-8.6121
▁awful	-8.61302
▁sort	-8.61308
os	-8.61381
con	-8.61547
▁truly	-8.62183
▁school	-8.62333
▁women	-8.62333
▁budget	-8.62441
ell	-8.62768
▁become	-8.63544
▁Me	-8.63549
▁itself	-8.63554
ake	-8.63856
ach	-8.63976
▁move	-8.64289
▁along	-8.6448
▁All	-8.64698
/10	-8.648
▁friend	-8.64856
▁example	-8.65257
▁guess	-8.65569
▁friends	-8.65697
ious	-8.65976
ut	-8.65979
▁Bo	-8.6602
▁Po	-8.6604
▁episode	-8.66129
▁game	-8.66372
▁dialogue	-8.66521
▁moments	-8.66879
▁perfect	-8.67231
od	-8.67342
▁doing	-8.67567
▁di	-8.67837
ack	-8.67849
▁playing	-8.67977
▁Di	-8.68059
ler	-8.68079
▁getting	-8.68536
▁THE	-8.68754
▁du	-8.68958
tion	-8.69452
▁early	-8.69568
▁problem	-8.69636
ction	-8.69752
ley	-8.69829
▁hit	-8.69848
ep	-8.70001
▁ta	-8.70159
▁Th	-8.70209
▁dr	-8.70487
▁sad	-8.70489
▁New	-8.70563
▁drama	-8.70943
▁late	-8.71078
If	-8.71629
▁definitely	-8.71747
▁entire	-8.71979
ped	-8.72001
▁Well	-8.72329
▁At	-8.72442
rr	-8.72639
▁often	-8.72751
▁stand	-8.72875
▁next	-8.72878
▁feeling	-8.72996
av	-8.73036
▁absolutely	-8.73136
▁terrible	-8.73215
ade	-8.73234
ical	-8.73234
gu	-8.73665
▁dead	-8.73738
▁liked	-8.73805
▁couldn	-8.74117
▁Some	-8.74164
▁favorite	-8.7441
▁lines	-8.74777
▁experience	-8.7492
sion	-8.74948
ker	-8.75002
light	-8.75189
▁War	-8.7522
▁cinema	-8.75226
▁number	-8.75265
ise	-8.75346
▁style	-8.75353
▁sub	-8.75418
▁against	-8.75426
▁stars	-8.75532
▁waste	-8.75564
ex	-8.75586
▁strong	-8.75611
▁already	-8.75784
▁vi	-8.75826
way	-8.76123
ite	-8.76211
my	-8.76214
There	-8.76297
▁side	-8.76398
▁His	-8.76437
bb	-8.76469
▁dark	-8.76489
▁past	-8.76738
▁went	-8.76785
▁genre	-8.76833
by	-8.76834
like	-8.7688
▁mis	-8.7708
▁felt	-8.77184
▁gives	-8.77244
▁however	-8.77293
▁although	-8.77536
ey	-8.77931
▁ha	-8.77956
▁Mr	-8.78252
▁cut	-8.78299
▁fine	-8.78368
▁final	-8.78568
▁beginning	-8.78606
▁fight	-8.78618
▁learn	-8.78777
▁amazing	-8.78956
ld	-8.78984
ile	-8.79049
▁entertaining	-8.79158
▁per	-8.79216
di	-8.79374
fully	-8.79619
▁mother	-8.79719
▁humor	-8.80005
▁deal	-8.80154
▁direction	-8.80245
▁Har	-8.80379
wa	-8.80656
pa	-8.80791
▁view	-8.80818
les	-8.80884
▁matter	-8.80946
▁ho	-8.81012
▁stop	-8.81077
ook	-8.81116
▁brother	-8.81132
▁Don	-8.81266
▁certainly	-8.81362
vo	-8.81373
▁Sa	-8.81539
▁Even	-8.8162
ear	-8.81641
▁voice	-8.81678
▁maybe	-8.81766
▁written	-8.8184
▁4	-8.81873
cu	-8.82269
lin	-8.8231
*	-8.82412
▁imp	-8.82819
uck	-8.82937
▁seemed	-8.82945
▁follow	-8.83255
▁child	-8.83328
▁worse	-8.83349
▁call	-8.8336
▁o	-8.83617
ren	-8.8371
▁expect	-8.83823
▁killer	-8.83995
ath	-8.84062
▁children	-8.84115
▁change	-8.8418
▁ask	-8.84192
io	-8.84283
▁writing	-8.84477
▁tries	-8.84546
ten	-8.84634
▁blood	-8.84857
▁mu	-8.84903
han	-8.84985
ney	-8.85278
▁Na	-8.85389
but	-8.85398
▁Michael	-8.854
▁fall	-8.85773
▁viewer	-8.85874
▁l	-8.86419
▁rent	-8.86667
ny	-8.86685
ide	-8.86706
▁type	-8.86969
▁self	-8.87162
▁wonder	-8.87224
▁inter	-8.87448
▁lost	-8.87662
▁loved	-8.87912
RE	-8.87942
▁novel	-8.88144
▁save	-8.88154
▁brilliant	-8.88335
ng	-8.88676
▁hero	-8.88747
use	-8.88824
▁Lu	-8.88829
▁myself	-8.88927
▁enjoyed	-8.89283
▁age	-8.89329
our	-8.89499
▁several	-8.89522
que	-8.89548
▁town	-8.89565
ran	-8.89592
cr	-8.89887
▁Ar	-8.89926
▁slow	-8.90166
▁behind	-8.90321
▁history	-8.90324
of	-8.90328
▁question	-8.90345
▁da	-8.90452
her	-8.90607
▁deliver	-8.90925
ev	-8.90951
▁With	-8.91019
time	-8.91091
▁guys	-8.91109
▁relationship	-8.91128
▁quality	-8.91532
▁fo	-8.91582
▁Da	-8.91707
!!	-8.91859
▁wish	-8.92263
▁lives	-8.92264
ator	-8.92287
▁daughter	-8.92347
▁white	-8.92373
▁Mi	-8.92399
!)	-8.92454
tal	-8.92569
ST	-8.9257
▁Ja	-8.92597
▁Wa	-8.92623
▁kid	-8.92702
▁talk	-8.92771
▁becomes	-8.92772
▁totally	-8.92785
▁based	-8.92803
AN	-8.92895
▁called	-8.93031
tch	-8.9307
▁wanted	-8.93137
▁score	-8.9317
▁fans	-8.93184
▁open	-8.93394
▁stuff	-8.93402
▁able	-8.9347
▁hate	-8.93496
▁th	-8.93513
▁Go	-8.93644
▁Du	-8.93763
▁evil	-8.93792
▁la	-8.93827
▁J	-8.93841
▁works	-8.94467
▁throughout	-8.94499
ning	-8.94573
▁son	-8.94604
▁level	-8.95045
▁pass	-8.9521
▁stay	-8.95245
▁situation	-8.95255
low	-8.95342
lan	-8.95401
▁Jo	-8.95664
own	-8.95722
▁others	-8.95843
fa	-8.95934
▁finally	-8.95934
ug	-8.96076
▁talent	-8.96121
▁themselves	-8.96315
▁Fa	-8.9634
ible	-8.96441
▁break	-8.96535
▁etc	-8.96577
ky	-8.96755
▁moment	-8.96814
▁ridiculous	-8.96956
▁wants	-8.97045
ize	-8.97261
ER	-8.97344
▁actress	-8.9745
▁twist	-8.97601
ush	-8.97701
ka	-8.97701
▁turns	-8.97819
▁5	-8.98084
▁gave	-8.98253
fe	-8.9827
so	-8.98317
ue	-8.98437
▁interest	-8.98602
▁strange	-8.98719
cho	-8.99059
▁today	-8.99072
▁After	-8.99107
line	-8.99266
▁musical	-8.99554
▁starts	-8.9961
▁happen	-8.9966
▁heard	-8.99747
▁perhaps	-8.99782
▁Ri	-8.99869
▁decent	-9.00065
▁stories	-9.00224
▁Or	-9.00243
ual	-9.00349
▁j	-9.00393
▁comic	-9.00459
What	-9.00665
▁career	-9.00751
▁add	-9.00809
ned	-9.00871
▁soon	-9.01131
▁realize	-9.01316
!<	-9.01336
▁figure	-9.01338
▁Of	-9.01523
ition	-9.01606
▁present	-9.01621
ates	-9.01684
▁order	-9.01736
▁effort	-9.02012
▁weak	-9.02067
▁While	-9.02172
▁opinion	-9.02464
▁room	-9.0253
row	-9.02551
▁class	-9.02623
▁power	-9.02706
▁crap	-9.02736
▁Also	-9.02759
▁Robert	-9.02844
▁ago	-9.02891
▁horrible	-9.02918
▁form	-9.03105
▁similar	-9.03145
▁Sha	-9.03201
▁days	-9.03263
▁Why	-9.03481
▁thinking	-9.03552
ON	-9.03764
▁happens	-9.0383
▁eyes	-9.03876
▁complete	-9.03897
▁Su	-9.03908
▁hour	-9.03959
▁leave	-9.04049
▁Then	-9.04118
▁sit	-9.04144
▁Ka	-9.04153
▁husband	-9.04292
nk	-9.04314
▁dream	-9.04523
▁(19	-9.04775
▁ten	-9.04778
▁plan	-9.04862
▁Ta	-9.0491
▁lo	-9.04945
▁pick	-9.05168
pre	-9.0519
▁result	-9.05222
▁deep	-9.05347
▁parts	-9.05427
▁pay	-9.05534
▁drive	-9.05552
!"	-9.05697
▁Dr	-9.05699
den	-9.057
gr	-9.05869
ah	-9.05943
▁hold	-9.05981
But	-9.05994
▁Y	-9.0601
au	-9.06114
▁Paul	-9.06213
▁violence	-9.0639
ily	-9.06426
ier	-9.06447
ized	-9.06509
▁group	-9.06626
▁bring	-9.0675
▁involved	-9.06826
▁cannot	-9.07249
▁cheap	-9.07338
istic	-9.07387
▁fl	-9.07506
▁roles	-9.07724
zz	-9.07834
▁local	-9.08063
▁Ne	-9.08277
▁looked	-9.08309
▁simple	-9.08533
▁Je	-9.08544
▁Bar	-9.08691
▁important	-9.08774
▁dance	-9.08798
▁chance	-9.08868
ane	-9.08909
▁count	-9.08937
▁highly	-9.09176
▁comment	-9.09271
▁serious	-9.09349
par	-9.09473
ities	-9.09483
▁extremely	-9.09638
▁grow	-9.10101
▁theater	-9.10152
ble	-9.10168
ki	-9.10315
ory	-9.10392
▁7	-9.10418
▁Just	-9.10466
▁sometimes	-9.10485
▁large	-9.10499
▁non	-9.10638
▁Her	-9.10675
gen	-9.10678
du	-9.10725
▁sta	-9.10735
eg	-9.10856
▁visual	-9.1097
hy	-9.10974
▁image	-9.11002
▁Bu	-9.11158
▁speak	-9.11219
▁coming	-9.11403
▁told	-9.11411
▁song	-9.11463
▁Gu	-9.11538
OR	-9.11588
▁happened	-9.11666
▁feature	-9.11936
▁annoying	-9.1221
▁Oscar	-9.12211
▁Ki	-9.12292
▁explain	-9.1246
▁living	-9.1246
▁hear	-9.12554
lie	-9.12598
▁theme	-9.12599
▁die	-9.12659
da	-9.12748
▁Jack	-9.12749
▁English	-9.12962
▁sequel	-9.12962
▁gun	-9.13063
▁directed	-9.13079
▁obviously	-9.13092
air	-9.13108
▁police	-9.13214
▁James	-9.13217
cent	-9.13306
▁exp	-9.13372
▁clich	-9.13474
ugh	-9.13475
▁somewhat	-9.13522
ja	-9.13591
▁Mc	-9.13624
mm	-9.13772
▁girls	-9.13832
▁killed	-9.14035
who	-9.14077
AR	-9.14155
▁walk	-9.14385
▁Vi	-9.14388
▁Wal	-9.1444
▁hilarious	-9.14483
ham	-9.14535
ically	-9.14594
▁sexual	-9.14763
▁Con	-9.14894
▁How	-9.1493
▁Cr	-9.14995
▁alone	-9.15022
▁wouldn	-9.15049
▁shown	-9.15114
nder	-9.15578
ative	-9.15692
▁value	-9.15768
▁match	-9.15804
over	-9.15825
▁state	-9.15912
▁doubt	-9.16027
▁hours	-9.16056
▁due	-9.16103
▁particularly	-9.1615
▁obvious	-9.16152
▁focus	-9.16288
▁events	-9.16468
▁huge	-9.16548
▁Richard	-9.16687
▁taken	-9.16727
▁pull	-9.16816
▁adult	-9.16816
And	-9.16846
▁writer	-9.16985
▁attention	-9.1716
▁include	-9.17333
▁country	-9.17378
j	-9.17381
▁offer	-9.17422
▁dialog	-9.17583
▁bar	-9.17588
▁female	-9.17596
▁cover	-9.17782
▁exactly	-9.1786
▁Ben	-9.17974
ga	-9.18005
▁cop	-9.18037
▁Now	-9.18105
▁opening	-9.18106
▁subject	-9.18124
▁Ru	-9.18275
▁God	-9.18356
▁discover	-9.18397
day	-9.18403
lock	-9.1856
ctor	-9.18727
200	-9.18766
▁Cl	-9.18881
well	-9.18987
▁talking	-9.19444
ov	-9.19539
▁turned	-9.19566
▁usual	-9.19647
▁four	-9.19682
giving	-9.19805
▁review	-9.19824
▁television	-9.19997
▁stage	-9.20227
rate	-9.20235
▁suspense	-9.20266
▁yourself	-9.20266
▁possible	-9.20266
▁return	-9.20308
▁single	-9.20349
art	-9.20373
▁cool	-9.20468
▁detail	-9.20537
▁jokes	-9.20686
▁Pe	-9.20696
▁cap	-9.20839
▁surprise	-9.20867
▁mention	-9.21041
▁wi	-9.21152
ping	-9.21154
▁week	-9.21181
ette	-9.21275
▁released	-9.21281
▁touch	-9.21339
ric	-9.2135
▁taking	-9.21393
rry	-9.21568
ay	-9.21591
▁villain	-9.21629
head	-9.21662
ang	-9.21671
▁20	-9.21672
▁knew	-9.21904
▁win	-9.22118
▁prove	-9.22134
az	-9.22198
▁typical	-9.22455
▁zombie	-9.22455
▁buy	-9.22462
▁sequence	-9.22638
▁word	-9.2264
▁disappointed	-9.22833
▁saying	-9.22925
▁box	-9.23102
▁scary	-9.23203
▁across	-9.23289
▁mess	-9.23319
▁team	-9.23351
▁despite	-9.23571
▁animation	-9.23849
▁release	-9.23923
▁thriller	-9.23939
▁body	-9.24041
even	-9.24055
▁cat	-9.24094
▁Joe	-9.24096
▁message	-9.24166
▁eye	-9.2417
not	-9.2418
▁started	-9.24269
▁fire	-9.24278
nny	-9.24304
hu	-9.24335
▁running	-9.24439
▁known	-9.24597
▁remind	-9.24697
▁super	-9.24704
gar	-9.2471
kin	-9.2475
ina	-9.25025
ung	-9.25042
ob	-9.25174
▁York	-9.25261
▁sister	-9.25547
▁wait	-9.25564
▁fast	-9.25602
▁na	-9.25709
▁Se	-9.25906
▁storyline	-9.26004
▁emotional	-9.26118
▁Tom	-9.2616
▁gore	-9.26297
▁cinematography	-9.26405
▁meet	-9.26579
▁finds	-9.26715
▁su	-9.26808
▁finish	-9.26983
▁check	-9.26984
▁says	-9.26996
ock	-9.27141
▁problems	-9.27167
▁enjoyable	-9.27172
▁material	-9.27272
▁middle	-9.27272
▁8	-9.27429
▁major	-9.27507
aft	-9.27615
▁easily	-9.27854
▁odd	-9.27869
▁spend	-9.2793
▁supporting	-9.27969
▁bi	-9.28062
My	-9.28066
▁including	-9.2808
yn	-9.28088
▁except	-9.28097
▁difficult	-9.28147
▁mix	-9.2815
▁British	-9.28163
▁predictable	-9.28168
cur	-9.28186
▁provide	-9.2844
which	-9.28499
▁respect	-9.28524
▁dull	-9.28632
▁King	-9.28726
▁straight	-9.28734
▁happy	-9.28734
▁Ga	-9.28749
▁appear	-9.28809
▁Col	-9.28848
ray	-9.29205
▁em	-9.29206
!!!	-9.29236
▁rating	-9.29335
▁season	-9.29353
ions	-9.2946
rk	-9.29565
▁silly	-9.29624
▁David	-9.29815
▁clear	-9.29857
bu	-9.29886
▁songs	-9.29919
▁remain	-9.29921
▁sent	-9.29941
▁fit	-9.29956
ek	-9.30021
▁mar	-9.3007
▁color	-9.3022
▁entertainment	-9.30247
▁among	-9.30259
▁tale	-9.3032
▁Sp	-9.30432
ze	-9.30469
rated	-9.3049
right	-9.30507
▁On	-9.30708
So	-9.30735
▁superb	-9.30832
▁shots	-9.31033
ries	-9.31249
▁Bur	-9.31267
▁miss	-9.31375
▁cartoon	-9.31421
men	-9.31493
off	-9.31544
▁documentary	-9.31732
ties	-9.31799
▁William	-9.31846
fer	-9.31856
range	-9.319
▁pe	-9.31909
mar	-9.32077
▁reality	-9.32077
▁air	-9.32207
")	-9.32261
▁above	-9.32339
▁sur	-9.32371
▁aspect	-9.32376
He	-9.32469
▁actual	-9.32579
▁usually	-9.32782
▁hell	-9.32931
▁Who	-9.32999
▁free	-9.33035
▁im	-9.33047
?)	-9.33081
work	-9.33084
▁Mu	-9.33095
▁future	-9.33264
▁certain	-9.33476
?"	-9.33511
▁previous	-9.33573
cing	-9.33796
▁victim	-9.33871
▁crime	-9.33872
▁clearly	-9.33972
cc	-9.34
cal	-9.34231
wo	-9.34266
▁whi	-9.34295
▁soundtrack	-9.34493
To	-9.34573
▁trans	-9.34684
▁tells	-9.34694
An	-9.34817
▁romantic	-9.35119
▁period	-9.35119
▁agree	-9.35134
▁viewing	-9.35225
▁arm	-9.35273
▁create	-9.35276
▁falls	-9.35387
▁modern	-9.35434
▁admit	-9.35434
▁tried	-9.35437
▁bunch	-9.35462
▁ends	-9.35491
▁upon	-9.35561
▁George	-9.35567
▁Scott	-9.35749
▁fantastic	-9.36065
serv	-9.36237
ong	-9.36336
▁rock	-9.36421
▁words	-9.36492
▁secret	-9.36701
▁fla	-9.36721
port	-9.36788
▁critic	-9.37006
▁premise	-9.37021
▁suffer	-9.37021
rie	-9.37128
▁appears	-9.37192
▁Sam	-9.37393
itch	-9.37772
round	-9.37814
▁Dan	-9.37918
▁weird	-9.37994
▁write	-9.38134
▁perform	-9.38278
▁utter	-9.38311
▁Fi	-9.38317
▁nor	-9.38423
▁seriously	-9.38512
▁consider	-9.38708
len	-9.38725
▁none	-9.38835
▁overall	-9.38853
▁sets	-9.38855
▁notice	-9.38885
▁suggest	-9.3896
▁cause	-9.38962
▁develop	-9.39132
▁post	-9.39137
▁needs	-9.39301
▁Ni	-9.3943
▁El	-9.39451
▁aren	-9.39466
▁Te	-9.39655
▁producer	-9.39678
▁mostly	-9.39743
ai	-9.39759
▁lose	-9.39888
▁whether	-9.39943
▁easy	-9.39944
aving	-9.40001
IN	-9.40065
TH	-9.40147
nda	-9.40153
van	-9.40224
▁suck	-9.40396
▁episodes	-9.40417
▁setting	-9.40419
▁Ber	-9.40554
▁killing	-9.4065
▁truth	-9.40937
▁el	-9.40966
▁Star	-9.41101
▁Frank	-9.41272
▁lame	-9.41322
▁throw	-9.41362
▁emotion	-9.41604
▁decided	-9.41604
▁standard	-9.41659
▁greatest	-9.41805
▁male	-9.41842
▁escape	-9.4194
▁dumb	-9.4198
lar	-9.42023
▁moving	-9.42277
▁spoil	-9.42277
▁accept	-9.42279
▁battle	-9.42296
▁Peter	-9.42372
war	-9.42427
▁dog	-9.42526
▁famous	-9.42615
▁herself	-9.42615
▁suit	-9.42618
▁shame	-9.42619
▁rep	-9.42793
▁became	-9.42954
▁means	-9.43006
▁five	-9.43069
pro	-9.43196
▁reveal	-9.43297
▁accent	-9.43299
▁30	-9.43387
▁success	-9.43447
rew	-9.4346
▁atmosphere	-9.43635
▁Che	-9.43645
▁elements	-9.4368
▁rare	-9.43689
▁begins	-9.4386
uff	-9.4392
▁design	-9.43978
▁attack	-9.43983
▁exception	-9.4406
▁sequences	-9.44094
read	-9.44623
▁please	-9.44666
▁mistake	-9.44666
▁Disney	-9.44667
▁camp	-9.44667
▁front	-9.44669
▁allow	-9.44681
▁list	-9.44736
▁realistic	-9.44758
▁viewers	-9.44878
play	-9.45007
▁kept	-9.45012
▁80	-9.45112
▁begin	-9.45126
ship	-9.45333
▁public	-9.45359
▁business	-9.45364
▁Fo	-9.45382
dge	-9.45398
▁points	-9.45464
▁America	-9.45474
mark	-9.45547
▁imagine	-9.45708
▁French	-9.45708
▁background	-9.45708
▁student	-9.45708
▁monster	-9.45709
ING	-9.45724
▁forget	-9.45774
▁named	-9.46006
▁trouble	-9.46057
▁beyond	-9.46057
▁parents	-9.46059
▁political	-9.46408
▁appeal	-9.46408
▁editing	-9.46409
▁nature	-9.46432
▁effective	-9.46456
▁train	-9.46504
▁successful	-9.46602
▁surprised	-9.46685
▁haven	-9.46799
▁using	-9.46877
▁credit	-9.4695
ix	-9.47126
▁dramatic	-9.47247
▁Mil	-9.47345
▁brought	-9.47469
▁German	-9.4747
▁pure	-9.47484
▁working	-9.47743
▁US	-9.47744
▁Cor	-9.47892
▁needed	-9.47904
▁Ed	-9.48036
▁showing	-9.48101
▁contain	-9.48183
▁OK	-9.48208
▁personal	-9.48209
▁screenplay	-9.48211
▁within	-9.48239
▁feels	-9.48466
▁Mor	-9.48469
▁continue	-9.4854
▁development	-9.48599
▁somehow	-9.48662
ink	-9.48671
▁stick	-9.4869
▁sea	-9.4879
ban	-9.48844
▁describe	-9.48899
▁Japanese	-9.489
▁apparently	-9.4905
▁Gar	-9.49095
▁Ke	-9.49414
▁pace	-9.49416
▁powerful	-9.49625
har	-9.49767
▁unlike	-9.49793
rough	-9.49852
▁Maybe	-9.49884
▁comments	-9.50082
▁thank	-9.50341
▁rich	-9.50391
▁issue	-9.50464
▁catch	-9.50539
▁date	-9.50578
▁believable	-9.50717
You	-9.50762
don	-9.51066
cept	-9.51203
▁portray	-9.51391
▁minute	-9.51445
▁potential	-9.51454
▁romance	-9.51454
▁masterpiece	-9.51455
rd	-9.5152
▁expected	-9.51567
▁avoid	-9.51737
▁poorly	-9.51751
▁bored	-9.51923
▁Yes	-9.52073
▁choice	-9.52196
▁sleep	-9.52196
▁concept	-9.5223
pping	-9.52311
▁copy	-9.52419
▁era	-9.52442
▁treat	-9.5254
▁effect	-9.52556
▁drug	-9.52666
▁credits	-9.52744
ration	-9.52846
spect	-9.52853
▁meaning	-9.52864
▁From	-9.52925
One	-9.52931
▁Lee	-9.5309
ire	-9.53129
ella	-9.53256
▁control	-9.5332
▁unique	-9.5332
▁remake	-9.53321
▁rate	-9.53343
▁yes	-9.53444
ease	-9.53444
▁outside	-9.53529
▁possibly	-9.53697
▁spirit	-9.53697
▁animal	-9.537
▁average	-9.53701
▁magic	-9.53719
▁term	-9.53905
▁Em	-9.54008
iness	-9.54023
▁particular	-9.54061
▁capture	-9.54103
▁step	-9.54245
while	-9.54488
▁Although	-9.546
▁fear	-9.54611
▁space	-9.54871
▁9	-9.55235
▁NOT	-9.55268
▁creepy	-9.55338
▁interested	-9.55549
fu	-9.55614
▁hair	-9.55772
this	-9.55972
▁cheesy	-9.55992
▁concern	-9.55992
▁earlier	-9.55992
▁Un	-9.56026
▁Gi	-9.5603
loo	-9.56034
▁reading	-9.56104
▁pop	-9.56118
▁joke	-9.56178
▁footage	-9.56379
▁Wood	-9.56386
▁basically	-9.56407
▁appreciate	-9.56475
▁paint	-9.56708
▁force	-9.56722
▁memorable	-9.56768
▁various	-9.56768
▁third	-9.56769
though	-9.56803
▁leading	-9.56822
When	-9.56823
with	-9.56825
▁anyway	-9.56951
iz	-9.56977
▁painful	-9.57037
oc	-9.57043
▁leads	-9.57112
▁studio	-9.57159
Overall	-9.57161
▁opera	-9.57297
ute	-9.57616
▁shock	-9.57771
▁general	-9.57944
▁positive	-9.57945
▁mystery	-9.57947
▁taste	-9.57959
▁70	-9.5796
▁appearance	-9.57987
▁eat	-9.58073
▁meant	-9.58081
ES	-9.58216
▁par	-9.58516
▁perfectly	-9.58529
▁quickly	-9.58561
▁Com	-9.58678
▁convincing	-9.58737
▁jump	-9.58738
▁trash	-9.58739
▁sign	-9.58743
▁hot	-9.59041
▁older	-9.59059
mate	-9.59096
▁water	-9.5914
▁social	-9.59142
sure	-9.5917
jo	-9.59193
▁Ju	-9.59257
qua	-9.59328
nie	-9.59337
▁Unfortunately	-9.59377
▁Good	-9.595
▁Movie	-9.59537
▁steal	-9.59539
▁Most	-9.59568
win	-9.59572
▁fair	-9.59655
▁flat	-9.59742
EN	-9.59872
▁Oh	-9.59935
▁Christmas	-9.59938
▁inside	-9.59981
▁brain	-9.59999
▁*	-9.60261
graph	-9.6031
car	-9.60326
▁soldier	-9.6034
▁street	-9.60341
▁roll	-9.60362
▁wear	-9.60449
▁exist	-9.6045
▁towards	-9.60503
▁forced	-9.60521
Le	-9.60529
gest	-9.60615
▁sat	-9.60678
▁city	-9.60705
▁popular	-9.6075
▁trip	-9.60857
nal	-9.6091
bel	-9.60938
▁reviews	-9.61035
▁costume	-9.61157
▁Indian	-9.61308
ident	-9.61309
▁Tim	-9.61373
dding	-9.6146
All	-9.61537
▁Rob	-9.61553
▁amount	-9.6156
▁eventually	-9.6156
▁Will	-9.61564
▁features	-9.61583
▁anti	-9.61657
▁artist	-9.61683
▁meets	-9.61957
▁answer	-9.6198
▁bother	-9.61988
▁manner	-9.62225
▁purpose	-9.62381
▁kick	-9.62385
▁normal	-9.62391
▁girlfriend	-9.62395
ien	-9.62404
lay	-9.62418
Ma	-9.62531
For	-9.62778
ison	-9.62787
▁further	-9.62795
▁moral	-9.62819
▁Night	-9.62851
▁clever	-9.62858
LE	-9.63159
field	-9.63216
▁worked	-9.63231
▁gone	-9.63322
▁portrayed	-9.63494
izing	-9.635
▁spot	-9.63755
▁land	-9.63821
▁Jane	-9.63865
▁cry	-9.63947
▁filmmakers	-9.64036
ford	-9.64051
▁leaves	-9.64067
▁def	-9.64346
▁plenty	-9.64465
▁project	-9.64465
▁ghost	-9.64465
▁honest	-9.64492
▁Can	-9.6453
▁rip	-9.64642
▁brings	-9.64789
▁ill	-9.64847
▁claim	-9.64887
nce	-9.64958
▁directing	-9.65069
▁90	-9.651
▁By	-9.65122
▁Film	-9.65314
▁direct	-9.65419
▁First	-9.65453
▁forward	-9.65495
▁natural	-9.65519
▁drag	-9.65555
▁reach	-9.65618
▁cute	-9.65623
hose	-9.65671
top	-9.65683
ttle	-9.65731
▁prison	-9.65736
▁writers	-9.65816
▁master	-9.65845
▁sick	-9.65909
wer	-9.65929
ana	-9.66078
▁talented	-9.66131
▁track	-9.66228
▁plain	-9.66267
movie	-9.66335
ult	-9.66449
▁extra	-9.66588
get	-9.66703
▁demon	-9.66807
▁whom	-9.66847
▁decides	-9.66861
▁Fred	-9.66871
▁laughs	-9.66874
unk	-9.66941
▁scare	-9.66981
▁intelligent	-9.67023
▁total	-9.67477
oon	-9.67657
▁support	-9.67719
▁shoot	-9.67721
▁note	-9.67783
▁red	-9.67846
▁IMDb	-9.67891
▁Fu	-9.67898
▁Pi	-9.67913
▁indeed	-9.67941
▁chase	-9.68002
ified	-9.68262
▁adventure	-9.68328
gan	-9.68643
De	-9.68662
▁exciting	-9.68766
▁deserves	-9.68902
ace	-9.69039
▁wasted	-9.69191
▁fairly	-9.692
▁fantasy	-9.69207
▁band	-9.69405
ram	-9.69517
***	-9.69524
▁manages	-9.69662
▁caught	-9.69681
▁crew	-9.6971
ju	-9.69725
Re	-9.69814
▁Rock	-9.69903
▁location	-9.70094
▁married	-9.70095
▁tension	-9.70129
▁disc	-9.70152
▁skill	-9.70163
▁Pro	-9.70426
▁destroy	-9.7054
▁beauty	-9.7054
espite	-9.70546
▁mood	-9.70644
▁Like	-9.70668
▁fighting	-9.7072
▁hardly	-9.70762
cut	-9.70818
▁baby	-9.71055
▁beat	-9.71168
▁acted	-9.71284
▁Ex	-9.71325
▁sorry	-9.71331
▁ruin	-9.7145
now	-9.71472
unn	-9.71663
▁recently	-9.71816
▁Pre	-9.71888
▁impressive	-9.71891
▁accident	-9.71892
▁fiction	-9.71893
▁Sch	-9.71933
▁telling	-9.71985
▁expecting	-9.71993
▁incredibly	-9.72346
▁culture	-9.72351
▁subtle	-9.72351
▁visit	-9.72359
▁Christian	-9.72381
▁Mary	-9.72452
▁World	-9.72803
▁sweet	-9.72803
▁mad	-9.72862
mple	-9.72903
▁gay	-9.72961
chi	-9.73023
▁portrayal	-9.73027
▁lover	-9.73199
▁bizarre	-9.73261
▁brief	-9.73262
▁Bill	-9.73522
some	-9.73554
▁charm	-9.73578
▁Fe	-9.73658
▁earth	-9.73725
▁glad	-9.73731
▁store	-9.7374
▁lady	-9.73791
▁door	-9.73812
▁wall	-9.73851
▁disturbing	-9.73899
AL	-9.74038
cap	-9.74087
▁approach	-9.74185
▁difference	-9.74185
▁society	-9.74185
▁scream	-9.74185
▁reviewer	-9.74221
▁missing	-9.74281
▁blow	-9.74312
▁share	-9.74324
▁ship	-9.74431
ez	-9.74603
▁vampire	-9.7465
▁dress	-9.74668
▁apart	-9.74734
▁6	-9.74748
▁badly	-9.74913
▁members	-9.7495
▁office	-9.74951
▁laughing	-9.75121
▁circ	-9.75125
▁bull	-9.75215
▁teen	-9.75284
member	-9.75316
star	-9.75576
▁violent	-9.75587
▁depth	-9.75589
▁solid	-9.75604
lly	-9.75754
▁fake	-9.75837
▁created	-9.75848
▁Big	-9.75877
La	-9.75887
▁fails	-9.75957
▁complex	-9.76059
▁travel	-9.76059
▁whatever	-9.76098
▁mini	-9.76128
▁15	-9.7617
▁mentioned	-9.76192
mu	-9.76242
▁recent	-9.76344
▁award	-9.76395
lace	-9.76567
▁Great	-9.76846
board	-9.7695
▁record	-9.77009
▁consist	-9.7702
vy	-9.7706
First	-9.77328
▁Mad	-9.77391
▁Italian	-9.7749
▁cost	-9.77516
▁tend	-9.77688
▁Still	-9.77699
tress	-9.77755
how	-9.7776
▁serve	-9.77767
▁mental	-9.779
wood	-9.77968
▁author	-9.77968
▁wrote	-9.77968
▁amusing	-9.7797
▁rap	-9.78014
▁para	-9.78226
▁tough	-9.78432
▁casting	-9.78469
▁waiting	-9.78511
▁missed	-9.78579
▁decide	-9.78633
▁Watch	-9.78927
▁slightly	-9.78937
▁regard	-9.78938
▁Instead	-9.78964
▁draw	-9.79161
▁basic	-9.79409
▁embarrass	-9.79424
▁dancing	-9.79425
▁limit	-9.79429
▁player	-9.79447
▁otherwise	-9.79512
▁Other	-9.79568
▁pain	-9.79609
room	-9.79732
▁criminal	-9.79915
▁achieve	-9.79915
▁crazy	-9.79915
▁receive	-9.79916
where	-9.79951
▁Red	-9.80394
▁nudity	-9.80407
▁mid	-9.80481
▁listen	-9.80574
tract	-9.80613
▁Here	-9.80644
▁wild	-9.8094
Well	-9.80997
▁Jim	-9.81006
berg	-9.81014
▁changed	-9.81189
▁struggle	-9.814
▁alien	-9.81442
▁mark	-9.81496
▁following	-9.81506
▁porn	-9.81598
▁report	-9.81599
▁garbage	-9.819
Li	-9.82014
▁unfortunately	-9.82066
▁tear	-9.82176
▁incredible	-9.82402
▁London	-9.82403
▁search	-9.82403
Mar	-9.8256
Be	-9.82659
cher	-9.82763
▁Park	-9.82989
▁former	-9.82989
▁doctor	-9.83116
00	-9.83202
▁Nor	-9.8323
void	-9.83247
▁ball	-9.83263
▁familiar	-9.83415
▁language	-9.83415
▁technical	-9.83415
▁heavy	-9.83419
▁torture	-9.83424
umble	-9.83541
▁drop	-9.8358
▁pointless	-9.83816
▁considered	-9.8388
house	-9.83908
▁creature	-9.83925
▁million	-9.83925
▁animated	-9.83926
▁cult	-9.83977
▁failed	-9.83997
▁ended	-9.84
▁common	-9.84004
ubb	-9.84024
Some	-9.84137
ica	-9.84333
▁trailer	-9.84438
▁bought	-9.84438
anger	-9.84557
vin	-9.84625
▁carry	-9.84637
▁Christ	-9.84757
▁build	-9.84863
▁conclusion	-9.84953
▁slasher	-9.84954
▁House	-9.85011
▁Tony	-9.85036
lam	-9.85466
▁neither	-9.85472
▁six	-9.85531
▁party	-9.85706
▁Love	-9.85969
▁computer	-9.85993
▁fashion	-9.85993
▁Ko	-9.86101
▁ride	-9.86294
Final	-9.86371
vol	-9.86381
Co	-9.86388
▁barely	-9.86523
Anyway	-9.86539
▁building	-9.86608
Do	-9.86732
▁complain	-9.87042
▁South	-9.87058
▁ran	-9.87065
▁loud	-9.87102
▁ground	-9.8717
ALL	-9.87183
bli	-9.87317
udi	-9.87344
▁manage	-9.87398
▁spent	-9.8746
za	-9.87511
▁ability	-9.8753
▁revenge	-9.87572
▁bus	-9.87574
▁temp	-9.87609
▁luck	-9.87621
We	-9.87653
▁Van	-9.8781
▁hang	-9.87814
▁Dead	-9.87867
▁soul	-9.87887
▁genuine	-9.88103
Not	-9.8813
▁sitting	-9.88206
LL	-9.8833
ED	-9.88491
▁Hu	-9.88578
▁climax	-9.88638
▁impossible	-9.88638
▁entirely	-9.88833
can	-9.88936
▁entertain	-9.89056
▁involving	-9.89176
▁excuse	-9.89176
▁Black	-9.89177
▁commit	-9.89178
lash	-9.8926
ball	-9.89381
▁Mel	-9.89591
▁pathetic	-9.89717
▁Smith	-9.89717
▁western	-9.89719
▁cross	-9.89721
▁filled	-9.89721
▁Angel	-9.89743
unch	-9.89794
▁send	-9.89898
▁pack	-9.89991
▁pen	-9.90018
▁compared	-9.90061
▁Mac	-9.90101
▁chemistry	-9.9026
▁company	-9.9026
▁narrative	-9.9026
▁brutal	-9.90261
▁decade	-9.90265
▁hunt	-9.90276
▁longer	-9.90279
▁fail	-9.90306
▁suddenly	-9.90447
▁sci	-9.90483
wise	-9.90507
▁fu	-9.90719
hood	-9.90742
▁genius	-9.90806
▁impression	-9.90806
▁represent	-9.90806
▁succeed	-9.90806
▁occur	-9.90806
▁require	-9.90806
▁lab	-9.90948
▁En	-9.91142
▁City	-9.91193
▁psycho	-9.9125
▁college	-9.91356
▁humour	-9.91356
▁stunning	-9.91356
▁younger	-9.91395
you	-9.91488
Ro	-9.91527
▁charming	-9.9153
**	-9.91728
part	-9.9176
▁depict	-9.91809
▁produced	-9.91843
▁redeem	-9.91909
▁singing	-9.91936
No	-9.92187
▁proper	-9.92343
▁minor	-9.92474
▁adaptation	-9.92499
Don	-9.92624
▁Sho	-9.9267
making	-9.92673
▁rape	-9.92968
▁50	-9.93002
▁absurd	-9.93022
▁terror	-9.93022
▁Stewart	-9.93023
▁folk	-9.93023
▁gang	-9.93164
▁considering	-9.93507
▁Every	-9.93584
▁display	-9.93634
▁immediately	-9.93661
itz	-9.93776
▁shooting	-9.93808
▁Boy	-9.93985
awn	-9.94059
▁awesome	-9.9415
▁historical	-9.94153
▁interview	-9.94161
▁Harry	-9.94329
▁Shi	-9.94356
▁Bra	-9.94408
dom	-9.94439
▁law	-9.94468
matic	-9.94556
▁desperate	-9.94717
▁marriage	-9.94717
▁Kelly	-9.94733
Ho	-9.94821
▁Day	-9.94869
▁test	-9.9488
▁Sci	-9.9491
Ba	-9.94978
east	-9.95096
▁thrown	-9.95169
▁military	-9.95289
▁silent	-9.95289
that	-9.9536
▁involve	-9.95377
back	-9.95398
olution	-9.9542
▁affect	-9.95868
▁key	-9.95907
▁agent	-9.95964
▁Gene	-9.96082
▁pan	-9.9624
▁Pr	-9.9624
▁Tri	-9.96317
▁convince	-9.96442
▁addition	-9.96474
After	-9.96486
bur	-9.96503
▁insult	-9.96507
▁hide	-9.96527
▁cinematic	-9.96571
▁Chris	-9.96672
▁Dick	-9.96887
rin	-9.96908
▁physical	-9.97023
▁program	-9.97023
▁tired	-9.97025
▁admir	-9.97042
ability	-9.97081
▁expression	-9.97149
▁equally	-9.97225
▁bur	-9.97232
▁slowly	-9.97591
▁grand	-9.97618
▁suspect	-9.97622
▁Martin	-9.97637
That	-9.9767
LY	-9.97672
▁clue	-9.97684
▁touching	-9.9773
▁somewhere	-9.97799
▁OF	-9.97866
▁happening	-9.98047
CH	-9.98162
mission	-9.98218
▁gold	-9.98257
▁edge	-9.98293
pped	-9.98344
▁constantly	-9.98424
night	-9.98537
Lo	-9.98636
umm	-9.98759
▁reference	-9.98788
▁remote	-9.98788
▁join	-9.98791
shadow	-9.98791
▁unbelievable	-9.98824
ization	-9.98991
▁People	-9.9902
▁cold	-9.99094
▁scar	-9.99121
▁Director	-9.99229
▁Best	-9.99317
▁century	-9.99383
▁outstanding	-9.99383
▁terrific	-9.99383
▁okay	-9.99384
▁race	-9.99471
▁Part	-9.99627
▁died	-9.99889
▁managed	-9.99939
▁prop	-9.99972
▁generally	-9.99982
▁thrill	-10.0009
▁wide	-10.0012
▁element	-10.0051
▁survive	-10.0058
▁Earth	-10.0059
▁horse	-10.0059
▁loose	-10.006
▁Paris	-10.006
▁See	-10.0066
▁Ray	-10.0084
▁vote	-10.0091
most	-10.0093
▁presented	-10.0104
▁object	-10.0119
▁witness	-10.0119
uous	-10.0141
▁leg	-10.0144
▁Perhaps	-10.0148
▁40	-10.0154
▁serial	-10.018
▁leaving	-10.018
▁disappointment	-10.0182
▁Pu	-10.0182
▁graphic	-10.0183
▁plus	-10.0184
down	-10.0189
▁nowhere	-10.0196
▁100	-10.0197
▁walking	-10.0204
DE	-10.0235
▁detective	-10.0241
▁intense	-10.0242
▁science	-10.0244
▁soft	-10.0252
▁Another	-10.0253
▁Roger	-10.0255
point	-10.0255
starring	-10.0269
▁surprisingly	-10.027
▁sing	-10.0277
▁sum	-10.0277
▁Steve	-10.0288
▁individual	-10.0303
▁scientist	-10.0303
▁neighbor	-10.0303
▁idiot	-10.0303
▁innocent	-10.0303
▁smile	-10.0303
▁favourite	-10.0304
▁Sure	-10.031
▁Yet	-10.0321
▁warm	-10.035
▁rid	-10.0353
▁opportunity	-10.0365
▁affair	-10.0365
▁comedies	-10.0365
▁Davis	-10.0366
▁flashback	-10.0366
▁flaws	-10.0366
▁hurt	-10.0366
▁fill	-10.0368
ular	-10.0371
!!!!	-10.0386
▁content	-10.0387
▁burn	-10.0392
▁Bob	-10.0394
▁intention	-10.0395
▁gem	-10.0404
▁sexy	-10.0417
▁compelling	-10.0428
▁system	-10.0428
▁smart	-10.0428
▁promise	-10.0428
▁cameo	-10.0433
▁ultimately	-10.0447
▁photograph	-10.0449
year	-10.0463
▁dad	-10.0468
▁progress	-10.0491
▁fresh	-10.0491
▁Blood	-10.0491
▁expectations	-10.0491
▁blame	-10.0492
▁drunk	-10.0493
▁drink	-10.0495
▁Jeff	-10.0498
▁18	-10.0502
▁teenager	-10.0509
▁Only	-10.0512
▁push	-10.0513
▁rule	-10.0525
▁drawn	-10.0527
▁photography	-10.0533
▁mysterious	-10.0554
▁road	-10.0555
▁desire	-10.0555
▁logic	-10.0556
▁sight	-10.0573
Oh	-10.0582
aught	-10.0583
▁Allen	-10.0606
▁symbol	-10.0618
▁machine	-10.0618
▁random	-10.0618
▁broke	-10.0621
▁pal	-10.0628
▁sell	-10.0638
▁Jud	-10.065
▁laughable	-10.0655
hand	-10.0659
▁NO	-10.0661
▁Spi	-10.0665
▁enter	-10.067
▁literally	-10.0682
▁mouth	-10.0682
▁Adam	-10.0683
▁boyfriend	-10.0683
▁fellow	-10.0683
▁legend	-10.0684
▁frame	-10.0684
▁Because	-10.0746
▁commercial	-10.0746
▁tragedy	-10.0746
▁Charles	-10.0746
▁raise	-10.0748
Please	-10.0748
▁High	-10.075
▁boss	-10.0755
▁beautifully	-10.076
▁makers	-10.0761
▁negative	-10.0811
▁presence	-10.0812
▁epic	-10.0813
pol	-10.0813
▁flow	-10.0819
▁TO	-10.0819
While	-10.083
budget	-10.083
▁ski	-10.083
▁Matt	-10.0833
▁noir	-10.0853
▁month	-10.0877
▁European	-10.0883
▁wondering	-10.0884
▁Dark	-10.0886
▁professional	-10.0901
▁lesson	-10.0928
▁planet	-10.0929
▁allowed	-10.093
▁added	-10.0932
efore	-10.0935
▁pleasure	-10.0942
▁stereotype	-10.0942
▁pun	-10.0942
long	-10.098
▁honestly	-10.1004
▁Christopher	-10.1008
▁reflect	-10.1009
▁model	-10.1009
UN	-10.102
▁Miss	-10.1022
▁trick	-10.1024
▁passion	-10.1029
▁disappointing	-10.1032
▁ham	-10.1055
run	-10.1057
other	-10.1058
Now	-10.1059
▁60	-10.1065
▁fascinating	-10.1075
▁length	-10.1075
▁clean	-10.1075
▁discuss	-10.1076
▁Jones	-10.1077
just	-10.1085
▁alive	-10.1085
▁bomb	-10.1085
▁motion	-10.1089
▁Too	-10.1091
▁scenery	-10.1134
▁carrie	-10.1137
▁plane	-10.114
▁gorgeous	-10.1142
▁government	-10.1142
▁mediocre	-10.1142
▁likable	-10.1142
▁disaster	-10.1142
▁Louis	-10.1144
▁tragic	-10.1144
▁hoping	-10.1147
▁angle	-10.115
▁highlight	-10.1152
▁fool	-10.1161
▁suppose	-10.1161
▁hire	-10.1195
▁intended	-10.121
▁AND	-10.121
▁phone	-10.121
▁nation	-10.1218
▁vision	-10.1222
*****	-10.1224
▁followed	-10.1229
Fi	-10.1236
▁conflict	-10.1278
▁current	-10.1278
▁protagonist	-10.1278
▁Bruce	-10.1278
▁latter	-10.1278
▁initial	-10.1279
▁giant	-10.1279
▁appeared	-10.1285
▁seven	-10.1289
▁thin	-10.1293
▁Str	-10.1304
OK	-10.1307
▁accurate	-10.1346
▁Russian	-10.1346
▁formula	-10.1348
▁impact	-10.1354
▁essential	-10.1415
???	-10.1417
▁Young	-10.1428
▁Ste	-10.143
▁putting	-10.1451
TE	-10.1466
▁available	-10.1485
▁industry	-10.1485
▁recognize	-10.1485
▁superior	-10.1485
▁creative	-10.1485
posed	-10.1487
▁apartment	-10.1493
▁rob	-10.1509
▁West	-10.1513
RA	-10.1513
▁extreme	-10.1515
good	-10.1522
turn	-10.1526
▁express	-10.154
▁confused	-10.1555
▁pleasant	-10.1555
▁decision	-10.1555
▁disgust	-10.1555
▁double	-10.1555
▁freak	-10.1555
▁safe	-10.1555
▁sport	-10.1566
view	-10.1572
▁favor	-10.1624
▁pla	-10.1624
▁Prince	-10.1625
▁delightful	-10.1625
▁damn	-10.1626
depend	-10.1629
▁market	-10.1635
▁bright	-10.1643
▁pair	-10.1647
▁oh	-10.1656
▁quick	-10.1657
eau	-10.1676
tention	-10.1692
▁experiment	-10.1696
▁impressed	-10.1696
▁twice	-10.1696
▁Charlie	-10.1696
▁Henry	-10.1696
▁paid	-10.1697
▁Two	-10.1714
▁introduced	-10.1722
life	-10.1723
face	-10.1729
▁partner	-10.173
▁shocking	-10.1735
▁hospital	-10.1767
▁influence	-10.1767
▁journey	-10.1767
▁perspective	-10.1767
▁quiet	-10.1767
▁correct	-10.1767
Second	-10.1769
▁childhood	-10.1769
▁center	-10.177
▁featur	-10.177
▁wind	-10.179
blo	-10.1795
▁auto	-10.1813
▁held	-10.1815
▁div	-10.1821
▁teacher	-10.1823
put	-10.1834
▁channel	-10.1839
▁study	-10.184
▁knock	-10.184
▁joy	-10.1841
▁officer	-10.1868
▁scr	-10.1874
▁actresses	-10.1891
▁guilt	-10.1912
▁pilot	-10.1912
▁Nothing	-10.1912
▁Little	-10.1915
▁wise	-10.1921
▁eight	-10.1924
what	-10.1931
▁fell	-10.1935
▁Where	-10.196
▁host	-10.1972
▁Jr	-10.1976
▁Billy	-10.198
▁encounter	-10.1985
▁combine	-10.1985
▁reaction	-10.1985
▁refuse	-10.1985
▁instance	-10.1986
▁Clark	-10.1987
▁stuck	-10.2002
bound	-10.2012
▁Jean	-10.2026
▁relate	-10.2034
▁lay	-10.2048
▁disappear	-10.2058
▁melodrama	-10.2058
▁thoroughly	-10.2058
▁unusual	-10.2058
▁blind	-10.2059
▁convey	-10.2059
▁Hill	-10.2059
▁justice	-10.206
▁woods	-10.2065
▁tape	-10.2077
▁personally	-10.2084
vious	-10.2092
▁absolute	-10.2093
&	-10.2095
▁Joan	-10.2096
▁factor	-10.2111
pha	-10.2126
▁confusing	-10.2132
▁Horror	-10.2132
▁regular	-10.2132
▁naked	-10.2133
▁filmmaker	-10.2134
▁protect	-10.2134
▁Story	-10.2142
▁forgotten	-10.218
▁Show	-10.2184
style	-10.2191
▁attractive	-10.2207
▁knowledge	-10.2207
▁Very	-10.2208
▁began	-10.227
▁intelligence	-10.2282
▁Thank	-10.2282
▁process	-10.2282
▁comedic	-10.2285
EL	-10.2289
▁East	-10.2291
▁artistic	-10.2295
▁nobody	-10.2295
▁mine	-10.2321
American	-10.2322
screen	-10.2322
worth	-10.2322
▁Though	-10.2323
▁Steven	-10.2325
aunt	-10.2348
▁station	-10.2355
▁inspired	-10.2358
▁judge	-10.2358
▁CGI	-10.2358
▁desert	-10.2358
▁nasty	-10.2359
▁becoming	-10.2359
▁angry	-10.2359
aries	-10.236
▁assume	-10.2366
body	-10.2378
With	-10.2399
▁shop	-10.2401
film	-10.2404
gotten	-10.2407
▁repeated	-10.2409
▁DO	-10.2423
▁occasion	-10.2431
▁window	-10.2437
▁Phil	-10.2438
▁prefer	-10.2442
▁text	-10.2455
▁Mal	-10.2459
▁compare	-10.2463
verse	-10.2481
▁connect	-10.2501
▁responsible	-10.2511
▁fault	-10.2511
▁broad	-10.2511
ombie	-10.2512
▁arrive	-10.2512
▁demand	-10.2512
ography	-10.2513
▁information	-10.2515
▁anywhere	-10.2524
▁hotel	-10.2525
▁flash	-10.2537
▁punch	-10.2545
How	-10.2548
ollywood	-10.2586
▁strength	-10.2589
▁Chinese	-10.2589
▁weapon	-10.2589
▁court	-10.2591
▁Ya	-10.2593
▁collection	-10.2593
▁Brit	-10.2594
▁invest	-10.2595
▁Life	-10.2596
▁personality	-10.2601
▁load	-10.2605
▁Rose	-10.261
Just	-10.2634
▁imagination	-10.2667
▁Grant	-10.2668
▁born	-10.2671
▁theatre	-10.2681
▁Out	-10.2695
▁teach	-10.2698
▁Shakespeare	-10.2746
▁comparison	-10.2746
▁unexpected	-10.2746
▁village	-10.2746
▁Street	-10.2746
▁crash	-10.2746
▁Batman	-10.2746
▁trust	-10.2746
▁replace	-10.2747
Okay	-10.2748
▁Lady	-10.2773
teen	-10.278
▁Alan	-10.2786
je	-10.2793
10	-10.2816
▁Mark	-10.2819
▁religious	-10.2825
▁choose	-10.2825
▁anymore	-10.2825
▁flesh	-10.2825
▁Daniel	-10.2826
▁expert	-10.2826
Fran	-10.2828
▁Jerry	-10.2828
▁Alex	-10.2834
▁buff	-10.2837
AY	-10.2838
▁insight	-10.2848
▁11	-10.2853
▁deserved	-10.287
▁teenage	-10.2888
▁Time	-10.2889
▁12	-10.2899
▁swa	-10.2901
▁Taylor	-10.2905
▁funniest	-10.2905
▁guard	-10.2905
▁dollar	-10.2905
▁commentary	-10.2913
▁Never	-10.2929
▁Brad	-10.2931
ET	-10.2937
▁organ	-10.2942
▁rank	-10.298
▁bottom	-10.2986
▁clothes	-10.2986
▁research	-10.2986
▁transform	-10.2986
▁improve	-10.2986
▁breath	-10.2986
▁satire	-10.2987
▁rat	-10.2988
▁gangster	-10.299
▁kidnap	-10.299
▁everybody	-10.299
▁establish	-10.2998
licit	-10.3013
▁faith	-10.3039
000	-10.3056
▁Stephen	-10.3067
▁necessary	-10.3067
▁1950	-10.3067
▁segment	-10.3067
▁priest	-10.3067
▁Green	-10.3068
Arthur	-10.3069
▁dangerous	-10.3069
99	-10.3075
John	-10.3119
▁Douglas	-10.3149
▁central	-10.3149
▁mountain	-10.3149
▁suicide	-10.3149
▁unnecessary	-10.3149
▁device	-10.3149
▁martial	-10.3149
▁charge	-10.3149
▁wooden	-10.3149
▁floor	-10.3149
▁seemingly	-10.3151
▁skin	-10.3157
dict	-10.3182
gged	-10.3189
▁explanation	-10.3232
▁magnificent	-10.3232
▁target	-10.3232
▁proceed	-10.3232
▁threaten	-10.3237
▁flying	-10.3238
▁Harris	-10.3239
▁food	-10.3239
▁Jackson	-10.3243
▁abuse	-10.3244
▁heroine	-10.3251
▁hook	-10.3256
▁chick	-10.3259
TV	-10.3277
▁kn	-10.3281
▁challenge	-10.3315
▁charisma	-10.3315
▁ignore	-10.3315
ibility	-10.3315
▁explore	-10.3315
▁aware	-10.3318
▁friendship	-10.3319
stein	-10.3325
▁holes	-10.3325
▁Men	-10.3327
▁media	-10.333
Although	-10.3371
▁energy	-10.3399
stitute	-10.3399
▁rescue	-10.34
▁opposite	-10.34
▁dying	-10.3405
▁bank	-10.341
▁marry	-10.3418
▁rise	-10.3426
▁debut	-10.343
▁Julie	-10.3451
writer	-10.3454
▁Sea	-10.347
▁product	-10.3477
▁religion	-10.3484
▁vehicle	-10.3484
▁empty	-10.3484
▁curious	-10.3484
▁Albert	-10.3484
▁Morgan	-10.3486
▁attitude	-10.3494
ji	-10.3501
▁club	-10.3502
▁bill	-10.3503
▁Both	-10.3525
▁belong	-10.3529
▁loss	-10.3541
▁belief	-10.3569
▁Simon	-10.3571
▁robot	-10.3573
▁tight	-10.3576
▁deserve	-10.358
▁site	-10.3585
ueen	-10.3585
Even	-10.3586
▁African	-10.3591
▁path	-10.3607
▁surprising	-10.3616
friend	-10.3625
▁generation	-10.3655
▁awkward	-10.3655
▁terribly	-10.3655
▁hidden	-10.3655
▁birth	-10.3656
▁failure	-10.3656
▁pacing	-10.3656
▁Brian	-10.3656
▁anybody	-10.3665
▁singer	-10.3671
▁Mike	-10.3674
▁fate	-10.3675
▁Once	-10.3684
▁movement	-10.3685
▁gut	-10.3707
▁satisfy	-10.3742
▁Washington	-10.3742
▁afraid	-10.3742
▁numerous	-10.3742
▁pretentious	-10.3742
▁possess	-10.3742
▁White	-10.3742
▁memory	-10.3743
▁paper	-10.3743
▁tune	-10.3745
▁Fox	-10.3753
▁somebody	-10.3761
▁13	-10.3762
▁Dar	-10.3816
▁twenty	-10.383
▁employ	-10.383
▁structure	-10.383
▁technique	-10.383
▁advice	-10.383
▁routine	-10.383
▁remarkable	-10.383
▁VHS	-10.383
▁hint	-10.3834
▁winning	-10.3835
▁Mich	-10.3882
▁traditional	-10.389
▁finest	-10.3892
▁1980	-10.3919
▁dreadful	-10.3919
▁distract	-10.3924
▁grab	-10.3931
▁Andrew	-10.3938
▁Sean	-10.3981
However	-10.3988
▁context	-10.4008
▁England	-10.4008
▁behavior	-10.4008
▁Japan	-10.4008
▁Girl	-10.4008
▁grace	-10.4008
▁grave	-10.4008
▁crack	-10.402
▁witch	-10.4021
▁Nick	-10.4037
ouch	-10.4075
▁appropriate	-10.4098
▁psychological	-10.4098
▁sword	-10.4098
▁radio	-10.4098
conscious	-10.4098
▁blue	-10.4099
▁cash	-10.4099
▁root	-10.41
▁produce	-10.4122
▁Dur	-10.4136
▁Kar	-10.4176
▁adapt	-10.4184
▁Hitler	-10.4189
▁colour	-10.4189
▁creating	-10.4189
▁price	-10.419
▁Bond	-10.4206
▁sake	-10.4215
gging	-10.4233
especially	-10.4261
▁relative	-10.4272
Why	-10.4276
▁amateur	-10.4277
▁document	-10.4278
▁morning	-10.4281
▁quote	-10.4281
▁Wayne	-10.4281
▁crowd	-10.4281
▁YOU	-10.4281
▁dozen	-10.4281
▁ugly	-10.4282
▁summer	-10.4284
▁dig	-10.4287
▁Hunt	-10.4294
▁trade	-10.4314
spiring	-10.4315
▁chop	-10.4332
▁McC	-10.4367
▁thousand	-10.4373
Titanic	-10.4373
▁account	-10.4373
▁mild	-10.4373
▁comfort	-10.4373
▁cheer	-10.4379
▁Johnny	-10.4385
▁Hank	-10.4386
▁harm	-10.4393
▁table	-10.4407
ONE	-10.4442
defin	-10.4451
▁THIS	-10.4467
▁intriguing	-10.4467
▁Superman	-10.4467
▁civil	-10.4467
▁foreign	-10.4467
▁speech	-10.4467
▁wealth	-10.4467
▁therefore	-10.4468
▁existence	-10.4472
▁mile	-10.4472
▁earn	-10.4475
▁sun	-10.4478
▁fame	-10.4486
▁repeat	-10.45
VERY	-10.4501
▁apparent	-10.4521
TER	-10.4529
▁Come	-10.4537
director	-10.4553
▁Jennifer	-10.4561
▁confront	-10.4561
▁convention	-10.4561
▁conversation	-10.4561
▁engaging	-10.4561
▁scenario	-10.4561
▁rival	-10.4561
▁stretch	-10.4561
▁Brother	-10.4561
▁independent	-10.4561
▁Everything	-10.4561
▁wound	-10.4561
▁skip	-10.4563
▁river	-10.4563
▁warning	-10.4573
▁Jason	-10.4577
Also	-10.464
▁****	-10.4649
▁contrast	-10.4656
▁executed	-10.4656
▁degree	-10.4656
▁shallow	-10.4656
▁engage	-10.4656
▁lawyer	-10.4657
▁stunt	-10.4657
▁Brown	-10.4657
▁speed	-10.4659
▁Nazi	-10.4659
▁tack	-10.4689
▁hype	-10.4698
jack	-10.4702
▁North	-10.4745
ogue	-10.4747
▁combination	-10.4752
▁community	-10.4752
▁hundred	-10.4752
▁construct	-10.4752
▁Keaton	-10.4752
▁pretend	-10.4753
▁financ	-10.4757
q	-10.476
▁majority	-10.4771
▁Eric	-10.4779
corn	-10.4809
▁Academy	-10.4849
▁separate	-10.4849
▁loving	-10.485
▁France	-10.485
▁uncle	-10.485
▁Jesus	-10.485
▁attend	-10.4852
horn	-10.4854
▁connection	-10.4862
Another	-10.4936
▁predict	-10.4944
▁specific	-10.4948
▁Texas	-10.4948
▁praise	-10.4948
▁crappy	-10.4948
▁Trek	-10.4948
▁source	-10.4948
▁slave	-10.4948
▁Kevin	-10.4949
SPOILERS	-10.4954
boo	-10.4962
▁Death	-10.4966
▁Luke	-10.4968
▁thus	-10.4971
Wow	-10.4978
class	-10.5035
▁Anthony	-10.5047
▁evidence	-10.5047
▁spectacular	-10.5047
▁regret	-10.5047
▁unfold	-10.5047
nvisible	-10.5051
▁treatment	-10.5061
▁stink	-10.5065
girl	-10.5111
hearted	-10.512
▁distribut	-10.5147
Halloween	-10.5147
▁Spanish	-10.5147
▁whatsoever	-10.5147
▁relief	-10.5147
▁wanna	-10.5147
▁recall	-10.5147
▁green	-10.5147
ville	-10.5178
▁Sinatra	-10.5248
▁advance	-10.5248
▁irritating	-10.5248
▁intrigue	-10.5248
▁spoof	-10.5248
▁church	-10.5248
▁identity	-10.5248
▁strike	-10.5248
▁tedious	-10.5248
▁unknown	-10.5254
▁Under	-10.5262
▁constant	-10.531
ology	-10.5325
▁boat	-10.5338
Star	-10.5349
▁Sinc	-10.5349
>	-10.535
▁nonsense	-10.535
▁Lynch	-10.535
▁false	-10.535
▁practically	-10.5352
▁addict	-10.5361
▁stock	-10.5364
▁humorous	-10.5367
▁14	-10.5368
▁grew	-10.5374
▁Africa	-10.5426
▁Eye	-10.5445
▁depressing	-10.5453
▁1970	-10.5453
▁alcohol	-10.5453
▁nightmare	-10.5453
▁print	-10.5453
▁sharp	-10.5453
▁park	-10.5453
▁Everyone	-10.546
dimensional	-10.55
Every	-10.555
Chris	-10.555
▁collect	-10.5551
▁authentic	-10.5557
▁THAT	-10.5557
▁accomplish	-10.5557
▁gratuitous	-10.5557
▁Gordon	-10.5557
▁surreal	-10.5557
▁native	-10.5558
▁mask	-10.5561
▁Lord	-10.5568
vision	-10.5581
▁bland	-10.5599
▁Australia	-10.5662
▁execution	-10.5662
▁virtually	-10.5662
▁festival	-10.5662
▁unrealistic	-10.5662
▁driving	-10.5662
▁border	-10.5662
▁section	-10.5663
▁Europe	-10.5758
▁frightening	-10.5768
▁unfunny	-10.5768
▁Nancy	-10.5769
▁Victoria	-10.5769
▁edited	-10.5769
▁supernatural	-10.5769
▁Santa	-10.577
▁nut	-10.5771
▁Danny	-10.5779
▁naive	-10.5789
▁tree	-10.5796
▁cell	-10.5805
▁exploit	-10.587
break	-10.5876
▁blonde	-10.5876
▁frequent	-10.5876
▁Sidney	-10.5876
▁wander	-10.5877
▁risk	-10.5878
▁Jimmy	-10.588
▁strip	-10.5892
▁Howard	-10.5904
Charl	-10.5937
▁danger	-10.5983
▁corrupt	-10.5985
▁Astaire	-10.5985
▁Hitchcock	-10.5985
▁families	-10.5985
▁resemble	-10.5985
▁sacrifice	-10.5985
▁excited	-10.5985
▁revolution	-10.5985
▁substance	-10.5985
▁theatrical	-10.5985
▁condition	-10.5985
▁cruel	-10.5985
▁gonna	-10.5985
bird	-10.5985
▁Space	-10.5988
▁Pitt	-10.599
watch	-10.5991
▁handsome	-10.5992
▁insane	-10.6003
▁spell	-10.6009
finitely	-10.6088
▁patient	-10.6095
▁rubbish	-10.6095
▁multiple	-10.6095
▁witty	-10.6095
▁contrived	-10.6206
▁environment	-10.6206
▁interpretation	-10.6206
▁ordinary	-10.6206
▁service	-10.6206
▁sympathetic	-10.6206
▁switch	-10.6206
▁incident	-10.6206
▁forgive	-10.6207
▁defeat	-10.6208
▁gift	-10.6208
▁Irish	-10.621
▁yell	-10.6211
▁spoke	-10.6216
walk	-10.6225
▁flu	-10.6238
▁tea	-10.6318
▁intellectual	-10.6318
Actually	-10.6318
▁MOVIE	-10.6318
▁motivation	-10.6318
▁vague	-10.6318
▁promising	-10.6318
▁memories	-10.6318
▁creator	-10.6318
▁Moore	-10.6319
▁inform	-10.6319
ENT	-10.632
▁neat	-10.632
▁awake	-10.632
▁junk	-10.6321
▁Julia	-10.6322
▁occasionally	-10.6323
▁Power	-10.6324
▁Edward	-10.6325
▁Wild	-10.6327
▁equal	-10.6392
▁Mexico	-10.6432
▁treasure	-10.6432
▁nude	-10.6432
▁massive	-10.6432
▁Eddie	-10.6432
▁ladies	-10.6432
▁balance	-10.6432
▁harsh	-10.6432
▁Again	-10.6432
▁prior	-10.6432
▁truck	-10.6446
▁sink	-10.645
▁depiction	-10.6452
▁Long	-10.646
▁faithful	-10.6471
▁sudden	-10.6507
▁Francis	-10.6547
▁lesbian	-10.6547
▁technology	-10.6547
▁Thomas	-10.6547
▁yeah	-10.6547
▁dubbed	-10.6547
▁Western	-10.6547
▁Ryan	-10.6547
▁brave	-10.6547
▁Cinema	-10.6548
▁screenwriter	-10.6551
▁tele	-10.6551
▁defend	-10.6553
▁ironic	-10.6554
▁shape	-10.6555
▁underrated	-10.6558
▁wrap	-10.657
existent	-10.6571
Enter	-10.6576
▁semi	-10.6579
▁overwhelm	-10.6663
▁Canadian	-10.6663
▁explosion	-10.6663
▁parody	-10.6663
▁distinct	-10.6663
▁position	-10.6663
▁command	-10.6665
▁exploitation	-10.667
▁contract	-10.6671
▁criticism	-10.6671
Hav	-10.6718
▁inspiration	-10.6781
▁Broadway	-10.6781
▁glimpse	-10.6781
▁mirror	-10.6781
▁haunting	-10.6781
▁nominated	-10.6781
▁ancient	-10.6781
▁United	-10.6781
▁subplot	-10.6782
▁accus	-10.6784
▁amateurish	-10.6786
From	-10.6788
▁slap	-10.6792
▁winner	-10.6792
stead	-10.6804
▁invite	-10.6819
▁unfortunate	-10.686
▁Captain	-10.69
▁mainstream	-10.69
▁variety	-10.69
▁Russell	-10.69
▁Hoffman	-10.69
▁Bourne	-10.69
▁Wonder	-10.69
▁Evil	-10.69
▁jerk	-10.6901
▁feet	-10.6901
▁convict	-10.6905
▁solve	-10.6909
ounce	-10.6947
▁multi	-10.7005
▁practic	-10.7017
▁relation	-10.702
▁Streisand	-10.702
▁assassin	-10.702
▁excitement	-10.702
▁quirky	-10.702
▁refreshing	-10.702
▁significant	-10.702
▁storytelling	-10.702
▁dirty	-10.702
▁gross	-10.7021
▁heaven	-10.7021
▁health	-10.7022
related	-10.7074
▁Vietnam	-10.7142
▁atrocious	-10.7142
▁veteran	-10.7142
▁offensive	-10.7142
▁bodies	-10.7142
▁comedian	-10.7143
▁corny	-10.7143
▁Grand	-10.7143
▁oppos	-10.7145
▁Plus	-10.7146
THING	-10.7153
Watch	-10.7153
▁Devil	-10.7229
▁quest	-10.7252
▁frankly	-10.7266
▁horribly	-10.7266
▁portrait	-10.7266
▁private	-10.7266
▁sympathy	-10.7266
▁tremendous	-10.7266
▁1930	-10.7266
▁built	-10.7266
▁President	-10.7266
▁About	-10.7266
▁climb	-10.7266
▁extent	-10.7267
▁neck	-10.7267
▁outfit	-10.7268
▁prime	-10.7269
▁twin	-10.727
▁anime	-10.727
▁severe	-10.7277
▁Music	-10.729
▁Festival	-10.739
▁Tarzan	-10.739
▁contemporary	-10.739
▁disbelief	-10.739
▁security	-10.739
▁narration	-10.7391
▁summary	-10.7391
▁investigate	-10.7391
▁screw	-10.7391
▁lousy	-10.7391
▁forgettable	-10.7391
▁revolve	-10.7391
▁glass	-10.7391
▁loyal	-10.7391
▁kiss	-10.7392
▁surface	-10.7392
cycle	-10.7393
▁Year	-10.7399
plot	-10.7408
▁cave	-10.7422
▁Mexican	-10.7517
▁competent	-10.7517
▁football	-10.7517
▁landscape	-10.7517
▁department	-10.7517
▁welcome	-10.7517
▁capital	-10.7517
▁zero	-10.7518
written	-10.7533
▁settle	-10.7533
▁shoe	-10.7534
▁tradition	-10.7558
▁Earl	-10.7588
▁ultimate	-10.7606
▁necessarily	-10.7645
▁reputation	-10.7645
▁MGM	-10.7645
▁stolen	-10.7645
▁maintain	-10.7646
▁reject	-10.7646
▁prevent	-10.7646
▁select	-10.7646
▁crude	-10.7647
▁merit	-10.7656
creat	-10.7673
▁obsessed	-10.7775
▁qualities	-10.7775
▁surrounding	-10.7775
▁flawless	-10.7775
ification	-10.7775
ological	-10.7775
▁confess	-10.7775
▁erotic	-10.7775
▁kung	-10.7776
▁freedom	-10.7777
▁task	-10.7777
▁finger	-10.7791
Michael	-10.7794
!!!!!!	-10.7823
▁India	-10.7858
▁expose	-10.7887
▁category	-10.7907
▁consequence	-10.7907
▁franchise	-10.7907
▁stomach	-10.7907
▁unconvincing	-10.7907
▁uninteresting	-10.7907
▁teeth	-10.7907
▁miscast	-10.7907
▁changing	-10.7907
▁method	-10.7907
▁timing	-10.7907
▁funnier	-10.7907
▁Dream	-10.7907
Brazil	-10.7907
▁Child	-10.7907
▁Count	-10.7908
▁blend	-10.7908
▁stalk	-10.7917
developed	-10.7948
▁benefit	-10.804
▁breathtaking	-10.804
▁cabin	-10.804
▁profound	-10.804
▁sensitive	-10.804
▁Wilson	-10.804
▁announce	-10.804
▁prepared	-10.804
▁BBC	-10.804
▁strict	-10.804
▁status	-10.804
▁Elvis	-10.8041
▁scale	-10.8041
▁corner	-10.8041
▁Susan	-10.8043
umbling	-10.8054
Next	-10.8062
Paul	-10.8065
▁introduce	-10.8126
bilit	-10.8157
Sullivan	-10.8175
▁1960	-10.8175
▁disagree	-10.8175
▁ludicrous	-10.8175
▁baseball	-10.8175
▁trapped	-10.8175
▁Vincent	-10.8175
▁Picture	-10.8175
Seriously	-10.8175
▁spark	-10.8176
▁Anderson	-10.8176
▁overcome	-10.8176
▁peace	-10.8178
▁forgot	-10.8179
▁angel	-10.8184
world	-10.82
something	-10.82
Good	-10.82
▁creep	-10.8271
▁politics	-10.8312
▁propaganda	-10.8312
▁purchase	-10.8312
▁cultural	-10.8312
▁extend	-10.8313
▁Leslie	-10.8313
▁transfer	-10.8317
count	-10.8341
▁education	-10.8451
▁Carpenter	-10.8451
▁according	-10.8451
▁international	-10.8451
▁subtitles	-10.8451
▁werewolf	-10.8451
▁Brooks	-10.8451
▁official	-10.8451
▁guide	-10.8451
▁jail	-10.8452
▁honor	-10.8452
known	-10.8476
▁Stanwyck	-10.8592
▁advantage	-10.8592
▁associate	-10.8592
▁gruesome	-10.8592
▁introduction	-10.8592
▁reminiscen	-10.8592
▁stereotypical	-10.8592
▁subsequent	-10.8592
▁Pacino	-10.8592
▁Joseph	-10.8592
▁facial	-10.8592
▁swear	-10.8592
▁widow	-10.8592
▁Glover	-10.8592
▁advise	-10.8592
▁FBI	-10.8592
▁gather	-10.8593
▁guest	-10.8593
▁Blue	-10.8595
▁lift	-10.8596
▁professor	-10.8735
▁California	-10.8735
▁description	-10.8735
▁gritty	-10.8735
▁guarantee	-10.8735
▁slapstick	-10.8735
▁assistant	-10.8735
▁racist	-10.8735
▁evident	-10.8735
▁courage	-10.8735
▁dubbing	-10.8735
▁amazed	-10.8735
▁worry	-10.8735
▁measure	-10.8735
▁Donald	-10.8736
▁slip	-10.8754
drama	-10.8758
including	-10.8767
▁EVER	-10.8827
▁Catholic	-10.888
▁argument	-10.888
▁magazine	-10.888
▁splendid	-10.888
▁terrifying	-10.888
▁1990	-10.888
▁haunted	-10.888
▁access	-10.888
▁Church	-10.888
▁Phillip	-10.888
▁knife	-10.888
▁address	-10.888
▁tongue	-10.888
▁cousin	-10.888
▁contact	-10.888
▁asleep	-10.888
▁destin	-10.8881
comedy	-10.8916
▁homosexual	-10.9027
▁Lugosi	-10.9027
▁blatant	-10.9027
▁continuity	-10.9027
▁dinosaur	-10.9027
▁holiday	-10.9027
▁Arnold	-10.9027
▁throat	-10.9027
▁argue	-10.9027
▁plague	-10.9028
▁motive	-10.9028
▁emerge	-10.9028
▁betray	-10.9029
▁vast	-10.9032
Sorry	-10.9173
IGHT	-10.9176
▁Universal	-10.9176
▁Virgin	-10.9176
▁blockbuster	-10.9176
▁contribute	-10.9176
▁extraordinary	-10.9176
▁inhabit	-10.9176
▁pregnant	-10.9176
▁uniform	-10.9176
▁beloved	-10.9176
▁intensity	-10.9176
▁universe	-10.9176
▁Cooper	-10.9176
▁sheriff	-10.9176
Probably	-10.9177
▁gentle	-10.9177
▁split	-10.9177
Director	-10.9215
appreciat	-10.929
Unlike	-10.9326
▁photo	-10.9327
satisfied	-10.9328
▁atmospheric	-10.9328
▁companion	-10.9328
▁executive	-10.9328
▁increasing	-10.9328
▁struggling	-10.9328
▁stylish	-10.9328
▁horrific	-10.9328
conceived	-10.9328
▁striking	-10.9328
▁Hudson	-10.9328
▁credible	-10.9328
▁plastic	-10.9328
▁eager	-10.9328
▁ANY	-10.9328
▁behave	-10.9328
▁cringe	-10.9403
SPOILER	-10.947
▁Branagh	-10.9481
▁Reynolds	-10.9481
▁Saturday	-10.9481
▁determined	-10.9481
▁happiness	-10.9481
▁Oliver	-10.9481
▁wreck	-10.9482
▁enemy	-10.9482
▁library	-10.9482
▁Grace	-10.9482
▁creation	-10.9482
▁Sadly	-10.9484
▁medical	-10.9487
▁thumb	-10.9518
Maybe	-10.9525
lving	-10.9533
▁urge	-10.9605
▁Karloff	-10.9638
▁Murphy	-10.9638
▁complicated	-10.9638
▁corpse	-10.9638
▁exercise	-10.9638
▁sketch	-10.9638
▁buddy	-10.9638
▁concert	-10.9638
▁illustr	-10.9638
Spoiler	-10.9638
▁damage	-10.9638
▁afternoon	-10.9638
▁minimal	-10.9638
▁president	-10.9638
▁ultra	-10.9639
▁contest	-10.9639
helm	-10.9731
▁disturb	-10.9735
▁LOVE	-10.9796
▁Vampire	-10.9796
▁dynamic	-10.9796
▁horrendous	-10.9796
▁newspaper	-10.9796
▁triumph	-10.9796
▁custom	-10.9796
▁network	-10.9796
▁immense	-10.9796
Character	-10.9796
▁heavily	-10.9796
▁mechanic	-10.9796
▁Friday	-10.9796
▁chief	-10.9796
▁blah	-10.9797
▁goofy	-10.9797
▁Brenda	-10.9797
0,000	-10.9804
▁float	-10.9805
▁endure	-10.9883
▁Apparently	-10.9958
▁Simpson	-10.9958
▁ensemble	-10.9958
▁jealous	-10.9958
▁journalist	-10.9958
▁obsession	-10.9958
▁principal	-10.9958
▁sinister	-10.9958
▁Jessica	-10.9958
▁credibility	-10.9958
▁Cagney	-10.9958
▁editor	-10.9958
▁Sandler	-10.9958
▁Sunday	-10.9958
▁Rachel	-10.9958
▁relax	-10.9958
▁vivid	-10.9958
▁Legend	-10.9958
▁Seagal	-10.9958
▁lonely	-10.9958
▁Blair	-10.9958
▁adopt	-10.9959
▁promote	-10.9962
▁snap	-10.997
▁Curtis	-11.0122
▁appalling	-11.0122
▁deliberate	-11.0122
▁outrageous	-11.0122
▁revelation	-11.0122
▁superficial	-11.0122
▁trilogy	-11.0122
▁Columbo	-11.0122
▁Especially	-11.0122
▁ticket	-11.0122
▁nurse	-11.0122
▁enhance	-11.0122
provoking	-11.0122
albeit	-11.0122
▁grim	-11.0127
when	-11.0177
direct	-11.0195
prising	-11.0229
AVE	-11.0286
▁Bakshi	-11.0288
▁Channel	-11.0288
▁Elizabeth	-11.0288
▁obnoxious	-11.0288
▁suspend	-11.0288
▁territory	-11.0288
▁virgin	-11.0288
▁retarded	-11.0288
▁bridge	-11.0288
▁smooth	-11.0288
▁divorce	-11.0288
▁medium	-11.0288
▁borrow	-11.0288
▁scheme	-11.0288
▁stiff	-11.0288
▁generate	-11.0288
▁Blake	-11.0289
▁endearing	-11.0289
▁Sometimes	-11.0289
▁Winter	-11.0289
phrase	-11.0289
▁eerie	-11.0289
▁Brando	-11.029
▁storm	-11.0291
▁sale	-11.0302
downright	-11.0313
Where	-11.0345
Robert	-11.0346
▁threat	-11.0446
Excellent	-11.0458
▁Matrix	-11.0458
▁expensive	-11.0458
▁imaginative	-11.0458
▁nowadays	-11.0458
▁sleazy	-11.0458
▁tribute	-11.0458
▁turkey	-11.0458
▁racism	-11.0458
Atlantis	-11.0458
▁1940	-11.0458
▁pursue	-11.0458
▁scratch	-11.0458
▁Uncle	-11.0458
▁lazy	-11.0458
▁buried	-11.0458
▁attracted	-11.0458
▁urban	-11.0458
▁disappoint	-11.0501
David	-11.0518
Great	-11.0518
▁obscure	-11.063
▁poignant	-11.063
▁jungle	-11.063
▁lovable	-11.063
▁vacation	-11.063
▁dignity	-11.063
▁Dawson	-11.063
▁destruction	-11.063
▁Claire	-11.063
▁attraction	-11.063
▁garden	-11.063
▁dragged	-11.0631
▁shift	-11.0632
▁Penn	-11.0793
▁brilliance	-11.0806
▁confusion	-11.0806
▁fabulous	-11.0806
▁importance	-11.0806
*1/2	-11.0806
▁Chaplin	-11.0806
▁montage	-11.0806
▁thirty	-11.0806
▁cheese	-11.0806
▁precise	-11.0806
▁Ralph	-11.0806
▁nomination	-11.0806
▁chuckle	-11.0806
▁hiding	-11.0806
▁tiny	-11.0806
▁portion	-11.0807
▁translate	-11.0809
▁fianc	-11.0822
▁Hawk	-11.0823
piece	-11.0872
wife	-11.0872
characterization	-11.0953
▁Hamilton	-11.0984
▁Patrick	-11.0984
▁backdrop	-11.0984
▁elaborate	-11.0984
Beautiful	-11.0984
Personally	-11.0984
▁easier	-11.0984
▁disguise	-11.0984
▁wheel	-11.0984
▁error	-11.0984
▁Sarah	-11.0984
▁2001	-11.0984
▁Derek	-11.0985
▁Alice	-11.0985
relatively	-11.1001
▁Dorothy	-11.1166
▁Lloyd	-11.1166
▁WWII	-11.1166
▁hysterical	-11.1166
▁ourselves	-11.1166
▁Stanley	-11.1166
▁Nelson	-11.1166
▁milk	-11.1166
▁dinner	-11.1166
▁fortune	-11.1166
▁snake	-11.1166
▁menacing	-11.1166
▁digital	-11.1166
▁Israel	-11.1166
▁True	-11.1166
▁Price	-11.1167
▁dominate	-11.1172
Unfortunately	-11.1239
original	-11.1239
High	-11.1239
▁collaborat	-11.1351
▁Denzel	-11.1351
▁Lincoln	-11.1351
▁caricature	-11.1351
▁controversial	-11.1351
▁Mitchell	-11.1351
▁Widmark	-11.1351
▁Cusack	-11.1351
Scream	-11.1351
▁Cameron	-11.1351
▁elderly	-11.1351
▁smash	-11.1351
▁Family	-11.1351
▁liberal	-11.1351
▁warrior	-11.1351
▁ambition	-11.1352
▁slug	-11.1373
script	-11.1432
▁Matthau	-11.154
▁Sutherland	-11.154
▁believing	-11.154
▁conclude	-11.154
▁happily	-11.154
▁infamous	-11.154
▁installment	-11.154
▁puzzle	-11.154
▁Grinch	-11.154
▁parallel	-11.154
▁casual	-11.154
▁prince	-11.154
▁blank	-11.154
▁Murder	-11.154
▁Ghost	-11.154
▁Monster	-11.154
▁Vega	-11.154
▁shark	-11.154
▁Woman	-11.154
▁showcase	-11.1541
ROM	-11.1542
OUT	-11.1545
horror	-11.162
▁Godfather	-11.1732
▁conspiracy	-11.1732
▁encourage	-11.1732
▁monkey	-11.1732
▁reduced	-11.1732
▁slaughter	-11.1732
convenient	-11.1732
▁colleague	-11.1732
▁horrid	-11.1732
▁investigation	-11.1732
▁Margaret	-11.1732
▁Gabriel	-11.1732
▁Kapoor	-11.1732
▁Planet	-11.1732
▁sneak	-11.1732
▁abilities	-11.1732
▁generic	-11.1732
▁essence	-11.1732
▁devil	-11.1732
▁steam	-11.1733
Hamlet	-11.1733
▁trauma	-11.1733
▁Cuba	-11.1739
▁pseudo	-11.1928
▁Muslim	-11.1928
▁cannibal	-11.1928
▁cowboy	-11.1928
▁puppet	-11.1928
▁redemption	-11.1928
▁removed	-11.1928
▁underground	-11.1928
▁Inspector	-11.1928
▁Video	-11.1928
▁HBO	-11.1928
Honestly	-11.1928
▁slick	-11.1928
titude	-11.1929
▁excel	-11.1953
special	-11.2016
▁Olivier	-11.2128
▁convoluted	-11.2128
▁curiosity	-11.2128
▁enormous	-11.2128
▁frustration	-11.2128
▁incoherent	-11.2128
▁relevant	-11.2128
▁restaurant	-11.2128
▁sophisticated	-11.2128
▁Rochester	-11.2128
▁Bridge	-11.2128
▁observe	-11.2128
▁Connery	-11.2128
▁Friend	-11.2128
▁Greek	-11.2128
▁grasp	-11.2128
video	-11.222
white	-11.222
▁definite	-11.2293
▁absorb	-11.2332
▁Dracula	-11.2332
▁Soprano	-11.2332
▁competition	-11.2332
▁confirm	-11.2332
▁electric	-11.2332
▁gimmick	-11.2332
▁pattern	-11.2332
▁splatter	-11.2332
▁unforgettable	-11.2332
▁silence	-11.2332
▁bargain	-11.2332
▁Alexander	-11.2332
▁Office	-11.2333
▁exotic	-11.2333
plication	-11.2333
Though	-11.2428
Richard	-11.2428
▁dimension	-11.2446
According	-11.2541
▁Century	-11.2541
▁Ustinov	-11.2541
▁adequate	-11.2541
▁choreography	-11.2541
▁desperation	-11.2541
▁exaggerated	-11.2541
▁exchange	-11.2541
▁futuristic	-11.2541
▁grandmother	-11.2541
▁innocence	-11.2541
▁interrupt	-11.2541
▁politician	-11.2541
▁predecessor	-11.2541
▁condemn	-11.2541
▁Flynn	-11.2541
▁nonetheless	-11.2541
▁Madonna	-11.2541
▁coherent	-11.2541
Special	-11.2541
▁dismiss	-11.2541
Imagine	-11.2541
