<unk>	0
<s>	0
</s>	0
s	-3.11923
▁the	-3.54165
,	-3.63265
.	-3.72264
▁a	-3.98199
▁	-4.13684
▁and	-4.19999
t	-4.24459
▁of	-4.26413
▁to	-4.28063
'	-4.37053
br	-4.55083
▁is	-4.56418
▁/>	-4.59948
▁in	-4.62574
ing	-4.78599
▁it	-4.83393
ed	-4.84241
▁I	-4.87872
d	-4.96971
▁that	-4.98031
y	-5.04469
n	-5.10374
▁this	-5.12518
<	-5.13311
e	-5.30405
ly	-5.32693
▁was	-5.34957
-	-5.3499
▁for	-5.37653
▁movie	-5.41497
▁with	-5.46804
▁film	-5.47701
er	-5.54399
▁as	-5.59
.<	-5.59933
i	-5.63108
m	-5.63897
re	-5.67802
▁but	-5.68278
▁The	-5.68471
o	-5.69091
a	-5.70343
▁on	-5.72009
▁be	-5.72535
▁(	-5.73851
c	-5.78238
p	-5.80246
▁you	-5.80318
"	-5.81651
r	-5.82424
▁"	-5.82829
▁are	-5.83086
▁not	-5.84811
▁he	-5.86333
al	-5.87674
▁have	-5.88032
▁his	-5.90052
in	-5.96071
l	-5.99705
or	-6.00566
▁one	-6.03213
u	-6.08245
)	-6.0829
g	-6.1005
▁so	-6.10598
▁an	-6.11481
▁all	-6.15906
▁by	-6.1641
▁who	-6.17019
▁like	-6.1831
ar	-6.186
I	-6.20802
an	-6.21871
le	-6.23276
▁at	-6.24734
▁from	-6.25079
ur	-6.25206
k	-6.27032
▁S	-6.28917
▁out	-6.29206
en	-6.34161
▁they	-6.36473
▁re	-6.37545
▁her	-6.38236
▁about	-6.38446
ic	-6.38469
▁just	-6.39386
b	-6.39801
▁has	-6.39898
▁A	-6.40024
ve	-6.41005
es	-6.41651
▁or	-6.4189
it	-6.45355
▁me	-6.45798
!	-6.46727
ri	-6.46946
th	-6.47118
on	-6.4744
▁some	-6.47621
f	-6.48123
▁It	-6.48813
?	-6.50878
▁can	-6.51735
▁B	-6.52247
▁no	-6.53596
A	-6.54938
▁good	-6.55859
ch	-6.56088
S	-6.5643
ir	-6.58072
▁more	-6.58816
▁up	-6.60128
w	-6.61007
h	-6.61494
The	-6.62005
▁would	-6.62483
▁very	-6.63932
▁f	-6.64765
▁p	-6.64813
▁what	-6.66406
▁time	-6.6786
v	-6.68849
at	-6.69084
▁F	-6.69362
se	-6.70406
▁P	-6.71609
▁do	-6.72578
▁see	-6.73031
ll	-6.73307
...	-6.73362
▁when	-6.74873
▁T	-6.756
▁there	-6.76133
▁story	-6.77031
▁she	-6.77443
▁C	-6.78608
▁c	-6.79397
▁really	-6.7978
▁even	-6.80661
▁were	-6.80869
as	-6.81006
▁had	-6.82017
▁we	-6.82344
▁only	-6.82621
▁b	-6.82813
▁if	-6.84044
▁E	-6.84557
▁which	-6.84583
ent	-6.8469
ra	-6.8505
▁my	-6.85225
▁than	-6.86664
▁show	-6.86826
▁their	-6.87241
T	-6.87785
▁W	-6.88716
el	-6.89307
▁other	-6.89433
ation	-6.91432
▁G	-6.91512
▁st	-6.91532
:	-6.91595
ate	-6.92099
▁de	-6.92941
▁un	-6.93269
E	-6.95953
us	-6.9689
ion	-6.97473
▁bad	-6.97704
▁much	-6.97954
ill	-6.98072
il	-6.98512
ne	-6.98639
ter	-6.99515
▁get	-6.99648
▁K	-6.99869
O	-7.00271
ive	-7.01472
▁great	-7.01522
▁been	-7.01817
▁make	-7.02121
un	-7.02443
ad	-7.02667
▁will	-7.03288
able	-7.03795
is	-7.04429
im	-7.04522
▁This	-7.04562
▁well	-7.0527
▁most	-7.05336
et	-7.05485
▁him	-7.05505
id	-7.05616
▁way	-7.05778
▁into	-7.06221
▁-	-7.06372
▁think	-7.06771
▁people	-7.07228
lo	-7.07437
▁because	-7.0752
ry	-7.08636
ce	-7.09132
▁go	-7.09304
ie	-7.10755
ro	-7.10967
▁know	-7.11081
and	-7.11282
D	-7.11484
▁made	-7.12574
▁over	-7.13577
li	-7.13668
ity	-7.14651
ol	-7.1469
▁first	-7.14806
▁character	-7.16542
est	-7.17361
um	-7.17491
▁also	-7.17768
▁any	-7.17986
▁could	-7.18691
▁them	-7.19485
▁end	-7.19971
▁how	-7.21272
▁He	-7.21649
M	-7.21794
la	-7.21954
▁con	-7.23259
▁don	-7.24054
▁say	-7.24127
ul	-7.24384
▁love	-7.24785
▁w	-7.2535
▁work	-7.25779
▁r	-7.25851
▁H	-7.25934
▁too	-7.26604
▁e	-7.27027
▁ex	-7.2703
x	-7.28936
▁And	-7.29659
C	-7.29922
;	-7.30422
▁watch	-7.30484
man	-7.3104
▁seen	-7.31283
ver	-7.32192
tion	-7.32542
▁plot	-7.33364
H	-7.33702
ment	-7.34055
▁M	-7.34113
te	-7.34405
ers	-7.35034
▁But	-7.35198
▁dis	-7.35221
z	-7.36247
▁characters	-7.36355
▁off	-7.37006
B	-7.37638
▁two	-7.38157
▁acting	-7.38292
ow	-7.38415
ant	-7.38597
▁after	-7.38598
▁scene	-7.38715
less	-7.38864
▁never	-7.39318
▁many	-7.3978
▁part	-7.40865
ig	-7.40925
am	-7.40974
▁sp	-7.41027
▁h	-7.41907
om	-7.42508
▁D	-7.42639
ma	-7.42774
▁life	-7.4308
).	-7.43094
L	-7.43305
▁being	-7.43389
ted	-7.43452
▁little	-7.43698
This	-7.44206
▁man	-7.44712
▁did	-7.45059
▁i	-7.45301
ick	-7.45336
▁best	-7.4568
▁where	-7.46308
▁O	-7.46564
▁does	-7.46588
ell	-7.47368
▁ever	-7.47531
ist	-7.48358
▁g	-7.48358
▁V	-7.48657
▁In	-7.49149
▁co	-7.49222
▁'	-7.49649
▁better	-7.50412
ous	-7.50619
▁N	-7.50842
op	-7.5091
age	-7.51948
N	-7.52008
),	-7.52426
ty	-7.52839
W	-7.52857
ies	-7.52957
em	-7.53258
ine	-7.54305
▁your	-7.54391
▁want	-7.55269
▁v	-7.553
▁should	-7.55407
▁movies	-7.55462
ge	-7.55645
▁back	-7.56229
the	-7.56495
/	-7.56734
▁real	-7.57408
ag	-7.57431
qu	-7.5753
sh	-7.5753
▁find	-7.58277
▁mo	-7.59009
▁still	-7.59528
me	-7.59601
▁ch	-7.59991
▁here	-7.60457
▁look	-7.60703
son	-7.6079
G	-7.61554
all	-7.61828
R	-7.62181
▁pro	-7.62618
▁ma	-7.62849
▁scenes	-7.62879
ho	-7.63088
ain	-7.64078
ap	-7.64162
▁through	-7.64341
▁such	-7.65087
ight	-7.65942
end	-7.66043
co	-7.66136
▁something	-7.66186
ish	-7.66448
ia	-7.66464
ally	-7.66468
▁give	-7.66531
ance	-7.66611
▁then	-7.66666
dy	-7.6691
▁tr	-7.66931
▁films	-7.66979
ee	-7.67239
ac	-7.67356
▁cast	-7.68149
▁St	-7.68328
▁lot	-7.68373
▁<	-7.68539
▁Ro	-7.68802
tic	-7.68802
mo	-7.69029
ting	-7.6905
▁old	-7.69285
▁sh	-7.69422
de	-7.69628
hi	-7.70614
▁Ma	-7.70715
one	-7.70773
▁point	-7.70846
▁There	-7.7093
▁thing	-7.70956
▁doesn	-7.71128
ther	-7.71873
na	-7.74546
▁cr	-7.74567
▁director	-7.74671
ack	-7.74855
od	-7.76337
if	-7.76378
F	-7.76639
ot	-7.77189
▁funny	-7.7732
▁lo	-7.77428
▁those	-7.77438
P	-7.77485
▁years	-7.77589
▁L	-7.77754
▁didn	-7.7798
no	-7.78623
5	-7.78703
pe	-7.7882
ck	-7.79136
▁1	-7.79155
bo	-7.79318
▁down	-7.79338
lu	-7.7964
ld	-7.79688
▁watching	-7.79732
▁actors	-7.79823
ian	-7.80395
▁role	-7.80504
▁these	-7.80659
0	-7.81106
rr	-7.8146
▁ho	-7.81584
to	-7.81616
▁guy	-7.81758
▁De	-7.82001
▁start	-7.82736
▁bit	-7.82753
mi	-7.82887
▁few	-7.82924
▁fact	-7.82977
ard	-7.82991
ke	-7.83594
ated	-7.83705
▁la	-7.83853
▁going	-7.83932
com	-7.84845
up	-7.84957
▁R	-7.85423
▁before	-7.85496
▁though	-7.85543
ness	-7.85607
ut	-7.85878
▁actually	-7.86494
▁star	-7.86499
▁feel	-7.86586
▁us	-7.86599
▁long	-7.86784
▁why	-7.86809
be	-7.86818
he	-7.87562
▁while	-7.87762
▁original	-7.8781
▁every	-7.87891
ster	-7.88039
per	-7.88152
▁makes	-7.88353
▁Ch	-7.88462
▁its	-7.88471
▁another	-7.88866
▁same	-7.88959
▁Le	-7.89039
▁come	-7.89423
▁mean	-7.89544
▁laugh	-7.89861
ward	-7.90344
▁got	-7.90378
ni	-7.9042
ner	-7.90508
▁19	-7.90753
▁again	-7.90793
▁If	-7.91142
ence	-7.91202
▁girl	-7.91516
▁far	-7.91888
▁am	-7.91972
▁&	-7.92047
▁quite	-7.92337
▁fl	-7.92718
▁turn	-7.92747
1	-7.93181
▁thought	-7.93329
▁pretty	-7.93364
▁own	-7.9344
▁di	-7.93591
▁new	-7.93714
ber	-7.9385
vo	-7.9399
▁nothing	-7.94068
*	-7.94331
▁young	-7.94452
go	-7.94611
ph	-7.94761
ise	-7.94845
▁fan	-7.95004
▁pre	-7.95005
▁both	-7.95194
ful	-7.95279
Y	-7.95787
▁around	-7.96095
▁action	-7.96233
nd	-7.96238
▁enough	-7.9653
ca	-7.97126
oo	-7.97259
▁day	-7.97523
ha	-7.98357
▁hard	-7.98526
▁bo	-7.98574
▁script	-7.98661
act	-7.98938
ious	-7.98996
ta	-7.99117
mer	-7.99167
▁set	-7.99328
for	-7.99974
ear	-8.00053
▁now	-8.00115
▁seems	-8.00177
▁right	-8.0044
pp	-8.0099
min	-8.01425
di	-8.01758
8	-8.02353
▁take	-8.02441
▁horror	-8.02733
▁need	-8.0277
▁bl	-8.02822
▁Mar	-8.03013
▁So	-8.03239
▁Bo	-8.03982
▁Be	-8.03997
▁fun	-8.04008
land	-8.0406
▁Re	-8.04166
▁may	-8.04205
▁between	-8.04332
▁kind	-8.04949
▁things	-8.05077
▁You	-8.05259
ial	-8.05429
▁en	-8.05453
▁interesting	-8.05477
king	-8.05535
po	-8.06021
▁car	-8.06299
▁reason	-8.06351
▁She	-8.06556
▁J	-8.06867
▁series	-8.06899
▁live	-8.07148
tra	-8.07518
▁world	-8.07531
▁line	-8.07586
▁saw	-8.07743
7	-8.08536
K	-8.08665
▁Ca	-8.08784
▁tell	-8.09015
▁dr	-8.09433
▁performance	-8.09502
ide	-8.09563
▁least	-8.09614
fe	-8.09853
V	-8.0993
▁always	-8.101
ak	-8.10111
▁big	-8.10165
9	-8.10183
▁whole	-8.10222
ex	-8.1052
▁without	-8.10661
▁2	-8.10766
▁read	-8.11715
▁hand	-8.11776
ten	-8.11845
ary	-8.11866
▁ro	-8.12326
▁Ho	-8.12337
▁put	-8.12427
3	-8.12559
che	-8.12609
cu	-8.12769
▁family	-8.13324
▁music	-8.13398
▁expect	-8.13492
▁must	-8.13572
▁under	-8.13855
▁La	-8.13861
▁done	-8.14273
▁become	-8.14347
--	-8.14351
ever	-8.14441
uc	-8.14547
ice	-8.14761
▁th	-8.14815
▁Mo	-8.14966
▁believe	-8.1502
▁No	-8.15101
▁might	-8.15112
▁lead	-8.15113
▁last	-8.15127
▁screen	-8.15449
ton	-8.1555
▁j	-8.15601
▁pr	-8.15752
▁war	-8.15857
ving	-8.1589
▁place	-8.159
▁comedy	-8.1646
ling	-8.16736
▁play	-8.16829
ake	-8.17845
▁10	-8.18019
▁cl	-8.18067
▁name	-8.18319
▁worth	-8.18498
▁minutes	-8.18549
▁Ha	-8.18745
▁Al	-8.18808
▁po	-8.18879
▁almost	-8.18938
▁shot	-8.19104
der	-8.19178
▁anything	-8.19209
6	-8.19559
▁Y	-8.19923
▁To	-8.2005
▁They	-8.20059
U	-8.20674
side	-8.20734
▁help	-8.21467
▁idea	-8.2188
▁We	-8.21902
ating	-8.21954
ue	-8.21979
▁main	-8.22674
▁rather	-8.22745
▁audience	-8.22834
cent	-8.23187
ru	-8.24083
ab	-8.24436
▁high	-8.24871
▁since	-8.24887
▁Da	-8.25201
▁TV	-8.25213
▁gets	-8.25306
▁away	-8.25427
▁book	-8.25741
ach	-8.26127
2	-8.26243
▁ba	-8.26253
▁gr	-8.26605
▁For	-8.26662
ay	-8.27034
▁found	-8.27078
▁sure	-8.27146
tor	-8.27353
red	-8.27422
bi	-8.27678
▁probably	-8.27757
▁Ba	-8.27991
wi	-8.28032
uck	-8.28416
use	-8.28569
▁seem	-8.28768
▁making	-8.28797
▁Mi	-8.28958
▁woman	-8.29322
▁trying	-8.29497
▁worst	-8.29618
▁times	-8.29676
▁Th	-8.29923
▁poor	-8.30403
4	-8.30715
▁our	-8.30853
▁happen	-8.3092
▁Li	-8.3102
▁sense	-8.31313
par	-8.31564
ger	-8.31586
▁beautiful	-8.31715
▁course	-8.31716
▁isn	-8.3185
▁That	-8.31922
fi	-8.32579
▁John	-8.32764
▁Lo	-8.32822
pa	-8.33167
▁different	-8.33344
▁use	-8.33684
▁version	-8.33859
▁comp	-8.3397
ran	-8.33983
▁act	-8.33992
(	-8.3402
▁keep	-8.34168
mon	-8.34739
It	-8.34813
▁actor	-8.35344
▁Do	-8.3565
▁ending	-8.35692
▁let	-8.35788
▁each	-8.3603
▁Ra	-8.36142
ang	-8.36573
▁sl	-8.36689
▁Je	-8.36833
lie	-8.37168
▁Co	-8.3731
▁kill	-8.37455
▁job	-8.37538
▁na	-8.37641
▁DVD	-8.3775
ring	-8.37856
aw	-8.38065
▁What	-8.3824
ably	-8.38253
▁yet	-8.38545
▁episode	-8.38611
ite	-8.38733
gu	-8.38835
den	-8.39155
▁comes	-8.39236
▁short	-8.39276
ba	-8.39385
▁rest	-8.39496
▁mind	-8.39498
ook	-8.39543
out	-8.39754
▁perfect	-8.39812
ace	-8.39971
▁goes	-8.40062
own	-8.40268
▁problem	-8.40357
▁boy	-8.40933
▁anyone	-8.41291
▁year	-8.41407
old	-8.41422
▁sub	-8.41529
▁American	-8.41561
ism	-8.41701
like	-8.41738
wa	-8.4179
▁nice	-8.42263
▁An	-8.42271
J	-8.42892
ff	-8.43147
▁having	-8.43288
▁money	-8.43523
ure	-8.43683
▁As	-8.43894
▁view	-8.43917
",	-8.4417
▁Se	-8.44211
▁someone	-8.44387
▁home	-8.44449
▁looks	-8.44483
▁enjoy	-8.44901
▁less	-8.44914
▁low	-8.45011
."	-8.45188
▁played	-8.45224
▁watched	-8.45389
app	-8.45522
do	-8.45539
▁recommend	-8.45553
▁said	-8.4567
ub	-8.45864
ough	-8.46029
▁special	-8.46368
bb	-8.46566
▁second	-8.46602
▁human	-8.46603
▁U	-8.46913
▁effects	-8.46925
▁himself	-8.47662
▁entire	-8.47662
▁wife	-8.47901
▁plays	-8.48258
▁looking	-8.4847
▁da	-8.48547
▁together	-8.48615
▁Car	-8.48825
▁came	-8.49215
▁fall	-8.49272
▁half	-8.49576
ning	-8.49629
rew	-8.49671
io	-8.4989
▁Pa	-8.50266
▁three	-8.50426
▁win	-8.50542
▁comment	-8.50548
▁review	-8.50911
▁Sa	-8.51085
▁especially	-8.51129
▁left	-8.51157
▁Har	-8.51279
▁head	-8.51322
▁understand	-8.51525
ron	-8.5156
▁night	-8.51671
bu	-8.51751
▁Sp	-8.52086
▁true	-8.52092
▁follow	-8.52142
▁imp	-8.52146
▁All	-8.52278
▁eye	-8.52374
press	-8.52435
▁sound	-8.52588
▁viewer	-8.52667
▁ga	-8.52911
▁miss	-8.5313
ble	-8.53298
▁gl	-8.53388
▁wasn	-8.53847
▁fight	-8.53952
▁else	-8.54157
ical	-8.54173
▁portray	-8.54396
port	-8.54467
▁hour	-8.54556
led	-8.54617
▁add	-8.54922
▁hope	-8.55063
▁cut	-8.55465
▁later	-8.55716
▁friend	-8.55736
cy	-8.55763
▁sex	-8.55787
tro	-8.56192
▁close	-8.56457
▁murder	-8.56573
▁remember	-8.56962
han	-8.57208
▁death	-8.57226
▁during	-8.57378
▁excellent	-8.57483
▁classic	-8.57504
▁takes	-8.57551
ame	-8.57637
▁seeing	-8.57796
ler	-8.5792
▁appear	-8.57962
▁care	-8.57972
▁li	-8.58017
▁piece	-8.58271
▁fo	-8.58318
▁camera	-8.5839
▁everything	-8.58537
az	-8.58572
ker	-8.58745
dge	-8.58759
▁father	-8.58838
▁face	-8.5907
▁Not	-8.59151
▁simply	-8.59196
▁ha	-8.59199
ong	-8.59283
▁ta	-8.59363
▁house	-8.59394
▁production	-8.59477
▁supposed	-8.59485
▁attempt	-8.59863
▁cinema	-8.59863
low	-8.60202
ound	-8.60284
ER	-8.60352
▁Su	-8.60416
con	-8.60438
▁3	-8.60738
▁completely	-8.60813
ug	-8.60901
▁art	-8.60982
▁Me	-8.61232
we	-8.61462
ade	-8.61649
▁Jo	-8.61675
day	-8.62113
▁won	-8.62759
▁heart	-8.62919
▁fail	-8.63301
▁fr	-8.63302
▁decide	-8.63543
mark	-8.63629
▁lack	-8.6366
gr	-8.63914
▁wrong	-8.6396
ture	-8.64089
!!!	-8.6433
▁du	-8.64674
▁person	-8.64712
▁When	-8.65119
In	-8.65964
▁black	-8.66154
▁once	-8.66431
▁awful	-8.66527
▁video	-8.66643
▁interest	-8.66748
ev	-8.6678
itch	-8.66944
gan	-8.66975
lin	-8.66988
but	-8.67077
▁instead	-8.67217
▁change	-8.67243
▁leave	-8.67361
▁plan	-8.67389
▁used	-8.67615
▁child	-8.6765
▁mis	-8.67756
▁couple	-8.67795
da	-8.67855
▁full	-8.67873
ible	-8.67879
▁Hollywood	-8.67954
▁stupid	-8.68085
hy	-8.68111
▁move	-8.68141
▁picture	-8.68376
▁word	-8.68384
ize	-8.68433
▁song	-8.6848
▁everyone	-8.68772
▁wonderful	-8.68837
▁men	-8.68875
▁gra	-8.6914
▁boring	-8.69174
▁try	-8.69303
gen	-8.69582
▁cop	-8.69584
j	-8.69942
/10	-8.70139
▁slow	-8.70306
ric	-8.70336
▁talent	-8.70448
▁given	-8.70508
▁fine	-8.7056
her	-8.70674
▁dialogue	-8.70898
▁4	-8.71027
▁Man	-8.71171
▁mention	-8.71411
▁bring	-8.7146
▁title	-8.71483
▁However	-8.71504
▁either	-8.71634
cap	-8.71642
va	-8.71768
▁school	-8.71784
ink	-8.71873
ident	-8.71896
▁Di	-8.71962
▁flick	-8.7237
▁moments	-8.72507
where	-8.72545
▁along	-8.7255
ah	-8.72612
▁until	-8.72715
▁light	-8.72974
▁run	-8.73025
▁consider	-8.73152
▁truly	-8.73154
by	-8.73637
ley	-8.73688
ile	-8.73732
▁performances	-8.73997
▁--	-8.74041
▁terrible	-8.7407
▁kids	-8.74253
▁case	-8.74396
cr	-8.74615
▁Well	-8.74657
▁surprise	-8.74689
▁ten	-8.74774
▁sad	-8.75244
▁Lu	-8.75269
▁small	-8.75313
▁Gr	-8.75597
▁sequence	-8.75624
▁My	-8.75642
▁felt	-8.7595
lan	-8.75952
▁waste	-8.7599
▁sit	-8.76033
▁feeling	-8.76565
even	-8.76742
▁Po	-8.76785
▁Even	-8.76899
▁humor	-8.77204
▁pass	-8.77259
▁inter	-8.77385
ki	-8.77415
▁sort	-8.77456
▁itself	-8.77522
▁par	-8.7764
▁joke	-8.77713
▁side	-8.77779
ov	-8.77819
▁example	-8.77841
val	-8.77976
▁One	-8.78337
▁hero	-8.78378
gue	-8.78453
eg	-8.7861
▁women	-8.78646
way	-8.78766
▁feature	-8.78829
▁manage	-8.78989
▁writer	-8.79155
▁playing	-8.79236
▁wonder	-8.79305
unk	-8.79308
ju	-8.79331
light	-8.79409
of	-8.79537
▁worse	-8.79947
▁THE	-8.80114
▁Some	-8.80264
▁experience	-8.80273
▁budget	-8.80369
▁absolutely	-8.80708
▁doing	-8.80714
row	-8.80964
ically	-8.81117
▁getting	-8.81123
▁friends	-8.81351
spect	-8.8153
▁however	-8.81574
ple	-8.81646
ative	-8.81735
▁game	-8.81767
▁stand	-8.81943
▁deal	-8.8197
au	-8.81997
▁Ar	-8.82097
▁style	-8.82104
▁fa	-8.82209
oke	-8.82212
▁begin	-8.82249
▁couldn	-8.82849
▁kid	-8.82932
die	-8.82977
▁next	-8.83271
▁hit	-8.8329
ator	-8.83352
▁ski	-8.8354
▁past	-8.8355
▁Ja	-8.83614
If	-8.83917
▁im	-8.83973
▁guess	-8.84123
▁late	-8.84247
▁beginning	-8.84316
ney	-8.84597
time	-8.85373
▁ob	-8.85457
▁drama	-8.85757
▁strong	-8.85841
▁final	-8.85878
There	-8.86183
▁written	-8.86361
ities	-8.86456
▁often	-8.86481
▁direction	-8.8697
how	-8.87185
▁Mr	-8.87368
▁meet	-8.87462
▁killer	-8.8767
▁support	-8.87942
▁early	-8.88144
ung	-8.88157
istic	-8.8864
▁His	-8.88697
!!	-8.88771
▁dark	-8.89034
que	-8.89115
▁present	-8.89204
▁rent	-8.89236
AN	-8.89268
▁dead	-8.89297
ship	-8.89645
▁On	-8.898
▁per	-8.90069
▁Don	-8.90152
ane	-8.90299
round	-8.90457
▁went	-8.90561
fully	-8.90894
jo	-8.91033
▁mother	-8.91173
▁children	-8.91186
amp	-8.91237
▁actress	-8.9137
uff	-8.91412
▁maybe	-8.91644
▁Un	-8.91686
▁against	-8.91723
▁voice	-8.91736
▁War	-8.91866
▁favorite	-8.91924
▁wait	-8.92301
▁amazing	-8.92473
▁tries	-8.92495
nny	-8.92607
▁call	-8.92722
▁create	-8.92769
▁Jack	-8.92994
▁totally	-8.93102
RE	-8.93325
▁New	-8.93398
rated	-8.93427
ock	-8.93429
▁genre	-8.936
▁several	-8.93779
▁wanted	-8.93943
▁seemed	-8.9401
avi	-8.94216
▁stop	-8.94267
▁entertaining	-8.9483
van	-8.94841
▁definitely	-8.95101
▁question	-8.95292
▁mu	-8.95362
▁matter	-8.95488
▁tea	-8.95892
▁self	-8.96058
▁Mc	-8.96082
▁writing	-8.9625
▁town	-8.96378
▁Bro	-8.96401
nder	-8.96906
▁touch	-8.97095
▁Du	-8.97134
▁moment	-8.97134
▁walk	-8.97239
fa	-8.97343
ON	-8.9746
▁brother	-8.97802
▁learn	-8.97802
▁stuff	-8.98105
***	-8.98587
▁direct	-8.98634
▁strange	-8.98815
▁relationship	-8.9918
▁break	-8.99181
ized	-8.99208
▁nu	-8.99255
▁already	-8.99577
▁deliver	-8.99577
▁stay	-8.99599
▁super	-8.99676
▁certainly	-8.99685
▁evil	-8.99779
▁number	-8.99976
key	-8.99982
rk	-9.00246
▁throughout	-9.00264
▁although	-9.00376
▁loved	-9.00792
▁Dr	-9.00856
▁quality	-9.01182
▁brilliant	-9.01384
▁horrible	-9.01384
ze	-9.01612
▁personal	-9.01783
▁Ru	-9.01836
mar	-9.01959
▁crap	-9.01964
play	-9.02228
▁blood	-9.0261
▁credit	-9.02613
some	-9.02653
▁Bu	-9.02704
▁talk	-9.02802
▁fair	-9.02802
▁save	-9.02817
line	-9.02831
▁lost	-9.02839
▁enjoyed	-9.02994
▁behind	-9.03019
▁Ne	-9.03236
▁novel	-9.03439
▁Go	-9.03465
▁Michael	-9.03638
har	-9.04015
▁teen	-9.04072
▁twist	-9.04262
▁type	-9.04266
▁Na	-9.04805
▁list	-9.05015
▁How	-9.05078
▁effort	-9.05521
▁stories	-9.05523
What	-9.05835
200	-9.06264
▁daughter	-9.0637
▁After	-9.06528
▁gave	-9.06663
▁history	-9.06802
▁themselves	-9.07225
▁called	-9.07287
▁deserve	-9.07441
ail	-9.07572
cur	-9.07578
▁weak	-9.07803
ugh	-9.08023
▁etc	-9.08239
▁With	-9.08315
▁Also	-9.08342
▁die	-9.08382
▁deep	-9.08387
▁realize	-9.08439
▁Or	-9.08681
▁situation	-9.08741
▁Mu	-9.08898
▁took	-9.08935
▁shoot	-9.09844
▁trans	-9.09877
off	-9.10259
▁element	-9.1028
!)	-9.10483
▁God	-9.1056
▁group	-9.10723
▁throw	-9.10777
▁Ka	-9.1087
▁involved	-9.10993
▁wish	-9.11036
▁chance	-9.1117
▁based	-9.11265
▁ridiculous	-9.11392
▁comic	-9.11548
aught	-9.11771
▁Bar	-9.11772
▁speak	-9.11843
▁finally	-9.12026
▁open	-9.12377
▁room	-9.12469
▁decent	-9.12536
19	-9.12609
▁Her	-9.12622
lock	-9.12683
▁pick	-9.13016
zz	-9.13177
▁myself	-9.13201
▁directed	-9.13433
▁white	-9.13566
▁Of	-9.13766
▁level	-9.13887
ka	-9.13961
▁opinion	-9.14117
Chris	-9.14145
▁musical	-9.14154
▁hate	-9.14155
▁killed	-9.14212
▁Con	-9.14325
ham	-9.14334
well	-9.14357
▁today	-9.14422
▁Why	-9.14985
▁pe	-9.15005
right	-9.15118
▁cannot	-9.15286
▁Ju	-9.15305
▁perhaps	-9.15741
▁cheap	-9.15979
▁clich	-9.15993
▁result	-9.16211
▁Col	-9.16648
▁complete	-9.16669
lip	-9.16707
First	-9.16719
▁yourself	-9.16918
▁Robert	-9.1692
▁class	-9.17135
▁obvious	-9.17141
▁general	-9.17155
▁score	-9.17156
▁major	-9.17392
▁sn	-9.17418
TH	-9.17556
AR	-9.17759
▁zombie	-9.17869
00	-9.18258
▁gun	-9.18318
including	-9.18348
▁Cla	-9.18538
▁While	-9.1866
▁career	-9.18803
▁power	-9.18915
▁happened	-9.1905
▁sequel	-9.19071
▁dream	-9.19072
▁team	-9.19288
▁critic	-9.19328
▁heard	-9.19499
▁similar	-9.19556
▁hilarious	-9.19799
▁explain	-9.20043
▁20	-9.20056
▁Just	-9.20116
ude	-9.20181
pro	-9.20441
▁English	-9.20532
▁usual	-9.20537
▁sometimes	-9.20542
And	-9.20572
▁simple	-9.20778
▁sexual	-9.20785
▁pat	-9.20823
▁image	-9.21117
But	-9.21176
▁Bri	-9.21205
▁obviously	-9.21286
▁shock	-9.21334
▁soon	-9.21374
▁offer	-9.21456
▁violence	-9.21767
▁sci	-9.21785
▁extremely	-9.22165
▁coming	-9.22341
▁leg	-9.22385
▁figure	-9.22515
▁theater	-9.22711
▁female	-9.22766
▁subject	-9.22766
▁important	-9.23017
▁sat	-9.23218
work	-9.23239
▁alone	-9.23327
Although	-9.23525
▁Tom	-9.23588
▁count	-9.23981
▁quick	-9.24288
▁order	-9.24331
▁draw	-9.24357
▁allow	-9.24421
▁pay	-9.24685
▁taken	-9.24797
▁focus	-9.24798
▁serious	-9.24818
ette	-9.24945
iff	-9.25051
▁huge	-9.25308
▁four	-9.25438
▁Paul	-9.25511
▁buy	-9.25603
▁grow	-9.25612
▁drive	-9.25643
▁Dan	-9.25802
▁season	-9.25859
▁free	-9.26107
▁treat	-9.26142
▁somewhat	-9.26342
▁possible	-9.26342
▁police	-9.26343
▁highly	-9.26389
▁visual	-9.26602
▁James	-9.26612
OR	-9.26996
▁Oscar	-9.27125
▁large	-9.27409
▁bar	-9.2757
▁annoying	-9.27651
▁adult	-9.27654
▁single	-9.27667
▁forget	-9.27699
▁body	-9.27842
▁build	-9.28445
▁apparent	-9.28711
▁hold	-9.28786
▁particularly	-9.28815
▁Com	-9.28817
▁opening	-9.28895
▁attention	-9.28978
▁value	-9.29246
▁state	-9.29317
▁cat	-9.29322
▁include	-9.29513
▁rating	-9.29752
▁husband	-9.29782
▁return	-9.29782
▁middle	-9.29782
▁cinematography	-9.30051
▁talking	-9.30068
▁country	-9.30142
EN	-9.30159
ttle	-9.30292
▁doubt	-9.30326
▁rap	-9.30386
▁cool	-9.30552
point	-9.30555
▁charm	-9.30598
▁dance	-9.30654
▁living	-9.30659
▁thriller	-9.3089
▁Now	-9.30946
▁typical	-9.31137
▁message	-9.31412
head	-9.31422
▁Sha	-9.31639
▁across	-9.31684
▁discover	-9.31959
▁exactly	-9.3196
▁Ri	-9.32071
▁cover	-9.32122
▁running	-9.32281
LL	-9.32499
▁romantic	-9.3251
▁local	-9.32518
▁disappointed	-9.32787
▁honest	-9.32791
▁due	-9.3293
▁detail	-9.33067
▁suspense	-9.33344
▁member	-9.33346
▁none	-9.33502
▁camp	-9.33529
▁David	-9.33624
▁release	-9.33768
▁prove	-9.33812
▁exist	-9.34096
▁near	-9.34331
▁stage	-9.34338
▁fast	-9.34561
▁despite	-9.34755
▁Who	-9.34807
▁emotional	-9.3502
▁sister	-9.35891
▁fire	-9.36051
▁dialog	-9.36144
▁scary	-9.36252
▁sent	-9.36786
▁suck	-9.37248
▁develop	-9.37262
▁documentary	-9.37327
▁modern	-9.37619
▁Richard	-9.37909
▁villain	-9.3791
▁respect	-9.37927
which	-9.3807
▁future	-9.38496
▁silly	-9.38504
▁except	-9.38752
Unfortunately	-9.38789
▁knew	-9.38789
ability	-9.38791
▁check	-9.38793
▁remain	-9.38796
▁remind	-9.38801
▁Gra	-9.38817
ection	-9.3897
who	-9.39351
▁released	-9.39523
▁clear	-9.3961
▁predictable	-9.39677
▁admit	-9.39679
▁pull	-9.39717
▁actual	-9.39785
ING	-9.39975
▁happy	-9.39976
▁spend	-9.40029
▁dull	-9.40237
▁provide	-9.40273
▁straight	-9.40573
▁week	-9.40886
▁above	-9.40888
▁events	-9.41127
▁seriously	-9.41146
▁moving	-9.4136
▁clearly	-9.41369
OU	-9.41477
▁among	-9.41587
▁artist	-9.41709
▁producer	-9.41759
▁usually	-9.41776
▁Star	-9.41983
▁enjoyable	-9.42011
▁William	-9.42083
▁agree	-9.42115
▁entertainment	-9.4212
▁York	-9.42391
▁cause	-9.42399
▁accent	-9.42409
▁previous	-9.42694
▁emotion	-9.42706
▁whe	-9.42706
▁George	-9.43
▁taking	-9.4339
▁editing	-9.43619
▁tale	-9.43773
▁box	-9.43918
wood	-9.44057
▁herself	-9.44237
▁cartoon	-9.44237
graph	-9.44523
▁material	-9.44548
▁giving	-9.44549
▁soundtrack	-9.44861
▁easily	-9.45174
▁fantastic	-9.45174
▁television	-9.45174
▁Jane	-9.45479
▁difficult	-9.45489
▁animation	-9.45491
▁mix	-9.45494
▁Peter	-9.45503
▁nearly	-9.45721
▁crime	-9.45813
▁certain	-9.45949
▁sca	-9.45961
friend	-9.46073
▁perform	-9.46075
▁accept	-9.46126
▁escape	-9.4644
▁reality	-9.46657
▁standard	-9.46836
▁pop	-9.4687
▁compare	-9.4688
rought	-9.46913
hose	-9.46923
▁secret	-9.47076
▁victim	-9.47076
▁capture	-9.47077
▁British	-9.47397
▁finish	-9.47399
▁reveal	-9.47407
▁produce	-9.47418
▁odd	-9.47461
▁Ann	-9.47567
▁period	-9.47719
▁spoil	-9.47721
▁office	-9.4775
▁setting	-9.47976
▁rock	-9.48351
▁famous	-9.48365
▁scare	-9.48481
▁imagine	-9.48689
▁gang	-9.49211
▁spirit	-9.49343
▁average	-9.49351
▁80	-9.49356
▁photograph	-9.49669
▁suffer	-9.4967
▁bunch	-9.49671
▁German	-9.49673
▁attack	-9.49688
▁storyline	-9.4986
▁kept	-9.50001
▁Joe	-9.5001
▁whi	-9.50212
▁nature	-9.50387
rang	-9.51386
▁easy	-9.51668
▁write	-9.51697
▁effective	-9.5174
▁atmosphere	-9.51995
▁student	-9.51995
▁background	-9.52332
▁30	-9.52541
▁battle	-9.52704
▁post	-9.52732
▁superb	-9.52841
▁color	-9.5302
▁overall	-9.53212
▁choice	-9.5335
▁please	-9.53351
▁space	-9.53542
▁trouble	-9.54032
▁premise	-9.54033
▁arm	-9.54039
▁pace	-9.54363
▁Disney	-9.54378
▁shame	-9.54502
▁dumb	-9.54728
▁parents	-9.54732
Watch	-9.55179
▁rare	-9.5523
▁tried	-9.55789
You	-9.55807
▁OK	-9.56019
ja	-9.56064
▁believable	-9.56112
▁Frank	-9.56113
▁became	-9.56116
▁sign	-9.5612
▁match	-9.56136
▁hair	-9.56168
▁particular	-9.56326
▁lame	-9.56418
▁utter	-9.56472
▁front	-9.56475
▁weird	-9.56844
▁drag	-9.57045
cept	-9.57047
▁issue	-9.57051
▁beyond	-9.57523
▁unique	-9.5788
▁animal	-9.58245
▁anyway	-9.58411
▁unfortunate	-9.58595
▁business	-9.58595
▁romance	-9.58596
▁US	-9.58677
▁pure	-9.58811
▁Japanese	-9.58954
▁catch	-9.59295
▁surprising	-9.59678
▁continue	-9.59678
▁constant	-9.59678
▁project	-9.59678
▁third	-9.59682
▁concern	-9.60041
▁magic	-9.6011
▁suggest	-9.60406
▁bored	-9.60599
nother	-9.60622
▁appeal	-9.60773
▁design	-9.60773
▁NOT	-9.60791
▁train	-9.61138
▁master	-9.6145
▁describe	-9.61509
▁successful	-9.61799
▁footage	-9.6188
▁truth	-9.61882
▁opera	-9.61938
▁realistic	-9.61997
▁Most	-9.62153
▁attract	-9.62252
▁success	-9.62332
▁appreciate	-9.62624
When	-9.62906
▁effect	-9.63
▁Maybe	-9.63001
▁mystery	-9.63003
▁trash	-9.63011
field	-9.63026
▁basically	-9.63038
▁drug	-9.63088
▁cult	-9.63364
▁monster	-9.63379
▁Wood	-9.63397
▁Steve	-9.63667
▁French	-9.63752
▁America	-9.63778
▁jump	-9.64132
▁70	-9.64278
▁minute	-9.6428
▁convincing	-9.64511
▁mistake	-9.64512
▁suit	-9.64517
Overall	-9.64902
▁yes	-9.64922
▁grand	-9.65148
▁potential	-9.65276
▁sleep	-9.65278
▁development	-9.65363
▁possibly	-9.65661
▁exception	-9.65786
▁eventually	-9.66434
▁popular	-9.66435
▁contain	-9.66443
▁date	-9.66488
▁masterpiece	-9.66823
▁dramatic	-9.67012
▁painful	-9.67226
▁moral	-9.67262
▁trip	-9.6729
▁public	-9.67606
▁sweet	-9.67607
▁control	-9.67608
▁plain	-9.67613
▁cheesy	-9.68
▁steal	-9.68024
▁term	-9.68357
▁memorable	-9.68395
AL	-9.68636
▁earlier	-9.68792
▁costume	-9.68792
▁adventure	-9.6959
▁mini	-9.69613
▁anti	-9.69844
▁creepy	-9.69992
▁remake	-9.69996
▁90	-9.70003
▁screenplay	-9.70049
▁Good	-9.70089
▁forced	-9.70221
▁natural	-9.708
▁depict	-9.70802
▁powerful	-9.71077
▁step	-9.71309
rvi	-9.71553
▁occasion	-9.71615
▁normal	-9.71616
Franc	-9.71982
corn	-9.72166
▁taste	-9.72184
▁incredibly	-9.72436
▁amount	-9.72436
▁Scott	-9.72437
▁various	-9.72437
▁location	-9.72439
connect	-9.72472
Act	-9.72566
▁girlfriend	-9.72897
▁collect	-9.72908
▁appearance	-9.72998
▁sea	-9.73294
▁indeed	-9.73747
▁society	-9.74099
▁soldier	-9.741
ept	-9.74398
▁ultimate	-9.7452
▁political	-9.7452
▁prison	-9.74523
▁concept	-9.74607
▁Like	-9.74701
▁clever	-9.75088
▁further	-9.75367
▁social	-9.75369
izing	-9.75485
▁slasher	-9.75791
movie	-9.75907
▁IMDb	-9.76218
▁Matt	-9.76848
▁kick	-9.77111
▁invest	-9.77126
▁studio	-9.77511
▁rich	-9.77621
▁50	-9.77729
▁accident	-9.77946
▁positive	-9.78383
▁water	-9.78412
▁embarrass	-9.78821
▁filmmakers	-9.78821
▁plenty	-9.78821
▁destroy	-9.78821
▁fiction	-9.78824
▁common	-9.78825
▁depth	-9.7883
▁ruin	-9.79292
▁record	-9.79705
▁visit	-9.79706
▁answer	-9.79707
▁subtle	-9.79722
Director	-9.80149
▁purpose	-9.80595
▁brief	-9.80596
▁claim	-9.80598
▁Earth	-9.80602
▁brain	-9.80753
▁rip	-9.81048
▁street	-9.8105
▁wild	-9.81071
▁limit	-9.81505
▁bull	-9.81738
▁Italian	-9.8195
▁earth	-9.81967
▁store	-9.82137
ified	-9.82279
▁intelligent	-9.82401
▁Movie	-9.82405
▁serve	-9.82412
▁repeat	-9.82447
▁Christian	-9.82858
▁nudity	-9.82859
▁baby	-9.82948
▁brutal	-9.83319
▁Film	-9.83785
▁tension	-9.84253
▁culture	-9.84277
▁mid	-9.84279
▁conclusion	-9.84705
vision	-9.84749
▁chase	-9.85015
▁mental	-9.85062
▁fantasy	-9.85173
▁Indian	-9.85179
▁achieve	-9.85643
▁beauty	-9.85643
defin	-9.85927
▁psycho	-9.85927
▁share	-9.86015
ization	-9.86124
▁Christmas	-9.86588
▁approach	-9.86588
▁amusing	-9.86595
Arthur	-9.86624
▁genuine	-9.87064
▁commit	-9.87064
▁crazy	-9.87065
position	-9.87073
▁adaptation	-9.87542
▁language	-9.87542
▁vampire	-9.88023
▁married	-9.88023
espite	-9.88042
▁solid	-9.8806
▁consist	-9.88061
tress	-9.88135
▁porn	-9.88379
▁familiar	-9.88506
▁dress	-9.88562
▁scream	-9.88992
▁danger	-9.88993
place	-9.89137
▁Park	-9.89678
writer	-9.8985
▁bizarre	-9.8997
▁impression	-9.8997
▁complex	-9.89971
▁Black	-9.89974
▁involving	-9.90462
▁million	-9.90462
▁excuse	-9.90465
▁Great	-9.90474
▁complain	-9.90959
▁alien	-9.91067
▁Instead	-9.91455
▁travel	-9.91455
Anyway	-9.91473
▁biggest	-9.91956
▁regard	-9.91958
▁difference	-9.92457
▁program	-9.92458
▁basic	-9.9296
▁chemistry	-9.92962
▁impressive	-9.92963
▁Gene	-9.92989
fect	-9.93128
▁Europe	-9.9347
▁violent	-9.9347
▁immediately	-9.9398
▁breath	-9.93981
▁decade	-9.94019
▁receiv	-9.94103
Where	-9.9424
▁reference	-9.94493
▁otherwise	-9.94495
▁computer	-9.94495
▁introduce	-9.95009
▁heavy	-9.95009
▁Charlie	-9.95009
▁Kelly	-9.95025
▁exploit	-9.95527
▁pathetic	-9.95527
▁slightly	-9.95529
▁World	-9.95529
▁Smith	-9.95529
craft	-9.95546
ibility	-9.96047
Perhaps	-9.96048
▁fashion	-9.96048
▁devi	-9.96326
▁absurd	-9.96571
▁terrific	-9.97097
worth	-9.97107
▁historical	-9.97107
▁entertain	-9.97789
▁technical	-9.98158
▁exciting	-9.98159
▁leaving	-9.98159
▁revenge	-9.98159
▁Victor	-9.98159
▁Angel	-9.98187
▁climax	-9.98693
▁incredible	-9.98693
▁interview	-9.98693
▁suspect	-9.98694
▁awesome	-9.99232
▁innocent	-9.99233
▁torture	-9.99251
▁college	-9.99771
▁addition	-9.99773
▁search	-10.0032
▁mysterious	-10.0086
▁author	-10.0086
▁bought	-10.0087
▁temp	-10.0088
▁burn	-10.0092
▁Africa	-10.0141
▁physical	-10.0141
▁terror	-10.0141
▁trailer	-10.0141
▁western	-10.0142
▁desperate	-10.0196
▁protagonist	-10.0196
▁ghost	-10.0196
▁surf	-10.0197
▁South	-10.0201
▁hunt	-10.0207
Final	-10.0207
▁marriage	-10.0252
▁negative	-10.0252
▁disappointment	-10.0252
ombie	-10.0309
▁desire	-10.0311
SPOILER	-10.0364
▁dancing	-10.0364
▁narrative	-10.042
▁wrote	-10.0421
▁insult	-10.0423
▁minor	-10.0424
▁High	-10.0461
▁involve	-10.0522
▁thrill	-10.0529
▁garbage	-10.0534
▁impossible	-10.0534
▁presence	-10.0536
▁month	-10.0537
▁bomb	-10.0538
▁convince	-10.0592
▁represent	-10.0592
▁fascinating	-10.065
▁genius	-10.065
▁stunning	-10.065
▁require	-10.065
▁doctor	-10.065
▁compelling	-10.065
▁faith	-10.065
▁cross	-10.0651
▁company	-10.0709
After	-10.0724
▁criminal	-10.0766
▁struggle	-10.0766
▁loose	-10.0768
▁angle	-10.0772
That	-10.0785
▁creature	-10.0825
▁suppose	-10.0874
▁occur	-10.0884
▁smart	-10.0885
▁graphic	-10.0894
▁succeed	-10.0944
▁random	-10.0944
▁serial	-10.0944
while	-10.0964
▁Australia	-10.1004
▁tradition	-10.1004
▁relative	-10.1004
▁rule	-10.1009
▁affect	-10.1025
▁flaws	-10.1065
▁literally	-10.1125
▁multi	-10.1125
▁comedies	-10.1126
▁push	-10.1126
▁neither	-10.1186
▁survive	-10.1247
▁raise	-10.1251
budget	-10.1272
▁humour	-10.1309
▁outstanding	-10.1309
▁intense	-10.131
▁favourite	-10.1371
▁animated	-10.1371
▁barely	-10.1435
▁relate	-10.1478
▁commercial	-10.1496
▁idiot	-10.1496
▁fresh	-10.1497
▁Henry	-10.1497
▁phone	-10.1497
▁detective	-10.1559
▁flashback	-10.1559
▁okay	-10.1559
▁scientist	-10.1559
▁superior	-10.156
Please	-10.1592
▁essential	-10.1623
▁imagination	-10.1623
▁opportunity	-10.1623
▁stereotype	-10.1623
▁mouth	-10.1624
???	-10.1624
▁horse	-10.1625
▁military	-10.1687
▁witness	-10.1687
▁reaction	-10.1687
▁channel	-10.1752
▁confusing	-10.1752
▁unbelievable	-10.1752
▁Bruce	-10.1752
▁machine	-10.1752
▁resembl	-10.1752
▁60	-10.1754
▁logic	-10.1763
▁apartment	-10.1817
▁Because	-10.1882
▁Superman	-10.1882
▁afraid	-10.1882
▁likable	-10.1882
▁prefer	-10.1949
▁neighbor	-10.2014
▁disgust	-10.2014
▁wooden	-10.2015
▁conflict	-10.2081
▁affair	-10.2148
▁formula	-10.2148
▁government	-10.2215
▁impressed	-10.2215
▁smile	-10.2216
▁promise	-10.2216
▁gorgeous	-10.2283
▁length	-10.2283
▁strength	-10.2283
▁Russian	-10.2283
▁Charles	-10.2352
▁object	-10.2352
▁mediocre	-10.2421
▁century	-10.2421
▁pilot	-10.2421
▁intended	-10.2421
▁fault	-10.2421
While	-10.247
▁available	-10.249
▁professional	-10.249
▁system	-10.249
▁forgotten	-10.256
▁correct	-10.256
▁Christopher	-10.2631
▁People	-10.2631
▁Stewart	-10.2631
▁current	-10.2631
▁individual	-10.2631
▁attitude	-10.2702
▁confused	-10.2702
▁funniest	-10.2702
▁tragedy	-10.2702
▁tragic	-10.2704
▁elect	-10.2733
▁featur	-10.2763
▁experiment	-10.2773
▁encounter	-10.2773
▁information	-10.2773
▁whatsoever	-10.2773
▁London	-10.2773
▁reflect	-10.2773
▁silent	-10.2773
▁process	-10.2773
▁explanation	-10.2845
▁hospital	-10.2845
▁inspired	-10.2845
▁melodrama	-10.2845
▁quiet	-10.2845
▁Chinese	-10.2845
▁creative	-10.2845
▁pleasant	-10.2917
▁thoroughly	-10.2917
screen	-10.2977
&	-10.5218
q	-10.7186
>	-11.7341
