<unk>	0
<s>	0
</s>	0
s	-3.00931
▁	-3.14693
t	-3.52561
▁the	-3.7884
,	-3.92254
e	-3.99761
.	-4.01182
o	-4.02153
▁a	-4.13561
n	-4.26458
d	-4.29059
ing	-4.36715
y	-4.44036
a	-4.48275
▁to	-4.4975
▁of	-4.5176
▁and	-4.524
p	-4.59217
'	-4.64563
c	-4.72498
i	-4.72848
m	-4.7383
ed	-4.74945
▁in	-4.77054
er	-4.7745
u	-4.79888
br	-4.81187
▁is	-4.85892
ar	-4.89153
▁/>	-4.91754
▁I	-5.05591
▁it	-5.10871
or	-5.11206
b	-5.12039
g	-5.15246
re	-5.161
r	-5.16816
f	-5.20152
▁f	-5.20454
al	-5.23338
le	-5.29706
▁that	-5.2984
ly	-5.29884
-	-5.35309
<	-5.38508
l	-5.44306
▁this	-5.44326
v	-5.46735
w	-5.4684
ic	-5.54445
in	-5.54971
an	-5.55616
▁was	-5.5979
h	-5.59881
on	-5.60731
▁movie	-5.62156
k	-5.6279
it	-5.63925
▁for	-5.65429
▁p	-5.67525
▁film	-5.67725
en	-5.6956
▁be	-5.71752
▁S	-5.74224
▁with	-5.78634
th	-5.78649
ri	-5.7879
▁The	-5.81901
es	-5.83186
ur	-5.87233
▁st	-5.87782
ter	-5.89431
.<	-5.9022
▁w	-5.91318
▁A	-5.92926
ent	-5.94516
)	-5.9658
"	-5.97245
at	-5.97557
▁as	-5.99942
▁but	-6.00144
▁he	-6.01353
▁re	-6.02565
▁on	-6.03006
ve	-6.03407
▁c	-6.04525
se	-6.04985
ch	-6.05676
▁(	-6.05851
▁h	-6.09405
as	-6.10102
ad	-6.10571
▁B	-6.11746
▁you	-6.11831
▁de	-6.14141
ro	-6.15079
il	-6.15369
ol	-6.1636
▁his	-6.16596
el	-6.16845
li	-6.17451
▁are	-6.17683
▁"	-6.17905
▁not	-6.17933
▁have	-6.19835
I	-6.2013
ne	-6.22158
un	-6.22723
▁so	-6.23221
im	-6.24645
te	-6.25412
▁me	-6.28829
▁M	-6.29705
▁T	-6.3171
!	-6.32144
▁W	-6.32777
ra	-6.34028
us	-6.3513
▁who	-6.353
▁b	-6.35664
▁D	-6.36806
▁an	-6.38366
▁one	-6.3901
▁ma	-6.39069
am	-6.396
▁C	-6.39931
ir	-6.40082
ce	-6.41407
▁her	-6.44207
▁all	-6.45773
is	-6.45938
ow	-6.46809
▁H	-6.47331
ight	-6.4857
▁by	-6.49212
▁like	-6.49948
and	-6.50006
▁tr	-6.50748
▁no	-6.51288
id	-6.52698
▁g	-6.52705
ut	-6.53269
A	-6.53698
he	-6.53948
▁some	-6.55795
▁from	-6.56887
ap	-6.56901
la	-6.57157
▁P	-6.57845
▁out	-6.58781
ge	-6.60168
▁r	-6.60475
▁R	-6.61658
▁con	-6.62208
▁go	-6.62485
ul	-6.62674
ment	-6.62688
▁F	-6.63315
▁at	-6.63488
ion	-6.6518
x	-6.65387
▁G	-6.65808
est	-6.65846
▁un	-6.66364
▁mo	-6.67675
▁about	-6.70252
ie	-6.70764
▁just	-6.71192
▁has	-6.71839
▁do	-6.72254
ate	-6.73702
ac	-6.74019
z	-6.74526
E	-6.75059
?	-6.7518
ive	-6.75347
ck	-6.75351
▁ex	-6.75428
j	-6.75564
ear	-6.75653
tion	-6.7592
ation	-6.76171
▁co	-6.76756
▁J	-6.76982
▁can	-6.77818
0	-6.78216
ame	-6.78671
▁they	-6.79067
S	-6.79158
▁N	-6.80943
The	-6.81242
▁time	-6.81428
ha	-6.82061
ther	-6.82502
ide	-6.82836
all	-6.83421
me	-6.83789
▁or	-6.83938
▁v	-6.8465
ig	-6.85429
▁It	-6.8633
▁E	-6.8677
ill	-6.8705
▁lo	-6.87611
▁good	-6.8767
▁character	-6.88442
ell	-6.88718
▁see	-6.89005
ever	-6.89455
ist	-6.89951
ally	-6.90107
O	-6.90484
▁more	-6.91251
▁up	-6.91798
ll	-6.9203
ke	-6.92071
um	-6.92113
ain	-6.92327
lo	-6.92564
qu	-6.92643
able	-6.9284
end	-6.94019
▁ho	-6.942
▁would	-6.94289
▁ch	-6.94622
▁get	-6.94665
▁la	-6.94856
▁what	-6.95555
▁very	-6.95801
▁we	-6.96126
▁sh	-6.96234
▁watch	-6.96623
▁O	-6.96938
L	-6.97266
ak	-6.98089
▁my	-6.98605
age	-6.98719
▁make	-6.98784
pe	-6.99411
▁even	-6.99916
▁bo	-7.01159
one	-7.013
T	-7.0145
▁story	-7.02525
ant	-7.02987
V	-7.03348
ity	-7.03383
...	-7.04013
▁po	-7.04826
▁when	-7.06649
ver	-7.06656
hi	-7.07029
ry	-7.0873
min	-7.09454
ies	-7.10588
▁she	-7.1172
▁really	-7.11985
▁scene	-7.12551
em	-7.12705
▁were	-7.12894
ff	-7.13624
▁had	-7.14415
▁only	-7.14627
▁if	-7.15352
▁there	-7.15453
▁any	-7.16161
▁which	-7.16254
▁cr	-7.1633
▁K	-7.16682
▁other	-7.16706
ho	-7.17721
R	-7.18053
▁than	-7.18475
▁show	-7.18652
▁sp	-7.19073
1	-7.1916
▁their	-7.20355
▁pro	-7.20853
▁does	-7.21005
N	-7.21169
ful	-7.21962
:	-7.23402
▁did	-7.23479
ag	-7.23677
man	-7.25281
ture	-7.25555
▁dr	-7.26392
H	-7.28916
▁end	-7.29347
▁don	-7.29638
▁much	-7.29741
ish	-7.3029
ick	-7.30567
▁bad	-7.30819
ious	-7.3097
▁look	-7.31058
D	-7.31202
ack	-7.31683
ound	-7.31933
com	-7.32543
▁could	-7.32783
▁dis	-7.33106
▁great	-7.33337
▁over	-7.34732
▁been	-7.34751
▁will	-7.35491
▁cl	-7.35546
▁how	-7.35629
ine	-7.36669
▁well	-7.3731
▁most	-7.37398
▁play	-7.3789
▁him	-7.3804
▁This	-7.38105
use	-7.38107
▁into	-7.38228
▁think	-7.38571
▁people	-7.39035
▁because	-7.39326
▁pre	-7.39469
▁way	-7.39998
lu	-7.40923
▁love	-7.41839
M	-7.42505
less	-7.42546
▁know	-7.42888
ance	-7.43244
▁direct	-7.44135
▁made	-7.44418
▁first	-7.46615
2	-7.47875
Y	-7.48157
▁thing	-7.48999
U	-7.49057
▁every	-7.49242
▁also	-7.49617
B	-7.50363
▁real	-7.50418
▁though	-7.51838
tra	-7.51986
ated	-7.52701
*	-7.5393
ian	-7.54488
ous	-7.54548
▁gr	-7.55138
ical	-7.55795
▁say	-7.55958
▁He	-7.56248
▁seem	-7.56921
▁di	-7.57108
▁man	-7.57342
▁work	-7.57376
C	-7.58528
W	-7.59046
▁Ma	-7.59514
ence	-7.60323
/	-7.60628
▁And	-7.60695
ru	-7.60913
;	-7.62229
▁car	-7.64354
ough	-7.64983
▁seen	-7.65046
▁plot	-7.65195
▁want	-7.65289
▁bl	-7.65848
▁actor	-7.66162
▁But	-7.67233
day	-7.67541
▁come	-7.68274
▁give	-7.68421
▁your	-7.69628
▁acting	-7.69781
▁two	-7.69983
▁ba	-7.70299
▁after	-7.70462
▁never	-7.71267
▁take	-7.71583
▁part	-7.72077
▁many	-7.72504
▁through	-7.73265
This	-7.73466
▁life	-7.74879
▁comp	-7.75011
G	-7.75038
▁back	-7.75189
▁little	-7.75501
▁where	-7.77623
▁best	-7.78751
way	-7.81332
3	-7.82031
▁better	-7.82285
▁feel	-7.84301
▁should	-7.87214
▁du	-7.87518
▁sl	-7.89618
F	-7.90006
▁find	-7.90162
▁Ch	-7.90691
5	-7.91003
P	-7.91239
▁again	-7.91529
ible	-7.9156
bu	-7.91792
▁still	-7.91981
▁kill	-7.96524
▁such	-7.96904
9	-7.97775
▁something	-7.98005
▁performance	-7.99095
▁cast	-8.00017
ness	-8.00128
▁19	-8.0054
▁point	-8.02362
8	-8.06634
▁mis	-8.07313
▁girl	-8.08194
▁funny	-8.09124
▁those	-8.09244
▁enjoy	-8.1048
▁view	-8.10661
▁down	-8.11163
▁set	-8.1123
4	-8.11315
▁guy	-8.13613
7	-8.13986
▁Le	-8.14021
▁music	-8.14055
ize	-8.14461
▁fact	-8.14745
▁few	-8.14873
&	-8.16667
K	-8.16952
▁before	-8.17302
▁actually	-8.18195
▁long	-8.18615
▁why	-8.18624
▁while	-8.19362
▁original	-8.19617
▁Lo	-8.19762
▁another	-8.20351
▁sub	-8.20502
▁laugh	-8.21655
▁quite	-8.24144
▁own	-8.24572
▁turn	-8.24572
▁pretty	-8.25172
▁new	-8.25665
▁high	-8.25726
▁nothing	-8.2592
▁young	-8.26277
▁around	-8.2729
▁Li	-8.27609
▁effect	-8.27748
▁screen	-8.27748
▁happen	-8.28031
▁action	-8.28052
▁enough	-8.28342
▁La	-8.2898
What	-8.29381
▁script	-8.30468
press	-8.31578
spect	-8.3173
▁horror	-8.3454
▁between	-8.36139
▁You	-8.36378
▁kind	-8.36758
▁reason	-8.38168
6	-8.3839
▁line	-8.38518
▁series	-8.38713
▁live	-8.39009
▁world	-8.39338
▁saw	-8.39538
▁kid	-8.41042
▁child	-8.41191
▁least	-8.41427
▁always	-8.41909
▁without	-8.42195
▁person	-8.43964
▁family	-8.4513
▁expect	-8.45298
▁must	-8.4531
▁10	-8.45905
▁become	-8.4619
▁believe	-8.46833
▁complete	-8.47342
▁place	-8.47431
▁comedy	-8.48238
▁worth	-8.50063
▁almost	-8.50745
▁anything	-8.51027
▁cinema	-8.51369
▁help	-8.53344
▁rather	-8.54597
▁audience	-8.5464
▁since	-8.56702
▁book	-8.57483
▁sure	-8.59002
J	-8.59241
▁probably	-8.59563
▁woman	-8.61148
▁worst	-8.61438
▁appear	-8.6222
Chris	-8.62604
▁sense	-8.63135
(	-8.63251
q	-11.0311
>	-12.0521
