<unk>	0
<s>	0
</s>	0
s	-3.28637
▁the	-3.44053
,	-3.51841
.	-3.61753
▁a	-3.94108
▁and	-4.08518
▁of	-4.15101
▁to	-4.19869
'	-4.26212
br	-4.44812
▁is	-4.45242
▁/>	-4.48554
t	-4.50935
▁	-4.547
▁in	-4.57224
▁it	-4.72519
▁I	-4.77519
▁that	-4.86639
▁this	-5.01131
<	-5.02221
ed	-5.0584
ing	-5.09683
d	-5.23702
-	-5.24011
▁was	-5.24732
▁movie	-5.30829
▁for	-5.3339
▁with	-5.37085
▁film	-5.37828
▁as	-5.47773
.<	-5.48931
y	-5.50972
ly	-5.53957
▁but	-5.56825
▁on	-5.60481
▁The	-5.61824
▁(	-5.62416
▁be	-5.66557
▁you	-5.69039
▁"	-5.70732
▁are	-5.73564
▁not	-5.77572
▁his	-5.78634
▁have	-5.79275
▁he	-5.84769
er	-5.86114
"	-5.8679
▁one	-5.91353
e	-5.91435
n	-5.92569
m	-5.99119
)	-6.02005
▁an	-6.02608
▁all	-6.03974
▁by	-6.04742
▁who	-6.05641
re	-6.10138
▁at	-6.12297
▁like	-6.13475
▁so	-6.13641
▁from	-6.1368
a	-6.14214
▁they	-6.20857
i	-6.22291
▁out	-6.22862
r	-6.23208
I	-6.23687
▁her	-6.26805
▁about	-6.27052
▁has	-6.28236
al	-6.29863
▁just	-6.30022
c	-6.32314
▁or	-6.32613
p	-6.35769
▁It	-6.35793
in	-6.40174
▁can	-6.42552
▁good	-6.44471
▁some	-6.44654
o	-6.46206
or	-6.46622
▁more	-6.47372
!	-6.49418
?	-6.50661
The	-6.51309
▁me	-6.51874
▁very	-6.52532
es	-6.53163
▁up	-6.5418
▁A	-6.55759
▁time	-6.57124
▁would	-6.58782
▁what	-6.59307
ve	-6.60256
u	-6.61156
▁no	-6.62329
▁see	-6.6241
▁when	-6.63467
▁there	-6.63751
▁she	-6.66849
▁story	-6.67133
l	-6.68207
▁really	-6.68294
▁even	-6.69145
▁had	-6.70522
▁only	-6.70932
le	-6.71709
▁if	-6.72201
▁which	-6.7314
▁my	-6.73931
▁their	-6.74237
g	-6.74708
▁were	-6.74815
▁S	-6.7535
an	-6.77699
S	-6.78222
...	-6.79797
:	-6.80201
ar	-6.80807
▁we	-6.81078
▁than	-6.81918
▁do	-6.83392
▁re	-6.84889
it	-6.86081
▁much	-6.86549
A	-6.87408
▁get	-6.88945
ur	-6.89216
▁been	-6.90108
▁other	-6.90982
ic	-6.91102
▁will	-6.91829
▁-	-6.9192
▁bad	-6.91937
▁This	-6.92779
b	-6.93118
▁B	-6.93533
▁well	-6.93704
ll	-6.94029
▁him	-6.94064
▁way	-6.94214
th	-6.94608
▁into	-6.94716
▁make	-6.9566
▁people	-6.95834
▁because	-6.96139
on	-6.96428
en	-6.96667
▁great	-6.97601
▁F	-7.00691
▁made	-7.0122
▁most	-7.02504
▁first	-7.03412
ion	-7.03725
▁over	-7.0426
f	-7.05127
▁character	-7.05892
▁also	-7.06373
ra	-7.07394
▁could	-7.07651
▁think	-7.07889
▁them	-7.08051
ir	-7.09266
ri	-7.09302
▁how	-7.09539
▁T	-7.10065
▁too	-7.11637
▁don	-7.12217
▁P	-7.12389
▁C	-7.13991
▁any	-7.14246
▁know	-7.14787
h	-7.1527
▁He	-7.16423
el	-7.16704
E	-7.17976
▁show	-7.1827
;	-7.19028
▁seen	-7.19273
se	-7.19343
▁watch	-7.19482
▁And	-7.20874
▁love	-7.20898
as	-7.21434
k	-7.21815
▁plot	-7.22009
▁W	-7.2244
▁un	-7.23519
▁But	-7.23584
▁characters	-7.2408
▁go	-7.24148
and	-7.25088
T	-7.2557
w	-7.25672
▁acting	-7.26735
▁two	-7.26762
ch	-7.2737
▁never	-7.27919
▁many	-7.28113
▁'	-7.28127
C	-7.2815
ne	-7.28477
▁de	-7.28493
▁end	-7.28714
il	-7.29129
▁G	-7.29691
is	-7.30117
▁after	-7.30189
▁off	-7.30286
▁being	-7.3057
able	-7.31283
▁life	-7.3175
▁little	-7.32302
This	-7.33367
▁did	-7.33764
▁i	-7.33946
▁best	-7.34046
▁where	-7.34535
at	-7.34755
ter	-7.35304
▁does	-7.35415
▁then	-7.35655
v	-7.3569
▁ever	-7.35834
▁scene	-7.35977
).	-7.36487
et	-7.36707
▁movies	-7.38046
man	-7.38879
▁better	-7.39014
▁In	-7.39919
▁say	-7.40152
▁b	-7.40291
▁man	-7.41771
▁your	-7.42382
▁should	-7.44013
ce	-7.4519
▁real	-7.45358
),	-7.45974
ation	-7.46058
D	-7.4617
li	-7.46436
um	-7.4671
▁back	-7.47296
▁here	-7.47485
ent	-7.47893
▁still	-7.47978
▁films	-7.48961
▁c	-7.49021
lo	-7.49264
B	-7.49318
ity	-7.4935
ie	-7.49602
▁scenes	-7.50217
▁<	-7.50324
un	-7.5088
ers	-7.51003
the	-7.52162
/	-7.52297
id	-7.52582
▁through	-7.52947
▁f	-7.53051
less	-7.53241
ment	-7.53674
▁such	-7.53693
z	-7.53787
te	-7.54547
▁something	-7.54825
▁H	-7.5497
ive	-7.55399
▁lot	-7.55918
▁work	-7.56419
▁E	-7.57122
▁D	-7.5735
▁There	-7.5836
M	-7.58864
ro	-7.59038
im	-7.5927
▁doesn	-7.59285
est	-7.59551
▁thing	-7.59903
ist	-7.60767
la	-7.61408
▁find	-7.61757
ol	-7.62362
▁its	-7.6251
ate	-7.63211
▁director	-7.63297
us	-7.6341
▁these	-7.64983
▁part	-7.65172
ig	-7.65682
▁years	-7.65816
▁funny	-7.65933
▁those	-7.66042
▁didn	-7.66097
O	-7.67349
▁K	-7.67649
▁want	-7.67881
▁watching	-7.67966
▁actors	-7.68015
▁down	-7.68052
ul	-7.68662
▁cast	-7.69196
ad	-7.69844
G	-7.70398
▁bit	-7.70704
▁st	-7.70997
▁point	-7.71505
▁few	-7.71539
▁look	-7.71716
▁going	-7.71763
▁old	-7.72083
P	-7.73749
▁before	-7.74101
▁p	-7.74568
▁though	-7.74644
ies	-7.74695
▁makes	-7.74912
▁actually	-7.75079
▁why	-7.7539
ty	-7.75574
▁every	-7.76132
▁while	-7.76239
▁original	-7.76491
am	-7.76623
ver	-7.77366
▁another	-7.77485
▁same	-7.77538
de	-7.78052
▁If	-7.78122
ma	-7.78414
ia	-7.7849
ry	-7.78496
▁M	-7.79184
sh	-7.7928
▁again	-7.79417
▁far	-7.79443
ant	-7.79957
up	-7.80088
▁&	-7.80612
▁quite	-7.80943
▁fact	-7.8128
▁own	-7.81333
▁thought	-7.81566
▁pretty	-7.8197
▁nothing	-7.82665
▁around	-7.84358
▁action	-7.84806
▁enough	-7.85119
ness	-7.85543
▁got	-7.85863
▁new	-7.859
▁O	-7.86308
▁hard	-7.87073
▁L	-7.87151
▁script	-7.87301
▁v	-7.87379
x	-7.87579
▁seems	-7.87841
be	-7.88643
▁right	-7.88718
L	-7.88731
▁long	-7.89101
▁19	-7.89698
ill	-7.89699
▁So	-7.90461
ge	-7.90604
W	-7.91289
ish	-7.91316
▁horror	-7.91376
▁give	-7.91655
ting	-7.91901
▁may	-7.92082
▁take	-7.92117
▁now	-7.92224
one	-7.9231
▁things	-7.92664
▁us	-7.92934
▁between	-7.92938
▁am	-7.93214
▁kind	-7.93558
ance	-7.93631
▁interesting	-7.93844
▁come	-7.93942
ful	-7.94172
▁She	-7.94514
ine	-7.94562
R	-7.94687
▁role	-7.95149
▁feel	-7.95203
qu	-7.9539
▁series	-7.95505
▁young	-7.95977
▁mo	-7.9611
▁world	-7.96195
▁saw	-7.96316
he	-7.9651
ther	-7.96826
▁reason	-7.97511
to	-7.97526
▁sp	-7.97578
▁least	-7.98221
▁whole	-7.98312
▁w	-7.98526
▁2	-7.98647
▁always	-7.98706
▁ch	-7.98828
▁performance	-7.98832
▁ex	-7.99167
ian	-7.99243
▁without	-7.99259
▁Ma	-7.99336
ca	-7.99428
▁co	-7.99489
me	-8.00286
▁r	-8.01185
ck	-8.01189
▁sh	-8.01259
▁both	-8.01451
▁family	-8.01929
▁music	-8.0211
▁done	-8.0215
▁must	-8.02161
▁guy	-8.02357
ta	-8.03244
son	-8.03493
▁believe	-8.03625
▁last	-8.03648
▁might	-8.03711
ted	-8.03899
op	-8.04406
▁place	-8.04416
oo	-8.04467
--	-8.04559
▁R	-8.04599
na	-8.048
▁You	-8.0503
▁comedy	-8.05036
▁They	-8.05369
ni	-8.05685
ag	-8.05857
▁fun	-8.05874
▁dis	-8.06003
▁play	-8.06186
▁isn	-8.06522
▁minutes	-8.06987
▁girl	-8.07278
▁Re	-8.07295
H	-8.07386
▁almost	-8.07545
age	-8.07628
▁anything	-8.07812
▁De	-8.08048
▁big	-8.08067
co	-8.08289
K	-8.08672
N	-8.08796
ally	-8.09248
pe	-8.09934
▁help	-8.1007
▁idea	-8.1023
ac	-8.10236
▁con	-8.10565
▁put	-8.11185
▁rather	-8.11348
▁gets	-8.11382
▁audience	-8.1144
▁screen	-8.11746
ton	-8.12273
ated	-8.12653
3	-8.12707
▁Le	-8.12922
tic	-8.13256
▁since	-8.13493
▁away	-8.13841
▁TV	-8.13861
▁worth	-8.14118
F	-8.14151
▁book	-8.14298
▁times	-8.14656
▁set	-8.14986
▁found	-8.15625
nd	-8.15635
▁sure	-8.1571
ha	-8.15808
tion	-8.15868
▁probably	-8.16362
▁h	-8.16376
hi	-8.16681
dy	-8.16684
ow	-8.16768
▁making	-8.17551
▁under	-8.1778
▁La	-8.17889
▁trying	-8.1795
▁woman	-8.17985
ous	-8.18028
▁10	-8.18084
▁worst	-8.18223
▁Ro	-8.18677
ster	-8.18866
▁Ha	-8.18978
▁main	-8.19056
▁We	-8.19593
▁sense	-8.19919
1	-8.19957
▁No	-8.1998
It	-8.20011
▁For	-8.20175
ee	-8.20214
▁course	-8.20321
▁That	-8.20339
▁use	-8.20689
▁day	-8.21173
mo	-8.21578
ick	-8.21836
▁different	-8.21992
▁Be	-8.21998
▁read	-8.22049
▁version	-8.22464
ling	-8.22681
Y	-8.23105
(	-8.23177
▁ending	-8.23203
end	-8.23415
▁To	-8.23418
▁hand	-8.23503
ain	-8.23664
▁war	-8.24159
▁po	-8.24319
▁let	-8.24514
▁actor	-8.24525
▁each	-8.24569
ward	-8.24781
▁St	-8.24782
▁fan	-8.25167
if	-8.25516
▁pro	-8.25552
▁our	-8.25698
min	-8.25747
bo	-8.25787
▁comes	-8.25877
▁As	-8.25974
▁job	-8.26148
▁DVD	-8.26355
ph	-8.26435
om	-8.2656
▁What	-8.26564
▁e	-8.26803
▁yet	-8.2712
▁high	-8.27352
▁short	-8.27872
▁mind	-8.28092
▁goes	-8.28418
ru	-8.286
ake	-8.28677
5	-8.28898
ner	-8.29331
em	-8.29655
no	-8.2968
▁looks	-8.29828
▁anyone	-8.29854
▁American	-8.29995
▁di	-8.30022
for	-8.3055
▁year	-8.30723
▁nice	-8.30855
ary	-8.3087
per	-8.31324
▁Mar	-8.31448
▁having	-8.31883
▁money	-8.32111
ring	-8.32401
▁low	-8.32539
U	-8.32786
▁someone	-8.32902
▁home	-8.32942
▁seem	-8.33055
▁John	-8.33252
▁car	-8.33292
▁rest	-8.3334
▁watched	-8.33479
▁played	-8.33607
▁enjoy	-8.33689
ot	-8.33864
ard	-8.33981
▁recommend	-8.34159
▁wasn	-8.34252
▁said	-8.34275
ence	-8.34785
▁Ba	-8.34789
▁special	-8.35026
▁second	-8.35208
▁effects	-8.35306
."	-8.35434
",	-8.35701
▁plays	-8.35852
act	-8.36059
fi	-8.36237
▁looking	-8.36247
▁himself	-8.36268
ke	-8.3627
po	-8.36502
▁wife	-8.36505
▁start	-8.36642
7	-8.36776
▁together	-8.3722
▁Ca	-8.37322
4	-8.37591
lu	-8.3783
os	-8.37831
▁beautiful	-8.38149
▁half	-8.38186
mi	-8.38538
▁N	-8.38685
▁fl	-8.38748
▁Ho	-8.38848
6	-8.38967
▁head	-8.38989
▁three	-8.3903
▁star	-8.39205
▁especially	-8.3966
▁left	-8.39762
▁Co	-8.40052
▁Li	-8.40067
▁understand	-8.40131
out	-8.40221
▁name	-8.40253
V	-8.40299
▁tr	-8.40593
▁true	-8.40638
2	-8.41046
▁ma	-8.41085
▁sound	-8.41154
▁Do	-8.42046
ba	-8.42355
▁g	-8.42606
▁else	-8.42753
bi	-8.42919
J	-8.42979
ut	-8.431
mer	-8.43134
ious	-8.43236
▁need	-8.43258
▁hope	-8.43645
che	-8.43799
▁shot	-8.43927
do	-8.44071
▁later	-8.44085
der	-8.44094
▁1	-8.44877
▁takes	-8.44885
▁seeing	-8.4495
▁close	-8.45058
▁murder	-8.45179
land	-8.45324
▁care	-8.45391
mon	-8.45403
▁shows	-8.45523
▁remember	-8.45568
▁mean	-8.45598
▁ba	-8.4573
▁death	-8.45829
▁during	-8.45976
▁cr	-8.46017
▁classic	-8.46087
▁excellent	-8.46089
ism	-8.46411
▁camera	-8.46952
▁piece	-8.46958
▁everything	-8.47141
▁less	-8.47252
8	-8.47394
ler	-8.47473
▁father	-8.47586
▁face	-8.47623
▁simply	-8.47802
▁3	-8.47824
▁supposed	-8.48054
▁production	-8.48133
▁house	-8.48208
".	-8.48425
▁attempt	-8.48469
▁boy	-8.48508
ron	-8.48701
com	-8.48868
uc	-8.49025
▁Car	-8.49133
ear	-8.49197
▁U	-8.49226
▁completely	-8.49364
0	-8.4946
red	-8.49608
ite	-8.50346
ap	-8.50557
▁human	-8.50577
▁won	-8.50903
all	-8.5095
ating	-8.50958
ever	-8.51196
▁night	-8.51624
▁poor	-8.51686
ho	-8.5218
▁keep	-8.52188
▁lack	-8.5219
▁wrong	-8.52565
king	-8.52662
In	-8.52757
▁heart	-8.53179
▁person	-8.53264
▁line	-8.53395
▁When	-8.53516
▁Ra	-8.53606
▁Al	-8.54134
▁Not	-8.54417
▁once	-8.54492
▁men	-8.54626
▁black	-8.54694
▁awful	-8.55123
▁video	-8.55249
▁used	-8.55335
▁instead	-8.55823
fe	-8.55955
▁turn	-8.56209
▁couple	-8.56401
▁Hollywood	-8.56556
▁stupid	-8.56691
▁try	-8.56707
▁full	-8.56771
▁act	-8.56939
ger	-8.56944
▁picture	-8.56982
ach	-8.57117
▁everyone	-8.57356
▁wonderful	-8.57454
▁boring	-8.5774
▁Lo	-8.5774
go	-8.57771
▁tell	-8.57812
va	-8.57859
ise	-8.57908
▁given	-8.5791
ak	-8.57918
▁V	-8.58623
▁came	-8.58649
/10	-8.58759
▁ga	-8.58842
▁perfect	-8.5925
▁dialogue	-8.59495
▁become	-8.59821
di	-8.59828
tor	-8.59863
▁title	-8.60213
▁either	-8.60239
▁However	-8.60255
▁pre	-8.60315
▁lead	-8.60378
▁school	-8.60389
▁art	-8.60476
▁moments	-8.6055
pa	-8.60626
▁Mo	-8.60704
▁Bo	-8.60778
▁flick	-8.60878
▁performances	-8.61233
▁run	-8.61278
▁until	-8.61307
▁kids	-8.61613
cy	-8.61646
▁truly	-8.61756
▁--	-8.61907
▁along	-8.61935
ice	-8.62212
▁J	-8.6255
aw	-8.62617
▁terrible	-8.62676
ning	-8.62753
▁case	-8.62989
▁All	-8.63007
▁My	-8.63066
▁entire	-8.63211
▁friend	-8.63216
like	-8.63353
ably	-8.63412
▁sad	-8.63554
▁bl	-8.63561
▁j	-8.63586
▁small	-8.63918
io	-8.64048
▁Pa	-8.64211
▁feeling	-8.64349
▁felt	-8.64546
▁Man	-8.64571
ack	-8.65253
▁top	-8.6536
▁sex	-8.65459
by	-8.65608
▁Ch	-8.65854
ay	-8.65865
▁sort	-8.66007
▁itself	-8.66128
ell	-8.66128
ab	-8.66342
▁example	-8.66447
▁doing	-8.66571
▁One	-8.66844
▁l	-8.6701
pp	-8.67094
ving	-8.67139
▁en	-8.67251
▁women	-8.67251
ey	-8.67315
da	-8.67408
▁playing	-8.67408
▁kill	-8.67502
▁follow	-8.67619
▁laugh	-8.67692
wi	-8.679
▁episode	-8.68092
▁Sa	-8.68136
ial	-8.68287
▁friends	-8.68393
ure	-8.68443
wa	-8.68551
▁worse	-8.68551
▁THE	-8.68717
▁dr	-8.68777
▁budget	-8.68828
ound	-8.68847
▁experience	-8.68878
9	-8.68933
▁live	-8.6921
▁bo	-8.69247
▁absolutely	-8.69293
ker	-8.69467
▁deal	-8.69469
▁fo	-8.69539
▁getting	-8.69636
▁couldn	-8.69659
les	-8.69976
▁however	-8.70136
side	-8.7018
▁stand	-8.70219
▁game	-8.70243
▁hit	-8.70495
ub	-8.70607
▁Di	-8.70705
vo	-8.70711
▁style	-8.70923
ight	-8.70941
▁problem	-8.71707
tro	-8.71738
▁side	-8.71795
▁next	-8.71876
If	-8.71997
▁per	-8.72078
ber	-8.72096
▁past	-8.72103
▁late	-8.72282
▁Even	-8.72441
▁waste	-8.72471
▁guess	-8.72726
▁beginning	-8.72905
▁often	-8.73282
▁Th	-8.73291
ley	-8.73443
▁review	-8.73503
ff	-8.73628
▁li	-8.73727
lin	-8.73826
▁sl	-8.73915
gu	-8.74066
There	-8.74194
▁drama	-8.74385
▁cl	-8.74386
▁strong	-8.74445
▁final	-8.74577
▁fight	-8.74597
▁move	-8.74609
▁gives	-8.74779
▁Mr	-8.7489
ex	-8.75047
▁written	-8.75112
*	-8.75143
od	-8.75296
▁direction	-8.75531
▁killer	-8.75834
▁fine	-8.76306
▁early	-8.76732
▁gr	-8.76769
▁At	-8.7711
▁ha	-8.77163
▁child	-8.77242
port	-8.77445
▁His	-8.77459
▁dead	-8.77468
▁dark	-8.77628
▁An	-8.77715
▁Me	-8.77936
▁went	-8.78664
▁War	-8.78686
▁stars	-8.78798
▁lines	-8.79006
▁cinema	-8.79022
▁Da	-8.79282
cu	-8.79385
▁cut	-8.79519
▁comp	-8.79665
▁mother	-8.79688
▁children	-8.79805
▁Sp	-8.79954
con	-8.79991
eg	-8.8009
au	-8.80138
fully	-8.80239
▁maybe	-8.80247
▁against	-8.80267
▁voice	-8.8034
ide	-8.80415
▁favorite	-8.80529
▁view	-8.80564
ug	-8.80573
▁tries	-8.8096
▁Du	-8.80975
▁amazing	-8.81078
▁call	-8.81113
▁liked	-8.81245
▁wanted	-8.81367
▁totally	-8.81854
led	-8.81872
we	-8.81938
▁New	-8.82035
▁seemed	-8.82122
▁genre	-8.82199
▁several	-8.82384
uck	-8.82438
▁mis	-8.82602
gen	-8.8276
ren	-8.8288
▁la	-8.82999
ld	-8.83181
▁expect	-8.83218
▁ask	-8.83278
▁entertaining	-8.83355
▁ho	-8.83398
bb	-8.83535
▁Ar	-8.83631
▁definitely	-8.83707
▁question	-8.8391
ade	-8.83977
▁matter	-8.8409
▁viewer	-8.84098
▁du	-8.84491
▁self	-8.8467
▁Well	-8.84814
▁writing	-8.84856
▁ta	-8.84883
▁hero	-8.85522
▁town	-8.85528
ens	-8.85607
▁th	-8.85658
art	-8.85768
▁Mi	-8.85911
▁lives	-8.85944
RE	-8.86069
▁moment	-8.86331
▁brother	-8.86408
▁learn	-8.86408
time	-8.86455
▁4	-8.86544
▁becomes	-8.86563
▁stuff	-8.86635
▁ro	-8.86728
▁light	-8.8679
▁humor	-8.86968
▁slow	-8.87258
ON	-8.87348
▁strange	-8.87402
▁relationship	-8.87786
▁break	-8.88008
ran	-8.881
▁already	-8.88183
▁deliver	-8.88183
▁loved	-8.8819
my	-8.8822
▁certainly	-8.88231
▁Har	-8.88273
▁stay	-8.88309
▁evil	-8.88383
▁number	-8.88582
▁fans	-8.88609
▁gra	-8.88645
tra	-8.88696
▁throughout	-8.88869
use	-8.88901
▁others	-8.88969
▁although	-8.88984
ple	-8.89083
light	-8.89268
ical	-8.8927
▁sub	-8.8928
▁Mc	-8.89726
▁quality	-8.89788
▁brilliant	-8.8999
▁horrible	-8.8999
of	-8.90059
amp	-8.90261
▁son	-8.90404
▁sit	-8.90644
ture	-8.90665
▁change	-8.90685
▁blood	-8.91214
▁lost	-8.91255
mm	-8.91261
▁enjoyed	-8.91312
az	-8.91317
ned	-8.91368
▁save	-8.9142
▁kid	-8.91561
▁Don	-8.91618
▁behind	-8.91625
▁talk	-8.91645
tch	-8.91912
ink	-8.91948
▁novel	-8.9204
!!	-8.92147
ky	-8.92174
ile	-8.92246
ny	-8.92246
▁Michael	-8.92389
▁gl	-8.92861
▁twist	-8.92868
▁type	-8.92871
▁pass	-8.9321
▁da	-8.93237
ten	-8.93303
▁Some	-8.93305
ook	-8.93739
line	-8.93882
▁effort	-8.94127
▁stories	-8.94127
ized	-8.94145
▁par	-8.94516
ail	-8.94718
▁mu	-8.94736
ng	-8.94804
▁pr	-8.94831
▁After	-8.94932
▁daughter	-8.94975
row	-8.94977
What	-8.94991
gr	-8.95098
▁gave	-8.95174
▁history	-8.95407
ize	-8.95457
own	-8.95824
▁themselves	-8.95831
▁wonder	-8.95852
▁called	-8.95887
▁lo	-8.95943
▁Dr	-8.96266
▁age	-8.96277
▁Bu	-8.96309
▁weak	-8.96321
▁inter	-8.96646
▁etc	-8.969
▁deep	-8.96936
▁5	-8.96971
▁Also	-8.97145
▁cop	-8.97194
▁With	-8.97236
▁situation	-8.97346
bu	-8.97428
▁talent	-8.97598
▁Un	-8.9762
▁Ne	-8.97679
har	-8.97726
▁realize	-8.97794
▁took	-8.97874
▁Ka	-8.97898
▁Gr	-8.97954
ang	-8.98003
▁hate	-8.98025
▁ago	-8.98146
que	-8.98432
▁able	-8.9854
▁starts	-8.9857
▁works	-8.98725
!)	-8.98901
▁interest	-8.99254
▁group	-8.99329
▁wish	-8.9943
▁wants	-8.99526
▁involved	-8.99533
our	-8.99647
▁chance	-8.99653
▁How	-8.99701
▁based	-8.99816
▁turns	-8.99839
▁guys	-8.99987
▁ridiculous	-8.99998
▁eyes	-9.00108
▁appear	-9.00152
▁Con	-9.0017
ney	-9.00208
▁Of	-9.0028
den	-9.00376
▁speak	-9.00448
▁finally	-9.00506
▁manage	-9.00612
▁ten	-9.00689
ier	-9.00717
▁decent	-9.00956
▁pick	-9.01031
lk	-9.01177
▁open	-9.012
▁room	-9.01417
▁stop	-9.01489
▁directed	-9.01494
lie	-9.0157
ah	-9.01583
▁comic	-9.01601
▁myself	-9.01806
but	-9.01873
▁killed	-9.02008
▁today	-9.02034
▁Na	-9.0214
▁white	-9.02164
ible	-9.02227
▁imp	-9.02455
▁musical	-9.02464
▁level	-9.02493
hy	-9.02558
▁Or	-9.0271
▁opinion	-9.02723
▁leave	-9.02927
▁die	-9.03038
▁Ru	-9.03076
▁Go	-9.03221
way	-9.03667
▁Why	-9.0373
ble	-9.03802
low	-9.03813
ue	-9.03816
▁cannot	-9.04038
▁pi	-9.04302
▁perhaps	-9.04347
ane	-9.04403
▁bring	-9.04411
▁cheap	-9.04582
▁clich	-9.04587
▁mention	-9.04705
lan	-9.04731
▁result	-9.04816
▁Se	-9.04835
▁complete	-9.05368
▁days	-9.05453
▁form	-9.0552
▁yourself	-9.05523
▁Robert	-9.05651
ai	-9.05752
▁score	-9.05761
▁im	-9.05781
▁obvious	-9.05842
▁Ri	-9.05976
▁major	-9.05998
▁class	-9.05998
▁gun	-9.06318
press	-9.06319
▁Ja	-9.06337
▁rent	-9.06342
▁happened	-9.06373
▁crap	-9.06376
▁zombie	-9.06475
▁actress	-9.0656
▁fa	-9.06574
▁add	-9.06712
▁Ki	-9.06766
19	-9.06971
ily	-9.06977
▁While	-9.07075
AR	-9.07123
▁career	-9.0722
ping	-9.07473
▁team	-9.07587
▁power	-9.07638
▁sequel	-9.07677
▁dream	-9.07677
old	-9.07814
!"	-9.07882
▁heard	-9.08108
▁similar	-9.08161
rie	-9.08263
▁soon	-9.08323
▁God	-9.08329
▁hilarious	-9.08405
▁happens	-9.08438
ER	-9.08449
istic	-9.08559
ough	-9.08631
▁20	-9.0864
▁explain	-9.08649
▁Her	-9.08772
▁Just	-9.08904
▁offer	-9.0907
▁happen	-9.0909
▁English	-9.09138
▁sometimes	-9.09146
▁usual	-9.0927
her	-9.09301
▁simple	-9.09384
▁hour	-9.09524
▁thinking	-9.09534
▁sexual	-9.09548
ki	-9.09605
▁image	-9.09666
▁obviously	-9.09792
▁hear	-9.09876
▁shock	-9.09908
gan	-9.09987
And	-9.10005
ory	-9.10021
▁Lu	-9.10094
But	-9.10186
▁violence	-9.10373
AN	-9.10405
ities	-9.10549
....	-9.10557
▁fall	-9.10734
▁present	-9.1074
▁extremely	-9.10742
not	-9.11009
▁theater	-9.11052
▁figure	-9.11121
rr	-9.11297
▁female	-9.11372
▁subject	-9.11372
▁comment	-9.11447
▁coming	-9.11475
▁Po	-9.11476
▁wouldn	-9.11516
zz	-9.11527
ped	-9.11599
▁important	-9.11623
▁alone	-9.11899
gar	-9.12107
ric	-9.1218
▁taken	-9.12219
men	-9.12226
▁Jo	-9.12232
▁allow	-9.12236
▁theme	-9.12371
ator	-9.12379
ina	-9.12496
▁Tom	-9.12538
ically	-9.1259
▁parts	-9.128
▁order	-9.128
▁Y	-9.12895
▁pay	-9.12967
day	-9.13039
▁focus	-9.13401
▁grow	-9.13435
▁plan	-9.13498
▁serious	-9.13519
cr	-9.13682
▁four	-9.13874
▁huge	-9.13913
ka	-9.13982
▁drive	-9.14007
▁Then	-9.14142
▁buy	-9.14179
▁Paul	-9.1422
▁non	-9.14239
▁told	-9.14329
▁com	-9.1436
▁sn	-9.14387
▁season	-9.1445
▁Dan	-9.14507
▁highly	-9.14592
▁treat	-9.14701
▁gore	-9.14866
▁possible	-9.14948
▁police	-9.14948
▁se	-9.14964
▁hours	-9.14979
▁somewhat	-9.15007
▁visual	-9.15208
▁James	-9.15212
ov	-9.15598
▁miss	-9.1564
▁Oscar	-9.15732
▁large	-9.16002
rk	-9.16028
▁roles	-9.16077
▁adult	-9.16258
▁personal	-9.16259
▁single	-9.16261
▁Gu	-9.16266
▁body	-9.16306
▁annoying	-9.16413
so	-9.16656
▁Ed	-9.16665
▁writer	-9.16696
han	-9.16708
nny	-9.16919
▁em	-9.16957
▁hold	-9.1711
▁opening	-9.17235
▁particularly	-9.17432
▁attention	-9.17722
▁pe	-9.1783
▁Ta	-9.17846
▁value	-9.17851
▁7	-9.18057
ame	-9.18072
▁include	-9.18119
▁rating	-9.18192
So	-9.18207
▁talking	-9.18378
▁husband	-9.18387
▁middle	-9.18388
▁return	-9.18423
ette	-9.1848
ude	-9.18522
▁Wal	-9.18538
▁cinematography	-9.18657
▁country	-9.18694
▁cool	-9.18823
▁doubt	-9.18929
ock	-9.19023
ual	-9.19026
!!!	-9.19123
ew	-9.19168
▁dance	-9.19221
▁living	-9.19226
ev	-9.19227
nder	-9.19373
▁Now	-9.19418
▁thriller	-9.19575
▁typical	-9.19742
▁feature	-9.19821
▁Si	-9.19838
▁mess	-9.19881
▁message	-9.20048
▁looked	-9.20061
▁says	-9.2014
▁across	-9.2029
▁word	-9.20421
ob	-9.20483
▁cover	-9.20488
▁Su	-9.205
▁exactly	-9.20565
▁discover	-9.20571
▁song	-9.20602
cent	-9.20682
▁sequence	-9.20703
▁due	-9.20828
▁prove	-9.20843
▁running	-9.20876
▁super	-9.21052
▁na	-9.21094
▁romantic	-9.21116
▁local	-9.21118
fa	-9.21258
▁disappointed	-9.21488
▁eye	-9.21668
▁detail	-9.21672
kin	-9.21836
▁walk	-9.21897
▁suspense	-9.21949
ung	-9.21979
▁camp	-9.22029
right	-9.22141
well	-9.22163
▁started	-9.2241
▁fast	-9.22416
▁David	-9.22433
▁stage	-9.22474
head	-9.22475
▁release	-9.22543
▁Sha	-9.22737
ze	-9.22745
▁shown	-9.22807
▁near	-9.22974
▁Who	-9.22995
oke	-9.2309
▁emotional	-9.23107
▁known	-9.23314
▁despite	-9.23357
200	-9.23438
off	-9.23477
uff	-9.23599
▁bar	-9.23899
▁girls	-9.24163
▁fire	-9.2432
even	-9.24366
dge	-9.24431
▁sister	-9.24493
▁hell	-9.24728
▁sent	-9.24729
▁dialog	-9.24766
▁scary	-9.24982
▁Vi	-9.2515
gue	-9.25295
▁Jack	-9.2559
▁suck	-9.25705
▁documentary	-9.25937
▁8	-9.26006
OR	-9.26009
▁Bar	-9.2604
▁modern	-9.26224
▁respect	-9.26311
▁Col	-9.26384
▁villain	-9.26516
▁Gra	-9.26554
▁Richard	-9.2666
▁shots	-9.2682
▁cat	-9.26829
▁Ben	-9.26951
?)	-9.26956
▁silly	-9.27103
▁future	-9.27109
which	-9.27226
▁except	-9.27334
▁knew	-9.27395
▁check	-9.27396
▁remain	-9.27397
▁remind	-9.27399
▁win	-9.27469
▁tells	-9.27475
▁including	-9.27635
▁Mu	-9.27649
▁jokes	-9.27892
▁released	-9.2795
who	-9.2796
▁fit	-9.28034
▁surprise	-9.28051
▁Star	-9.28143
▁clear	-9.28223
▁El	-9.28281
▁admit	-9.28283
▁pull	-9.28287
▁predictable	-9.28302
▁spend	-9.28378
")	-9.28506
▁actual	-9.28507
▁happy	-9.28589
▁!	-9.28619
▁fr	-9.28677
die	-9.28733
▁dull	-9.28746
▁provide	-9.28879
My	-9.29072
▁straight	-9.29178
rew	-9.29197
▁Cl	-9.29354
rry	-9.29358
▁events	-9.29429
▁above	-9.29486
▁meet	-9.29537
▁week	-9.29592
▁seriously	-9.29639
▁critic	-9.29765
▁moving	-9.29846
▁clearly	-9.29878
▁saying	-9.29913
ok	-9.30097
▁among	-9.30125
▁producer	-9.30148
▁usually	-9.30264
▁enjoyable	-9.3056
cho	-9.30673
As	-9.30685
▁agree	-9.30699
▁entertainment	-9.30719
▁touch	-9.30749
▁sta	-9.30753
▁William	-9.30817
▁York	-9.30994
▁cause	-9.30997
▁accent	-9.30998
▁previous	-9.31299
▁create	-9.31386
▁wait	-9.31391
▁viewing	-9.31398
An	-9.31506
He	-9.31525
▁whe	-9.31571
▁air	-9.31621
▁George	-9.31722
gi	-9.31805
ek	-9.31861
▁emotion	-9.31875
▁taking	-9.31948
▁Je	-9.31965
▁supporting	-9.32057
▁nu	-9.32134
▁editing	-9.32223
▁tale	-9.32236
ern	-9.3224
▁begins	-9.32279
▁box	-9.32292
AL	-9.32293
▁named	-9.32619
▁words	-9.32698
▁Sam	-9.32738
work	-9.32742
▁herself	-9.32843
▁cartoon	-9.32843
▁On	-9.3287
▁turned	-9.32947
▁songs	-9.33025
▁count	-9.33037
▁material	-9.33154
▁giving	-9.33154
pro	-9.33445
▁soundtrack	-9.33467
over	-9.3358
▁easily	-9.3378
▁fantastic	-9.3378
▁television	-9.33781
▁aren	-9.33821
▁Jane	-9.33928
▁difficult	-9.34095
▁animation	-9.34095
▁mix	-9.34098
▁Peter	-9.34098
▁Ni	-9.3421
▁nearly	-9.34219
▁crime	-9.34412
lock	-9.34488
▁certain	-9.3465
▁perform	-9.34691
▁problems	-9.34728
▁accept	-9.3473
ative	-9.34756
▁appears	-9.34778
ga	-9.34887
cur	-9.34895
▁escape	-9.35044
rought	-9.3509
▁reality	-9.35104
▁ends	-9.35227
▁standard	-9.35411
ties	-9.35413
ham	-9.35661
▁secret	-9.35682
▁victim	-9.35682
▁capture	-9.35696
▁cap	-9.35737
▁Bur	-9.35922
▁British	-9.36003
▁finish	-9.36003
▁reveal	-9.36006
▁odd	-9.36013
▁consider	-9.36043
▁killing	-9.3624
▁period	-9.36324
▁Mon	-9.36417
▁free	-9.36419
▁setting	-9.36471
▁episodes	-9.36585
▁k	-9.36715
▁King	-9.36717
▁rock	-9.36747
▁Mor	-9.3678
▁mar	-9.36796
▁Tim	-9.36921
▁famous	-9.3697
▁imagine	-9.37295
val	-9.3744
▁surprised	-9.37548
▁Joe	-9.3785
▁spirit	-9.37948
▁average	-9.3795
app	-9.38
itch	-9.38108
▁whi	-9.38257
▁suffer	-9.38276
▁German	-9.38277
▁attack	-9.38281
▁bunch	-9.38313
▁throw	-9.38374
▁portray	-9.38446
▁storyline	-9.38478
▁80	-9.3848
ix	-9.3861
▁kept	-9.3861
▁decided	-9.38647
ja	-9.3872
▁aspect	-9.38727
▁nature	-9.38952
▁forget	-9.38961
▁upon	-9.39239
AT	-9.39343
▁male	-9.39361
IN	-9.39635
ugh	-9.39846
▁comments	-9.39868
▁post	-9.4019
▁easy	-9.40266
▁effective	-9.40312
▁write	-9.40409
▁sets	-9.40514
van	-9.40521
▁atmosphere	-9.40601
▁student	-9.40601
?"	-9.40762
play	-9.4081
▁background	-9.40938
To	-9.40966
len	-9.41035
▁none	-9.41083
iff	-9.41121
▁battle	-9.41294
▁superb	-9.41353
▁haven	-9.41464
▁overall	-9.41492
lip	-9.41606
▁color	-9.41617
ING	-9.41661
▁red	-9.41794
za	-9.41937
▁Lee	-9.41938
▁choice	-9.41955
▁please	-9.41955
▁space	-9.4199
TH	-9.42181
▁30	-9.42285
▁pace	-9.4239
▁Mac	-9.42618
▁trouble	-9.42638
▁premise	-9.42638
▁Gar	-9.42667
▁arm	-9.42684
▁Disney	-9.42983
▁shame	-9.43025
▁dumb	-9.43329
▁parents	-9.4333
▁elements	-9.43331
▁Can	-9.43342
▁using	-9.43359
▁rare	-9.43716
▁Ga	-9.43757
▁expected	-9.43791
rated	-9.43863
▁showing	-9.43885
▁meaning	-9.43927
▁falls	-9.44
yn	-9.44001
hose	-9.44138
▁joke	-9.44158
▁tried	-9.44374
▁lame	-9.44387
▁hair	-9.44525
▁mostly	-9.44587
▁viewers	-9.4465
▁believable	-9.44718
▁became	-9.44719
▁Frank	-9.4472
▁five	-9.44732
▁match	-9.4476
You	-9.44761
ong	-9.44768
▁nor	-9.44825
oon	-9.44897
cept	-9.44916
▁finds	-9.44932
▁OK	-9.44965
round	-9.44995
▁particular	-9.45027
▁front	-9.45072
j	-9.45223
▁weird	-9.4544
▁issue	-9.45513
▁pl	-9.45785
▁drag	-9.46079
▁beyond	-9.46129
00	-9.46134
ace	-9.4627
▁within	-9.46322
▁poorly	-9.46433
▁unique	-9.46485
ttle	-9.46621
▁state	-9.46628
LL	-9.46662
▁animal	-9.46845
▁pure	-9.46961
▁anyway	-9.46968
read	-9.47114
▁romance	-9.47201
▁business	-9.47206
▁Japanese	-9.47561
▁US	-9.47672
▁avoid	-9.47703
▁catch	-9.47745
▁feels	-9.47952
▁leads	-9.47955
spect	-9.48106
▁continue	-9.48283
▁project	-9.48284
▁third	-9.48284
▁rate	-9.484
▁sequences	-9.48464
▁needed	-9.48637
▁concern	-9.48648
▁magic	-9.48663
nother	-9.48775
▁working	-9.48806
let	-9.48812
▁begin	-9.48936
▁*	-9.48938
▁tea	-9.48966
▁suggest	-9.49012
hu	-9.49028
▁bored	-9.49097
long	-9.49102
▁lose	-9.49252
▁Unfortunately	-9.49269
rate	-9.49331
▁appeal	-9.49378
▁design	-9.49379
All	-9.49425
▁train	-9.4946
EN	-9.49481
▁date	-9.49542
▁pop	-9.49544
mark	-9.49617
▁means	-9.49665
▁thank	-9.49689
pen	-9.49766
▁master	-9.49838
lly	-9.49901
▁list	-9.49952
▁def	-9.50087
▁describe	-9.50115
ino	-9.50176
▁Che	-9.50292
▁footage	-9.50485
▁truth	-9.50486
lent	-9.50488
▁opera	-9.50502
fu	-9.50544
▁realistic	-9.50583
▁Most	-9.50586
▁successful	-9.50636
▁success	-9.50706
▁notice	-9.51004
▁Hu	-9.51152
▁mystery	-9.51607
▁trash	-9.51608
field	-9.5161
▁basically	-9.51629
▁drug	-9.51704
war	-9.5176
lay	-9.51803
▁Maybe	-9.51851
▁scare	-9.51873
▁dog	-9.51939
▁monster	-9.51982
▁Wood	-9.51992
▁city	-9.52035
When	-9.52061
▁note	-9.52244
▁Oh	-9.52322
▁French	-9.52358
▁effect	-9.52366
ES	-9.52412
▁Te	-9.52671
▁America	-9.52715
▁jump	-9.52738
▁fair	-9.52863
rise	-9.52971
▁convincing	-9.53117
▁mistake	-9.53118
▁suit	-9.53119
▁9	-9.53133
▁yes	-9.53234
▁greatest	-9.53412
▁grand	-9.5347
▁general	-9.53487
Overall	-9.53501
▁sat	-9.5352
▁minute	-9.53607
▁Although	-9.53674
bor	-9.53789
▁potential	-9.53882
▁sleep	-9.53883
▁ob	-9.53908
▁development	-9.53922
look	-9.53943
▁needs	-9.53951
▁stick	-9.54056
▁possibly	-9.54267
▁leaves	-9.54311
▁ill	-9.54319
▁exception	-9.54383
nal	-9.54626
▁bother	-9.5484
▁eventually	-9.5504
▁contain	-9.55042
▁popular	-9.55045
▁direct	-9.55336
chi	-9.5535
▁masterpiece	-9.55431
▁dramatic	-9.55564
▁Will	-9.55661
par	-9.55734
▁worked	-9.55748
▁70	-9.55799
▁moral	-9.55837
▁era	-9.55962
▁older	-9.5605
vin	-9.56105
▁sweet	-9.56212
▁control	-9.56213
▁trip	-9.56224
▁plain	-9.56243
Ma	-9.56314
lf	-9.56344
▁public	-9.56378
▁cheesy	-9.56606
▁steal	-9.5661
▁term	-9.5676
ship	-9.56865
▁memorable	-9.57001
iness	-9.57021
▁painful	-9.57047
▁shoot	-9.57187
▁apparently	-9.57193
▁appreciate	-9.57279
▁deserve	-9.5738
▁earlier	-9.57398
▁costume	-9.57401
▁From	-9.57826
▁credit	-9.58081
▁force	-9.58256
▁total	-9.58277
▁adventure	-9.58344
▁remake	-9.58599
▁screenplay	-9.58634
▁creepy	-9.58718
▁90	-9.58747
▁forward	-9.58814
▁portrayal	-9.58821
though	-9.58894
▁Good	-9.58945
▁forced	-9.59235
▁depict	-9.59406
▁natural	-9.59607
▁directing	-9.59638
▁quickly	-9.5964
▁keeps	-9.59694
▁powerful	-9.59761
cer	-9.59802
▁sign	-9.59818
▁anti	-9.59843
▁step	-9.59854
One	-9.59867
ray	-9.5993
▁spot	-9.59942
▁sick	-9.59974
▁unlike	-9.60004
▁gay	-9.60158
▁interested	-9.60159
Re	-9.60192
▁normal	-9.6023
▁outside	-9.60328
with	-9.60648
▁hot	-9.6065
▁taste	-9.60752
this	-9.60867
star	-9.60928
▁fails	-9.60957
▁incredibly	-9.61042
▁Scott	-9.61042
▁amount	-9.61042
▁location	-9.61042
▁various	-9.61042
▁trans	-9.61042
▁perfectly	-9.61306
LE	-9.61413
▁brings	-9.61463
▁girlfriend	-9.61475
▁appearance	-9.61521
ju	-9.61526
▁Cu	-9.61819
ken	-9.6186
▁writers	-9.6192
▁support	-9.62093
▁mentioned	-9.62161
▁indeed	-9.6233
▁features	-9.62636
▁First	-9.62681
▁society	-9.62705
▁soldier	-9.62705
▁flat	-9.6294
▁sorry	-9.63023
atic	-9.63044
▁leg	-9.63087
▁reading	-9.63106
ident	-9.63124
▁political	-9.63126
▁prison	-9.63138
▁concept	-9.63162
▁These	-9.63241
▁credits	-9.6325
▁meets	-9.63342
LY	-9.63345
▁portrayed	-9.63516
▁Like	-9.63543
▁clever	-9.63598
▁somehow	-9.63684
cing	-9.63708
▁roll	-9.63804
Le	-9.63882
▁further	-9.63972
▁social	-9.63972
▁Ke	-9.64134
▁reviews	-9.64227
▁laughs	-9.64335
▁slasher	-9.64397
top	-9.64556
▁towards	-9.64622
▁exist	-9.64629
▁band	-9.64769
▁paint	-9.64787
▁IMDb	-9.64824
▁6	-9.64848
▁lady	-9.64899
▁lover	-9.64984
▁cute	-9.65028
movie	-9.6506
▁mad	-9.65159
jo	-9.65308
▁tend	-9.65325
ration	-9.65559
▁cry	-9.65651
▁NOT	-9.65717
▁kick	-9.65727
▁door	-9.65732
unk	-9.65871
▁gone	-9.65988
▁Ex	-9.65997
▁studio	-9.66117
▁rich	-9.66138
▁disc	-9.66424
vy	-9.66458
ome	-9.66469
▁Am	-9.66477
▁By	-9.66782
▁draw	-9.66782
▁Com	-9.66821
bel	-9.66912
▁positive	-9.66989
▁leading	-9.66991
▁water	-9.66994
izing	-9.67078
▁wall	-9.67143
▁Pre	-9.67157
▁fear	-9.67168
▁rap	-9.67405
▁destroy	-9.67427
▁embarrass	-9.67427
▁fiction	-9.67428
▁plenty	-9.67428
▁depth	-9.67429
▁common	-9.67465
▁Fi	-9.67535
▁ruin	-9.67877
▁honest	-9.67916
▁extra	-9.67952
▁Bri	-9.68088
cut	-9.68284
▁record	-9.6831
▁visit	-9.68311
▁answer	-9.68311
▁subtle	-9.68318
▁Per	-9.68443
some	-9.69119
▁copy	-9.69131
▁purpose	-9.69201
▁brief	-9.69201
▁claim	-9.69202
▁Earth	-9.69202
nie	-9.69209
▁fairly	-9.69218
mate	-9.6923
▁brain	-9.69256
▁crew	-9.69324
▁Va	-9.69374
***	-9.69504
▁filmmakers	-9.69566
▁street	-9.69651
▁wild	-9.69657
▁telling	-9.69718
uld	-9.69746
▁Bro	-9.69856
▁Mil	-9.69918
▁limit	-9.70103
▁caught	-9.70139
▁sea	-9.70237
▁bull	-9.70238
▁50	-9.70243
▁Yes	-9.70403
▁Italian	-9.70554
▁earth	-9.70557
AD	-9.70566
▁members	-9.70598
▁store	-9.70599
▁expecting	-9.70654
▁acted	-9.70767
oe	-9.70859
▁Love	-9.70992
▁intelligent	-9.71007
▁Movie	-9.71008
▁serve	-9.71011
▁repeat	-9.71023
pre	-9.71037
For	-9.71157
▁meant	-9.71262
▁beat	-9.71447
▁nudity	-9.71464
▁Christian	-9.71494
▁casting	-9.71498
▁baby	-9.71524
▁fighting	-9.71705
▁15	-9.71745
▁brutal	-9.71923
▁artist	-9.72072
De	-9.72346
tress	-9.72352
▁Film	-9.72393
▁skill	-9.72451
▁mid	-9.72524
Be	-9.72528
▁missing	-9.72587
▁inside	-9.72643
▁land	-9.72658
▁tension	-9.72853
▁whatever	-9.72853
▁culture	-9.72866
ison	-9.72937
▁Ann	-9.72955
▁manner	-9.73112
een	-9.73179
▁mental	-9.73202
▁decide	-9.7326
▁talented	-9.73263
▁conclusion	-9.73311
vision	-9.73335
ana	-9.73386
▁chase	-9.73433
car	-9.7366
▁reach	-9.73671
▁waiting	-9.73776
▁fantasy	-9.73779
▁badly	-9.73794
tention	-9.73835
key	-9.73842
mar	-9.74
▁Pro	-9.74102
▁recently	-9.74143
▁Indian	-9.74183
▁beauty	-9.74249
▁achieve	-9.74251
▁eat	-9.74254
▁deserves	-9.7427
▁psycho	-9.74359
lon	-9.74367
▁share	-9.74387
▁created	-9.74589
ization	-9.74724
▁Still	-9.74896
▁Cla	-9.74906
▁disturbing	-9.74916
▁fake	-9.75013
On	-9.75034
▁laughing	-9.75078
▁pointless	-9.75136
▁approach	-9.75194
▁Christmas	-9.75195
▁amusing	-9.75196
▁missed	-9.75447
cap	-9.7554
▁pat	-9.75626
▁genuine	-9.7567
▁crazy	-9.7567
▁commit	-9.75671
night	-9.75897
ified	-9.7591
▁sca	-9.75912
▁language	-9.76148
▁adaptation	-9.76179
▁track	-9.76225
▁Ju	-9.7645
position	-9.76498
▁vampire	-9.76629
▁married	-9.7663
espite	-9.76635
▁consist	-9.7664
▁solid	-9.76644
now	-9.76689
▁porn	-9.7669
▁listen	-9.76777
▁wasted	-9.76968
▁spent	-9.76973
▁soul	-9.77084
▁familiar	-9.77112
▁dress	-9.77131
▁cult	-9.77582
▁scream	-9.77598
Do	-9.77642
▁Pri	-9.77689
▁pain	-9.77791
wn	-9.78065
room	-9.78179
▁Park	-9.7818
▁mood	-9.78199
Well	-9.7822
▁Sho	-9.78228
▁Bill	-9.78344
place	-9.78351
▁changed	-9.78372
▁died	-9.78449
llo	-9.78543
▁bizarre	-9.78576
▁impression	-9.78576
▁complex	-9.78576
▁ball	-9.78654
▁fu	-9.78687
▁Black	-9.78836
▁involving	-9.79068
▁million	-9.79068
▁excuse	-9.79069
▁Great	-9.7907
OU	-9.79164
▁Sw	-9.79215
▁decides	-9.79554
▁cost	-9.7956
▁complain	-9.79564
▁alien	-9.79611
aving	-9.79821
▁shooting	-9.79832
▁Instead	-9.80061
▁travel	-9.80061
▁former	-9.80152
▁Gene	-9.80231
We	-9.80401
▁biggest	-9.80561
▁regard	-9.80562
▁ground	-9.80643
▁bus	-9.80665
▁rip	-9.80668
Anyway	-9.80705
▁unfortunately	-9.80726
▁entirely	-9.80831
▁Here	-9.80921
how	-9.81026
▁difference	-9.81063
▁program	-9.81063
▁teen	-9.81069
▁mini	-9.81262
je	-9.81449
▁basic	-9.81551
▁chemistry	-9.81568
▁impressive	-9.81568
where	-9.81703
rel	-9.81732
Th	-9.81741
▁boo	-9.81791
▁produced	-9.81872
▁recent	-9.81888
win	-9.81983
▁violent	-9.82076
▁longer	-9.82518
▁decade	-9.82611
▁singing	-9.82613
▁receiv	-9.82634
▁apart	-9.82637
▁immediately	-9.82654
▁Watch	-9.83092
▁computer	-9.83099
▁reference	-9.83114
▁otherwise	-9.83154
▁Jim	-9.83264
most	-9.8337
rang	-9.83429
▁develop	-9.83443
▁blow	-9.83525
▁sci	-9.83613
▁heavy	-9.83615
▁Charlie	-9.83623
berg	-9.83627
▁Kelly	-9.83629
▁building	-9.83675
▁failed	-9.83695
▁Fe	-9.83767
▁equally	-9.83802
▁Christ	-9.83949
▁Van	-9.84005
▁World	-9.84133
▁Smith	-9.84133
▁slightly	-9.84133
▁pathetic	-9.84133
▁filled	-9.84173
ax	-9.84257
▁ended	-9.84409
ept	-9.84501
▁proper	-9.8451
ppy	-9.84601
▁fashion	-9.84654
▁luck	-9.84707
fect	-9.84708
hol	-9.84728
making	-9.84817
part	-9.8486
▁Mary	-9.84869
▁tough	-9.85023
▁absurd	-9.85177
craft	-9.8523
Not	-9.8534
▁Harry	-9.85342
▁following	-9.85559
ctive	-9.85576
Ha	-9.85618
▁terrific	-9.85703
▁historical	-9.85709
▁wide	-9.85962
ole	-9.85996
▁charm	-9.86154
▁hang	-9.86349
Final	-9.86412
▁En	-9.86495
▁Sch	-9.86547
▁entertain	-9.86634
▁exciting	-9.86764
▁revenge	-9.86764
▁technical	-9.86764
▁leaving	-9.86766
▁Angel	-9.86779
▁Gold	-9.87001
Some	-9.87124
lm	-9.87158
uous	-9.87161
back	-9.8725
▁touching	-9.87299
▁climax	-9.87299
▁incredible	-9.87299
▁suspect	-9.87299
▁interview	-9.87309
▁display	-9.87351
▁glad	-9.87425
▁suddenly	-9.87446
house	-9.87485
▁Dead	-9.87581
▁loud	-9.8773
▁awesome	-9.87837
▁innocent	-9.87837
dom	-9.87839
▁torture	-9.87846
▁college	-9.88377
▁addition	-9.88378
First	-9.88409
▁gang	-9.88455
▁pack	-9.88532
▁search	-9.88921
under	-9.88967
lish	-9.89354
▁build	-9.89403
unch	-9.89404
▁scenery	-9.89458
▁author	-9.89467
▁mysterious	-9.89467
▁bought	-9.89469
▁temp	-9.89471
▁burn	-9.89488
▁six	-9.89529
▁Cha	-9.89681
▁fail	-9.89775
No	-9.89927
▁physical	-9.90017
▁terror	-9.90017
▁trailer	-9.90017
▁western	-9.9002
▁Ste	-9.90187
▁desperate	-9.90569
▁ghost	-9.90569
▁protagonist	-9.90569
▁South	-9.90574
▁hunt	-9.90594
▁office	-9.90644
▁compared	-9.90965
▁marriage	-9.91125
▁negative	-9.91125
▁disappointment	-9.91141
▁charming	-9.9121
▁test	-9.9128
▁desire	-9.91695
▁road	-9.91825
▁carry	-9.91895
ombie	-9.92025
▁dancing	-9.92245
▁party	-9.92267
▁weren	-9.92408
▁High	-9.92639
▁narrative	-9.9281
▁wrote	-9.9281
▁minor	-9.92819
▁insult	-9.92821
▁ran	-9.92916
▁key	-9.92994
▁Rock	-9.93073
▁ride	-9.93128
▁pan	-9.93268
......	-9.93725
▁enter	-9.93749
▁added	-9.93753
▁ST	-9.93809
▁garbage	-9.9395
▁impossible	-9.9395
▁presence	-9.93953
▁month	-9.93956
▁involve	-9.93996
▁thrill	-9.94
▁bomb	-9.94004
void	-9.94018
▁managed	-9.94145
▁happening	-9.94228
▁send	-9.9427
▁mark	-9.94451
▁represent	-9.94524
▁convince	-9.94524
▁Sci	-9.94534
▁utterly	-9.94777
▁ship	-9.94811
▁Day	-9.9482
▁younger	-9.94877
**	-9.94889
OO	-9.95039
▁considered	-9.95086
▁fascinating	-9.95103
▁genius	-9.95103
▁stunning	-9.95103
▁require	-9.95103
▁compelling	-9.95103
▁doctor	-9.95103
▁cross	-9.95108
umble	-9.95308
▁unless	-9.95353
avi	-9.95383
that	-9.95438
▁ability	-9.95545
▁Every	-9.95615
▁company	-9.95685
▁alive	-9.95763
▁Night	-9.95769
▁criminal	-9.96269
▁struggle	-9.96269
▁loose	-9.96277
▁angle	-9.96331
After	-9.96392
▁somewhere	-9.96452
▁motion	-9.96483
▁Red	-9.9664
▁Any	-9.96672
law	-9.96762
▁considering	-9.96799
▁creature	-9.96857
▁Paris	-9.96878
▁Tony	-9.96947
▁drop	-9.97011
That	-9.97068
Don	-9.9715
▁fill	-9.97246
▁Allen	-9.97295
▁Steve	-9.97346
▁dad	-9.9735
pping	-9.97366
OM	-9.97421
▁rid	-9.97428
10	-9.97428
▁occur	-9.97449
▁smart	-9.9745
▁graphic	-9.9747
▁suppose	-9.97515
▁Shi	-9.97785
▁Big	-9.97862
CH	-9.9789
▁succeed	-9.98044
▁serial	-9.98045
▁random	-9.9805
▁spoil	-9.98123
▁Chris	-9.98147
ability	-9.98187
bert	-9.98318
▁rule	-9.98321
RI	-9.98536
▁slowly	-9.98641
▁relative	-9.98643
▁prop	-9.98681
▁affect	-9.98718
▁edge	-9.98761
▁disappointing	-9.98842
▁100	-9.98878
▁wise	-9.98921
Ho	-9.99039
RA	-9.99173
HO	-9.99187
▁flaws	-9.99251
ball	-9.99308
▁seven	-9.9933
▁hide	-9.99347
▁literally	-9.99851
▁push	-9.99853
▁comedies	-9.99857
▁40	-9.99863
▁station	-9.99873
▁science	-9.99879
▁Boy	-10.0026
▁neither	-10.0046
▁laughable	-10.0071
▁drawn	-10.0082
▁Tri	-10.0107
▁survive	-10.0107
▁raise	-10.0109
▁boyfriend	-10.0109
▁trick	-10.0121
▁constantly	-10.0135
▁law	-10.0138
life	-10.0161
▁element	-10.0168
▁humour	-10.0169
▁outstanding	-10.0169
▁intense	-10.0169
▁beautifully	-10.0185
▁Mad	-10.0186
budget	-10.0188
starring	-10.0193
▁handle	-10.0196
▁cold	-10.0196
▁sell	-10.0211
▁sum	-10.0218
▁animated	-10.0231
▁favourite	-10.0232
▁warm	-10.0232
▁fellow	-10.0234
▁drunk	-10.0234
▁cinematic	-10.0244
▁fell	-10.025
▁Mel	-10.0253
▁Director	-10.0274
ular	-10.0294
▁barely	-10.0294
▁generally	-10.0296
▁legend	-10.0298
Fi	-10.0299
▁relate	-10.0309
down	-10.031
▁ultimately	-10.0313
La	-10.0318
lash	-10.0323
you	-10.0327
▁content	-10.0328
Oh	-10.0337
▁prec	-10.0341
▁pun	-10.0349
▁commercial	-10.0357
▁idiot	-10.0357
▁fresh	-10.0357
▁Henry	-10.0357
▁phone	-10.0357
dding	-10.0384
▁See	-10.0396
▁detective	-10.042
▁scientist	-10.042
▁okay	-10.042
▁superior	-10.042
▁flashback	-10.042
▁Though	-10.0424
▁Martin	-10.0431
▁gem	-10.0435
Please	-10.0448
▁occasional	-10.0459
▁Pu	-10.0464
aft	-10.0483
▁essential	-10.0484
▁imagination	-10.0484
▁opportunity	-10.0484
▁stereotype	-10.0484
▁mouth	-10.0484
▁horse	-10.0484
???	-10.0486
▁frame	-10.0488
▁clue	-10.049
▁Alex	-10.0491
▁soft	-10.0494
▁sport	-10.05
▁Best	-10.0501
▁cameo	-10.0502
ED	-10.0509
▁presented	-10.0518
▁military	-10.0548
▁reaction	-10.0548
▁hurt	-10.0549
▁Jones	-10.0549
▁witness	-10.0551
▁walking	-10.056
worth	-10.0573
aught	-10.0594
▁planet	-10.0603
▁Nor	-10.0603
▁Mal	-10.0609
▁channel	-10.0612
▁confusing	-10.0612
▁unbelievable	-10.0612
▁machine	-10.0612
▁Bruce	-10.0612
▁resembl	-10.0612
▁logic	-10.0614
▁expression	-10.0621
▁plus	-10.0625
▁pal	-10.0627
▁teenager	-10.0628
▁60	-10.0642
▁Miss	-10.0664
▁laughed	-10.067
▁apartment	-10.0684
▁House	-10.0685
▁lab	-10.069
▁photograph	-10.0703
▁ham	-10.0717
▁featur	-10.0735
▁Because	-10.0743
▁afraid	-10.0743
▁likable	-10.0743
▁Superman	-10.0747
▁race	-10.0753
▁nowhere	-10.076
▁scar	-10.0802
!!!!!	-10.0805
▁prefer	-10.0809
▁Alan	-10.0837
▁shop	-10.0842
▁photography	-10.0849
▁pen	-10.0855
Mar	-10.0865
▁disgust	-10.0875
▁wooden	-10.0875
▁expectations	-10.0875
▁board	-10.0885
▁lighting	-10.0885
▁passion	-10.0903
▁surprisingly	-10.0907
▁factor	-10.091
▁developed	-10.0921
▁Bob	-10.0925
than	-10.093
▁wondering	-10.0931
▁conflict	-10.0941
▁makers	-10.0958
friend	-10.0965
▁Very	-10.0977
ection	-10.0996
▁affair	-10.1008
▁formula	-10.1009
▁sitting	-10.1023
▁Yet	-10.1026
▁OF	-10.1036
▁wind	-10.104
Now	-10.1071
▁Bad	-10.1073
▁government	-10.1076
▁impressed	-10.1076
▁smile	-10.1076
▁promise	-10.1076
▁model	-10.1077
▁express	-10.1077
▁Adam	-10.1077
▁flow	-10.1083
▁held	-10.1121
hand	-10.1133
▁boss	-10.1135
▁gorgeous	-10.1144
▁length	-10.1144
▁strength	-10.1144
▁Russian	-10.1144
▁arrive	-10.1144
▁damn	-10.1144
▁Jerry	-10.1146
▁hoping	-10.1149
▁plane	-10.1151
▁rape	-10.1156
▁quick	-10.1173
▁18	-10.1191
▁accident	-10.1209
▁object	-10.1212
▁ski	-10.1213
▁latter	-10.1213
▁join	-10.1213
▁Charles	-10.1215
▁drink	-10.1219
▁sight	-10.1229
▁thrown	-10.1266
just	-10.1268
▁century	-10.1281
▁mediocre	-10.1281
▁intended	-10.1281
▁fault	-10.1282
▁pilot	-10.1282
▁lived	-10.1296
▁buff	-10.1297
▁thin	-10.1301
▁falling	-10.1313
point	-10.1319
▁carrie	-10.1328
▁available	-10.1351
▁system	-10.1351
▁becoming	-10.1352
▁oh	-10.1354
▁professional	-10.1367
what	-10.137
RO	-10.1373
▁witch	-10.1376
▁sun	-10.1381
▁partner	-10.1383
While	-10.1385
▁sexy	-10.1387
▁teacher	-10.139
▁Sure	-10.1391
▁City	-10.1396
▁spoiler	-10.1412
▁Ray	-10.1418
▁forgotten	-10.1421
▁correct	-10.1421
▁tired	-10.1421
▁discuss	-10.1421
▁Nothing	-10.1421
▁eight	-10.1433
chan	-10.1441
▁fool	-10.1446
▁rented	-10.1467
more	-10.1468
▁Dar	-10.1471
▁Christopher	-10.1491
▁People	-10.1491
▁current	-10.1491
▁individual	-10.1491
▁Stewart	-10.1491
99	-10.1492
▁epic	-10.1492
With	-10.1528
UN	-10.1557
▁attitude	-10.1562
▁confused	-10.1562
▁funniest	-10.1562
▁tragedy	-10.1562
▁AND	-10.1562
▁tragic	-10.1563
▁elect	-10.1569
▁Story	-10.1571
▁Young	-10.1573
▁Rob	-10.1581
▁Other	-10.1598
US	-10.1603
▁experiment	-10.1634
▁encounter	-10.1634
▁reflect	-10.1634
▁whatsoever	-10.1634
▁London	-10.1634
▁process	-10.1634
▁silent	-10.1634
▁center	-10.1636
▁information	-10.1637
▁collection	-10.164
▁entr	-10.1662
▁tape	-10.1672
▁explanation	-10.1706
▁hospital	-10.1706
▁inspired	-10.1706
▁melodrama	-10.1706
▁Chinese	-10.1706
▁quiet	-10.1706
▁creative	-10.1706
▁desert	-10.1706
▁initial	-10.1706
▁Chan	-10.1727
good	-10.1754
▁Arthur	-10.1761
illa	-10.1762
hero	-10.1764
▁member	-10.1771
▁pleasant	-10.1778
▁thoroughly	-10.1778
▁seemingly	-10.178
wood	-10.1785
▁bright	-10.18
miss	-10.1802
▁Perhaps	-10.182
▁Where	-10.1823
film	-10.1832
▁Matt	-10.1845
▁favor	-10.1849
▁accurate	-10.1851
▁disappear	-10.1851
▁establish	-10.1851
▁knock	-10.1851
▁unusual	-10.1851
▁Prince	-10.1851
▁segment	-10.1851
▁freak	-10.1851
▁Fox	-10.1851
▁Louis	-10.1852
▁12	-10.1854
▁assume	-10.1859
▁redeeming	-10.1877
screen	-10.1893
▁ya	-10.1896
Act	-10.1913
ollywood	-10.192
▁remote	-10.1925
▁safe	-10.1925
▁naked	-10.1925
▁clean	-10.1925
▁bank	-10.1926
▁highlight	-10.1934
▁insight	-10.1942
▁DO	-10.1943
▁vote	-10.198
▁attract	-10.1993
▁central	-10.1999
▁guilt	-10.1999
▁convey	-10.1999
▁Green	-10.2002
▁loving	-10.2005
▁justice	-10.2018
▁compare	-10.2021
▁officer	-10.2026
Although	-10.2043
▁Men	-10.2059
▁Billy	-10.2061
▁honestly	-10.2065
▁appropriate	-10.2073
▁industry	-10.2073
▁Char	-10.2078
▁attractive	-10.2079
▁tight	-10.2079
▁blame	-10.2082
▁Dark	-10.2086
▁hotel	-10.2088
▁Only	-10.2095
view	-10.2107
▁judge	-10.2127
▁anybody	-10.2148
▁Davis	-10.2149
▁paid	-10.2149
▁invent	-10.215
▁Jeff	-10.2152
▁Too	-10.2156
▁punch	-10.2177
▁Ver	-10.2182
▁absolute	-10.2185
How	-10.2213
▁progress	-10.2224
▁symbol	-10.2224
▁distract	-10.2224
▁journey	-10.2224
▁twice	-10.2224
▁delightful	-10.2224
▁instance	-10.2225
Second	-10.2226
▁1950	-10.2227
▁artistic	-10.2231
▁host	-10.2252
▁West	-10.2269
▁lesson	-10.2281
▁Douglas	-10.23
▁explore	-10.23
▁satisfy	-10.23
▁nobody	-10.2301
▁Thank	-10.2301
▁study	-10.2301
▁double	-10.2301
▁stunt	-10.2301
▁childhood	-10.2302
▁dying	-10.2306
▁impact	-10.2309
▁Mark	-10.2327
▁chick	-10.2328
posed	-10.2329
▁Show	-10.233
stone	-10.2336
lift	-10.2339
▁demon	-10.2342
▁nasty	-10.2378
▁Brad	-10.2385
▁anywhere	-10.239
omb	-10.239
▁filmmaker	-10.2392
▁Nick	-10.2404
▁comparison	-10.2455
▁suicide	-10.2455
▁weapon	-10.2455
▁pair	-10.2456
occ	-10.2463
gie	-10.2508
▁Come	-10.251
▁Stephen	-10.2533
▁Taylor	-10.2533
▁court	-10.2536
▁friendship	-10.2537
▁club	-10.2541
▁Brian	-10.2554
▁actresses	-10.2584
!!!!	-10.2585
put	-10.2595
ueen	-10.2597
▁teenage	-10.2598
▁research	-10.2612
▁possess	-10.2612
▁broad	-10.2612
▁blind	-10.2612
▁ugly	-10.2614
▁media	-10.2615
▁winning	-10.2617
▁prepar	-10.2618
made	-10.2621
▁Jean	-10.2642
bird	-10.2655
▁Ken	-10.2664
Even	-10.2667
▁Hill	-10.2674
style	-10.2685
▁unexpected	-10.2691
▁bottom	-10.2691
▁transform	-10.2691
▁martial	-10.2691
▁mild	-10.2691
▁crash	-10.2691
▁opposite	-10.2692
▁holes	-10.2701
▁nation	-10.2705
▁stuck	-10.271
▁surprising	-10.2732
▁soap	-10.2739
▁Welles	-10.2756
▁regular	-10.2771
▁CGI	-10.2771
▁refuse	-10.2772
▁singer	-10.2775
▁Julia	-10.2776
▁remarkable	-10.278
*****	-10.2791
▁laughter	-10.2804
▁Stone	-10.2805
lace	-10.2829
▁challenge	-10.2852
▁influence	-10.2852
▁expert	-10.2852
▁joy	-10.2853
▁attend	-10.2854
▁invest	-10.2857
▁flash	-10.2859
▁introduced	-10.2882
▁apparent	-10.2894
▁extreme	-10.2894
▁Ya	-10.2897
rvi	-10.2901
▁organ	-10.2912
▁bath	-10.2919
▁Hall	-10.2927
▁Shakespeare	-10.2933
▁rubbish	-10.2933
▁priest	-10.2933
▁Harris	-10.2938
▁13	-10.2952
rack	-10.2958
stein	-10.2963
▁Julie	-10.2965
▁recognize	-10.2993
▁necessary	-10.3015
construct	-10.3015
▁wanna	-10.3015
▁choose	-10.3015
▁crowd	-10.3015
defin	-10.3017
▁Jimmy	-10.3017
▁mask	-10.3019
▁gangster	-10.302
▁commentary	-10.3023
▁blue	-10.3024
turn	-10.3028
▁fate	-10.3041
▁humanity	-10.3049
John	-10.3075
American	-10.3075
OK	-10.3088
▁refer	-10.3098
▁context	-10.3098
▁conversation	-10.3098
▁pretentious	-10.3098
▁Batman	-10.3098
▁angry	-10.3099
▁Lord	-10.3102
gged	-10.3106
▁gotten	-10.3115
▁wit	-10.3118
OL	-10.3119
▁path	-10.3142
▁Fred	-10.3164
Franc	-10.3168
▁breath	-10.3181
▁trust	-10.3182
Before	-10.3184
▁food	-10.319
▁humorous	-10.3193
arian	-10.32
▁thus	-10.3206
▁scr	-10.3212
▁gold	-10.3238
▁Dick	-10.3248
▁bland	-10.3261
▁decision	-10.3265
▁energy	-10.3265
▁pleasure	-10.3265
▁disaster	-10.3265
▁church	-10.3265
▁Street	-10.3265
▁dollar	-10.3265
▁giant	-10.3266
▁skin	-10.3266
▁market	-10.3276
▁theatre	-10.3279
▁Grant	-10.3286
▁mass	-10.3297
▁religious	-10.335
▁unnecessary	-10.335
▁Blood	-10.335
▁regret	-10.335
▁Death	-10.335
▁Morgan	-10.3353
▁European	-10.3357
▁heroine	-10.3366
▁Cage	-10.3372
▁Jr	-10.3374
TV	-10.3398
father	-10.3427
▁employ	-10.3435
▁independent	-10.3435
▁intelligence	-10.3435
▁abandon	-10.3435
▁speech	-10.3435
▁rescue	-10.3436
▁window	-10.3439
▁hint	-10.3439
▁woods	-10.344
gging	-10.3452
▁debut	-10.3462
▁putting	-10.3476
away	-10.3494
▁advice	-10.3521
▁perspective	-10.3521
▁target	-10.3521
▁everybody	-10.3522
▁connection	-10.3522
▁dangerous	-10.3524
▁aware	-10.3525
▁Little	-10.3527
▁clothes	-10.353
▁Robin	-10.3542
▁load	-10.3543
▁Sean	-10.3565
east	-10.3586
writer	-10.3587
▁Roman	-10.3595
director	-10.3598
▁recall	-10.3606
▁intriguing	-10.3608
▁contrast	-10.3608
▁thousand	-10.3608
▁Japan	-10.3609
▁curious	-10.3609
▁combine	-10.3609
▁charge	-10.3609
▁tie	-10.3609
▁dozen	-10.3609
▁1980	-10.3611
▁junk	-10.3612
▁movement	-10.3635
▁Never	-10.364
▁Steven	-10.3655
▁product	-10.3687
▁11	-10.3691
▁radio	-10.3696
▁proceed	-10.3696
▁pacing	-10.3696
▁earn	-10.3706
▁anymore	-10.3707
▁produce	-10.3712
▁Lady	-10.3725
▁constant	-10.3745
▁loss	-10.3759
▁community	-10.3785
▁engaging	-10.3785
▁festival	-10.3785
▁spectacular	-10.3785
▁1970	-10.3785
▁Lynch	-10.3785
▁stretch	-10.3785
Okay	-10.3788
▁comedic	-10.3788
▁Clark	-10.3789
SPOILERS	-10.3791
▁Rose	-10.3794
▁range	-10.3795
▁naive	-10.3803
vic	-10.3817
▁grace	-10.382
▁Out	-10.3822
▁boat	-10.3832
▁adapt	-10.3869
▁charisma	-10.3874
▁awkward	-10.3874
▁confront	-10.3874
▁dreadful	-10.3874
▁Everything	-10.3874
▁text	-10.3875
▁Brown	-10.3876
▁Kate	-10.3881
▁wedding	-10.389
▁personality	-10.3893
▁utter	-10.3925
especially	-10.3949
▁teach	-10.3952
face	-10.3958
▁Both	-10.3959
▁bill	-10.396
▁evidence	-10.3964
▁structure	-10.3964
▁technique	-10.3964
▁shallow	-10.3964
▁creating	-10.3964
▁Girl	-10.3964
▁flesh	-10.3965
▁uncle	-10.3965
▁green	-10.3968
▁tune	-10.397
▁Johnny	-10.3975
▁bigger	-10.3984
▁finest	-10.3985
▁stink	-10.399
▁skip	-10.3994
▁trade	-10.4001
▁Jud	-10.4023
▁VHS	-10.4055
▁morning	-10.4055
▁theatrical	-10.4055
▁quote	-10.4055
▁Albert	-10.4058
▁Eddie	-10.4059
▁Everyone	-10.4061
▁stock	-10.4071
▁crack	-10.4074
▁hook	-10.4075
ology	-10.4125
ouch	-10.4126
&	-10.4134
▁terribly	-10.4147
▁Keaton	-10.4147
▁knowledge	-10.4147
▁rush	-10.4147
▁speed	-10.4149
▁flying	-10.4153
▁root	-10.4162
▁Joan	-10.4188
corn	-10.4194
▁improve	-10.4232
▁behavior	-10.4239
▁intrigue	-10.4239
▁memory	-10.4239
▁account	-10.424
▁African	-10.4257
▁Roger	-10.4259
TER	-10.4265
▁hype	-10.427
▁shine	-10.4286
break	-10.4324
dimensional	-10.4333
▁Washington	-10.4333
▁psychological	-10.4333
▁responsible	-10.4333
▁hidden	-10.4333
▁routine	-10.4333
▁admire	-10.4333
▁yell	-10.4337
▁mile	-10.4337
▁protect	-10.4339
▁strip	-10.4341
▁Simon	-10.4345
▁tack	-10.4358
▁****	-10.4372
hood	-10.4375
▁Anna	-10.4405
wise	-10.4408
▁memories	-10.4427
▁unfunny	-10.4427
▁birth	-10.4427
▁pretend	-10.4427
▁source	-10.4428
▁wealth	-10.4428
▁Freddy	-10.4431
▁price	-10.4437
▁mine	-10.4455
▁NO	-10.4494
▁cash	-10.4523
▁amateurish	-10.4526
▁wave	-10.4531
▁Once	-10.4541
▁Mike	-10.4543
▁Bond	-10.4544
▁auto	-10.4545
▁Eric	-10.4552
▁buck	-10.4555
▁rank	-10.4583
▁fame	-10.4604
▁Jennifer	-10.4618
▁mountain	-10.4618
▁vehicle	-10.4618
▁ignore	-10.4618
▁significant	-10.4618
▁revolv	-10.4618
▁somebody	-10.4619
▁engage	-10.4619
▁gross	-10.4619
▁command	-10.4619
▁demand	-10.462
▁failure	-10.4622
existent	-10.4622
▁14	-10.4636
▁spell	-10.4639
50	-10.4652
▁spec	-10.4665
▁hundred	-10.4716
▁magnificent	-10.4716
▁twenty	-10.4716
▁virtual	-10.4716
conscious	-10.4716
▁Which	-10.4716
▁Hank	-10.4719
▁Danny	-10.4727
▁abuse	-10.4733
▁gut	-10.4741
▁North	-10.4753
stair	-10.4767
▁collect	-10.4805
From	-10.4807
▁ordinary	-10.4814
▁sword	-10.4814
▁heaven	-10.4814
▁Horror	-10.4814
▁spoof	-10.4814
▁White	-10.4814
fight	-10.4814
▁belief	-10.4814
▁floor	-10.4814
▁paper	-10.4814
▁devi	-10.4855
▁numerous	-10.4913
▁unrealistic	-10.4913
▁choreograph	-10.4913
▁therefore	-10.4913
▁statement	-10.4928
▁qualities	-10.5013
▁scenario	-10.5013
▁degree	-10.5013
▁forgive	-10.5014
▁Australian	-10.503
▁lesbian	-10.5114
▁nonsense	-10.5114
▁driving	-10.5114
▁praise	-10.5114
,000	-10.5114
▁kidnap	-10.5115
▁unknown	-10.5118
▁exploitation	-10.512
Why	-10.5126
▁predict	-10.5209
▁England	-10.5216
▁village	-10.5216
▁rival	-10.5216
▁gift	-10.5216
▁robot	-10.5217
▁screw	-10.5217
▁Super	-10.522
▁Jackie	-10.5248
▁table	-10.5251
▁rain	-10.5255
▁annoy	-10.5258
jack	-10.5259
connect	-10.5318
▁gratuitous	-10.5319
▁revolution	-10.5319
▁vague	-10.5319
▁Trek	-10.5319
▁convict	-10.5319
However	-10.532
plot	-10.532
▁summer	-10.5323
▁Luke	-10.5329
▁traditional	-10.5349
ography	-10.5423
▁distribut	-10.5423
▁generation	-10.5423
▁motivation	-10.5423
▁condition	-10.5423
▁determine	-10.5423
▁lousy	-10.5423
spiring	-10.5423
▁peace	-10.5426
▁Space	-10.5428
▁stalk	-10.5433
▁Kong	-10.5437
board	-10.5447
ji	-10.5455
ENT	-10.546
hearted	-10.5486
▁grip	-10.5487
ipped	-10.5527
▁civil	-10.5528
▁manipulat	-10.5528
▁religion	-10.5528
▁accomplish	-10.5528
▁environment	-10.5528
▁substance	-10.5528
▁sympathetic	-10.5528
Halloween	-10.5528
▁parody	-10.5528
▁Jesus	-10.5529
▁Western	-10.553
▁print	-10.5531
▁section	-10.5534
▁cheer	-10.5534
▁Victoria	-10.5543
▁spoke	-10.5547
▁cell	-10.5568
▁exploit	-10.5629
necessarily	-10.5635
▁Vietnam	-10.5635
▁frightening	-10.5635
▁practically	-10.5635
▁advance	-10.5635
▁ladies	-10.5635
▁corny	-10.5635
Watch	-10.5636
▁Nazi	-10.5639
▁Jackson	-10.5648
▁alter	-10.5648
▁tree	-10.5665
▁faith	-10.5692
▁Victor	-10.5727
▁surf	-10.5741
▁excitement	-10.5742
▁irritating	-10.5742
▁surreal	-10.5742
▁narration	-10.5742
▁promising	-10.5742
▁unfold	-10.5742
▁Hitler	-10.5742
▁colour	-10.5742
▁comfort	-10.5742
▁incident	-10.5743
▁Moore	-10.5743
▁Jason	-10.5758
▁born	-10.576
▁insane	-10.5761
▁equal	-10.5811
▁ancient	-10.5851
▁combination	-10.5851
▁empty	-10.5851
▁crappy	-10.5851
▁satire	-10.5851
▁wander	-10.5851
class	-10.5855
▁stopped	-10.5857
▁grew	-10.5866
▁trial	-10.5866
ville	-10.5933
▁amateur	-10.5958
▁THIS	-10.5961
▁alcohol	-10.5961
▁frequent	-10.5961
▁gruesome	-10.5961
▁private	-10.5961
▁service	-10.5961
▁patient	-10.5961
▁demonstrat	-10.5961
▁tedious	-10.5961
▁comedian	-10.5961
▁kiss	-10.5963
▁Pitt	-10.5965
▁Powell	-10.5965
Also	-10.5966
▁wrap	-10.5966
Just	-10.5967
▁witty	-10.5967
▁addict	-10.5968
▁device	-10.5968
▁threaten	-10.5971
▁slap	-10.5985
▁Howard	-10.5997
▁grab	-10.6011
q	-10.6013
▁semi	-10.6021
▁danger	-10.6069
▁reputation	-10.6072
▁blonde	-10.6072
▁relief	-10.6072
▁depressing	-10.6072
▁guard	-10.6072
▁emerge	-10.6075
▁existence	-10.6078
Every	-10.6079
▁underrated	-10.6081
▁winner	-10.6082
weight	-10.6118
▁EVER	-10.6184
▁contrived	-10.6184
▁executed	-10.6184
▁lawyer	-10.6185
▁primar	-10.6185
▁France	-10.6187
▁Plus	-10.6187
graph	-10.6192
▁Year	-10.6194
▁specific	-10.62
▁technology	-10.6298
▁unintentional	-10.6298
▁built	-10.6298
▁veteran	-10.6298
▁Gordon	-10.6298
▁Pacino	-10.6298
▁Spanish	-10.6298
▁offensive	-10.6298
ological	-10.6298
▁edited	-10.6298
▁surface	-10.6299
▁slave	-10.63
burg	-10.6304
while	-10.6304
▁handsome	-10.6305
▁saving	-10.6307
▁merit	-10.631
▁occasion	-10.6342
▁Anthony	-10.6413
▁Sinatra	-10.6413
▁Thomas	-10.6413
▁erotic	-10.6413
▁cruel	-10.6413
▁loyal	-10.6413
▁false	-10.6413
▁feet	-10.6414
▁inform	-10.6415
▁Santa	-10.6415
▁anime	-10.6416
▁screenwriter	-10.6417
▁Academy	-10.6529
▁Philip	-10.6529
▁atrocious	-10.6529
▁families	-10.6529
▁distinct	-10.6529
▁identity	-10.6529
umbling	-10.6529
▁Ryan	-10.653
▁massive	-10.6537
▁marry	-10.6554
▁photo	-10.6646
▁Hitchcock	-10.6647
▁continuity	-10.6647
▁excited	-10.6647
▁execution	-10.6647
▁struggling	-10.6647
▁Barbara	-10.6647
▁capital	-10.6647
▁separate	-10.6647
Meanwhile	-10.6647
▁nightmare	-10.6647
▁balance	-10.6647
▁gonna	-10.6647
▁maintain	-10.6647
girl	-10.6647
▁subplot	-10.6648
▁task	-10.6648
▁sharp	-10.6649
▁YOU	-10.665
▁multi	-10.6764
▁neighbor	-10.6765
▁dinosaur	-10.6766
▁Rochester	-10.6766
▁department	-10.6766
▁switch	-10.6766
▁yeah	-10.6766
▁crush	-10.6766
▁prevent	-10.6766
▁accus	-10.6766
▁Anderson	-10.6766
▁neat	-10.6768
▁accidentally	-10.6771
80	-10.6823
▁Lugosi	-10.6886
▁Hoffman	-10.6886
▁confess	-10.6886
▁guest	-10.6887
▁native	-10.6887
▁nine	-10.6892
ggy	-10.6892
Chris	-10.6902
ounce	-10.6948
Wow	-10.6976
▁Murphy	-10.7008
▁Canadian	-10.7008
▁jealous	-10.7008
▁Friday	-10.7008
▁THAT	-10.7008
▁Sadly	-10.7011
▁twin	-10.7012
Three	-10.7037
▁Kris	-10.7046
▁Broadway	-10.7132
▁mainstream	-10.7132
▁swear	-10.7132
itizen	-10.7132
▁MST	-10.7132
▁border	-10.7132
▁zero	-10.7132
▁honor	-10.7132
▁Killer	-10.7133
▁multiple	-10.7133
▁Kevin	-10.7134
ographic	-10.7136
▁criticism	-10.714
called	-10.7157
▁hip	-10.7212
▁Festival	-10.7257
▁authentic	-10.7257
▁category	-10.7257
▁corpse	-10.7257
▁corrupt	-10.7257
▁dynamic	-10.7257
▁glimpse	-10.7257
▁intellectual	-10.7257
▁Cinema	-10.7257
▁Besides	-10.7257
▁instant	-10.7257
▁solve	-10.7259
▁freedom	-10.7259
▁defeat	-10.7259
▁Irish	-10.7261
▁resist	-10.7266
▁Emma	-10.7274
▁Earl	-10.7275
written	-10.7277
▁faithful	-10.7315
▁unfortunate	-10.7344
▁Europe	-10.7372
▁baseball	-10.7383
▁interpretation	-10.7383
▁ludicrous	-10.7383
▁supernatural	-10.7384
▁kung	-10.7388
lord	-10.745
▁ultimate	-10.7472
title	-10.7481
▁ensemble	-10.7511
▁frankly	-10.7511
▁inspiration	-10.7511
▁obnoxious	-10.7511
▁tremendous	-10.7511
▁Seagal	-10.7511
▁chief	-10.7511
▁dirty	-10.7512
▁proud	-10.7512
▁Blue	-10.7513
▁invite	-10.7513
▁Susan	-10.7514
▁worthwhile	-10.7515
▁select	-10.7516
▁Wild	-10.7522
▁finger	-10.7527
including	-10.7535
Paul	-10.7538
Definitely	-10.7641
▁franchise	-10.7641
▁haunted	-10.7641
▁refreshing	-10.7641
▁understood	-10.7641
▁uninteresting	-10.7641
▁Sunday	-10.7641
▁destin	-10.7642
▁forgettable	-10.7642
▁Power	-10.7642
▁breast	-10.7643
▁severe	-10.7654
versa	-10.7704
▁Actually	-10.7773
▁according	-10.7773
▁breathtaking	-10.7773
▁Especially	-10.7773
▁haunting	-10.7773
▁racist	-10.7773
▁robber	-10.7773
▁cheese	-10.7773
▁About	-10.7773
▁strike	-10.7773
▁arrest	-10.7774
▁dump	-10.7774
▁risk	-10.7775
▁tele	-10.7777
▁shape	-10.7781
loud	-10.7808
▁creep	-10.7866
▁Saturday	-10.7906
▁contemporary	-10.7906
▁horribly	-10.7906
▁sensitive	-10.7906
▁sympathy	-10.7906
▁variety	-10.7906
▁stomach	-10.7906
Titanic	-10.7906
▁dubbed	-10.7906
▁method	-10.7906
▁funnier	-10.7906
▁lonely	-10.7906
▁chair	-10.7907
▁prime	-10.791
▁ironic	-10.7913
scope	-10.7935
Like	-10.7936
Good	-10.7936
stitution	-10.7944
▁Africa	-10.8016
▁California	-10.8041
▁Captain	-10.8041
▁obsessed	-10.8041
▁trilogy	-10.8041
▁vivid	-10.8041
▁Evil	-10.8041
▁afternoon	-10.8041
▁stolen	-10.8041
▁status	-10.8042
▁tiny	-10.8042
▁contact	-10.8042
▁extent	-10.8043
▁Point	-10.8044
▁expose	-10.813
Cinderella	-10.8178
▁Apparently	-10.8178
▁description	-10.8178
▁explosion	-10.8178
▁unconvincing	-10.8178
▁gritty	-10.8178
▁trapped	-10.8178
▁Texas	-10.8178
▁error	-10.8178
▁Sarah	-10.8178
▁address	-10.8178
▁glass	-10.8181
Planet	-10.8181
Arthur	-10.8211
▁fabulous	-10.8317
▁horrendous	-10.8317
▁network	-10.8317
▁overwhelm	-10.8317
▁pregnant	-10.8317
▁sacrifice	-10.8317
▁stereotypical	-10.8317
▁1990	-10.8317
▁Columbo	-10.8317
▁Joseph	-10.8317
▁homosexual	-10.8317
▁beloved	-10.8317
▁teeth	-10.8317
▁dubbing	-10.8317
▁creator	-10.8317
▁countries	-10.8317
▁Brothers	-10.8318
▁neck	-10.8318
▁improv	-10.8328
▁cancel	-10.8366
▁quest	-10.845
▁Patrick	-10.8458
▁argument	-10.8458
▁landscape	-10.8458
▁obsession	-10.8458
▁werewolf	-10.8458
▁asleep	-10.8458
▁summary	-10.8458
▁relation	-10.8458
▁welcome	-10.8458
▁nominated	-10.8458
▁subtitles	-10.8458
▁Nelson	-10.8458
▁Bourne	-10.8458
▁spark	-10.8458
▁ANY	-10.8458
▁sheriff	-10.8458
▁Again	-10.8458
▁Dream	-10.8458
▁Donald	-10.8459
▁river	-10.846
▁storm	-10.846
▁Count	-10.8461
Character	-10.8463
▁chopp	-10.8465
▁awake	-10.8473
world	-10.8495
▁introduce	-10.8548
▁tradition	-10.8559
▁sudden	-10.8561
Obviously	-10.8601
▁MOVIE	-10.8601
▁associate	-10.8601
▁complicated	-10.8601
▁extraordinary	-10.8601
▁poignant	-10.8601
▁treasure	-10.8601
▁Carpenter	-10.8601
▁advise	-10.8601
▁interaction	-10.8601
▁widow	-10.8601
▁Picture	-10.8601
▁Tracy	-10.8601
▁President	-10.8601
▁changing	-10.8601
▁transfer	-10.8601
▁guide	-10.8601
▁heavily	-10.8601
▁remove	-10.8601
ivity	-10.8602
▁Water	-10.8604
David	-10.864
▁origin	-10.8683
▁advantage	-10.8746
▁buddy	-10.8746
▁disbelief	-10.8746
▁international	-10.8746
▁appalling	-10.8746
▁outrageous	-10.8746
▁storytelling	-10.8746
▁deliberate	-10.8746
▁Channel	-10.8746
▁damage	-10.8746
▁Cooper	-10.8746
▁reject	-10.8746
▁motive	-10.8747
▁queen	-10.8747
▁Hawk	-10.8755
▁lust	-10.876
▁disturb	-10.8832
▁Eastwood	-10.8893
▁VERY	-10.8893
▁benefit	-10.8893
▁divorce	-10.8893
▁education	-10.8893
▁inhabit	-10.8893
▁surrounding	-10.8893
▁terrifying	-10.8893
▁assassin	-10.8893
▁throat	-10.8893
▁competent	-10.8893
▁facial	-10.8893
▁Wonder	-10.8893
▁worry	-10.8893
▁BBC	-10.8893
provoking	-10.8893
▁Foster	-10.8893
▁strict	-10.8893
▁creation	-10.8893
▁retire	-10.8896
original	-10.8936
power	-10.8939
▁oppos	-10.8939
count	-10.894
▁Australia	-10.9017
Sullivan	-10.9042
▁Branagh	-10.9042
▁blockbuster	-10.9042
▁confusion	-10.9042
▁football	-10.9042
▁hysterical	-10.9042
▁incoherent	-10.9042
▁plastic	-10.9042
▁intensity	-10.9042
▁unbearabl	-10.9042
▁Nancy	-10.9042
▁trauma	-10.9042
▁gentle	-10.9042
▁neighborhood	-10.9042
▁Otherwise	-10.9043
▁angel	-10.9046
▁lyric	-10.9046
▁sale	-10.9056
▁Music	-10.9067
Unfortunately	-10.9088
Michael	-10.9088
ification	-10.9172
▁guarantee	-10.9194
▁nuclear	-10.9194
▁ticket	-10.9194
▁plague	-10.9194
Spoiler	-10.9194
▁virus	-10.9194
▁goofy	-10.9194
▁measure	-10.9194
▁irony	-10.9194
▁Sometimes	-10.9194
▁bodies	-10.9194
▁contest	-10.9195
▁adopt	-10.9195
▁shift	-10.9196
▁vast	-10.9199
WAY	-10.9199
▁thumb	-10.9232
▁Devil	-10.9234
▁judg	-10.9237
▁cloth	-10.9332
SPOILER	-10.9336
▁Vampire	-10.9347
▁installment	-10.9347
▁mirror	-10.9347
▁politics	-10.9347
▁purchase	-10.9347
▁triumph	-10.9347
▁official	-10.9348
Seriously	-10.9348
neath	-10.9349
flic	-10.9349
▁betray	-10.935
▁float	-10.9356
▁Luci	-10.9378
known	-10.9392
▁appreciat	-10.9394
Director	-10.9398
something	-10.9398
▁urge	-10.9476
▁Matrix	-10.9504
▁metaphor	-10.9504
▁slapstick	-10.9504
▁uncomfortable	-10.9504
▁Holmes	-10.9504
▁Yeah	-10.9504
▁Leonard	-10.9504
▁evident	-10.9504
▁Police	-10.9504
▁convent	-10.9504
▁borrow	-10.9504
▁enemy	-10.9504
▁Blair	-10.9504
▁climb	-10.9504
▁Something	-10.9504
▁Winter	-10.9504
▁FBI	-10.9504
▁prior	-10.9504
▁promote	-10.9507
▁Lincoln	-10.9662
▁quirky	-10.9662
▁disagree	-10.9662
▁Dragon	-10.9662
▁Stanley	-10.9662
▁profound	-10.9662
▁Oliver	-10.9663
▁investigate	-10.9663
▁striking	-10.9663
▁2006	-10.9663
▁Brando	-10.9663
▁lazy	-10.9663
phrase	-10.9663
▁endearing	-10.9663
▁connected	-10.9663
▁corner	-10.9664
▁steam	-10.9664
Maybe	-10.9718
▁Universal	-10.9824
▁exercise	-10.9824
▁subsequent	-10.9824
▁Matthau	-10.9824
▁anticipat	-10.9824
conceived	-10.9824
▁Russell	-10.9824
▁access	-10.9824
▁Rachel	-10.9824
▁generate	-10.9824
▁scheme	-10.9824
▁Vega	-10.9824
▁concert	-10.9824
▁cousin	-10.9824
▁overcome	-10.9825
▁showcase	-10.9825
▁outcome	-10.9826
▁medical	-10.9829
Castle	-10.9829
Lost	-10.9876
▁Bakshi	-10.9988
▁Heaven	-10.9988
▁consequence	-10.9988
▁digital	-10.9988
▁explicit	-10.9988
▁happiness	-10.9988
▁imaginative	-10.9988
▁knife	-10.9988
▁superficial	-10.9988
▁Dennis	-10.9988
▁flawless	-10.9988
▁courage	-10.9988
▁Wilson	-10.9988
▁Brooks	-10.9988
▁Claire	-10.9988
▁Lauren	-11.0024
ibility	-11.0154
▁Jessica	-11.0154
▁Mexican	-11.0154
▁Sutherland	-11.0154
▁detract	-11.0154
▁encourage	-11.0154
▁horrific	-11.0154
▁increasing	-11.0154
▁reminiscen	-11.0154
▁holiday	-11.0154
▁easier	-11.0154
▁Doctor	-11.0154
▁credible	-11.0154
▁cultural	-11.0154
▁relax	-11.0155
▁shark	-11.0155
▁president	-11.0155
▁eerie	-11.0155
▁resort	-11.0155
▁India	-11.0181
piece	-11.0218
▁Phillip	-11.0324
▁introduction	-11.0324
▁nowadays	-11.0324
▁slaughter	-11.0324
▁Arnold	-11.0324
▁MGM	-11.0324
▁destruction	-11.0324
▁Cusack	-11.0324
▁Franco	-11.0324
▁hiding	-11.0325
▁extend	-11.0325
▁Leslie	-11.0325
Where	-11.0391
when	-11.0391
▁redeem	-11.0435
▁LOVE	-11.0496
▁executive	-11.0496
▁magazine	-11.0496
▁revelation	-11.0496
▁universe	-11.0496
▁Scooby	-11.0496
▁sketch	-11.0496
▁website	-11.0496
▁Jewish	-11.0496
▁disguise	-11.0496
▁Vincent	-11.0496
▁lovable	-11.0496
Scream	-11.0496
▁urban	-11.0496
▁Britain	-11.0496
▁fortune	-11.0496
▁timing	-11.0496
▁burst	-11.0497
▁Emily	-11.0497
▁True	-11.0497
▁Actor	-11.0497
▁mechanic	-11.0498
Natural	-11.05
▁WWII	-11.0672
▁resolution	-11.0672
▁virgin	-11.0672
IGHT	-11.0672
▁artificial	-11.0672
▁contract	-11.0672
▁turkey	-11.0672
▁Kapoor	-11.0672
▁album	-11.0672
▁resolve	-11.0672
▁casual	-11.0672
▁enhance	-11.0672
▁engine	-11.0672
▁announce	-11.0672
▁homage	-11.0672
▁Ralph	-11.0672
direct	-11.0733
sexual	-11.0746
woman	-11.0746
▁document	-11.0848
▁Korean	-11.085
▁Simpson	-11.085
▁Streep	-11.085
▁brilliance	-11.085
▁dignity	-11.085
▁league	-11.085
▁ourselves	-11.085
▁propaganda	-11.085
▁response	-11.085
▁security	-11.085
▁sinister	-11.085
▁uniform	-11.085
▁1940	-11.085
▁Gabriel	-11.085
▁alternate	-11.085
▁Kennedy	-11.085
▁Miike	-11.085
▁transition	-11.085
▁School	-11.085
▁stylish	-11.085
▁Hudson	-11.085
▁Friend	-11.085
▁smoke	-11.0851
▁minimal	-11.0851
▁aforementioned	-11.1032
▁controversial	-11.1032
▁happily	-11.1032
▁identify	-11.1032
▁innocence	-11.1032
▁restaurant	-11.1032
▁sleazy	-11.1032
▁surrounded	-11.1032
▁elderly	-11.1032
▁montage	-11.1032
▁racism	-11.1032
▁editor	-11.1032
▁nomination	-11.1032
▁Legend	-11.1032
▁Brenda	-11.1032
▁eager	-11.1032
▁Derek	-11.1033
▁drift	-11.1034
Basic	-11.1059
▁disappoint	-11.1087
Perhaps	-11.1111
Absolute	-11.1217
▁Virgin	-11.1217
▁principal	-11.1217
▁collaborat	-11.1217
▁custom	-11.1217
▁Jeremy	-11.1217
▁credibility	-11.1217
▁obscure	-11.1217
▁assistant	-11.1217
▁Cameron	-11.1217
▁sneak	-11.1217
▁companion	-11.1217
▁function	-11.1217
▁liberal	-11.1217
▁chuckle	-11.1218
▁Lloyd	-11.1406
▁Spielberg	-11.1406
▁psychiatrist	-11.1406
▁Reynolds	-11.1406
▁adequate	-11.1406
▁competition	-11.1406
▁contribute	-11.1406
▁retarded	-11.1406
▁documentaries	-11.1406
▁Flynn	-11.1406
▁blatant	-11.1406
▁bridge	-11.1406
▁Sidney	-11.1406
▁recover	-11.1406
▁warrior	-11.1406
▁Silver	-11.1406
IVE	-11.1501
▁threat	-11.158
▁favour	-11.1596
▁Mexico	-11.1598
▁Nicholson	-11.1598
▁celebrate	-11.1598
▁cowboy	-11.1598
▁enormous	-11.1598
▁exhibit	-11.1598
▁fifteen	-11.1598
▁suspend	-11.1598
▁worried	-11.1598
▁financial	-11.1598
▁infamous	-11.1598
▁philosophical	-11.1598
▁disease	-11.1598
▁horrid	-11.1598
▁jungle	-11.1598
▁miserably	-11.1598
▁Fonda	-11.1598
▁2001	-11.1598
▁arrange	-11.1599
▁dominate	-11.1605
AVE	-11.1617
Excellent	-11.1794
▁Carradine	-11.1794
▁Karloff	-11.1794
▁Mitchell	-11.1794
▁backdrop	-11.1794
▁eccentric	-11.1794
▁fulfill	-11.1794
▁newspaper	-11.1794
▁splendid	-11.1794
▁unforgettable	-11.1794
▁unpleasant	-11.1794
▁Curtis	-11.1794
▁Secret	-11.1794
▁illustrat	-11.1794
▁importance	-11.1794
▁kitchen	-11.1794
▁pursue	-11.1794
Brazil	-11.1794
▁Family	-11.1794
▁Ghost	-11.1794
▁Church	-11.1794
▁vicious	-11.1794
▁suburb	-11.1794
▁wreck	-11.1795
plication	-11.1795
Black	-11.1889
climactic	-11.1994
▁elaborate	-11.1994
▁enthusiast	-11.1994
▁explode	-11.1994
▁generous	-11.1994
▁inevitable	-11.1994
▁repetitive	-11.1994
▁servant	-11.1994
▁Madonna	-11.1994
▁square	-11.1994
*1/2	-11.1994
▁Bettie	-11.1994
▁Cagney	-11.1994
▁dinner	-11.1994
▁cabin	-11.1995
▁translate	-11.1997
▁Dominic	-11.2002
▁Dorothy	-11.2198
▁Egypt	-11.2198
▁Jonathan	-11.2198
▁Stanwyck	-11.2198
▁confirm	-11.2198
▁journalist	-11.2198
▁universal	-11.2198
▁Farrell	-11.2198
▁premiere	-11.2198
▁Dixon	-11.2198
destruct	-11.2199
▁struck	-11.2199
fetched	-11.2199
▁blank	-11.2199
▁dictat	-11.2199
▁Streisand	-11.2407
▁ambitious	-11.2407
▁atmospheric	-11.2407
▁celluloid	-11.2407
▁circle	-11.2407
▁conspiracy	-11.2407
▁convoluted	-11.2407
▁frustration	-11.2407
▁gimmick	-11.2407
▁ignorant	-11.2407
▁narrator	-11.2407
▁survivor	-11.2407
▁territory	-11.2407
▁uninspired	-11.2407
▁Probably	-11.2407
▁exchange	-11.2407
▁cardboard	-11.2407
▁cynical	-11.2407
▁glorious	-11.2407
▁thirty	-11.2407
▁vacation	-11.2407
▁Austen	-11.2407
▁Sellers	-11.2407
▁rifle	-11.2407
▁piano	-11.2407
Speak	-11.2416
natural	-11.2513
Richard	-11.2514
horror	-11.2514
▁cannibal	-11.262
▁emphasis	-11.262
▁exaggerated	-11.262
▁expensive	-11.262
▁innovative	-11.262
▁juvenile	-11.262
>	-11.6201
