<pad>	0
<s>	0
</s>	0
<unk>	0
<mask>	0
s	-3.04777
▁the	-3.38886
,	-3.56596
.	-3.57099
▁a	-4.08538
▁to	-4.17074
▁	-4.22859
▁and	-4.2745
▁of	-4.30523
▁in	-4.4868
:	-4.59448
ing	-4.74819
ed	-4.77843
▁is	-4.78425
'	-4.90262
d	-4.92152
t	-4.97499
▁that	-5.25896
-	-5.27479
y	-5.35096
▁for	-5.35524
▁The	-5.39767
▁"	-5.43369
n	-5.43644
▁on	-5.50563
e	-5.53465
▁with	-5.55286
er	-5.55302
▁was	-5.56228
▁it	-5.62143
▁-	-5.65891
ly	-5.67058
▁I	-5.69107
▁A	-5.71404
?	-5.72234
▁(	-5.75185
a	-5.79382
▁be	-5.82424
▁this	-5.86903
m	-5.87628
r	-5.89672
▁his	-5.90233
▁are	-5.90839
▁by	-5.91871
▁from	-5.93326
▁he	-5.94031
al	-5.9503
▁as	-5.96936
▁an	-6.03713
p	-6.05234
▁answer	-6.05485
▁you	-6.05558
re	-6.06064
)	-6.1014
b	-6.12672
▁question	-6.13199
▁or	-6.13473
▁at	-6.14076
▁not	-6.14115
o	-6.15103
or	-6.15782
l	-6.16588
es	-6.17828
in	-6.21973
▁have	-6.26516
"	-6.29868
g	-6.30609
i	-6.32141
c	-6.33939
▁her	-6.35861
le	-6.38213
th	-6.40524
ri	-6.43554
▁can	-6.45003
an	-6.45881
▁has	-6.4789
▁C	-6.51363
▁In	-6.51373
A	-6.5262
▁following	-6.53774
u	-6.53932
▁but	-6.54199
▁their	-6.54283
▁re	-6.54707
on	-6.548
▁about	-6.55136
▁who	-6.57237
en	-6.59535
▁B	-6.60611
▁sentence	-6.62186
▁they	-6.62274
il	-6.63895
ar	-6.64087
w	-6.65345
▁de	-6.68578
▁S	-6.6925
it	-6.69303
S	-6.69461
li	-6.69548
▁will	-6.70107
ur	-6.71107
st	-6.73655
▁which	-6.7397
ic	-6.75043
▁had	-6.75828
▁one	-6.76559
▁we	-6.77553
ter	-6.77619
ation	-6.77647
."	-6.78253
▁'	-6.78438
▁she	-6.795
▁19	-6.79592
ra	-6.80191
▁no	-6.80732
ll	-6.81222
;	-6.81609
▁out	-6.82178
h	-6.83085
ce	-6.84704
I	-6.84873
▁He	-6.84886
▁said	-6.854
▁so	-6.85733
▁were	-6.86408
▁up	-6.87033
f	-6.87395
▁more	-6.88408
▁your	-6.89072
ion	-6.89246
ne	-6.89526
la	-6.90429
’	-6.93062
▁me	-6.94555
▁into	-6.94656
el	-6.95465
▁Answer	-6.9556
▁would	-6.95967
▁all	-6.96113
k	-6.97101
at	-6.9852
).	-6.98963
▁other	-6.99503
▁time	-6.99633
C	-7.00175
▁him	-7.01279
▁first	-7.01315
▁What	-7.02646
▁E	-7.03592
▁It	-7.03645
ro	-7.04033
▁when	-7.05285
te	-7.05519
z	-7.05778
ve	-7.06468
▁do	-7.06962
ment	-7.07143
▁two	-7.07676
▁F	-7.07727
▁also	-7.10285
▁what	-7.10468
▁people	-7.12081
▁been	-7.12444
▁un	-7.12998
us	-7.13738
ist	-7.13879
lo	-7.14418
▁c	-7.14456
ate	-7.14745
ers	-7.14764
ive	-7.15282
▁after	-7.16001
x	-7.16172
ent	-7.17145
se	-7.17204
ul	-7.18312
et	-7.19006
ry	-7.20121
ia	-7.20156
ch	-7.20652
2	-7.21101
id	-7.2168
▁some	-7.22485
▁over	-7.22636
▁like	-7.22666
▁T	-7.22768
ir	-7.23383
▁if	-7.23508
▁new	-7.23711
ck	-7.24317
de	-7.2562
▁given	-7.25744
B	-7.26226
/	-7.26935
▁This	-7.27483
ity	-7.28325
is	-7.29189
▁them	-7.30012
▁D	-7.30594
able	-7.30666
P	-7.31862
▁st	-7.31884
▁b	-7.31954
▁G	-7.32017
M	-7.3401
▁P	-7.34092
▁my	-7.34126
D	-7.3455
▁Question	-7.36045
E	-7.36303
▁than	-7.36921
▁there	-7.36965
▁work	-7.37848
est	-7.38182
O	-7.38539
ma	-7.40117
to	-7.40563
T	-7.41607
▁W	-7.4188
1	-7.4235
ta	-7.43705
▁get	-7.45126
▁p	-7.45188
▁O	-7.45331
ie	-7.4557
am	-7.46513
▁co	-7.46603
me	-7.46716
ian	-7.46984
v	-7.47932
man	-7.48001
▁most	-7.48061
▁where	-7.49376
ine	-7.49563
▁just	-7.50506
ol	-7.50607
um	-7.50707
un	-7.50824
▁U	-7.50873
ke	-7.51119
pe	-7.51464
ti	-7.51552
▁man	-7.5161
age	-7.52347
▁article	-7.53456
▁help	-7.53708
),	-7.53947
ad	-7.54059
▁e	-7.5495
R	-7.55778
▁make	-7.56175
▁its	-7.56274
▁could	-7.56303
▁Re	-7.57287
▁.	-7.57783
▁mo	-7.57839
▁only	-7.57933
sh	-7.58004
▁see	-7.58025
▁back	-7.58034
▁M	-7.58551
▁con	-7.59142
L	-7.59523
▁If	-7.60059
▁You	-7.60222
ies	-7.60325
The	-7.60793
▁To	-7.61604
ru	-7.62074
co	-7.6246
▁sp	-7.62936
▁how	-7.63077
na	-7.63086
▁La	-7.63167
ha	-7.63633
▁years	-7.63699
▁2	-7.63883
▁because	-7.63911
▁review	-7.63937
▁Ma	-7.63982
▁part	-7.64108
▁K	-7.6421
▁1	-7.64248
ut	-7.64412
▁may	-7.64776
op	-7.65177
N	-7.65269
▁find	-7.65528
ver	-7.65543
vi	-7.65656
as	-7.65932
▁ex	-7.66786
▁any	-7.66857
▁“	-7.67283
ho	-7.67517
▁show	-7.67557
▁movie	-7.67635
▁,	-7.67863
▁De	-7.68033
▁She	-7.68035
▁place	-7.68109
▁use	-7.68157
▁these	-7.68566
▁N	-7.68785
▁being	-7.68851
,"	-7.69008
▁should	-7.69119
▁while	-7.69233
ge	-7.69259
▁information	-7.69275
and	-7.69571
▁film	-7.70173
im	-7.70243
ton	-7.70477
▁task	-7.70944
▁did	-7.71176
tor	-7.71633
be	-7.71805
ated	-7.71885
▁does	-7.72008
▁down	-7.72777
▁many	-7.72781
nd	-7.7354
!	-7.73626
▁before	-7.73921
▁home	-7.74644
mi	-7.74744
▁end	-7.75133
▁name	-7.7518
ng	-7.7554
]	-7.76164
ff	-7.76288
son	-7.76593
mp	-7.76799
▁go	-7.77125
▁They	-7.77264
▁day	-7.7734
▁Given	-7.77422
▁need	-7.77744
mo	-7.77832
no	-7.77992
▁think	-7.78756
▁know	-7.78846
...	-7.78939
▁way	-7.78972
▁very	-7.79109
ni	-7.80185
▁same	-7.8052
▁So	-7.80709
▁V	-7.81024
▁through	-7.81115
▁ra	-7.81837
ci	-7.81841
▁=	-7.81857
▁g	-7.81981
▁dis	-7.82641
ant	-7.82701
ary	-7.82703
▁Q	-7.83157
▁such	-7.83163
▁po	-7.83173
▁want	-7.83184
▁pro	-7.83337
▁Li	-7.83384
ty	-7.8402
▁3	-7.84079
▁English	-7.84126
ec	-7.846
▁then	-7.84795
▁between	-7.84905
▁f	-7.85054
F	-7.85135
▁New	-7.85274
po	-7.85455
ted	-7.85577
▁Ro	-7.85754
ence	-7.85791
▁car	-7.8596
▁la	-7.86048
▁water	-7.8677
▁year	-7.86983
▁life	-7.87024
▁We	-7.87153
▁good	-7.87512
▁5	-7.87991
tic	-7.8816
".	-7.88181
▁off	-7.88838
▁w	-7.8892
▁found	-7.89414
▁Step	-7.90035
▁number	-7.90774
▁made	-7.90775
min	-7.91256
ca	-7.91511
9	-7.91537
▁tell	-7.91882
▁last	-7.91998
ber	-7.92073
▁Please	-7.92108
▁well	-7.92844
▁[	-7.93113
ven	-7.93286
▁even	-7.93706
▁say	-7.93857
▁group	-7.93983
▁possible	-7.94086
▁Ba	-7.94214
▁But	-7.94429
he	-7.94947
▁during	-7.94976
▁step	-7.95026
ance	-7.9507
▁under	-7.95336
▁text	-7.95817
▁school	-7.95829
▁en	-7.95891
▁both	-7.95902
▁Lo	-7.96057
up	-7.96367
▁Be	-7.9642
ill	-7.96528
▁For	-7.96873
▁Le	-7.96903
the	-7.97354
H	-7.97457
ting	-7.97459
▁Me	-7.98024
3	-7.98546
om	-7.98783
▁R	-7.98788
▁form	-7.99088
▁No	-7.99214
▁take	-7.9979
▁used	-8.00807
▁our	-8.00908
red	-8.00955
▁each	-8.00979
▁best	-8.01284
▁person	-8.01755
▁three	-8.02329
▁H	-8.02537
▁long	-8.02731
G	-8.02776
▁How	-8.02878
▁When	-8.02929
ph	-8.03014
▁d	-8.03106
▁L	-8.03354
▁Ca	-8.03491
ot	-8.03533
▁And	-8.03552
▁right	-8.04209
▁Options	-8.04331
▁next	-8.04493
▁food	-8.04556
di	-8.0475
▁second	-8.04906
▁An	-8.0501
▁much	-8.05057
gu	-8.05217
▁pre	-8.05481
6	-8.05514
va	-8.05548
ating	-8.05827
ish	-8.05898
▁high	-8.05921
ous	-8.06017
▁family	-8.06097
0	-8.06131
▁Ra	-8.06135
tion	-8.06264
ful	-8.06487
▁se	-8.06595
▁now	-8.06624
W	-8.06969
▁Mo	-8.07093
▁ro	-8.07175
▁Al	-8.07637
▁As	-8.07802
▁don	-8.07909
dy	-8.07954
▁St	-8.0842
em	-8.08464
▁ma	-8.08612
▁around	-8.08672
ow	-8.09074
▁Pa	-8.0946
do	-8.09536
ee	-8.0993
▁bu	-8.10248
4	-8.10252
▁world	-8.10299
U	-8.10414
▁American	-8.10655
ag	-8.10676
▁Bo	-8.10765
ba	-8.11104
ster	-8.11336
▁context	-8.11495
▁After	-8.11757
▁18	-8.11856
ward	-8.11931
mon	-8.12325
▁sa	-8.12427
▁yes	-8.12497
▁i	-8.12875
▁process	-8.12892
old	-8.12941
wa	-8.12945
▁di	-8.13187
by	-8.13526
▁fact	-8.13572
ring	-8.13699
one	-8.13755
▁story	-8.13755
bo	-8.1393
▁Write	-8.14154
▁house	-8.14255
▁4	-8.14268
▁ho	-8.14348
ger	-8.15027
ner	-8.15048
ا	-8.15161
hi	-8.15341
▁game	-8.15454
▁look	-8.15794
_	-8.15867
▁bo	-8.16487
▁plot	-8.16833
▁hand	-8.16961
▁change	-8.1697
▁positive	-8.17105
▁Do	-8.17266
▁play	-8.17285
ical	-8.17288
der	-8.17307
▁language	-8.17347
ight	-8.18198
pp	-8.18465
▁title	-8.18634
▁Mar	-8.1882
▁lo	-8.18874
▁comp	-8.18921
▁Ar	-8.18932
per	-8.18951
▁li	-8.19333
▁called	-8.19969
ak	-8.20019
go	-8.20143
▁app	-8.20544
▁correct	-8.20553
▁Po	-8.20727
▁k	-8.20766
é	-8.20816
nk	-8.20899
▁love	-8.21065
▁book	-8.21142
▁small	-8.21151
ab	-8.21604
ell	-8.22147
▁Di	-8.22159
ling	-8.2223
▁area	-8.22388
▁based	-8.23114
ally	-8.23138
▁head	-8.23216
ig	-8.23347
all	-8.23515
▁own	-8.23901
▁hypothesis	-8.23959
▁10	-8.2407
▁different	-8.24461
▁come	-8.24861
ok	-8.24979
j	-8.2504
land	-8.25155
▁ca	-8.25238
▁less	-8.25252
▁become	-8.25336
▁true	-8.2549
▁Co	-8.25515
▁above	-8.25702
▁negative	-8.25788
lic	-8.25937
▁young	-8.26021
nt	-8.26166
ard	-8.26224
▁team	-8.26243
tro	-8.26556
▁ch	-8.26778
▁later	-8.26834
▁problem	-8.26963
▁Con	-8.27081
▁city	-8.27266
",	-8.27317
▁United	-8.27526
▁album	-8.27848
▁ta	-8.28022
ture	-8.28169
▁record	-8.28335
▁pass	-8.28356
ten	-8.28509
▁still	-8.28664
▁friend	-8.28727
▁--	-8.28803
▁John	-8.28814
▁case	-8.29103
▁us	-8.29275
we	-8.29423
▁another	-8.29459
▁week	-8.29624
ach	-8.29632
%	-8.29677
▁Car	-8.29684
▁those	-8.29716
▁Ho	-8.29746
und	-8.29784
br	-8.29836
com	-8.30016
▁ba	-8.30554
iv	-8.30816
00	-8.30841
▁Ha	-8.3087
fi	-8.30995
▁list	-8.31136
less	-8.3119
▁product	-8.3123
▁Se	-8.31742
▁state	-8.31793
▁Ja	-8.31825
▁open	-8.31945
▁On	-8.32218
▁few	-8.32374
▁give	-8.32621
▁night	-8.32645
ip	-8.32734
▁against	-8.32738
▁Mr	-8.32943
5	-8.33033
е	-8.33155
▁provide	-8.33319
▁country	-8.33335
▁job	-8.33337
▁might	-8.33539
cu	-8.33664
lar	-8.3392
▁words	-8.34163
▁result	-8.34182
▁am	-8.34246
od	-8.34847
▁children	-8.34951
con	-8.35018
▁short	-8.35226
ise	-8.35405
▁6	-8.35692
▁At	-8.36008
▁going	-8.36098
io	-8.36212
▁start	-8.36426
wi	-8.36443
▁order	-8.36625
▁hi	-8.36663
▁premise	-8.36974
▁Y	-8.36994
ness	-8.37247
▁support	-8.37427
▁known	-8.37497
▁Da	-8.37666
▁since	-8.37685
ga	-8.37697
▁set	-8.37708
▁left	-8.37762
▁Sentence	-8.37862
▁live	-8.37982
▁great	-8.37991
▁told	-8.38078
ship	-8.38177
den	-8.38186
ions	-8.38646
ick	-8.3888
V	-8.38936
ron	-8.39158
os	-8.39161
▁including	-8.39392
▁Ch	-8.39555
ake	-8.4001
▁old	-8.40497
▁every	-8.40759
▁su	-8.40764
▁too	-8.40804
ub	-8.40857
our	-8.40969
▁20	-8.41001
?"	-8.4155
ud	-8.41734
ka	-8.41951
▁using	-8.42016
▁music	-8.42266
ley	-8.42351
ism	-8.4246
les	-8.42478
▁run	-8.42846
act	-8.43085
line	-8.43086
▁father	-8.43192
fe	-8.4324
▁statement	-8.43284
▁must	-8.43953
▁ha	-8.44122
way	-8.44192
lu	-8.44399
▁There	-8.44511
▁vi	-8.44792
7	-8.44848
rr	-8.44925
ative	-8.44935
ric	-8.45232
ction	-8.45238
▁Translate	-8.45292
par	-8.45366
▁system	-8.45399
▁got	-8.45416
▁says	-8.45755
J	-8.45898
▁call	-8.46339
▁let	-8.46444
▁gra	-8.46463
▁Sa	-8.46473
▁per	-8.46528
ations	-8.46597
▁money	-8.46728
▁away	-8.46981
▁tra	-8.46985
▁close	-8.47009
▁learn	-8.47039
▁class	-8.47226
▁human	-8.47425
▁band	-8.47506
▁woman	-8.47627
▁Ta	-8.47694
▁options	-8.47761
▁mother	-8.47784
che	-8.47784
▁death	-8.48311
ide	-8.48578
K	-8.48625
ac	-8.48822
▁sc	-8.48922
ft	-8.48931
▁keep	-8.49036
▁little	-8.49141
own	-8.49316
ign	-8.49357
pla	-8.49397
da	-8.49544
▁com	-8.4965
▁States	-8.49716
▁men	-8.49767
▁1.	-8.49834
▁lead	-8.49911
ran	-8.49936
▁ti	-8.50096
gen	-8.50104
▁character	-8.50151
king	-8.50181
▁body	-8.50197
о	-8.50404
▁government	-8.50445
ual	-8.50446
lin	-8.50534
▁However	-8.50829
ler	-8.50993
▁company	-8.51167
ä	-8.51188
▁whether	-8.51188
▁Na	-8.51281
cy	-8.51366
▁Which	-8.5137
▁put	-8.51648
▁Z	-8.51723
pa	-8.51998
8	-8.52072
row	-8.52083
▁$	-8.52116
▁present	-8.52449
▁sub	-8.52455
▁inter	-8.52483
▁something	-8.52701
ite	-8.52734
port	-8.52909
▁police	-8.52973
end	-8.5309
▁enough	-8.53199
▁never	-8.53415
ice	-8.53436
▁report	-8.53579
▁girl	-8.5371
▁until	-8.53787
▁Yes	-8.53848
gg	-8.53875
▁leave	-8.53877
ator	-8.53918
dic	-8.53967
▁fl	-8.54021
out	-8.5409
▁contain	-8.54671
▁force	-8.54703
▁please	-8.54953
▁test	-8.55109
ex	-8.55578
▁7	-8.55842
▁Ne	-8.55845
▁J	-8.55886
▁important	-8.55922
▁mean	-8.55943
mer	-8.56092
▁four	-8.56187
▁air	-8.56254
ear	-8.56506
pt	-8.56531
▁sh	-8.56811
▁several	-8.56901
▁main	-8.56925
▁include	-8.56942
▁o	-8.57042
▁attack	-8.57335
▁sign	-8.57339
▁term	-8.57831
yard	-8.57879
▁Je	-8.57972
ial	-8.57991
▁passage	-8.58012
qui	-8.58096
▁public	-8.58132
▁Can	-8.5822
ition	-8.58331
▁feel	-8.58338
▁experience	-8.58351
▁remain	-8.58377
▁better	-8.58462
bi	-8.5847
▁lot	-8.58486
tra	-8.58525
▁believe	-8.58597
▁cl	-8.59079
▁Article	-8.59158
▁Your	-8.59387
▁without	-8.59423
▁thought	-8.59425
▁health	-8.59656
▁large	-8.59772
ی	-8.59872
▁data	-8.59915
▁room	-8.59973
▁goal	-8.60056
▁plant	-8.60319
▁side	-8.60369
▁took	-8.60408
и	-8.60832
lay	-8.60874
▁pu	-8.60958
ure	-8.61046
que	-8.61154
ang	-8.61168
bu	-8.61189
▁line	-8.61205
▁things	-8.61306
▁le	-8.61397
ev	-8.61443
▁paragraph	-8.6152
ther	-8.61554
▁ru	-8.61609
ose	-8.61688
▁visit	-8.61726
▁word	-8.61736
ized	-8.61852
▁again	-8.6193
cl	-8.62096
▁8	-8.62231
uc	-8.62594
▁million	-8.62629
▁really	-8.62657
▁Here	-8.62745
▁kill	-8.62762
▁12	-8.62948
▁Trump	-8.63011
year	-8.63291
▁read	-8.63297
ue	-8.63428
▁together	-8.63677
▁making	-8.63739
▁Su	-8.63798
▁turn	-8.63885
▁2.	-8.63889
▁action	-8.63907
▁His	-8.63948
▁Read	-8.64149
▁mi	-8.64162
av	-8.64226
tu	-8.64287
▁9	-8.64306
side	-8.64458
▁ten	-8.64577
ap	-8.64833
ize	-8.64985
ile	-8.65032
▁+	-8.65098
▁imp	-8.65273
ious	-8.65288
▁ne	-8.65291
▁went	-8.65383
ah	-8.65432
nder	-8.65489
▁building	-8.65567
▁song	-8.65584
▁Dr	-8.65707
▁real	-8.65729
▁va	-8.65763
ome	-8.65981
tre	-8.66106
▁Si	-8.66238
▁Vi	-8.66329
▁light	-8.66329
press	-8.66334
▁allow	-8.66495
rea	-8.66544
▁often	-8.66789
▁plan	-8.67148
▁min	-8.67178
pi	-8.67209
▁interest	-8.67236
nn	-8.67363
han	-8.67416
▁always	-8.67445
ey	-8.67543
▁One	-8.67589
▁service	-8.67657
▁Now	-8.67976
▁Jo	-8.68035
▁York	-8.68113
▁child	-8.68193
▁near	-8.68213
▁Some	-8.68381
▁offer	-8.68531
▁big	-8.68605
▁15	-8.68612
▁friends	-8.68644
cent	-8.68869
her	-8.68902
ute	-8.68939
▁hard	-8.69017
▁early	-8.69064
tur	-8.69121
▁Sp	-8.69208
▁Gu	-8.69794
ral	-8.69921
▁pi	-8.70233
▁return	-8.70534
▁South	-8.70565
▁rock	-8.70807
▁law	-8.70929
▁having	-8.71027
▁watch	-8.71048
▁didn	-8.71103
▁came	-8.71199
mate	-8.71321
cc	-8.71401
▁Ka	-8.71437
▁cause	-8.71518
▁war	-8.71596
▁walk	-8.71614
led	-8.71711
▁face	-8.71778
”	-8.72239
▁type	-8.72281
▁du	-8.72425
ki	-8.7259
▁Fi	-8.72597
▁Br	-8.72704
▁son	-8.72738
▁translate	-8.72787
▁Bar	-8.72837
▁travel	-8.73053
▁al	-8.73104
ning	-8.7323
▁suggest	-8.73234
▁official	-8.73291
oo	-8.73324
▁field	-8.73496
▁star	-8.73555
▁qu	-8.73592
▁Te	-8.73725
▁office	-8.73865
▁local	-8.7403
▁Th	-8.74034
▁cha	-8.74119
▁US	-8.74142
а	-8.74211
▁May	-8.74258
▁Pro	-8.74356
▁break	-8.74365
▁win	-8.74437
▁released	-8.7444
▁subject	-8.74443
▁common	-8.74524
time	-8.74557
▁along	-8.74653
▁sentiment	-8.74657
▁natural	-8.74686
▁add	-8.75173
▁tri	-8.75257
▁input	-8.75263
ain	-8.75286
▁boy	-8.75313
ier	-8.7563
ay	-8.75699
ham	-8.76027
▁idea	-8.76098
▁fall	-8.76176
▁War	-8.76459
▁full	-8.76528
*	-8.76575
▁original	-8.76717
▁follow	-8.77086
▁thing	-8.77122
▁issue	-8.77124
▁ask	-8.77392
sta	-8.77395
ore	-8.77445
20	-8.77672
▁former	-8.77693
▁Ju	-8.77807
▁buy	-8.77958
day	-8.78156
lan	-8.78314
ble	-8.78421
are	-8.78424
▁fa	-8.78439
tin	-8.78443
▁free	-8.78523
▁past	-8.78736
▁point	-8.7882
fer	-8.78827
▁na	-8.78847
▁San	-8.78931
of	-8.78983
if	-8.79072
No	-8.791
▁Hu	-8.79232
ر	-8.7929
▁single	-8.7933
▁days	-8.79449
▁El	-8.7963
▁My	-8.79709
▁talk	-8.79842
▁—	-8.79935
▁conclude	-8.80134
▁within	-8.80278
,”	-8.80307
▁won	-8.80313
▁move	-8.80317
▁example	-8.80377
▁meet	-8.80498
▁post	-8.8067
▁grow	-8.80692
vo	-8.80697
▁leader	-8.80726
▁v	-8.80832
air	-8.80881
ze	-8.81049
▁five	-8.81051
▁17	-8.81346
▁became	-8.81353
▁output	-8.81353
.”	-8.81405
▁eat	-8.81556
▁act	-8.81666
▁sha	-8.81781
my	-8.81919
▁asked	-8.81952
▁blood	-8.81998
Y	-8.82036
▁town	-8.82073
▁Based	-8.82132
▁bar	-8.82345
▁Ri	-8.82378
▁2:	-8.8258
▁due	-8.82648
▁women	-8.82648
▁dog	-8.82665
▁energy	-8.8271
ever	-8.82734
▁1:	-8.82761
▁season	-8.82803
ı	-8.8299
▁power	-8.83126
tal	-8.83127
lf	-8.83201
rn	-8.83427
▁land	-8.83447
▁meaning	-8.83545
▁reach	-8.83592
▁business	-8.83646
▁pay	-8.8365
▁cell	-8.83766
▁wife	-8.8393
mor	-8.83948
▁World	-8.84055
▁claim	-8.8409
▁President	-8.84118
▁situation	-8.84275
ney	-8.84507
art	-8.84653
▁Pe	-8.84668
▁clear	-8.84779
▁relationship	-8.84823
gi	-8.84848
ible	-8.84942
▁cre	-8.85022
▁hit	-8.85029
ities	-8.85115
▁ja	-8.85249
gan	-8.85297
▁em	-8.85455
int	-8.85581
mm	-8.85678
▁fire	-8.85691
▁require	-8.85741
▁kind	-8.85757
▁fe	-8.85757
▁provided	-8.85814
▁3.	-8.85875
▁object	-8.86098
▁North	-8.86103
▁That	-8.86173
fa	-8.86194
men	-8.86556
▁im	-8.86578
▁11	-8.86587
tri	-8.86623
▁perform	-8.86746
▁summary	-8.86864
▁Movie	-8.86929
▁join	-8.87052
▁Bu	-8.87232
▁control	-8.87485
ong	-8.87485
▁someone	-8.87508
▁–	-8.87611
▁care	-8.87639
▁value	-8.87712
▁himself	-8.8784
▁study	-8.87874
و	-8.88004
▁sure	-8.88034
▁role	-8.88115
use	-8.88152
▁Generate	-8.88299
▁attempt	-8.88529
▁write	-8.88554
▁level	-8.88678
т	-8.88716
▁Choose	-8.8876
▁While	-8.88826
▁deal	-8.88855
▁determine	-8.88859
▁named	-8.88916
▁Lu	-8.88952
▁|	-8.89028
▁Ke	-8.89041
▁half	-8.89081
▁space	-8.89109
ments	-8.89175
oc	-8.89181
▁Ga	-8.89218
rate	-8.89294
▁discover	-8.89461
▁students	-8.89497
▁mar	-8.89622
▁mu	-8.89671
▁working	-8.89891
▁rest	-8.89895
▁French	-8.90189
▁key	-8.9019
We	-8.90313
du	-8.90574
▁age	-8.90664
log	-8.90699
▁doesn	-8.90869
▁effect	-8.9095
ple	-8.90962
▁Cha	-8.90989
▁Ex	-8.91089
val	-8.91161
▁parents	-8.91266
▁design	-8.91309
▁Sha	-8.91383
nch	-8.91396
▁organ	-8.91467
▁special	-8.91469
▁program	-8.91516
▁understand	-8.91552
▁si	-8.91565
▁16	-8.91651
60	-8.91744
▁restaurant	-8.91809
▁Man	-8.92002
▁cover	-8.92143
▁third	-8.9256
▁*	-8.92652
▁describe	-8.92829
▁played	-8.92843
▁likely	-8.92846
rb	-8.92942
▁Who	-8.93152
▁stay	-8.93242
▁party	-8.93246
▁written	-8.93248
▁strong	-8.93284
▁taking	-8.93359
ration	-8.93518
▁black	-8.93525
It	-8.9374
▁mis	-8.9377
▁bi	-8.93808
▁artist	-8.93879
ries	-8.94188
▁14	-8.94347
▁With	-8.94431
▁reason	-8.94616
▁speak	-8.94674
▁arrive	-8.94676
nc	-8.94697
▁far	-8.94756
▁ve	-8.94872
▁why	-8.94878
▁sal	-8.94984
▁fight	-8.95076
▁began	-8.9515
▁All	-8.95157
▁0	-8.95231
ja	-8.95243
▁increase	-8.95353
▁Mi	-8.95566
ace	-8.95571
▁sense	-8.95653
▁pa	-8.95767
▁final	-8.95778
▁Go	-8.95786
nny	-8.95834
▁player	-8.95862
▁Wa	-8.95863
▁store	-8.95973
▁pick	-8.96325
rk	-8.96663
▁individual	-8.96903
ack	-8.96963
▁date	-8.97051
bl	-8.97085
In	-8.97223
▁outside	-8.97245
▁below	-8.973
▁cut	-8.97384
▁sound	-8.97474
▁brother	-8.9773
▁Ni	-8.97932
▁pr	-8.97948
▁Mu	-8.97967
▁here	-8.97973
د	-8.97983
ug	-8.98313
ن	-8.98353
ek	-8.98357
▁fun	-8.98503
▁video	-8.9852
▁eye	-8.98539
▁City	-8.98559
▁share	-8.98692
▁Col	-8.98779
▁University	-8.98855
▁seen	-8.98878
▁phrase	-8.99038
ه	-8.99111
▁element	-8.9915
▁try	-8.99331
uck	-8.99345
▁House	-8.99434
▁Fa	-8.99517
▁least	-8.99554
mission	-8.99597
ov	-8.9973
▁view	-8.99765
▁art	-8.99843
▁British	-8.99956
▁ge	-9.00024
▁critic	-9.00145
ject	-9.00217
uch	-9.00256
▁option	-9.00353
cul	-9.00466
ient	-9.00576
▁wait	-9.00668
ef	-9.00695
▁according	-9.00697
▁daughter	-9.00697
▁red	-9.00798
▁stop	-9.00892
▁pe	-9.00986
▁choose	-9.00995
ash	-9.01048
for	-9.01156
▁born	-9.01281
▁By	-9.01354
har	-9.01383
▁goes	-9.01418
step	-9.0142
▁trying	-9.01431
cle	-9.0149
za	-9.01612
000	-9.01628
▁personal	-9.01734
▁appear	-9.01737
▁decide	-9.01768
▁members	-9.02061
ker	-9.02137
ou	-9.02149
▁population	-9.02233
zz	-9.0233
▁series	-9.02384
▁fr	-9.02412
▁social	-9.02416
▁Fo	-9.02433
▁consider	-9.02489
▁customer	-9.02498
▁potential	-9.02612
▁six	-9.02736
lt	-9.0276
cial	-9.02836
▁_	-9.02851
ina	-9.02954
▁Let	-9.03117
van	-9.0325
▁13	-9.03351
▁wanted	-9.03352
▁express	-9.03515
▁affect	-9.03602
▁able	-9.03605
ense	-9.03655
▁history	-9.03673
▁low	-9.03709
▁event	-9.03727
▁national	-9.03857
▁getting	-9.03916
▁late	-9.04046
rew	-9.04212
▁Context	-9.04293
▁Com	-9.04372
▁Title	-9.04373
▁ever	-9.04505
▁select	-9.04567
▁These	-9.047
▁looking	-9.04816
▁bad	-9.04988
▁playing	-9.05018
istic	-9.0508
▁Ru	-9.05082
rd	-9.05148
ai	-9.05323
▁Har	-9.05407
▁continue	-9.0547
▁y	-9.05798
▁non	-9.05917
ium	-9.06169
cr	-9.06246
▁specific	-9.06251
▁makes	-9.06253
▁rep	-9.06503
ify	-9.06547
▁bring	-9.06856
в	-9.0687
▁30	-9.06927
▁killed	-9.06995
▁top	-9.07209
▁various	-9.07227
▁China	-9.07293
▁Or	-9.07386
right	-9.07398
▁die	-9.07463
▁generate	-9.0772
▁Du	-9.07722
▁across	-9.07744
▁ju	-9.07757
▁Output	-9.07784
▁similar	-9.07984
▁behind	-9.07984
."?	-9.08046
▁decision	-9.08064
▁heart	-9.08076
▁tu	-9.08123
▁among	-9.08151
▁Wal	-9.08164
vin	-9.08292
▁living	-9.08386
▁complete	-9.08582
▁rec	-9.08587
▁dead	-9.086
ox	-9.08669
▁Her	-9.08721
rit	-9.08985
ped	-9.09003
▁taken	-9.09103
▁takes	-9.09217
▁means	-9.09273
ugh	-9.09294
▁court	-9.0932
▁cannot	-9.09385
▁da	-9.09406
▁phone	-9.09477
light	-9.09514
▁gr	-9.09555
▁front	-9.09598
gar	-9.09625
get	-9.0973
ky	-9.09743
▁Tom	-9.09753
▁agree	-9.09858
▁months	-9.09872
▁author	-9.09908
▁though	-9.09928
▁percent	-9.09955
▁tweet	-9.09963
▁charge	-9.10048
▁impact	-9.10079
▁lu	-9.10279
vel	-9.10311
▁cost	-9.10379
ttle	-9.10405
▁enter	-9.10442
▁drive	-9.10478
tar	-9.10509
▁enjoy	-9.10535
▁period	-9.10618
▁location	-9.10618
pro	-9.10732
▁represent	-9.10782
▁previous	-9.10946
▁village	-9.10988
▁National	-9.1103
▁focus	-9.11112
▁market	-9.11212
▁Gra	-9.11359
▁feature	-9.11442
▁En	-9.11457
▁quarter	-9.1165
▁position	-9.11747
▁protect	-9.11872
▁sold	-9.11886
▁director	-9.12136
▁popular	-9.12232
▁hours	-9.12545
▁rule	-9.126
▁Cor	-9.12637
▁white	-9.12717
л	-9.12776
ko	-9.12793
▁ball	-9.12794
lor	-9.12799
▁region	-9.12949
rap	-9.13015
▁started	-9.13101
au	-9.13262
▁Spanish	-9.13323
▁hope	-9.13437
elect	-9.13508
wer	-9.13618
▁once	-9.13663
▁career	-9.13853
ified	-9.13953
▁met	-9.14006
▁rate	-9.14021
gre	-9.14118
▁che	-9.14189
fu	-9.14324
▁German	-9.14381
▁clean	-9.14389
▁today	-9.14547
▁writing	-9.14554
qua	-9.14599
▁received	-9.14609
▁inside	-9.14633
▁murder	-9.14682
▁birth	-9.1471
0,000	-9.14747
low	-9.14802
lock	-9.15045
с	-9.15096
bit	-9.15149
ü	-9.15153
ants	-9.15616
▁opera	-9.15696
teen	-9.15724
▁el	-9.15831
▁officer	-9.15874
▁soon	-9.15921
▁David	-9.1593
ett	-9.15955
▁cap	-9.16
He	-9.16098
▁Instructions	-9.16103
▁led	-9.16123
▁president	-9.1617
▁manage	-9.16185
▁Not	-9.16222
▁research	-9.1631
▁trans	-9.16357
▁train	-9.1637
▁user	-9.16521
▁political	-9.16712
▁occur	-9.16756
▁leg	-9.16816
▁London	-9.16843
ya	-9.16952
▁create	-9.16971
50	-9.16987
▁further	-9.17018
▁Ge	-9.17216
▁Pre	-9.1724
▁tells	-9.17279
ت	-9.17325
▁explain	-9.17677
▁4.	-9.17831
▁Russian	-9.17836
▁certain	-9.17853
▁held	-9.17892
▁doing	-9.17973
▁Just	-9.18302
▁super	-9.18327
▁accept	-9.18384
▁already	-9.18384
▁total	-9.18479
▁morning	-9.18652
▁saw	-9.18717
▁refer	-9.18771
▁performance	-9.18833
▁table	-9.19071
▁Review	-9.19154
10	-9.19246
like	-9.19287
—	-9.19347
▁military	-9.19365
▁lost	-9.19385
▁significant	-9.19634
▁major	-9.197
▁states	-9.19717
▁Premise	-9.19724
▁minutes	-9.19726
ب	-9.19814
▁Mon	-9.20131
▁ga	-9.20386
▁Un	-9.20554
▁member	-9.20654
▁reasoning	-9.20709
▁environment	-9.20764
90	-9.20931
▁gas	-9.20933
▁condition	-9.20947
▁piece	-9.20949
lly	-9.20954
▁couple	-9.20992
▁direct	-9.21095
▁ground	-9.21245
tail	-9.2128
ă	-9.21494
▁cat	-9.21525
ade	-9.21626
zi	-9.21762
▁match	-9.21777
▁America	-9.21815
▁def	-9.21845
▁draw	-9.21897
▁future	-9.21907
▁Bill	-9.21928
▁color	-9.22024
ically	-9.22103
▁shot	-9.22115
▁club	-9.22366
(	-9.22534
▁drink	-9.22691
▁Pri	-9.22761
ii	-9.22903
board	-9.22993
What	-9.23148
let	-9.23167
▁hu	-9.23253
▁details	-9.23255
▁Per	-9.23365
▁check	-9.23424
gra	-9.23461
▁fi	-9.23503
▁spend	-9.23588
30	-9.23895
▁Part	-9.24144
▁fish	-9.24211
▁countries	-9.24244
hen	-9.24269
▁release	-9.24447
▁Paul	-9.24492
ase	-9.24684
▁translation	-9.24704
▁concern	-9.24751
▁project	-9.24849
▁scene	-9.24946
▁fan	-9.2498
▁door	-9.25076
▁Tra	-9.25124
▁Hypothesis	-9.2513
▁arm	-9.25176
▁comes	-9.25234
ough	-9.25238
▁reveal	-9.25276
▁course	-9.25369
ل	-9.25415
▁cur	-9.2557
kin	-9.25634
▁vo	-9.25639
▁sur	-9.25653
▁comment	-9.25684
▁jo	-9.25776
tan	-9.25791
hy	-9.25799
hu	-9.25802
▁success	-9.25821
▁ob	-9.25893
▁ago	-9.25991
▁content	-9.25993
▁died	-9.26012
▁search	-9.26258
▁points	-9.26298
▁teacher	-9.26385
gue	-9.26393
▁Republican	-9.26473
▁animal	-9.26495
▁Sam	-9.26531
tory	-9.26658
▁score	-9.26811
▁State	-9.26832
▁discuss	-9.26857
▁sun	-9.2712
▁saying	-9.27152
ana	-9.27166
▁West	-9.27208
▁letter	-9.27367
len	-9.27604
back	-9.27684
á	-9.27727
▁trip	-9.27728
▁tree	-9.27751
▁almost	-9.27776
mark	-9.27843
▁hospital	-9.27971
▁employ	-9.2802
▁East	-9.28043
▁version	-9.28167
▁bit	-9.28246
▁month	-9.28287
▁century	-9.28313
▁computer	-9.28315
▁Chinese	-9.28362
▁meeting	-9.28397
▁shoot	-9.2856
▁material	-9.28657
▁Does	-9.28664
▁football	-9.28804
ame	-9.28837
▁Qu	-9.289
▁slow	-9.28985
▁price	-9.29053
▁track	-9.29068
▁White	-9.2915
ik	-9.29161
▁effort	-9.29199
▁hold	-9.29341
▁media	-9.29456
over	-9.29657
▁paint	-9.2975
▁amount	-9.29771
▁&	-9.29801
▁anything	-9.29802
▁sea	-9.29864
form	-9.30008
▁definition	-9.30093
▁source	-9.30145
▁Korea	-9.30145
▁considered	-9.30207
>	-9.30293
▁Australia	-9.30293
▁street	-9.30294
part	-9.3033
▁done	-9.30441
net	-9.30454
▁je	-9.30564
▁pen	-9.30589
▁chance	-9.30601
▁Mc	-9.30616
pen	-9.30734
▁capital	-9.30794
▁vote	-9.30903
▁picture	-9.30995
▁attend	-9.31057
▁wrote	-9.31096
▁choices	-9.3111
▁X	-9.31243
▁influence	-9.31247
▁stage	-9.31428
▁park	-9.31492
come	-9.31514
atch	-9.31538
▁Ben	-9.31625
▁|||||	-9.31652
▁sport	-9.31714
▁instead	-9.31855
roll	-9.31865
ather	-9.31992
▁secret	-9.32007
▁Earth	-9.32009
▁doctor	-9.32059
▁box	-9.32093
ford	-9.32245
▁Sc	-9.3227
work	-9.32318
▁flow	-9.32333
▁lives	-9.32377
▁warm	-9.32459
mun	-9.32606
▁mind	-9.32616
▁June	-9.32646
▁count	-9.32817
▁During	-9.32822
▁#	-9.3283
itch	-9.32856
к	-9.32978
▁deep	-9.33031
▁wide	-9.33083
▁difficult	-9.33235
▁response	-9.33286
▁farm	-9.33318
▁described	-9.33502
fo	-9.33748
oli	-9.33791
▁campaign	-9.33803
▁mention	-9.33807
nda	-9.33842
▁general	-9.3394
▁sister	-9.34072
í	-9.34218
▁drug	-9.34219
▁multi	-9.34273
▁road	-9.34318
▁related	-9.34468
▁Pick	-9.34515
▁whose	-9.34539
▁river	-9.34595
▁recommend	-9.34687
▁gun	-9.3469
▁solution	-9.3474
▁fast	-9.3487
▁Michael	-9.34887
▁command	-9.34954
▁image	-9.34989
▁added	-9.35025
▁mentioned	-9.35122
▁ship	-9.35274
▁William	-9.35316
▁25	-9.35325
▁nu	-9.35547
ution	-9.35822
arch	-9.35911
▁feeling	-9.35983
▁Washington	-9.36054
▁however	-9.36193
▁matter	-9.36376
nie	-9.36388
▁develop	-9.36431
▁European	-9.36519
▁Gi	-9.36538
▁sent	-9.36772
▁conversation	-9.36905
▁needed	-9.36949
▁label	-9.36998
▁lower	-9.37076
ization	-9.37203
▁remove	-9.37229
▁3:	-9.37347
")	-9.37534
▁cor	-9.37547
▁send	-9.37616
▁pair	-9.37721
▁returns	-9.37724
▁usually	-9.37764
▁moment	-9.37856
▁else	-9.37901
▁Pi	-9.37936
ability	-9.37985
▁temperature	-9.38033
▁either	-9.38141
▁race	-9.38145
▁account	-9.38197
▁site	-9.38207
▁anti	-9.3827
▁successful	-9.3833
▁Japanese	-9.38358
18	-9.38489
м	-9.3852
▁separate	-9.38522
م	-9.38534
▁student	-9.38615
▁happy	-9.38738
р	-9.38756
pir	-9.38765
19	-9.38813
▁decided	-9.38866
▁stand	-9.38991
ung	-9.38995
room	-9.39015
▁happen	-9.39056
▁Em	-9.39234
▁George	-9.39338
▁Fe	-9.39338
ssociated	-9.39345
▁north	-9.39728
▁Ph	-9.39765
▁Teacher	-9.39777
н	-9.39777
ib	-9.39852
▁James	-9.39954
▁quickly	-9.39997
▁station	-9.40098
â	-9.40162
▁mass	-9.40246
head	-9.403
off	-9.40324
▁improve	-9.40385
▁exist	-9.40408
▁Bro	-9.40504
bin	-9.40524
▁gave	-9.40554
▁Solve	-9.40661
▁message	-9.40772
▁events	-9.40841
▁actually	-9.40882
▁Select	-9.40883
▁sleep	-9.40993
▁para	-9.41002
▁hair	-9.41196
▁wall	-9.41255
▁card	-9.41257
▁gene	-9.41475
ification	-9.41504
car	-9.41518
ency	-9.41536
qu	-9.41536
▁mix	-9.41556
▁invest	-9.41603
▁running	-9.41662
▁higher	-9.41718
cho	-9.41806
▁July	-9.41982
▁Che	-9.42145
chi	-9.42176
▁figure	-9.42338
where	-9.42358
vision	-9.42389
▁According	-9.4245
▁finish	-9.42451
▁south	-9.42511
▁probably	-9.42563
▁Indian	-9.42691
▁located	-9.42846
▁green	-9.42851
▁husband	-9.42903
▁Why	-9.42978
▁seems	-9.43278
▁pull	-9.43404
▁pressure	-9.43415
▁reported	-9.43436
mar	-9.43607
▁save	-9.43646
▁limit	-9.43707
▁yet	-9.43714
▁paper	-9.43808
▁host	-9.43891
▁professional	-9.439
iz	-9.439
ica	-9.43955
▁Europe	-9.43999
▁animals	-9.44015
▁risk	-9.44047
▁Obama	-9.44101
▁shop	-9.44114
ा	-9.44158
▁self	-9.44162
▁24	-9.44189
▁March	-9.442
▁development	-9.44217
▁correctly	-9.44316
▁rather	-9.44377
▁island	-9.44479
▁disc	-9.44488
д	-9.44618
▁$1	-9.44671
ich	-9.44686
burg	-9.44719
▁August	-9.44734
▁raise	-9.44949
▁Would	-9.45081
▁Bur	-9.451
▁Park	-9.45328
▁happens	-9.45354
▁begins	-9.45366
▁fill	-9.45373
▁everyone	-9.45749
▁bank	-9.45808
▁ice	-9.45818
▁pan	-9.45821
▁mark	-9.45839
▁escape	-9.45896
▁``	-9.45954
▁den	-9.46105
▁January	-9.46364
▁themselves	-9.4654
bel	-9.46617
▁legal	-9.46682
▁international	-9.46717
▁blue	-9.46838
99	-9.46939
▁Ver	-9.46983
▁structure	-9.47012
▁England	-9.47012
80	-9.47091
▁Mor	-9.47105
▁fail	-9.47108
▁nothing	-9.47178
▁prison	-9.4726
▁available	-9.47367
▁fo	-9.47639
▁whole	-9.47663
س	-9.47723
▁50	-9.47785
▁rain	-9.48014
ER	-9.48036
▁surface	-9.4832
not	-9.48413
▁center	-9.4847
▁moved	-9.48507
▁Pu	-9.48517
▁sell	-9.48522
▁Ti	-9.48548
▁wrong	-9.48561
▁current	-9.48574
▁contact	-9.48681
▁Frank	-9.48682
▁tax	-9.48765
▁online	-9.48791
▁serve	-9.48819
▁address	-9.48862
emp	-9.48865
bert	-9.49054
▁document	-9.49102
▁entire	-9.49102
▁involved	-9.49212
▁initial	-9.49289
app	-9.49326
▁worked	-9.49327
▁approach	-9.49404
▁difference	-9.49525
▁photo	-9.4958
▁...	-9.49602
▁California	-9.49646
▁towards	-9.49694
X	-9.49708
east	-9.4975
▁Monday	-9.49789
▁21	-9.4979
▁mid	-9.49838
▁September	-9.50072
▁worth	-9.50134
▁School	-9.50194
▁regard	-9.50318
▁broke	-9.50326
▁November	-9.5056
verse	-9.50596
rick	-9.50656
▁seven	-9.50718
ctic	-9.50728
▁Hi	-9.50741
▁physical	-9.50744
raw	-9.5081
▁poor	-9.50858
▁leading	-9.50915
▁Detailed	-9.50929
▁Tuesday	-9.51051
▁UK	-9.51082
▁Jack	-9.51084
▁consist	-9.51263
▁April	-9.51359
▁reading	-9.51363
script	-9.51366
ole	-9.51419
▁television	-9.51736
▁wood	-9.51881
ö	-9.5204
▁Bra	-9.5216
▁bird	-9.52258
▁tried	-9.52268
AT	-9.52341
▁Ki	-9.524
▁operation	-9.524
▁maintain	-9.52414
▁earlier	-9.52476
field	-9.52529
▁que	-9.52541
▁style	-9.52562
▁100	-9.52638
▁unit	-9.52644
▁board	-9.52661
▁December	-9.52664
▁treat	-9.52681
▁Peter	-9.52778
▁expected	-9.52871
▁happened	-9.53004
▁County	-9.53046
▁overall	-9.53056
▁impossible	-9.53102
▁camp	-9.53138
▁especially	-9.53165
▁floor	-9.53167
wo	-9.53211
matic	-9.53288
▁felt	-9.53322
▁TV	-9.53333
▁equal	-9.53419
▁species	-9.5348
▁France	-9.53481
▁Robert	-9.53529
▁longer	-9.53535
▁created	-9.53612
▁recent	-9.53853
▁institution	-9.53858
▁eventually	-9.53859
ology	-9.53938
▁heard	-9.5396
▁2013	-9.54317
<	-9.54366
▁heat	-9.54367
▁proper	-9.54421
▁security	-9.5443
▁practice	-9.54494
▁everything	-9.54561
▁entailed	-9.54621
▁average	-9.54627
▁2012	-9.54704
▁Could	-9.54814
▁October	-9.54876
▁kids	-9.54904
▁Although	-9.5494
▁evidence	-9.55004
▁Two	-9.55043
▁choice	-9.55126
▁base	-9.55144
▁Don	-9.55168
▁sit	-9.5518
pper	-9.55312
▁remember	-9.55324
▁oppos	-9.5543
▁deliver	-9.55454
▁interview	-9.5546
▁cross	-9.5552
phy	-9.55574
▁community	-9.55582
▁access	-9.55582
▁Input	-9.55584
▁turned	-9.55631
▁ability	-9.55639
▁receive	-9.55694
tom	-9.55966
▁measure	-9.55969
▁knew	-9.55969
▁Sch	-9.55986
▁serious	-9.56034
▁arrest	-9.56038
▁loss	-9.56038
▁Sunday	-9.56045
▁largest	-9.561
▁directly	-9.56205
▁size	-9.56328
▁highlight	-9.56343
▁college	-9.56357
You	-9.56416
▁rating	-9.5642
▁safe	-9.56448
▁simple	-9.56488
▁nation	-9.5654
udi	-9.56542
▁King	-9.56554
▁Mary	-9.5659
▁kick	-9.56654
▁disease	-9.56682
▁fund	-9.56948
igh	-9.57059
▁Since	-9.57144
▁prevent	-9.5721
choice	-9.57282
▁background	-9.57335
hold	-9.5757
▁oil	-9.57759
▁Ken	-9.57838
▁belong	-9.57929
▁begin	-9.57997
45	-9.58013
▁Joe	-9.58072
▁accurate	-9.58124
ctiv	-9.5815
▁threat	-9.58192
▁agent	-9.58196
▁hat	-9.58236
▁leaving	-9.58323
▁actor	-9.58415
▁married	-9.58524
▁2014	-9.58537
▁challenge	-9.58587
▁Hol	-9.58624
mag	-9.58651
▁Identify	-9.58654
▁category	-9.58654
▁Add	-9.58693
▁damage	-9.58724
▁40	-9.59003
fin	-9.59112
▁throw	-9.59128
▁entity	-9.592
▁gain	-9.59297
fl	-9.59303
▁election	-9.59392
ju	-9.59438
izing	-9.5944
▁Sea	-9.59484
▁Air	-9.59492
▁brought	-9.59654
▁Friday	-9.59722
▁attention	-9.59722
▁guess	-9.59727
▁instance	-9.59865
▁returned	-9.59899
house	-9.59997
▁included	-9.60011
▁partner	-9.6002
▁email	-9.60032
@	-9.60058
▁Italian	-9.60195
well	-9.60235
▁argument	-9.6026
▁conduct	-9.60303
▁dress	-9.60331
▁middle	-9.60337
▁dia	-9.6041
▁Sta	-9.60452
70	-9.60497
▁baby	-9.60576
▁gather	-9.60686
born	-9.60869
▁economic	-9.60869
▁wonder	-9.61012
▁patient	-9.61013
▁accident	-9.61072
▁file	-9.61081
▁range	-9.61082
ş	-9.61208
▁pra	-9.61231
▁Dan	-9.61459
▁rid	-9.61468
▁adult	-9.61484
uk	-9.61502
▁spent	-9.61506
▁knowledge	-9.6155
q	-9.61618
▁indicate	-9.61659
▁expect	-9.61733
▁bio	-9.61735
▁spoke	-9.61787
ken	-9.61885
▁skin	-9.6191
▁continued	-9.62146
▁although	-9.62235
▁auto	-9.62293
▁collect	-9.62323
▁First	-9.62375
nna	-9.62419
▁upon	-9.62455
▁conclusion	-9.6258
▁guitar	-9.6258
▁concept	-9.6258
40	-9.62591
▁Brown	-9.62638
▁Time	-9.62641
▁Where	-9.62651
▁2011	-9.62669
▁manager	-9.62724
–	-9.62858
▁lack	-9.62952
tant	-9.63107
body	-9.63444
▁Val	-9.63538
▁cold	-9.63601
▁production	-9.63633
▁throughout	-9.63743
▁coming	-9.63754
▁beautiful	-9.6376
▁missing	-9.63779
▁summer	-9.63831
graph	-9.63849
▁High	-9.63873
▁cook	-9.63942
▁church	-9.63971
▁page	-9.64077
▁cast	-9.64202
▁22	-9.64209
[	-9.64273
▁touchdown	-9.64391
▁Steve	-9.64448
ST	-9.64744
▁hot	-9.64791
▁Choices	-9.64814
▁avoid	-9.64817
▁itself	-9.65028
15	-9.65108
▁miles	-9.65117
▁2010	-9.65132
▁topic	-9.65222
▁model	-9.65249
▁eight	-9.65428
▁notice	-9.65459
RE	-9.65465
▁pop	-9.65646
▁suffer	-9.65665
▁supposed	-9.65666
▁oxygen	-9.65878
▁brief	-9.65878
▁Nor	-9.65916
ó	-9.6595
▁voice	-9.65995
у	-9.66164
▁skill	-9.66167
▁giving	-9.66309
▁introduce	-9.66594
▁Han	-9.6662
12	-9.66689
▁produced	-9.66724
jo	-9.66848
35	-9.66849
▁wearing	-9.66905
▁built	-9.67031
▁Green	-9.67031
▁sometimes	-9.67107
▁electric	-9.67172
▁£	-9.67279
ably	-9.67429
▁connect	-9.67451
Q	-9.67459
▁victim	-9.67461
▁growth	-9.67566
▁push	-9.67568
vol	-9.67676
+	-9.67679
▁build	-9.67689
▁writer	-9.67919
▁owner	-9.67956
▁bill	-9.67957
▁‘	-9.6797
▁complex	-9.68043
ison	-9.68045
▁Alex	-9.6815
▁singer	-9.68173
▁People	-9.68211
▁carry	-9.68225
▁2015	-9.68284
▁Wednesday	-9.68334
▁talking	-9.68536
▁Mark	-9.68626
▁website	-9.68774
▁demand	-9.68788
▁Red	-9.68839
▁tries	-9.6887
▁Gar	-9.68892
▁inform	-9.68943
▁From	-9.69005
▁weight	-9.69144
▁wave	-9.6924
▁attract	-9.69312
ville	-9.69401
▁Ko	-9.6941
▁trade	-9.69503
▁involve	-9.69524
▁effective	-9.69684
75	-9.69718
▁modern	-9.69735
ON	-9.69747
▁produce	-9.6977
▁window	-9.69911
▁stream	-9.69958
▁(19	-9.69994
▁target	-9.70031
▁warn	-9.7008
▁February	-9.70105
▁sex	-9.70111
▁burn	-9.70223
▁screen	-9.70255
▁easy	-9.70331
▁relation	-9.70395
▁function	-9.70447
▁billion	-9.70475
▁commit	-9.70479
▁More	-9.70497
▁23	-9.70507
▁dark	-9.70508
▁civil	-9.70553
▁India	-9.70568
ological	-9.7063
\	-9.70708
▁nearly	-9.7077
्	-9.70777
▁Thursday	-9.70777
▁highest	-9.70812
▁quality	-9.70852
rrb	-9.70858
▁Jim	-9.70861
▁pain	-9.70902
This	-9.70991
▁capture	-9.7114
▁private	-9.71152
▁Mac	-9.71201
▁engine	-9.71229
▁culture	-9.71229
▁link	-9.713
▁realize	-9.71341
39	-9.71382
▁Star	-9.71521
▁respect	-9.71529
▁famous	-9.7153
but	-9.71531
▁beginning	-9.71552
vic	-9.71822
▁listen	-9.71824
ک	-9.71832
▁finally	-9.71892
dependent	-9.71905
▁confirm	-9.71907
▁financial	-9.71907
▁female	-9.71908
▁recently	-9.72021
▁respond	-9.72059
ella	-9.72162
▁Many	-9.7223
▁fit	-9.72238
▁Of	-9.72264
▁forward	-9.72283
▁caused	-9.72306
▁fear	-9.72365
▁global	-9.72439
▁movement	-9.7248
▁temp	-9.72542
tract	-9.72571
phone	-9.72635
▁Comp	-9.7264
▁Min	-9.72646
▁followed	-9.72647
▁nice	-9.7286
round	-9.73022
▁guy	-9.73092
▁published	-9.73139
▁catch	-9.7314
▁staff	-9.73208
▁dance	-9.73339
▁achieve	-9.73359
berg	-9.73394
11	-9.73524
▁Tri	-9.73697
▁coffee	-9.7382
▁organization	-9.7384
▁greater	-9.73866
▁Black	-9.73977
▁hotel	-9.74085
▁athlete	-9.74207
hood	-9.7424
▁radio	-9.74282
▁snow	-9.74287
fully	-9.7432
▁extra	-9.74448
▁device	-9.74522
65	-9.74577
▁Student	-9.74596
▁Richard	-9.74674
▁spot	-9.74727
▁particular	-9.74795
▁Paris	-9.7485
▁Day	-9.74877
▁hy	-9.74888
▁aspect	-9.74908
▁training	-9.7491
▁older	-9.74949
▁teach	-9.7495
lum	-9.74956
▁Rob	-9.74984
▁Roman	-9.75048
CNN	-9.75088
night	-9.75089
▁fat	-9.75118
▁alone	-9.75131
▁block	-9.75194
п	-9.7522
▁east	-9.75225
▁sexual	-9.75244
▁crime	-9.753
▁seek	-9.75315
▁asking	-9.75465
▁bra	-9.75567
▁Other	-9.76048
▁Great	-9.76098
wood	-9.76175
▁apartment	-9.76247
▁transportation	-9.7663
▁2008	-9.76641
▁perfect	-9.76642
▁battle	-9.76689
▁quite	-9.76703
unanswerable	-9.76824
▁contract	-9.76934
▁regular	-9.76959
▁immediately	-9.77047
▁horse	-9.77121
▁necessary	-9.77198
▁ensure	-9.77207
▁speed	-9.77715
▁Lee	-9.77738
▁novel	-9.77744
▁audience	-9.7776
=	-9.77834
▁understanding	-9.77965
▁jump	-9.78088
▁wind	-9.78163
▁Act	-9.78196
▁grand	-9.78332
я	-9.78404
▁moving	-9.78409
▁Saturday	-9.78566
▁Smith	-9.78568
95	-9.78579
▁dream	-9.7873
▁cool	-9.78772
▁column	-9.78891
▁Sen	-9.78986
▁Lan	-9.79088
▁reduce	-9.79158
▁Christian	-9.79192
ji	-9.79277
▁scientist	-9.79379
▁simply	-9.7938
▁Tu	-9.79399
▁industry	-9.79461
▁weather	-9.79484
▁Christ	-9.79485
known	-9.79567
25	-9.79571
▁harm	-9.79582
▁Port	-9.79682
▁River	-9.79684
▁McC	-9.79693
▁ocean	-9.79707
▁destroy	-9.79789
	-9.79871
▁method	-9.79872
▁increased	-9.80088
▁gold	-9.80171
▁multiple	-9.80221
र	-9.80282
▁surprise	-9.80282
▁judge	-9.80283
▁2016	-9.80301
duct	-9.80389
▁foot	-9.80418
▁م	-9.80509
▁Win	-9.80631
▁appeared	-9.8065
▁Donald	-9.80697
▁tea	-9.80726
Z	-9.80731
▁fine	-9.80733
▁investigation	-9.8086
▁primary	-9.80943
▁developed	-9.81015
▁border	-9.81028
▁engage	-9.81194
▁27	-9.81418
▁Department	-9.81526
▁feet	-9.81738
▁medical	-9.81792
▁direction	-9.81837
ы	-9.81944
▁benefit	-9.81944
▁essential	-9.81944
▁reply	-9.82036
LE	-9.82067
▁studio	-9.82112
▁metal	-9.82145
▁increasing	-9.82195
▁glass	-9.82197
position	-9.82246
▁Over	-9.82344
rant	-9.82358
▁education	-9.82439
▁seat	-9.82487
▁bag	-9.82508
▁sitting	-9.82671
ette	-9.82686
▁chemical	-9.82701
▁bomb	-9.82727
▁candidate	-9.82785
▁categories	-9.82785
▁suit	-9.82899
▁addition	-9.82941
▁Hill	-9.83009
▁Mil	-9.83021
▁anyone	-9.83053
If	-9.83116
▁incident	-9.83124
▁Police	-9.8321
▁Africa	-9.83261
▁Most	-9.83359
▁activity	-9.83465
▁round	-9.83527
▁fly	-9.83577
▁depend	-9.8364
▁prepare	-9.83795
▁Texas	-9.83805
▁standing	-9.83887
▁purpose	-9.83889
▁Mill	-9.8399
!"	-9.84075
▁League	-9.84146
▁served	-9.84251
▁announced	-9.8431
▁2009	-9.84318
aught	-9.84345
▁particularly	-9.84355
▁chair	-9.84434
▁Union	-9.84522
▁syn	-9.84549
▁contribute	-9.84575
aries	-9.84626
▁Available	-9.84661
▁otherwise	-9.84662
▁lose	-9.84699
▁brain	-9.84799
▁policy	-9.84835
▁Ham	-9.84952
▁holding	-9.85068
▁Scott	-9.8518
▁Once	-9.85243
▁coast	-9.85387
▁mountain	-9.85439
▁valid	-9.85447
▁Louis	-9.85449
▁carbon	-9.85529
▁unique	-9.85613
▁settle	-9.85658
▁Water	-9.85661
▁2006	-9.857
▁reaction	-9.85966
load	-9.86008
▁request	-9.8605
III	-9.86067
range	-9.86116
▁driver	-9.86194
்	-9.86223
▁educational	-9.86232
There	-9.86358
serve	-9.86413
▁coach	-9.86419
▁fix	-9.86461
▁Far	-9.86533
▁God	-9.8657
▁activities	-9.86574
▁Center	-9.86764
▁decrease	-9.86837
▁crash	-9.86839
▁machine	-9.86926
▁28	-9.87135
▁PersonX	-9.87195
▁prefer	-9.8729
ension	-9.87308
▁Bob	-9.87323
▁treatment	-9.87378
▁International	-9.87455
▁Mike	-9.87506
▁appropriate	-9.87544
▁larger	-9.87639
▁camera	-9.87641
▁Will	-9.87702
▁appearance	-9.87716
▁Make	-9.8773
▁pet	-9.87751
▁egg	-9.87769
▁except	-9.8781
direct	-9.87974
▁dinner	-9.88078
▁Possible	-9.88166
▁reflect	-9.88166
▁atmosphere	-9.88255
▁technology	-9.88255
▁length	-9.88255
▁normal	-9.88256
▁hour	-9.88307
क	-9.88344
▁chief	-9.88435
▁Hall	-9.88491
point	-9.88599
▁musical	-9.88647
▁solve	-9.88711
▁additional	-9.88776
▁plane	-9.88827
▁safety	-9.88851
▁rich	-9.88876
▁Problem	-9.88881
49	-9.88988
&	-9.89049
89	-9.89069
▁connection	-9.89079
▁Britain	-9.89152
▁tele	-9.89203
▁network	-9.89242
▁typically	-9.89359
▁science	-9.89423
า	-9.89605
▁companies	-9.89784
▁crowd	-9.89786
▁guide	-9.89787
▁emotion	-9.90039
▁fourth	-9.90053
▁Germany	-9.90063
▁pretty	-9.90149
▁extract	-9.90197
▁repeat	-9.90234
▁university	-9.90238
Yes	-9.90365
▁federal	-9.90512
▁Head	-9.90521
▁wish	-9.90586
▁nature	-9.90594
▁strength	-9.90603
▁bought	-9.90604
char	-9.90772
▁drop	-9.90791
▁2007	-9.90969
33	-9.90977
▁Both	-9.90997
▁expert	-9.91063
▁recover	-9.91175
▁dry	-9.91181
▁ready	-9.91208
▁ban	-9.91333
▁Even	-9.9136
▁standard	-9.91567
▁currently	-9.91592
▁display	-9.91614
▁Russia	-9.91648
▁traditional	-9.91688
▁exercise	-9.91798
▁herself	-9.91798
▁decade	-9.91899
▁marriage	-9.92076
▁Record	-9.92261
▁gift	-9.92264
▁protest	-9.92272
▁Angeles	-9.9231
▁kept	-9.92358
▁Sun	-9.92424
ç	-9.9254
▁African	-9.92669
▁thank	-9.92682
▁Str	-9.92719
▁Island	-9.92721
▁newspaper	-9.92727
▁Every	-9.92732
word	-9.92737
▁vehicle	-9.9282
▁despite	-9.92914
14	-9.92962
▁climate	-9.93101
ternal	-9.93138
▁yourself	-9.93195
▁hunt	-9.93226
▁Charles	-9.93407
▁families	-9.93476
▁extreme	-9.9357
▁Japan	-9.93666
ા	-9.93758
▁launch	-9.93759
▁holder	-9.93828
▁Matt	-9.93845
▁Use	-9.93935
▁identify	-9.93947
85	-9.94071
▁counter	-9.94132
▁Because	-9.94136
▁Thomas	-9.94137
▁convey	-9.94141
▁debut	-9.94211
▁drama	-9.94289
▁purchase	-9.94326
▁suspect	-9.94326
▁fair	-9.94338
▁behavior	-9.94421
▁centre	-9.94443
▁active	-9.94586
े	-9.94611
▁stick	-9.94763
▁flight	-9.94821
▁acid	-9.94877
▁opinion	-9.94897
48	-9.94961
13	-9.95075
ش	-9.95087
▁Facebook	-9.95087
▁Sarah	-9.9528
▁fresh	-9.95283
▁Court	-9.95293
▁ride	-9.95298
▁Street	-9.95473
▁replaced	-9.95678
▁garden	-9.96049
▁peace	-9.96183
▁Democrat	-9.9622
▁items	-9.96262
16	-9.9638
17	-9.96388
▁male	-9.96428
▁established	-9.96434
▁Kar	-9.96773
▁stories	-9.96825
▁nuclear	-9.9692
▁heavy	-9.96924
▁central	-9.97018
▁Press	-9.97044
▁flu	-9.97152
്	-9.97408
▁decline	-9.9741
▁infect	-9.97507
▁flat	-9.97523
▁foreign	-9.97612
▁resident	-9.978
▁defend	-9.97857
▁driving	-9.97898
▁General	-9.97997
34	-9.98009
mail	-9.98156
▁hundred	-9.98292
OPTIONS	-9.9839
▁champion	-9.9839
▁lawyer	-9.98406
▁cancer	-9.98433
▁Determine	-9.98489
▁Senate	-9.98592
▁Meanwhile	-9.98687
▁explanation	-9.98687
ridge	-9.98794
▁prove	-9.98805
93	-9.98851
▁pat	-9.98925
37	-9.98965
▁weak	-9.98999
▁Therefore	-9.99085
▁nearby	-9.99097
▁weapon	-9.99184
▁wild	-9.99204
▁double	-9.99286
▁workers	-9.99319
▁gone	-9.99409
▁invite	-9.99578
▁equation	-9.99583
▁planet	-9.99596
▁cup	-9.99648
▁spread	-10.0009
▁prior	-10.0019
▁army	-10.002
▁verb	-10.0027
▁struggle	-10.0028
▁executive	-10.0049
▁neighbor	-10.0068
▁Harry	-10.0069
▁credit	-10.0069
▁govern	-10.0081
▁strange	-10.0088
▁vocal	-10.0099
▁Jeff	-10.0107
▁concert	-10.0109
▁Rock	-10.0111
▁progress	-10.0119
▁Internet	-10.012
▁Canada	-10.012
87	-10.0127
▁replace	-10.0128
▁studied	-10.013
▁detailed	-10.013
ologist	-10.0144
▁poll	-10.0147
▁Chicago	-10.015
▁Czech	-10.015
▁generally	-10.0157
▁laugh	-10.017
83	-10.0177
▁Well	-10.0179
ь	-10.0181
ст	-10.0194
▁defeat	-10.0195
cular	-10.0201
▁thousand	-10.0201
▁setting	-10.0202
▁Miss	-10.0208
27	-10.022
▁Google	-10.0222
▁logical	-10.0225
▁huge	-10.0232
38	-10.0238
#	-10.0241
▁TD	-10.0246
▁fell	-10.0258
▁Turkish	-10.0263
▁citizen	-10.0263
▁Congress	-10.0263
▁emotional	-10.0265
36	-10.0269
▁exchange	-10.0283
▁suppose	-10.0314
▁completely	-10.0321
з	-10.0325
▁firm	-10.0325
▁Martin	-10.0337
▁rank	-10.0337
▁comfort	-10.0346
▁Democratic	-10.0379
▁encourage	-10.0387
▁Stan	-10.0391
55	-10.0394
gram	-10.0406
shire	-10.0407
▁degree	-10.0419
ography	-10.0425
▁continu	-10.0429
72	-10.0435
▁instruct	-10.044
68	-10.0447
▁shape	-10.0452
western	-10.046
▁wound	-10.0461
titude	-10.0468
▁Jackson	-10.0469
▁promise	-10.0472
42	-10.0472
64	-10.0474
▁hum	-10.0475
▁district	-10.0481
▁boat	-10.0483
▁combine	-10.0506
▁dioxide	-10.0524
▁Shi	-10.054
47	-10.0544
44	-10.056
▁easily	-10.0566
▁proposal	-10.0566
▁chart	-10.0569
63	-10.057
া	-10.0577
▁fuel	-10.0577
▁Kim	-10.0585
▁admit	-10.0588
▁Wood	-10.0588
77	-10.059
▁conflict	-10.0598
78	-10.0606
▁photograph	-10.061
▁authorities	-10.0612
▁yards	-10.0619
▁hurt	-10.062
▁bike	-10.0622
▁Tim	-10.0635
88	-10.0642
▁relevant	-10.0651
▁truck	-10.0651
▁Despite	-10.0662
▁caught	-10.0673
▁stress	-10.0685
▁nine	-10.0694
▁description	-10.0705
▁Solution	-10.0727
▁criminal	-10.0737
▁instrument	-10.0748
maker	-10.0749
▁origin	-10.0758
▁2000	-10.0758
▁Army	-10.0759
▁Queen	-10.0759
▁extend	-10.076
▁sort	-10.0764
▁experiment	-10.077
▁trouble	-10.077
▁Adam	-10.0774
▁recognize	-10.0803
▁Dar	-10.0807
▁Nick	-10.0807
▁producer	-10.081
▁desire	-10.0818
▁wedding	-10.0824
▁paid	-10.0827
▁adopt	-10.0837
▁Super	-10.085
count	-10.0857
▁collection	-10.0876
▁becoming	-10.088
82	-10.0885
▁journal	-10.089
▁magazine	-10.089
▁encounter	-10.089
▁kid	-10.0896
▁scar	-10.0899
▁survive	-10.0901
▁ski	-10.0923
▁administration	-10.0934
▁mental	-10.0942
based	-10.0942
▁2004	-10.0945
▁divide	-10.0945
stein	-10.0954
ز	-10.0956
▁adapt	-10.0956
▁breath	-10.0957
▁advance	-10.0967
▁cities	-10.0973
б	-10.0978
▁Summarize	-10.0978
▁society	-10.0978
86	-10.0989
▁competition	-10.1011
▁Science	-10.1022
▁agreement	-10.1024
▁2017	-10.1025
▁favorite	-10.1034
▁hang	-10.104
case	-10.1053
▁Before	-10.1056
500	-10.1062
▁habit	-10.1073
▁consume	-10.1077
▁Olympic	-10.1089
eq	-10.109
▁weekend	-10.1091
ان	-10.1109
▁stock	-10.1123
▁fruit	-10.1124
▁Prince	-10.1134
▁Jones	-10.1138
▁Fact	-10.1139
▁2005	-10.1145
▁debate	-10.1149
▁reasonable	-10.1156
▁etc	-10.1156
▁episode	-10.1157
▁estimate	-10.1157
▁detect	-10.1163
66	-10.1174
▁responsible	-10.1191
▁convince	-10.1191
▁distance	-10.1191
▁crew	-10.1216
41	-10.1216
▁straight	-10.1225
▁spirit	-10.1225
▁pool	-10.1225
43	-10.1234
▁Edward	-10.1236
▁Syria	-10.1248
▁Christmas	-10.1259
bound	-10.1275
▁violence	-10.1281
▁Islam	-10.1282
▁path	-10.1288
▁OK	-10.1289
▁complain	-10.1294
▁Office	-10.1304
▁constant	-10.1305
46	-10.1312
▁clothes	-10.1316
▁winter	-10.1317
▁girlfriend	-10.1318
▁gang	-10.1338
▁rescue	-10.1342
▁commercial	-10.1362
▁promote	-10.1364
prov	-10.137
ي	-10.1373
▁passenger	-10.1373
▁Church	-10.1373
▁stopped	-10.1377
▁Good	-10.1382
▁Service	-10.1396
▁Minister	-10.1396
69	-10.1412
г	-10.1419
59	-10.1454
▁guard	-10.1454
67	-10.1472
what	-10.1474
▁dialogue	-10.1477
▁pack	-10.1482
▁Israel	-10.1524
▁punctuation	-10.1536
▁senior	-10.1547
▁eatType	-10.1571
▁causing	-10.1571
ו	-10.1583
▁frequent	-10.1583
▁exactly	-10.1583
▁majority	-10.1589
▁musician	-10.1592
73	-10.1598
79	-10.1601
▁opportunity	-10.1606
▁Daniel	-10.1606
י	-10.1642
▁journey	-10.1642
▁Clinton	-10.1642
▁string	-10.1663
▁lake	-10.1663
▁convert	-10.1667
▁expand	-10.1677
▁climb	-10.1677
▁Twitter	-10.1689
น	-10.1689
52	-10.169
▁basic	-10.1696
▁Another	-10.1701
▁creating	-10.1701
▁math	-10.1704
▁specifically	-10.1733
▁section	-10.1743
▁scale	-10.1758
▁Char	-10.1771
▁religious	-10.1796
57	-10.1806
▁Henry	-10.181
76	-10.1815
▁blow	-10.1823
▁guest	-10.1834
▁transfer	-10.1837
attribute	-10.1857
▁schedule	-10.1869
▁birthday	-10.1873
▁economy	-10.1881
▁department	-10.1881
▁talent	-10.1882
▁bottom	-10.1893
▁College	-10.1905
▁witness	-10.1905
▁apparent	-10.1917
▁property	-10.1925
▁latest	-10.1929
▁digit	-10.193
▁strike	-10.1932
▁trust	-10.1942
▁annual	-10.1942
▁Image	-10.1945
▁argue	-10.1946
▁corner	-10.1949
▁powerful	-10.1975
র	-10.1978
▁Greek	-10.1978
▁Process	-10.1978
81	-10.1979
onym	-10.1988
▁Finnish	-10.1991
▁providing	-10.2003
▁truth	-10.2003
▁Royal	-10.2029
▁Option	-10.2033
▁conference	-10.204
▁researchers	-10.2043
▁entertain	-10.2064
▁Follow	-10.2077
▁Florida	-10.2089
▁winning	-10.2098
▁muscle	-10.2102
▁arrange	-10.2102
▁sky	-10.2111
ে	-10.2114
▁Canadian	-10.2114
▁symbol	-10.2114
▁root	-10.212
▁actress	-10.2139
eau	-10.215
▁ticket	-10.2151
71	-10.217
▁Suggest	-10.2176
▁aware	-10.2193
▁Mexico	-10.2201
▁occasion	-10.2201
▁traffic	-10.2201
▁Thank	-10.2214
▁mistake	-10.2226
▁Blue	-10.2227
▁colon	-10.2228
▁belief	-10.2239
▁whi	-10.2242
▁resources	-10.2264
volving	-10.2264
▁drum	-10.2264
▁Trans	-10.2271
▁shock	-10.2289
▁Music	-10.2302
How	-10.2304
▁Greg	-10.2307
▁quote	-10.2319
friend	-10.2331
▁lunch	-10.2331
▁construction	-10.2335
ف	-10.2339
▁advice	-10.234
▁assistant	-10.234
▁sugar	-10.2347
▁taste	-10.2351
▁application	-10.2352
▁Romanian	-10.2362
▁flee	-10.2397
▁shoe	-10.2411
▁Person	-10.2415
▁iron	-10.2416
▁carried	-10.243
▁Egypt	-10.2441
▁BBC	-10.2455
▁presence	-10.2469
▁milk	-10.2545
▁balance	-10.2545
▁smile	-10.2546
▁storm	-10.2547
Tech	-10.2553
▁league	-10.2557
▁Western	-10.2558
▁micro	-10.2571
▁Apple	-10.2571
▁wealth	-10.2572
▁holiday	-10.2583
▁attorney	-10.2583
▁identified	-10.2597
▁Middle	-10.2598
style	-10.2598
84	-10.26
▁twice	-10.2609
▁status	-10.261
▁Definition	-10.2622
▁2001	-10.2636
▁Summary	-10.2649
56	-10.265
▁Saint	-10.2659
▁analysis	-10.2662
▁afternoon	-10.2662
▁confront	-10.2675
▁Iraq	-10.2688
▁intended	-10.2688
▁zone	-10.2689
▁1980	-10.27
▁architect	-10.2701
▁minister	-10.2701
▁presidential	-10.2707
▁cultural	-10.2714
▁exhibit	-10.2714
▁steal	-10.2717
ра	-10.2718
▁cheap	-10.2722
▁Also	-10.2723
▁perturbation	-10.2727
53	-10.2733
й	-10.2741
▁===	-10.2741
▁alleged	-10.2741
▁Information	-10.2741
▁transport	-10.2748
▁reference	-10.2752
▁consciousness	-10.2754
▁virus	-10.2756
▁plate	-10.2756
▁myself	-10.2767
▁Plan	-10.2769
▁surrounding	-10.278
▁shift	-10.278
▁genre	-10.2783
▁Instead	-10.2794
▁disappear	-10.2807
▁priceRange	-10.2807
▁studies	-10.2807
но	-10.2812
▁alcohol	-10.2833
▁kitchen	-10.2833
▁Taylor	-10.2833
craft	-10.2834
▁1970	-10.2842
▁Kingdom	-10.2847
▁advantage	-10.286
▁Game	-10.2864
}	-10.2887
▁Ryan	-10.2888
▁honor	-10.2888
на	-10.2891
book	-10.2899
{	-10.29
▁beyond	-10.29
ibility	-10.2914
ни	-10.2918
▁classify	-10.2934
▁Group	-10.2941
▁relative	-10.295
▁secure	-10.2955
▁update	-10.2972
▁emerge	-10.2972
▁communication	-10.2981
▁appeal	-10.2982
▁dangerous	-10.2984
▁Italy	-10.299
When	-10.2994
▁proposed	-10.2995
▁southern	-10.2995
▁integer	-10.2996
ع	-10.3022
▁Philip	-10.3035
▁agency	-10.3036
▁quiet	-10.3036
ि	-10.3049
▁obtain	-10.3049
▁numerous	-10.3063
▁shut	-10.3068
ร	-10.3076
▁daily	-10.3077
▁carefully	-10.3079
▁depict	-10.3091
▁alternative	-10.3131
▁victory	-10.3158
▁absolute	-10.3172
▁possibly	-10.3186
▁subsequent	-10.3186
▁earth	-10.3188
▁importance	-10.32
▁Jordan	-10.3214
▁Extract	-10.3216
▁Earl	-10.3226
त	-10.3255
▁2002	-10.3255
▁fellow	-10.326
▁airport	-10.3268
ч	-10.3269
▁Grand	-10.3275
▁memory	-10.3283
▁severe	-10.3294
▁Year	-10.3297
▁affair	-10.3311
▁ancient	-10.3311
▁pilot	-10.3312
स	-10.3325
Two	-10.3334
न	-10.3339
▁angry	-10.3342
▁suitable	-10.335
▁possess	-10.3353
▁session	-10.3354
▁biggest	-10.3367
▁correspond	-10.3381
▁explore	-10.3381
▁variety	-10.3395
51	-10.3409
▁basketball	-10.3409
▁boyfriend	-10.3411
▁bridge	-10.3419
▁accused	-10.3452
▁Central	-10.3466
▁investigate	-10.3466
▁Muslim	-10.348
▁lungs	-10.3481
▁Republic	-10.3493
▁Council	-10.3509
▁Chief	-10.3523
▁install	-10.3526
▁brand	-10.3533
▁bottle	-10.3533
▁northern	-10.3538
▁celebrate	-10.3551
▁sweet	-10.3552
▁fiction	-10.3558
▁stuff	-10.3566
▁division	-10.3573
▁assume	-10.358
▁worse	-10.3595
▁advise	-10.361
ddle	-10.3623
▁empty	-10.3624
▁shopping	-10.3624
▁fashion	-10.3638
▁rival	-10.3639
ה	-10.3652
▁Elizabeth	-10.3667
▁defense	-10.367
▁planning	-10.3678
▁knock	-10.3681
▁în	-10.3696
▁predict	-10.3698
▁native	-10.37
▁grant	-10.37
▁component	-10.371
which	-10.3711
58	-10.3727
▁observe	-10.3741
▁pronoun	-10.3754
▁Consider	-10.3754
▁(2).	-10.3784
▁prompt	-10.3785
▁generation	-10.3802
▁abuse	-10.3802
▁Harris	-10.3811
▁finger	-10.3825
▁Return	-10.3827
▁grew	-10.383
▁distinct	-10.3843
▁planned	-10.3844
▁Hollywood	-10.3857
▁broad	-10.3857
▁preserv	-10.3871
▁dirt	-10.3874
▁FBI	-10.3886
ault	-10.3887
▁announce	-10.3888
▁solid	-10.3891
▁2003	-10.3901
▁Free	-10.3903
▁package	-10.3908
▁analyze	-10.3916
▁client	-10.3924
▁expensive	-10.3931
▁branch	-10.3934
▁Angel	-10.3963
▁proceed	-10.4007
▁aircraft	-10.4008
▁Airport	-10.401
▁referred	-10.4018
ğ	-10.402
▁primarily	-10.402
▁Though	-10.4026
$	-10.4041
ographic	-10.4047
▁magic	-10.4058
▁religion	-10.4066
▁edge	-10.4079
▁Virginia	-10.4081
▁platform	-10.4081
▁easier	-10.4081
▁Association	-10.4096
▁accomplish	-10.4096
▁participant	-10.4096
▁Empire	-10.4111
▁Ocean	-10.4111
`	-10.4126
▁Continue	-10.4141
▁square	-10.4141
▁Build	-10.4142
▁ignor	-10.4155
▁illegal	-10.4156
▁bacteria	-10.4156
▁psycho	-10.4162
à	-10.4172
▁Count	-10.4172
▁intention	-10.4187
▁Francisco	-10.4191
▁technique	-10.4202
▁thus	-10.4209
▁particles	-10.4217
▁Health	-10.4219
▁Spain	-10.4242
▁strip	-10.4247
▁Joseph	-10.4248
ं	-10.4279
▁Polish	-10.4279
°	-10.431
▁Committee	-10.431
▁blank	-10.4325
▁facing	-10.4326
▁earthquake	-10.4341
▁scientific	-10.4341
▁remind	-10.435
य	-10.4372
▁Research	-10.4372
awn	-10.4378
▁Scotland	-10.4387
▁familyFriendly	-10.4403
▁smart	-10.4419
▁desert	-10.442
ق	-10.4434
ी	-10.4434
▁filter	-10.445
▁troops	-10.445
▁assault	-10.4451
▁suicide	-10.4481
▁Sports	-10.4485
▁opt	-10.4488
▁protein	-10.4497
▁composer	-10.4497
▁neighborhood	-10.4498
▁Commission	-10.4502
answerable	-10.4544
▁colleague	-10.4544
▁identity	-10.4544
▁Business	-10.456
▁emergency	-10.456
▁Product	-10.4579
▁Old	-10.4581
▁museum	-10.4592
▁transform	-10.4595
▁yellow	-10.4607
5,000	-10.4635
▁bowl	-10.4642
▁Institute	-10.4655
▁sample	-10.4656
▁PersonY	-10.4657
▁acknowledg	-10.4671
▁collaborat	-10.4671
▁software	-10.4687
▁crucial	-10.4687
▁substance	-10.4687
▁danger	-10.4701
▁OPT	-10.4703
▁Direct	-10.4706
▁pattern	-10.472
▁District	-10.4736
▁graduate	-10.4736
▁bodies	-10.4736
▁dropped	-10.4738
▁urge	-10.4762
▁crisis	-10.4768
▁contrast	-10.4784
▁failure	-10.479
▁worst	-10.4801
ро	-10.4823
▁doubt	-10.485
▁pollution	-10.485
▁portray	-10.4865
▁smoke	-10.4882
▁publish	-10.4896
▁nurse	-10.4915
▁Three	-10.4915
▁implies	-10.4931
▁Creat	-10.4932
▁sequence	-10.4947
▁Second	-10.4947
▁prime	-10.4952
Ã	-10.4964
▁politician	-10.4964
▁absorb	-10.4964
▁province	-10.4964
▁consequence	-10.498
▁welcome	-10.498
break	-10.4986
related	-10.5019
▁perhaps	-10.503
▁cycle	-10.503
▁demonstrate	-10.5063
▁Ireland	-10.5064
▁thick	-10.5065
▁visual	-10.5081
That	-10.5086
▁obvious	-10.513
▁committee	-10.513
▁Soviet	-10.5147
▁Secretary	-10.5197
▁broadcast	-10.5197
conscious	-10.5197
▁slightly	-10.5214
▁injured	-10.5214
▁Larry	-10.5215
▁interpret	-10.5231
▁[-]	-10.5231
্	-10.5248
ж	-10.5248
▁relax	-10.5248
è	-10.5265
▁frame	-10.5273
ก	-10.5282
▁describing	-10.5299
▁professor	-10.5299
▁serving	-10.5299
▁execute	-10.5299
▁equipment	-10.5316
▁Manchester	-10.5333
▁fossil	-10.5333
่	-10.5333
▁supply	-10.535
گ	-10.5368
▁examine	-10.5368
▁giant	-10.5369
▁wire	-10.5381
▁ingredient	-10.5385
▁baseball	-10.5385
▁tradition	-10.5405
▁Susan	-10.5411
▁monitor	-10.5419
ર	-10.5436
▁refused	-10.5454
▁budget	-10.5454
ি	-10.5471
ે	-10.5471
▁Additionally	-10.5471
True	-10.5487
▁electronic	-10.5541
▁switch	-10.5541
▁mysterious	-10.5558
▁retain	-10.556
▁worldwide	-10.5593
▁Alexander	-10.5611
▁smell	-10.5611
▁Through	-10.5628
▁chicken	-10.5628
▁saving	-10.5629
の	-10.5663
▁respectively	-10.5664
▁changing	-10.5664
▁compete	-10.5679
▁sediment	-10.5681
▁liquid	-10.5699
▁domestic	-10.5717
▁insurance	-10.5735
▁spokesman	-10.5753
▁continent	-10.5788
▁wheel	-10.5788
▁survey	-10.5788
▁Academy	-10.5806
▁prominent	-10.5806
▁construct	-10.5812
▁Clark	-10.5813
▁Beijing	-10.5824
▁soccer	-10.5824
х	-10.5842
ह	-10.5842
▁Brazil	-10.5842
putting	-10.5856
ح	-10.586
▁excess	-10.5861
▁restrict	-10.5882
▁succeed	-10.5896
▁injuries	-10.5896
▁Charlie	-10.5915
▁Carolina	-10.5933
▁kiss	-10.5957
▁cloud	-10.5987
▁attach	-10.599
▁narrator	-10.6005
▁plastic	-10.6005
▁orchestra	-10.6024
▁trigger	-10.6024
▁scholar	-10.6042
▁editor	-10.6042
▁faith	-10.6042
▁Amazon	-10.6079
▁intelligence	-10.6079
▁territory	-10.6079
▁violent	-10.6079
▁injury	-10.6079
▁Pacific	-10.6116
▁preceding	-10.6134
▁Museum	-10.6134
▁compound	-10.6134
▁struck	-10.6135
▁Persian	-10.6136
▁Catholic	-10.6153
▁amazing	-10.6153
▁medicine	-10.6172
▁Hebrew	-10.619
▁brown	-10.6191
▁Analyze	-10.6227
▁appreciate	-10.6227
▁participate	-10.6227
Getty	-10.6241
▁swimming	-10.6246
▁twin	-10.6247
▁Company	-10.6265
▁blame	-10.6266
▁sharp	-10.6268
▁estate	-10.6268
view	-10.6269
▁pursue	-10.6284
▁Cameron	-10.6284
▁rationale	-10.6303
▁molecule	-10.6321
John	-10.6328
خ	-10.634
▁volume	-10.6359
▁excited	-10.6378
▁folk	-10.6378
American	-10.6385
▁Francis	-10.6392
▁combination	-10.6397
▁bathroom	-10.6416
▁stood	-10.6417
▁afford	-10.6417
▁false	-10.6417
▁piano	-10.6417
▁confident	-10.6435
▁contest	-10.6437
▁revolution	-10.6455
nsufficient	-10.6474
▁Sydney	-10.6474
▁policies	-10.6474
▁premier	-10.6474
ி	-10.6493
▁draft	-10.6493
▁Eagle	-10.6493
▁volunteer	-10.6512
▁Produce	-10.6512
▁Plot	-10.6514
▁Pakistan	-10.6551
▁Understand	-10.6551
க	-10.6551
▁Multi	-10.6551
▁academic	-10.6589
▁pregnant	-10.6589
▁Arthur	-10.659
▁divorce	-10.6628
▁Navy	-10.6629
ě	-10.6648
म	-10.6648
▁error	-10.6648
▁collapse	-10.6667
▁Houston	-10.6667
▁swim	-10.6668
▁calm	-10.6672
ल	-10.6687
▁smooth	-10.6687
▁Short	-10.6687
▁manufacture	-10.6707
▁properties	-10.6707
▁Dutch	-10.6707
▁euro	-10.6712
▁Football	-10.6726
ง	-10.6726
▁Northern	-10.6727
ț	-10.6746
▁Matthew	-10.6746
▁imagine	-10.6746
▁Irish	-10.6748
▁dismiss	-10.6766
mount	-10.6778
▁strategy	-10.6785
▁freedom	-10.6786
▁Upon	-10.6787
▁drag	-10.6792
▁urban	-10.6805
▁hidden	-10.6805
▁Club	-10.6806
▁mobile	-10.6825
ு	-10.6845
▁assassin	-10.6845
▁romantic	-10.6845
▁inspired	-10.6865
้	-10.6865
▁corrupt	-10.6885
▁politics	-10.6905
▁scream	-10.6925
▁crop	-10.6927
▁library	-10.6945
▁worry	-10.6945
▁NOT	-10.6965
▁dozen	-10.6966
▁unusual	-10.7005
▁silver	-10.7006
▁elderly	-10.7026
▁paraphrases	-10.7046
▁recruit	-10.7046
▁Georgia	-10.7066
▁adventure	-10.7066
▁Jewish	-10.7066
▁initiat	-10.707
▁scenario	-10.7087
▁Portuguese	-10.7087
▁illness	-10.7087
claim	-10.7115
ج	-10.7127
▁slip	-10.7158
▁refuge	-10.7168
▁Ohio	-10.7169
ન	-10.721
▁grammatical	-10.721
▁Atlantic	-10.721
த	-10.723
▁clothing	-10.723
▁drunk	-10.723
▁sweat	-10.7231
व	-10.7251
ন	-10.7251
▁Austin	-10.7251
્	-10.7272
▁Philadelphia	-10.7272
▁neither	-10.7272
▁composed	-10.7272
▁Next	-10.7293
ș	-10.7313
ל	-10.7313
،	-10.7313
▁excellent	-10.7313
▁familiar	-10.7313
▁disagree	-10.7313
▁radiation	-10.7313
▁therefore	-10.7314
▁responsibility	-10.7334
▁outdoor	-10.7335
▁kidnap	-10.7336
▁consult	-10.7356
▁mechanic	-10.7376
▁permanent	-10.7376
▁contribution	-10.7397
▁principle	-10.7397
▁worried	-10.7397
▁vacation	-10.7397
▁Work	-10.7403
▁convention	-10.7418
อ	-10.7418
▁punish	-10.7439
▁drove	-10.744
▁receiving	-10.746
▁trend	-10.7461
ി	-10.7482
▁Romney	-10.7482
!!!	-10.7482
▁1992	-10.7482
▁1994	-10.7503
▁Afghanistan	-10.7524
▁extensive	-10.7524
▁nervous	-10.7524
▁flavor	-10.7524
▁beauty	-10.7524
▁GOP	-10.7524
▁approve	-10.7525
▁satisfied	-10.7545
▁DVD	-10.7545
▁association	-10.7567
▁council	-10.7567
▁reputation	-10.7567
เ	-10.7567
▁Vegas	-10.7588
▁stolen	-10.7589
▁stretch	-10.761
▁keywords	-10.761
▁vessel	-10.761
▁Command	-10.7612
ING	-10.7632
▁Pennsylvania	-10.7653
▁circle	-10.7653
False	-10.7671
▁sustain	-10.7674
▁channel	-10.7696
్	-10.7696
▁elaborate	-10.7718
▁offensive	-10.7718
▁priest	-10.7719
▁Security	-10.7739
▁immigrant	-10.7739
▁surgery	-10.7783
▁conservative	-10.7805
▁immigration	-10.7805
▁truly	-10.7805
▁fifth	-10.7827
▁DNA	-10.7849
▁vampire	-10.7871
▁enforcement	-10.7893
▁industrial	-10.7893
▁Jessica	-10.7893
▁brush	-10.7915
▁Avoid	-10.7915
▁Captain	-10.7937
▁cinema	-10.7945
▁opponent	-10.7959
▁descend	-10.7959
▁cousin	-10.796
▁associate	-10.7979
ţ	-10.7982
ю	-10.8026
▁equivalent	-10.8026
▁tournament	-10.8026
▁resistance	-10.8026
▁slave	-10.805
corporate	-10.806
▁assistance	-10.8071
▁ethnic	-10.8094
▁template	-10.8094
▁Hospital	-10.8116
▁heavily	-10.8116
▁routine	-10.8139
▁dispute	-10.8139
▁flood	-10.8139
א	-10.8162
▁summarize	-10.8162
▁Think	-10.8162
▁Jersey	-10.8184
▁landscape	-10.8207
▁Complete	-10.8207
ั	-10.8392
प	-10.8415
ক	-10.8461
ม	-10.8722
ो	-10.877
ਾ	-10.877
、	-10.8892
	-10.8916
ת	-10.899
ന	-10.9014
મ	-10.9039
ñ	-10.9114
מ	-10.9114
آ	-10.9469
ك	-10.9547
ר	-10.9574
ש	-10.9705
ી	-10.9785
য	-11.0083
ક	-11.0083
୍	-11.0083
ā	-11.0138
い	-11.0191
ž	-11.0194
に	-11.0221
ക	-11.0222
ত	-11.0249
پ	-11.0306
ี	-11.0391
ท	-11.0447
ব	-11.0678
	-11.0707
し	-11.0736
©	-11.0766
ત	-11.0855
ં	-11.0855
ର	-11.0974
ว	-11.1096
ਰ	-11.1187
で	-11.1217
ാ	-11.1218
್	-11.1218
ב	-11.1249
ص	-11.1249
は	-11.1309
ു	-11.1311
と	-11.1341
ர	-11.1405
ம	-11.1531
ย	-11.1563
વ	-11.1659
č	-11.1659
た	-11.1724
ř	-11.1756
ப	-11.1789
।	-11.1821
ล	-11.1822
ш	-11.1854
ത	-11.1854
€	-11.1887
ল	-11.1887
ú	-11.192
द	-11.212
ط	-11.212
ম	-11.2154
ా	-11.2222
て	-11.2255
স	-11.2256
ł	-11.2394
š	-11.2394
ి	-11.2533
|	-11.2565
ା	-11.2675
る	-11.2745
。	-11.2778
ட	-11.2783
ா	-11.2783
ര	-11.3038
લ	-11.3112
ิ	-11.3187
ー	-11.3491
ો	-11.3492
ర	-11.3492
נ	-11.3492
ם	-11.3531
ة	-11.3531
ਸ	-11.3531
ะ	-11.3531
Å	-11.3609
ນ	-11.3648
ಿ	-11.3766
પ	-11.3806
ਿ	-11.3846
യ	-11.3886
ý	-11.3927
च	-11.3967
வ	-11.4008
ય	-11.4172
ด	-11.4172
ต	-11.4172
ି	-11.4214
が	-11.4338
أ	-11.4381
ం	-11.4424
າ	-11.4595
ज	-11.4595
ు	-11.4595
な	-11.4766
સ	-11.4769
ੀ	-11.4769
Â	-11.4813
す	-11.4857
を	-11.4857
щ	-11.4858
న	-11.4858
ੇ	-11.4947
ส	-11.4992
়	-11.5037
ల	-11.5037
দ	-11.5082
ป	-11.5173
ು	-11.5219
ា	-11.5219
บ	-11.5219
ค	-11.5358
প	-11.5499
ன	-11.5546
ਨ	-11.5594
ห	-11.5594
િ	-11.5641
ರ	-11.5738
श	-11.5835
•	-11.5884
ф	-11.5884
ọ	-11.5884
ಾ	-11.5884
ע	-11.5933
چ	-11.5933
ु	-11.5933
ग	-11.5983
പ	-11.6033
្	-11.6183
э	-11.6336
ê	-11.6388
^	-11.644
ま	-11.6492
अ	-11.6492
ু	-11.6597
క	-11.6597
ë	-11.665
ട	-11.665
れ	-11.6755
ુ	-11.6756
ß	-11.6756
മ	-11.6756
ข	-11.6757
ã	-11.681
ਕ	-11.681
જ	-11.681
କ	-11.6864
	-11.6919
⁄	-11.6919
ů	-11.6919
ン	-11.6971
ல	-11.7028
ब	-11.7195
ਦ	-11.7195
ਤ	-11.7251
आ	-11.7422
จ	-11.7422
ę	-11.7479
େ	-11.7479
כ	-11.7537
ை	-11.7537
£	-11.7566
ற	-11.7595
É	-11.7595
ದ	-11.7595
ض	-11.7771
ד	-11.7891
ਵ	-11.8012
ய	-11.8073
ช	-11.8073
ण	-11.8134
ذ	-11.8196
ន	-11.8258
	-11.8258
ം	-11.8258
ள	-11.8258
വ	-11.832
́	-11.8383
か	-11.8444
ק	-11.8447
ट	-11.8447
ै	-11.8447
শ	-11.8447
ச	-11.8447
แ	-11.8575
ਲ	-11.8769
మ	-11.8769
“	-11.8889
ತ	-11.8901
ನ	-11.8901
ח	-11.8968
	-11.9035
ہ	-11.9103
ć	-11.9103
В	-11.9103
ध	-11.9103
െ	-11.9103
ନ	-11.9171
ગ	-11.9239
হ	-11.9308
ू	-11.9377
ื	-11.9378
ś	-11.9447
സ	-11.9518
П	-11.9518
ല	-11.9589
ไ	-11.9589
య	-11.966
×	-11.9661
ے	-11.9732
ए	-11.9732
জ	-11.9732
ກ	-11.9805
こ	-11.9805
っ	-11.9877
К	-11.9878
ప	-11.9878
»	-11.9951
ใ	-11.9951
С	-12.0025
ਹ	-12.01
ಕ	-12.01
î	-12.0173
ą	-12.0175
ಲ	-12.0175
ら	-12.025
ז	-12.0251
พ	-12.0251
ೆ	-12.0327
«	-12.0404
త	-12.0404
រ	-12.0481
ˈ	-12.0481
ੰ	-12.0481
ż	-12.0482
গ	-12.056
İ	-12.056
う	-12.0715
່	-12.0718
এ	-12.0718
ಗ	-12.0718
ອ	-12.0798
­	-12.0798
ئ	-12.0798
ସ	-12.0798
	-12.0798
ุ	-12.0798
ટ	-12.0878
り	-12.0958
ប	-12.096
פ	-12.096
غ	-12.096
ث	-12.096
ট	-12.1042
શ	-12.1042
å	-12.1292
‘	-12.6626
थ	-13.1779
ந	-13.178
भ	-13.1781
ष	-13.1782
ц	-13.1783
★	-13.1784
