<unk>	0
<s>	0
</s>	0
.	-2.93539
▁the	-3.48549
,	-3.6065
s	-3.61606
▁to	-3.86173
:	-3.87557
▁a	-4.0485
▁and	-4.12767
▁is	-4.291
'	-4.40761
▁in	-4.46271
▁of	-4.5145
▁The	-4.54777
▁are	-4.72224
▁	-4.76493
▁you	-4.8535
▁I	-4.87654
t	-4.89224
▁"	-5.0819
▁for	-5.17101
▁it	-5.22033
▁was	-5.24551
▁A	-5.35501
▁that	-5.36275
▁he	-5.43512
▁can	-5.44474
▁on	-5.49086
▁have	-5.51091
▁C	-5.52768
ing	-5.53422
▁B	-5.54211
▁D	-5.55554
▁with	-5.59494
▁.	-5.63752
▁his	-5.64374
▁people	-5.64384
▁at	-5.64689
▁question	-5.67025
?	-5.70008
▁possible	-5.70639
▁answers	-5.71491
▁they	-5.72493
▁be	-5.74158
d	-5.79761
m	-5.902
▁He	-5.93464
-	-5.93573
▁your	-5.94481
ed	-5.95315
▁my	-5.9599
▁from	-5.96712
▁her	-5.97948
▁not	-6.00243
▁do	-6.00477
a	-6.00574
▁we	-6.00689
▁_	-6.00851
▁their	-6.01063
▁about	-6.04237
▁very	-6.04308
▁or	-6.04637
▁like	-6.0543
▁will	-6.11237
▁said	-6.12791
▁It	-6.13102
."	-6.13778
e	-6.14237
n	-6.14478
▁them	-6.18199
▁she	-6.18436
y	-6.19044
▁time	-6.19081
▁school	-6.22916
▁but	-6.2308
▁one	-6.235
▁more	-6.25877
▁day	-6.28078
▁all	-6.28999
▁They	-6.30454
r	-6.30667
▁some	-6.30848
▁good	-6.35383
▁when	-6.35426
▁me	-6.36595
▁an	-6.39303
▁there	-6.39419
▁has	-6.40499
▁had	-6.41249
▁so	-6.42929
i	-6.43146
▁him	-6.43242
▁as	-6.45612
▁go	-6.45938
▁up	-6.47552
I	-6.48229
▁She	-6.4951
er	-6.50668
▁But	-6.51315
▁this	-6.5217
▁many	-6.54019
▁get	-6.54076
ly	-6.54348
▁man	-6.54792
▁by	-6.55755
▁were	-6.56768
▁other	-6.59676
▁make	-6.60474
▁know	-6.62233
▁,	-6.64484
▁out	-6.65384
▁see	-6.67558
▁help	-6.68563
▁because	-6.69307
!	-6.69594
,"	-6.69692
▁much	-6.70286
▁also	-6.70832
▁don	-6.70857
▁In	-6.71624
▁what	-6.7169
▁old	-6.73233
▁our	-6.74843
re	-6.75011
"	-6.77042
▁When	-6.77545
p	-6.77877
▁work	-6.80874
▁home	-6.81312
▁things	-6.81969
▁want	-6.82994
▁food	-6.83848
▁We	-6.83868
▁too	-6.84242
▁students	-6.84309
in	-6.84431
▁think	-6.85283
The	-6.85987
▁friends	-6.86195
▁than	-6.86502
▁children	-6.86985
▁take	-6.89225
▁years	-6.90852
▁only	-6.91422
c	-6.91869
▁way	-6.92332
▁English	-6.92718
▁first	-6.92751
?"	-6.93108
A	-6.9327
▁two	-6.93717
▁who	-6.944
▁You	-6.94504
▁us	-6.95392
on	-6.95634
▁life	-6.95873
▁would	-6.96314
u	-6.97067
▁should	-6.98113
▁new	-6.99433
▁If	-6.99632
▁no	-7.00497
▁mother	-7.00537
▁What	-7.00579
▁if	-7.01041
▁world	-7.01557
ll	-7.02679
▁how	-7.03833
▁into	-7.04461
es	-7.04753
al	-7.06426
▁money	-7.06641
o	-7.08072
▁often	-7.09986
▁every	-7.10318
▁find	-7.11075
▁Chinese	-7.11805
▁There	-7.12431
▁went	-7.12519
▁could	-7.14093
an	-7.14179
▁may	-7.14323
▁most	-7.15361
▁parents	-7.16259
le	-7.17512
▁after	-7.17554
▁different	-7.17585
▁water	-7.18114
▁use	-7.18517
▁lot	-7.18613
▁And	-7.19107
▁give	-7.19395
▁big	-7.19885
▁father	-7.19956
the	-7.21578
▁So	-7.21984
▁learn	-7.22412
▁back	-7.22979
▁S	-7.23236
▁did	-7.23429
▁just	-7.24053
▁say	-7.24491
▁boy	-7.24972
▁eat	-7.25026
▁tell	-7.25698
or	-7.25998
▁young	-7.26198
▁need	-7.2738
▁Then	-7.27508
▁asked	-7.28016
▁didn	-7.28605
g	-7.28619
▁important	-7.28643
▁little	-7.29286
▁something	-7.29363
▁family	-7.30225
▁always	-7.30509
▁best	-7.31045
▁teacher	-7.31163
ar	-7.31261
▁says	-7.31855
w	-7.32077
▁This	-7.32622
▁China	-7.32667
▁year	-7.32692
▁made	-7.33089
▁well	-7.33954
▁Mr	-7.34344
▁over	-7.34519
▁hard	-7.34561
it	-7.34824
▁play	-7.34915
▁now	-7.35168
▁car	-7.35832
It	-7.36698
th	-7.37267
▁even	-7.37371
He	-7.37372
▁came	-7.38377
▁look	-7.38612
▁house	-7.39049
b	-7.39084
▁long	-7.39089
▁got	-7.39549
S	-7.40011
▁down	-7.40289
▁then	-7.41063
ve	-7.41126
l	-7.41462
▁put	-7.41715
▁feel	-7.42004
▁before	-7.42148
▁come	-7.42178
▁name	-7.42252
▁small	-7.43049
▁One	-7.43909
▁better	-7.44008
▁same	-7.44659
▁each	-7.45026
▁going	-7.45771
▁My	-7.45818
▁happy	-7.46781
▁live	-7.46836
▁p	-7.47991
▁Some	-7.48918
▁found	-7.49004
▁away	-7.49703
▁read	-7.50038
▁around	-7.50724
▁any	-7.51895
▁again	-7.536
▁morning	-7.54438
▁never	-7.54981
▁passage	-7.55895
▁thought	-7.56158
en	-7.5696
▁love	-7.57565
▁great	-7.57692
▁been	-7.57934
▁friend	-7.58805
he	-7.59407
at	-7.59506
▁buy	-7.60536
▁music	-7.60905
▁last	-7.61024
ers	-7.61733
▁keep	-7.61898
▁these	-7.61998
▁person	-7.62171
▁must	-7.6244
k	-7.62539
▁class	-7.63323
f	-7.63814
▁girl	-7.63986
▁told	-7.64092
▁three	-7.64886
!"	-7.65254
▁right	-7.65402
▁After	-7.65973
▁am	-7.66543
▁P	-7.67706
▁took	-7.68754
▁really	-7.69223
▁usually	-7.69398
▁night	-7.69854
▁others	-7.69915
)	-7.70471
▁talk	-7.70818
▁next	-7.71067
▁place	-7.71495
▁which	-7.72038
▁wanted	-7.72164
▁woman	-7.73027
est	-7.73179
▁doesn	-7.73312
▁books	-7.73896
▁T	-7.74059
▁does	-7.74625
▁few	-7.75268
▁near	-7.75405
▁used	-7.75633
▁still	-7.75643
▁19	-7.76063
▁How	-7.77294
id	-7.77504
and	-7.78018
▁For	-7.78727
▁city	-7.7905
▁kind	-7.79393
▁At	-7.80909
▁beautiful	-7.80913
▁stop	-7.81288
▁animals	-7.81606
▁bad	-7.81622
▁show	-7.81665
▁called	-7.81755
▁room	-7.8198
▁son	-7.82273
to	-7.83842
▁On	-7.83931
ir	-7.8402
st	-7.84194
▁doctor	-7.84669
▁Li	-7.85605
00	-7.857
▁study	-7.85748
▁own	-7.8646
▁(	-7.86768
ch	-7.8699
▁writer	-7.86995
▁3	-7.87292
▁become	-7.87304
▁saw	-7.8745
E	-7.87845
is	-7.88138
h	-7.88182
They	-7.88765
7	-7.89514
▁days	-7.90019
ic	-7.90116
▁book	-7.90193
▁hand	-7.90315
ur	-7.90842
la	-7.9095
▁People	-7.9106
▁words	-7.91222
▁His	-7.9131
C	-7.91325
You	-7.91549
2	-7.91626
am	-7.91701
▁TV	-7.91728
In	-7.9188
We	-7.92028
▁likes	-7.9361
▁part	-7.93758
ion	-7.93846
ie	-7.93996
T	-7.94319
▁c	-7.94388
▁goes	-7.94418
▁call	-7.94577
▁reading	-7.94624
▁Do	-7.9477
▁while	-7.94909
▁left	-7.94999
▁enough	-7.9509
ro	-7.95181
▁looked	-7.95544
▁another	-7.95667
5	-7.95819
▁Which	-7.95911
▁where	-7.95963
▁popular	-7.96178
1	-7.96195
▁following	-7.96368
▁Many	-7.96726
▁Mrs	-7.97407
▁such	-7.98116
3	-7.98301
Because	-7.98766
▁student	-7.98805
▁high	-7.98852
▁F	-7.98888
▁off	-7.9951
▁eyes	-7.99799
▁spend	-7.99915
▁sleep	-7.99918
▁Now	-8.0011
▁nice	-8.00369
▁walk	-8.00464
--	-8.01398
▁enjoy	-8.01771
▁hours	-8.0192
▁try	-8.01997
▁someone	-8.02129
▁together	-8.02192
▁kids	-8.02286
▁four	-8.02372
▁sports	-8.02613
▁computer	-8.02876
▁special	-8.03067
▁week	-8.03485
▁began	-8.03755
▁ask	-8.0386
▁write	-8.03946
▁b	-8.04142
▁New	-8.04145
▁American	-8.0426
ter	-8.04388
She	-8.04392
4	-8.05007
▁country	-8.05435
▁door	-8.05685
▁stay	-8.05946
▁W	-8.06116
se	-8.064
▁bed	-8.06602
▁That	-8.06641
▁bus	-8.06795
▁number	-8.06952
▁story	-8.07056
▁job	-8.07127
▁dog	-8.07405
▁five	-8.0784
▁here	-8.0843
▁example	-8.08488
▁playing	-8.08582
▁clothes	-8.08803
▁f	-8.08892
▁e	-8.08895
▁remember	-8.09058
▁through	-8.0942
lo	-8.09768
▁started	-8.10191
D	-8.10616
el	-8.10755
ne	-8.10996
▁understand	-8.11014
▁face	-8.11744
▁Tom	-8.12085
▁let	-8.12269
▁why	-8.12419
▁thing	-8.12499
▁re	-8.12725
▁1	-8.13082
▁countries	-8.13566
▁care	-8.13646
▁doing	-8.13707
▁famous	-8.13711
▁lunch	-8.13892
▁start	-8.13966
old	-8.14002
▁2	-8.15187
▁shop	-8.15577
z	-8.15632
▁fun	-8.15684
▁change	-8.1576
▁watch	-8.15881
▁travel	-8.15997
▁during	-8.1654
▁minutes	-8.16823
▁red	-8.16855
▁G	-8.16926
▁Jack	-8.17489
▁E	-8.17658
▁short	-8.18003
▁interesting	-8.18276
▁today	-8.18294
▁later	-8.18494
▁team	-8.18672
▁ago	-8.18778
▁child	-8.19078
▁easy	-8.19489
No	-8.19583
▁wife	-8.19835
▁problems	-8.19981
▁pay	-8.20124
▁comes	-8.20151
▁fish	-8.20248
▁gave	-8.20415
".	-8.20567
li	-8.20636
▁air	-8.20673
What	-8.20738
▁became	-8.20764
v	-8.21059
8	-8.21127
▁speak	-8.2178
▁Why	-8.21848
▁visit	-8.21923
6	-8.22163
▁problem	-8.22497
▁park	-8.23005
▁Day	-8.23011
▁age	-8.23092
▁hope	-8.23178
▁quickly	-8.23267
▁true	-8.23363
▁makes	-8.23371
▁lives	-8.23704
▁clean	-8.23894
ang	-8.23903
▁No	-8.23973
▁free	-8.24035
▁To	-8.24213
▁However	-8.24242
▁cold	-8.24243
▁soon	-8.24548
▁without	-8.24939
▁games	-8.24972
▁M	-8.2499
O	-8.25019
▁phone	-8.25032
▁idea	-8.25347
▁couldn	-8.2569
9	-8.258
x	-8.25908
ation	-8.26088
▁open	-8.26145
ate	-8.26187
▁end	-8.26865
ment	-8.2722
▁kinds	-8.28041
ha	-8.28062
▁poor	-8.28395
▁means	-8.2848
▁bring	-8.28647
▁grow	-8.28804
ma	-8.29183
ies	-8.29285
▁wants	-8.29381
▁those	-8.29407
▁its	-8.29615
us	-8.29939
▁evening	-8.30012
▁healthy	-8.30066
▁once	-8.30228
▁half	-8.30686
de	-8.30767
ce	-8.30855
▁sometimes	-8.30947
▁move	-8.3143
▁places	-8.31593
My	-8.31712
il	-8.3179
▁strong	-8.32096
▁sure	-8.32252
▁difficult	-8.32367
When	-8.32582
▁might	-8.32652
▁John	-8.32659
▁afternoon	-8.32839
ol	-8.32912
▁homework	-8.32936
▁birthday	-8.33033
▁black	-8.33226
▁being	-8.33594
▁train	-8.3363
▁drink	-8.33634
ever	-8.33709
un	-8.33724
▁second	-8.33959
▁language	-8.34274
▁under	-8.34353
P	-8.34959
▁eating	-8.35007
But	-8.35137
▁late	-8.35218
L	-8.35549
There	-8.35651
ry	-8.3575
▁sea	-8.35774
▁Internet	-8.35839
▁less	-8.36022
▁body	-8.36118
▁won	-8.36179
How	-8.3624
▁paper	-8.36589
▁head	-8.36691
ke	-8.36986
▁10	-8.37112
▁4	-8.37455
▁Her	-8.3749
▁anything	-8.37507
▁ways	-8.37761
et	-8.38167
▁tree	-8.38167
▁felt	-8.38172
▁sad	-8.38311
one	-8.38881
▁Beijing	-8.38947
▁living	-8.39008
▁between	-8.39009
▁School	-8.39242
▁teachers	-8.39352
te	-8.39684
▁everything	-8.40033
▁J	-8.40165
ent	-8.40252
▁fast	-8.40542
▁summer	-8.40844
▁green	-8.4107
▁Sometimes	-8.41107
M	-8.41147
▁5	-8.41255
▁fact	-8.41278
▁early	-8.41881
▁game	-8.41942
we	-8.42058
▁turn	-8.42251
▁information	-8.4228
▁tea	-8.42703
▁angry	-8.4286
▁trip	-8.43005
▁Peter	-8.43201
▁making	-8.43297
▁heart	-8.43589
▁dinner	-8.4359
N	-8.43961
▁far	-8.4402
▁Green	-8.44237
hi	-8.44261
▁yourself	-8.44356
▁As	-8.44579
▁basketball	-8.44661
▁believe	-8.44767
▁everyone	-8.45008
▁decided	-8.45172
▁both	-8.45201
▁large	-8.45277
▁football	-8.45363
▁main	-8.45365
F	-8.45473
ow	-8.45578
If	-8.4561
▁answer	-8.45751
▁meet	-8.45766
▁six	-8.45923
▁daughter	-8.46112
▁6	-8.46483
▁trees	-8.46871
as	-8.46931
▁times	-8.47444
▁knew	-8.47474
▁garden	-8.47626
year	-8.47688
▁street	-8.4775
▁R	-8.47773
▁front	-8.47779
▁million	-8.47932
▁blue	-8.47991
▁Most	-8.48199
▁hour	-8.48532
▁Mary	-8.48823
To	-8.4893
be	-8.49078
▁able	-8.49247
▁dream	-8.49354
▁hot	-8.49445
▁K	-8.49448
me	-8.49483
▁exercise	-8.49493
▁weather	-8.49515
▁until	-8.49629
▁cars	-8.49883
▁leave	-8.49974
▁hands	-8.49985
man	-8.50083
▁wrong	-8.50099
▁hair	-8.50411
▁rain	-8.50441
ian	-8.50937
(	-8.51144
▁warm	-8.51382
▁nothing	-8.51409
▁All	-8.51741
▁middle	-8.52311
▁course	-8.52471
▁outside	-8.52696
▁listen	-8.52806
▁sister	-8.52964
▁breakfast	-8.53113
▁future	-8.53116
▁London	-8.53167
▁white	-8.53343
▁group	-8.53564
▁America	-8.53809
▁Don	-8.5385
▁Sunday	-8.54128
ting	-8.54233
um	-8.54267
B	-8.54348
▁cities	-8.5442
▁office	-8.54698
▁working	-8.54796
▁shopping	-8.54921
▁light	-8.5495
most	-8.55046
▁busy	-8.55063
▁ever	-8.55096
▁ten	-8.55218
ight	-8.55562
▁vegetables	-8.55698
▁floor	-8.55726
▁rich	-8.55726
▁lost	-8.55727
▁hear	-8.55768
▁run	-8.55782
▁town	-8.5582
▁8	-8.56155
▁sit	-8.56474
▁join	-8.56556
▁Every	-8.56612
H	-8.56696
▁born	-8.56834
▁brother	-8.57006
▁looking	-8.57163
▁fire	-8.57228
,000	-8.57242
▁g	-8.57466
▁tried	-8.57562
▁Ma	-8.57683
▁sun	-8.58366
▁wear	-8.58719
▁un	-8.58727
▁road	-8.59037
▁experience	-8.5911
pe	-8.59206
they	-8.59208
▁farmer	-8.59261
▁getting	-8.5944
▁health	-8.5983
ist	-8.60183
▁table	-8.60303
▁word	-8.60315
▁r	-8.6044
▁cook	-8.60442
ho	-8.60618
Mr	-8.60706
▁send	-8.61109
▁hospital	-8.61514
▁favorite	-8.6169
▁heard	-8.61809
▁tired	-8.61866
▁party	-8.61909
▁baby	-8.62042
▁learning	-8.62216
▁restaurant	-8.62236
▁20	-8.62299
ia	-8.62374
Do	-8.62473
age	-8.62512
▁winter	-8.62587
▁afraid	-8.62749
▁test	-8.62943
▁talking	-8.63023
▁From	-8.63207
▁months	-8.63335
R	-8.63453
▁earth	-8.63659
▁quit	-8.63837
▁himself	-8.64022
▁m	-8.64127
▁walked	-8.64127
▁l	-8.64384
▁space	-8.6454
▁lots	-8.64569
ul	-8.64783
▁girls	-8.65401
▁hurt	-8.6563
▁desk	-8.65631
▁set	-8.65785
ong	-8.65791
▁tall	-8.65866
▁past	-8.66217
▁writing	-8.66363
rs	-8.66469
▁men	-8.66746
▁full	-8.66808
▁cause	-8.66917
▁?	-8.66962
▁hotel	-8.67138
ine	-8.67147
▁color	-8.67236
▁w	-8.67352
▁died	-8.67532
▁stories	-8.67659
ick	-8.68082
▁7	-8.68115
vi	-8.68131
One	-8.68138
▁rest	-8.68376
▁lived	-8.68477
▁smile	-8.68672
▁o	-8.68692
▁stopped	-8.68991
▁choose	-8.69165
▁ball	-8.69194
▁classes	-8.69617
but	-8.69803
▁flowers	-8.70017
▁Here	-8.7005
▁ran	-8.70125
▁holiday	-8.70154
▁Smith	-8.70303
▁bike	-8.70304
ful	-8.70465
▁side	-8.70619
▁worked	-8.70864
▁These	-8.71052
ny	-8.71433
▁12	-8.7166
▁scientists	-8.71708
▁Brown	-8.71717
▁US	-8.72175
ive	-8.722
▁window	-8.72355
you	-8.72608
▁shows	-8.72648
▁farm	-8.7274
ness	-8.72756
po	-8.73307
▁)	-8.73391
all	-8.73593
▁horse	-8.73611
Yes	-8.73811
▁month	-8.74148
▁Be	-8.7415
▁taking	-8.74213
co	-8.7439
▁Your	-8.74617
▁box	-8.74631
▁plants	-8.74749
▁river	-8.74805
▁trouble	-8.75005
▁piece	-8.75187
▁husband	-8.75206
▁Y	-8.75216
▁boys	-8.75282
▁With	-8.75542
▁using	-8.75569
▁wrote	-8.75609
▁having	-8.75609
▁$	-8.75626
▁answered	-8.7616
▁seven	-8.76227
▁bag	-8.76452
▁According	-8.76671
▁Bill	-8.77023
▁eight	-8.77072
▁Saturday	-8.77083
▁White	-8.77275
▁land	-8.77447
This	-8.77653
▁chance	-8.77655
▁co	-8.77681
▁mind	-8.77762
▁N	-8.77845
▁drive	-8.77934
ai	-8.77999
▁looks	-8.78058
▁according	-8.78061
▁order	-8.78073
▁protect	-8.78111
▁cat	-8.78302
▁watching	-8.78379
▁save	-8.78383
▁al	-8.78448
▁gets	-8.78473
▁walking	-8.785
▁15	-8.78648
▁real	-8.78699
W	-8.79247
less	-8.79522
▁teach	-8.79563
nd	-8.79653
▁birds	-8.79669
ast	-8.79683
▁close	-8.80096
▁de	-8.80176
▁surprised	-8.80526
▁happen	-8.80688
able	-8.80874
▁along	-8.81115
▁York	-8.81212
▁happened	-8.81471
▁whole	-8.81495
:30	-8.81947
▁ride	-8.82732
▁expensive	-8.82935
▁station	-8.82957
▁done	-8.82984
▁stand	-8.83013
▁several	-8.83157
▁easily	-8.83588
▁village	-8.83588
▁Black	-8.84104
▁St	-8.84167
▁Jim	-8.84172
▁ice	-8.84228
ty	-8.84454
▁chair	-8.84908
▁opened	-8.84931
ba	-8.85102
▁improve	-8.85167
▁plane	-8.85464
▁asks	-8.85538
▁meat	-8.85543
▁ideas	-8.85706
▁longer	-8.85775
▁18	-8.86004
▁picture	-8.86298
▁Mike	-8.86837
▁forest	-8.86888
▁worried	-8.86922
▁running	-8.86923
mail	-8.8695
▁schools	-8.87067
▁works	-8.87091
▁online	-8.87113
▁snow	-8.87148
sh	-8.87244
▁England	-8.87263
▁meal	-8.87345
▁swimming	-8.87376
▁ground	-8.8738
▁Friday	-8.87431
she	-8.87488
▁Bob	-8.87579
20	-8.87741
time	-8.8785
▁themselves	-8.88058
ard	-8.88127
▁driver	-8.88202
▁mean	-8.88207
▁saying	-8.88235
no	-8.88269
▁probably	-8.88516
ity	-8.88699
▁classroom	-8.88765
▁--	-8.89036
▁history	-8.89209
▁helps	-8.89243
▁fight	-8.8925
▁-	-8.89569
▁dollars	-8.89671
▁safe	-8.89742
▁environment	-8.89904
▁United	-8.9037
▁attention	-8.90605
▁building	-8.90661
▁9	-8.90714
▁pen	-8.91122
▁sell	-8.91228
▁learned	-8.9129
▁result	-8.91311
▁telephone	-8.91311
▁helped	-8.91329
▁behind	-8.91547
▁yellow	-8.91612
▁lessons	-8.91619
ill	-8.91718
for	-8.91763
▁college	-8.91784
▁sign	-8.91804
▁wonderful	-8.92029
▁cut	-8.92041
▁sorry	-8.92087
▁Can	-8.92134
▁business	-8.92239
▁World	-8.9226
▁lose	-8.92262
▁shoes	-8.92271
▁H	-8.92378
▁finish	-8.92479
▁milk	-8.92498
▁else	-8.92499
▁fly	-8.93155
▁pass	-8.9371
Oh	-8.93903
na	-8.94073
ite	-8.94272
▁letter	-8.94297
▁pictures	-8.94372
Some	-8.94576
Our	-8.94641
▁strange	-8.95162
▁Re	-8.95221
▁bought	-8.95415
▁trying	-8.95423
▁cool	-8.95438
People	-8.95551
if	-8.95597
▁interested	-8.956
▁feeling	-8.95772
▁thinks	-8.95861
▁title	-8.95901
▁orange	-8.95906
ber	-8.9602
▁Mo	-8.96108
▁activities	-8.96148
▁alone	-8.96182
▁Where	-8.96219
ca	-8.96224
▁quiet	-8.96252
▁least	-8.96412
▁traffic	-8.96646
j	-8.96804
▁coming	-8.96976
▁thank	-8.9704
G	-8.97092
up	-8.97191
▁computers	-8.97385
▁dance	-8.97397
▁Today	-8.97441
▁spent	-8.97665
On	-8.97754
▁fall	-8.97832
▁dark	-8.97898
▁200	-8.97991
▁begin	-8.98042
▁fruit	-8.98113
▁catch	-8.98196
▁science	-8.98199
ping	-8.98719
▁liked	-8.9912
An	-8.99144
▁build	-8.99348
op	-8.99418
▁program	-8.99608
▁dogs	-8.99665
▁families	-8.99679
▁mobile	-8.99724
0	-8.9975
▁culture	-8.99936
▁matter	-8.99936
▁hit	-8.99949
▁Wang	-9.00003
▁store	-9.00147
▁dress	-9.00195
50	-9.00439
▁swim	-9.00452
▁cost	-9.00527
▁forget	-9.00616
Why	-9.00647
▁top	-9.00663
▁mouth	-9.00786
▁needed	-9.0087
▁sitting	-9.01007
▁touch	-9.01549
▁ch	-9.01552
▁thousand	-9.01755
▁carefully	-9.02107
▁st	-9.02122
▁coffee	-9.0228
▁worry	-9.0228
▁sat	-9.02377
▁Christmas	-9.02544
▁government	-9.02544
ish	-9.0274
com	-9.03027
▁plan	-9.03284
▁movie	-9.03635
▁owner	-9.03853
▁soccer	-9.03874
▁cup	-9.03913
▁11	-9.03956
▁sound	-9.03972
ling	-9.0401
▁sing	-9.0407
▁newspaper	-9.0419
king	-9.04237
▁met	-9.04249
▁dangerous	-9.04419
gra	-9.04699
▁news	-9.04852
▁break	-9.04951
▁foreign	-9.04951
▁twenty	-9.04951
▁rules	-9.05062
▁plant	-9.05199
▁wall	-9.05222
▁States	-9.05223
by	-9.05362
▁May	-9.0542
▁police	-9.05463
▁company	-9.05493
▁bird	-9.05572
clock	-9.05742
▁wait	-9.05762
▁women	-9.05766
▁Ha	-9.05903
ous	-9.06185
▁Just	-9.06204
▁inside	-9.0621
▁teenagers	-9.06217
▁Children	-9.06475
way	-9.06481
▁classmates	-9.06588
▁bank	-9.06588
▁boat	-9.0659
▁Who	-9.0669
▁seen	-9.0694
▁film	-9.06988
▁Before	-9.07012
▁earthquake	-9.0714
▁pencil	-9.0714
▁played	-9.07197
▁friendly	-9.0722
At	-9.07256
og	-9.07329
▁since	-9.07694
▁deep	-9.07697
▁step	-9.07973
▁moment	-9.08
▁turned	-9.08193
▁yuan	-9.08253
▁point	-9.0843
how	-9.08511
▁club	-9.08705
10	-9.08998
▁ex	-9.09078
▁brought	-9.09095
▁,.	-9.09238
▁Maybe	-9.09269
▁bit	-9.09269
▁dad	-9.0938
▁V	-9.09489
▁cannot	-9.09627
▁waiting	-9.09786
thing	-9.10109
are	-9.1015
▁already	-9.1023
▁instead	-9.1023
▁pick	-9.10344
▁lady	-9.10515
▁French	-9.10578
▁kept	-9.10804
uring	-9.10888
▁changed	-9.11002
▁advice	-9.11089
That	-9.11111
▁voice	-9.11378
▁13	-9.11456
▁meaning	-9.11589
U	-9.11687
▁success	-9.1194
ac	-9.1196
▁exam	-9.11995
▁studying	-9.12183
▁hat	-9.12303
▁parts	-9.12371
▁sent	-9.12585
art	-9.12727
▁Let	-9.12885
ak	-9.1312
▁sky	-9.13124
▁fell	-9.1342
▁foot	-9.14157
▁hold	-9.1421
▁wind	-9.14231
K	-9.1427
▁Ro	-9.14271
▁photo	-9.14334
▁Australia	-9.14393
▁Te	-9.14444
▁movies	-9.14573
ving	-9.14721
▁University	-9.14902
▁sp	-9.14908
land	-9.14932
ver	-9.14958
▁com	-9.15048
▁across	-9.15202
▁clever	-9.15202
▁math	-9.15262
",	-9.15367
Li	-9.15445
do	-9.15613
om	-9.15676
▁medicine	-9.1581
▁Me	-9.15892
▁King	-9.15956
▁meals	-9.16039
hu	-9.16098
▁lake	-9.16106
Well	-9.16174
▁older	-9.16284
ize	-9.16321
▁loved	-9.16351
▁given	-9.16393
▁USA	-9.1656
ice	-9.16696
▁L	-9.16699
▁pollution	-9.16721
▁useful	-9.16833
▁Because	-9.17013
▁successful	-9.17036
▁finished	-9.17042
▁Japan	-9.17132
our	-9.17175
▁art	-9.1723
▁third	-9.17323
▁chicken	-9.1763
go	-9.17639
▁Hong	-9.17658
Dear	-9.17761
▁reason	-9.17762
▁needs	-9.17814
▁Americans	-9.17824
▁education	-9.17937
▁First	-9.18033
▁difference	-9.18246
▁secret	-9.18246
▁Su	-9.18316
bo	-9.18441
▁O	-9.186
ph	-9.1861
▁Dad	-9.18817
▁common	-9.18866
▁arrived	-9.18997
▁jobs	-9.19266
ag	-9.19408
▁bright	-9.19499
▁happiness	-9.1955
▁moved	-9.19588
▁singing	-9.1964
▁ill	-9.19672
▁bread	-9.1982
han	-9.19841
▁Monday	-9.19895
▁especially	-9.19901
▁feet	-9.19919
Don	-9.19922
▁though	-9.19999
▁Year	-9.20118
▁zoo	-9.20118
ock	-9.20429
▁NOT	-9.20434
▁accident	-9.20434
▁noise	-9.20436
▁line	-9.20465
▁human	-9.20642
▁songs	-9.20727
▁key	-9.21072
▁slowly	-9.21181
▁please	-9.21194
▁deal	-9.212
▁dirty	-9.21413
▁listening	-9.21528
▁ready	-9.2154
▁Co	-9.21546
rie	-9.21677
day	-9.21693
▁held	-9.21713
▁carry	-9.2178
▁wasn	-9.22047
Hello	-9.22089
▁Jane	-9.22187
Many	-9.22487
▁clear	-9.22526
ip	-9.22639
▁radio	-9.2267
▁Shanghai	-9.22751
▁mom	-9.2276
▁waste	-9.22831
ary	-9.22989
▁energy	-9.22994
▁tennis	-9.22994
side	-9.23028
▁weeks	-9.23234
▁heavy	-9.23318
▁Grade	-9.23414
▁fat	-9.23537
His	-9.23598
▁plays	-9.2414
ub	-9.24288
▁gold	-9.2436
▁nine	-9.24631
▁30	-9.24654
▁wish	-9.24887
▁An	-9.24899
▁ticket	-9.24963
▁interest	-9.2497
▁phones	-9.25173
▁star	-9.25226
ge	-9.25373
▁animal	-9.25377
▁research	-9.25567
▁act	-9.25594
▁thinking	-9.25941
▁chocolate	-9.25959
per	-9.2596
▁card	-9.25989
ttle	-9.26004
▁U	-9.26085
▁serious	-9.26144
▁form	-9.26224
▁smiled	-9.26488
▁local	-9.26624
▁museum	-9.26624
▁bedroom	-9.26643
▁machine	-9.26675
▁skills	-9.26753
▁14	-9.27038
▁Of	-9.27139
▁library	-9.27299
▁ta	-9.27338
port	-9.27389
▁field	-9.27468
some	-9.27563
▁."	-9.27626
▁Middle	-9.27638
▁Kong	-9.27675
▁player	-9.27687
▁habits	-9.27718
▁throw	-9.27978
▁fresh	-9.28069
ten	-9.28106
his	-9.28545
▁buildings	-9.28765
▁traveling	-9.28844
nother	-9.29011
men	-9.29137
▁season	-9.29357
▁Japanese	-9.29449
▁legs	-9.29537
▁taught	-9.30044
▁offer	-9.3008
cu	-9.30191
▁island	-9.3023
▁returned	-9.30271
oo	-9.30459
▁report	-9.30613
▁David	-9.30616
▁teeth	-9.30742
out	-9.3077
All	-9.30842
get	-9.31335
▁By	-9.31369
bi	-9.31407
▁k	-9.3157
▁delicious	-9.31798
▁university	-9.31798
▁Sh	-9.31866
▁hole	-9.31871
▁April	-9.31875
▁Paul	-9.31903
▁personal	-9.31973
▁Sam	-9.32109
▁modern	-9.32153
▁rock	-9.32174
▁among	-9.32254
ff	-9.32283
red	-9.32368
▁collect	-9.32472
▁terrible	-9.32508
▁anyone	-9.32654
▁built	-9.32866
▁check	-9.32866
▁text	-9.32866
▁myself	-9.3294
▁Jenny	-9.33031
▁taken	-9.3311
▁faster	-9.33247
And	-9.33362
▁Mar	-9.3345
▁Look	-9.3346
▁British	-9.33584
▁laugh	-9.33619
▁Please	-9.3362
▁17	-9.33646
▁sport	-9.33848
▁Go	-9.33879
▁moon	-9.33981
▁seat	-9.34243
▁leaves	-9.34256
▁feelings	-9.34283
▁favourite	-9.34307
▁sentence	-9.34307
▁easier	-9.34331
▁eggs	-9.34407
▁lesson	-9.34453
▁50	-9.34481
▁follow	-9.34748
eat	-9.34826
▁Alice	-9.34883
ner	-9.34926
So	-9.34988
▁studies	-9.35036
▁Earth	-9.35036
▁Car	-9.35268
▁area	-9.35287
ction	-9.35455
▁dro	-9.35558
▁bicycle	-9.3577
▁smoke	-9.3577
act	-9.35933
▁City	-9.36036
▁hundred	-9.36084
ure	-9.3621
ack	-9.3625
▁driving	-9.36583
ng	-9.36734
▁Two	-9.36749
ally	-9.36865
▁control	-9.36881
▁twelve	-9.36971
▁weekend	-9.37226
▁passed	-9.3728
▁glasses	-9.3733
▁simple	-9.37628
▁shy	-9.37631
▁miss	-9.37643
▁brain	-9.37646
ance	-9.37699
▁die	-9.37703
▁helping	-9.37726
▁v	-9.37824
di	-9.37943
▁seems	-9.38002
▁taxi	-9.38011
▁agree	-9.38081
▁skin	-9.38106
▁changes	-9.38246
ut	-9.38251
▁players	-9.38335
▁ho	-9.38356
▁TRUE	-9.38382
▁growing	-9.3842
▁sick	-9.38427
lin	-9.38833
▁showed	-9.38857
▁workers	-9.38968
Then	-9.3908
▁exciting	-9.39141
ture	-9.39243
▁shouted	-9.39256
19	-9.3936
▁record	-9.39522
▁eye	-9.39534
▁seemed	-9.39781
▁song	-9.4011
▁Miss	-9.40133
Ma	-9.4017
da	-9.40245
▁photos	-9.40254
▁smart	-9.4029
▁taste	-9.40298
▁clock	-9.40324
For	-9.40401
▁reach	-9.40433
Y	-9.4046
▁pocket	-9.40676
▁excited	-9.40737
▁present	-9.40742
▁Each	-9.408
J	-9.40835
▁happily	-9.41064
▁kilometers	-9.41064
▁share	-9.41152
▁surprise	-9.41152
▁dis	-9.41153
▁fine	-9.41171
uck	-9.41507
her	-9.41584
▁luck	-9.4166
▁win	-9.41716
▁Although	-9.41844
▁support	-9.41844
▁spring	-9.41844
▁finally	-9.41902
▁robot	-9.41945
so	-9.41982
▁Kate	-9.42126
▁article	-9.42236
▁video	-9.42236
▁weekends	-9.42266
▁Scientists	-9.42385
▁suddenly	-9.42661
▁16	-9.42829
▁wood	-9.4283
▁danger	-9.43013
like	-9.43054
▁watched	-9.43155
▁return	-9.43171
▁members	-9.43253
▁Le	-9.43373
▁television	-9.43421
▁hungry	-9.43425
▁center	-9.43426
work	-9.43605
gh	-9.43752
was	-9.43811
▁written	-9.4382
▁above	-9.44221
▁South	-9.44231
▁king	-9.44273
▁pa	-9.44327
▁price	-9.44388
▁Bo	-9.44433
my	-9.44496
▁names	-9.44504
Four	-9.44523
▁pm	-9.44582
▁Finally	-9.44621
Tom	-9.448
▁slow	-9.44899
▁activity	-9.45025
▁thirty	-9.45025
▁biggest	-9.45025
▁seem	-9.45058
▁lion	-9.45109
▁bar	-9.45334
iao	-9.45355
▁bags	-9.45412
▁power	-9.45413
▁technology	-9.4543
▁piano	-9.4543
ook	-9.45467
▁cooking	-9.45534
▁realized	-9.45674
▁public	-9.45836
▁round	-9.45838
od	-9.45856
▁Lily	-9.46148
▁miles	-9.46245
▁Soon	-9.46327
▁Try	-9.46375
▁shops	-9.46484
▁apples	-9.46574
▁website	-9.46654
▁post	-9.46667
▁stone	-9.46695
▁weight	-9.46701
▁Ann	-9.46762
▁meeting	-9.46914
▁receive	-9.47002
even	-9.47049
▁neighbor	-9.47066
▁unhappy	-9.47071
▁homes	-9.47078
▁houses	-9.4715
▁Dr	-9.47399
▁Everyone	-9.47453
▁include	-9.47479
▁Suddenly	-9.47548
▁develop	-9.47609
▁talked	-9.47745
▁beach	-9.47833
use	-9.47866
▁character	-9.47894
▁practice	-9.47894
▁ship	-9.47912
▁lucky	-9.48108
▁colour	-9.48168
make	-9.48221
▁newspapers	-9.4824
▁1.	-9.48298
▁natural	-9.4831
▁smell	-9.48311
▁everywhere	-9.48336
▁magazine	-9.48373
▁gift	-9.48597
▁Ta	-9.48702
▁disease	-9.48729
▁Ben	-9.4881
▁kill	-9.48907
ped	-9.48926
▁Even	-9.48985
▁wash	-9.49078
V	-9.49103
▁necessary	-9.49149
▁supermarket	-9.49149
ou	-9.49212
▁decide	-9.4927
▁drinks	-9.49483
▁careful	-9.49492
Every	-9.49549
▁kitchen	-9.49571
▁Park	-9.49572
▁relax	-9.49735
▁brothers	-9.49875
▁stars	-9.5
▁doctors	-9.5004
▁lead	-9.50059
▁Al	-9.5011
▁Hu	-9.50176
▁climb	-9.50261
▁Liu	-9.50274
▁certain	-9.50275
▁blood	-9.5042
▁lift	-9.50421
▁100	-9.5053
▁dancing	-9.50848
▁colors	-9.50929
whether	-9.50992
▁Gu	-9.51009
▁sweet	-9.51277
▁Later	-9.51301
45	-9.51507
▁stayed	-9.51522
▁provide	-9.51708
▁Class	-9.51709
▁beginning	-9.51709
ial	-9.51823
▁per	-9.5185
▁Linda	-9.51884
▁Oh	-9.52017
▁known	-9.5202
▁subject	-9.52098
▁becoming	-9.52143
▁uncle	-9.5219
▁Mark	-9.52359
▁cinema	-9.52575
▁festival	-9.52575
▁Britain	-9.52644
▁holidays	-9.52917
▁mountain	-9.52997
▁bottle	-9.53012
▁rice	-9.5304
▁lights	-9.53041
lu	-9.53064
▁!	-9.53066
▁tears	-9.5308
▁traditional	-9.53135
▁elephant	-9.53444
▁supper	-9.53451
▁bigger	-9.53452
eng	-9.53651
▁type	-9.53893
led	-9.54082
▁tiger	-9.54334
▁cross	-9.54383
▁funny	-9.54401
▁knows	-9.5453
▁knowledge	-9.54778
▁Mom	-9.54994
40	-9.55032
▁list	-9.55221
▁helpful	-9.55516
q	-9.55711
▁cake	-9.55727
▁happens	-9.55786
▁Jo	-9.5585
▁Z	-9.56069
▁polite	-9.56124
▁grew	-9.56135
▁volunteer	-9.56189
ran	-9.56425
▁glass	-9.56484
▁cover	-9.56643
▁Canada	-9.56744
▁allow	-9.56902
▁match	-9.56938
▁cream	-9.57023
▁proud	-9.57031
▁comfortable	-9.57035
▁percent	-9.57037
▁notes	-9.57089
▁south	-9.57121
▁apple	-9.57156
▁painting	-9.57431
▁solve	-9.57488
▁Zhang	-9.57606
▁Sun	-9.57755
▁term	-9.57957
▁pair	-9.57991
people	-9.58024
▁goal	-9.58042
▁coat	-9.58155
▁grandfather	-9.58407
▁journey	-9.58407
▁patient	-9.58407
▁including	-9.58472
▁Are	-9.58599
ster	-9.58687
▁Lu	-9.58697
▁Ho	-9.58751
▁gone	-9.59133
▁dreams	-9.59229
▁asleep	-9.59248
▁stranger	-9.59335
▁caught	-9.59335
▁produce	-9.59335
play	-9.59426
▁celebrate	-9.59802
ze	-9.59977
ina	-9.60067
▁self	-9.60277
▁paint	-9.60341
Thank	-9.60358
▁Well	-9.60631
▁th	-9.60634
▁Mother	-9.60766
▁jump	-9.60958
have	-9.61069
ga	-9.6113
nce	-9.61206
▁accept	-9.61217
▁daily	-9.61217
▁appear	-9.61434
ler	-9.61447
▁allowed	-9.6149
▁scar	-9.61511
▁loud	-9.61549
hop	-9.61553
▁arms	-9.61588
▁About	-9.61649
bu	-9.61691
▁Festival	-9.61693
▁service	-9.61693
▁death	-9.61694
▁memory	-9.61694
▁moving	-9.61699
▁More	-9.61827
tra	-9.6194
▁waiter	-9.61992
▁restaurants	-9.62124
▁Olympic	-9.62172
▁speed	-9.62173
cient	-9.6218
▁grass	-9.62654
▁notice	-9.62745
ern	-9.62764
▁singer	-9.62782
▁temperature	-9.63136
▁dead	-9.63137
▁Also	-9.63148
each	-9.63424
---	-9.63608
▁brown	-9.63621
▁attract	-9.63781
▁flying	-9.63935
▁prepare	-9.64109
▁UK	-9.64125
▁sleeping	-9.64181
▁paid	-9.64193
▁ring	-9.64297
au	-9.64355
▁however	-9.64433
▁letters	-9.64527
▁sounds	-9.64527
▁worse	-9.64599
▁baseball	-9.64603
▁wide	-9.64607
▁Tony	-9.6467
▁visited	-9.64693
▁broken	-9.64732
▁meters	-9.64739
▁nose	-9.64796
▁wearing	-9.64937
▁fu	-9.64958
line	-9.6504
stood	-9.65087
▁market	-9.65114
▁Ming	-9.65267
▁younger	-9.65267
▁laughed	-9.65447
35	-9.65482
▁Lin	-9.65544
▁artist	-9.65618
▁policeman	-9.65625
▁killed	-9.65893
long	-9.66019
gg	-9.66047
there	-9.66077
▁camera	-9.66092
live	-9.66193
low	-9.66278
▁realize	-9.66308
▁count	-9.66325
▁draw	-9.66341
▁di	-9.66482
▁Joe	-9.66484
▁blind	-9.66584
▁friendship	-9.66687
▁wouldn	-9.66692
▁Time	-9.66845
not	-9.66873
▁noticed	-9.66903
▁Thank	-9.66994
▁usual	-9.67021
▁perfect	-9.67087
▁Not	-9.67088
▁Helen	-9.67095
▁state	-9.67242
▁Wu	-9.67296
▁habit	-9.67473
▁camp	-9.67594
Learn	-9.67613
▁Han	-9.67652
12	-9.67674
▁June	-9.67674
▁Lucy	-9.67759
ated	-9.6784
▁loves	-9.67846
----	-9.67883
By	-9.6789
▁mistakes	-9.67969
▁standing	-9.6851
▁weak	-9.68548
▁system	-9.6861
▁wild	-9.6861
▁streets	-9.68707
Two	-9.68793
▁Yu	-9.6882
▁Africa	-9.68912
▁survey	-9.69123
▁Lee	-9.69148
Now	-9.69149
two	-9.69317
▁couple	-9.69638
▁studied	-9.69638
Be	-9.6965
15	-9.69818
▁encourage	-9.70083
▁buses	-9.7011
▁snake	-9.70156
▁believed	-9.70169
cent	-9.70189
Look	-9.70383
▁cried	-9.70677
▁pool	-9.70678
▁Na	-9.70748
▁herself	-9.70783
▁sisters	-9.70852
friend	-9.7088
▁Whi	-9.70955
▁languages	-9.71008
▁reached	-9.71028
▁pain	-9.71046
▁companies	-9.712
▁ourselves	-9.712
▁mountains	-9.71219
▁mum	-9.71261
▁low	-9.7136
▁Good	-9.71519
tic	-9.71639
▁Club	-9.71727
▁pieces	-9.71778
▁sold	-9.71832
ug	-9.7195
▁enter	-9.72005
▁drinking	-9.72231
▁competition	-9.72256
▁humans	-9.72437
▁25	-9.72461
Three	-9.72475
▁Students	-9.72515
hip	-9.72754
▁Street	-9.72788
Five	-9.7279
▁rather	-9.72799
▁kid	-9.72872
▁giving	-9.72954
▁dear	-9.72959
▁speaking	-9.72963
Good	-9.73018
▁cheap	-9.73173
▁picked	-9.73273
▁wonder	-9.73312
▁consider	-9.73323
▁project	-9.73323
▁chat	-9.73433
▁Yang	-9.73444
▁Lo	-9.73448
▁Since	-9.73485
ier	-9.73787
▁prize	-9.7386
▁boss	-9.73862
Play	-9.73901
uch	-9.74171
▁Yes	-9.74381
▁bowl	-9.74401
▁sense	-9.74401
▁nature	-9.74401
▁factory	-9.74423
▁smaller	-9.74825
▁hate	-9.74887
ating	-9.74915
▁violin	-9.74944
▁welcome	-9.74944
▁map	-9.74949
▁March	-9.75011
xi	-9.75206
five	-9.75329
▁,"	-9.75393
▁Last	-9.75475
▁joke	-9.75491
▁replied	-9.75491
▁September	-9.75568
io	-9.7566
▁page	-9.75686
▁India	-9.75972
▁decision	-9.7604
▁sale	-9.76047
▁fewer	-9.76049
▁hearing	-9.76065
when	-9.76304
▁Un	-9.76332
▁drawing	-9.76476
▁OK	-9.76484
▁guess	-9.76593
▁Other	-9.7672
▁colours	-9.76783
Most	-9.76903
▁presents	-9.77053
▁teaching	-9.77073
▁amazing	-9.77148
▁guide	-9.77148
▁glad	-9.77149
30	-9.77225
▁aren	-9.773
▁sir	-9.77302
▁mark	-9.77382
▁trains	-9.77451
▁Life	-9.77474
▁teache	-9.77648
▁grandmother	-9.77707
▁buys	-9.77949
other	-9.77949
▁grade	-9.78135
▁badly	-9.78172
said	-9.78178
ory	-9.78498
▁Love	-9.78678
▁similar	-9.78834
▁normal	-9.78834
▁case	-9.78838
▁salt	-9.7884
ju	-9.7898
▁burn	-9.79009
▁lovely	-9.79012
▁worker	-9.79027
phone	-9.79178
▁beat	-9.79206
▁professor	-9.79402
▁twice	-9.79402
▁wave	-9.79402
ile	-9.79418
▁adults	-9.79454
▁leader	-9.79497
▁gifts	-9.79582
▁closed	-9.79643
▁effect	-9.79665
▁Have	-9.798
Have	-9.79808
▁married	-9.79973
▁July	-9.79975
▁La	-9.80093
▁War	-9.80356
Mrs	-9.80361
▁agreed	-9.80431
▁received	-9.8044
▁vacation	-9.80548
▁France	-9.80548
▁Po	-9.80631
▁clearly	-9.80806
American	-9.80945
▁correct	-9.81126
▁except	-9.81126
▁panda	-9.8113
▁24	-9.8121
▁January	-9.81217
▁invited	-9.81244
▁fishing	-9.81352
▁readers	-9.81672
▁noodles	-9.81707
▁Paris	-9.81708
board	-9.81712
▁active	-9.81736
Here	-9.81762
▁Henry	-9.81981
▁rooms	-9.82117
▁minute	-9.82203
dom	-9.82252
▁communicate	-9.82292
▁expert	-9.82292
▁western	-9.82293
▁groups	-9.82415
Can	-9.82478
▁officer	-9.82504
▁Hi	-9.82525
house	-9.82653
Once	-9.82716
▁fans	-9.82739
▁shape	-9.82881
▁stress	-9.82887
▁becomes	-9.82954
▁Remember	-9.83044
▁either	-9.83119
▁21	-9.83174
▁0	-9.83344
▁cloud	-9.83472
▁condition	-9.83472
▁level	-9.83472
▁blog	-9.83576
▁Instead	-9.83581
▁gas	-9.83608
▁Rose	-9.83699
▁windows	-9.83747
▁toys	-9.83779
room	-9.83803
Jack	-9.83834
▁Take	-9.83872
four	-9.83918
▁relationship	-9.84067
▁depend	-9.84068
▁tomorrow	-9.84069
▁cards	-9.84131
ily	-9.84261
▁films	-9.84395
▁runs	-9.84606
▁treat	-9.84642
▁affect	-9.84666
▁smoking	-9.84666
▁soldier	-9.84676
▁pet	-9.84769
▁ears	-9.84869
book	-9.8487
▁race	-9.84932
▁oil	-9.85062
▁fifteen	-9.85269
▁bananas	-9.85282
bb	-9.85298
60	-9.85367
rry	-9.8547
▁40	-9.85489
▁begins	-9.85531
65	-9.85757
▁Besides	-9.85875
▁boring	-9.85876
▁dig	-9.8599
▁areas	-9.85991
▁actor	-9.86005
▁enjoyed	-9.86288
▁beside	-9.8649
▁soft	-9.865
▁feed	-9.86578
▁East	-9.86592
▁towards	-9.86599
▁Ru	-9.86617
▁visitors	-9.86656
▁ear	-9.86882
▁Europe	-9.87017
▁connect	-9.87098
▁North	-9.8713
▁bill	-9.87147
Hi	-9.87147
▁ja	-9.87187
▁Frank	-9.87248
▁cleaning	-9.87261
read	-9.87465
After	-9.87488
fu	-9.87533
▁scientist	-9.87538
▁finger	-9.87739
▁Mum	-9.87815
▁developed	-9.88102
▁Or	-9.88217
▁conversation	-9.88336
▁opinion	-9.88336
▁size	-9.88382
▁fa	-9.88518
▁San	-9.88655
▁maybe	-9.88663
▁Keep	-9.88766
▁asking	-9.88789
▁influence	-9.88961
▁expression	-9.88995
▁war	-9.89064
▁Come	-9.89118
▁Pol	-9.89185
▁reasons	-9.89318
▁messages	-9.89325
▁fit	-9.89382
zhou	-9.8959
▁increase	-9.8959
▁lonely	-9.8959
▁prefer	-9.8959
▁chose	-9.89611
que	-9.89673
▁clubs	-9.89833
:$	-9.89888
▁create	-9.89922
▁choice	-9.90112
▁volunteers	-9.90131
ray	-9.90218
▁babies	-9.90223
▁disappear	-9.90223
▁situation	-9.90223
▁hall	-9.90228
▁Lisa	-9.90273
▁volleyball	-9.90285
Go	-9.90462
▁quietly	-9.90593
▁tickets	-9.90851
▁bodies	-9.9086
▁fear	-9.90861
▁elephants	-9.9087
▁Father	-9.90884
▁thin	-9.90887
▁subjects	-9.90922
too	-9.91036
▁Three	-9.91236
▁ate	-9.91239
▁cats	-9.91295
ities	-9.91405
ki	-9.91457
0,000	-9.91493
▁desert	-9.91501
▁playground	-9.91501
▁Great	-9.91502
▁teen	-9.91503
▁blow	-9.91543
▁huge	-9.91656
▁everyday	-9.91667
▁roads	-9.91702
Who	-9.91863
▁Once	-9.92003
▁Lei	-9.92021
▁church	-9.92146
▁wake	-9.92147
ual	-9.92224
of	-9.92319
ok	-9.92359
▁crying	-9.92489
Peter	-9.92604
▁60	-9.92721
▁shoe	-9.92765
▁material	-9.92796
▁Next	-9.92796
▁juice	-9.92796
▁law	-9.92799
▁Open	-9.92806
give	-9.92836
▁housework	-9.92897
▁Chris	-9.92948
lf	-9.93066
▁saved	-9.93088
ble	-9.93323
▁population	-9.93449
▁calm	-9.93451
▁manager	-9.93451
▁cell	-9.93456
can	-9.935
▁Get	-9.93507
nobody	-9.93575
▁explained	-9.93703
ask	-9.93816
Where	-9.93923
shirt	-9.93929
▁machines	-9.94008
▁express	-9.94071
▁Book	-9.94073
▁Nation	-9.94188
▁lie	-9.94323
▁pulled	-9.94352
uan	-9.94568
▁cakes	-9.9469
▁Province	-9.94769
▁leaving	-9.94777
▁jacket	-9.95436
▁changing	-9.95436
▁role	-9.95442
▁score	-9.95451
▁understood	-9.95468
pen	-9.95592
▁fruits	-9.95723
▁explain	-9.95848
80	-9.95854
lar	-9.95871
▁grown	-9.95876
cy	-9.9594
▁nurse	-9.96107
▁tomatoes	-9.96107
▁screen	-9.96107
▁monkey	-9.96153
▁hundreds	-9.96207
light	-9.96373
▁West	-9.96375
▁appeared	-9.96474
ical	-9.96553
▁grades	-9.96593
18	-9.96623
▁note	-9.96689
▁Tel	-9.96701
▁exams	-9.96781
▁hamburger	-9.96783
▁ocean	-9.96783
Six	-9.96809
▁dry	-9.96917
▁lower	-9.97142
ham	-9.97143
rap	-9.97173
▁products	-9.97321
▁cartoon	-9.97464
▁search	-9.97482
▁pack	-9.97572
▁drop	-9.97672
▁north	-9.97815
ound	-9.97826
▁selling	-9.97928
Let	-9.98116
▁customers	-9.98148
▁nervous	-9.98148
▁regular	-9.98148
▁tourists	-9.98148
▁flew	-9.98148
▁pro	-9.98212
▁February	-9.98215
▁heat	-9.98685
▁cap	-9.98835
▁August	-9.98838
▁actually	-9.98838
▁speech	-9.98838
▁Mon	-9.98868
▁Nick	-9.98893
▁Usually	-9.98965
11	-9.99033
▁Ni	-9.99099
▁remembered	-9.99179
▁reporter	-9.99335
▁bears	-9.99423
▁training	-9.99491
▁bridge	-9.99532
▁grandma	-9.99532
Happy	-9.99532
▁address	-9.99532
▁fair	-9.99592
▁stronger	-9.99632
books	-9.99641
▁cow	-9.99913
▁pull	-9.99974
▁October	-10.0023
▁discuss	-10.0023
▁honest	-10.0023
▁push	-10.0023
▁national	-10.0027
▁filled	-10.0037
▁---	-10.0037
▁arm	-10.0041
▁single	-10.0043
▁jumped	-10.0062
▁value	-10.0094
▁task	-10.0095
▁Harry	-10.0095
▁stores	-10.0108
▁mistake	-10.0112
▁programme	-10.0113
▁Ed	-10.0117
▁fan	-10.0119
▁ruler	-10.0121
▁Ka	-10.0153
▁monkeys	-10.016
▁Thursday	-10.0164
▁dictionary	-10.0164
▁beauty	-10.0164
▁lay	-10.0166
▁stick	-10.0169
▁tail	-10.017
▁Robert	-10.0177
▁Chen	-10.018
car	-10.018
aring	-10.0184
▁raise	-10.0184
▁sc	-10.0197
▁arrive	-10.0206
▁soup	-10.0211
▁greatest	-10.0215
ung	-10.0221
▁brave	-10.0236
▁straight	-10.0236
▁rose	-10.0236
look	-10.0237
▁healthier	-10.0239
▁illness	-10.024
▁billion	-10.024
▁Make	-10.0246
▁completely	-10.0249
John	-10.0296
▁waited	-10.0304
▁Second	-10.0308
▁thirteen	-10.0308
▁model	-10.0308
▁talent	-10.0308
▁happier	-10.0313
▁safety	-10.0313
Your	-10.032
▁Yan	-10.033
▁likely	-10.0344
rain	-10.0346
▁prices	-10.035
head	-10.037
▁Tuesday	-10.038
▁charity	-10.038
▁guitar	-10.038
▁society	-10.038
▁spread	-10.0382
▁borrow	-10.0382
▁harder	-10.0382
▁memories	-10.0383
▁Steve	-10.0387
▁Think	-10.0396
▁planet	-10.0412
▁Man	-10.0412
▁Pe	-10.043
▁reported	-10.0434
China	-10.0442
▁Los	-10.0445
▁November	-10.0453
▁complain	-10.0453
▁James	-10.0453
▁invention	-10.0453
▁riding	-10.0453
▁pounds	-10.0453
▁largest	-10.0482
▁ability	-10.0493
▁quick	-10.0512
98	-10.0513
▁Hua	-10.0517
▁behavior	-10.0527
▁add	-10.0537
▁Mil	-10.0558
▁message	-10.0558
▁22	-10.0579
▁followed	-10.0579
▁continue	-10.0584
▁medic	-10.0595
▁pleased	-10.0597
▁crow	-10.0601
▁Though	-10.0601
▁describe	-10.0601
▁Jones	-10.0601
▁mine	-10.0611
▁sand	-10.0623
▁bear	-10.0637
▁leg	-10.0641
▁cry	-10.0655
▁Chang	-10.0657
Chinese	-10.0666
three	-10.0667
▁staying	-10.0668
▁God	-10.067
▁century	-10.0676
▁experiment	-10.0676
▁trousers	-10.0676
▁social	-10.0676
▁skirt	-10.0676
Com	-10.0681
▁buying	-10.0684
▁Never	-10.0684
28	-10.0684
▁pets	-10.0707
body	-10.0717
▁robots	-10.0731
▁watches	-10.0738
more	-10.0743
▁advantage	-10.0751
▁sugar	-10.0751
▁truck	-10.0751
▁plate	-10.0751
▁schoolbag	-10.0751
Whi	-10.0754
Help	-10.0754
Re	-10.076
▁nearby	-10.0763
Both	-10.0784
▁higher	-10.0796
▁action	-10.0811
▁flower	-10.0825
▁autumn	-10.0826
▁grandparents	-10.0826
▁guests	-10.0826
▁plenty	-10.0826
▁simply	-10.0826
▁factories	-10.0827
▁worth	-10.0827
▁Big	-10.0856
16	-10.0882
▁complete	-10.0888
▁Sea	-10.0889
Please	-10.0895
Today	-10.09
Bill	-10.0902
▁square	-10.0903
▁average	-10.0903
▁storm	-10.0903
▁rope	-10.0903
▁hill	-10.0903
▁advertisement	-10.0903
▁mouse	-10.0903
▁shirt	-10.0924
Mo	-10.0958
▁introduc	-10.0978
▁Daniel	-10.098
▁Spring	-10.098
▁importance	-10.098
▁mentioned	-10.098
▁yet	-10.0981
▁development	-10.0985
▁choices	-10.0993
Are	-10.1017
▁rule	-10.1036
▁broke	-10.1036
rew	-10.1051
▁perform	-10.1056
▁Museum	-10.1057
▁repair	-10.1057
▁stamp	-10.1057
▁organ	-10.1058
▁respect	-10.1058
▁recently	-10.1069
▁host	-10.1071
▁difficulties	-10.1073
▁base	-10.1074
▁Read	-10.1087
ital	-10.1118
▁Perhaps	-10.1135
▁exactly	-10.1135
▁cheer	-10.1136
▁aunt	-10.1143
55	-10.1167
pong	-10.1172
▁$1	-10.118
▁Cup	-10.1184
▁suggest	-10.1185
▁offered	-10.1194
▁Others	-10.1196
56	-10.1208
▁hobby	-10.1214
▁impossible	-10.1214
▁physical	-10.1214
▁purpose	-10.1214
degC	-10.1214
▁dishes	-10.1221
▁corner	-10.1222
▁Germany	-10.123
help	-10.1289
style	-10.129
hai	-10.1291
▁chemical	-10.1293
▁pretty	-10.1293
▁interview	-10.1294
▁dining	-10.1294
▁added	-10.1322
▁serve	-10.1343
▁expect	-10.1347
▁Fu	-10.1361
because	-10.137
▁California	-10.1374
▁international	-10.1374
▁unusual	-10.1374
▁pressure	-10.1374
▁wise	-10.1374
▁sheep	-10.1375
▁lab	-10.1375
▁style	-10.1378
▁everybody	-10.1382
▁Indian	-10.1384
▁excellent	-10.1454
▁rubbish	-10.1454
▁Susan	-10.1455
▁roll	-10.1455
▁2014	-10.1456
▁cheaper	-10.1477
▁Parents	-10.1503
▁encouraged	-10.1508
hand	-10.151
▁Korea	-10.1514
▁achieve	-10.1527
place	-10.1533
Doctor	-10.1536
known	-10.1539
▁laughing	-10.1543
Mary	-10.1543
over	-10.1595
Travel	-10.1617
▁snack	-10.1617
▁Water	-10.1643
rushed	-10.1689
▁mix	-10.17
▁goodbye	-10.17
▁Russia	-10.1701
▁meant	-10.1725
▁covered	-10.1748
▁tradition	-10.176
▁Asia	-10.178
▁author	-10.1783
▁prevent	-10.1783
▁thief	-10.1783
▁forgot	-10.1784
▁dropped	-10.1784
Watch	-10.1785
▁stage	-10.1789
▁Web	-10.18
▁discovered	-10.1804
put	-10.1827
▁parent	-10.1831
▁70	-10.1848
print	-10.1867
▁pleasure	-10.1867
▁truth	-10.1867
▁hunt	-10.1867
▁Plan	-10.1868
▁anger	-10.1869
▁refused	-10.188
▁traveler	-10.1886
▁tools	-10.1908
▁Reading	-10.1911
▁view	-10.1917
Her	-10.1924
▁design	-10.1927
▁forty	-10.195
Different	-10.1952
▁empty	-10.1952
▁joy	-10.1952
▁primar	-10.1952
▁Thanksgiving	-10.1952
▁reduce	-10.1952
▁sunny	-10.1961
▁mall	-10.1961
▁Chan	-10.1962
▁Wall	-10.1967
▁shout	-10.1972
▁diet	-10.1991
▁23	-10.1994
▁passengers	-10.2028
▁adult	-10.203
▁harm	-10.2036
▁Washington	-10.2038
▁keeping	-10.2039
English	-10.2039
cream	-10.2048
▁December	-10.2049
▁created	-10.2079
▁wine	-10.2092
▁ski	-10.2098
▁hero	-10.2123
▁promise	-10.2124
▁kilo	-10.2124
New	-10.2126
water	-10.2127
▁du	-10.213
14	-10.2137
▁clothing	-10.2141
round	-10.2148
aid	-10.2156
run	-10.2194
▁hug	-10.2198
▁object	-10.2211
▁tries	-10.2211
▁shall	-10.2211
▁novel	-10.2211
school	-10.2214
▁Call	-10.2218
Their	-10.2232
▁80	-10.2237
▁Anna	-10.2267
▁spoke	-10.2277
come	-10.2298
▁Wilson	-10.2299
▁subway	-10.2299
▁yesterday	-10.2299
▁distance	-10.2299
▁Jackson	-10.2301
teacher	-10.2303
▁Star	-10.2352
▁breath	-10.2357
▁Eve	-10.2367
rush	-10.2373
▁cur	-10.2386
▁Wednesday	-10.2387
▁circle	-10.2387
▁sweater	-10.2387
▁earlier	-10.2387
▁woke	-10.2387
▁bathroom	-10.2387
▁hang	-10.2387
Music	-10.2388
▁House	-10.2389
▁anywhere	-10.2391
▁Tommy	-10.2394
▁cage	-10.2405
▁visiting	-10.2416
13	-10.2459
▁Centr	-10.2462
95	-10.2476
▁mirror	-10.2476
▁succeed	-10.2476
▁proper	-10.2478
iang	-10.2489
kin	-10.2507
▁hide	-10.2508
▁signal	-10.2509
97	-10.2516
36	-10.2517
Come	-10.2563
▁shower	-10.2565
▁Singapore	-10.2566
▁lazy	-10.2566
▁pilot	-10.2566
▁suffer	-10.2566
▁Over	-10.257
▁pot	-10.257
with	-10.2573
▁colorful	-10.2574
▁Amy	-10.2592
▁loudly	-10.2594
▁peace	-10.2657
▁crops	-10.2657
▁destroy	-10.2657
▁surf	-10.2657
▁master	-10.2657
▁drum	-10.2659
Like	-10.2677
▁failed	-10.2681
rch	-10.2686
Nobody	-10.2688
▁Nancy	-10.269
▁boxes	-10.27
und	-10.2705
▁fourth	-10.2718
▁angrily	-10.2749
▁concert	-10.2749
▁period	-10.2749
▁require	-10.2749
▁eleven	-10.2749
strict	-10.2752
▁European	-10.2761
▁kindness	-10.2769
▁Michael	-10.2769
▁pop	-10.277
▁parties	-10.2776
▁served	-10.2784
▁continued	-10.2791
▁lea	-10.2821
25	-10.2832
▁flat	-10.2842
▁9:00	-10.2842
About	-10.285
▁forward	-10.2873
ather	-10.2878
Blue	-10.2885
take	-10.2904
▁closer	-10.292
▁astronaut	-10.2935
▁challenge	-10.2935
▁invented	-10.2935
▁neighbour	-10.2935
▁elder	-10.2935
▁copy	-10.2935
▁flu	-10.2942
Z	-10.2945
children	-10.2945
▁frightened	-10.2945
▁fashion	-10.2949
▁breathe	-10.2967
▁certainly	-10.2967
▁falling	-10.2988
78	-10.2999
col	-10.302
▁Red	-10.3026
▁carrots	-10.3029
▁plastic	-10.3029
▁virus	-10.3029
▁Games	-10.3029
▁Food	-10.3029
▁Road	-10.303
▁hometown	-10.3035
89	-10.3038
Read	-10.3041
▁product	-10.3049
say	-10.3079
▁Disney	-10.3124
▁Sydney	-10.3125
▁picnic	-10.3125
▁super	-10.3125
▁magic	-10.3125
▁date	-10.3127
▁suggestion	-10.3129
▁travelling	-10.3135
Ju	-10.3149
Work	-10.3166
▁imagine	-10.3184
▁final	-10.3206
▁washing	-10.3218
▁childhood	-10.3221
▁fox	-10.3221
Friends	-10.3221
Bruce	-10.3221
▁capital	-10.3221
▁rise	-10.3222
▁app	-10.3233
what	-10.3234
▁gun	-10.3235
Get	-10.3243
hua	-10.3243
▁latest	-10.3263
▁$2	-10.328
▁El	-10.3287
▁abroad	-10.3318
▁amount	-10.3318
▁quarter	-10.3318
▁outdoor	-10.3318
▁Hotel	-10.3318
▁direction	-10.332
▁countryside	-10.3328
▁Min	-10.3345
made	-10.3351
▁highest	-10.3364
many	-10.3372
▁fail	-10.3393
33	-10.3405
▁recent	-10.3407
▁entrance	-10.3416
▁perhaps	-10.3416
▁ugly	-10.3416
▁electricity	-10.3417
▁failure	-10.3417
▁diary	-10.3418
six	-10.3434
▁holding	-10.3448
qui	-10.3484
▁Taiwan	-10.3515
▁graduate	-10.3515
▁disabled	-10.3515
▁sunlight	-10.3518
▁cancer	-10.3521
▁Long	-10.3523
▁gate	-10.3531
▁Eat	-10.36
▁Palace	-10.3615
▁President	-10.3615
▁communication	-10.3615
▁drank	-10.3615
▁general	-10.3615
▁organization	-10.3615
▁railway	-10.3615
▁kiss	-10.3615
▁toilet	-10.3618
▁flight	-10.362
▁airport	-10.3623
Sometimes	-10.3632
walk	-10.3633
▁beaches	-10.3637
fish	-10.3649
▁earn	-10.3652
▁mo	-10.3665
everal	-10.3678
banana	-10.3714
ought	-10.3716
▁advise	-10.3716
▁Angeles	-10.3716
▁Betty	-10.3716
▁wore	-10.3716
▁lying	-10.3732
▁knocked	-10.3734
▁surprising	-10.3742
▁Young	-10.3744
Everybody	-10.3772
▁climbed	-10.3778
▁attitude	-10.3818
▁fifty	-10.3818
▁quality	-10.3818
▁satellite	-10.3818
▁silent	-10.3818
▁valuable	-10.3818
▁repeat	-10.3818
Welcome	-10.3819
▁pig	-10.3821
▁Sally	-10.3838
Last	-10.3848
▁rang	-10.3859
▁member	-10.3862
▁band	-10.3862
▁seriously	-10.3862
▁90	-10.3894
▁German	-10.3901
▁crossing	-10.391
izing	-10.3915
▁confident	-10.3921
▁operation	-10.3921
▁bookstore	-10.3921
▁High	-10.3922
000	-10.3933
▁sight	-10.3935
▁email	-10.3936
win	-10.3937
▁expected	-10.3955
▁total	-10.3958
(,)	-10.3976
▁official	-10.4025
▁photograph	-10.4025
▁shake	-10.4025
▁examination	-10.4025
▁Talk	-10.4027
working	-10.404
▁warmer	-10.4054
More	-10.4062
96	-10.4069
▁Will	-10.409
▁discover	-10.4105
▁Hawaii	-10.4131
▁chores	-10.4131
▁cousin	-10.4131
▁somewhere	-10.4145
▁Grandma	-10.4152
Bob	-10.4152
life	-10.4153
▁somebody	-10.4155
tain	-10.4156
Everyone	-10.4158
mission	-10.416
night	-10.4182
▁cleaner	-10.4216
▁Prince	-10.4237
▁Simon	-10.4237
▁8:00	-10.4237
▁pills	-10.4238
▁sang	-10.4257
watch	-10.426
food	-10.426
These	-10.4282
▁See	-10.4293
tell	-10.4315
▁sel	-10.4321
▁Thomas	-10.4344
▁hobbies	-10.4344
▁snail	-10.4344
▁tips	-10.4345
▁Center	-10.4345
▁chess	-10.4346
▁soap	-10.4346
Always	-10.4352
▁Ken	-10.4364
▁soil	-10.437
200	-10.4377
▁musician	-10.4379
▁itself	-10.4391
hose	-10.4395
▁26	-10.443
▁bottom	-10.4453
▁bored	-10.4453
▁attack	-10.4454
▁kung	-10.4455
▁para	-10.4455
▁opera	-10.4455
▁businessman	-10.4463
that	-10.4486
OK	-10.4488
▁Would	-10.4503
▁entered	-10.4507
well	-10.4556
xcuse	-10.456
lect	-10.4562
▁birth	-10.4562
▁afford	-10.4563
▁pleasant	-10.4563
▁symbol	-10.4563
▁spirit	-10.4563
▁deaf	-10.4563
▁potatoes	-10.4566
▁dish	-10.4571
Yao	-10.4572
▁2008	-10.4575
▁researchers	-10.4581
▁Summer	-10.4584
▁carrying	-10.4589
good	-10.4593
▁brush	-10.4614
▁homeless	-10.4622
▁burning	-10.464
▁skill	-10.4643
▁further	-10.4674
▁shark	-10.4674
▁stomach	-10.4674
▁William	-10.4674
▁measure	-10.4674
▁carried	-10.4674
▁steal	-10.4674
Teachers	-10.4675
▁gentleman	-10.4675
▁Clark	-10.4675
about	-10.4702
Dad	-10.4703
bility	-10.4726
▁Men	-10.4731
tech	-10.4755
▁500	-10.4777
▁straw	-10.4787
▁dentist	-10.4787
▁jeans	-10.4787
▁vitamin	-10.4787
▁pupil	-10.4787
▁fix	-10.4787
▁twin	-10.4787
▁thick	-10.4791
▁Jimmy	-10.4791
▁Lake	-10.4791
▁larger	-10.4807
▁coal	-10.4834
34	-10.4885
ji	-10.4891
▁dr	-10.4895
▁punish	-10.49
▁greet	-10.49
▁pants	-10.49
▁Gina	-10.4907
▁Andrew	-10.4912
Did	-10.4913
parent	-10.4933
▁Ask	-10.4956
▁menu	-10.4992
▁bamboo	-10.5015
▁president	-10.5015
▁planning	-10.5015
▁Sports	-10.5016
▁sofa	-10.5016
▁robber	-10.5016
▁etc	-10.5017
▁published	-10.5026
lain	-10.503
Free	-10.5045
student	-10.5046
▁fastest	-10.5051
▁suggested	-10.5053
▁300	-10.5057
right	-10.5059
▁remind	-10.5082
▁egg	-10.5107
▁knife	-10.5131
▁poem	-10.5131
▁sail	-10.5131
▁winner	-10.5135
▁2010	-10.5139
losing	-10.5144
▁eaten	-10.515
▁Seven	-10.5152
▁extra	-10.5163
▁visitor	-10.5169
86	-10.5176
88	-10.5194
▁celebration	-10.5249
▁major	-10.5249
▁mushroom	-10.5249
▁saving	-10.5249
▁waitress	-10.5249
▁duck	-10.525
▁Maths	-10.525
▁Dave	-10.5251
Sorry	-10.5252
▁Opera	-10.5261
Students	-10.5283
23	-10.5292
▁weigh	-10.5293
▁raised	-10.5299
▁shouting	-10.5304
rong	-10.5315
▁below	-10.5327
▁shared	-10.5341
▁balloon	-10.5368
▁kick	-10.5374
▁George	-10.5387
Jim	-10.5404
raise	-10.5405
▁Asian	-10.5426
▁pollut	-10.5459
confidence	-10.5489
▁Apple	-10.5489
▁climate	-10.5489
▁sandwich	-10.5489
▁crowded	-10.5489
▁nap	-10.5489
▁2013	-10.5491
▁Bobby	-10.5495
▁thankful	-10.5497
▁Use	-10.5502
17	-10.5522
▁relaxed	-10.5563
▁washed	-10.5569
▁missed	-10.5572
▁hurried	-10.561
▁umbrella	-10.561
▁spider	-10.5611
▁scene	-10.5611
▁prove	-10.5693
▁Science	-10.5734
▁creative	-10.5734
▁dolphins	-10.5734
▁dumplings	-10.5734
▁electronic	-10.5734
▁rabbit	-10.5734
▁watermelon	-10.5734
▁palace	-10.5734
▁Price	-10.5734
▁Italian	-10.5734
▁stole	-10.5736
▁focus	-10.5736
▁Italy	-10.5739
▁2012	-10.5739
▁dust	-10.5745
▁Nothing	-10.5746
▁golf	-10.5764
▁wishes	-10.5769
School	-10.5774
Keep	-10.5775
▁Someone	-10.5786
▁Art	-10.5787
▁safely	-10.5812
self	-10.5848
▁female	-10.5859
▁progress	-10.5859
▁Kitty	-10.5859
▁litter	-10.5859
▁alarm	-10.586
▁Walk	-10.586
▁metres	-10.5861
▁attend	-10.5864
▁notebook	-10.5866
▁mice	-10.5867
ending	-10.5879
▁topic	-10.5881
With	-10.5901
▁African	-10.5911
talk	-10.5933
▁Ver	-10.5936
keep	-10.5955
▁Grandpa	-10.5982
▁trans	-10.5985
▁Shenzhen	-10.5986
▁Thailand	-10.5986
▁wheel	-10.5986
Tibet	-10.5986
▁basic	-10.5986
▁cutting	-10.5998
▁award	-10.6
▁spoken	-10.6016
▁Korean	-10.6019
▁centre	-10.6028
born	-10.6033
▁pal	-10.6072
Buy	-10.6074
70	-10.611
▁Research	-10.6114
▁although	-10.6114
▁giraffe	-10.6114
Twenty	-10.6114
▁block	-10.6114
▁courage	-10.6114
▁drew	-10.6114
Could	-10.6115
▁powerful	-10.6119
▁Health	-10.6123
▁29	-10.6216
▁ru	-10.6219
▁Jun	-10.6233
▁fill	-10.6235
▁Anne	-10.6239
▁damage	-10.6244
▁Hospital	-10.6244
▁apartment	-10.6244
▁dessert	-10.6244
▁grammar	-10.6244
▁smiling	-10.6244
▁cents	-10.625
▁Feng	-10.6254
▁1,000	-10.6267
David	-10.629
ept	-10.6345
tract	-10.6346
▁prince	-10.6375
▁Animals	-10.6375
▁adventure	-10.6375
▁effort	-10.6375
▁limit	-10.6375
▁opposite	-10.6375
▁policy	-10.6375
▁eighteen	-10.6375
▁Exercise	-10.6375
▁knee	-10.6376
▁Gates	-10.6376
▁beef	-10.6377
▁Grand	-10.6378
▁yes	-10.6382
▁Island	-10.6384
▁MP	-10.6402
point	-10.6425
wanted	-10.6441
▁painter	-10.6446
▁400	-10.6462
where	-10.6471
▁NBA	-10.6509
▁Obama	-10.6509
▁butterfly	-10.6509
▁feathers	-10.6509
▁Garden	-10.6509
▁clerk	-10.6509
▁regard	-10.6509
▁Girl	-10.6509
▁worst	-10.6509
▁Prize	-10.6509
▁disaster	-10.6509
▁roof	-10.6509
▁yard	-10.6509
▁Bird	-10.651
▁dislike	-10.6511
▁rude	-10.6512
▁Sarah	-10.6512
▁director	-10.6513
▁7:30	-10.6519
▁cigarette	-10.6531
▁matches	-10.6536
▁polluted	-10.6537
▁army	-10.6548
▁designed	-10.655
Mike	-10.6559
which	-10.6559
cover	-10.6584
90	-10.6593
UN	-10.6601
▁positive	-10.6644
Football	-10.6644
▁Luckily	-10.6644
▁argue	-10.6644
▁dragon	-10.6644
▁resource	-10.6644
▁strength	-10.6644
▁unlucky	-10.6644
▁headache	-10.6644
▁postcard	-10.6644
▁compare	-10.6644
▁socks	-10.6644
21	-10.6645
▁gather	-10.6647
▁net	-10.6647
▁policemen	-10.6648
▁blackboard	-10.6649
▁network	-10.665
46	-10.6656
▁Fred	-10.6659
wards	-10.6667
▁engineer	-10.6683
Take	-10.6696
▁Brazil	-10.6781
▁instrument	-10.6781
▁ordinary	-10.6781
▁prison	-10.6781
▁relative	-10.6781
▁thirsty	-10.6781
▁cough	-10.6781
▁shook	-10.6781
▁spaceship	-10.6781
▁Hope	-10.6787
▁Yet	-10.6798
Stay	-10.6802
ER	-10.681
didn	-10.6836
father	-10.6842
▁Chicago	-10.692
▁Egypt	-10.692
▁International	-10.692
▁community	-10.692
▁composition	-10.692
▁kangaroo	-10.692
Stop	-10.6927
meter	-10.6938
▁Put	-10.6938
6:00	-10.694
▁Matt	-10.6943
Of	-10.695
America	-10.6955
Parents	-10.6976
Just	-10.6985
love	-10.7027
May	-10.7045
42	-10.7046
$	-10.7051
▁editor	-10.706
▁harvest	-10.706
▁midnight	-10.706
▁vocabulary	-10.706
▁cafe	-10.706
▁flies	-10.706
▁coach	-10.706
▁carrier	-10.706
▁reply	-10.7061
▁harmful	-10.7063
▁Week	-10.7063
68	-10.7109
turn	-10.7118
Children	-10.7119
view	-10.7119
learn	-10.7119
▁Tim	-10.713
box	-10.7131
▁knock	-10.7177
Teenagers	-10.7203
▁Charles	-10.7203
▁crazy	-10.7203
▁generation	-10.7203
▁judge	-10.7203
▁province	-10.7203
▁trust	-10.7203
▁uncomfortable	-10.7203
▁Nobel	-10.7203
▁River	-10.7203
▁method	-10.7203
▁Under	-10.7203
▁noisy	-10.7204
▁weekdays	-10.7204
▁printer	-10.7204
▁Zoo	-10.7206
▁2015	-10.7208
jiang	-10.7209
▁upset	-10.7209
▁wings	-10.7212
▁heroes	-10.7221
▁2000	-10.7247
▁150	-10.7255
Life	-10.7263
green	-10.7264
Miss	-10.7265
war	-10.7279
free	-10.7285
hether	-10.73
▁airplane	-10.7348
▁basket	-10.7348
▁radiation	-10.7348
▁underground	-10.7348
▁Junior	-10.7348
▁micro	-10.7348
▁rats	-10.7349
▁bull	-10.735
▁manners	-10.7351
▁directly	-10.7358
▁Yuan	-10.7375
fra	-10.7391
From	-10.7411
▁log	-10.7411
92	-10.7433
▁Maria	-10.7439
▁invite	-10.7466
▁chemist	-10.7495
▁Dragon	-10.7495
▁Oxford	-10.7495
▁device	-10.7495
▁equipment	-10.7495
▁uniform	-10.7495
▁Adult	-10.7495
▁fourteen	-10.7495
▁skate	-10.7495
Visit	-10.7496
▁partner	-10.7513
▁imagin	-10.7552
Beijing	-10.756
from	-10.756
▁conductor	-10.7644
▁furniture	-10.7644
▁headmaster	-10.7644
▁junior	-10.7644
▁neighborhood	-10.7644
▁pumpkin	-10.7644
▁surface	-10.7644
▁Jerry	-10.7645
▁Jean	-10.7645
▁suitable	-10.7646
▁Grace	-10.7649
▁mental	-10.7656
▁Fang	-10.7686
Alice	-10.7711
music	-10.7714
(......)	-10.7796
Through	-10.7796
▁Jiangsu	-10.7796
▁Mexico	-10.7796
▁contact	-10.7796
▁emotion	-10.7796
▁immediately	-10.7796
▁Zhao	-10.7796
▁gloves	-10.7796
▁honor	-10.7796
▁indoor	-10.7796
▁exchange	-10.7797
▁10:00	-10.7797
▁performance	-10.7798
▁bark	-10.7798
▁runner	-10.7806
off	-10.7807
Angel	-10.781
MB	-10.782
▁tower	-10.7833
happy	-10.7863
back	-10.7891
▁$3	-10.7924
▁Google	-10.795
▁athlete	-10.795
▁contest	-10.795
▁professional	-10.795
▁shoot	-10.795
▁pink	-10.795
▁chain	-10.795
▁gym	-10.795
▁foolish	-10.7951
▁excuse	-10.7954
▁Home	-10.7958
▁Rock	-10.7961
▁sixty	-10.7967
Before	-10.8021
after	-10.8022
Maybe	-10.8024
▁engine	-10.8061
who	-10.8077
▁argument	-10.8106
▁audience	-10.8106
▁grandpa	-10.8106
▁skating	-10.8106
▁choosing	-10.8106
Sleep	-10.8107
▁drug	-10.8107
▁2011	-10.811
▁$10	-10.8185
▁Gra	-10.8234
▁comfort	-10.8263
▁explore	-10.8265
▁shining	-10.8265
▁fifth	-10.8265
▁hurry	-10.8265
▁overseas	-10.8265
iaoyu	-10.8265
▁neither	-10.8265
▁5:00	-10.8266
▁Turn	-10.8266
▁Huang	-10.8277
▁laughter	-10.828
▁collection	-10.8281
▁Lang	-10.8282
▁rate	-10.829
▁teenager	-10.8321
count	-10.8342
Kate	-10.8355
Bad	-10.8412
▁Sara	-10.8423
▁assistant	-10.8426
▁disagree	-10.8426
▁fantastic	-10.8426
▁junk	-10.8426
▁position	-10.8426
▁shopkeeper	-10.8426
▁Zach	-10.8426
announc	-10.8426
▁grey	-10.8426
▁planned	-10.8426
▁Tower	-10.8427
▁Sandy	-10.8427
▁Western	-10.8428
▁Hunt	-10.8428
▁1970	-10.8431
▁wallet	-10.8441
thank	-10.8505
black	-10.8505
stay	-10.8517
Giv	-10.8586
▁Scotland	-10.859
▁Square	-10.859
▁Zheng	-10.859
▁libraries	-10.859
▁servant	-10.859
▁Ocean	-10.859
▁Zhou	-10.859
▁process	-10.859
▁Reporter	-10.859
▁motor	-10.859
▁retire	-10.859
▁items	-10.8591
▁Daily	-10.8591
Rich	-10.8597
wood	-10.8672
England	-10.8672
health	-10.8672
think	-10.8673
▁Company	-10.8757
▁neck	-10.8757
▁private	-10.8757
▁scientific	-10.8757
▁Winter	-10.8757
▁pear	-10.8758
▁mood	-10.8758
▁northern	-10.8758
Laura	-10.8759
▁1990	-10.8762
▁bath	-10.8772
▁8:30	-10.8772
clean	-10.8822
▁toward	-10.8831
field	-10.8841
foot	-10.8842
Jane	-10.8842
▁corn	-10.8917
orrow	-10.8923
▁College	-10.8926
▁Computer	-10.8926
▁Mount	-10.8926
▁Nanjing	-10.8926
▁Sichuan	-10.8926
▁Zhejiang	-10.8926
▁insects	-10.8926
▁stairs	-10.8926
▁worries	-10.8926
▁awake	-10.8926
▁balance	-10.8926
▁eagle	-10.8926
▁escape	-10.8926
▁Jeff	-10.8926
▁injured	-10.8926
▁obey	-10.8926
▁Snow	-10.8926
▁winning	-10.8927
▁7:00	-10.8927
▁captain	-10.8927
▁password	-10.8927
▁duty	-10.893
▁treatment	-10.8934
Taking	-10.8938
paper	-10.9013
write	-10.9014
Wait	-10.9033
▁2007	-10.9046
▁nation	-10.9093
Basketball	-10.9099
▁Cinderella	-10.9099
▁Language	-10.9099
▁grandson	-10.9099
▁lizard	-10.9099
▁muscle	-10.9099
▁penguin	-10.9099
▁quarrel	-10.9099
▁recycle	-10.9099
▁smooth	-10.9099
▁surviv	-10.9099
▁double	-10.91
▁Often	-10.9104
▁button	-10.9107
▁shut	-10.9134
town	-10.9181
sheng	-10.9196
▁hid	-10.9216
ocus	-10.9269
▁degree	-10.9274
▁disappointed	-10.9274
▁image	-10.9274
▁sunshine	-10.9274
▁truly	-10.9274
▁struggl	-10.9274
▁guard	-10.9274
Nowadays	-10.9274
▁fashionable	-10.9277
▁till	-10.9279
grade	-10.9328
flower	-10.9368
Will	-10.938
▁sudden	-10.9438
▁Bridge	-10.9453
▁Charlie	-10.9453
▁detail	-10.9453
▁salad	-10.9453
▁track	-10.9453
▁sharing	-10.9453
▁series	-10.9453
▁dying	-10.9453
Judy	-10.9453
▁outfit	-10.9453
▁chips	-10.9453
▁infer	-10.9457
Jenny	-10.955
Henry	-10.955
mark	-10.9552
▁suit	-10.9633
▁Academy	-10.9634
▁Francisco	-10.9634
▁Jordan	-10.9634
▁Tokyo	-10.9634
▁cheese	-10.9634
▁inventor	-10.9634
▁minister	-10.9634
Happiness	-10.9634
▁tidy	-10.9634
▁wetlands	-10.9634
▁owl	-10.9635
▁loss	-10.9636
▁Swee	-10.9636
▁Disneyland	-10.9636
▁media	-10.9637
▁Out	-10.964
▁coast	-10.9648
Would	-10.9735
▁press	-10.9819
▁Harvard	-10.982
▁calendar	-10.982
▁fridge	-10.982
▁impress	-10.982
▁satisfied	-10.982
Nearly	-10.982
▁Tiger	-10.982
▁bookcase	-10.982
▁contain	-10.982
▁divide	-10.982
▁Kelly	-10.982
▁kilt	-10.982
▁rising	-10.982
▁Again	-10.982
▁Step	-10.982
▁Farm	-10.982
▁court	-10.982
▁medal	-10.9823
Robot	-10.9824
▁mask	-10.9825
▁reward	-10.9865
sign	-10.9922
▁fool	-11.0007
▁Space	-11.0008
▁drunk	-11.0008
▁industry	-11.0008
▁CCTV	-11.0008
▁Family	-11.0008
▁Florida	-11.0008
▁campaign	-11.0008
▁geography	-11.0008
▁patience	-11.0008
▁risk	-11.0008
▁remain	-11.0008
▁History	-11.0008
▁candles	-11.0008
▁inches	-11.0011
▁unknown	-11.0013
▁Martin	-11.0013
Color	-11.0057
Way	-11.0073
enni	-11.0094
Clean	-11.0109
Volunteer	-11.0201
▁Arthur	-11.0201
▁Hangzhou	-11.0201
▁Third	-11.0201
▁channel	-11.0201
▁increasing	-11.0201
▁roots	-11.0201
▁arrange	-11.0201
▁benefit	-11.0201
▁cowboy	-11.0201
▁treasure	-11.0201
▁monster	-11.0201
▁Jason	-11.0201
▁angel	-11.0202
Million	-11.0202
▁forgotten	-11.0203
▁nest	-11.0206
▁Room	-11.0207
spect	-11.0221
▁Fri	-11.0253
race	-11.0265
▁lend	-11.0292
child	-11.0312
find	-11.0313
Enjoy	-11.0397
▁Scott	-11.0397
▁emperor	-11.0397
▁envelope	-11.0397
▁necklace	-11.0397
▁oxygen	-11.0397
▁poison	-11.0397
▁separate	-11.0397
▁bloggers	-11.0397
▁whale	-11.0397
▁locked	-11.0397
▁silly	-11.0397
▁Old	-11.0397
▁loving	-11.0397
▁account	-11.0397
▁announced	-11.0397
▁cash	-11.0397
▁Ray	-11.0397
▁alien	-11.0398
▁addict	-11.0399
want	-11.0489
doesn	-11.0512
listen	-11.0512
white	-11.0513
▁cloth	-11.0548
hould	-11.0595
▁Facebook	-11.0597
▁Zealand	-11.0597
▁abilities	-11.0597
▁jewel	-11.0597
▁pizza	-11.0597
▁regret	-11.0597
▁silence	-11.0597
▁tortoise	-11.0597
▁turkey	-11.0597
▁unhealthy	-11.0597
▁wheelchair	-11.0597
▁blouse	-11.0597
▁champion	-11.0597
▁critic	-11.0597
▁nodded	-11.0597
▁sixteen	-11.0597
▁backpack	-11.0597
▁farther	-11.0597
▁Tara	-11.0597
ING	-11.0597
hoose	-11.0615
eep	-11.068
▁fee	-11.0695
See	-11.0745
▁Education	-11.0801
▁Keller	-11.0801
▁Spanish	-11.0801
▁crash	-11.0801
▁downstairs	-11.0801
▁familiar	-11.0801
▁slept	-11.0801
▁transportation	-11.0801
▁upstairs	-11.0801
...............	-11.0801
▁Emily	-11.0801
▁swan	-11.0801
▁Oscar	-11.0801
▁facing	-11.0802
▁faci	-11.081
Half	-11.082
▁rob	-11.0855
word	-11.0924
brother	-11.0924
Green	-11.0925
either	-11.0926
tress	-11.0932
sister	-11.0961
▁refuse	-11.0979
▁gentle	-11.1007
magine	-11.1009
▁Project	-11.1009
▁Yunnan	-11.1009
▁global	-11.1009
▁native	-11.1009
▁politic	-11.1009
▁quilt	-11.1009
▁solution	-11.1009
▁supercomputer	-11.1009
scription	-11.1009
▁Ticket	-11.1009
▁gesture	-11.1009
▁medium	-11.1009
▁Boston	-11.1009
▁album	-11.1009
Study	-11.1009
▁Store	-11.101
▁fries	-11.101
▁Pay	-11.1011
brid	-11.1021
burg	-11.1022
sleep	-11.1178
Halloween	-11.1222
▁Clinton	-11.1222
▁Swimming	-11.1222
▁enemies	-11.1222
▁purple	-11.1222
▁responsible	-11.1222
▁eraser	-11.1222
Coffee	-11.1222
▁Lesson	-11.1222
▁source	-11.1222
▁pork	-11.1222
ograph	-11.1222
▁shelter	-11.1222
▁grape	-11.1222
▁Save	-11.1224
999	-11.1263
Linda	-11.1355
blue	-11.1355
▁direct	-11.1414
Healthy	-11.1424
▁electric	-11.1438
▁improving	-11.1439
▁practicing	-11.1439
▁senior	-11.1439
▁tricks	-11.1439
▁Voice	-11.1439
▁addition	-11.1439
▁compete	-11.1439
▁Therefore	-11.1439
▁charm	-11.1439
▁printed	-11.144
▁edge	-11.1441
Modern	-11.1441
▁Edward	-11.1449
hearted	-11.1465
minute	-11.1576
Scientists	-11.1577
Japan	-11.1577
▁Chengdu	-11.1661
▁McDonald	-11.1661
▁butterflies	-11.1661
▁centuries	-11.1661
▁concentrat	-11.1661
▁cultural	-11.1661
▁particular	-11.1661
▁software	-11.1661
▁universities	-11.1661
▁Anhui	-11.1661
▁clown	-11.1662
▁wheat	-11.1662
▁Mountain	-11.1662
▁actress	-11.1662
▁Fei	-11.1662
▁Jobs	-11.1662
▁4:00	-11.1663
worm	-11.1672
Count	-11.175
know	-11.1783
Canada	-11.1804
Even	-11.1804
why	-11.1805
Elephant	-11.1889
Spiderman	-11.1889
▁Chongqing	-11.1889
▁Technology	-11.1889
▁Temple	-11.1889
▁embarrassed	-11.1889
▁involve	-11.1889
▁represent	-11.1889
▁shaking	-11.1889
▁vehicle	-11.1889
▁Guangzhou	-11.1889
▁diaries	-11.1889
▁GPS	-11.1889
▁Millie	-11.1889
▁Rico	-11.1889
▁deliver	-11.1889
▁lawyer	-11.1889
▁rescue	-11.1889
▁sailors	-11.1889
Wash	-11.1897
ntil	-11.1943
plant	-11.2035
doctor	-11.2036
person	-11.2039
▁hung	-11.2119
ological	-11.2121
▁Becky	-11.2121
▁Greek	-11.2121
▁humor	-11.2121
▁iPad	-11.2121
▁joking	-11.2121
▁nickname	-11.2121
▁Things	-11.2121
▁daydream	-11.2121
▁flood	-11.2121
▁germs	-11.2121
▁click	-11.2121
▁aloud	-11.2121
▁smog	-11.2121
▁Jake	-11.2121
▁gain	-11.2122
▁lightning	-11.2123
▁iron	-11.2124
Money	-11.2142
Nancy	-11.2274
Black	-11.2275
woman	-11.2275
▁frighten	-11.2333
ueen	-11.2337
▁dirt	-11.234
▁available	-11.2359
▁cabbage	-11.2359
▁feature	-11.2359
▁recipe	-11.2359
▁Barbie	-11.2359
▁internet	-11.2359
▁blond	-11.2359
▁jogging	-11.2359
▁flash	-11.2359
▁tiny	-11.236
▁Weibo	-11.236
▁warning	-11.236
▁Danny	-11.236
▁vari	-11.2362
▁Award	-11.2491
please	-11.2519
Exercis	-11.2603
Environment	-11.2603
▁Mickey	-11.2603
▁Professor	-11.2603
▁arriving	-11.2603
▁heavily	-11.2603
▁license	-11.2603
▁peacock	-11.2603
▁wealthy	-11.2603
Autumn	-11.2603
▁length	-11.2603
▁pretend	-11.2603
▁stupid	-11.2603
▁seventeen	-11.2603
▁fiction	-11.2603
▁hidden	-11.2603
▁nuts	-11.2603
▁Evan	-11.2603
▁Phone	-11.2603
Running	-11.2603
▁adopt	-11.2603
▁Know	-11.2603
▁wax	-11.2603
▁blew	-11.2604
▁outgoing	-11.2604
▁cries	-11.2604
▁hike	-11.2604
▁Baker	-11.2604
▁sunset	-11.2605
▁memori	-11.2615
Joe	-11.2768
Brown	-11.2769
London	-11.2769
famous	-11.2769
▁centr	-11.2772
change	-11.2779
Love	-11.2789
▁Hollywood	-11.2853
▁biology	-11.2853
▁documentary	-11.2853
▁genetic	-11.2853
▁possibly	-11.2853
▁silver	-11.2853
▁marriage	-11.2853
▁sharp	-11.2853
▁throat	-11.2853
▁whisper	-11.2853
▁gently	-11.2853
▁flag	-11.2853
▁giant	-11.2854
▁brand	-11.2854
▁Jay	-11.2854
Kind	-11.2902
Driv	-11.2917
girl	-11.3025
_	-11.3025
before	-11.3025
hocolate	-11.3106
etween	-11.3107
▁depress	-11.311
▁Guangdong	-11.311
▁Restaurant	-11.311
▁Unluckily	-11.311
▁bacteria	-11.311
▁boots	-11.311
▁cycling	-11.311
▁disadvantage	-11.311
▁toothbrush	-11.311
▁whistle	-11.311
▁wolves	-11.311
▁Group	-11.311
▁trend	-11.311
▁admire	-11.311
Writing	-11.311
▁issue	-11.3137
Lucy	-11.3288
enjoy	-11.3288
Each	-11.3288
▁easie	-11.3356
educated	-11.3373
▁Elvish	-11.3373
▁Expert	-11.3373
▁Foreign	-11.3373
▁Hepburn	-11.3373
▁Railway	-11.3373
▁invitation	-11.3373
▁pride	-11.3373
▁reflect	-11.3373
▁sneeze	-11.3373
▁sunglasses	-11.3373
▁Follow	-11.3373
▁predict	-11.3373
▁charge	-11.3373
▁garage	-11.3373
▁wolf	-11.3373
▁Merlin	-11.3373
▁copies	-11.3373
▁drama	-11.3373
▁stream	-11.3373
▁Muir	-11.3373
▁translate	-11.3373
Paper	-11.338
Few	-11.3393
giving	-11.3558
especially	-11.3558
First	-11.3559
Water	-11.3559
▁publish	-11.3617
cted	-11.362
▁happie	-11.3625
▁Child	-11.3643
Certainly	-11.3643
Dolphins	-11.3643
▁Bradley	-11.3643
▁Lincoln	-11.3643
▁Pacific	-11.3643
▁Sparky	-11.3643
▁ambition	-11.3643
▁department	-11.3643
▁explanation	-11.3643
▁migrant	-11.3643
▁peanut	-11.3643
▁phrase	-11.3643
▁practical	-11.3643
▁thieves	-11.3643
▁Country	-11.3643
▁Perkin	-11.3643
▁(5)	-11.3643
▁hippo	-11.3643
▁Fool	-11.3643
▁tiring	-11.3643
▁Visitor	-11.3643
▁trash	-11.3643
▁hiking	-11.3643
▁roast	-11.3644
▁trade	-11.3644
drink	-11.3836
draw	-11.3836
Since	-11.3836
CEPT	-11.3921
Thirty	-11.3921
▁Association	-11.3921
▁Christopher	-11.3921
▁Scrooge	-11.3921
▁Unfortunately	-11.3921
▁batteries	-11.3921
▁ceremony	-11.3921
▁literature	-11.3921
▁puzzled	-11.3921
▁spacecraft	-11.3921
▁protein	-11.3921
▁Pasha	-11.3921
▁rainbow	-11.3921
▁Place	-11.3921
▁(2)	-11.3921
▁Potter	-11.3921
▁Emma	-11.3921
▁Flower	-11.3921
▁hula	-11.3921
▁Wide	-11.3921
▁coral	-11.3921
▁spank	-11.3922
Women	-11.3924
Marc	-11.3959
ogging	-11.3977
Australia	-11.4122
Paul	-11.4122
Big	-11.4123
▁spoon	-11.4139
elieve	-11.4204
Rabbit	-11.4207
▁Beckham	-11.4207
▁Building	-11.4207
▁appreciate	-11.4207
▁belief	-11.4207
▁boiling	-11.4207
▁heavier	-11.4207
▁psychologist	-11.4207
▁Tianjin	-11.4207
▁Cindy	-11.4207
▁relation	-11.4207
▁fisherman	-11.4207
▁fried	-11.4207
▁slim	-11.4207
▁historic	-11.4208
Japanese	-11.4416
different	-11.4416
mouth	-11.4416
minded	-11.4463
Bicycle	-11.4501
▁Einstein	-11.4501
▁Library	-11.4501
▁Marquez	-11.4501
▁Sullivan	-11.4501
▁Tiffany	-11.4501
▁Titanic	-11.4501
▁graduation	-11.4501
▁granddaughter	-11.4501
▁kilograms	-11.4501
▁lantern	-11.4501
▁naughty	-11.4501
▁parrot	-11.4501
▁Cathy	-11.4501
▁earliest	-11.4501
▁background	-11.4501
▁version	-11.4501
▁jog	-11.4501
▁genes	-11.4501
▁passenger	-11.4534
▁Victor	-11.4642
Victoria	-11.466
fruit	-11.4719
Remember	-11.4719
Grade	-11.4719
Monday	-11.4719
basketball	-11.4719
yellow	-11.4719
▁potato	-11.4795
▁advertise	-11.4801
raffic	-11.4803
▁(5,2,	-11.4804
Fifteen	-11.4804
Television	-11.4804
▁AIDS	-11.4804
▁Colombia	-11.4804
▁Jersey	-11.4804
▁Pinky	-11.4804
▁Valentine	-11.4804
▁chickenpox	-11.4804
▁liquid	-11.4804
▁rooster	-11.4804
▁shadow	-11.4804
▁supply	-11.4804
▁sweep	-11.4804
▁tutor	-11.4804
▁Venice	-11.4804
▁curious	-11.4804
Fruit	-11.4804
▁Kathy	-11.4804
▁lamp	-11.4804
▁Smile	-11.4804
▁Movie	-11.4804
Phila	-11.4806
Fresh	-11.4808
Angry	-11.4812
ABC	-11.4826
Name	-11.489
▁receiv	-11.491
Success	-11.4999
fresh	-11.5032
▁generous	-11.5116
Address	-11.5116
Laughter	-11.5116
▁Carolina	-11.5116
▁Jessica	-11.5116
▁Program	-11.5116
▁Toronto	-11.5116
▁Wilbur	-11.5116
▁aircraft	-11.5116
▁cruel	-11.5116
▁decibel	-11.5116
▁emergency	-11.5116
▁extreme	-11.5116
▁kilometres	-11.5116
▁nutrition	-11.5116
▁schedule	-11.5116
▁nineteen	-11.5116
▁Scots	-11.5116
▁credit	-11.5116
▁pianist	-11.5116
Business	-11.5116
▁modest	-11.5116
(...)	-11.5117
Self	-11.5133
DAY	-11.5136
nterpret	-11.5154
▁vegetable	-11.517
fternoon	-11.5275
Zhang	-11.5354
Rose	-11.5354
Shout	-11.5416
Confucius	-11.5439
▁Liverpool	-11.5439
▁Pakistan	-11.5439
