<unk>	0
<s>	0
</s>	0
.	-2.93798
▁the	-3.49022
s	-3.59673
,	-3.61156
▁to	-3.86197
:	-3.87019
▁a	-3.9738
▁and	-4.12853
▁is	-4.28241
'	-4.395
▁in	-4.46016
▁of	-4.52218
▁The	-4.5468
▁are	-4.71283
▁	-4.75779
▁you	-4.84727
▁I	-4.86292
t	-4.87398
▁"	-5.08224
▁for	-5.16808
▁it	-5.22449
▁was	-5.24846
▁A	-5.30139
▁that	-5.37717
▁can	-5.43745
▁he	-5.43852
▁on	-5.48088
ing	-5.50195
▁have	-5.52201
▁C	-5.5274
▁B	-5.54134
▁D	-5.58217
▁with	-5.59709
▁his	-5.6219
▁.	-5.62811
▁at	-5.64208
▁people	-5.65439
▁question	-5.6651
?	-5.69357
▁possible	-5.70563
▁answers	-5.71053
▁they	-5.74565
▁be	-5.74865
d	-5.81704
▁He	-5.91078
ed	-5.91823
▁my	-5.92476
-	-5.94674
▁her	-5.96777
▁from	-5.98283
▁your	-5.98605
▁not	-5.9953
▁_	-5.99577
▁do	-6.01871
▁their	-6.02609
a	-6.03363
▁like	-6.03826
e	-6.03903
▁about	-6.04419
▁we	-6.04465
▁very	-6.046
▁or	-6.075
m	-6.09596
n	-6.11366
▁will	-6.12123
▁It	-6.13046
."	-6.13313
▁said	-6.15064
▁them	-6.16454
▁school	-6.18042
▁time	-6.18467
y	-6.19987
▁she	-6.21231
▁but	-6.21323
▁one	-6.229
▁more	-6.27026
▁day	-6.278
▁all	-6.30445
▁some	-6.31858
▁They	-6.32875
▁when	-6.34786
▁good	-6.36231
▁me	-6.36507
▁there	-6.38196
▁has	-6.39237
▁so	-6.41827
▁him	-6.42884
er	-6.43922
▁had	-6.44505
▁an	-6.45836
▁go	-6.46997
▁up	-6.48693
▁this	-6.4876
I	-6.49097
▁many	-6.50585
▁She	-6.51842
▁But	-6.52947
▁as	-6.53287
▁by	-6.54682
▁get	-6.56395
▁were	-6.57222
▁man	-6.58402
▁know	-6.59753
▁make	-6.60756
▁other	-6.61355
r	-6.62284
▁,	-6.64337
in	-6.64635
ly	-6.64636
▁out	-6.651
▁because	-6.66204
▁see	-6.66543
,"	-6.67163
▁much	-6.69549
lso	-6.69891
▁In	-6.69929
!	-6.7017
▁old	-6.71734
▁don	-6.72331
"	-6.72351
▁help	-6.73284
re	-6.74031
▁our	-6.74465
▁what	-6.75849
i	-6.76589
▁We	-6.77286
▁When	-6.79053
▁students	-6.7914
p	-6.79207
▁want	-6.79665
▁home	-6.81254
▁food	-6.82178
▁children	-6.83028
The	-6.83633
▁too	-6.84697
▁things	-6.85682
▁take	-6.86338
c	-6.87564
▁only	-6.88522
▁think	-6.88955
al	-6.89
▁work	-6.89386
▁than	-6.89886
▁friends	-6.90855
A	-6.91639
▁first	-6.91692
?"	-6.91811
▁You	-6.91832
▁way	-6.92984
▁years	-6.93204
▁who	-6.9357
o	-6.93892
▁lot	-6.96233
▁two	-6.96285
▁mother	-6.96432
▁should	-6.96838
▁us	-6.9748
▁would	-6.97648
▁What	-6.97906
▁life	-6.98251
▁new	-6.98476
▁if	-6.98851
▁English	-6.99194
▁world	-7.01231
es	-7.02016
▁If	-7.02695
▁into	-7.04339
▁how	-7.04421
▁no	-7.07369
▁money	-7.07696
▁There	-7.08382
ll	-7.08386
▁often	-7.10326
▁parents	-7.11414
▁could	-7.11915
▁most	-7.13099
▁every	-7.13552
an	-7.13581
▁different	-7.14299
▁find	-7.14931
u	-7.16483
en	-7.16967
▁And	-7.17749
▁use	-7.18104
▁after	-7.18928
▁big	-7.19044
▁went	-7.1926
▁father	-7.1984
▁give	-7.19986
▁may	-7.20414
the	-7.21175
▁water	-7.21423
▁boy	-7.21775
▁Chinese	-7.21869
▁So	-7.23316
▁tell	-7.23608
▁just	-7.23724
or	-7.23941
▁say	-7.25557
▁family	-7.25849
▁eat	-7.26038
▁something	-7.26284
▁little	-7.26302
le	-7.2636
▁back	-7.26442
▁did	-7.27032
▁learn	-7.27258
g	-7.2758
▁young	-7.27968
▁always	-7.28139
It	-7.28683
▁didn	-7.29079
▁best	-7.29575
▁teacher	-7.29719
▁Mr	-7.29836
on	-7.30026
▁need	-7.30215
ve	-7.31205
▁says	-7.31408
▁S	-7.31436
▁important	-7.31574
▁look	-7.32105
▁Then	-7.32278
▁year	-7.32773
▁asked	-7.33108
▁This	-7.33611
▁China	-7.33804
▁well	-7.34061
▁made	-7.34241
▁house	-7.35124
▁play	-7.35353
▁small	-7.35573
S	-7.35754
▁car	-7.35809
ar	-7.36111
▁long	-7.36278
▁over	-7.3641
l	-7.36917
▁p	-7.36933
b	-7.36955
▁now	-7.36967
▁name	-7.372
▁going	-7.37578
th	-7.38255
He	-7.38724
▁even	-7.39613
▁come	-7.40515
▁down	-7.40696
▁happy	-7.41893
▁came	-7.41934
▁feel	-7.4236
▁then	-7.4247
▁hard	-7.43251
▁live	-7.43333
▁put	-7.4374
▁One	-7.44556
▁My	-7.45212
▁got	-7.45644
it	-7.45955
▁before	-7.46773
h	-7.47244
▁same	-7.47313
▁each	-7.48369
▁away	-7.4923
▁any	-7.49237
▁buy	-7.49869
▁great	-7.50693
▁Some	-7.51054
▁better	-7.51904
ri	-7.5235
▁read	-7.52924
▁around	-7.52965
▁passage	-7.5297
▁morning	-7.53798
▁again	-7.54218
▁friend	-7.54252
f	-7.54312
▁keep	-7.55114
▁T	-7.56102
▁found	-7.5647
▁love	-7.56759
▁never	-7.57517
▁must	-7.57706
▁M	-7.5777
▁person	-7.5903
▁P	-7.60746
00	-7.61561
▁thought	-7.61982
▁last	-7.62285
ch	-7.63122
▁girl	-7.63428
k	-7.6356
▁After	-7.64005
▁three	-7.64206
▁am	-7.64551
▁been	-7.6462
he	-7.6483
▁music	-7.64939
▁class	-7.65791
▁woman	-7.6711
▁does	-7.67155
▁really	-7.67413
▁books	-7.67486
ir	-7.67602
▁wanted	-7.67978
at	-7.68072
▁told	-7.68962
▁right	-7.69909
▁night	-7.7
▁talk	-7.7023
▁these	-7.70295
▁19	-7.70742
▁others	-7.70809
ers	-7.70891
▁place	-7.71523
!"	-7.71801
▁For	-7.71857
▁still	-7.7192
▁usually	-7.72079
)	-7.72623
▁took	-7.72656
▁which	-7.72973
st	-7.73372
▁become	-7.73972
▁next	-7.74238
▁doesn	-7.7435
▁How	-7.75376
▁few	-7.7541
▁beautiful	-7.75433
▁animals	-7.75787
and	-7.76098
ur	-7.76694
ter	-7.76912
▁At	-7.77639
w	-7.78819
▁kind	-7.79316
est	-7.79711
▁room	-7.79762
▁city	-7.80141
▁near	-7.80355
▁show	-7.8051
▁called	-7.81619
▁used	-7.81693
▁bad	-7.82368
▁F	-7.83782
E	-7.83797
▁own	-7.8392
▁TV	-7.83989
▁study	-7.84128
▁On	-7.84433
C	-7.85312
2	-7.85337
▁writer	-7.85551
▁book	-7.86567
▁saw	-7.88075
▁stop	-7.88159
▁(	-7.882
In	-7.88597
▁His	-7.89875
▁People	-7.90568
▁words	-7.90623
▁part	-7.90631
▁Do	-7.90799
▁sleep	-7.9092
ic	-7.91166
We	-7.91916
▁hours	-7.92002
▁popular	-7.92904
to	-7.93083
▁enough	-7.9317
▁nice	-7.93348
Because	-7.93572
You	-7.93587
▁off	-7.93706
▁goes	-7.93844
▁likes	-7.93923
▁Li	-7.94282
▁3	-7.94345
lo	-7.94478
▁while	-7.9451
▁looked	-7.9492
ce	-7.94962
▁another	-7.95189
▁following	-7.95623
They	-7.95627
▁Many	-7.95862
▁days	-7.95959
▁son	-7.95977
▁call	-7.96069
--	-7.9632
▁left	-7.9669
ie	-7.97227
5	-7.97241
▁student	-7.97862
7	-7.98672
▁such	-7.9883
▁Which	-7.98835
▁try	-7.99368
▁high	-7.99758
▁eyes	-7.99991
▁four	-8.00451
She	-8.0064
▁computer	-8.00722
▁clothes	-8.00822
D	-8.00985
▁where	-8.0103
▁doctor	-8.01532
▁enjoy	-8.01537
▁ask	-8.01844
1	-8.01977
▁country	-8.02647
▁stay	-8.02921
▁began	-8.02946
▁bus	-8.03165
▁Now	-8.03259
▁walk	-8.03607
▁American	-8.03757
el	-8.04237
▁hand	-8.04325
▁kids	-8.04473
▁special	-8.05021
▁together	-8.05421
▁job	-8.06142
▁famous	-8.06226
▁five	-8.06298
▁story	-8.06633
3	-8.07217
▁dog	-8.07659
T	-8.07678
▁door	-8.07704
un	-8.07877
▁That	-8.08187
▁visit	-8.08236
▁here	-8.08326
▁reading	-8.08353
▁someone	-8.08404
▁through	-8.08475
▁countries	-8.08578
la	-8.08926
▁spend	-8.09213
is	-8.09605
▁week	-8.09879
▁New	-8.10022
▁face	-8.10037
▁1	-8.10048
se	-8.10063
▁remember	-8.1042
▁write	-8.10847
am	-8.10945
▁let	-8.11101
▁air	-8.11201
▁sports	-8.11322
▁bed	-8.11426
▁example	-8.11731
▁playing	-8.11742
▁thing	-8.12002
old	-8.1231
▁number	-8.12481
te	-8.12601
▁later	-8.12704
▁start	-8.12836
▁care	-8.13204
▁travel	-8.13231
▁interesting	-8.1351
▁E	-8.13895
▁shop	-8.14056
▁why	-8.15032
▁change	-8.15152
▁Mrs	-8.15156
▁pay	-8.15541
▁watch	-8.15748
▁lunch	-8.17557
▁Tom	-8.18136
▁park	-8.18239
▁train	-8.18293
▁started	-8.18294
▁fun	-8.18377
▁comes	-8.18391
What	-8.18536
ha	-8.18685
▁problem	-8.18756
▁hope	-8.18842
▁fish	-8.18965
ra	-8.18995
▁short	-8.19039
▁gave	-8.1904
6	-8.19096
▁kinds	-8.19474
▁2	-8.19513
▁without	-8.19757
▁No	-8.19834
▁e	-8.20015
▁clean	-8.20065
▁became	-8.20311
▁doing	-8.20394
▁lives	-8.20435
▁games	-8.20518
▁minutes	-8.20659
▁true	-8.20661
▁during	-8.20662
4	-8.20709
▁c	-8.20746
8	-8.21044
▁red	-8.21118
▁today	-8.21607
".	-8.21885
▁age	-8.22115
we	-8.22179
▁easy	-8.2219
▁those	-8.2243
▁However	-8.22459
▁Jack	-8.22473
ne	-8.22502
▁team	-8.22618
▁makes	-8.22838
ion	-8.22947
No	-8.23068
▁soon	-8.23078
▁re	-8.23243
▁quickly	-8.23286
▁Why	-8.2376
▁Day	-8.2387
My	-8.23933
▁late	-8.24354
li	-8.24356
v	-8.24402
ation	-8.24424
▁might	-8.24486
▁phone	-8.2492
▁free	-8.25033
▁problems	-8.25134
▁end	-8.25214
▁idea	-8.25222
▁G	-8.25273
▁birthday	-8.26182
▁ago	-8.26183
▁evening	-8.26279
▁paper	-8.26477
▁places	-8.26749
▁second	-8.26924
▁means	-8.26971
M	-8.27226
When	-8.27326
▁To	-8.27431
ol	-8.27431
▁couldn	-8.2761
▁b	-8.27899
▁wants	-8.28071
z	-8.28074
▁Her	-8.28229
▁poor	-8.28553
O	-8.28998
▁Internet	-8.2906
▁open	-8.293
▁language	-8.29455
▁afternoon	-8.29506
▁understand	-8.29932
▁difficult	-8.29951
▁sure	-8.29966
▁W	-8.30109
▁speak	-8.30126
▁child	-8.31028
il	-8.31038
P	-8.31299
▁its	-8.31315
▁Beijing	-8.31327
How	-8.31453
▁half	-8.31632
▁strong	-8.32127
▁under	-8.32258
▁move	-8.32363
▁teachers	-8.32696
▁cold	-8.32847
as	-8.32889
▁wife	-8.33076
W	-8.33939
▁weather	-8.34105
▁sometimes	-8.34409
▁less	-8.34688
▁10	-8.34803
▁anything	-8.35104
9	-8.35516
▁4	-8.3561
▁far	-8.35767
ment	-8.35815
ang	-8.35963
F	-8.36046
▁homework	-8.36201
L	-8.36218
▁won	-8.36328
▁healthy	-8.36581
▁sea	-8.36717
▁K	-8.36735
▁grow	-8.36781
▁bike	-8.36847
▁summer	-8.36847
▁once	-8.37067
▁head	-8.37165
There	-8.37232
▁brother	-8.37528
B	-8.37817
▁ways	-8.37914
▁5	-8.38207
▁making	-8.38238
one	-8.38537
▁body	-8.38541
▁tree	-8.38613
▁everyone	-8.38729
▁f	-8.38966
▁Mary	-8.3905
▁School	-8.39154
▁living	-8.39631
▁answer	-8.39777
▁tea	-8.39927
But	-8.40204
▁being	-8.40489
▁everything	-8.40519
▁front	-8.41053
▁trees	-8.41231
▁knew	-8.41628
▁John	-8.41652
▁drink	-8.41772
▁8	-8.41914
▁trip	-8.4206
▁heart	-8.42184
▁fact	-8.42352
▁black	-8.42841
▁m	-8.42872
▁meet	-8.42978
▁felt	-8.43077
ting	-8.43136
me	-8.43213
▁run	-8.43359
ry	-8.44027
▁street	-8.44094
▁sad	-8.44106
▁leave	-8.44247
▁fast	-8.44281
▁daughter	-8.44401
▁garden	-8.44549
▁decided	-8.44807
▁six	-8.44985
▁Green	-8.45079
id	-8.45151
▁football	-8.45442
▁6	-8.45443
ho	-8.45613
▁As	-8.45634
▁both	-8.45894
▁wear	-8.46199
▁yourself	-8.46221
▁dinner	-8.46344
▁able	-8.46696
▁hour	-8.4685
▁rain	-8.46944
▁dream	-8.4703
▁20	-8.47135
▁early	-8.47288
nd	-8.47492
year	-8.47603
▁send	-8.47625
▁hands	-8.47684
▁Most	-8.47698
co	-8.47808
▁eating	-8.47859
▁wrong	-8.47865
ong	-8.47968
▁turn	-8.47985
▁angry	-8.48019
▁between	-8.48019
▁basketball	-8.4806
▁Every	-8.49282
▁Sunday	-8.49301
▁times	-8.49439
▁Don	-8.49469
ia	-8.49699
▁large	-8.49839
▁green	-8.49948
▁until	-8.50034
age	-8.50247
ian	-8.50378
▁All	-8.50481
▁information	-8.50505
▁main	-8.50506
▁sit	-8.5068
▁Peter	-8.50689
▁sun	-8.50709
▁Sometimes	-8.50797
▁ten	-8.50817
▁town	-8.51069
▁million	-8.51136
▁listen	-8.51295
▁believe	-8.51319
R	-8.51358
▁office	-8.5146
If	-8.5164
hi	-8.52072
▁busy	-8.52096
H	-8.52108
▁rich	-8.52252
be	-8.52427
▁game	-8.52447
▁road	-8.52554
▁un	-8.52607
Do	-8.52967
ever	-8.53108
▁outside	-8.53113
▁sister	-8.53127
ies	-8.53434
▁getting	-8.53561
▁white	-8.53591
▁hot	-8.53762
▁nothing	-8.53913
man	-8.53947
▁hear	-8.5429
▁light	-8.54504
▁middle	-8.54531
▁blue	-8.54576
▁cars	-8.54581
ight	-8.54822
ow	-8.55121
▁hair	-8.55352
▁party	-8.55389
▁cat	-8.5542
▁bring	-8.55486
▁future	-8.55506
▁join	-8.55671
ate	-8.55906
▁Ma	-8.55908
▁stories	-8.56003
▁breakfast	-8.56005
▁working	-8.56118
(	-8.56155
▁warm	-8.56391
▁looking	-8.56397
N	-8.5656
you	-8.56891
▁America	-8.56898
▁di	-8.56902
nt	-8.57446
▁shopping	-8.57532
▁flowers	-8.57653
▁From	-8.57774
▁word	-8.57937
▁favorite	-8.58188
▁course	-8.58529
▁test	-8.58544
▁birds	-8.58597
▁set	-8.58883
▁winter	-8.58887
they	-8.5901
▁?	-8.5905
▁hospital	-8.59213
▁quit	-8.59397
▁exercise	-8.59751
▁talking	-8.60375
▁lost	-8.60423
▁himself	-8.60443
us	-8.60718
▁London	-8.61005
pe	-8.61085
▁ever	-8.61327
▁wrote	-8.61646
▁born	-8.61743
j	-8.61757
▁floor	-8.61822
▁o	-8.61927
▁hurt	-8.61998
▁space	-8.62347
To	-8.62722
▁J	-8.62871
▁earth	-8.62904
▁r	-8.6301
▁smile	-8.63127
▁heard	-8.63252
▁R	-8.63512
▁table	-8.63787
▁past	-8.63919
ma	-8.63925
▁bag	-8.6398
im	-8.64039
▁ran	-8.64071
▁full	-8.64206
▁vegetables	-8.64501
:30	-8.6467
▁Y	-8.65051
▁Here	-8.65095
▁holiday	-8.65659
▁experience	-8.65959
ist	-8.66234
▁cities	-8.66336
less	-8.66385
▁tall	-8.66752
▁sign	-8.66767
▁walked	-8.66831
▁Smith	-8.66882
bo	-8.67136
▁farmer	-8.67217
▁stopped	-8.67254
▁seven	-8.67636
but	-8.67761
▁7	-8.67805
▁lived	-8.67891
▁box	-8.68004
▁months	-8.6818
ard	-8.68277
▁rest	-8.68537
▁fire	-8.68566
▁health	-8.68739
▁Saturday	-8.68804
ty	-8.68901
▁window	-8.68923
▁died	-8.69074
▁restaurant	-8.69106
ccording	-8.6915
▁These	-8.69508
▁tried	-8.69702
ul	-8.69785
▁tired	-8.69892
▁12	-8.70027
Mr	-8.70028
▁answered	-8.70255
▁real	-8.70502
▁desk	-8.7066
▁group	-8.70679
▁Brown	-8.70736
vi	-8.70964
▁classes	-8.71122
▁men	-8.71146
▁Black	-8.71304
op	-8.71453
▁eight	-8.71467
▁shows	-8.7164
▁fly	-8.71828
all	-8.71856
▁looks	-8.71868
▁side	-8.72081
▁watching	-8.72141
sh	-8.7226
able	-8.72337
▁With	-8.7234
▁g	-8.72414
she	-8.72504
,000	-8.72808
ny	-8.73386
ant	-8.73798
▁afraid	-8.73986
▁writing	-8.74186
50	-8.74392
▁store	-8.74589
▁mind	-8.74786
ness	-8.74788
Yes	-8.74804
▁bird	-8.75005
▁gets	-8.75017
▁girls	-8.75095
▁15	-8.75157
▁close	-8.75169
▁H	-8.75541
▁horse	-8.75794
▁ball	-8.75827
▁stand	-8.76032
▁)	-8.76128
▁choose	-8.762
▁easily	-8.762
▁save	-8.76314
▁learning	-8.76363
▁according	-8.76791
▁river	-8.76812
One	-8.7682
▁surprised	-8.76982
▁cause	-8.77017
▁walking	-8.77038
▁asks	-8.77181
▁online	-8.77183
▁Be	-8.77236
▁land	-8.77811
▁baby	-8.77841
for	-8.7788
▁Bill	-8.77899
▁month	-8.78265
▁Your	-8.78442
▁piece	-8.78491
▁schools	-8.78893
▁drive	-8.79004
▁l	-8.79021
▁plane	-8.79287
▁teach	-8.7935
▁driver	-8.79385
▁works	-8.79713
▁whole	-8.79747
▁18	-8.79879
▁done	-8.79901
▁using	-8.80113
x	-8.80657
▁hotel	-8.80823
▁worked	-8.80886
▁snow	-8.81206
mp	-8.8122
om	-8.81226
ure	-8.81317
▁chance	-8.8142
This	-8.81671
ful	-8.81915
▁trouble	-8.82065
▁village	-8.82262
▁scientists	-8.82325
▁farm	-8.82331
▁plants	-8.82892
▁fall	-8.82959
▁letter	-8.83173
▁along	-8.83454
▁$	-8.83704
▁color	-8.8374
▁mean	-8.83953
▁York	-8.84026
0	-8.8449
▁ride	-8.84709
▁safe	-8.84983
▁World	-8.85132
▁swimming	-8.85391
▁happen	-8.85565
mail	-8.85584
▁L	-8.85793
▁dress	-8.85802
▁helps	-8.85829
rs	-8.85875
ling	-8.85987
▁England	-8.86123
▁title	-8.86251
▁learned	-8.86668
▁ideas	-8.86691
▁traffic	-8.86702
▁themselves	-8.86928
▁lessons	-8.87116
▁Jim	-8.87341
▁protect	-8.87424
▁finish	-8.87569
▁Christmas	-8.8761
▁telephone	-8.8761
▁pass	-8.8778
Thank	-8.87838
▁husband	-8.87838
▁probably	-8.87838
og	-8.87879
▁boys	-8.8805
▁opened	-8.88093
clock	-8.88139
▁improve	-8.88297
▁200	-8.88339
▁sound	-8.88385
▁having	-8.88527
▁dance	-8.88528
▁classroom	-8.88543
▁computers	-8.88754
▁expensive	-8.88757
▁de	-8.8894
▁taking	-8.88996
▁order	-8.88998
▁pictures	-8.89056
▁begin	-8.89084
▁US	-8.89179
▁forest	-8.89319
▁-	-8.89411
▁else	-8.89452
▁pen	-8.89821
▁saying	-8.89898
▁cook	-8.89978
time	-8.90141
▁sorry	-8.902
ous	-8.90229
▁ground	-8.90385
▁interested	-8.90585
▁history	-8.90621
At	-8.90782
ue	-8.90826
▁building	-8.90911
▁almost	-8.91032
▁worried	-8.91091
▁Friday	-8.91168
▁meat	-8.91465
▁co	-8.9151
▁Bob	-8.91544
▁dollars	-8.91802
▁cool	-8.91883
▁picture	-8.91969
20	-8.92028
▁several	-8.92044
▁rules	-8.92175
▁environment	-8.92278
▁helped	-8.92513
▁families	-8.92518
ping	-8.92751
▁plan	-8.9278
▁station	-8.93022
▁build	-8.93073
▁behind	-8.93243
▁cut	-8.93333
▁happened	-8.93527
▁inside	-8.93528
▁thinks	-8.93745
On	-8.93798
▁Mo	-8.93809
▁bought	-8.93965
▁result	-8.93965
▁Ro	-8.94131
son	-8.94172
▁running	-8.9421
▁thank	-8.94328
▁attention	-8.94452
▁Who	-8.94604
▁twenty	-8.94763
▁sell	-8.94783
10	-8.94784
▁sing	-8.94869
▁Wang	-8.94986
▁spent	-8.95188
mi	-8.95347
▁dad	-8.95681
▁longer	-8.95719
ive	-8.95745
▁catch	-8.95753
▁9	-8.9585
▁Today	-8.96016
▁activities	-8.96177
▁ice	-8.96387
▁business	-8.96405
▁White	-8.96475
▁carry	-8.96532
▁touch	-8.96578
Some	-8.96593
▁step	-8.96675
▁coming	-8.96871
▁U	-8.96907
com	-8.97163
▁least	-8.97201
▁seen	-8.97333
um	-8.97536
▁Where	-8.97537
▁milk	-8.97678
▁yuan	-8.97931
▁culture	-8.98438
▁moon	-8.98438
▁wonderful	-8.98697
Oh	-8.98723
▁May	-8.98937
▁program	-8.99133
▁lose	-8.99213
▁yellow	-8.99279
▁meal	-8.99418
tion	-8.99456
▁alone	-8.99465
▁carefully	-8.99538
▁hold	-8.99569
▁top	-8.9958
▁quiet	-8.99844
▁shoes	-8.99955
▁O	-9.00014
▁science	-9.00035
ke	-9.00046
▁trying	-9.00049
People	-9.00163
▁wall	-9.00245
▁fight	-9.00268
▁dogs	-9.00563
▁success	-9.00737
by	-9.00799
ick	-9.0082
▁news	-9.00896
▁chair	-9.01273
ary	-9.01672
▁liked	-9.0169
▁Mike	-9.01691
ba	-9.01725
▁teenagers	-9.018
That	-9.02006
▁die	-9.02071
na	-9.0219
▁police	-9.02305
▁moment	-9.02325
▁mobile	-9.02327
▁St	-9.02336
▁--	-9.02475
▁needed	-9.02499
▁wait	-9.02526
▁thousand	-9.02589
▁noise	-9.0259
do	-9.02759
▁st	-9.02891
▁sat	-9.0298
di	-9.03027
▁Co	-9.0306
▁dark	-9.0312
▁club	-9.03375
▁instead	-9.03387
▁company	-9.03387
▁Just	-9.03581
▁Children	-9.03598
gu	-9.03823
▁N	-9.03827
no	-9.03876
her	-9.03921
▁United	-9.03922
▁brought	-9.03922
▁robot	-9.03922
ud	-9.0397
Why	-9.04153
uring	-9.04229
▁cost	-9.04264
▁foot	-9.0428
▁strange	-9.04334
ber	-9.04345
▁turned	-9.04394
▁matter	-9.04461
go	-9.04634
▁college	-9.04731
▁orange	-9.04736
▁classmates	-9.04983
▁feeling	-9.05123
▁throw	-9.05552
▁cup	-9.05573
K	-9.05729
▁11	-9.06107
▁swim	-9.06365
▁plant	-9.06377
ca	-9.06383
▁newspaper	-9.06435
▁serious	-9.06513
▁foreign	-9.06644
▁lady	-9.06644
▁worry	-9.06644
▁art	-9.06679
▁forget	-9.06855
▁dangerous	-9.06929
▁changed	-9.07098
▁break	-9.07195
▁government	-9.07197
▁math	-9.0724
▁mouth	-9.07475
▁voice	-9.07475
▁given	-9.07496
od	-9.07723
▁sky	-9.07753
▁hit	-9.07766
G	-9.08101
▁waste	-9.08185
▁card	-9.08405
ng	-9.08546
ther	-9.08557
▁owner	-9.08675
oo	-9.08784
▁French	-9.08927
ge	-9.09126
▁earthquake	-9.09441
▁sent	-9.09443
▁held	-9.09732
my	-9.09966
▁University	-9.10296
▁since	-9.10296
men	-9.10439
▁cannot	-9.10514
▁across	-9.10582
▁pencil	-9.10582
ai	-9.10853
▁difference	-9.1087
our	-9.10901
▁,.	-9.10993
ver	-9.11111
▁fell	-9.11159
▁heavy	-9.11737
▁kept	-9.12029
▁fruit	-9.12335
▁con	-9.12358
▁Can	-9.12564
if	-9.12593
▁accident	-9.12611
▁deep	-9.12612
▁boat	-9.12614
▁Re	-9.12772
▁friendly	-9.12951
up	-9.13231
▁Japan	-9.13303
▁weeks	-9.13349
day	-9.13411
An	-9.13413
▁reason	-9.13472
▁price	-9.13494
▁played	-9.13605
▁Before	-9.13641
ill	-9.13887
hu	-9.13919
ather	-9.14213
out	-9.14227
▁report	-9.14252
▁loved	-9.14304
▁already	-9.14384
▁needs	-9.14656
ish	-9.14675
▁secret	-9.14682
ner	-9.1473
▁14	-9.14774
iddle	-9.14958
▁film	-9.15006
Well	-9.15026
▁waiting	-9.15141
▁Let	-9.1516
▁met	-9.15219
▁chicken	-9.15282
▁bread	-9.15294
",	-9.15409
▁USA	-9.15411
▁Because	-9.15426
▁listening	-9.15448
▁singing	-9.15483
▁animal	-9.15603
book	-9.15684
▁V	-9.15898
Hello	-9.15967
▁Our	-9.16462
▁."	-9.16549
▁wasn	-9.16786
▁w	-9.16786
▁States	-9.16798
port	-9.17076
thing	-9.172
ten	-9.17309
▁pick	-9.17522
▁Maybe	-9.17614
▁follow	-9.17659
▁ready	-9.17827
▁wish	-9.17949
▁line	-9.1798
▁clever	-9.18026
▁third	-9.18026
▁gold	-9.18078
▁NOT	-9.18336
▁parts	-9.18539
▁thinking	-9.18596
▁delicious	-9.18646
▁First	-9.18733
▁fresh	-9.18958
▁tennis	-9.18959
▁pet	-9.18991
▁sitting	-9.19008
ound	-9.19018
▁check	-9.1927
▁Monday	-9.1927
▁ta	-9.19374
ity	-9.19386
▁point	-9.19406
▁Americans	-9.19635
▁photo	-9.19722
Li	-9.19786
▁interest	-9.19856
▁pollution	-9.1991
▁useful	-9.2001
▁nine	-9.20031
▁studying	-9.20211
▁driving	-9.20214
▁hole	-9.20266
▁Japanese	-9.20299
▁soccer	-9.2053
▁faster	-9.20553
▁Le	-9.20565
▁Mar	-9.20798
Y	-9.20804
▁energy	-9.20848
▁studies	-9.20848
way	-9.20877
▁30	-9.20881
▁human	-9.21026
▁please	-9.21028
Don	-9.21121
▁local	-9.21166
Dear	-9.21192
gra	-9.21229
land	-9.21401
▁volunteer	-9.21486
▁slowly	-9.21573
uck	-9.21678
▁zoo	-9.21806
His	-9.21851
▁moved	-9.21881
▁hat	-9.21967
▁King	-9.22104
▁13	-9.2222
▁songs	-9.22299
▁David	-9.22311
▁Other	-9.22466
▁meaning	-9.22727
▁education	-9.22777
▁though	-9.23073
▁radio	-9.23098
▁feet	-9.232
▁Australia	-9.23319
his	-9.23328
Many	-9.2356
▁seat	-9.23623
get	-9.23755
▁wind	-9.23983
▁collect	-9.24052
▁bright	-9.24085
▁stars	-9.24222
▁field	-9.24278
All	-9.24426
▁hundred	-9.24695
ice	-9.25004
▁South	-9.2507
▁Earth	-9.25086
▁especially	-9.25155
▁laugh	-9.25348
▁bank	-9.25401
▁medicine	-9.26069
▁post	-9.2607
▁Car	-9.26205
U	-9.26219
▁smiled	-9.26285
▁Z	-9.26303
▁common	-9.26405
▁taxi	-9.26411
▁mom	-9.26441
▁arrived	-9.26575
▁offer	-9.27022
▁advice	-9.27079
▁plays	-9.27099
▁successful	-9.271
▁stone	-9.27112
nother	-9.27264
▁movies	-9.27393
▁share	-9.27419
ally	-9.27438
▁movie	-9.27443
▁excited	-9.27758
▁chocolate	-9.27798
▁meals	-9.27984
▁Look	-9.28027
▁miss	-9.28176
▁Shanghai	-9.28191
▁Of	-9.28323
▁deal	-9.28595
▁clear	-9.28655
art	-9.28764
are	-9.29086
▁Please	-9.29173
▁happiness	-9.29182
▁Su	-9.29213
▁City	-9.29233
▁written	-9.29476
▁form	-9.29651
▁Sam	-9.29701
▁present	-9.29918
▁ticket	-9.30279
ctor	-9.30482
▁pull	-9.30524
▁lake	-9.30538
▁season	-9.3056
▁By	-9.30742
▁ill	-9.30769
▁jobs	-9.30815
So	-9.30948
lu	-9.31182
▁exam	-9.31306
▁Ru	-9.3139
some	-9.31543
▁coffee	-9.31578
▁surprise	-9.31639
▁17	-9.31705
▁photos	-9.31776
row	-9.31792
▁An	-9.31857
▁Miss	-9.32143
▁clock	-9.32178
ph	-9.32189
▁taught	-9.32289
▁video	-9.32289
▁bedroom	-9.32305
▁myself	-9.3236
▁legs	-9.32502
▁power	-9.32631
▁Zhang	-9.32748
▁Dad	-9.32809
ake	-9.32946
▁Grade	-9.33159
aw	-9.33623
▁bit	-9.33793
▁anyone	-9.33874
▁Jenny	-9.33878
ug	-9.33893
▁Go	-9.34028
▁older	-9.34088
▁taken	-9.34122
▁player	-9.34336
▁star	-9.34403
▁Ann	-9.34423
▁text	-9.34451
▁leaves	-9.34495
ack	-9.34581
eng	-9.34592
▁modern	-9.34816
▁Hong	-9.34862
▁skin	-9.34888
▁dreams	-9.34988
▁seem	-9.35064
▁sounds	-9.3507
▁bigger	-9.35183
▁Alice	-9.3541
▁research	-9.35499
▁practice	-9.3555
▁Year	-9.3555
▁sick	-9.35582
▁women	-9.35919
▁finally	-9.35971
▁funny	-9.35973
ex	-9.3599
▁Jo	-9.3612
▁workers	-9.36336
ath	-9.36365
▁eye	-9.36541
▁returned	-9.36554
▁weekend	-9.36575
▁British	-9.36661
▁fine	-9.36695
For	-9.36757
▁meeting	-9.36951
▁wash	-9.37005
▁match	-9.37034
ton	-9.37192
side	-9.37353
bu	-9.37423
▁rock	-9.37425
▁skills	-9.37747
▁sport	-9.37751
▁16	-9.37795
▁return	-9.37899
▁bicycle	-9.38162
▁among	-9.38289
▁showed	-9.3832
lan	-9.38387
ance	-9.38485
▁festival	-9.38541
▁v	-9.38612
▁relax	-9.38651
how	-9.3882
▁growing	-9.38902
▁Each	-9.38921
▁uncle	-9.38951
▁passed	-9.38988
▁brothers	-9.39062
▁exciting	-9.39303
▁public	-9.39303
▁sentence	-9.39303
▁terrible	-9.39303
▁suddenly	-9.39328
▁k	-9.39349
▁choice	-9.39686
▁wood	-9.39888
▁supermarket	-9.4007
whether	-9.40071
▁taste	-9.40079
▁pair	-9.40112
▁Suddenly	-9.40135
▁June	-9.40204
And	-9.40251
▁Two	-9.40345
▁seemed	-9.40364
▁piano	-9.40457
▁eggs	-9.40461
▁Oh	-9.40705
ide	-9.40728
▁Everyone	-9.40804
▁round	-9.40867
▁habits	-9.40876
act	-9.4109
▁helping	-9.41217
▁magazine	-9.41233
▁gift	-9.41272
▁jump	-9.41357
▁reach	-9.41397
▁lucky	-9.41432
Four	-9.41502
▁library	-9.41624
▁Scientists	-9.41749
▁ex	-9.41761
work	-9.41764
▁luck	-9.41835
ial	-9.41935
▁feelings	-9.42074
▁Jane	-9.42196
fi	-9.42202
J	-9.42266
▁TRUE	-9.4241
▁act	-9.42425
▁Lin	-9.42531
▁lesson	-9.42676
▁colors	-9.42899
▁decide	-9.42908
ite	-9.43066
▁Even	-9.43082
br	-9.43119
▁April	-9.43292
▁biggest	-9.436
▁finished	-9.43672
▁agree	-9.43706
▁develop	-9.43707
like	-9.44009
▁easier	-9.44024
▁changes	-9.44054
▁painting	-9.44321
▁phones	-9.44379
▁above	-9.44405
▁island	-9.44539
▁climb	-9.44648
▁danger	-9.44791
▁character	-9.44805
▁hungry	-9.44809
Then	-9.44852
▁Linda	-9.44915
▁buildings	-9.44987
▁Britain	-9.4521
▁fat	-9.45313
even	-9.45397
aking	-9.45559
▁built	-9.45616
▁glasses	-9.45703
▁nose	-9.45733
▁pm	-9.45814
▁shouted	-9.45844
▁blood	-9.46024
▁favourite	-9.46024
qu	-9.46237
▁doctors	-9.46292
▁talked	-9.46354
Every	-9.46384
▁bags	-9.46388
play	-9.4641
▁article	-9.46434
▁museum	-9.46434
▁center	-9.46438
▁twelve	-9.4652
▁machine	-9.46625
▁mountain	-9.46781
▁Africa	-9.46846
▁grandfather	-9.46846
▁record	-9.46846
▁smoke	-9.46846
▁support	-9.46846
red	-9.47026
▁Liu	-9.47113
iao	-9.47141
▁houses	-9.47227
▁rice	-9.47285
low	-9.47291
▁weekends	-9.47356
▁stranger	-9.47453
▁50	-9.47529
▁song	-9.4767
▁control	-9.47674
▁teeth	-9.47674
▁lift	-9.47674
45	-9.47972
▁Te	-9.4807
▁knowledge	-9.48091
▁celebrate	-9.48091
▁provide	-9.48091
▁Kong	-9.48152
▁enter	-9.48513
▁grade	-9.48546
▁lights	-9.48673
▁apples	-9.48683
▁holidays	-9.48778
▁realized	-9.48781
▁simple	-9.48781
▁homes	-9.48897
▁Me	-9.48924
▁supper	-9.48929
▁tiger	-9.48929
▁polite	-9.48929
ock	-9.49054
ff	-9.49473
▁shops	-9.49518
▁Ben	-9.49537
▁Paul	-9.49889
▁!	-9.50008
▁seems	-9.50038
▁service	-9.502
▁thirty	-9.502
▁university	-9.502
▁website	-9.502
▁Park	-9.50201
▁Ha	-9.50241
long	-9.50304
▁100	-9.5046
▁th	-9.50553
▁careful	-9.50556
▁ho	-9.50595
▁proud	-9.50628
▁comfortable	-9.50631
▁Although	-9.50761
▁waiter	-9.50925
▁newspapers	-9.50955
▁brain	-9.51069
▁Later	-9.51092
▁known	-9.51273
▁allowed	-9.51307
▁cream	-9.51316
▁wearing	-9.51363
▁Finally	-9.51488
▁spring	-9.51488
▁Hu	-9.51682
▁Well	-9.51859
▁miles	-9.51921
▁traditional	-9.5202
▁watched	-9.52103
▁dro	-9.52104
ga	-9.52109
▁receive	-9.52136
ak	-9.52372
▁UK	-9.52376
▁players	-9.52537
people	-9.52823
so	-9.52855
▁gone	-9.52985
▁About	-9.53225
▁camp	-9.53232
▁coat	-9.53349
▁drinks	-9.53468
▁glass	-9.53577
▁subject	-9.53627
▁win	-9.53635
▁natural	-9.53671
▁shy	-9.53676
▁tears	-9.5373
▁sold	-9.53764
▁blind	-9.54114
▁king	-9.54441
▁happens	-9.54498
▁kitchen	-9.54558
▁cooking	-9.54885
ub	-9.54963
▁Kate	-9.55091
▁certain	-9.55322
▁Soon	-9.55693
tic	-9.55806
▁Dr	-9.55877
stood	-9.55895
▁happily	-9.55904
▁sweet	-9.55904
▁becoming	-9.55906
▁presents	-9.56233
ung	-9.56234
▁stayed	-9.56243
▁realize	-9.56527
▁members	-9.56601
▁include	-9.56811
▁journey	-9.56811
▁beginning	-9.56812
▁everywhere	-9.56837
▁loves	-9.57152
▁names	-9.57176
▁buses	-9.57251
▁area	-9.57255
▁bottle	-9.57267
▁dirty	-9.57267
▁salt	-9.57274
▁key	-9.57279
▁,"	-9.5729
▁herself	-9.57355
▁weight	-9.57361
▁personal	-9.57394
▁kill	-9.57469
▁pocket	-9.57726
---	-9.57929
was	-9.58041
▁technology	-9.58187
ook	-9.58199
▁cake	-9.58306
▁traveling	-9.58526
▁1.	-9.5857
▁teaching	-9.58612
▁ship	-9.58648
▁policeman	-9.58685
▁cross	-9.58708
▁singer	-9.58766
Now	-9.58944
▁Festival	-9.59115
▁dancing	-9.59115
▁television	-9.59115
▁term	-9.59127
▁Yang	-9.59228
▁Class	-9.59246
▁cover	-9.59356
▁allow	-9.59359
▁lead	-9.59382
ze	-9.59551
ust	-9.59553
▁kilometers	-9.59582
▁system	-9.59582
▁consider	-9.59583
led	-9.59622
▁notice	-9.59656
▁knows	-9.59709
▁Try	-9.59745
▁sleeping	-9.59893
▁24	-9.60051
▁caught	-9.60052
▁brown	-9.60052
▁flying	-9.60093
▁draw	-9.60117
▁More	-9.60118
▁Ho	-9.6013
▁Lu	-9.60208
▁joke	-9.60523
▁memory	-9.60524
▁Mom	-9.60548
▁paid	-9.60556
▁mum	-9.60568
▁including	-9.6061
▁drop	-9.60646
▁Gu	-9.60718
▁younger	-9.60773
▁Na	-9.60873
▁slow	-9.60894
▁smell	-9.60997
▁arms	-9.61229
▁asleep	-9.61474
▁studied	-9.61474
▁chat	-9.61477
▁broken	-9.61605
▁Po	-9.61641
▁ears	-9.61777
▁beach	-9.61888
▁Since	-9.61952
▁solve	-9.61953
▁grew	-9.61967
four	-9.62156
▁shout	-9.62164
▁Time	-9.62169
▁Are	-9.62182
▁Lo	-9.62251
▁baseball	-9.62433
▁Mother	-9.62457
▁Han	-9.62893
▁scar	-9.62941
Look	-9.63064
there	-9.63226
▁loud	-9.63271
▁gifts	-9.63353
▁worse	-9.63401
▁type	-9.63402
▁Not	-9.63664
▁cheap	-9.6373
east	-9.63759
19	-9.63785
▁rat	-9.63829
▁dead	-9.63891
each	-9.63942
▁restaurants	-9.63955
ck	-9.63956
▁mountains	-9.63975
▁kid	-9.64162
▁usual	-9.6425
▁laughed	-9.64286
have	-9.6431
▁0	-9.64356
▁moving	-9.64379
▁unhappy	-9.64387
15	-9.64498
▁visitors	-9.64536
30	-9.64549
ou	-9.64602
▁helpful	-9.64651
chi	-9.64656
fu	-9.64704
▁competition	-9.64872
Two	-9.65015
90	-9.65086
▁elephant	-9.6515
▁suggest	-9.65366
▁necessary	-9.65367
▁speed	-9.65368
Tom	-9.65403
▁Lucy	-9.65523
app	-9.65648
▁apple	-9.65659
▁mistakes	-9.65781
▁survey	-9.65864
▁size	-9.6588
▁percent	-9.6637
▁wide	-9.66397
▁gas	-9.66484
▁Also	-9.66502
▁letters	-9.6652
▁doll	-9.66646
▁sp	-9.6685
▁patient	-9.66867
▁nature	-9.66867
▁prize	-9.66867
▁war	-9.66873
▁encourage	-9.67077
40	-9.67248
▁ourselves	-9.67372
V	-9.67454
▁Ming	-9.67534
▁Life	-9.67609
▁begins	-9.67672
Five	-9.67749
▁Whi	-9.67822
▁smart	-9.67877
▁Bo	-9.67983
▁sisters	-9.68161
▁noticed	-9.68205
▁Yes	-9.68342
▁Street	-9.6839
▁cinema	-9.6839
▁effect	-9.6839
▁influence	-9.6839
▁meters	-9.68517
▁sir	-9.68559
friend	-9.68569
▁cr	-9.68646
▁list	-9.68873
▁activity	-9.68903
▁daily	-9.68903
▁Korea	-9.68903
▁guide	-9.68903
▁friendship	-9.68935
▁windows	-9.68984
two	-9.69092
ern	-9.69299
▁companies	-9.69418
▁January	-9.69522
▁September	-9.69522
▁giving	-9.69593
12	-9.69642
Most	-9.69656
make	-9.69677
▁per	-9.69724
▁low	-9.69757
line	-9.69914
▁artist	-9.69971
▁Good	-9.70245
▁lovely	-9.70511
▁Students	-9.70533
five	-9.70861
▁disease	-9.70981
▁shape	-9.70981
▁snake	-9.70981
▁soft	-9.70998
▁death	-9.71
ey	-9.71014
▁Yu	-9.71328
Be	-9.71389
zhou	-9.71506
▁welcome	-9.71507
▁pool	-9.71507
▁wouldn	-9.71676
By	-9.71955
▁habit	-9.71992
▁accept	-9.72036
▁twice	-9.72036
60	-9.72092
xi	-9.72139
▁Sun	-9.72236
▁com	-9.72318
▁paint	-9.72506
▁smoking	-9.72568
▁violin	-9.72568
▁panda	-9.72571
▁Mark	-9.72647
rew	-9.72673
▁Michael	-9.72693
▁however	-9.72858
▁received	-9.72982
▁India	-9.73062
▁vacation	-9.73103
▁bowl	-9.73103
▁Lisa	-9.73141
▁March	-9.73182
▁humans	-9.73338
shirt	-9.73339
▁San	-9.7356
▁grandmother	-9.7364
▁Sha	-9.73738
▁hearing	-9.73921
ix	-9.7403
▁prepare	-9.74037
▁Europe	-9.741
eat	-9.74147
▁opinion	-9.74181
▁thirteen	-9.74181
▁tourists	-9.74181
▁grass	-9.74182
▁Ta	-9.74185
▁runs	-9.74259
king	-9.74323
Good	-9.7443
▁drinking	-9.74615
give	-9.74653
▁La	-9.74755
▁appear	-9.75001
▁reached	-9.75101
▁standing	-9.75268
mate	-9.75317
▁25	-9.75469
Three	-9.75522
▁Tel	-9.75637
Chris	-9.75841
▁Canada	-9.7595
▁Helen	-9.76021
lin	-9.76296
▁drawing	-9.76296
▁languages	-9.76314
▁teache	-9.7635
▁glad	-9.76373
▁North	-9.76374
▁action	-9.76417
▁fu	-9.76422
▁colour	-9.76451
▁cards	-9.76805
▁disappear	-9.76928
▁market	-9.76931
▁mistake	-9.77021
can	-9.77119
Can	-9.77142
▁fishing	-9.77223
▁mark	-9.77275
▁du	-9.77395
▁picked	-9.77418
▁temperature	-9.77487
▁pack	-9.77583
▁largest	-9.77722
▁Have	-9.7778
▁visited	-9.77826
▁goal	-9.77999
▁factory	-9.78072
▁Henry	-9.7829
▁pieces	-9.78538
▁count	-9.78597
▁wave	-9.78614
▁law	-9.78639
io	-9.78745
▁asking	-9.78935
use	-9.7904
Hi	-9.79072
▁40	-9.7911
▁Love	-9.7917
▁hamburger	-9.79182
▁spoke	-9.79183
▁map	-9.79186
ory	-9.79318
▁messages	-9.79456
▁enjoyed	-9.79631
▁dear	-9.79912
▁adults	-9.80013
▁bar	-9.80075
▁hate	-9.80152
▁beside	-9.8026
▁replied	-9.80328
▁cried	-9.80329
▁smaller	-9.80426
ated	-9.805
▁weak	-9.80783
▁treat	-9.80884
▁Ka	-9.80975
▁ear	-9.8105
▁arrive	-9.81193
when	-9.81225
Jack	-9.81236
Once	-9.81307
▁Ni	-9.81308
▁greatest	-9.81323
tra	-9.81326
▁OK	-9.81407
▁21	-9.81465
▁sense	-9.81488
▁Club	-9.81488
▁cell	-9.81494
▁finger	-9.81507
▁rooms	-9.81515
▁streets	-9.81531
▁speaking	-9.81575
▁beat	-9.81579
que	-9.81779
ok	-9.81782
▁towards	-9.8182
▁camera	-9.8182
▁fans	-9.81827
not	-9.81926
▁guitar	-9.82072
▁talent	-9.82072
18	-9.82081
▁leg	-9.82101
said	-9.82337
hop	-9.82506
▁Steve	-9.82536
▁Last	-9.82599
▁groups	-9.826
▁affect	-9.82661
▁except	-9.82661
▁perfect	-9.82661
▁correct	-9.82661
70	-9.82687
Here	-9.82774
▁either	-9.82931
▁Lily	-9.82939
▁killed	-9.83008
▁crying	-9.83065
▁$1	-9.83152
▁De	-9.83181
▁wake	-9.83271
▁burn	-9.83444
▁closed	-9.83524
▁badly	-9.8363
▁cry	-9.83791
▁situation	-9.83848
▁mouse	-9.83848
▁stress	-9.83848
▁officer	-9.83892
▁worker	-9.84056
over	-9.84356
▁project	-9.84446
▁guess	-9.84446
▁south	-9.8445
ler	-9.84823
▁self	-9.84829
▁films	-9.84999
▁material	-9.85049
cent	-9.85358
▁oil	-9.85363
▁tickets	-9.85469
▁watches	-9.85563
▁grandma	-9.85655
▁level	-9.85655
▁married	-9.85655
▁subjects	-9.85716
▁autumn	-9.85798
▁ring	-9.85878
▁exams	-9.86031
air	-9.86217
▁soldier	-9.86273
bb	-9.86291
▁invited	-9.86387
▁Chen	-9.86425
▁Yan	-9.86546
▁brave	-9.86878
▁illness	-9.86906
▁Little	-9.87091
▁maybe	-9.87169
ities	-9.87266
▁planet	-9.87282
▁astronaut	-9.87495
▁France	-9.87495
▁boss	-9.87498
▁race	-9.87498
▁invention	-9.87503
▁thin	-9.87573
▁aunt	-9.87586
▁Bar	-9.87685
of	-9.87745
car	-9.87829
▁agreed	-9.87952
▁Or	-9.88045
Have	-9.88117
▁Nick	-9.88152
▁feed	-9.88194
65	-9.88315
known	-9.88531
▁produce	-9.88535
▁wild	-9.8874
▁bodies	-9.88741
▁professor	-9.88741
▁page	-9.88996
▁note	-9.89089
----	-9.89135
▁believed	-9.89276
▁communicate	-9.8937
▁decision	-9.8937
▁increase	-9.8937
▁trousers	-9.8937
▁flew	-9.89371
▁create	-9.89488
uch	-9.89543
▁lower	-9.89684
read	-9.8978
Where	-9.89793
▁Chang	-9.89853
▁juice	-9.90006
▁kite	-9.9002
▁bill	-9.90027
Six	-9.90041
▁guests	-9.90207
▁clearly	-9.90244
▁Three	-9.90348
▁Second	-9.9064
▁dry	-9.90651
▁volleyball	-9.90698
▁Big	-9.90841
▁Hi	-9.90893
▁scientist	-9.91255
▁Thursday	-9.91281
▁Tuesday	-9.91281
▁describe	-9.91281
ical	-9.91612
98	-9.91651
▁developed	-9.91715
▁tomorrow	-9.91926
▁expert	-9.91926
▁normal	-9.91926
▁Next	-9.91927
▁active	-9.91949
▁reasons	-9.91974
▁nobody	-9.92007
▁stronger	-9.92063
▁roads	-9.92138
▁saved	-9.92213
▁products	-9.92221
▁Mum	-9.92456
▁case	-9.92579
▁colorful	-9.9262
▁Nation	-9.92657
▁fewer	-9.92661
▁ruler	-9.92753
▁simpl	-9.92806
▁Joe	-9.92949
▁playground	-9.93229
▁similar	-9.93229
▁desert	-9.93229
▁plate	-9.9323
▁push	-9.9323
▁lay	-9.93243
▁brings	-9.93318
▁Make	-9.93372
▁bears	-9.9346
too	-9.93513
▁bear	-9.93601
▁Take	-9.93743
Her	-9.93746
gi	-9.94039
▁Great	-9.94066
John	-9.94366
▁pain	-9.94376
▁Once	-9.94477
▁leaving	-9.9455
▁hundreds	-9.94636
▁blog	-9.94697
▁ate	-9.94697
ail	-9.94828
▁cleaning	-9.94869
▁design	-9.9495
room	-9.94955
▁Keep	-9.94962
Chinese	-9.95038
Today	-9.95078
▁model	-9.95216
▁yet	-9.95217
let	-9.95423
body	-9.95617
▁bat	-9.9565
▁quick	-9.95757
▁colours	-9.95793
▁express	-9.95867
▁November	-9.95887
▁hill	-9.95891
▁clubs	-9.95917
Mrs	-9.96397
▁condition	-9.96563
▁screen	-9.96563
▁value	-9.96563
▁reduce	-9.96563
▁Paris	-9.96563
▁chose	-9.96584
▁huge	-9.9667
▁Rose	-9.96683
▁hall	-9.96689
▁fruits	-9.96697
▁filled	-9.96742
ade	-9.96801
▁minute	-9.96806
Are	-9.96855
▁quietly	-9.96907
head	-9.97091
▁raise	-9.97166
▁babies	-9.97243
▁conversation	-9.97243
▁experiment	-9.97243
▁Harry	-9.97261
▁everybody	-9.97323
▁host	-9.9736
▁print	-9.97643
▁hero	-9.97653
▁explain	-9.97658
▁notes	-9.97677
▁areas	-9.97726
▁cakes	-9.97807
▁depend	-9.97928
▁nervous	-9.97928
▁lonely	-9.97928
▁prefer	-9.97928
▁advertisement	-9.97932
▁happier	-9.97962
28	-9.98165
war	-9.98197
Who	-9.98252
▁reporter	-9.9836
three	-9.98467
ile	-9.98522
▁changing	-9.98618
▁thief	-9.98618
▁July	-9.98618
▁expression	-9.98646
▁national	-9.98661
▁Instead	-9.98727
▁Fu	-9.98749
▁James	-9.98853
▁style	-9.98971
Let	-9.99174
▁housework	-9.99426
▁laughing	-9.99465
▁Pe	-9.99491
▁cow	-9.99545
▁toys	-9.99694
After	-9.99866
light	-9.99883
▁medic	-9.99919
▁reported	-9.99945
▁complain	-10.0001
▁empty	-10.0001
▁worth	-10.0001
Happy	-10.0001
▁stick	-10.0005
Mo	-10.0007
ose	-10.0029
11	-10.0041
▁flower	-10.0053
▁manager	-10.0072
▁Tony	-10.0081
▁achieve	-10.0084
▁church	-10.0143
▁purpose	-10.0143
▁straight	-10.0143
▁skirt	-10.0143
▁Jones	-10.0143
▁Susan	-10.0143
look	-10.0143
ating	-10.0163
▁remembered	-10.0182
▁higher	-10.019
▁23	-10.019
▁---	-10.0204
▁trans	-10.0214
▁noodles	-10.0214
▁society	-10.0214
▁honest	-10.0214
▁sheep	-10.0215
▁lie	-10.0224
▁stamps	-10.0229
▁monkey	-10.0231
▁everyday	-10.0233
ize	-10.0234
▁continue	-10.0256
Go	-10.0258
▁Wi	-10.0278
▁pleased	-10.028
▁Wednesday	-10.0286
▁century	-10.0286
▁forward	-10.0286
▁mine	-10.0292
▁safety	-10.0292
▁Lei	-10.0297
▁80	-10.0307
▁grades	-10.0317
▁training	-10.0324
▁60	-10.0346
▁plastic	-10.0358
▁address	-10.0358
▁Open	-10.0358
▁storm	-10.0358
▁fear	-10.0358
▁jacket	-10.0358
▁bananas	-10.0359
▁blow	-10.0363
▁crow	-10.0367
14	-10.0372
▁fit	-10.0394
▁heat	-10.0424
▁imagine	-10.0424
▁Come	-10.0429
▁February	-10.0431
▁amazing	-10.0431
▁rubbish	-10.0431
▁surf	-10.0431
▁factories	-10.0431
▁task	-10.0432
▁Though	-10.0447
99	-10.0453
▁nurse	-10.047
▁Olympics	-10.0479
don	-10.0484
▁Los	-10.0484
▁God	-10.0499
▁couple	-10.0505
▁cap	-10.0506
▁respect	-10.0506
▁22	-10.0508
▁Perhaps	-10.0517
▁Frank	-10.0523
▁Remember	-10.0523
▁single	-10.0526
▁sand	-10.0528
▁Olympic	-10.0531
0,000	-10.0535
▁elephants	-10.0537
▁member	-10.0539
▁expect	-10.0552
▁likely	-10.0553
▁pre	-10.0568
▁neighbor	-10.0568
▁pollut	-10.0576
▁fashion	-10.0577
▁unusual	-10.0579
▁search	-10.0579
▁Hotel	-10.0579
▁electricity	-10.0579
▁understood	-10.0583
▁explained	-10.0608
▁Lee	-10.0609
▁shirt	-10.0621
▁War	-10.0632
ov	-10.0652
▁California	-10.0654
▁drum	-10.0654
▁memories	-10.0654
▁mirror	-10.0654
▁High	-10.0654
American	-10.0656
▁corner	-10.0662
▁staying	-10.0664
cy	-10.067
▁leader	-10.071
Please	-10.072
ka	-10.072
▁custom	-10.0724
▁fifteen	-10.0729
▁deaf	-10.0729
▁western	-10.0729
▁dishes	-10.0734
▁rule	-10.0742
▁October	-10.0744
put	-10.0803
▁actually	-10.0805
▁grandparents	-10.0805
▁repair	-10.0805
▁boring	-10.0805
▁roll	-10.0805
▁anger	-10.0807
▁fan	-10.0812
▁sunny	-10.0813
▁Hua	-10.0818
▁closer	-10.0853
Peter	-10.0873
ask	-10.0878
▁Province	-10.0881
▁score	-10.0881
ray	-10.0905
▁El	-10.0915
pol	-10.094
▁harder	-10.0953
▁sugar	-10.0958
▁pretty	-10.0958
▁dropped	-10.0958
▁rope	-10.0958
▁completely	-10.097
▁arm	-10.0994
▁message	-10.0998
▁machines	-10.0999
▁jumped	-10.1011
▁monkeys	-10.1016
▁president	-10.1035
▁snack	-10.1035
▁spread	-10.1036
▁invented	-10.1044
▁difficulties	-10.1048
▁Cup	-10.1065
▁Reading	-10.1076
▁adult	-10.1078
▁selling	-10.1086
ily	-10.1098
place	-10.1107
more	-10.111
▁Games	-10.1113
▁calm	-10.1114
▁failed	-10.1134
▁comp	-10.1139
▁wonder	-10.1164
▁broke	-10.117
▁ability	-10.1176
▁August	-10.1192
▁pressure	-10.1192
▁Sea	-10.1202
▁Man	-10.1206
ier	-10.1209
▁Read	-10.121
▁breath	-10.1229
▁Play	-10.1241
▁ha	-10.1266
▁opera	-10.127
▁importance	-10.1272
▁pants	-10.1272
▁pot	-10.1275
▁add	-10.1285
▁readers	-10.134
▁Wu	-10.1341
▁Water	-10.1352
▁award	-10.1353
▁waited	-10.1353
▁billion	-10.1355
▁Wall	-10.1362
▁sight	-10.1363
▁lions	-10.1377
▁added	-10.1379
:$	-10.1406
▁Book	-10.142
▁bridge	-10.1432
▁earlier	-10.1432
▁riding	-10.1432
▁goodbye	-10.1432
pong	-10.1435
▁European	-10.1444
▁flu	-10.1446
▁kindness	-10.1449
▁view	-10.1464
▁boxes	-10.1473
▁neighbors	-10.1484
▁serve	-10.1484
China	-10.1511
▁buying	-10.1513
▁discuss	-10.1513
▁excellent	-10.1513
▁object	-10.1513
▁pilot	-10.1513
▁quality	-10.1513
▁super	-10.1513
▁parties	-10.1533
▁discovered	-10.1537
▁cheaper	-10.154
▁visitor	-10.1545
iang	-10.157
▁created	-10.1576
Your	-10.1584
what	-10.1594
▁concert	-10.1595
▁hobby	-10.1595
▁population	-10.1595
▁Betty	-10.1595
▁thankful	-10.16
press	-10.1625
▁behavior	-10.1678
▁dictionary	-10.1678
▁exactly	-10.1678
▁joy	-10.1678
▁prevent	-10.1678
▁truth	-10.1678
▁tries	-10.1678
▁soap	-10.1679
Re	-10.1682
lar	-10.169
rush	-10.1736
▁Get	-10.1739
▁complete	-10.1749
Nobody	-10.1754
because	-10.1761
▁Museum	-10.1761
▁charity	-10.1761
▁confident	-10.1761
▁dolphin	-10.1761
▁elder	-10.1761
▁social	-10.1761
▁novel	-10.1762
▁tail	-10.1769
▁countryside	-10.1769
▁beaches	-10.1779
▁state	-10.1796
▁traveler	-10.1798
▁followed	-10.1835
Mar	-10.184
▁William	-10.1845
▁cheer	-10.1846
▁rose	-10.1849
▁nearby	-10.1859
night	-10.1872
zi	-10.1888
▁Star	-10.1893
hua	-10.1897
six	-10.1906
55	-10.1907
▁offered	-10.1914
▁challenge	-10.193
▁impossible	-10.193
▁cartoon	-10.193
▁dining	-10.1931
▁lab	-10.1932
▁alive	-10.1932
ship	-10.1934
▁stage	-10.1937
▁Tommy	-10.1939
95	-10.194
▁Singapore	-10.194
▁9:00	-10.1958
▁Learn	-10.1971
▁covered	-10.1979
aving	-10.1988
▁chemical	-10.2016
▁chores	-10.2016
▁magic	-10.2016
▁proper	-10.2016
▁relationship	-10.2016
▁shark	-10.2016
Computer	-10.2016
▁role	-10.2016
About	-10.2017
▁development	-10.2021
▁Ja	-10.2034
▁Grandma	-10.2035
▁programme	-10.2039
▁destroy	-10.2102
▁greet	-10.2102
▁international	-10.2102
▁mentioned	-10.2102
▁average	-10.2102
▁Besides	-10.2102
water	-10.2104
▁Jimmy	-10.2106
▁Father	-10.2113
▁December	-10.2113
▁schoolbag	-10.2123
33	-10.213
25	-10.2143
▁West	-10.2168
▁north	-10.2188
▁neighbour	-10.2189
▁diary	-10.2195
▁Never	-10.2195
80	-10.2201
▁wise	-10.2203
▁$2	-10.2204
▁Art	-10.2209
▁Ri	-10.2214
▁succeed	-10.2277
degC	-10.2277
▁chess	-10.2277
▁East	-10.2279
▁customers	-10.2282
▁gate	-10.2286
Did	-10.2287
▁Jackson	-10.2288
rry	-10.23
▁meant	-10.2307
▁continued	-10.2313
take	-10.2313
Different	-10.2365
▁advantage	-10.2365
▁distance	-10.2365
▁interview	-10.2365
▁airport	-10.2374
▁Ex	-10.2378
▁Usually	-10.2383
▁Food	-10.2391
13	-10.2391
Talk	-10.2422
▁Eve	-10.2425
▁70	-10.2425
ran	-10.2426
Help	-10.2444
▁Asia	-10.2453
▁Thanksgiving	-10.2454
▁ancient	-10.2454
▁fifty	-10.2454
▁jeans	-10.2454
▁hang	-10.2456
▁clouds	-10.2461
▁Doctor	-10.2463
▁Eat	-10.248
▁appeared	-10.2499
come	-10.2499
▁encouraged	-10.2507
▁period	-10.2544
▁plenty	-10.2544
▁borrow	-10.2544
▁frog	-10.2544
▁advise	-10.2544
▁bathroom	-10.2545
▁passengers	-10.2548
help	-10.2551
▁recently	-10.2556
▁refused	-10.2557
rushed	-10.2563
▁Spring	-10.2568
▁Pol	-10.257
▁creat	-10.2572
▁band	-10.2576
67	-10.261
▁German	-10.2615
▁spending	-10.2625
rain	-10.2628
▁harm	-10.2634
▁tomatoes	-10.2635
▁spirit	-10.2635
▁virus	-10.2635
▁date	-10.2637
▁toilet	-10.2638
▁thick	-10.2638
▁anywhere	-10.2639
▁Over	-10.2639
▁Robert	-10.2652
16	-10.2659
lways	-10.2673
Mary	-10.2673
▁grown	-10.2688
▁climbed	-10.2697
▁final	-10.2714
▁attract	-10.2723
▁basket	-10.2727
▁beauty	-10.2727
▁pleasure	-10.2727
▁speech	-10.2727
▁subway	-10.2727
▁uniform	-10.2727
▁frightened	-10.2727
▁sale	-10.2728
▁2012	-10.2731
▁shoe	-10.2734
▁Think	-10.2747
86	-10.2754
88	-10.2756
▁Dick	-10.2767
▁lea	-10.2774
▁Red	-10.2777
▁tie	-10.2778
▁burning	-10.279
▁Sydney	-10.282
▁ocean	-10.282
▁Nobel	-10.282
▁woke	-10.282
▁shall	-10.282
▁pounds	-10.282
Welcome	-10.282
school	-10.2828
hose	-10.283
every	-10.285
▁fourth	-10.2882
▁giraffe	-10.2913
▁balloon	-10.2913
▁Road	-10.2913
▁Center	-10.2914
tell	-10.2958
▁Australian	-10.2976
▁500	-10.2999
▁Palace	-10.3007
▁sweater	-10.3007
▁Wilson	-10.3007
▁Sports	-10.3008
▁winner	-10.301
▁wings	-10.3011
working	-10.3016
house	-10.302
▁cage	-10.3025
▁Germany	-10.3028
▁loudly	-10.3033
run	-10.3048
▁soup	-10.3061
win	-10.3072
▁discover	-10.3076
▁angrily	-10.3103
▁capital	-10.3103
▁primar	-10.3103
▁forgot	-10.3103
▁House	-10.3104
▁cancer	-10.3106
ache	-10.3111
▁understanding	-10.3118
▁base	-10.3119
▁Summer	-10.3123
▁clothing	-10.3126
▁forty	-10.3132
▁holding	-10.3158
▁tradition	-10.3177
▁perform	-10.3198
▁smiling	-10.3199
▁require	-10.3199
▁suffer	-10.3199
▁bookstore	-10.3199
▁drew	-10.3199
Both	-10.3203
▁tu	-10.3205
▁published	-10.321
lect	-10.3258
▁promise	-10.3296
▁umbrella	-10.3296
▁Kitty	-10.3296
▁wheel	-10.3296
▁kiss	-10.3296
▁twin	-10.3297
▁warmer	-10.3309
56	-10.3332
▁Hall	-10.3335
many	-10.3341
▁Parents	-10.3349
▁physical	-10.3394
▁truck	-10.3394
▁Prize	-10.3394
▁outdoor	-10.3394
▁flight	-10.3399
▁washing	-10.3405
New	-10.3408
▁wi	-10.3425
35	-10.348
▁parent	-10.3483
▁Daniel	-10.3493
▁Washington	-10.3493
▁further	-10.3493
Travel	-10.3493
▁healthier	-10.3495
▁sunlight	-10.3496
▁2014	-10.3496
▁hometown	-10.35
▁Call	-10.3501
▁mall	-10.3506
aid	-10.3507
Sometimes	-10.3508
Come	-10.3509
keep	-10.3543
▁tips	-10.3593
▁eleven	-10.3593
Music	-10.3594
Bob	-10.3609
▁pop	-10.3624
Everybody	-10.3669
▁amount	-10.3694
▁lazy	-10.3694
▁perhaps	-10.3694
▁yesterday	-10.3694
▁hunt	-10.3694
▁kick	-10.3697
▁somewhere	-10.3707
▁travelling	-10.3708
▁sang	-10.3711
▁knocked	-10.3717
▁seriously	-10.3742
▁breathe	-10.3748
under	-10.3756
▁connect	-10.3769
▁fill	-10.3777
q	-10.3787
xcuse	-10.3793
▁Thomas	-10.3796
▁author	-10.3796
▁circle	-10.3796
▁quarter	-10.3796
▁square	-10.3796
▁cousin	-10.3796
▁Angeles	-10.3796
▁35	-10.3798
hai	-10.3802
▁researchers	-10.381
93	-10.3816
▁Apple	-10.3818
▁itself	-10.3837
▁fail	-10.3874
▁Hawaii	-10.3899
▁master	-10.3899
▁punish	-10.3899
▁crops	-10.3899
▁gun	-10.3917
▁somebody	-10.3927
OK	-10.3928
200	-10.3934
31	-10.3954
▁fair	-10.3987
▁crossing	-10.399
fish	-10.3999
▁graduate	-10.4003
▁courage	-10.4003
▁statement	-10.4006
▁fairy	-10.4023
English	-10.4024
teacher	-10.4024
only	-10.4025
▁weigh	-10.4027
Bill	-10.4032
▁certainly	-10.4034
talk	-10.4038
▁wine	-10.4062
▁recent	-10.41
▁fl	-10.4107
Science	-10.4109
▁attack	-10.4109
▁nest	-10.4112
▁Indian	-10.4118
May	-10.4128
▁hide	-10.414
17	-10.4171
▁shown	-10.4188
▁cough	-10.4215
▁pumpkin	-10.4215
▁knee	-10.4215
▁saving	-10.4218
43	-10.4222
lmost	-10.4235
Children	-10.4237
▁surprising	-10.4248
(,)	-10.4272
▁300	-10.4309
Teenagers	-10.4322
▁bottom	-10.4322
▁communication	-10.4322
▁8:00	-10.4323
▁Lake	-10.433
▁7:30	-10.4333
▁lying	-10.4338
▁Ying	-10.4345
watch	-10.4346
hand	-10.4376
▁direction	-10.4431
▁knife	-10.4431
▁poem	-10.4431
▁strict	-10.4431
▁abroad	-10.4431
▁waitress	-10.4431
▁Gina	-10.4431
▁notebook	-10.4433
▁2013	-10.4434
▁Felipe	-10.445
Last	-10.4456
Jim	-10.4461
Kids	-10.4467
▁Young	-10.4471
▁highest	-10.4479
▁Maria	-10.4494
▁product	-10.4497
▁ski	-10.4512
▁menu	-10.4527
▁organization	-10.4541
▁pleasant	-10.4541
▁basic	-10.4541
▁teens	-10.4541
▁shake	-10.4541
▁Like	-10.4556
that	-10.4564
▁expected	-10.4581
▁26	-10.4599
▁users	-10.4644
▁bamboo	-10.4652
▁drug	-10.4652
▁prove	-10.4679
with	-10.468
▁musician	-10.4686
▁Would	-10.4723
ros	-10.4755
confidence	-10.4765
▁International	-10.4765
▁junior	-10.4765
▁picnic	-10.4765
▁2010	-10.4774
▁Seven	-10.4783
Everyone	-10.48
▁engineer	-10.4802
▁wondered	-10.4803
These	-10.4821
▁safely	-10.4831
▁Jia	-10.4868
▁butterfly	-10.4878
▁childhood	-10.4878
▁silent	-10.4878
▁suggestions	-10.4878
▁operation	-10.488
▁headache	-10.4881
▁Centre	-10.4888
▁email	-10.4894
ible	-10.4902
ER	-10.4907
Read	-10.4908
Our	-10.4946
▁Animal	-10.4968
▁apartment	-10.4993
▁damage	-10.4993
▁rabbit	-10.4993
▁recycle	-10.4993
▁satellite	-10.4993
▁stomach	-10.4993
▁symbol	-10.4993
▁Adult	-10.4993
▁spell	-10.4993
www	-10.4994
▁Bird	-10.4995
Yao	-10.5006
▁Shop	-10.5007
▁George	-10.502
Z	-10.5024
▁served	-10.5035
▁Mei	-10.5062
▁lion	-10.5088
▁Spanish	-10.5109
▁opposite	-10.5109
▁NBA	-10.5109
▁net	-10.5109
▁Barbie	-10.5109
▁repeat	-10.511
▁etc	-10.511
▁potatoes	-10.5113
▁sail	-10.5113
▁fix	-10.5114
▁heroes	-10.5127
ji	-10.5133
▁Nancy	-10.514
58	-10.5153
▁produced	-10.5165
▁Asian	-10.5165
89	-10.5177
everal	-10.5181
made	-10.5183
▁Ver	-10.5183
lies	-10.5189
▁mad	-10.5206
▁larger	-10.5206
▁total	-10.5225
Exercise	-10.5227
▁Chicago	-10.5227
▁Junior	-10.5227
▁gloves	-10.5227
▁hurried	-10.5227
▁midnight	-10.5227
▁tortoise	-10.5227
▁uncomfortable	-10.5227
▁pupil	-10.5227
▁wore	-10.5227
▁crowded	-10.5227
▁Jeff	-10.5228
▁Yet	-10.5228
▁Maths	-10.5229
▁2011	-10.5231
▁Friend	-10.5235
rough	-10.5253
about	-10.5261
Get	-10.5262
good	-10.5267
▁Ask	-10.5317
▁below	-10.532
▁Watch	-10.5346
▁steal	-10.5346
▁copy	-10.5346
▁bored	-10.5346
▁weekdays	-10.5346
▁carried	-10.5346
▁5:00	-10.5347
▁Disneyland	-10.5347
▁Dave	-10.5348
▁Italy	-10.535
▁powerful	-10.5351
▁Home	-10.5352
▁earn	-10.5393
▁Anna	-10.543
▁knock	-10.544
▁missed	-10.5441
cted	-10.5458
▁entrance	-10.5467
▁immediately	-10.5467
▁instrument	-10.5467
▁remind	-10.5467
▁scene	-10.5467
▁Italian	-10.5467
▁pig	-10.5467
▁argue	-10.5467
▁ugly	-10.5467
▁planning	-10.5467
Teachers	-10.5467
▁attend	-10.547
▁cents	-10.5471
▁collection	-10.5477
Stop	-10.5478
▁brush	-10.5484
student	-10.5503
21	-10.5516
▁rang	-10.554
▁printer	-10.5566
▁Shenzhen	-10.5589
▁afford	-10.5589
▁attitude	-10.5589
▁Walk	-10.5589
▁failure	-10.559
▁2008	-10.5603
Of	-10.5604
▁sixty	-10.5604
Just	-10.5629
64	-10.5635
▁$5	-10.5639
gging	-10.5703
▁Spain	-10.5712
▁electronic	-10.5712
▁explor	-10.5712
▁general	-10.5712
▁backpack	-10.5712
▁Put	-10.5713
▁spaceship	-10.5715
▁Ear	-10.5779
$	-10.5794
76	-10.5803
▁peace	-10.5835
▁jack	-10.5837
struction	-10.5837
▁Victor	-10.5837
▁climate	-10.5837
▁password	-10.5838
▁gentleman	-10.5839
▁creative	-10.5839
▁rise	-10.5843
▁Hunt	-10.5845
▁Show	-10.5859
happy	-10.5877
▁deer	-10.5924
▁relaxed	-10.5927
▁cloud	-10.5954
▁Jordan	-10.5964
▁community	-10.5964
▁sandwich	-10.5964
▁dragon	-10.5964
▁disappoint	-10.5964
▁fox	-10.5964
▁limit	-10.5964
▁rude	-10.5964
▁Emily	-10.5964
▁measure	-10.5964
▁sofa	-10.5964
▁metres	-10.5965
▁flat	-10.597
▁cookies	-10.5975
▁Feng	-10.5978
▁designed	-10.6015
UN	-10.6036
▁Use	-10.6057
▁Har	-10.6064
▁Jessica	-10.6092
▁Luckily	-10.6092
▁celebration	-10.6092
▁wetlands	-10.6092
▁Winter	-10.6092
▁harmful	-10.6094
▁extra	-10.6094
▁duck	-10.6094
▁inventor	-10.6096
▁Whe	-10.6106
America	-10.6115
ountain	-10.612
▁fastest	-10.6128
Beijing	-10.6137
phone	-10.6146
idden	-10.6184
ept	-10.6194
▁Sara	-10.6217
▁underground	-10.6222
▁geography	-10.6222
▁hobbies	-10.6222
▁photograph	-10.6222
▁railway	-10.6222
▁regard	-10.6222
Uncle	-10.6225
▁Zoo	-10.6226
▁Hope	-10.6227
▁27	-10.6233
▁Nothing	-10.6234
thank	-10.6268
which	-10.6268
Buy	-10.6277
▁$3	-10.6317
▁birth	-10.6352
▁Taiwan	-10.6353
▁clerk	-10.6353
▁organize	-10.6353
▁Grace	-10.6353
▁stairs	-10.6353
▁nap	-10.6354
▁businessman	-10.6364
▁Fred	-10.6368
▁laughter	-10.6372
▁wishes	-10.6394
▁Someone	-10.6407
stay	-10.6418
▁Shi	-10.6418
More	-10.6424
48	-10.6428
42	-10.6439
▁engine	-10.6442
free	-10.6446
▁egg	-10.6485
▁teenager	-10.6485
▁Disney	-10.6486
Swimming	-10.6487
▁avoid	-10.6487
▁branch	-10.6487
▁emotion	-10.6487
▁monster	-10.6487
▁muscle	-10.6487
▁ordinary	-10.6487
▁position	-10.6487
▁sunshine	-10.6487
▁whale	-10.6487
▁Zhao	-10.6487
▁alarm	-10.6487
▁Je	-10.6488
▁Rock	-10.6497
▁Jud	-10.6497
▁Lang	-10.6504
▁Yuan	-10.6507
▁Tour	-10.6521
parent	-10.6536
Would	-10.6536
mark	-10.6542
▁raised	-10.6545
▁tools	-10.6555
▁Chan	-10.66
self	-10.6602
46	-10.6614
▁adventure	-10.6622
▁crazy	-10.6622
▁disabled	-10.6622
▁major	-10.6622
▁private	-10.6622
▁turkey	-10.6622
▁centre	-10.6622
▁Tower	-10.6622
vision	-10.6622
▁manners	-10.6624
▁stole	-10.6624
Stay	-10.6639
▁introduced	-10.6653
▁bite	-10.6669
Play	-10.6674
Alice	-10.6674
Mum	-10.6687
▁Dragon	-10.6759
▁Square	-10.6759
▁dessert	-10.6759
▁effort	-10.6759
▁equipment	-10.6759
▁escape	-10.6759
▁kangaroo	-10.6759
▁peacock	-10.6759
▁Under	-10.6759
▁fourteen	-10.6759
▁neighborhood	-10.6759
▁wedding	-10.6759
▁gym	-10.6759
▁flies	-10.6764
▁compare	-10.6765
▁dish	-10.6766
▁yes	-10.6766
▁rent	-10.6784
School	-10.6813
Take	-10.6825
▁Thailand	-10.6898
▁Garden	-10.6898
▁Ocean	-10.6898
▁orphan	-10.6898
▁grandpa	-10.6898
▁northern	-10.6899
▁performance	-10.6899
▁socks	-10.6899
▁cutting	-10.6912
▁dust	-10.6919
▁classmate	-10.692
field	-10.6953
cream	-10.6954
Keep	-10.6954
will	-10.6972
eep	-10.6974
where	-10.6998
▁Tim	-10.7016
off	-10.7018
▁Plan	-10.7026
Boys	-10.7033
▁Grand	-10.7034
▁Oxford	-10.7038
▁Prince	-10.7038
▁chemist	-10.7038
▁thirsty	-10.7038
▁trick	-10.7038
▁mood	-10.7038
▁minister	-10.7038
(......)	-10.7038
daydream	-10.7038
▁board	-10.7039
▁jam	-10.7039
▁exchange	-10.7039
▁Jason	-10.7041
jiang	-10.7045
▁Huang	-10.7048
▁2,000	-10.7058
▁1,000	-10.7061
▁skill	-10.7063
▁400	-10.7065
Giv	-10.7074
Tell	-10.7088
Mike	-10.7096
wanted	-10.7097
▁Health	-10.7129
right	-10.7158
▁cafe	-10.7181
▁industry	-10.7181
▁Opera	-10.7181
▁audience	-10.7181
▁female	-10.7181
▁headmaster	-10.7181
▁shook	-10.7181
▁kilo	-10.7181
▁skate	-10.7182
▁wealth	-10.7182
▁10:00	-10.7182
▁media	-10.7183
▁2015	-10.7187
▁Island	-10.7191
▁imagin	-10.7196
▁Sally	-10.721
▁bark	-10.7218
▁army	-10.722
Sorry	-10.7227
from	-10.7241
after	-10.7241
learn	-10.7242
Maybe	-10.7244
Bad	-10.7255
seldom	-10.7326
▁airplane	-10.7326
▁blanket	-10.7326
▁shining	-10.7326
▁Reporter	-10.7326
▁contact	-10.7326
▁Simon	-10.7326
▁shock	-10.7326
▁hid	-10.7328
▁Sarah	-10.7332
▁lifestyle	-10.7334
▁topic	-10.7352
▁connected	-10.7365
▁prepar	-10.7365
flower	-10.7388
Students	-10.7388
walk	-10.7389
Miss	-10.7389
▁painter	-10.7412
▁invite	-10.7444
banana	-10.7471
▁Cinderella	-10.7473
▁progress	-10.7473
▁strength	-10.7473
▁Francisco	-10.7473
▁Zhou	-10.7473
▁cigarette	-10.7473
▁focus	-10.7473
▁insects	-10.7473
▁prison	-10.7473
▁method	-10.7473
▁planned	-10.7474
▁7:00	-10.7474
▁personality	-10.7477
▁Donna	-10.7486
▁hug	-10.7493
▁tower	-10.7499
▁Fang	-10.7516
David	-10.7537
Green	-10.7538
With	-10.7538
new	-10.7586
▁Sleep	-10.7622
▁Third	-10.7622
▁carrots	-10.7622
▁device	-10.7622
▁province	-10.7622
▁relative	-10.7622
▁suppose	-10.7622
▁fifth	-10.7622
▁roof	-10.7622
▁tidy	-10.7622
▁Girl	-10.7623
▁digit	-10.7623
▁honor	-10.7623
▁reply	-10.7623
▁Sandy	-10.7623
▁Jerry	-10.7623
▁hip	-10.7623
▁upset	-10.7625
▁medal	-10.7625
From	-10.7689
92	-10.7727
▁YouTube	-10.7774
▁resources	-10.7774
▁slept	-10.7774
▁Cindy	-10.7774
▁worst	-10.7774
▁obey	-10.7774
▁neck	-10.7774
▁although	-10.7774
▁yard	-10.7775
▁hello	-10.7776
▁till	-10.7777
▁treatment	-10.778
born	-10.7847
Alex	-10.7909
▁corn	-10.7913
2:00	-10.7919
▁introduce	-10.7919
▁drank	-10.7928
▁grammar	-10.7928
▁judge	-10.7928
riving	-10.7928
▁Price	-10.7928
▁Tiger	-10.7928
▁haze	-10.7929
▁beef	-10.793
▁Mouse	-10.7932
▁Bobby	-10.7936
▁villagers	-10.7941
▁movement	-10.7956
37	-10.7987
Parents	-10.7999
think	-10.8
food	-10.8
fast	-10.8001
▁Taobao	-10.8084
▁captain	-10.8084
▁disagree	-10.8084
▁disaster	-10.8084
▁fantastic	-10.8084
▁sharing	-10.8084
▁unlucky	-10.8084
▁struggl	-10.8084
▁balance	-10.8084
▁eighteen	-10.8084
▁Work	-10.8084
▁regularly	-10.8096
turn	-10.8158
▁track	-10.817
▁gentle	-10.8241
▁grandson	-10.8243
▁injured	-10.8243
▁gesture	-10.8243
▁junk	-10.8243
▁Again	-10.8243
▁noisy	-10.8243
Could	-10.8245
91	-10.8249
▁Jean	-10.8254
▁Johnson	-10.8259
wood	-10.8319
didn	-10.832
box	-10.8333
prov	-10.837
▁nation	-10.8396
▁Research	-10.8404
▁involve	-10.8404
▁positive	-10.8404
▁trust	-10.8404
▁Expo	-10.8404
▁Swee	-10.8404
ING	-10.8405
▁River	-10.8406
rode	-10.8407
▁infer	-10.8409
town	-10.8474
life	-10.8483
music	-10.8485
just	-10.849
▁Google	-10.8568
▁President	-10.8568
▁assistant	-10.8568
▁palace	-10.8568
▁shopkeeper	-10.8568
Nowadays	-10.8568
▁forgotten	-10.857
ehind	-10.8571
▁1980	-10.8577
▁rub	-10.8577
grade	-10.8581
......	-10.8609
style	-10.8642
▁cloth	-10.8685
▁bath	-10.8714
▁suit	-10.8733
Basketball	-10.8735
▁Chongqing	-10.8735
▁blackboard	-10.8735
▁generation	-10.8735
▁process	-10.8735
▁yoga	-10.8735
▁surface	-10.8735
▁awake	-10.8735
▁Clark	-10.8736
▁greenhouse	-10.8738
▁dorm	-10.8739
▁excuse	-10.874
▁mice	-10.8747
Before	-10.8819
speak	-10.8848
ending	-10.8898
▁Child	-10.8904
▁Guangdong	-10.8904
▁Zhejiang	-10.8904
▁argument	-10.8904
▁directly	-10.8904
▁motor	-10.8904
▁nodded	-10.8904
▁treasure	-10.8904
▁series	-10.8904
▁remain	-10.8904
Grandpa	-10.8907
▁network	-10.8914
▁coach	-10.8923
Animals	-10.8941
▁toward	-10.8981
please	-10.8992
bird	-10.8992
Dad	-10.8995
foolish	-10.8998
Choos	-10.9019
▁regular	-10.9064
▁Recently	-10.9077
▁composition	-10.9077
▁dentist	-10.9077
▁quarrel	-10.9077
▁responsible	-10.9077
▁director	-10.9077
▁Wuhan	-10.9077
▁spider	-10.9077
▁guard	-10.9077
▁image	-10.9077
▁Drink	-10.9077
▁Store	-10.9077
▁hike	-10.9077
Visit	-10.9077
▁Jobs	-10.9077
▁fashionable	-10.908
Spend	-10.9101
▁College	-10.9252
▁Space	-10.9252
▁Zealand	-10.9252
▁feathers	-10.9252
▁poison	-10.9252
▁scientific	-10.9252
▁skating	-10.9252
▁valuable	-10.9252
Twenty	-10.9252
▁choosing	-10.9252
▁flag	-10.9252
▁trash	-10.9252
▁shut	-10.9252
▁Gates	-10.9253
▁Week	-10.9255
▁Often	-10.9258
Snow	-10.927
Learn	-10.9345
children	-10.9346
green	-10.9346
person	-10.9346
TV	-10.9357
cut	-10.9373
▁Stan	-10.9377
▁Family	-10.9431
▁Harvard	-10.9431
▁Hollywood	-10.9431
▁Hospital	-10.9431
▁Tokyo	-10.9431
▁fridge	-10.9431
▁license	-10.9431
▁miracle	-10.9431
▁parrot	-10.9431
▁pizza	-10.9431
▁prince	-10.9431
▁professional	-10.9431
▁regret	-10.9431
▁CCTV	-10.9431
▁hurry	-10.9431
▁reward	-10.9431
▁items	-10.9431
▁Martin	-10.9431
▁Western	-10.9432
▁mask	-10.9436
Wait	-10.9441
Life	-10.9527
aughter	-10.9611
................	-10.9612
Enjoy	-10.9612
▁Brazil	-10.9612
▁Country	-10.9612
▁Jiangsu	-10.9612
▁Ticket	-10.9612
▁butterflies	-10.9612
▁libraries	-10.9612
▁mushroom	-10.9612
▁sweep	-10.9612
▁vocabulary	-10.9612
▁block	-10.9612
▁contest	-10.9613
▁retire	-10.9613
▁spot	-10.9613
▁Farm	-10.9613
▁Daily	-10.9613
burg	-10.9614
▁peaceful	-10.9615
Money	-10.9626
▁fool	-10.9696
class	-10.9713
either	-10.9716
▁comfort	-10.9796
▁Canadian	-10.9798
▁harvest	-10.9798
▁patience	-10.9798
▁recipe	-10.9798
▁robber	-10.9798
▁roots	-10.9798
▁sharp	-10.9798
▁Scott	-10.9798
▁examination	-10.9798
▁stream	-10.9798
▁hiking	-10.9798
▁Oscar	-10.9798
▁neither	-10.9798
▁shot	-10.9798
▁outgoing	-10.9798
▁winning	-10.9798
▁court	-10.9798
▁spacecraft	-10.9799
▁Franklin	-10.9799
niv	-10.9802
▁spare	-10.9802
▁attraction	-10.9803
▁duty	-10.9804
▁champion	-10.9986
▁particular	-10.9986
▁universities	-10.9986
▁blond	-10.9986
▁conductor	-10.9986
▁eagle	-10.9986
▁quilt	-10.9986
▁truly	-10.9986
▁bookcase	-10.9986
▁shine	-10.9986
▁carbon	-10.9987
kind	-11.0095
doctor	-11.01
▁sudden	-11.0166
▁electric	-11.0178
▁Mexico	-11.0179
▁Obama	-11.0179
▁wheelchair	-11.0179
oultice	-11.0179
▁ladies	-11.0179
Chicken	-11.0179
▁predict	-11.0179
▁Evan	-11.0179
▁divide	-11.0179
▁Madam	-11.0179
▁rising	-11.0179
Modern	-11.018
▁male	-11.0181
Grade	-11.029
England	-11.029
write	-11.0306
point	-11.0316
▁Jersey	-11.0375
▁Language	-11.0375
▁Nepal	-11.0375
▁Zheng	-11.0375
▁contain	-11.0375
▁furniture	-11.0375
▁purple	-11.0375
▁puzzle	-11.0375
▁flood	-11.0375
▁Wetland	-11.0375
▁wildlife	-11.0375
Million	-11.0375
▁cheat	-11.0376
▁smartphone	-11.0376
▁suitable	-11.0377
▁Still	-11.0382
hearted	-11.0389
sheng	-11.0477
word	-11.0489
Jenny	-11.049
Henry	-11.049
Jane	-11.0491
nine	-11.0494
Pass	-11.0549
▁Step	-11.0575
Elephant	-11.0575
▁Bridge	-11.0575
▁Florida	-11.0575
▁McDonald	-11.0575
▁global	-11.0575
▁represent	-11.0575
▁senior	-11.0575
▁separate	-11.0575
▁vitamin	-11.0575
▁wolves	-11.0575
▁Office	-11.0575
▁Kelly	-11.0575
▁temp	-11.0575
▁pink	-11.0575
▁aloud	-11.0575
▁facing	-11.0576
Study	-11.0576
▁Say	-11.0577
▁increasing	-11.0631
Success	-11.0689
Love	-11.0694
most	-11.0707
▁guest	-11.0713
Foreign	-11.0779
Volunteer	-11.0779
▁Liverpool	-11.0779
▁concentrat	-11.0779
▁drunk	-11.0779
▁employ	-11.0779
▁enemies	-11.0779
▁liquid	-11.0779
▁shoot	-11.0779
▁upstairs	-11.0779
▁worries	-11.0779
▁loving	-11.0779
▁litter	-11.0779
▁Merlin	-11.0779
▁risk	-11.0779
▁Shenzhou	-11.0779
▁announced	-11.0779
▁brand	-11.0779
▁inches	-11.0782
why	-11.0903
listen	-11.0903
▁Mount	-11.0937
produc	-11.0945
announc	-11.0987
Confucius	-11.0987
▁Antarctica	-11.0987
▁Association	-11.0987
▁Holmes	-11.0987
▁Nanjing	-11.0987
▁Scotland	-11.0987
▁cheese	-11.0987
▁possibly	-11.0987
▁Voice	-11.0987
▁editor	-11.0987
▁diaries	-11.0987
▁worldwide	-11.0987
▁clown	-11.0987
▁Know	-11.0987
▁boil	-11.0987
Through	-11.0988
▁admir	-11.0988
▁Award	-11.0988
▁attractive	-11.099
▁micro	-11.0991
paper	-11.1113
view	-11.1115
Brown	-11.1115
print	-11.1115
Even	-11.1115
▁refuse	-11.117
▁easie	-11.1187
▁appreciate	-11.12
▁embarrassed	-11.12
▁recognize	-11.12
▁strawberries	-11.12
▁Company	-11.12
▁detail	-11.12
▁overseas	-11.12
▁Miller	-11.12
▁kilt	-11.12
▁Bunny	-11.12
▁source	-11.12
▁compete	-11.12
▁trade	-11.12
▁Prim	-11.1207
DAY	-11.1217
Nine	-11.123
▁Education	-11.1417
▁Hangzhou	-11.1417
▁envelope	-11.1417
▁satisfied	-11.1417
nstitute	-11.1417
▁fries	-11.1417
▁lawyer	-11.1417
▁lamp	-11.1418
▁cash	-11.1418
obile	-11.1418
Tomorrow	-11.1418
▁pond	-11.1418
▁alien	-11.142
Angel	-11.1435
sign	-11.1554
black	-11.1555
▁stamp	-11.1593
▁hung	-11.1638
▁faci	-11.1638
Autumn	-11.1639
▁Egypt	-11.1639
▁Project	-11.1639
▁Special	-11.1639
▁biology	-11.1639
▁channel	-11.1639
▁disturb	-11.1639
▁improving	-11.1639
▁mosquito	-11.1639
▁policy	-11.1639
▁unhealthy	-11.1639
▁Anhui	-11.164
▁Watson	-11.164
▁rescue	-11.164
▁solution	-11.164
▁wolf	-11.164
▁fence	-11.164
▁Visitor	-11.164
▁lightning	-11.1641
▁wallet	-11.1641
▁comedy	-11.1642
Half	-11.1644
plant	-11.1782
▁invent	-11.1831
▁publish	-11.184
▁Mickey	-11.1867
▁Program	-11.1867
▁Yunnan	-11.1867
▁bacteria	-11.1867
▁degree	-11.1867
▁studio	-11.1867
▁stupid	-11.1867
▁invitation	-11.1867
▁statue	-11.1867
▁silk	-11.1867
▁function	-11.1867
▁shaking	-11.1867
▁grape	-11.1867
▁float	-11.1867
▁string	-11.1867
▁coast	-11.1868
▁Market	-11.1868
▁pear	-11.1868
▁Tree	-11.1876
clean	-11.1991
different	-11.2014
big	-11.2015
Happiness	-11.2099
▁Kevin	-11.2099
▁Unluckily	-11.2099
▁account	-11.2099
▁benefit	-11.2099
▁cultural	-11.2099
▁downstairs	-11.2099
▁keyboard	-11.2099
▁lantern	-11.2099
▁literature	-11.2099
▁native	-11.2099
▁oxygen	-11.2099
▁phrase	-11.2099
▁parade	-11.2099
▁rainbow	-11.2099
▁link	-11.21
▁addict	-11.2101
▁Gao	-11.2104
diving	-11.2109
▁mental	-11.2124
Daddy	-11.2127
bility	-11.2148
▁examine	-11.2154
Japan	-11.2252
blue	-11.2253
child	-11.2253
craft	-11.2336
▁calendar	-11.2337
▁centuries	-11.2337
▁deliver	-11.2337
▁practicing	-11.2337
▁radiation	-11.2337
▁responsibilit	-11.2337
▁silver	-11.2337
▁cocoon	-11.2337
▁fiction	-11.2337
▁microblog	-11.2337
▁pigeon	-11.2337
▁cocoa	-11.2337
▁chain	-11.2338
▁pretend	-11.2338
▁sailors	-11.2338
Stephen	-11.2339
▁Ness	-11.234
AND	-11.2349
▁Fei	-11.2357
▁bull	-11.2358
▁fee	-11.2474
minute	-11.2496
drink	-11.2496
Little	-11.2496
Australia	-11.2496
June	-11.2496
London	-11.2496
before	-11.2496
Helen	-11.2497
▁educat	-11.252
▁humor	-11.2581
▁Carolina	-11.2581
▁exhibition	-11.2581
▁generous	-11.2581
▁grateful	-11.2581
▁impolite	-11.2581
▁nowadays	-11.2581
▁reflect	-11.2581
▁universe	-11.2581
▁Millie	-11.2581
▁hugged	-11.2581
▁History	-11.2581
▁freedom	-11.2581
▁salesman	-11.2581
▁ju	-11.2592
▁Near	-11.2684
James	-11.2746
giving	-11.2746
Black	-11.2746
woman	-11.2747
magine	-11.2831
CEPT	-11.2831
▁Copperfield	-11.2831
▁Guangzhou	-11.2831
▁batteries	-11.2831
▁explanation	-11.2831
▁fought	-11.2831
▁jogging	-11.2831
▁recycling	-11.2831
▁salad	-11.2831
▁silence	-11.2831
▁survive	-11.2831
▁whistle	-11.2831
▁Ghana	-11.2831
▁Temple	-11.2831
▁Venice	-11.2831
▁credit	-11.2831
▁Boston	-11.2831
▁dying	-11.2831
▁fried	-11.2832
▁clap	-11.2834
Wanted	-11.2838
Angry	-11.2841
Few	-11.2851
Kind	-11.2889
Friday	-11.3003
foot	-11.3003
doesn	-11.3003
▁happie	-11.3075
▁passenger	-11.3077
Spiderman	-11.3088
conscious	-11.3088
▁Service	-11.3088
▁Sichuan	-11.3088
▁abilities	-11.3088
▁emperor	-11.3088
▁garbage	-11.3088
▁sneeze	-11.3088
Dolphin	-11.3088
▁decibel	-11.3088
▁eraser	-11.3088
Coffee	-11.3088
▁Place	-11.3088
▁pride	-11.3088
▁marry	-11.3088
▁silly	-11.3088
▁Fool	-11.3088
Running	-11.3088
▁candles	-11.3088
▁pills	-11.3089
▁angel	-11.3089
▁Eric	-11.309
▁wrap	-11.309
Wash	-11.3098
gged	-11.3117
Healthy	-11.3184
Nearly	-11.3241
Scientists	-11.3266
_	-11.3266
Joe	-11.3267
raise	-11.3307
Certainly	-11.3351
▁Facebook	-11.3351
▁charge	-11.3351
▁cycle	-11.3351
▁fault	-11.3351
▁handwriting	-11.3351
▁memorize	-11.3351
▁rapidly	-11.3351
▁sunglasses	-11.3351
▁earliest	-11.3351
▁medium	-11.3351
▁True	-11.3351
▁Snake	-11.3351
▁warning	-11.3351
▁carrier	-11.3351
▁Rain	-11.3351
▁Super	-11.3352
blew	-11.3356
Plants	-11.3414
spect	-11.3494
brother	-11.3536
Although	-11.3536
white	-11.3537
▁receiv	-11.3548
Friends	-11.3604
▁potato	-11.3612
Beautiful	-11.3621
lobalization	-11.3621
▁Academy	-11.3621
▁Chengdu	-11.3621
▁Culture	-11.3621
▁Toronto	-11.3621
▁Unfortunately	-11.3621
▁arrange	-11.3621
▁blouse	-11.3621
▁decorate	-11.3621
▁disadvantage	-11.3621
▁graduation	-11.3621
▁shoemaker	-11.3621
▁violen	-11.3621
▁Julie	-11.3621
▁snail	-11.3621
▁(5)	-11.3621
▁Brook	-11.3621
▁shelter	-11.3622
▁owl	-11.3622
ennis	-11.3623
▁swimmer	-11.3623
Laura	-11.3627
Lucy	-11.3814
Big	-11.3814
▁Centr	-11.3876
ological	-11.3898
Woolf	-11.3899
familiar	-11.3899
▁Holiday	-11.3899
▁Library	-11.3899
▁Valley	-11.3899
▁available	-11.3899
▁department	-11.3899
▁injuries	-11.3899
▁monitor	-11.3899
▁monoxide	-11.3899
▁nuts	-11.3899
▁racing	-11.3899
▁Flogo	-11.3899
▁Follow	-11.3899
▁praised	-11.3899
▁Technology	-11.3899
▁Check	-11.3899
▁brick	-11.3899
▁shoppers	-11.3899
▁MIT	-11.3899
▁hula	-11.3899
kilogram	-11.3899
zero	-11.3903
9:00	-11.3953
wherever	-11.4007
▁nurs	-11.4033
yellow	-11.41
study	-11.41
▁Catchers	-11.4185
▁Minister	-11.4185
▁Moscow	-11.4185
▁Telephone	-11.4185
▁fossil	-11.4185
▁frozen	-11.4185
▁jewelry	-11.4185
▁roast	-11.4185
▁smooth	-11.4185
▁valley	-11.4185
▁vehicle	-11.4185
▁version	-11.4185
▁cruel	-11.4185
▁recover	-11.4185
ingdao	-11.4185
▁1987	-11.4185
▁seventeen	-11.4185
▁Frog	-11.4185
▁sixteen	-11.4185
▁select	-11.4185
▁Greg	-11.4185
▁translate	-11.4185
raising	-11.4185
Sophia	-11.4186
▁double	-11.4186
Smile	-11.4194
Interest	-11.4202
Hav	-11.424
Food	-11.4394
Sunday	-11.4394
Zhang	-11.4394
enjoy	-11.4394
▁Beckham	-11.4479
▁Group	-11.4479
▁Keller	-11.4479
▁heavily	-11.4479
▁porridge	-11.4479
▁railroad	-11.4479
Fruit	-11.4479
▁internet	-11.4479
▁Hubei	-11.4479
▁click	-11.4479
▁wheat	-11.4479
▁Stanley	-11.4479
▁Fox	-11.4479
▁Hainan	-11.4479
aoyu	-11.4566
Tears	-11.4603
climb	-11.4696
Class	-11.4697
First	-11.4697
change	-11.4708
Columbus	-11.4782
▁Greek	-11.4782
▁Professor	-11.4782
▁Tianjin	-11.4782
▁ceremony	-11.4782
▁cockroach	-11.4782
▁crocodile	-11.4782
▁dinosaurs	-11.4782
▁gossip	-11.4782
▁naughty	-11.4782
▁nickname	-11.4782
▁peanut	-11.4782
▁religio	-11.4782
▁Becky	-11.4782
▁addition	-11.4782
▁pianist	-11.4782
▁southwest	-11.4782
Smoking	-11.4782
▁folk	-11.4782
▁straw	-11.4782
▁copies	-11.4782
▁cotton	-11.4782
frighten	-11.4782
▁Wild	-11.4782
Prana	-11.4787
▁spoon	-11.4992
though	-11.5009
Great	-11.5009
Shanghai	-11.5009
Linda	-11.5009
twenty	-11.5009
Japanese	-11.5009
Saturday	-11.5009
Paul	-11.5009
basketball	-11.5009
▁Protect	-11.5094
Bicycle	-11.5094
▁Environment	-11.5094
▁Greece	-11.5094
▁Parliament	-11.5094
▁Sweden	-11.5094
▁Village	-11.5094
▁Wilbur	-11.5094
▁broadcast	-11.5094
▁download	-11.5094
▁heavier	-11.5094
▁individual	-11.5094
▁protein	-11.5094
▁psychologist	-11.5094
▁Shandong	-11.5094
▁boots	-11.5094
▁Clinton	-11.5094
▁garage	-11.5094
▁ghost	-11.5094
▁Norway	-11.5094
▁lips	-11.5094
solving	-11.5094
▁chimp	-11.5094
▁Race	-11.5094
tracking	-11.524
▁mini	-11.53
Nancy	-11.5332
Spring	-11.5332
especially	-11.5332
Name	-11.5391
Chocolate	-11.5417
tronica	-11.5417
▁Alibaba	-11.5417
▁Camilla	-11.5417
▁Ernie	-11.5417
▁Information	-11.5417
▁Railway	-11.5417
▁Richard	-11.5417
▁Taipei	-11.5417
▁belief	-11.5417
