<unk>	0
<s>	0
</s>	0
s	-2.82179
▁	-2.9194
▁the	-3.48169
▁a	-3.54992
,	-3.6653
▁and	-3.88225
t	-3.93988
▁of	-4.00282
ing	-4.16123
-	-4.18475
ly	-4.22369
▁.	-4.2395
y	-4.33765
▁to	-4.34328
▁'	-4.42012
ed	-4.58903
▁in	-4.67072
▁is	-4.76799
▁tha	-4.82898
▁it	-4.8589
e	-4.8727
▁with	-5.18428
d	-5.30443
▁an	-5.32647
▁film	-5.38165
▁for	-5.40724
▁movie	-5.43787
▁be	-5.45146
▁its	-5.57149
▁as	-5.62233
'	-5.65722
▁on	-5.67825
▁thi	-5.70776
es	-5.80437
n	-5.85178
▁but	-5.89635
▁you	-5.89767
er	-5.89833
▁n	-5.91824
▁one	-6.06867
▁more	-6.07164
▁by	-6.0947
▁not	-6.13064
▁so	-6.13155
bout	-6.1374
▁than	-6.15573
▁like	-6.16301
al	-6.17979
le	-6.2336
▁do	-6.23579
▁are	-6.25499
▁has	-6.26673
▁from	-6.28421
▁or	-6.28781
▁all	-6.3099
▁`	-6.31086
ion	-6.31371
ity	-6.31917
▁his	-6.32868
▁no	-6.35662
▁good	-6.36191
▁un	-6.3699
ce	-6.38608
▁character	-6.39225
r	-6.39673
able	-6.40798
m	-6.41112
▁out	-6.41331
have	-6.44029
▁-	-6.44876
▁most	-6.46017
▁who	-6.46831
ir	-6.46878
▁at	-6.46907
▁make	-6.47979
ve	-6.48923
ness	-6.49086
a	-6.49799
on	-6.50007
▁story	-6.53832
..	-6.54162
▁too	-6.55708
▁c	-6.55903
▁i	-6.56538
▁real	-6.58334
▁some	-6.59063
▁into	-6.59294
▁whi	-6.59451
▁time	-6.59699
ch	-6.60015
if	-6.64645
▁up	-6.65551
re	-6.68184
▁any	-6.70275
▁well	-6.73066
▁over	-6.74058
▁your	-6.77429
▁just	-6.7805
▁even	-6.80083
▁bad	-6.81945
▁funny	-6.82895
b	-6.84245
▁comedy	-6.85541
▁much	-6.85572
▁man	-6.85929
)	-6.86178
▁will	-6.86184
`	-6.86699
out	-6.87724
▁en	-6.87747
▁performance	-6.8949
▁can	-6.89942
▁way	-6.90448
▁life	-6.91488
ies	-6.91572
ic	-6.92285
▁love	-6.92351
▁little	-6.92975
▁go	-6.93471
▁work	-6.93486
▁what	-6.93646
thing	-6.94035
▁see	-6.94119
▁de	-6.94777
less	-6.94995
▁every	-6.96549
(	-6.97185
▁he	-7.01746
▁been	-7.02172
▁best	-7.0238
very	-7.02515
te	-7.02784
ry	-7.04607
ough	-7.04966
▁feel	-7.06335
o	-7.07408
age	-7.08109
▁watch	-7.08737
c	-7.10365
▁look	-7.10551
▁great	-7.12059
▁we	-7.12582
one	-7.12647
se	-7.12808
▁act	-7.13068
▁through	-7.13074
▁director	-7.13977
g	-7.16609
▁seem	-7.16625
ty	-7.17564
ation	-7.17714
tic	-7.19206
▁humor	-7.19219
▁get	-7.19288
▁never	-7.20027
▁us	-7.20742
▁new	-7.21431
ment	-7.22524
▁other	-7.23127
.	-7.23297
h	-7.24152
something	-7.25198
▁re	-7.25481
▁thing	-7.26357
▁off	-7.26381
▁plot	-7.27438
▁may	-7.2801
▁al	-7.28292
▁cinema	-7.28619
▁action	-7.2939
ful	-7.30095
▁sense	-7.30542
▁was	-7.30838
in	-7.3098
an	-7.31735
▁human	-7.32228
or	-7.33038
▁heart	-7.33216
en	-7.33988
▁wo	-7.3411
f	-7.34118
▁come	-7.3439
▁year	-7.34629
▁drama	-7.34747
▁own	-7.34951
▁audience	-7.35752
▁would	-7.35795
p	-7.36645
ous	-7.36956
▁down	-7.39026
▁worth	-7.39423
▁made	-7.40078
▁take	-7.40151
▁hard	-7.40191
th	-7.40299
i	-7.40475
▁b	-7.4089
▁two	-7.41254
▁ca	-7.41279
ould	-7.4234
▁people	-7.42384
▁long	-7.43054
▁there	-7.43256
▁actor	-7.43678
uch	-7.43844
▁pre	-7.44121
self	-7.45399
man	-7.46011
▁fun	-7.48322
way	-7.4876
other	-7.49076
▁cast	-7.49658
▁her	-7.49703
ial	-7.50013
▁better	-7.50725
est	-7.51133
▁self	-7.52673
u	-7.52857
ther	-7.53161
▁first	-7.53251
▁laugh	-7.53896
▁charm	-7.54524
▁emotional	-7.55013
▁wh	-7.55162
▁how	-7.56297
▁ever	-7.56356
us	-7.56474
▁far	-7.59427
cause	-7.59643
:	-7.59819
▁when	-7.59891
▁m	-7.6046
▁should	-7.61205
special	-7.61485
▁back	-7.61554
▁show	-7.62628
ally	-7.62666
▁become	-7.62844
ish	-7.62937
▁both	-7.63555
▁me	-7.63879
▁end	-7.64263
▁big	-7.65329
▁find	-7.65415
▁moment	-7.65453
▁still	-7.65707
▁visual	-7.66864
to	-7.66893
time	-7.67234
ue	-7.67316
l	-7.67338
▁scene	-7.67721
▁give	-7.67893
▁ra	-7.68601
▁sweet	-7.69446
▁often	-7.69592
▁kind	-7.70217
▁old	-7.70319
▁entertaining	-7.70875
▁dialog	-7.71296
▁my	-7.7147
▁had	-7.7149
▁w	-7.71895
▁bit	-7.73738
lso	-7.74121
▁beautiful	-7.74443
▁world	-7.7485
▁less	-7.75186
▁live	-7.75395
▁e	-7.75952
▁script	-7.7603
▁hollywood	-7.76031
k	-7.76806
▁screen	-7.77089
the	-7.77303
▁might	-7.77646
▁piece	-7.77659
▁keep	-7.79283
▁documentary	-7.79286
▁romantic	-7.7929
▁point	-7.79336
▁compelling	-7.79615
▁family	-7.79617
▁ye	-7.79636
▁she	-7.79647
▁original	-7.7981
▁star	-7.80212
▁under	-7.809
▁picture	-7.80949
▁clever	-7.80949
those	-7.8095
▁few	-7.80957
▁wors	-7.81009
ether	-7.8166
▁being	-7.82473
▁half	-7.83285
▁qui	-7.83486
▁mak	-7.83583
▁hour	-7.83594
▁full	-7.84165
most	-7.8423
is	-7.84255
▁interesting	-7.84367
ism	-7.84466
▁part	-7.85359
ian	-7.85626
▁ultimate	-7.86123
▁our	-7.87878
▁lack	-7.87938
▁low	-7.87945
▁comic	-7.88007
▁talent	-7.88087
minutes	-7.88229
▁high	-7.88353
▁pro	-7.88812
at	-7.89539
tween	-7.8973
▁fail	-7.89733
▁know	-7.8999
▁leave	-7.90246
▁fascinat	-7.90412
▁turn	-7.90482
▁ex	-7.90899
▁enjoy	-7.91592
▁them	-7.91807
ra	-7.92015
fore	-7.92155
▁put	-7.92289
of	-7.92562
▁p	-7.92897
up	-7.92984
▁music	-7.93411
▁deep	-7.93466
▁car	-7.93476
▁him	-7.93491
▁mater	-7.93509
▁want	-7.93517
▁thriller	-7.93587
▁play	-7.94406
▁art	-7.94892
▁care	-7.95472
▁american	-7.95693
▁kids	-7.96483
it	-7.96752
▁wit	-7.97223
▁after	-7.9735
▁energ	-7.97353
▁jo	-7.9739
▁offer	-7.97565
men	-7.9773
▁sad	-7.97932
▁mind	-7.98216
were	-7.98356
ting	-7.98463
▁young	-7.99555
▁lot	-8.0031
▁smart	-8.01149
▁flick	-8.01396
▁fine	-8.01839
▁war	-8.02005
▁perfect	-8.02519
▁tale	-8.03456
/	-8.03473
▁dull	-8.03492
▁dis	-8.0377
▁interest	-8.04042
▁right	-8.04994
▁here	-8.05156
w	-8.0558
▁amus	-8.05645
▁direct	-8.05665
▁day	-8.05705
ine	-8.07422
▁idea	-8.07609
;	-8.07775
▁genre	-8.07775
▁experience	-8.07845
ical	-8.08102
fi	-8.08346
▁k	-8.09478
line	-8.09795
ll	-8.09927
▁near	-8.10009
▁set	-8.10225
▁manage	-8.10309
▁filmmaker	-8.10395
come	-8.12104
▁subject	-8.12273
el	-8.12274
▁eye	-8.12536
ten	-8.13288
ious	-8.14035
v	-8.14098
▁think	-8.14623
▁need	-8.14982
▁intelligen	-8.15014
▁light	-8.15048
▁spirit	-8.15202
ol	-8.15306
▁entertain	-8.15396
▁lea	-8.1561
▁classic	-8.17627
ren	-8.17871
▁style	-8.18022
▁whole	-8.18073
ar	-8.18635
▁sex	-8.18961
ble	-8.1898
▁effort	-8.19313
▁surprising	-8.19415
▁suspense	-8.19416
▁same	-8.19418
▁again	-8.19692
▁try	-8.19715
▁f	-8.1979
▁animat	-8.20132
ate	-8.20165
▁fan	-8.20489
▁head	-8.21062
and	-8.21139
ers	-8.21519
▁fresh	-8.21915
▁horror	-8.21915
▁wonderful	-8.21945
▁cliche	-8.21997
▁place	-8.22762
▁master	-8.24434
▁surprise	-8.24479
▁face	-8.24512
▁theater	-8.24516
ither	-8.24593
▁summer	-8.2471
cy	-8.24823
▁child	-8.24855
▁mov	-8.25297
▁true	-8.26087
▁though	-8.26696
▁cliché	-8.27111
▁short	-8.27112
▁deliver	-8.27112
▁final	-8.27117
▁screenplay	-8.27118
▁twist	-8.27144
▁past	-8.27212
▁sil	-8.27253
▁feature	-8.27307
▁direction	-8.27339
▁rare	-8.27348
▁satisfying	-8.27369
▁complex	-8.28265
▁con	-8.2876
ant	-8.29354
▁power	-8.29354
▁rich	-8.2983
▁actual	-8.29905
▁ho	-8.2997
▁memor	-8.3037
▁title	-8.30435
▁video	-8.31162
▁run	-8.31444
▁tru	-8.31553
▁intelligent	-8.32092
all	-8.32115
▁lo	-8.32343
ne	-8.3246
round	-8.32565
▁complete	-8.32594
▁quirk	-8.32614
▁narrative	-8.32684
▁slow	-8.3276
▁engaging	-8.32839
▁sure	-8.32894
0	-8.32966
▁mo	-8.33556
▁did	-8.33595
▁ma	-8.33677
▁works	-8.33694
istic	-8.34356
ud	-8.34765
ard	-8.35286
▁three	-8.35449
▁dumb	-8.35449
▁odd	-8.3545
▁color	-8.35451
▁strong	-8.35463
▁dark	-8.35469
▁soul	-8.35593
▁certain	-8.36036
id	-8.36382
ng	-8.36538
▁sor	-8.36902
son	-8.37397
▁histor	-8.38166
▁strange	-8.3839
stead	-8.3839
▁small	-8.3839
▁sound	-8.3839
▁reveal	-8.38391
▁nice	-8.38581
▁warm	-8.38654
▁viewer	-8.38797
▁per	-8.38923
▁hero	-8.39105
▁writer	-8.39425
ory	-8.40571
ary	-8.40632
▁sequence	-8.4142
▁french	-8.4142
▁already	-8.4142
▁modern	-8.41442
▁predictabl	-8.41701
mise	-8.41705
▁add	-8.41992
▁flat	-8.4232
ent	-8.42444
day	-8.426
▁where	-8.42813
▁h	-8.43344
hing	-8.43924
▁start	-8.44065
▁filmmak	-8.44132
ile	-8.44278
ward	-8.44309
▁since	-8.44321
▁problem	-8.44545
probabl	-8.44557
▁image	-8.44572
▁romance	-8.44581
▁must	-8.44602
▁powerful	-8.44627
▁impossibl	-8.44647
▁j	-8.44733
▁hit	-8.44822
▁imp	-8.44875
▁done	-8.44905
▁honest	-8.45006
▁lead	-8.45227
sive	-8.45321
▁st	-8.46216
ie	-8.46358
ive	-8.46483
▁inspir	-8.46821
▁wild	-8.46952
▁sp	-8.47157
▁g	-8.47225
▁pret	-8.47468
▁cheap	-8.47579
▁stud	-8.4758
▁enjoyabl	-8.47747
▁matter	-8.47807
▁happen	-8.47818
▁pleasure	-8.47861
▁tell	-8.47886
▁familiar	-8.48071
▁sit	-8.48307
ling	-8.4842
old	-8.48431
▁coming	-8.48912
▁emotion	-8.49819
▁grow	-8.50812
▁feeling	-8.51063
▁remarkabl	-8.51108
mong	-8.51177
▁formula	-8.51214
▁last	-8.51226
▁wel	-8.51284
▁say	-8.51584
ated	-8.51746
ton	-8.51829
▁gri	-8.51975
long	-8.52123
▁mess	-8.52143
co	-8.52428
ver	-8.52628
hallow	-8.52806
be	-8.52895
ro	-8.53668
having	-8.53938
▁passion	-8.54317
go	-8.54391
▁imaginati	-8.54395
▁hand	-8.54539
ily	-8.54545
▁remain	-8.54552
▁storytell	-8.54558
▁delight	-8.5456
▁painful	-8.54578
▁amount	-8.54862
▁seri	-8.54954
▁clear	-8.55054
▁joke	-8.55084
▁sentimental	-8.55097
▁waste	-8.55167
▁dream	-8.55206
▁create	-8.55361
▁culture	-8.55372
▁opera	-8.55571
rate	-8.56214
▁call	-8.56775
▁moral	-8.56806
rs	-8.57109
ur	-8.57316
▁attempt	-8.58124
▁gorgeous	-8.58124
▁terrific	-8.58127
▁excellen	-8.58127
▁present	-8.58129
▁tear	-8.58235
ist	-8.58444
▁solid	-8.587
▁10	-8.58754
▁sequel	-8.58864
▁adventure	-8.59001
▁view	-8.59001
ky	-8.59288
▁dead	-8.59386
z	-8.59419
▁line	-8.60179
lin	-8.60373
nt	-8.60646
▁tone	-8.60654
▁gra	-8.60984
act	-8.61049
▁super	-8.61722
ure	-8.61761
▁effect	-8.61807
easy	-8.61827
▁portrait	-8.61828
▁hilarious	-8.61828
▁weird	-8.61831
▁detail	-8.61854
▁myster	-8.61857
▁flaw	-8.61859
▁bland	-8.61878
▁delightful	-8.61901
▁fill	-8.62011
▁co	-8.62481
▁prove	-8.62565
▁shot	-8.62608
▁sub	-8.63108
▁bring	-8.63157
▁bar	-8.63543
▁comedi	-8.63655
▁kid	-8.63693
▁force	-8.64237
▁los	-8.64577
ever	-8.64809
▁let	-8.6525
▁artist	-8.653
▁insight	-8.6561
▁extreme	-8.65674
▁particular	-8.65674
▁entire	-8.65674
▁melodrama	-8.65674
▁easi	-8.65674
▁middle	-8.65676
▁black	-8.65684
▁help	-8.65708
▁message	-8.65773
▁home	-8.65867
▁political	-8.65997
▁subtle	-8.66075
der	-8.6648
ey	-8.66526
▁intrigu	-8.6658
ock	-8.66716
▁dog	-8.66726
▁pop	-8.66757
▁close	-8.66842
sh	-8.66902
▁pac	-8.67221
▁stor	-8.67277
▁believe	-8.67379
▁bor	-8.67554
▁adult	-8.68005
▁runn	-8.68289
▁late	-8.68531
▁believ	-8.69248
▁expect	-8.69591
▁grand	-8.69612
▁genuine	-8.69674
▁traged	-8.69674
▁situation	-8.69676
▁project	-8.69686
▁rock	-8.69707
▁quick	-8.69709
▁historical	-8.69718
▁da	-8.69799
▁inventive	-8.69806
▁writ	-8.69954
▁brilliant	-8.70093
▁simpl	-8.70187
dom	-8.709
▁hold	-8.71271
▁fu	-8.71604
▁fi	-8.72052
beat	-8.72101
▁fall	-8.72221
▁fair	-8.72443
iness	-8.72498
but	-8.72675
▁reason	-8.7285
tog	-8.7302
ter	-8.73062
▁sta	-8.73389
ha	-8.73709
▁stupid	-8.7384
▁above	-8.73841
▁possibl	-8.73844
▁else	-8.73853
▁stuff	-8.73854
▁quiet	-8.73888
▁thoughtful	-8.73901
▁mood	-8.73949
ring	-8.74005
▁side	-8.7412
▁ben	-8.74403
▁ending	-8.74462
own	-8.74579
▁l	-8.74659
▁touching	-8.75151
▁cut	-8.75869
▁men	-8.77083
1	-8.77084
ag	-8.77143
director	-8.77205
fel	-8.77227
▁slap	-8.77372
mon	-8.77626
▁drag	-8.78036
cise	-8.78173
▁succeed	-8.78188
▁element	-8.78189
▁damn	-8.7819
▁social	-8.7819
▁impressive	-8.78192
▁word	-8.78193
zing	-8.78197
▁understand	-8.782
▁level	-8.78204
▁parent	-8.78208
▁question	-8.78209
▁pull	-8.78222
ul	-8.78239
▁guy	-8.78242
ake	-8.78291
ves	-8.78334
abilit	-8.78341
▁refreshing	-8.78398
▁1	-8.78468
▁slight	-8.78506
▁brain	-8.78595
▁execut	-8.78598
▁scar	-8.78789
▁serious	-8.78934
▁dur	-8.79089
▁credit	-8.79098
▁tir	-8.79267
um	-8.79386
▁trip	-8.79395
▁dramatic	-8.79447
▁stand	-8.79664
ought	-8.79684
▁mark	-8.8016
▁capture	-8.80177
ize	-8.80847
light	-8.80865
▁appeal	-8.81113
▁mean	-8.81237
il	-8.8178
▁com	-8.8245
▁differen	-8.82553
▁teen	-8.8273
▁obvious	-8.82734
▁tedious	-8.82736
▁19	-8.82741
▁magic	-8.82743
▁usual	-8.82758
▁recent	-8.82804
▁ambitio	-8.82885
▁cold	-8.82944
▁tries	-8.83045
▁taste	-8.83297
▁count	-8.83313
▁trouble	-8.83325
▁creepy	-8.83393
▁sea	-8.83557
ext	-8.84001
▁name	-8.84111
▁pace	-8.84371
tention	-8.84381
▁rid	-8.84427
▁use	-8.85077
▁miss	-8.85277
▁na	-8.85319
▁br	-8.8539
▁fl	-8.85681
▁nor	-8.85918
▁po	-8.86178
▁girl	-8.86203
ible	-8.86214
ge	-8.86638
pe	-8.86736
wise	-8.86975
▁hope	-8.87146
▁thrill	-8.87213
▁contriv	-8.87485
▁manipulati	-8.87496
▁second	-8.87496
▁straight	-8.87496
▁cinematograph	-8.87496
▁mild	-8.87496
budget	-8.87496
▁ridiculous	-8.87502
▁despi	-8.87504
▁crowd	-8.87507
▁wait	-8.87538
▁vision	-8.87538
▁main	-8.87614
▁crime	-8.87655
▁imaginative	-8.87715
▁la	-8.87752
▁grace	-8.87806
ri	-8.8796
off	-8.87969
▁poet	-8.88141
▁win	-8.88212
▁pl	-8.88616
ide	-8.89239
wi	-8.89407
▁seat	-8.89868
▁joy	-8.90813
▁goof	-8.90813
▁chill	-8.9088
for	-8.91042
ff	-8.9108
etic	-8.91401
minute	-8.91589
▁edit	-8.91756
each	-8.92181
▁fantas	-8.92413
▁absolute	-8.92496
▁unexpected	-8.92496
▁equal	-8.92496
▁uneven	-8.92496
▁left	-8.92497
▁follow	-8.92497
▁treat	-8.92498
▁satir	-8.92499
▁remember	-8.92502
▁jack	-8.92516
▁effective	-8.92523
▁cool	-8.92538
▁value	-8.92549
▁poor	-8.92563
▁beaut	-8.92575
▁affection	-8.92586
▁decent	-8.92593
▁gentle	-8.92594
▁drea	-8.92652
▁creative	-8.92653
▁wish	-8.92864
▁consider	-8.9296
▁pay	-8.93067
▁career	-8.93308
▁bare	-8.93635
▁change	-8.93661
▁fast	-8.9398
▁begin	-8.93998
ck	-8.94506
ael	-8.94777
tten	-8.94881
ating	-8.94887
pping	-8.94908
▁di	-8.94926
cent	-8.95206
▁boy	-8.96037
ak	-8.96178
▁allow	-8.96181
ice	-8.96347
▁par	-8.96692
▁mix	-8.96698
over	-8.96854
▁ro	-8.96868
lo	-8.96981
▁wise	-8.97173
▁x	-8.97477
▁inside	-8.97539
▁large	-8.97566
▁unf	-8.9761
piece	-8.97758
▁female	-8.97759
▁found	-8.97759
▁oscar	-8.97759
▁recommend	-8.97759
▁relationship	-8.97759
▁rhythm	-8.97759
▁result	-8.97759
▁robert	-8.97759
▁cartoon	-8.97759
▁vivid	-8.97762
▁awful	-8.97766
▁delicate	-8.97767
▁deft	-8.97768
▁earnest	-8.97785
movie	-8.97802
▁reach	-8.97842
▁production	-8.97854
▁manner	-8.97864
▁meditati	-8.97967
▁role	-8.9798
loud	-8.97986
▁sha	-8.98008
down	-8.98415
▁authentic	-8.98554
▁fight	-8.98559
▁ga	-8.98583
▁sand	-8.98678
rous	-8.98692
▁bo	-8.98909
key	-8.99225
▁shape	-8.99433
▁stay	-8.9948
low	-8.99986
la	-9.00101
▁book	-9.00193
▁touch	-9.00237
▁wall	-9.00244
pi	-9.00346
ell	-9.00476
ced	-9.01218
ho	-9.0126
▁du	-9.01452
▁score	-9.01762
▁theme	-9.02475
▁move	-9.02888
▁ear	-9.02958
▁excite	-9.03148
▁mar	-9.03149
▁edge	-9.03188
▁four	-9.03246
▁wonder	-9.03247
▁skill	-9.03296
▁engross	-9.03314
▁occasional	-9.03314
▁thorough	-9.03314
▁tragic	-9.03314
▁unsettl	-9.03314
▁positive	-9.03314
▁charisma	-9.03315
▁beyond	-9.03315
▁secret	-9.03315
▁represent	-9.03316
▁respect	-9.03327
▁forget	-9.03327
rong	-9.03329
▁qualit	-9.03332
▁crisp	-9.03333
▁unique	-9.03352
▁engage	-9.03356
▁fear	-9.03393
▁bitter	-9.03398
▁gag	-9.03426
▁journ	-9.03477
▁episode	-9.03487
▁ver	-9.03492
▁tv	-9.03564
▁ka	-9.03637
life	-9.03669
year	-9.03677
▁talk	-9.03832
▁camera	-9.03842
▁mid	-9.03866
▁rest	-9.0411
▁attract	-9.04352
▁general	-9.04418
▁endear	-9.0444
▁frustrating	-9.04468
▁non	-9.04635
▁pass	-9.04998
ot	-9.05056
▁z	-9.05399
▁free	-9.05512
▁utter	-9.05582
▁inter	-9.06643
▁relie	-9.06688
▁violen	-9.07084
lly	-9.07178
▁sh	-9.07295
pid	-9.07347
▁nature	-9.07464
▁thought	-9.07523
▁personal	-9.07826
▁thin	-9.07863
▁total	-9.08146
▁escape	-9.08162
▁li	-9.08812
▁fra	-9.0893
▁shame	-9.09106
▁contemporar	-9.09197
▁favor	-9.09197
▁sophisticat	-9.09197
▁undeniabl	-9.09197
▁battle	-9.09197
▁frank	-9.09197
▁ugly	-9.09197
▁sustain	-9.09198
▁design	-9.092
▁compan	-9.09202
▁supposed	-9.09214
▁achievement	-9.09254
▁soap	-9.09271
▁fact	-9.09278
▁mich	-9.09281
▁suck	-9.0934
▁reward	-9.09349
▁open	-9.09363
ilit	-9.09394
▁commun	-9.09397
▁playful	-9.09417
2	-9.0954
▁convention	-9.09618
▁brit	-9.0962
▁gone	-9.09621
▁myth	-9.09625
hearted	-9.09646
▁mur	-9.09702
▁franc	-9.09719
necessar	-9.09719
▁psychological	-9.09753
fashioned	-9.09812
▁wind	-9.09855
ball	-9.09903
▁now	-9.09963
made	-9.10011
▁dry	-9.10044
▁deserve	-9.10093
▁tri	-9.10416
▁natural	-9.1045
ition	-9.10656
▁importan	-9.10836
ody	-9.10843
▁bull	-9.10876
x	-9.11035
funny	-9.11074
▁wis	-9.11244
gu	-9.1128
▁cap	-9.11635
▁terribl	-9.11721
▁top	-9.11789
ze	-9.11865
try	-9.1212
▁balance	-9.12217
▁mi	-9.12408
▁pretentio	-9.12453
enty	-9.12612
ow	-9.12666
▁ha	-9.12715
ner	-9.1278
▁sci	-9.13221
▁creat	-9.13695
fac	-9.13902
un	-9.13909
▁offering	-9.14358
he	-9.14359
▁sch	-9.14391
rk	-9.14465
ph	-9.145
ork	-9.14831
atter	-9.14949
▁clo	-9.15125
▁sw	-9.15187
end	-9.15282
evil	-9.15332
▁critic	-9.15374
▁success	-9.15377
▁brutal	-9.15447
▁empath	-9.15447
▁heartwarming	-9.15447
▁imagine	-9.15447
▁poignan	-9.15447
▁protagonist	-9.15447
▁sharp	-9.15447
▁break	-9.15447
▁modest	-9.15448
▁georg	-9.15448
▁suffer	-9.15448
▁conclusion	-9.15449
conscious	-9.15457
▁term	-9.15464
▁walk	-9.15484
▁trick	-9.15497
▁single	-9.15542
▁monster	-9.15548
▁sign	-9.15613
▁issue	-9.15691
▁sapp	-9.15704
▁release	-9.15715
▁endless	-9.1591
▁sever	-9.16017
▁bond	-9.16196
land	-9.1623
cross	-9.16402
▁form	-9.16417
power	-9.16527
▁got	-9.16564
whi	-9.16605
▁road	-9.16792
▁bla	-9.1684
▁concept	-9.16906
ney	-9.17081
▁sympath	-9.17166
▁involv	-9.17372
▁plott	-9.17453
witt	-9.17476
▁ab	-9.17586
▁appealing	-9.1833
dy	-9.18332
▁stylis	-9.1856
▁9	-9.18672
▁ne	-9.18734
void	-9.18878
▁wear	-9.18918
▁serve	-9.18946
▁none	-9.19096
ering	-9.19704
me	-9.19926
ung	-9.20012
▁pr	-9.20417
▁provide	-9.20904
timate	-9.20905
raw	-9.21016
▁somewh	-9.21649
fer	-9.21678
▁ago	-9.21995
▁purpose	-9.22039
▁ru	-9.22089
▁perform	-9.22112
▁derivative	-9.22113
▁period	-9.22113
typical	-9.22114
▁strain	-9.22114
▁couple	-9.22114
▁provocati	-9.22114
▁sandler	-9.22114
▁burn	-9.22114
▁voice	-9.22115
▁water	-9.22115
▁gift	-9.2212
▁future	-9.22125
▁pathetic	-9.22125
▁persona	-9.22127
ient	-9.22148
▁smile	-9.22153
▁chemi	-9.22168
▁south	-9.22175
▁successful	-9.22188
vious	-9.222
▁promise	-9.22201
▁insightful	-9.22236
▁masterful	-9.22298
▁superb	-9.22312
mo	-9.2233
msel	-9.22362
▁meandering	-9.22398
▁depressing	-9.22398
▁class	-9.22399
▁enter	-9.22416
▁fish	-9.22439
▁chees	-9.22523
▁studio	-9.22528
stick	-9.22537
▁mother	-9.22608
▁spot	-9.22646
▁read	-9.22659
▁song	-9.22699
▁frequent	-9.22733
▁test	-9.22845
om	-9.22858
▁intense	-9.22872
▁lame	-9.22936
▁heavy	-9.23065
ming	-9.23096
▁va	-9.23182
ia	-9.23304
▁cont	-9.23307
▁bigge	-9.23368
ster	-9.23392
▁simple	-9.23581
▁ja	-9.23603
▁op	-9.2366
like	-9.23734
zen	-9.23778
ior	-9.24132
▁working	-9.24173
cious	-9.24191
▁fla	-9.24194
▁fe	-9.24268
▁cho	-9.24412
▁roll	-9.24597
ved	-9.24661
▁bother	-9.2479
een	-9.25027
im	-9.25067
▁ask	-9.2509
▁empt	-9.25146
▁avoid	-9.25278
ick	-9.25291
▁hole	-9.25454
▁hip	-9.25527
▁r	-9.25575
▁list	-9.25699
▁fit	-9.26124
▁terri	-9.26252
▁offen	-9.26352
aw	-9.26436
▁intrigue	-9.27567
ance	-9.27841
▁highly	-9.28088
unning	-9.28125
▁cross	-9.28172
semble	-9.28594
▁hum	-9.29075
é	-9.29256
▁conviction	-9.29256
▁urban	-9.29256
▁complicat	-9.29256
▁epic	-9.29257
stream	-9.29257
▁sketch	-9.29258
▁tension	-9.29258
▁destin	-9.29261
▁spectac	-9.29261
▁huge	-9.29268
▁spiritual	-9.29269
▁adaptation	-9.29271
▁version	-9.29272
▁definite	-9.29281
▁slopp	-9.29286
▁blue	-9.2929
▁disney	-9.29292
▁flash	-9.29298
▁carrie	-9.29345
▁recycl	-9.29345
▁death	-9.2936
▁spen	-9.29489
▁accept	-9.295
▁dragon	-9.2952
▁clari	-9.29529
▁indie	-9.29534
▁john	-9.2961
os	-9.29767
led	-9.29779
▁guilty	-9.29919
▁standard	-9.29964
▁share	-9.2999
▁novel	-9.30022
ob	-9.30114
ache	-9.30167
iction	-9.30272
▁age	-9.30303
▁concern	-9.30359
▁disappointing	-9.30418
ise	-9.30562
▁pun	-9.30618
tw	-9.30642
▁date	-9.30759
▁convinc	-9.30905
night	-9.31148
til	-9.31164
inspir	-9.31241
▁daw	-9.31365
screen	-9.31391
right	-9.31432
▁deal	-9.31524
▁paint	-9.31527
▁fest	-9.31824
li	-9.31883
▁cute	-9.32094
no	-9.32095
ks	-9.32125
ane	-9.32146
▁source	-9.32237
tory	-9.32241
mer	-9.32256
▁writing	-9.32287
ped	-9.32595
▁room	-9.33055
some	-9.33108
▁skin	-9.33275
▁craft	-9.33989
▁hot	-9.34886
▁frustrat	-9.35356
▁struggle	-9.35916
▁necessar	-9.36263
▁state	-9.36404
▁cop	-9.36509
da	-9.36523
▁qu	-9.36572
▁accomplish	-9.36861
▁famili	-9.36924
ab	-9.36926
▁achieve	-9.36937
▁glimpse	-9.36948
▁structure	-9.36948
▁superficial	-9.36948
▁scratch	-9.36949
▁disgust	-9.36949
▁depth	-9.36949
▁mediocr	-9.36949
▁strike	-9.36949
▁access	-9.36949
▁answer	-9.36949
▁evocati	-9.3695
▁absorb	-9.3695
▁discover	-9.36951
▁friendship	-9.36952
indulge	-9.36954
▁identi	-9.36959
track	-9.36965
hilar	-9.36967
▁root	-9.36973
▁potential	-9.36974
grade	-9.36985
▁plain	-9.36987
▁park	-9.37019
▁ground	-9.37023
▁bright	-9.37026
berg	-9.37082
▁sc	-9.37093
unch	-9.37099
▁gener	-9.37107
▁suit	-9.37118
▁punch	-9.3717
▁desperate	-9.37302
▁realistic	-9.37354
▁unlike	-9.37442
▁elegant	-9.37522
▁brow	-9.37558
▁aspect	-9.37598
py	-9.37612
▁broke	-9.37675
▁mis	-9.3773
▁week	-9.37746
▁cultur	-9.37778
▁ii	-9.3795
▁blade	-9.37962
lf	-9.38058
▁langu	-9.38148
pac	-9.38252
taking	-9.38351
▁pure	-9.38435
common	-9.38498
eath	-9.38533
▁faith	-9.38629
▁pack	-9.38648
ca	-9.38909
fying	-9.3898
▁step	-9.39064
▁blood	-9.39103
▁personalit	-9.39251
ash	-9.39531
▁mu	-9.39604
dge	-9.39613
sweet	-9.3973
head	-9.39736
▁east	-9.39811
▁ski	-9.39898
olog	-9.40964
mes	-9.41045
▁weight	-9.41126
▁blow	-9.41162
aid	-9.41171
▁bol	-9.41226
▁path	-9.41653
ets	-9.4172
▁funni	-9.41726
hang	-9.41803
▁deni	-9.41877
by	-9.42059
▁event	-9.42331
lan	-9.4235
▁pe	-9.42696
na	-9.42771
▁v	-9.42886
ma	-9.43192
▁spark	-9.43417
speci	-9.43439
▁shoot	-9.43607
so	-9.43896
▁hol	-9.4403
▁2	-9.44347
▁doing	-9.44829
friend	-9.4496
▁hom	-9.45024
ival	-9.45263
▁bottom	-9.45282
▁foot	-9.45282
▁approach	-9.45282
▁astonishing	-9.45282
▁college	-9.45282
▁conflict	-9.45282
▁difficult	-9.45282
▁horrif	-9.45282
▁opportunit	-9.45282
▁repetiti	-9.45282
▁stereotyp	-9.45282
▁suggest	-9.45282
▁technical	-9.45282
▁triumph	-9.45282
▁folk	-9.45282
▁channel	-9.45282
▁ge	-9.45282
▁apparent	-9.45282
▁wicked	-9.45282
▁awkward	-9.45283
▁lush	-9.45283
▁revolution	-9.45283
▁extraordinar	-9.45283
▁20	-9.45284
▁minor	-9.45284
▁rivet	-9.45285
▁exquisite	-9.45287
▁living	-9.45287
▁japan	-9.45288
▁trash	-9.45288
▁breath	-9.45289
mouth	-9.4529
▁blend	-9.45293
▁observation	-9.45299
▁beginning	-9.45301
▁choice	-9.45304
hem	-9.45322
▁winner	-9.45334
▁rise	-9.45343
▁vibrant	-9.45381
▁pile	-9.45417
▁patien	-9.45429
field	-9.45446
▁bag	-9.45522
▁excit	-9.45536
▁major	-9.4557
▁service	-9.45584
▁artificial	-9.45593
▁rush	-9.45617
▁simp	-9.45635
▁except	-9.45665
make	-9.45792
ami	-9.4586
▁dim	-9.4599
▁bold	-9.46007
▁grown	-9.46034
▁distinguish	-9.46071
▁construct	-9.46071
▁exceptional	-9.46073
▁please	-9.46084
▁sleep	-9.46095
▁green	-9.46171
▁mere	-9.46182
▁smarter	-9.46486
▁demand	-9.46591
▁decades	-9.46735
▁seek	-9.46808
ath	-9.46924
▁mixed	-9.47032
▁affirm	-9.47109
▁chop	-9.4736
▁je	-9.47826
llen	-9.48015
▁dir	-9.48021
shop	-9.48122
dimension	-9.48398
▁sum	-9.48597
number	-9.48621
craft	-9.48675
qui	-9.48729
que	-9.48937
new	-9.48997
fall	-9.49034
▁funnie	-9.49061
▁red	-9.49071
▁hack	-9.49172
cas	-9.49316
▁pol	-9.49645
▁ba	-9.49817
dding	-9.49819
atic	-9.4993
▁serv	-9.50359
ite	-9.50394
ade	-9.50433
though	-9.50689
▁explor	-9.5073
oc	-9.50945
▁wal	-9.51375
▁den	-9.51523
▁pain	-9.51652
vert	-9.51851
▁bored	-9.51899
▁die	-9.51943
van	-9.5195
nded	-9.5197
▁sa	-9.52266
uff	-9.5256
▁shock	-9.52763
art	-9.52764
hat	-9.52814
angle	-9.53039
▁christ	-9.5322
▁o	-9.53736
▁chan	-9.53826
▁creep	-9.53888
▁person	-9.53943
▁throw	-9.54072
▁portray	-9.54148
lling	-9.54193
▁affa	-9.5433
tribute	-9.54347
▁pan	-9.54372
▁improvis	-9.54373
▁absurd	-9.54373
▁appear	-9.54373
▁behind	-9.54373
▁horribl	-9.54373
▁possibilit	-9.54373
▁predecessor	-9.54373
▁record	-9.54373
▁visceral	-9.54373
▁gross	-9.54373
▁nuance	-9.54373
▁finish	-9.54373
▁pleasant	-9.54373
▁steven	-9.54373
hood	-9.54373
▁incredibl	-9.54373
▁yarn	-9.54374
▁false	-9.54374
▁rank	-9.54375
▁vital	-9.54375
▁frightening	-9.54376
▁giant	-9.54377
search	-9.54378
▁annoy	-9.54381
▁splendid	-9.54388
▁inept	-9.54392
▁sports	-9.54393
▁gang	-9.54407
▁pretend	-9.54409
▁frame	-9.54415
▁check	-9.54417
consum	-9.54418
▁money	-9.5442
▁innovation	-9.54421
▁review	-9.54426
▁pick	-9.54432
max	-9.54461
▁sight	-9.54463
▁fake	-9.54463
▁team	-9.54469
▁police	-9.54518
▁cutting	-9.54526
▁forceful	-9.54558
▁proper	-9.5456
▁text	-9.54592
▁truth	-9.54594
▁rough	-9.54666
▁sexual	-9.54706
▁raise	-9.54788
▁sick	-9.54819
uous	-9.54824
▁host	-9.54832
▁save	-9.54851
▁ill	-9.54903
▁overwhelming	-9.54928
izar	-9.55021
ence	-9.5505
▁sincer	-9.55053
▁rent	-9.55147
▁essen	-9.5515
port	-9.55181
▁fate	-9.55417
ging	-9.55432
gi	-9.55512
▁dub	-9.55568
▁combin	-9.55804
▁promising	-9.55808
red	-9.55925
▁camp	-9.55946
▁shocking	-9.56044
▁drive	-9.56191
▁develop	-9.56304
▁belly	-9.5633
▁dar	-9.56337
▁doubt	-9.56383
deed	-9.56505
corn	-9.56511
sses	-9.56571
▁reading	-9.56682
▁alienat	-9.56702
ged	-9.56756
▁gay	-9.56779
▁vari	-9.5685
top	-9.56982
▁phone	-9.57513
▁dia	-9.57622
writ	-9.57718
▁handle	-9.57839
core	-9.57919
▁touche	-9.57996
ven	-9.58069
sake	-9.58209
hour	-9.58348
▁intention	-9.58431
ese	-9.58586
perfect	-9.58804
▁realize	-9.58866
▁su	-9.59076
given	-9.5909
▁comfortabl	-9.5911
▁nation	-9.59256
▁god	-9.59334
ino	-9.59466
▁mont	-9.59505
ping	-9.59694
ette	-9.59923
▁exist	-9.59967
▁divers	-9.59989
iro	-9.6039
predictabl	-9.60536
star	-9.60576
▁wash	-9.60662
▁kill	-9.60749
provok	-9.60785
ture	-9.60849
▁phon	-9.61037
ned	-9.61044
▁excu	-9.61138
ich	-9.61306
press	-9.61388
▁laz	-9.61698
lie	-9.61755
▁exce	-9.61787
▁lad	-9.6189
mber	-9.61993
▁fir	-9.62021
nce	-9.62197
▁scen	-9.62499
▁mc	-9.62653
▁disappoint	-9.62661
▁insult	-9.62662
▁90	-9.6276
▁sav	-9.62938
▁attracti	-9.63039
▁bore	-9.63052
ched	-9.63352
cc	-9.63488
za	-9.63495
▁politic	-9.63576
tive	-9.6361
▁bas	-9.63662
▁conven	-9.63712
▁para	-9.63828
▁bi	-9.63846
▁intens	-9.63883
▁award	-9.63936
mas	-9.64029
orie	-9.64276
▁evok	-9.64373
▁figure	-9.64373
▁flavor	-9.64373
▁sensual	-9.64373
▁similar	-9.64373
▁succumb	-9.64373
▁unfortunate	-9.64373
▁confus	-9.64373
▁wannabe	-9.64373
▁paper	-9.64373
▁tiresome	-9.64373
▁genial	-9.64373
▁require	-9.64374
▁amazing	-9.64374
▁univers	-9.64374
▁innocen	-9.64375
▁process	-9.64377
▁puzzl	-9.64377
▁maintain	-9.64377
▁relative	-9.64379
▁niche	-9.6438
▁convey	-9.64381
▁pulp	-9.64381
▁recover	-9.64381
▁eventual	-9.64382
▁substance	-9.64382
▁smug	-9.64385
▁science	-9.64385
▁front	-9.64388
▁lev	-9.64392
▁queen	-9.64392
▁depict	-9.64398
▁heartbreaking	-9.64398
▁spite	-9.64402
▁glorious	-9.64403
▁200	-9.64407
▁murder	-9.64407
▁buoy	-9.6443
cal	-9.64443
▁affect	-9.64448
▁tur	-9.64451
▁merit	-9.64454
▁development	-9.64458
▁impression	-9.64463
▁iran	-9.64468
▁wide	-9.64473
▁mention	-9.64498
▁space	-9.64509
▁distance	-9.64513
▁weak	-9.64534
▁fantastic	-9.64544
▁digni	-9.64576
▁ball	-9.64579
plom	-9.6459
▁teenage	-9.64606
▁pair	-9.64637
era	-9.6468
▁prim	-9.647
tract	-9.64712
▁stomach	-9.64725
▁spielberg	-9.64725
mill	-9.64735
▁cover	-9.64737
▁cheer	-9.64881
▁davi	-9.65006
pleasing	-9.65008
▁overwr	-9.65074
▁devastating	-9.65166
▁lou	-9.65171
▁pal	-9.65172
▁chase	-9.65326
▁televis	-9.65337
▁school	-9.65337
▁load	-9.65343
▁member	-9.6539
bill	-9.65487
▁ser	-9.65523
etto	-9.65581
▁lesson	-9.65582
ple	-9.65717
▁product	-9.65801
op	-9.65822
▁eager	-9.65907
live	-9.65938
ac	-9.65996
▁reg	-9.66033
▁ko	-9.66117
ament	-9.66119
allow	-9.66197
dual	-9.66258
don	-9.66305
behavi	-9.66344
▁glor	-9.66395
▁hear	-9.66455
scu	-9.66577
▁winning	-9.66634
▁sparkl	-9.66684
tant	-9.66763
▁sensitiv	-9.66795
▁grie	-9.66798
lu	-9.66952
▁girls	-9.67218
▁swe	-9.67384
ral	-9.67467
natured	-9.67474
▁beat	-9.675
▁responsib	-9.67501
▁hate	-9.67798
▁chilling	-9.67854
fic	-9.68096
▁twi	-9.68232
▁primar	-9.68399
▁wilde	-9.68412
oid	-9.68593
do	-9.68693
▁lose	-9.68726
▁simul	-9.69032
▁game	-9.69053
▁gent	-9.69135
war	-9.69153
▁earth	-9.69281
▁slic	-9.69385
▁inte	-9.69405
▁bear	-9.69664
wood	-9.69685
room	-9.69716
convinc	-9.69769
9	-9.69803
▁bl	-9.69896
video	-9.69897
work	-9.69955
▁awe	-9.69994
▁jam	-9.70024
▁tu	-9.70156
▁corn	-9.70396
ckney	-9.70537
▁games	-9.70545
ack	-9.70569
ask	-9.70737
ning	-9.70961
ore	-9.71052
told	-9.71514
▁mad	-9.71585
mak	-9.71687
▁apart	-9.71904
bed	-9.72178
ship	-9.72261
gy	-9.72502
ening	-9.72885
▁king	-9.73208
tin	-9.73423
▁examin	-9.73429
▁cla	-9.73451
▁draw	-9.7355
char	-9.73665
hip	-9.73777
▁celebrate	-9.73808
▁ring	-9.73968
▁cur	-9.74066
▁tradition	-9.74103
bb	-9.74133
▁pa	-9.74562
sca	-9.7471
▁air	-9.74784
▁document	-9.74827
rring	-9.74863
aught	-9.75127
▁litera	-9.75128
▁blas	-9.75174
aster	-9.7521
aking	-9.75386
▁im	-9.75442
▁urge	-9.7546
taneous	-9.75463
▁virtu	-9.75463
▁computer	-9.75484
▁experiment	-9.75484
▁holiday	-9.75484
▁sugar	-9.75484
▁thousand	-9.75484
▁astounding	-9.75484
▁bruckheimer	-9.75484
▁commercial	-9.75484
▁comparison	-9.75484
▁enormous	-9.75484
▁intricate	-9.75484
▁perspective	-9.75484
▁sacrific	-9.75484
▁treasure	-9.75484
▁vulgar	-9.75484
▁admirabl	-9.75484
▁demonstrat	-9.75484
pecul	-9.75484
▁banal	-9.75486
▁ironic	-9.75486
▁centur	-9.75487
▁torture	-9.75487
▁unimaginative	-9.75487
▁receiv	-9.75488
valent	-9.75489
▁spectacular	-9.75489
▁flesh	-9.75491
▁adam	-9.75492
▁italian	-9.75495
▁junk	-9.75496
▁outrageous	-9.75496
▁slack	-9.75497
▁business	-9.75498
▁warrior	-9.75499
▁motion	-9.755
▁actress	-9.755
barber	-9.75501
▁clueless	-9.75502
▁fluff	-9.75503
ourse	-9.75504
▁display	-9.75508
▁reci	-9.75513
▁marri	-9.75514
erotic	-9.75538
▁border	-9.7555
frai	-9.75552
▁enthusiastic	-9.7556
▁deception	-9.75563
▁gun	-9.75565
▁grant	-9.75566
▁buff	-9.75591
▁chao	-9.75594
competent	-9.756
▁dv	-9.75622
lift	-9.75625
▁animal	-9.75636
▁exam	-9.75636
▁nowhere	-9.75653
▁motivate	-9.75654
aware	-9.75688
poo	-9.757
▁cras	-9.757
▁chance	-9.75728
▁slip	-9.75752
▁icon	-9.75766
▁inspiration	-9.7579
▁vin	-9.75803
▁screenwriter	-9.75815
▁band	-9.75826
shed	-9.75843
▁kiss	-9.75847
▁shin	-9.75954
▁desire	-9.75966
▁resonan	-9.75993
▁hell	-9.76072
▁witless	-9.76094
▁stop	-9.76105
▁send	-9.76105
▁eloquent	-9.76125
▁dare	-9.76244
▁wry	-9.76246
handed	-9.76279
igni	-9.76289
▁replac	-9.7629
▁focus	-9.76568
▁confiden	-9.76569
▁divi	-9.76622
▁cellul	-9.76664
las	-9.76775
his	-9.76795
▁office	-9.76873
▁traditional	-9.76884
▁assured	-9.77021
▁cause	-9.77021
definit	-9.77099
▁tough	-9.77127
rium	-9.77138
▁connect	-9.77281
ction	-9.77287
▁regard	-9.77308
▁stage	-9.77563
▁provid	-9.77592
button	-9.776
▁refus	-9.77828
▁fur	-9.77997
▁hop	-9.78306
▁gar	-9.78315
▁embarrass	-9.78453
▁difference	-9.78469
eur	-9.78501
▁broad	-9.78747
▁player	-9.79072
▁brothers	-9.79102
▁dr	-9.79287
▁fee	-9.79381
▁uni	-9.79434
iar	-9.79525
▁lip	-9.79903
▁raci	-9.79999
ceeding	-9.80035
lady	-9.80098
▁parad	-9.80113
▁dit	-9.80215
trap	-9.80265
tful	-9.8035
ski	-9.80791
dish	-9.80854
▁hu	-9.80881
▁rap	-9.81135
ier	-9.8135
▁scor	-9.81677
nan	-9.81751
▁gut	-9.81784
list	-9.81925
tuck	-9.82254
book	-9.82393
mark	-9.82451
good	-9.82465
well	-9.8256
chi	-9.82565
earth	-9.82606
mind	-9.82637
style	-9.82645
boy	-9.8269
▁dust	-9.82898
gent	-9.82965
where	-9.83218
▁bod	-9.83308
▁tr	-9.83421
▁continu	-9.83428
▁bu	-9.83628
ign	-9.83733
▁ki	-9.83904
▁sla	-9.83912
gal	-9.84062
▁fel	-9.84193
▁crush	-9.84253
▁realiz	-9.84351
▁che	-9.84372
▁rely	-9.84399
▁card	-9.84472
▁night	-9.8488
▁plu	-9.85217
▁party	-9.85484
older	-9.8555
▁challeng	-9.85754
▁ingen	-9.85931
▁em	-9.86182
ridd	-9.86408
▁edg	-9.86593
▁flo	-9.86771
ject	-9.86854
▁wood	-9.86885
brid	-9.87262
▁jon	-9.87332
▁post	-9.87428
▁poli	-9.87454
uit	-9.87533
thin	-9.87616
pur	-9.87654
▁rela	-9.87723
mp	-9.87848
▁enthusias	-9.87898
▁psycholog	-9.87955
▁claustroph	-9.87984
▁arbitrar	-9.87984
▁assassin	-9.87984
▁clums	-9.87984
▁conjur	-9.87984
▁despair	-9.87984
▁dynamic	-9.87984
▁elevate	-9.87984
▁food	-9.87984
▁group	-9.87984
▁landscape	-9.87984
▁measure	-9.87984
▁splash	-9.87984
▁strength	-9.87984
▁target	-9.87984
▁undercut	-9.87984
▁unpleasant	-9.87984
▁villain	-9.87984
▁contrast	-9.87984
▁pretension	-9.87984
▁routine	-9.87984
▁unusual	-9.87984
▁circu	-9.87984
▁support	-9.87984
▁eviden	-9.87984
▁lump	-9.87984
▁street	-9.87984
▁arrest	-9.87984
▁implausib	-9.87984
▁improve	-9.87984
length	-9.87984
▁sword	-9.87985
▁essential	-9.87986
▁safe	-9.87987
▁transport	-9.87987
▁profound	-9.87988
▁incoheren	-9.87988
▁profan	-9.87988
▁william	-9.87988
▁learn	-9.87988
▁sink	-9.8799
▁father	-9.8799
▁vague	-9.87991
▁render	-9.87991
▁sister	-9.87991
enchant	-9.87992
▁victim	-9.87994
▁marvelous	-9.87997
▁beast	-9.87999
▁priv	-9.88004
opper	-9.88004
▁sitcom	-9.88005
▁pomp	-9.88005
▁spook	-9.88006
▁immediate	-9.88006
▁mike	-9.88007
▁swim	-9.88007
herent	-9.88008
▁credib	-9.88011
ario	-9.88022
▁chang	-9.8803
▁concoction	-9.88048
▁smooth	-9.88049
con	-9.88055
▁curious	-9.88056
watt	-9.88076
▁trapp	-9.88081
▁limit	-9.88087
▁center	-9.88087
▁alternate	-9.88102
▁gold	-9.88111
▁eeri	-9.88112
▁equi	-9.88118
▁crude	-9.8812
▁exact	-9.88123
▁rapid	-9.88124
▁factor	-9.88134
▁ruin	-9.88141
▁skillful	-9.88151
▁bog	-9.88154
▁movement	-9.88172
▁hopeful	-9.88186
▁appa	-9.88205
▁linger	-9.88209
▁gloss	-9.88219
ok	-9.8822
▁arm	-9.88222
eason	-9.8826
▁lyric	-9.88291
▁sara	-9.88299
resist	-9.88326
▁drawn	-9.88329
ilty	-9.88333
▁hair	-9.88436
▁shadow	-9.88437
▁settle	-9.88451
linch	-9.88505
maze	-9.88538
▁effortless	-9.8854
▁came	-9.88616
▁sour	-9.88689
▁luck	-9.88739
▁wave	-9.88832
zzl	-9.88905
▁poe	-9.89006
▁male	-9.89019
▁earn	-9.89053
▁dys	-9.89086
▁fier	-9.89128
▁remind	-9.89215
▁industr	-9.89224
▁third	-9.8928
vel	-9.89361
▁jer	-9.89378
▁dud	-9.89395
valu	-9.89456
wan	-9.89458
▁musical	-9.89541
obble	-9.89593
▁buy	-9.89599
vary	-9.8965
qua	-9.897
esque	-9.89718
▁belong	-9.89787
iac	-9.89808
▁solo	-9.89891
▁celebrat	-9.89917
bak	-9.89925
spare	-9.89972
▁house	-9.90046
tim	-9.9009
▁pat	-9.90294
▁intima	-9.90391
inner	-9.90518
▁loss	-9.90565
▁shooting	-9.90605
▁dan	-9.90654
▁lust	-9.90661
▁layer	-9.90951
rie	-9.91109
▁produc	-9.91351
▁convince	-9.91784
▁consistent	-9.9186
▁topic	-9.92
▁statu	-9.92179
eck	-9.92239
▁fat	-9.92245
utter	-9.92321
▁entr	-9.92377
▁jar	-9.92411
▁emerge	-9.92745
▁bel	-9.92807
▁dash	-9.92842
▁jan	-9.93086
umbl	-9.93303
her	-9.9334
com	-9.93439
▁aim	-9.93622
xed	-9.93654
▁law	-9.93688
▁pla	-9.93845
▁matur	-9.93933
cho	-9.94052
▁startl	-9.94329
killer	-9.94369
rek	-9.94411
▁reli	-9.94412
▁endure	-9.94899
j	-9.95019
arrow	-9.95054
▁distinct	-9.95055
▁comfort	-9.9507
▁cal	-9.95108
heart	-9.95622
▁happi	-9.9576
rawl	-9.95867
▁complexit	-9.95875
bot	-9.95956
produc	-9.96298
uster	-9.96318
bust	-9.9646
cute	-9.96537
source	-9.9655
view	-9.9656
free	-9.96613
▁van	-9.9663
pped	-9.96639
dead	-9.96658
turn	-9.96685
worth	-9.9673
half	-9.96745
witch	-9.96789
pro	-9.97033
▁number	-9.97134
believab	-9.9738
action	-9.9746
▁ambigu	-9.97749
mart	-9.97953
riety	-9.98553
gree	-9.98568
▁india	-9.98681
kin	-9.98984
▁prop	-9.99181
▁transcend	-9.99696
▁ideal	-9.99711
ek	-9.99727
▁leg	-9.99732
not	-9.99798
cat	-10.0019
▁cult	-10.0021
▁notice	-10.0023
edge	-10.0026
pez	-10.0091
▁guilt	-10.0095
bel	-10.01
ect	-10.0121
▁due	-10.0147
meri	-10.017
▁rip	-10.0182
omical	-10.0206
▁pow	-10.0211
▁compet	-10.0212
verse	-10.0217
tail	-10.0218
▁revelat	-10.022
▁splend	-10.0225
▁fam	-10.0227
▁english	-10.0227
▁amateurish	-10.0227
▁blockbuster	-10.0227
▁cruci	-10.0227
▁incessant	-10.0227
▁inevitabl	-10.0227
▁metaphor	-10.0227
▁objectiv	-10.0227
▁obligat	-10.0227
▁obnoxious	-10.0227
▁stretch	-10.0227
▁supreme	-10.0227
▁surviv	-10.0227
▁trailer	-10.0227
▁wondrous	-10.0227
gnific	-10.0227
▁abandon	-10.0227
▁encourag	-10.0227
▁stroke	-10.0227
▁technolog	-10.0227
articula	-10.0227
▁admire	-10.0227
▁church	-10.0227
▁cruel	-10.0227
▁dismiss	-10.0227
▁encounter	-10.0227
▁philosoph	-10.0227
▁robin	-10.0227
▁shakespeare	-10.0227
▁brush	-10.0227
▁ghost	-10.0227
destroy	-10.0227
▁crack	-10.0227
▁hopkins	-10.0227
▁blank	-10.0227
▁freak	-10.0227
▁ponder	-10.0227
igan	-10.0227
▁aggressive	-10.0227
▁transform	-10.0227
▁flims	-10.0227
▁existential	-10.0227
concert	-10.0227
▁constant	-10.0227
▁wander	-10.0227
▁craz	-10.0227
▁poke	-10.0227
▁repell	-10.0227
▁luna	-10.0227
▁irony	-10.0227
▁champ	-10.0227
▁fond	-10.0228
▁random	-10.0228
▁environment	-10.0228
▁trem	-10.0228
▁resolut	-10.0228
▁tongue	-10.0228
▁accent	-10.0228
▁jolt	-10.0228
▁normal	-10.0228
▁angel	-10.0228
haps	-10.0229
▁stoop	-10.0229
▁composition	-10.0229
▁guess	-10.0229
▁grind	-10.0229
burst	-10.0229
▁gangster	-10.0229
rude	-10.0229
▁accurate	-10.023
▁boast	-10.023
▁cynic	-10.023
▁box	-10.023
wn	-10.023
▁handsome	-10.0231
▁12	-10.0231
upper	-10.0232
▁creature	-10.0232
▁tight	-10.0232
lution	-10.0233
▁gear	-10.0233
▁11	-10.0233
▁content	-10.0233
▁trope	-10.0234
▁auto	-10.0234
vating	-10.0236
▁return	-10.0236
▁outside	-10.0237
trade	-10.0238
guide	-10.0238
▁catch	-10.0239
▁jaw	-10.0239
▁report	-10.024
▁precious	-10.0241
▁smok	-10.0241
▁crap	-10.0243
▁generation	-10.0244
kum	-10.0244
▁intoxicati	-10.0245
arant	-10.0246
orient	-10.0246
▁efficient	-10.0247
▁generate	-10.0249
▁informati	-10.0249
▁tick	-10.025
▁scr	-10.0252
▁trite	-10.0256
▁expectation	-10.0258
▁silli	-10.0261
▁preach	-10.0262
▁drown	-10.0263
▁demon	-10.0264
board	-10.0265
▁separate	-10.0265
▁resemble	-10.0265
▁muddle	-10.0266
function	-10.0267
▁captivating	-10.0267
▁pian	-10.0267
▁garb	-10.0268
▁arn	-10.0268
mper	-10.0271
▁fea	-10.0276
▁cost	-10.028
▁swan	-10.0282
angst	-10.0283
▁artful	-10.0286
▁stone	-10.0286
▁friends	-10.0287
udic	-10.0288
▁dozen	-10.029
▁screening	-10.0301
▁spring	-10.0303
titude	-10.0305
▁carry	-10.0305
▁vict	-10.0308
▁cheapen	-10.0318
earing	-10.032
▁choose	-10.0321
numer	-10.0336
fred	-10.0342
▁assemble	-10.0348
▁bus	-10.0356
▁devote	-10.0357
▁idiot	-10.036
▁shre	-10.0366
lam	-10.0372
risk	-10.0372
gage	-10.0372
▁jumb	-10.0377
▁exploitati	-10.0378
▁aching	-10.0378
limi	-10.0379
wear	-10.0379
tech	-10.0389
anta	-10.0393
▁reduce	-10.0398
ado	-10.04
▁inci	-10.0423
phy	-10.0423
▁adrenalin	-10.0427
▁sus	-10.0435
▁drawing	-10.0453
▁vaca	-10.0461
▁location	-10.0467
▁current	-10.0467
▁90-	-10.0473
awk	-10.048
hand	-10.0502
plete	-10.0505
▁holly	-10.0512
▁harm	-10.0522
▁mala	-10.0534
we	-10.0536
mission	-10.0549
▁timeless	-10.0557
▁weav	-10.0566
position	-10.0615
▁white	-10.0634
▁defi	-10.0645
▁table	-10.065
logue	-10.0656
▁nonsens	-10.0661
roni	-10.0688
noi	-10.0691
▁luc	-10.0697
▁loneli	-10.0701
▁opti	-10.0715
pul	-10.0743
reek	-10.0743
▁fairy	-10.0758
▁satisfie	-10.076
uf	-10.0796
▁reek	-10.0809
▁plan	-10.081
nia	-10.081
▁chas	-10.0826
umber	-10.0827
dz	-10.0829
▁rog	-10.083
▁hype	-10.0853
▁cha	-10.0854
▁fare	-10.0871
pan	-10.0918
▁meaning	-10.0963
▁stee	-10.0973
ative	-10.0996
uck	-10.1025
eek	-10.1044
▁dispos	-10.1048
ama	-10.1058
lip	-10.1064
lab	-10.107
▁har	-10.1074
▁appreciate	-10.108
▁scare	-10.1083
▁happ	-10.1105
▁ignore	-10.1107
▁gre	-10.1116
▁played	-10.1155
▁cod	-10.1166
gg	-10.1186
▁lett	-10.1196
passionate	-10.1204
▁tin	-10.1204
ckles	-10.121
place	-10.1214
▁hall	-10.1219
read	-10.1221
stand	-10.1222
▁spa	-10.1243
▁dimension	-10.1273
▁subt	-10.1292
satisfie	-10.1298
eful	-10.1319
weight	-10.132
original	-10.1338
bad	-10.1342
how	-10.1349
▁radi	-10.1356
▁includ	-10.1364
zo	-10.1364
orous	-10.1365
leak	-10.1368
vention	-10.1382
▁merc	-10.1398
hold	-10.1399
▁goo	-10.1416
dash	-10.1421
▁hi	-10.1424
aver	-10.1424
▁pale	-10.1434
ural	-10.1462
▁sac	-10.1462
▁bal	-10.1477
▁anim	-10.1494
▁slo	-10.1513
play	-10.1556
mentary	-10.1571
nting	-10.1584
wo	-10.1598
doing	-10.162
▁leav	-10.1623
▁vi	-10.1635
▁fro	-10.1656
arade	-10.1662
hasti	-10.1662
biz	-10.1671
▁idio	-10.1676
▁tast	-10.1679
▁ripe	-10.1702
five	-10.1719
zy	-10.172
wrenc	-10.1727
▁eva	-10.1729
▁considerabl	-10.1731
▁pri	-10.1733
▁harr	-10.1735
shap	-10.174
▁mor	-10.1746
ussi	-10.1763
▁irr	-10.1771
lib	-10.1772
air	-10.1775
▁produce	-10.1776
▁alleg	-10.1789
▁gli	-10.1792
▁extra	-10.1801
▁desperat	-10.1814
▁wil	-10.1834
bal	-10.1843
▁publi	-10.1847
▁innu	-10.1849
▁mat	-10.1851
▁sap	-10.1868
assive	-10.187
▁broo	-10.1873
funct	-10.1874
▁knock	-10.1876
bound	-10.188
hrill	-10.1883
▁courage	-10.1886
ennes	-10.1886
orrow	-10.1887
▁potent	-10.1888
▁collect	-10.1892
▁cris	-10.1892
▁roman	-10.1893
▁chabrol	-10.1894
▁unapologetic	-10.1894
critiqu	-10.1894
discipline	-10.1894
▁adequate	-10.1894
▁celebrit	-10.1894
▁contribution	-10.1894
▁eccentric	-10.1894
▁endeavor	-10.1894
▁gimmick	-10.1894
▁grotesque	-10.1894
▁infatuat	-10.1894
▁irrelevan	-10.1894
▁photograph	-10.1894
▁proficien	-10.1894
▁recognize	-10.1894
▁retaliat	-10.1894
▁scream	-10.1894
▁unabashed	-10.1894
▁uncomfortabl	-10.1894
▁vietnam	-10.1894
envelop	-10.1894
▁arrive	-10.1894
▁device	-10.1894
▁fluid	-10.1894
▁immatur	-10.1894
▁illustrat	-10.1894
▁rehash	-10.1894
▁remote	-10.1894
▁build	-10.1894
▁nichol	-10.1894
▁condition	-10.1894
▁insecur	-10.1894
▁screw	-10.1894
▁sneak	-10.1894
prise	-10.1894
▁striking	-10.1894
▁substanti	-10.1894
▁account	-10.1894
▁bank	-10.1894
▁recall	-10.1894
▁strict	-10.1894
▁slim	-10.1894
▁economic	-10.1894
▁nightmar	-10.1894
fulfill	-10.1894
▁hitler	-10.1894
penetra	-10.1894
▁piz	-10.1894
▁spider	-10.1894
▁surface	-10.1894
evin	-10.1894
▁colli	-10.1894
▁professional	-10.1894
▁pump	-10.1894
▁compar	-10.1894
control	-10.1894
▁retro	-10.1894
▁chica	-10.1895
▁spike	-10.1895
▁lurid	-10.1895
▁theatrical	-10.1895
▁aspire	-10.1895
destructi	-10.1895
▁sickening	-10.1895
▁pax	-10.1895
▁breathtaking	-10.1896
▁kiddie	-10.1896
▁sleek	-10.1896
▁ske	-10.1896
▁flower	-10.1896
▁slug	-10.1896
▁whimsical	-10.1896
▁steal	-10.1897
▁dangerous	-10.1897
▁spontane	-10.1897
▁contrivance	-10.1897
▁popular	-10.1898
endous	-10.1898
▁burie	-10.1898
▁bruc	-10.1898
▁explosion	-10.1898
▁eight	-10.1898
▁atmospheric	-10.1899
▁rival	-10.1899
▁griev	-10.1899
▁embrace	-10.1899
▁milk	-10.1899
▁payoff	-10.1899
▁justify	-10.19
▁speed	-10.19
▁lend	-10.19
▁gasp	-10.19
▁limp	-10.19
▁weep	-10.1901
▁obsession	-10.1901
▁christian	-10.1902
▁translat	-10.1902
▁thematic	-10.1903
▁hoot	-10.1904
▁improbab	-10.1904
cher	-10.1905
▁ferr	-10.1905
▁push	-10.1907
▁soft	-10.1908
▁aimless	-10.1908
▁delic	-10.1908
▁toilet	-10.191
▁somebod	-10.191
▁suitabl	-10.191
▁smash	-10.191
▁market	-10.191
▁string	-10.1911
▁impersona	-10.1911
fil	-10.1911
▁moron	-10.1913
▁creator	-10.1914
▁patch	-10.1914
▁pie	-10.1916
▁kick	-10.1916
▁tart	-10.1918
▁tender	-10.1919
ooper	-10.1922
▁revelation	-10.1922
▁fatal	-10.1923
drum	-10.1923
▁broom	-10.1924
▁teacher	-10.1924
endo	-10.1925
descend	-10.193
rising	-10.1936
▁portrayal	-10.1937
▁leon	-10.1941
▁cere	-10.1941
▁spin	-10.195
▁creation	-10.195
▁frida	-10.1951
▁thrown	-10.1952
▁lane	-10.1954
▁moviegoer	-10.1954
▁neo	-10.1956
▁barrel	-10.1957
▁juic	-10.1959
veil	-10.196
▁hau	-10.1966
▁cu	-10.1966
scop	-10.1968
▁emb	-10.1971
nail	-10.1973
▁boom	-10.1973
▁costume	-10.1974
▁diver	-10.1975
lunch	-10.1977
▁graceful	-10.1984
▁unfor	-10.1985
▁precise	-10.1989
▁cheat	-10.1993
ace	-10.1993
▁mile	-10.1994
avish	-10.1995
▁russ	-10.1998
▁rig	-10.2006
lid	-10.2011
truck	-10.2013
▁helm	-10.2018
▁pb	-10.2019
▁ral	-10.2019
▁trot	-10.2021
chines	-10.2022
▁overuse	-10.2023
▁woo	-10.2027
assum	-10.2034
poster	-10.204
media	-10.2059
luc	-10.206
▁fizz	-10.206
▁shake	-10.2061
▁soar	-10.2064
▁suspect	-10.2067
▁reflect	-10.207
▁advi	-10.2073
actic	-10.2076
▁leap	-10.2077
withstand	-10.2082
obs	-10.2092
ual	-10.2092
gid	-10.2102
▁chris	-10.2109
▁artistic	-10.2114
▁miser	-10.2119
▁san	-10.2122
▁define	-10.2134
gm	-10.2134
▁visi	-10.215
addle	-10.2161
▁mend	-10.2172
▁charl	-10.2174
▁graphic	-10.2175
zel	-10.2181
▁brand	-10.2193
reck	-10.2195
▁insulting	-10.2196
▁escap	-10.221
gate	-10.2216
▁copy	-10.223
erson	-10.2261
integr	-10.2272
rai	-10.2273
▁anne	-10.2281
▁cry	-10.2281
▁determine	-10.2286
▁conn	-10.2297
▁loser	-10.2297
law	-10.2304
rence	-10.2304
▁genero	-10.2305
▁anti	-10.232
join	-10.2321
▁rele	-10.2343
napping	-10.2357
▁exposit	-10.2359
▁gain	-10.2361
zan	-10.2401
▁charge	-10.2411
▁labor	-10.2416
pl	-10.2449
▁heal	-10.2452
▁prob	-10.2463
lock	-10.2478
▁maker	-10.2481
▁danc	-10.25
▁beg	-10.2501
rvin	-10.2512
▁continue	-10.255
agger	-10.2622
▁examine	-10.2641
wai	-10.2675
ja	-10.2684
▁pit	-10.2689
mini	-10.2697
▁clima	-10.2708
▁scru	-10.2719
▁existen	-10.2724
rote	-10.2732
▁violent	-10.2739
fest	-10.2763
▁remin	-10.2774
stance	-10.2784
ifi	-10.279
rating	-10.284
▁arch	-10.2842
ham	-10.2853
▁scari	-10.2868
nny	-10.2869
gger	-10.2876
▁bodi	-10.2881
▁ju	-10.2894
▁mist	-10.2918
generat	-10.293
ara	-10.2955
hic	-10.2968
empti	-10.2981
▁grit	-10.3031
▁fanc	-10.3033
pent	-10.3033
immer	-10.304
▁bon	-10.3042
cking	-10.3075
rap	-10.3099
gue	-10.3166
▁wer	-10.3186
▁dose	-10.3204
▁brother	-10.3276
▁insan	-10.3279
tional	-10.3281
erous	-10.3291
nonsens	-10.3299
consistent	-10.3305
labor	-10.3308
responsib	-10.3313
blood	-10.3321
class	-10.3323
sympath	-10.3325
bull	-10.3326
min	-10.3327
spirit	-10.3337
interesting	-10.3338
world	-10.3339
ripp	-10.3343
broad	-10.3353
offen	-10.3358
back	-10.336
▁tolera	-10.3369
▁alien	-10.3375
form	-10.3397
▁cam	-10.3403
writer	-10.3415
kind	-10.342
been	-10.3423
▁span	-10.343
▁fright	-10.3436
bod	-10.3471
▁sun	-10.3476
▁gh	-10.3477
ddle	-10.3479
▁weigh	-10.3495
entist	-10.3507
▁instan	-10.355
eeming	-10.357
clai	-10.3573
charge	-10.3616
▁derri	-10.3632
gh	-10.3643
grat	-10.3653
▁fashion	-10.3672
astic	-10.3679
▁adventur	-10.3686
▁creepi	-10.3696
ular	-10.3696
ook	-10.3702
▁lau	-10.3722
▁devastat	-10.3729
▁medi	-10.3729
did	-10.3738
▁featur	-10.3738
ero	-10.374
▁devo	-10.3763
lor	-10.3767
▁del	-10.3768
exploit	-10.3771
▁logic	-10.3778
▁precis	-10.381
▁unlik	-10.3814
born	-10.3815
▁screenwrit	-10.3847
▁swee	-10.386
amu	-10.3863
▁monst	-10.3863
▁america	-10.3865
▁sentiment	-10.3873
▁impress	-10.3875
▁insu	-10.3888
▁curio	-10.3888
lar	-10.3889
▁feat	-10.389
dependen	-10.3891
▁artific	-10.3892
conclusi	-10.3893
stitut	-10.3893
▁reput	-10.3894
▁emphasi	-10.3894
employ	-10.3894
fabric	-10.3894
hibit	-10.3894
vampire	-10.3894
▁adolescen	-10.3894
▁automatic	-10.3894
▁benefit	-10.3894
▁collapse	-10.3894
▁compromise	-10.3894
▁confront	-10.3894
▁deliberate	-10.3894
▁dickens	-10.3894
▁digital	-10.3894
▁disquieting	-10.3894
▁guarantee	-10.3894
▁hundred	-10.3894
▁inescapabl	-10.3894
▁intellect	-10.3894
▁melanchol	-10.3894
▁metropoli	-10.3894
▁oppressive	-10.3894
▁pitiful	-10.3894
▁plodding	-10.3894
▁squeeze	-10.3894
▁terror	-10.3894
▁traffic	-10.3894
▁unsurprising	-10.3894
▁chuckle	-10.3894
▁enigma	-10.3894
▁foul	-10.3894
▁induce	-10.3894
▁mountain	-10.3894
▁reassur	-10.3894
▁surrender	-10.3894
▁thumb	-10.3894
▁categor	-10.3894
▁discern	-10.3894
▁fool	-10.3894
▁minimal	-10.3894
▁shrewd	-10.3894
dropping	-10.3894
▁irresistibl	-10.3894
▁subculture	-10.3894
numbing	-10.3894
▁falter	-10.3894
▁seiz	-10.3894
▁exotic	-10.3894
▁pink	-10.3894
▁stink	-10.3894
▁crum	-10.3894
▁damage	-10.3894
▁smack	-10.3894
▁hysteri	-10.3894
▁multi	-10.3894
▁bracing	-10.3894
▁kinetic	-10.3894
▁negative	-10.3894
defeat	-10.3894
▁chief	-10.3894
▁monoton	-10.3894
▁phil	-10.3894
▁snow	-10.3894
▁drunk	-10.3894
▁command	-10.3894
▁jump	-10.3894
corporate	-10.3894
▁clean	-10.3894
▁hallmark	-10.3894
▁sudden	-10.3895
▁exude	-10.3895
▁margin	-10.3895
▁motivation	-10.3895
▁seduc	-10.3895
▁reef	-10.3895
▁clocks	-10.3895
mitted	-10.3895
▁surf	-10.3895
▁clamor	-10.3895
▁legend	-10.3895
▁range	-10.3895
▁clown	-10.3896
▁contain	-10.3896
▁substitut	-10.3896
▁million	-10.3896
▁merge	-10.3896
▁admitted	-10.3896
▁loyal	-10.3896
▁collective	-10.3896
▁chick	-10.3896
▁symboli	-10.3896
▁clinic	-10.3897
▁hunk	-10.3897
▁intermi	-10.3897
▁fault	-10.3897
accid	-10.3897
liff	-10.3897
▁prison	-10.3898
▁narc	-10.3898
▁21	-10.3898
▁korea	-10.3899
▁extensi	-10.3899
▁urgent	-10.3899
▁derisi	-10.3899
▁interminabl	-10.3899
▁mush	-10.39
▁sober	-10.3901
▁sensational	-10.3901
▁lark	-10.3902
▁loop	-10.3902
▁aute	-10.3902
bind	-10.3903
▁bread	-10.3903
▁spell	-10.3903
▁machi	-10.3903
▁spli	-10.3904
▁cata	-10.3904
▁popul	-10.3904
▁finger	-10.3904
▁ticket	-10.3905
▁brook	-10.3906
▁peril	-10.3906
▁block	-10.3906
▁keen	-10.3906
▁buck	-10.3906
▁suppl	-10.3907
▁pube	-10.3907
worn	-10.3909
ulent	-10.3909
conceiv	-10.3909
▁profil	-10.391
▁imitation	-10.391
▁machine	-10.3911
ilk	-10.3912
▁nominat	-10.3913
▁savage	-10.3914
▁smear	-10.3914
▁stri	-10.3915
oster	-10.3917
▁purposeful	-10.3918
blow	-10.3918
▁bir	-10.3919
▁fourth	-10.392
▁speak	-10.3922
jud	-10.3923
▁interna	-10.3924
▁kah	-10.3924
▁determin	-10.3925
▁drug	-10.3925
▁michel	-10.3926
▁uncon	-10.3926
▁retrea	-10.3927
▁pitch	-10.3928
▁bath	-10.3931
▁gall	-10.3932
▁tend	-10.3932
▁shameless	-10.3933
▁lika	-10.3934
sync	-10.3934
rgent	-10.3935
uzz	-10.3937
quer	-10.3938
▁whims	-10.3938
oursel	-10.3939
litter	-10.394
▁marina	-10.3943
▁meet	-10.3944
▁grating	-10.395
▁han	-10.3952
▁ego	-10.3952
vas	-10.3954
▁glass	-10.3956
eld	-10.3957
▁repeated	-10.3958
▁schm	-10.3958
▁gel	-10.3961
▁dive	-10.3963
▁practic	-10.3964
deadening	-10.3965
▁scott	-10.3967
jerk	-10.3972
▁sophomor	-10.3972
▁appropriate	-10.3972
▁ken	-10.3974
enni	-10.3979
ntless	-10.398
▁corner	-10.3981
latter	-10.3983
satisfactor	-10.3987
▁tit	-10.3988
arter	-10.3993
▁expression	-10.4002
▁revisi	-10.4004
▁grandi	-10.4007
▁nerve	-10.4014
▁meat	-10.4015
▁significant	-10.4015
▁stil	-10.4016
▁order	-10.4021
bridge	-10.4022
▁surrounding	-10.4031
ault	-10.4032
characterization	-10.4036
insider	-10.4036
▁characteristic	-10.4039
▁cub	-10.4051
ednes	-10.4053
▁witnesse	-10.4053
▁hust	-10.4056
▁understa	-10.406
ecc	-10.4061
ogg	-10.4062
▁salt	-10.4065
chel	-10.4069
▁unwi	-10.4077
rick	-10.408
zak	-10.4081
▁sag	-10.4085
nning	-10.4089
▁physi	-10.4091
▁lio	-10.4093
▁tune	-10.4109
preserv	-10.4112
▁rose	-10.4123
▁brat	-10.4126
▁mental	-10.4128
▁moviego	-10.4129
▁shag	-10.4133
▁bra	-10.414
▁savor	-10.416
flow	-10.4161
zp	-10.4177
ordinar	-10.4177
eke	-10.4182
▁hart	-10.4193
ordan	-10.4193
▁pu	-10.4213
hekh	-10.423
mov	-10.4235
fide	-10.4242
llow	-10.4251
izard	-10.4269
ap	-10.4279
▁lew	-10.4293
▁sett	-10.4293
▁homo	-10.43
▁seg	-10.4305
▁bone	-10.4326
hai	-10.4344
tier	-10.4348
▁chor	-10.4351
ellen	-10.4355
▁seal	-10.4369
▁sti	-10.439
quet	-10.4426
▁eat	-10.4459
▁passe	-10.4498
than	-10.4507
▁youth	-10.452
ymp	-10.4533
aries	-10.4549
unk	-10.4549
▁sel	-10.4557
▁drop	-10.4564
▁hap	-10.4565
siz	-10.4572
▁tour	-10.4577
comprehensi	-10.458
▁sunda	-10.4599
▁establishe	-10.4615
▁lazie	-10.4624
stab	-10.4653
▁disguise	-10.4655
▁defian	-10.4707
▁refreshe	-10.4711
dden	-10.4717
▁bang	-10.4739
▁goofi	-10.4797
▁boo	-10.4815
cale	-10.487
▁rev	-10.4883
▁express	-10.4904
win	-10.4917
▁patho	-10.4918
▁store	-10.4934
cia	-10.4943
usted	-10.4949
▁marti	-10.496
▁area	-10.4961
feed	-10.4986
rman	-10.5024
rust	-10.5046
hur	-10.5062
overt	-10.5092
ease	-10.5103
vern	-10.5123
▁brave	-10.5128
▁predictab	-10.5159
oop	-10.5208
▁captur	-10.5211
radic	-10.5243
ina	-10.5247
▁clim	-10.5254
▁distincti	-10.5273
▁balanc	-10.5315
▁fascinate	-10.5389
nash	-10.539
rung	-10.5407
▁undo	-10.5448
layer	-10.546
title	-10.5462
pant	-10.5463
rance	-10.548
gain	-10.5488
▁disguis	-10.5495
ubbo	-10.5515
anger	-10.5521
swallo	-10.5523
biograph	-10.5537
▁nois	-10.5555
▁insi	-10.5596
▁sonn	-10.5628
egre	-10.5639
lung	-10.5669
undan	-10.5688
alan	-10.5706
ator	-10.5708
oge	-10.5714
ode	-10.5719
▁hamm	-10.5737
road	-10.5764
▁sensitivit	-10.5768
determin	-10.5771
base	-10.5798
examin	-10.581
difference	-10.5811
develop	-10.5817
doubt	-10.5817
winning	-10.5817
affirm	-10.5819
faith	-10.5821
concept	-10.5826
importan	-10.5827
natural	-10.5827
drive	-10.5828
credit	-10.5831
sequel	-10.5834
certain	-10.5836
memor	-10.5836
step	-10.5837
dramatic	-10.5837
compelling	-10.5839
family	-10.584
through	-10.5842
cultur	-10.5842
your	-10.5844
pret	-10.5844
plot	-10.5845
look	-10.5852
pack	-10.5853
intention	-10.5859
still	-10.5877
▁frag	-10.5879
liz	-10.5895
kle	-10.5895
shot	-10.5901
▁prefe	-10.5904
▁forgive	-10.5906
00	-10.5955
expos	-10.5955
pleas	-10.5975
▁spo	-10.5978
▁combine	-10.5986
▁mora	-10.5987
note	-10.5989
▁uncom	-10.5996
die	-10.6
▁invit	-10.6018
kov	-10.6059
aliz	-10.6073
fluence	-10.6113
owling	-10.6119
▁cow	-10.6156
flam	-10.6163
▁elegan	-10.6193
▁brillian	-10.6196
azz	-10.6202
▁cell	-10.6211
▁redundan	-10.6213
▁surround	-10.622
▁dol	-10.6224
▁overwhelm	-10.623
hill	-10.6234
best	-10.6238
imulate	-10.6241
ograph	-10.6284
ourne	-10.629
▁creativ	-10.6316
xica	-10.6319
trip	-10.632
▁overb	-10.6322
▁heav	-10.6325
▁respon	-10.6329
uil	-10.6337
▁drow	-10.6338
▁tea	-10.635
epp	-10.6363
▁actua	-10.6366
ield	-10.6369
q	-10.637
raft	-10.6373
achiev	-10.6374
▁trans	-10.638
cdo	-10.6383
▁revel	-10.6384
breaking	-10.6387
depre	-10.6391
▁narrat	-10.6392
stinct	-10.6392
▁unimagina	-10.6393
▁distaste	-10.6394
inducing	-10.6394
ndisput	-10.6394
▁academ	-10.6394
▁african	-10.6394
▁anticipat	-10.6394
▁appeti	-10.6394
▁australia	-10.6394
▁backdrop	-10.6394
▁complain	-10.6394
▁contemplat	-10.6394
▁dutiful	-10.6394
▁excruciating	-10.6394
▁fabulous	-10.6394
▁fundamental	-10.6394
▁histrionic	-10.6394
▁inexplicabl	-10.6394
▁infectious	-10.6394
▁ingredient	-10.6394
▁italicize	-10.6394
▁lecture	-10.6394
▁miracle	-10.6394
▁mumbo	-10.6394
▁nostalgi	-10.6394
▁obscure	-10.6394
▁phenomena	-10.6394
▁rediscover	-10.6394
▁encompass	-10.6394
▁expert	-10.6394
▁hideous	-10.6394
▁immense	-10.6394
▁mechanic	-10.6394
▁revenge	-10.6394
▁snip	-10.6394
▁unbearabl	-10.6394
▁awaken	-10.6394
▁credul	-10.6394
▁junior	-10.6394
▁societ	-10.6394
▁athlete	-10.6394
▁baffl	-10.6394
▁concentrat	-10.6394
▁contender	-10.6394
▁enhance	-10.6394
▁jacqu	-10.6394
▁porno	-10.6394
▁stifling	-10.6394
▁jealous	-10.6394
udgeon	-10.6394
▁expand	-10.6394
▁farcical	-10.6394
▁conceit	-10.6394
trayal	-10.6394
▁anonym	-10.6394
▁narcissis	-10.6394
▁rerun	-10.6394
▁square	-10.6394
▁teeth	-10.6394
▁siege	-10.6394
▁spiff	-10.6394
▁worrie	-10.6394
▁bomb	-10.6394
▁discord	-10.6394
▁contradict	-10.6394
▁sublime	-10.6394
▁tendenc	-10.6394
▁grateful	-10.6394
▁investigat	-10.6394
▁dreadful	-10.6394
luke	-10.6394
▁morris	-10.6394
▁anguish	-10.6394
▁court	-10.6394
▁spiral	-10.6394
▁possess	-10.6394
▁tank	-10.6394
▁travail	-10.6394
▁monkey	-10.6394
▁reference	-10.6394
gender	-10.6395
▁hugh	-10.6395
▁stitch	-10.6395
▁giggl	-10.6395
▁gull	-10.6395
▁swift	-10.6395
▁brazen	-10.6395
▁trace	-10.6395
▁sanctimonious	-10.6395
ombi	-10.6395
▁lull	-10.6396
socia	-10.6396
▁bubb	-10.6396
▁interview	-10.6396
▁zero	-10.6396
▁liberati	-10.6397
mulle	-10.6397
drift	-10.6397
▁burr	-10.6397
ijin	-10.6397
▁baby	-10.6397
▁travel	-10.6397
▁department	-10.6397
▁spread	-10.6398
▁type	-10.6398
▁harsh	-10.6398
▁didactic	-10.6398
▁disease	-10.6398
▁audi	-10.6398
▁incre	-10.6398
▁spoof	-10.6398
▁bias	-10.6398
vill	-10.6398
▁shoe	-10.6398
tute	-10.6398
▁fellow	-10.6399
▁odor	-10.6399
▁dress	-10.6399
▁flip	-10.64
▁hint	-10.64
▁cran	-10.64
urgeon	-10.6401
▁assign	-10.6402
riot	-10.6402
▁height	-10.6402
▁contribute	-10.6402
shall	-10.6403
▁hook	-10.6404
▁aisle	-10.6406
▁pear	-10.6406
▁fanatic	-10.6406
fication	-10.6406
▁hail	-10.6407
▁maca	-10.6407
phant	-10.6408
▁excel	-10.6408
kies	-10.6408
▁unknow	-10.6408
▁strand	-10.641
▁claus	-10.6411
▁overflow	-10.6411
▁glow	-10.6411
▁stew	-10.6412
ganda	-10.6413
▁calib	-10.6414
▁scoob	-10.6414
▁boundar	-10.6415
pity	-10.6416
▁brim	-10.6416
▁student	-10.6417
▁disappointment	-10.6417
opic	-10.6417
▁decided	-10.6419
▁clash	-10.6419
damm	-10.6422
ounce	-10.6423
▁dramatiz	-10.6423
giving	-10.6424
▁kur	-10.6424
▁boat	-10.6424
▁rand	-10.6424
▁torn	-10.6425
▁criticiz	-10.6426
▁teach	-10.6427
▁price	-10.6427
▁neat	-10.6428
▁package	-10.6428
▁seren	-10.6428
▁exuberant	-10.6429
unter	-10.643
▁refer	-10.643
▁local	-10.643
rope	-10.6431
▁venture	-10.6431
▁stylistic	-10.6433
▁romp	-10.6436
peak	-10.6437
ution	-10.6438
▁assur	-10.6443
▁item	-10.6443
▁tax	-10.6446
▁bible	-10.6447
▁juli	-10.6448
lute	-10.645
iel	-10.6452
omin	-10.6455
▁esp	-10.6458
▁hopeless	-10.6458
voca	-10.6459
▁useless	-10.6462
▁budd	-10.6463
▁daytime	-10.6467
▁doze	-10.6467
▁ult	-10.6469
▁barry	-10.6469
ritter	-10.647
dorm	-10.6473
▁march	-10.6474
claud	-10.6474
▁restrain	-10.6475
▁updat	-10.6475
▁blin	-10.6476
tense	-10.648
ndon	-10.6484
▁miserabl	-10.6488
▁evan	-10.6492
▁parable	-10.6503
altz	-10.6503
▁formal	-10.6505
▁dro	-10.6509
▁spice	-10.651
▁careful	-10.6515
eau	-10.6515
▁loosely	-10.6516
quent	-10.6516
▁esc	-10.6525
▁needless	-10.6527
glorifi	-10.6541
▁logical	-10.6545
▁psycho	-10.6545
▁ram	-10.6555
ford	-10.6558
▁page	-10.6563
pean	-10.6566
▁mass	-10.6566
▁bogg	-10.6572
▁redundanc	-10.6579
▁alleged	-10.658
▁producer	-10.658
▁chin	-10.6585
rior	-10.6589
▁basi	-10.6617
▁rambl	-10.6619
▁menac	-10.6624
ium	-10.6626
▁inject	-10.6627
chie	-10.6628
▁beac	-10.663
▁grave	-10.6638
cooke	-10.664
late	-10.6649
omi	-10.6654
flop	-10.6655
realis	-10.6658
▁verg	-10.6681
tein	-10.6722
redeem	-10.675
▁sent	-10.6761
ection	-10.6764
▁rad	-10.6775
▁gla	-10.6781
▁race	-10.6783
▁invite	-10.6785
▁bli	-10.6796
aut	-10.681
▁bree	-10.682
moto	-10.6878
▁challenge	-10.6886
llusion	-10.6903
▁sexis	-10.6929
yam	-10.694
hammer	-10.6953
ique	-10.6955
veni	-10.7002
spinn	-10.708
▁reasonabl	-10.7086
▁beach	-10.7132
▁idealis	-10.7138
▁tro	-10.714
▁hel	-10.7157
▁cor	-10.7182
inoc	-10.719
▁include	-10.7286
▁tap	-10.7324
▁noticeabl	-10.7338
▁rag	-10.7404
▁adorabl	-10.7405
ledg	-10.7417
wage	-10.7442
▁prevent	-10.7448
ux	-10.7491
uel	-10.7497
stress	-10.7509
▁explore	-10.7567
exit	-10.7577
▁palm	-10.7738
▁ignor	-10.7764
log	-10.7769
▁revi	-10.778
ustin	-10.7804
▁appreciat	-10.7816
forward	-10.7826
▁vu	-10.783
kate	-10.7831
▁compassion	-10.7899
hop	-10.7953
▁dig	-10.7959
▁desi	-10.7965
▁bri	-10.8018
▁endur	-10.8027
▁mel	-10.8047
minist	-10.8082
▁pai	-10.8103
lick	-10.8107
▁expressi	-10.8112
tain	-10.814
▁laughabl	-10.8163
rubb	-10.8189
▁refresh	-10.8252
▁ador	-10.8349
ight	-10.835
spect	-10.8385
▁exte	-10.8397
▁emerg	-10.8435
unny	-10.8445
doct	-10.845
describ	-10.8451
▁rolli	-10.8523
▁establish	-10.8556
▁jani	-10.857
▁whipp	-10.8574
▁bro	-10.858
ji	-10.8712
marily	-10.872
▁lonel	-10.8739
▁appl	-10.8767
pher	-10.8775
hi	-10.8783
snapp	-10.8815
▁dip	-10.8819
▁glo	-10.894
▁lap	-10.8944
amed	-10.8971
▁refu	-10.8977
▁decade	-10.9092
▁capabl	-10.9098
brand	-10.9128
para	-10.9135
current	-10.9135
location	-10.9135
▁illu	-10.9142
house	-10.9144
regard	-10.9146
promising	-10.9152
demand	-10.9155
camp	-10.9155
concern	-10.916
deserve	-10.9163
authentic	-10.9164
change	-10.9165
pass	-10.9165
direct	-10.9166
langu	-10.9167
drama	-10.9167
adventure	-10.9169
sentimental	-10.9169
joke	-10.9169
dream	-10.9169
fight	-10.9172
child	-10.9172
american	-10.9173
solid	-10.9175
humor	-10.9176
honest	-10.9181
realize	-10.9196
serious	-10.9198
know	-10.92
film	-10.9226
hero	-10.9228
card	-10.9243
graphic	-10.9252
▁jagge	-10.9266
scene	-10.9274
▁yoursel	-10.936
mear	-10.9438
rocit	-10.9451
ception	-10.9451
▁nutt	-10.9453
visit	-10.9458
mph	-10.9485
▁import	-10.9487
▁choos	-10.9499
clear	-10.9509
▁comb	-10.951
▁significan	-10.9513
▁eloquen	-10.9523
▁predic	-10.9536
vid	-10.9547
ification	-10.9552
▁fri	-10.9556
▁costum	-10.9558
▁loose	-10.956
satisfact	-10.9563
▁releas	-10.9566
▁tucke	-10.9585
lds	-10.9588
▁meander	-10.9589
imit	-10.9599
▁depress	-10.9611
▁repeat	-10.9615
▁tack	-10.9615
straint	-10.9615
avis	-10.9623
itive	-10.9666
▁hitchcock	-10.9669
ibilit	-10.9671
▁concoct	-10.9708
▁decepti	-10.9711
▁obsessi	-10.9711
▁atmospher	-10.9716
truct	-10.9717
▁observ	-10.9719
▁adapt	-10.9719
▁sprin	-10.9719
▁roug	-10.9721
loquent	-10.9721
▁analy	-10.9725
▁danger	-10.9725
atric	-10.9725
▁gai	-10.9725
avail	-10.9726
existent	-10.9727
gressive	-10.9727
gram	-10.9727
vili	-10.9727
caricature	-10.9727
congratulat	-10.9727
▁ambivalen	-10.9727
▁argument	-10.9727
▁conduct	-10.9727
▁conspicuous	-10.9727
▁conversation	-10.9727
▁democrac	-10.9727
▁deprav	-10.9727
▁elbow	-10.9727
▁elicit	-10.9727
▁elizabeth	-10.9727
▁epiphan	-10.9727
▁ethnic	-10.9727
▁extravagan	-10.9727
▁flourish	-10.9727
▁groaner	-10.9727
▁immaculate	-10.9727
▁inhabit	-10.9727
▁inquisitive	-10.9727
▁installment	-10.9727
▁irreparabl	-10.9727
▁neglect	-10.9727
▁participant	-10.9727
▁rodrigue	-10.9727
▁sensibilit	-10.9727
▁skyscraper	-10.9727
▁squander	-10.9727
▁tattoo	-10.9727
▁thornberry	-10.9727
▁unmentionable	-10.9727
▁volume	-10.9727
▁choreograph	-10.9727
▁education	-10.9727
▁eternal	-10.9727
▁introduc	-10.9727
▁misogyn	-10.9727
▁schizo	-10.9727
▁solemn	-10.9727
augustin	-10.9727
▁exasperat	-10.9727
▁husband	-10.9727
▁hypocri	-10.9727
▁illogic	-10.9727
▁insignifican	-10.9727
▁photo	-10.9727
▁tempting	-10.9727
▁tissue	-10.9727
▁ugli	-10.9727
▁widow	-10.9727
▁explode	-10.9727
▁infantil	-10.9727
▁librar	-10.9727
▁shriek	-10.9727
▁sturdi	-10.9727
▁conspirator	-10.9727
▁psychedeli	-10.9727
▁threat	-10.9727
blanc	-10.9727
incomp	-10.9727
ivation	-10.9727
▁liberti	-10.9727
▁sorrowful	-10.9727
▁nausea	-10.9727
▁semi	-10.9727
▁uproar	-10.9727
esteem	-10.9727
▁club	-10.9727
▁freud	-10.9727
▁pursu	-10.9727
▁maddening	-10.9727
▁infuse	-10.9727
▁introspecti	-10.9727
▁cathar	-10.9727
▁mourn	-10.9727
▁unspeakabl	-10.9727
▁guru	-10.9727
▁limb	-10.9727
delusion	-10.9727
▁baseball	-10.9727
pense	-10.9727
▁shakespe	-10.9727
▁pupp	-10.9727
▁bewilder	-10.9727
▁organi	-10.9727
▁maxim	-10.9727
▁misanthrop	-10.9727
diminish	-10.9727
▁corrupt	-10.9727
▁butterf	-10.9727
▁rhapsodize	-10.9727
▁ooz	-10.9727
▁blond	-10.9727
▁built	-10.9727
▁parrot	-10.9727
▁train	-10.9727
▁stumble	-10.9727
▁banter	-10.9727
▁stunt	-10.9727
▁grumbl	-10.9727
smil	-10.9727
▁telegra	-10.9727
▁squad	-10.9728
▁mount	-10.9728
▁plunge	-10.9728
▁dollar	-10.9728
▁unintentional	-10.9728
▁decision	-10.9728
▁western	-10.9728
servati	-10.9728
ditional	-10.9728
▁yawn	-10.9728
▁honor	-10.9728
knowledge	-10.9728
praise	-10.9728
▁amusement	-10.9728
▁snaps	-10.9728
▁gloom	-10.9728
▁salv	-10.9728
mpulsive	-10.9728
▁miscalculat	-10.9728
▁plumme	-10.9728
absor	-10.9729
▁pill	-10.9729
▁penn	-10.9729
▁cohesi	-10.9729
eeching	-10.9729
▁flashback	-10.9729
▁expla	-10.9729
▁bump	-10.9729
▁insisten	-10.9729
▁derive	-10.973
▁morning	-10.973
▁contempt	-10.973
▁columbi	-10.973
▁scrap	-10.9731
plex	-10.9731
▁chomp	-10.9731
▁jazz	-10.9731
▁acid	-10.9731
wheel	-10.9732
eudo	-10.9732
▁viv	-10.9732
iculous	-10.9733
illa	-10.9734
▁instruct	-10.9734
▁auth	-10.9734
▁virtuos	-10.9734
rupt	-10.9734
▁protecti	-10.9736
▁kitten	-10.9736
▁debate	-10.9736
loving	-10.9736
▁corp	-10.9737
▁sept	-10.9737
▁kil	-10.9737
restl	-10.9737
▁exalt	-10.9737
▁chew	-10.9738
▁queasy	-10.9738
▁retain	-10.9738
▁wreck	-10.9739
▁convolution	-10.974
▁uh	-10.974
▁perception	-10.9741
▁cloying	-10.9741
▁distract	-10.9742
erox	-10.9742
▁artwork	-10.9742
▁moder	-10.9742
river	-10.9743
▁courageous	-10.9743
▁grasp	-10.9743
▁purg	-10.9744
clips	-10.9744
▁slee	-10.9744
▁borrow	-10.9744
conceptual	-10.9745
mnes	-10.9745
▁gru	-10.9745
▁hotel	-10.9746
▁damon	-10.9746
session	-10.9746
▁intolera	-10.9746
tunne	-10.9746
▁quest	-10.9749
▁hurt	-10.9749
broil	-10.9749
▁partners	-10.975
▁intro	-10.975
pawn	-10.9751
▁intact	-10.9753
▁glu	-10.9754
▁arc	-10.9755
▁raunch	-10.9755
▁invest	-10.9759
eager	-10.976
pital	-10.976
▁revision	-10.9761
▁affectation	-10.9761
bolic	-10.9761
▁reaction	-10.9762
iving	-10.9763
mple	-10.9763
▁variation	-10.9764
itten	-10.9765
▁knocka	-10.9765
euro	-10.9766
morph	-10.9766
lia	-10.9768
▁accomplishment	-10.977
▁hub	-10.9771
oast	-10.9771
▁foll	-10.9772
▁journalis	-10.9776
▁yearning	-10.9777
▁decor	-10.978
▁restor	-10.9782
▁psyche	-10.9784
hitchcockian	-10.9785
▁north	-10.979
▁bestow	-10.9795
▁extend	-10.9796
▁antoni	-10.9796
▁hyper	-10.9798
horren	-10.9803
▁setup	-10.9803
destr	-10.9806
ige	-10.9806
▁fearless	-10.9807
print	-10.9807
▁thoughtless	-10.9807
▁stall	-10.9807
geek	-10.9809
▁driver	-10.9811
22	-10.9812
minat	-10.9816
▁rebel	-10.9817
▁deta	-10.9817
ocrat	-10.9818
▁trif	-10.982
rib	-10.9821
ncher	-10.9822
▁vast	-10.9827
▁saddle	-10.9827
itude	-10.9828
mash	-10.9828
atur	-10.9831
▁alternati	-10.9831
ulin	-10.9835
▁rit	-10.9837
▁jock	-10.9843
▁lur	-10.9843
▁von	-10.9851
▁literal	-10.9857
▁vic	-10.9861
lexi	-10.9864
▁hurr	-10.9866
▁idiotic	-10.9867
▁larger	-10.9869
▁domina	-10.9869
▁seam	-10.9889
itchen	-10.9905
▁mug	-10.9908
iso	-10.992
nore	-10.9933
▁coma	-10.9935
▁documentari	-10.9943
▁jell	-10.995
▁treac	-10.9953
adorn	-10.996
mask	-10.9971
boiler	-10.998
uation	-10.9984
▁chou	-10.9986
▁cali	-11.0007
urist	-11.0022
ega	-11.0024
▁oversta	-11.0026
guil	-11.005
more	-11.0066
▁basic	-11.0088
ike	-11.0092
▁innovati	-11.0112
▁unwa	-11.0126
▁influen	-11.0137
▁vau	-11.017
▁struggl	-11.0253
▁froth	-11.0258
angu	-11.0262
▁shak	-11.0299
▁expose	-11.0321
▁transcenden	-11.0421
amour	-11.0425
acher	-11.0436
▁spr	-11.0439
jam	-11.0441
garde	-11.0451
▁drip	-11.0494
▁tang	-11.0514
abbi	-11.0563
▁fragment	-11.0595
▁frightf	-11.0616
mick	-11.0687
bling	-11.0699
alyze	-11.0723
mpo	-11.0748
genui	-11.0758
▁slapp	-11.08
▁medic	-11.0824
▁imitati	-11.087
▁rom	-11.0929
▁ambiguit	-11.0992
excus	-11.1045
ographical	-11.1093
pple	-11.1119
float	-11.1179
▁vig	-11.118
scribe	-11.1188
▁provoke	-11.1201
▁incl	-11.1214
▁scienti	-11.1238
adulter	-11.1502
enlight	-11.1583
▁diverti	-11.1704
▁neg	-11.1729
▁addicti	-11.1751
rist	-11.1901
inister	-11.1947
archi	-11.2067
laud	-11.2219
tape	-11.2345
▁hyp	-11.2364
hopp	-11.2428
▁styli	-11.2443
▁stimul	-11.2713
implicit	-11.3023
ization	-11.3038
▁imitat	-11.311
