<unk>	0
<s>	0
</s>	0
s	-2.83894
▁	-2.92321
▁the	-3.48567
▁a	-3.54246
,	-3.62273
t	-3.91479
▁and	-3.91817
▁of	-4.01759
-	-4.14624
ing	-4.15232
ly	-4.17502
▁.	-4.24546
y	-4.32885
▁to	-4.33479
▁'	-4.40688
e	-4.41169
ed	-4.65703
▁in	-4.68566
▁is	-4.74598
▁it	-4.79036
▁tha	-4.86874
d	-5.11736
▁with	-5.21182
▁film	-5.35649
▁an	-5.37995
▁movie	-5.44042
▁for	-5.46292
▁be	-5.55323
▁as	-5.60399
▁its	-5.65485
▁thi	-5.66415
▁on	-5.67441
'	-5.67743
▁but	-5.7871
es	-5.85045
▁you	-5.91679
▁n	-5.95755
al	-5.9639
n	-6.01656
er	-6.07667
▁by	-6.1246
▁has	-6.13605
re	-6.15147
▁like	-6.15723
▁more	-6.16238
▁so	-6.16823
▁no	-6.17517
▁one	-6.20125
▁from	-6.20227
▁not	-6.20974
▁than	-6.23089
▁un	-6.24925
able	-6.25373
▁do	-6.29249
▁hav	-6.29482
▁are	-6.29746
▁his	-6.30244
▁`	-6.30901
▁or	-6.31583
bout	-6.32169
▁all	-6.3535
ity	-6.36439
ve	-6.39474
▁-	-6.40176
▁make	-6.41394
▁at	-6.43475
▁character	-6.43475
on	-6.44143
▁some	-6.45166
▁out	-6.45415
ce	-6.45604
▁story	-6.47133
▁who	-6.50454
le	-6.51556
▁most	-6.5235
ness	-6.52738
ir	-6.55584
▁any	-6.55707
▁good	-6.5641
m	-6.56893
a	-6.59144
▁i	-6.59196
▁up	-6.59525
..	-6.61567
ous	-6.64979
ch	-6.65547
▁whi	-6.69638
▁time	-6.70446
▁w	-6.71286
)	-6.72206
▁too	-6.72628
ould	-6.73346
▁real	-6.73862
▁into	-6.74814
ion	-6.76153
▁your	-6.78506
r	-6.7871
▁even	-6.79046
(	-6.79206
▁comedy	-6.80524
ies	-6.80737
▁bad	-6.81158
▁funny	-6.81278
thing	-6.8131
less	-6.82377
out	-6.83577
▁can	-6.83664
▁well	-6.84927
▁c	-6.86334
if	-6.86791
▁what	-6.88737
ation	-6.89841
▁performance	-6.90722
▁just	-6.92149
▁way	-6.92284
ic	-6.94062
▁every	-6.95661
▁go	-6.95808
▁will	-6.97213
ry	-6.97832
▁life	-6.99076
`	-6.9978
▁see	-7.00361
i	-7.00629
▁little	-7.00693
▁en	-7.00758
▁love	-7.01526
▁much	-7.02229
▁work	-7.02369
very	-7.0267
▁over	-7.02957
en	-7.0335
▁feel	-7.03689
▁look	-7.03892
▁watch	-7.04709
▁man	-7.04798
one	-7.05875
▁was	-7.06553
▁director	-7.07693
ment	-7.08749
▁de	-7.08971
▁new	-7.09515
ough	-7.09666
▁he	-7.10083
▁been	-7.13046
▁us	-7.14144
way	-7.148
▁two	-7.16926
▁other	-7.17307
te	-7.18352
▁humor	-7.18704
▁through	-7.19731
▁great	-7.20518
▁re	-7.21074
▁year	-7.21277
▁get	-7.21463
▁made	-7.21469
▁never	-7.21499
in	-7.21765
▁take	-7.23029
▁seem	-7.23485
▁her	-7.23756
▁end	-7.2395
▁may	-7.2458
.	-7.24914
▁best	-7.24922
▁we	-7.25752
▁action	-7.25836
▁audience	-7.26146
l	-7.26185
tic	-7.29148
o	-7.30217
▁hard	-7.30265
us	-7.3082
▁screen	-7.32278
▁dis	-7.32286
▁laugh	-7.33
or	-7.34715
f	-7.35365
ful	-7.35449
p	-7.35571
▁drama	-7.35654
▁visual	-7.36306
▁plot	-7.36419
ish	-7.36485
▁fun	-7.36642
w	-7.37109
something	-7.38201
▁heart	-7.38686
▁ca	-7.39202
time	-7.39701
h	-7.40793
self	-7.40969
th	-7.41459
▁give	-7.42262
age	-7.42338
b	-7.42631
▁come	-7.42934
▁lack	-7.42947
▁cinema	-7.42976
▁down	-7.44038
it	-7.44119
▁human	-7.44394
ter	-7.44887
▁when	-7.45429
▁cast	-7.45633
c	-7.46492
▁better	-7.47626
▁old	-7.47774
an	-7.47865
▁far	-7.48861
est	-7.48992
▁worth	-7.49206
man	-7.49761
▁scene	-7.50367
▁thing	-7.50693
▁show	-7.51359
use	-7.51478
ll	-7.51562
▁long	-7.5192
▁b	-7.51992
ose	-7.52776
▁pre	-7.53039
g	-7.53161
▁actor	-7.5395
ue	-7.54701
▁charm	-7.55078
▁sense	-7.5512
▁how	-7.55933
ial	-7.56112
▁picture	-7.56374
▁first	-7.56378
▁ever	-7.56974
▁find	-7.57689
▁moment	-7.57704
ther	-7.58708
▁th	-7.58731
▁being	-7.59128
▁sweet	-7.5983
▁acting	-7.59888
▁both	-7.60033
▁entertaining	-7.60283
uch	-7.60285
▁people	-7.60374
▁off	-7.60607
▁al	-7.60791
▁self	-7.61459
▁dialog	-7.6175
▁own	-7.62168
▁script	-7.65969
▁beautiful	-7.6597
▁emotional	-7.66044
el	-7.6718
▁should	-7.67433
▁them	-7.67571
▁original	-7.68129
ers	-7.68664
▁often	-7.68707
▁few	-7.68912
▁star	-7.69274
to	-7.71611
▁might	-7.71897
▁interesting	-7.71908
▁wors	-7.71968
▁keep	-7.73435
u	-7.74001
other	-7.74471
▁big	-7.74936
▁hollywood	-7.75135
▁still	-7.76587
▁talent	-7.76605
▁tale	-7.76631
▁again	-7.76895
▁piece	-7.7691
▁world	-7.76998
▁ra	-7.77185
▁wo	-7.77472
▁beca	-7.77915
▁under	-7.78038
▁after	-7.78201
▁him	-7.78211
▁music	-7.78437
▁try	-7.79456
k	-7.79887
▁my	-7.80012
▁family	-7.80081
ng	-7.806
▁idea	-7.81161
▁kind	-7.81941
▁full	-7.82331
▁back	-7.82582
at	-7.82749
fore	-7.82815
▁want	-7.83299
▁romantic	-7.83351
▁were	-7.83605
the	-7.83715
▁half	-7.8384
▁p	-7.84052
lso	-7.84814
:	-7.84923
▁high	-7.85091
▁clever	-7.86678
▁documentary	-7.86681
minutes	-7.8672
▁perfect	-7.87745
▁compelling	-7.88463
▁summer	-7.88464
▁had	-7.88756
▁mak	-7.89059
▁deep	-7.90291
▁think	-7.90302
▁mater	-7.9032
▁art	-7.90496
▁become	-7.90785
▁need	-7.90868
▁g	-7.91431
▁entertain	-7.92421
▁part	-7.9247
▁wh	-7.92658
▁qui	-7.93151
▁hour	-7.93168
ian	-7.93602
▁live	-7.93611
▁smart	-7.94044
▁actual	-7.94051
▁play	-7.9455
ism	-7.95152
▁touch	-7.95644
ated	-7.95691
▁turn	-7.96505
▁enjoy	-7.96543
/	-7.97904
▁dull	-7.9793
▁know	-7.98077
▁spirit	-7.98291
▁mind	-7.9877
of	-7.99409
▁direction	-8.00009
day	-8.00514
▁works	-8.00587
▁mov	-8.00947
▁deliver	-8.01946
▁energ	-8.0195
▁almo	-8.01971
▁thriller	-8.02019
▁right	-8.02059
▁ye	-8.0222
▁filmmaker	-8.02372
ling	-8.02938
▁light	-8.03076
is	-8.03119
▁point	-8.03169
▁intelligent	-8.03308
▁day	-8.03679
▁style	-8.03788
▁subject	-8.04028
▁fresh	-8.0403
▁fail	-8.04031
▁experience	-8.04452
▁con	-8.04566
▁interest	-8.04585
ney	-8.05211
▁less	-8.05248
▁tru	-8.05358
▁lot	-8.05408
▁ultimate	-8.06156
▁theater	-8.0619
▁car	-8.06311
▁leave	-8.06566
▁set	-8.06862
▁american	-8.06906
tween	-8.0833
▁engaging	-8.084
▁child	-8.08522
▁direct	-8.10363
ten	-8.10528
▁surprising	-8.10552
▁powerful	-8.10609
▁warm	-8.10698
▁comic	-8.10825
▁manage	-8.10918
▁flick	-8.11264
▁me	-8.11436
▁leas	-8.11604
▁same	-8.12829
▁face	-8.12897
▁offer	-8.13026
▁war	-8.13727
ical	-8.14175
ren	-8.14354
▁histor	-8.14837
▁sad	-8.14864
mise	-8.14878
▁rare	-8.15483
▁special	-8.15561
▁viewer	-8.15575
▁dramatic	-8.15849
0	-8.1609
son	-8.16252
▁h	-8.16719
▁predictabl	-8.16978
ive	-8.17424
▁fascinat	-8.17531
▁dark	-8.1754
▁memor	-8.18018
▁run	-8.18291
▁did	-8.1862
off	-8.19119
▁though	-8.19373
▁amus	-8.19378
istic	-8.19625
ither	-8.1986
▁rich	-8.1998
▁she	-8.21109
▁enjoyabl	-8.21693
up	-8.21932
ri	-8.22017
▁bit	-8.22181
;	-8.2247
▁sound	-8.22471
▁genre	-8.22472
▁small	-8.22476
▁wonderful	-8.22512
▁feature	-8.22539
ant	-8.22604
▁act	-8.22693
▁power	-8.22916
▁fine	-8.23376
ar	-8.23744
▁low	-8.23953
▁tone	-8.24286
▁our	-8.2499
▁suspense	-8.25039
▁nor	-8.25418
v	-8.26234
and	-8.26245
cy	-8.26557
▁care	-8.27407
▁level	-8.2767
▁strong	-8.27671
▁last	-8.27744
▁sure	-8.27995
▁remarkabl	-8.28458
▁whole	-8.28545
▁flat	-8.28599
▁ex	-8.29089
▁kids	-8.30287
abilit	-8.30297
▁narrative	-8.30373
▁lead	-8.3042
ble	-8.30834
▁feeling	-8.30952
▁familiar	-8.31087
▁thought	-8.31145
▁culture	-8.31439
elling	-8.31483
▁ho	-8.31695
ping	-8.31874
▁stuff	-8.31921
▁place	-8.32482
▁bu	-8.3267
▁filmmak	-8.32775
ring	-8.32879
▁fan	-8.32896
▁guy	-8.33147
▁short	-8.33148
▁complete	-8.33168
▁young	-8.33613
▁mess	-8.33649
once	-8.34699
▁co	-8.34876
▁per	-8.34911
▁fall	-8.34915
iness	-8.35277
▁call	-8.35414
▁k	-8.35465
minute	-8.35934
ra	-8.35934
around	-8.36003
▁three	-8.36011
▁matter	-8.36017
▁image	-8.36031
▁appeal	-8.36097
▁moral	-8.36156
▁wit	-8.36194
▁hero	-8.3626
play	-8.36457
▁prove	-8.36828
ur	-8.36897
ie	-8.3705
il	-8.3715
▁portra	-8.3759
▁waste	-8.38085
ily	-8.38219
▁together	-8.38448
▁master	-8.38899
▁melodrama	-8.38945
probabl	-8.38968
▁twist	-8.38989
▁past	-8.39021
▁where	-8.39663
▁hilari	-8.39955
▁intelligen	-8.39974
fi	-8.40882
▁pro	-8.40886
▁quirk	-8.41979
▁problem	-8.41981
▁painful	-8.41995
▁solid	-8.42023
▁serious	-8.42072
▁happen	-8.4214
ance	-8.42405
▁dead	-8.43491
▁say	-8.44015
ious	-8.44019
ne	-8.44251
▁tell	-8.44396
▁since	-8.44752
▁f	-8.44947
▁effort	-8.44982
▁dumb	-8.451
▁recent	-8.45137
▁thoughtful	-8.45177
▁los	-8.45342
▁shot	-8.45656
▁satisfying	-8.45771
▁let	-8.45854
▁start	-8.4622
ible	-8.46749
▁fair	-8.46919
▁cha	-8.47005
be	-8.47213
▁artist	-8.47259
▁simpl	-8.47399
▁stor	-8.47478
▁sit	-8.47629
here	-8.47689
▁br	-8.47849
um	-8.48155
id	-8.48317
▁final	-8.48329
▁treat	-8.48329
▁found	-8.48332
▁else	-8.48335
▁earnest	-8.48335
▁rock	-8.48339
▁tv	-8.48453
▁present	-8.48467
▁eye	-8.48523
x	-8.48543
▁believ	-8.48752
▁sp	-8.49331
▁video	-8.49371
▁capture	-8.49698
▁writing	-8.49751
▁head	-8.49947
ure	-8.50805
ent	-8.51163
ary	-8.51252
▁exercise	-8.51659
▁project	-8.51659
▁certain	-8.51659
▁sequel	-8.51659
▁left	-8.5166
▁sex	-8.5166
▁imagine	-8.51694
▁usual	-8.51705
▁cliche	-8.51793
ate	-8.51828
▁stupid	-8.51958
▁sil	-8.52104
ine	-8.52349
▁creativ	-8.52621
ning	-8.52876
▁coming	-8.53249
▁bring	-8.53358
ard	-8.53364
▁slap	-8.53459
▁writer	-8.53799
▁hit	-8.54065
▁seat	-8.54085
ol	-8.54105
ael	-8.54259
▁stud	-8.54321
▁view	-8.54478
▁intrigu	-8.5478
ck	-8.54879
▁bo	-8.55091
▁pop	-8.55107
▁french	-8.55107
stead	-8.55108
▁horror	-8.55116
▁imaginati	-8.55129
▁unexpected	-8.55139
▁romance	-8.5515
▁bland	-8.55154
▁nice	-8.55285
▁modern	-8.55416
▁prett	-8.56208
▁opera	-8.56235
▁hold	-8.5625
▁put	-8.56283
▁bla	-8.56586
ke	-8.56626
long	-8.56852
▁pe	-8.58173
▁com	-8.58256
▁fantas	-8.58551
▁gorgeous	-8.58679
▁middle	-8.58679
▁honest	-8.58679
▁adult	-8.58701
▁must	-8.58728
▁cold	-8.58764
▁m	-8.58794
▁role	-8.5881
▁done	-8.59095
▁sentimental	-8.59253
▁classic	-8.59273
▁reason	-8.59657
▁bor	-8.59696
ever	-8.60043
▁simple	-8.60047
omen	-8.60135
▁men	-8.6037
▁stand	-8.60408
▁ma	-8.60518
▁none	-8.60845
▁girl	-8.61349
▁create	-8.61768
lent	-8.61831
▁differen	-8.62214
▁writ	-8.62272
▁cliché	-8.62382
▁formula	-8.62382
▁particular	-8.62382
▁sequence	-8.62382
▁surprise	-8.62382
▁clear	-8.62383
▁situation	-8.62383
▁grand	-8.62384
▁magic	-8.62385
▁help	-8.62432
▁19	-8.63069
▁ne	-8.63111
▁comedi	-8.63291
▁pleasure	-8.63434
▁jo	-8.63879
▁sub	-8.64188
▁bar	-8.64459
funny	-8.64766
▁edit	-8.6486
iz	-8.64923
ist	-8.65243
▁super	-8.66171
▁wonder	-8.66175
▁delight	-8.66197
▁creep	-8.66229
▁black	-8.6625
▁tear	-8.66259
▁title	-8.66264
▁manipulati	-8.66355
hearted	-8.66372
▁complex	-8.66749
▁wild	-8.66854
▁ha	-8.66875
▁line	-8.66977
▁credit	-8.67027
▁adventure	-8.67339
rs	-8.67446
▁joy	-8.67632
ac	-8.68028
own	-8.68635
▁ja	-8.6905
etic	-8.69051
▁obvious	-8.70229
▁rhythm	-8.70229
▁straight	-8.70229
▁sharp	-8.70229
▁understand	-8.70243
true	-8.70307
▁list	-8.70354
▁mich	-8.70378
ory	-8.70435
▁deserve	-8.70638
dy	-8.70657
▁inside	-8.70666
▁strange	-8.71274
all	-8.71307
▁pure	-8.71538
▁score	-8.72006
▁1	-8.72934
2	-8.72962
room	-8.7317
z	-8.73198
▁cheap	-8.73784
▁read	-8.74292
▁soul	-8.74394
▁attempt	-8.74395
▁brain	-8.74395
▁entire	-8.74396
▁crime	-8.74396
▁begin	-8.74397
▁odd	-8.74398
▁animation	-8.74402
▁detail	-8.74408
▁near	-8.7443
▁slight	-8.74532
▁huge	-8.74535
▁examin	-8.74544
▁refreshing	-8.74571
▁slow	-8.74585
▁mr	-8.74623
▁second	-8.74771
▁total	-8.74841
▁dry	-8.74854
kin	-8.74954
▁dog	-8.75008
▁seri	-8.75389
ro	-8.75446
til	-8.75558
▁important	-8.75709
▁di	-8.76066
for	-8.76098
▁edge	-8.76245
▁violen	-8.76653
provok	-8.76876
▁form	-8.77611
ge	-8.77873
men	-8.78142
▁believe	-8.78172
▁du	-8.78325
▁insight	-8.78677
▁absolute	-8.78743
▁confus	-8.78744
▁suffer	-8.78745
▁parent	-8.78752
▁death	-8.78758
ward	-8.78761
▁water	-8.7878
▁promise	-8.78785
▁delightful	-8.78817
▁political	-8.78881
▁consider	-8.78887
msel	-8.79059
▁exploit	-8.79172
bu	-8.79235
▁gentl	-8.7924
▁break	-8.79393
▁fill	-8.79425
▁walk	-8.79586
ves	-8.79613
▁road	-8.79651
▁sw	-8.79906
▁fl	-8.80048
co	-8.80526
led	-8.80532
▁portray	-8.80796
▁sci	-8.81318
line	-8.82202
ence	-8.82419
screen	-8.82504
special	-8.82553
▁pl	-8.82818
▁contriv	-8.83264
▁extreme	-8.83288
▁purpose	-8.83289
▁remain	-8.83289
▁possibl	-8.83289
▁thorough	-8.83289
▁excel	-8.83291
▁sandler	-8.83292
▁despi	-8.83294
▁traged	-8.83294
▁myster	-8.83301
▁color	-8.83302
▁wait	-8.83305
▁passion	-8.83349
fac	-8.83364
▁game	-8.83365
▁oscar	-8.83439
▁impressive	-8.8345
▁qualit	-8.83534
▁inter	-8.83711
▁9	-8.83727
▁mood	-8.83867
▁concept	-8.83969
▁decent	-8.84024
rate	-8.84095
easy	-8.84097
land	-8.84106
timate	-8.84153
▁brit	-8.84337
▁utter	-8.84624
ile	-8.84696
▁10	-8.84733
where	-8.84826
ak	-8.84878
aster	-8.84911
▁quiet	-8.84949
▁dur	-8.85136
▁close	-8.85189
but	-8.85233
old	-8.85723
▁convincing	-8.85884
▁la	-8.86007
▁pac	-8.86134
sive	-8.86867
la	-8.86896
▁z	-8.87171
fashion	-8.8731
wise	-8.87363
▁highly	-8.87582
ior	-8.87648
▁contemporar	-8.8805
▁genuine	-8.8805
▁involv	-8.8805
▁female	-8.88051
▁crowd	-8.88051
▁natural	-8.88051
▁vivid	-8.88052
▁weird	-8.88055
▁vision	-8.88057
▁smile	-8.8806
▁rip	-8.88062
▁respect	-8.88065
▁question	-8.88065
▁historical	-8.88114
▁pull	-8.88123
▁ugly	-8.88191
▁impossibl	-8.88223
▁grow	-8.88236
ening	-8.88335
▁force	-8.88571
ready	-8.88705
each	-8.88714
▁home	-8.8897
▁terrif	-8.8901
▁goof	-8.89093
▁ver	-8.89462
▁personal	-8.90184
dition	-8.90296
told	-8.90615
▁fe	-8.90695
▁ga	-8.90791
▁effect	-8.90943
▁jokes	-8.91024
itting	-8.91123
▁ago	-8.91427
pe	-8.91468
▁drag	-8.91787
▁mor	-8.92587
right	-8.92589
▁emotion	-8.92785
▁success	-8.92985
▁ambitio	-8.93045
▁accomplish	-8.9305
▁equal	-8.9305
▁york	-8.93051
▁follow	-8.93052
▁masterpiece	-8.93055
▁heartwarming	-8.93059
▁mix	-8.93076
▁hack	-8.93078
▁social	-8.9313
▁reward	-8.93149
▁message	-8.9316
om	-8.93218
▁successful	-8.93283
▁amount	-8.9329
▁major	-8.93506
▁pretentio	-8.93507
▁add	-8.93642
▁general	-8.93716
ast	-8.93791
▁change	-8.93847
▁lo	-8.93986
▁pay	-8.9401
▁sea	-8.94382
ner	-8.94406
▁pr	-8.94564
▁side	-8.94945
as	-8.94979
▁top	-8.95315
▁bare	-8.95504
▁fest	-8.9586
mo	-8.96787
ton	-8.97147
▁late	-8.97273
▁dream	-8.97545
▁fat	-8.97709
que	-8.97793
beat	-8.97822
▁creat	-8.9794
ball	-8.97978
▁fast	-8.97983
▁mis	-8.9804
ud	-8.98093
1	-8.9819
▁affect	-8.98194
▁fact	-8.98247
▁beaut	-8.98313
▁approach	-8.98314
▁engross	-8.98314
▁relationship	-8.98314
▁unsettl	-8.98314
▁tension	-8.98315
▁soap	-8.98315
▁meander	-8.98315
▁sustain	-8.98315
▁easi	-8.98316
▁sink	-8.98316
▁sympath	-8.98316
▁element	-8.98335
director	-8.98345
▁reach	-8.98359
▁quick	-8.98371
▁large	-8.98372
▁animated	-8.9839
▁main	-8.98422
▁boy	-8.98467
ival	-8.98482
▁brilliant	-8.98483
▁win	-8.98497
▁vi	-8.98514
gy	-8.98666
▁miss	-8.98773
▁l	-8.99048
▁shape	-8.99245
▁imp	-8.99492
▁appear	-8.99664
▁2	-8.99714
▁sch	-9.00087
▁slopp	-9.00246
me	-9.00261
ching	-9.0103
▁vers	-9.01075
▁ta	-9.01397
▁cut	-9.02237
rous	-9.02727
ating	-9.02881
▁attracti	-9.03183
▁now	-9.03227
▁count	-9.03622
▁endur	-9.03646
▁ear	-9.03671
mer	-9.03753
▁fear	-9.03773
▁grace	-9.03805
▁cop	-9.03834
▁cinematograph	-9.03869
▁awkward	-9.03869
▁charisma	-9.03869
▁damn	-9.0387
▁welcome	-9.0387
▁meditati	-9.0387
▁uneven	-9.03871
▁actress	-9.03872
▁above	-9.03872
▁represent	-9.03874
▁vari	-9.03884
▁flash	-9.03889
▁exact	-9.03891
▁cool	-9.03911
▁flaw	-9.03922
▁gag	-9.03932
▁insightful	-9.03954
▁manner	-9.03977
▁engage	-9.03983
▁truth	-9.04034
▁spectacular	-9.04056
▁dazzl	-9.04064
▁clar	-9.04112
▁use	-9.04174
movie	-9.04249
made	-9.04289
▁burn	-9.04428
com	-9.04439
fel	-9.04465
▁test	-9.04488
▁career	-9.04492
▁mere	-9.0452
down	-9.0507
▁deal	-9.05768
▁j	-9.0639
sort	-9.06629
▁hand	-9.07021
berg	-9.07318
▁whe	-9.07358
▁fire	-9.07597
▁serve	-9.0773
▁strik	-9.07933
▁inspir	-9.08055
▁runn	-9.08065
▁mean	-9.08158
ze	-9.08532
ks	-9.0867
▁skill	-9.09704
▁potential	-9.09752
▁succeed	-9.09752
▁urban	-9.09752
▁emerge	-9.09752
▁unique	-9.09752
▁triumph	-9.09752
▁attention	-9.09753
▁adaptation	-9.09755
▁word	-9.09759
▁nuance	-9.0976
▁camera	-9.09761
▁awful	-9.09762
▁spiritual	-9.09786
▁production	-9.09814
▁subtle	-9.09815
▁value	-9.09816
▁silli	-9.09842
▁jack	-9.09871
▁kid	-9.09979
▁imaginative	-9.10051
stick	-9.10202
py	-9.10227
necessar	-9.10242
phy	-9.10436
▁terribl	-9.10476
ane	-9.11063
▁na	-9.11179
▁pat	-9.11362
▁chilling	-9.11558
▁paint	-9.11702
▁faith	-9.11719
▁tire	-9.11982
▁da	-9.12075
lly	-9.12085
▁cap	-9.1216
▁doing	-9.12197
ought	-9.12211
ha	-9.12476
▁book	-9.12477
ock	-9.12813
▁poet	-9.13174
loud	-9.13179
ma	-9.13272
ual	-9.13348
ice	-9.13626
za	-9.13683
▁craft	-9.142
▁allow	-9.14247
▁ka	-9.14383
de	-9.14547
rage	-9.14563
▁state	-9.15267
▁plott	-9.15368
▁suck	-9.15409
mak	-9.15569
▁sta	-9.15919
▁expect	-9.1594
stream	-9.16002
▁favor	-9.16002
▁period	-9.16002
▁provide	-9.16002
▁recommend	-9.16002
▁ridiculous	-9.16002
▁scream	-9.16002
▁villain	-9.16002
▁apparent	-9.16002
▁depth	-9.16002
▁figure	-9.16002
▁pleasant	-9.16002
▁provocati	-9.16002
▁extraordinar	-9.16002
▁combin	-9.16003
▁breathtaking	-9.16005
▁motion	-9.16015
▁south	-9.16027
▁retrea	-9.16028
▁grip	-9.16029
▁winning	-9.16031
▁name	-9.16058
▁carrie	-9.16062
next	-9.16072
icul	-9.16091
▁perform	-9.16092
▁superb	-9.16102
▁green	-9.16104
▁future	-9.16129
▁masterful	-9.16144
▁chase	-9.16219
▁sexual	-9.16233
so	-9.16245
▁spi	-9.16251
▁plain	-9.16579
▁inventive	-9.16584
▁hell	-9.16588
▁sever	-9.16591
▁intrigue	-9.16606
▁cho	-9.16694
dget	-9.16757
together	-9.17085
like	-9.17092
life	-9.17155
year	-9.17178
▁fare	-9.17405
▁hip	-9.17869
enty	-9.17895
po	-9.17914
▁endear	-9.17943
▁toward	-9.17973
▁reality	-9.18039
ond	-9.18056
▁lame	-9.18082
▁rest	-9.18152
▁bi	-9.18363
▁weight	-9.18518
▁balance	-9.18525
▁im	-9.18619
▁meaning	-9.18748
handed	-9.18767
▁gener	-9.1888
▁hom	-9.19261
over	-9.20069
cent	-9.20771
bod	-9.20921
shop	-9.21455
ise	-9.21566
ped	-9.21732
▁thin	-9.21987
é	-9.22535
▁mark	-9.22654
▁absorb	-9.22668
▁mediocr	-9.22668
▁poignan	-9.22668
▁stunning	-9.22668
▁undeniabl	-9.22668
▁univers	-9.22668
▁robert	-9.22669
▁mild	-9.22669
▁guess	-9.22669
▁rivet	-9.22669
▁incredibl	-9.2267
▁davi	-9.2267
▁tedious	-9.22671
▁commercial	-9.22672
▁check	-9.22673
▁vital	-9.22675
▁gift	-9.22677
▁diff	-9.22677
▁travel	-9.22679
▁proper	-9.2268
▁battle	-9.22681
▁impact	-9.22681
▁suppose	-9.22684
▁broad	-9.22684
▁standard	-9.22707
rong	-9.22723
▁open	-9.22742
▁trouble	-9.22742
mong	-9.22751
▁push	-9.22779
▁person	-9.22804
▁display	-9.22833
▁bitter	-9.22849
▁bull	-9.22884
▁psychological	-9.22904
actic	-9.2292
act	-9.22928
▁tries	-9.22936
▁witt	-9.23024
▁realistic	-9.23031
▁sa	-9.23073
▁diver	-9.23092
▁pic	-9.23146
min	-9.2321
▁endless	-9.23503
▁heavy	-9.23569
▁drive	-9.23575
▁song	-9.23589
▁land	-9.23761
▁stage	-9.23796
ding	-9.23831
▁ro	-9.23851
▁please	-9.23853
cross	-9.24109
▁authentic	-9.24112
hallow	-9.24296
▁struggle	-9.24452
key	-9.2449
li	-9.24691
▁discover	-9.24947
mas	-9.24956
▁avoid	-9.25028
ize	-9.25078
▁wal	-9.25086
▁happ	-9.25128
▁studio	-9.25365
▁pass	-9.25995
nded	-9.26261
▁fur	-9.26282
ot	-9.26606
▁pa	-9.27392
mp	-9.27561
▁90	-9.28111
▁poli	-9.28261
▁cross	-9.28287
▁satir	-9.28366
▁fit	-9.2849
▁sor	-9.28595
sh	-9.28648
▁o	-9.2879
tory	-9.28806
▁cute	-9.29044
▁previ	-9.29124
ob	-9.29146
predictabl	-9.2916
▁remind	-9.29342
▁tradition	-9.29543
▁america	-9.29569
▁throw	-9.29586
▁thrill	-9.29595
▁roll	-9.29706
semble	-9.29724
▁delicate	-9.29811
▁positive	-9.29811
▁example	-9.29811
▁improve	-9.29811
typical	-9.29811
▁amazing	-9.29811
▁grant	-9.29811
▁depressing	-9.29812
▁identity	-9.29812
▁demand	-9.29816
▁maintain	-9.29816
▁paper	-9.29817
conscious	-9.29817
indulgen	-9.29818
▁choice	-9.29829
▁design	-9.29835
position	-9.29836
▁definite	-9.29839
▁overcome	-9.29844
▁money	-9.29846
▁fright	-9.29851
▁marvelous	-9.29876
▁excit	-9.29959
▁informati	-9.29961
▁step	-9.30038
▁playful	-9.30077
▁ru	-9.30205
▁fam	-9.30226
evil	-9.30286
by	-9.30289
live	-9.30347
▁inept	-9.307
ig	-9.30729
▁scary	-9.30747
▁unlike	-9.30748
▁wish	-9.3078
tion	-9.3079
▁seek	-9.30825
gi	-9.30862
▁embarrass	-9.30945
▁race	-9.31082
idd	-9.31151
▁forgettabl	-9.31178
▁bigge	-9.31287
▁week	-9.31423
▁li	-9.31431
▁ko	-9.31792
▁night	-9.31793
whi	-9.3196
work	-9.31968
▁laz	-9.32332
ide	-9.32388
ia	-9.3239
ver	-9.32591
▁sensitiv	-9.32648
▁text	-9.32685
bel	-9.32757
▁v	-9.32852
place	-9.32896
ative	-9.32926
▁apart	-9.33181
▁styl	-9.33472
lf	-9.33507
▁exist	-9.33633
raw	-9.34174
do	-9.34247
▁gut	-9.34287
▁got	-9.34406
hem	-9.34759
▁se	-9.34853
take	-9.34943
▁hot	-9.35292
ul	-9.35727
▁disappoint	-9.3575
▁chill	-9.35902
▁class	-9.36478
▁gar	-9.36515
▁damage	-9.36821
▁pace	-9.36927
▁twi	-9.37019
▁fel	-9.37438
▁teen	-9.37492
▁relative	-9.37503
▁target	-9.37503
▁unpleasant	-9.37503
▁constant	-9.37503
▁william	-9.37503
▁couple	-9.37504
▁profound	-9.37504
▁release	-9.37504
▁spark	-9.37504
▁steven	-9.37504
▁support	-9.37504
▁tragic	-9.37504
▁cartoon	-9.37504
▁transform	-9.37504
▁destin	-9.37505
▁murder	-9.37506
▁frequent	-9.37506
▁conviction	-9.37507
▁minor	-9.37507
▁reveal	-9.37508
▁chees	-9.37509
▁friendship	-9.3751
▁john	-9.37511
▁spook	-9.37513
▁frank	-9.37518
▁glor	-9.3752
relevan	-9.37521
▁cris	-9.37524
▁rank	-9.37538
orient	-9.37544
▁remember	-9.37563
▁chemi	-9.3762
▁sara	-9.37627
▁date	-9.37722
▁episode	-9.37758
▁issue	-9.37853
tive	-9.38182
sake	-9.38251
natured	-9.38277
▁aspect	-9.38311
pan	-9.38312
brid	-9.38409
▁wall	-9.38591
▁200	-9.38634
▁breath	-9.38709
▁air	-9.38795
un	-9.38836
▁reflect	-9.3888
bill	-9.38981
▁ii	-9.38986
▁poorly	-9.39012
▁ask	-9.39031
low	-9.39174
▁fight	-9.39183
▁stay	-9.39213
ite	-9.39215
▁non	-9.3925
▁wise	-9.39495
▁blood	-9.39683
▁event	-9.39756
▁sleep	-9.39785
ich	-9.39977
▁length	-9.40135
▁fu	-9.40246
▁ann	-9.4056
back	-9.40619
hoo	-9.40909
▁ill	-9.41231
ced	-9.41259
otic	-9.41489
▁ben	-9.41504
too	-9.41522
▁pan	-9.41578
fer	-9.41735
▁rid	-9.41951
▁notice	-9.42011
▁st	-9.42056
gal	-9.42507
oyan	-9.43173
▁offering	-9.43429
▁aim	-9.43456
▁ab	-9.43664
boy	-9.43882
▁shoot	-9.44156
▁suit	-9.44199
▁poor	-9.44302
▁execut	-9.44369
ho	-9.44493
▁realize	-9.44838
▁mar	-9.44872
▁dre	-9.44965
▁nature	-9.45035
go	-9.45133
▁gre	-9.4526
▁funnie	-9.45404
▁mur	-9.45497
▁forget	-9.45547
▁labor	-9.45617
▁commun	-9.45652
▁politic	-9.45655
▁excite	-9.45664
▁x	-9.45699
▁achieve	-9.45749
▁virtu	-9.45814
mpath	-9.45833
▁bottom	-9.45837
▁secret	-9.45837
connect	-9.45837
▁behind	-9.45837
▁intricate	-9.45837
▁occasional	-9.45837
▁philosoph	-9.45837
▁protagonist	-9.45837
▁record	-9.45837
▁repetiti	-9.45837
▁sight	-9.45837
▁slack	-9.45837
▁structure	-9.45837
▁suggest	-9.45837
▁superficial	-9.45837
▁surface	-9.45837
▁unabashed	-9.45837
▁access	-9.45837
▁unusual	-9.45837
▁blue	-9.45837
▁existential	-9.45837
▁gross	-9.45837
▁wannabe	-9.45837
▁evocati	-9.45837
▁comfort	-9.45837
▁living	-9.45837
▁theatrical	-9.45839
▁simul	-9.4584
▁proceed	-9.45841
▁handsome	-9.45846
▁deft	-9.45851
▁mesmeriz	-9.45863
▁exotic	-9.45864
quisit	-9.45869
▁park	-9.45875
▁draw	-9.45877
▁report	-9.45879
▁priv	-9.45881
▁string	-9.45884
▁desire	-9.45889
▁modest	-9.45903
▁gold	-9.45915
▁achievement	-9.45924
izar	-9.45926
▁bold	-9.45952
▁chance	-9.4599
▁raise	-9.45994
▁affection	-9.4603
▁punch	-9.46072
▁fantastic	-9.46144
▁pitch	-9.46219
mill	-9.46399
▁funni	-9.46421
▁comedic	-9.46424
▁taste	-9.46436
▁deni	-9.4645
▁devastating	-9.46494
rack	-9.46531
▁sm	-9.46558
▁exceptional	-9.46624
▁langu	-9.46624
▁effective	-9.46674
▁office	-9.46703
zo	-9.46724
▁sincere	-9.46946
▁bear	-9.47118
▁fashion	-9.47171
▁working	-9.47206
▁determin	-9.47234
void	-9.47368
gh	-9.47395
▁ju	-9.47485
▁chick	-9.47536
▁white	-9.47537
▁bore	-9.47617
▁front	-9.47661
▁sign	-9.47663
▁promising	-9.4767
▁disappointing	-9.47673
▁gun	-9.47698
▁mu	-9.47888
ense	-9.47945
lor	-9.48036
lan	-9.48139
▁produce	-9.48242
rote	-9.48244
▁enter	-9.48268
▁mo	-9.48575
my	-9.48964
school	-9.49174
▁fanc	-9.49193
how	-9.49207
ship	-9.49236
▁ground	-9.49242
▁je	-9.49325
▁moo	-9.49365
perfect	-9.49377
iv	-9.49395
par	-9.49447
good	-9.49462
rap	-9.49495
ged	-9.49546
▁clumsi	-9.49719
more	-9.49805
thin	-9.49877
than	-9.49919
hang	-9.50104
lin	-9.50431
▁admirabl	-9.50468
ky	-9.50524
▁awe	-9.50587
▁sun	-9.50645
▁apl	-9.50821
▁clums	-9.50845
▁corn	-9.50859
▁hate	-9.51273
gree	-9.51387
fall	-9.51388
▁school	-9.51398
bo	-9.51674
▁cur	-9.51698
mper	-9.52877
▁warn	-9.53068
char	-9.53222
▁shock	-9.53288
nal	-9.53381
▁div	-9.53627
nerv	-9.53771
cann	-9.53843
bb	-9.53914
▁cultur	-9.54034
▁sc	-9.54068
▁necessar	-9.54369
▁flo	-9.54461
gra	-9.54477
van	-9.54577
onic	-9.54639
given	-9.54789
cisive	-9.54827
▁revelat	-9.5485
company	-9.54858
▁four	-9.54863
knowledge	-9.54897
▁famili	-9.54911
▁metaphor	-9.54928
▁treasure	-9.54928
▁decepti	-9.54928
▁epic	-9.54928
▁yarn	-9.54928
▁brutal	-9.54929
▁amateurish	-9.54931
▁sick	-9.54932
▁match	-9.54935
▁smug	-9.54935
▁process	-9.54936
▁tiresome	-9.54937
▁lump	-9.54938
▁frame	-9.54939
▁phon	-9.54939
▁space	-9.5494
▁holo	-9.54944
▁behav	-9.5495
▁sketch	-9.54956
▁frustrating	-9.54958
▁deriv	-9.54962
▁hopeful	-9.54971
▁condition	-9.54992
▁torture	-9.55008
jerk	-9.55009
▁price	-9.55064
▁pit	-9.55111
▁means	-9.55112
▁wide	-9.55114
▁outside	-9.55133
fold	-9.55139
▁share	-9.55145
▁pile	-9.55183
▁fish	-9.55187
▁convention	-9.55229
▁mother	-9.5523
▁dragon	-9.55241
▁distinguish	-9.55244
▁voice	-9.55254
▁storyline	-9.55264
common	-9.5532
▁pick	-9.55328
▁astonishing	-9.5533
▁mid	-9.55375
▁intense	-9.55498
▁guilty	-9.55529
▁dim	-9.55618
▁overwhelming	-9.55651
oying	-9.55747
tered	-9.55752
ament	-9.55783
▁eager	-9.55794
▁doubt	-9.55794
▁ram	-9.55802
▁skin	-9.55856
▁fi	-9.55884
▁imm	-9.55907
▁assur	-9.5594
▁disguise	-9.56146
undan	-9.56348
▁clim	-9.56359
ctive	-9.56395
▁bright	-9.56473
▁essen	-9.565
▁shocking	-9.56621
▁sand	-9.56717
▁dress	-9.5676
▁satiric	-9.56825
▁su	-9.56928
▁load	-9.56938
▁op	-9.57137
▁elegan	-9.57624
killer	-9.57683
▁bri	-9.58135
ven	-9.5815
▁wood	-9.58189
▁serv	-9.58205
▁camp	-9.58207
mes	-9.58249
shed	-9.58564
dash	-9.58708
▁god	-9.58812
▁pain	-9.58835
light	-9.58944
notch	-9.58997
pid	-9.59009
corn	-9.59175
convincing	-9.59295
▁empt	-9.59315
grade	-9.59326
hour	-9.594
writer	-9.59436
dom	-9.59454
try	-9.59528
▁jam	-9.59547
▁gangs	-9.59677
star	-9.59793
allow	-9.5993
ow	-9.59942
fire	-9.60006
eath	-9.60359
ab	-9.60693
pi	-9.60712
▁manh	-9.60767
▁challeng	-9.60774
side	-9.61045
▁die	-9.61072
call	-9.61101
ek	-9.61151
▁girls	-9.61313
▁inte	-9.61409
▁explor	-9.61465
ood	-9.61647
witch	-9.61755
ept	-9.61888
▁pi	-9.62061
▁hop	-9.62581
▁eva	-9.62781
▁wed	-9.62969
▁joke	-9.6342
▁20	-9.63527
anger	-9.63565
▁bod	-9.63644
▁somewh	-9.63666
tribute	-9.63985
aries	-9.64056
▁post	-9.64175
▁litera	-9.64235
ami	-9.64235
▁flow	-9.64604
servati	-9.64808
ourse	-9.64895
▁encounter	-9.64928
▁enormous	-9.64928
▁enthusiasm	-9.64928
▁group	-9.64928
▁measure	-9.64928
▁peculiar	-9.64928
▁visceral	-9.64928
▁accept	-9.64928
▁ghost	-9.64928
▁opportunit	-9.64928
▁remote	-9.64928
▁georg	-9.64928
▁channel	-9.64928
▁relentless	-9.64928
▁result	-9.64928
▁scratch	-9.64928
▁industr	-9.64928
▁swim	-9.64928
▁adam	-9.64928
focus	-9.64929
▁intoxicati	-9.6493
▁blank	-9.64931
udic	-9.64931
▁drug	-9.64931
▁excess	-9.64932
▁credib	-9.64932
▁distance	-9.64932
▁routine	-9.64934
▁cynic	-9.64935
▁lurid	-9.64936
▁profan	-9.6494
▁answer	-9.64942
▁fluff	-9.64946
▁eventual	-9.64947
▁conclusion	-9.64954
▁novel	-9.64956
▁trash	-9.64969
▁return	-9.64972
▁korea	-9.64973
▁spectac	-9.64975
▁rise	-9.64979
▁complicat	-9.64988
▁vap	-9.64991
▁winner	-9.64994
▁development	-9.64997
▁term	-9.65003
▁buff	-9.65005
field	-9.65005
rium	-9.65026
▁square	-9.65028
▁forceful	-9.65077
uzz	-9.65143
tude	-9.65144
wake	-9.65152
▁larger	-9.65157
▁swoo	-9.65233
▁pack	-9.65236
▁crude	-9.65237
▁heav	-9.65249
▁pair	-9.65252
drop	-9.65259
▁soph	-9.65306
▁factor	-9.65354
▁rush	-9.65373
core	-9.65376
▁describe	-9.65385
▁san	-9.65453
▁screenwriter	-9.6546
▁analy	-9.65486
▁eloquent	-9.65487
▁desperate	-9.65545
▁trad	-9.65575
▁journ	-9.65602
caus	-9.65696
▁anti	-9.65709
▁grie	-9.65812
ash	-9.65826
▁speak	-9.6589
▁suspect	-9.65893
izz	-9.65901
▁belly	-9.65913
▁lesson	-9.65919
shing	-9.65968
▁beach	-9.66101
▁affa	-9.66273
▁stop	-9.66924
▁sav	-9.66996
▁relie	-9.6701
▁bang	-9.67354
cope	-9.67411
etto	-9.67441
▁pol	-9.67513
ung	-9.6754
▁flower	-9.6762
▁executi	-9.67728
▁consistent	-9.67753
▁nonsens	-9.67837
▁rog	-9.67929
see	-9.68111
▁web	-9.68212
ino	-9.68229
omb	-9.68421
ber	-9.68485
▁ages	-9.68491
▁earth	-9.68563
▁lau	-9.68888
rating	-9.69101
ier	-9.69168
though	-9.69221
▁scar	-9.69287
zing	-9.69609
▁manu	-9.69681
luc	-9.69901
ff	-9.70017
dimension	-9.7008
mal	-9.70174
pac	-9.70408
drama	-9.7043
head	-9.70478
original	-9.70498
▁nation	-9.70508
dge	-9.70554
dead	-9.70635
some	-9.70684
oon	-9.707
fest	-9.70715
▁free	-9.70866
volution	-9.71134
top	-9.71206
▁appreciate	-9.71264
ug	-9.71352
▁offen	-9.7142
▁beat	-9.7163
▁personalit	-9.7167
hilar	-9.72158
▁absurdit	-9.72303
▁award	-9.72326
▁bored	-9.72366
▁mass	-9.72635
thought	-9.72721
ors	-9.72762
say	-9.72905
aid	-9.732
tuck	-9.73277
llen	-9.73577
▁patien	-9.73925
▁sho	-9.73934
ph	-9.74065
▁swee	-9.74081
▁document	-9.74401
ssion	-9.74659
▁grad	-9.74807
▁dust	-9.74901
▁save	-9.75062
na	-9.75112
eck	-9.75182
▁stick	-9.75212
▁bog	-9.75359
▁alien	-9.75508
▁ski	-9.7555
hand	-9.75618
holi	-9.75661
▁cont	-9.75707
tract	-9.75725
▁fra	-9.75809
▁idio	-9.75914
▁shame	-9.7594
▁product	-9.75987
▁celebrat	-9.75991
taneous	-9.76024
mitted	-9.76029
▁except	-9.76038
▁strain	-9.76039
▁arrive	-9.76039
▁baffl	-9.76039
▁crush	-9.76039
▁incoheren	-9.76039
▁irresistibl	-9.76039
▁pretension	-9.76039
▁professional	-9.76039
▁succumb	-9.76039
▁unbelievabl	-9.76039
▁vulgar	-9.76039
▁cruel	-9.76039
▁knock	-9.76039
▁rehash	-9.76039
▁aggressive	-9.76039
▁ambigu	-9.76039
empower	-9.7604
▁bracing	-9.7604
▁delicious	-9.7604
daughter	-9.7604
regard	-9.7604
▁stunt	-9.76041
affirm	-9.76041
▁escapis	-9.76041
▁technical	-9.76042
▁tongue	-9.76044
▁refus	-9.76044
▁business	-9.76045
▁giant	-9.76046
▁expressive	-9.76048
▁fool	-9.76048
▁freak	-9.7605
▁splendid	-9.7605
▁queen	-9.7605
▁service	-9.76054
▁incre	-9.76056
▁seven	-9.76058
▁root	-9.76059
fulfill	-9.7606
▁slug	-9.76061
▁dreadful	-9.76067
ndon	-9.76079
▁team	-9.76087
▁catch	-9.76088
▁type	-9.76094
▁render	-9.76104
▁block	-9.76107
▁settle	-9.76123
▁season	-9.76128
▁movement	-9.76129
▁enthusiastic	-9.7613
▁impression	-9.76146
▁shameless	-9.76154
function	-9.76158
▁sister	-9.76175
spare	-9.76177
▁tra	-9.76179
▁dv	-9.76182
▁linger	-9.76196
▁local	-9.76198
▁tur	-9.76227
▁craz	-9.76245
▁inspiration	-9.76256
▁mala	-9.76263
▁unfl	-9.76275
▁dig	-9.76326
▁tu	-9.76362
▁slo	-9.76372
▁flam	-9.76409
tured	-9.76412
▁chan	-9.76414
▁appropriate	-9.76434
▁televis	-9.76434
▁innocen	-9.76435
atur	-9.76439
▁colleg	-9.76443
emark	-9.76456
▁glorious	-9.76468
▁cost	-9.76559
▁concern	-9.76607
▁spend	-9.76626
▁vibrant	-9.76655
▁moviego	-9.76669
third	-9.76695
source	-9.76771
▁myth	-9.76806
mination	-9.76894
▁mad	-9.76906
▁spot	-9.76974
lib	-9.77004
upper	-9.77136
ank	-9.77149
▁dar	-9.77183
▁resemble	-9.77212
▁insulting	-9.77345
▁dys	-9.77457
▁marti	-9.77459
uff	-9.77497
iro	-9.77629
▁christ	-9.77664
▁construct	-9.77816
unch	-9.77824
▁search	-9.77833
▁foot	-9.77836
▁decades	-9.77997
▁attract	-9.78099
▁sha	-9.78267
▁dud	-9.78614
▁rep	-9.78621
▁topic	-9.79073
stand	-9.79083
case	-9.79253
▁trip	-9.79456
oli	-9.79545
ging	-9.79593
▁strike	-9.79662
▁arts	-9.79769
uc	-9.7991
ese	-9.8007
▁wear	-9.80115
hat	-9.80167
▁base	-9.80203
▁improvis	-9.80324
quent	-9.80581
ture	-9.80763
▁yes	-9.80773
▁flu	-9.80846
▁lad	-9.80942
▁chops	-9.81198
button	-9.81352
▁tri	-9.81449
rol	-9.81492
wn	-9.81642
▁move	-9.819
asing	-9.82171
tten	-9.82265
▁gang	-9.82364
▁stereotyp	-9.82508
imi	-9.82528
bound	-9.82584
joke	-9.82743
free	-9.82772
sai	-9.82823
book	-9.82875
ham	-9.82927
▁violent	-9.82931
sweet	-9.83004
ims	-9.83115
rid	-9.8312
▁includ	-9.8315
▁dose	-9.83178
action	-9.83309
cute	-9.83332
▁spen	-9.83499
▁entr	-9.83506
era	-9.8354
ok	-9.83672
mind	-9.83979
▁iron	-9.84008
▁wi	-9.84078
▁terri	-9.84453
▁kill	-9.8483
ya	-9.84951
sky	-9.85025
▁reasonabl	-9.85039
make	-9.85575
hop	-9.85612
▁tho	-9.85776
gui	-9.85916
vention	-9.86221
ca	-9.86266
▁clos	-9.86335
pent	-9.864
ache	-9.86544
stopp	-9.86551
per	-9.86573
dan	-9.86732
arrow	-9.86757
bal	-9.87048
▁unlik	-9.87325
▁sell	-9.87767
▁persona	-9.8779
clas	-9.88237
▁impress	-9.88398
▁harm	-9.88434
▁develop	-9.8848
▁frustrati	-9.88496
ction	-9.88522
▁audi	-9.88535
▁photograph	-9.88539
▁sensational	-9.88539
▁claustroph	-9.88539
▁glimpse	-9.88539
▁misogyn	-9.88539
▁recycl	-9.88539
▁reference	-9.88539
▁suffocat	-9.88539
▁surviv	-9.88539
▁uncertain	-9.88539
▁uncomfortabl	-9.88539
▁courage	-9.88539
▁street	-9.88539
▁convince	-9.88539
▁learn	-9.88539
▁jim	-9.88539
▁wicked	-9.88539
▁animal	-9.88539
▁costume	-9.88539
▁coheren	-9.8854
▁fierce	-9.8854
▁ponder	-9.8854
▁illuminat	-9.8854
▁essential	-9.8854
▁unimaginative	-9.88541
▁pretend	-9.88541
▁adolescen	-9.88541
▁random	-9.88542
▁kiddie	-9.88542
▁pomp	-9.88543
▁spider	-9.88543
▁accent	-9.88544
▁teacher	-9.88544
▁grab	-9.88544
▁junk	-9.88545
▁gear	-9.88545
▁harsh	-9.88545
frai	-9.88547
▁nichol	-9.88552
▁independent	-9.88552
chew	-9.88558
sapp	-9.88558
▁spoof	-9.88558
▁steal	-9.88561
▁liberati	-9.88561
▁spontane	-9.88561
▁whimsical	-9.88562
▁heartbreak	-9.88562
▁fluid	-9.88563
▁obsc	-9.88565
▁indie	-9.88568
▁escape	-9.88571
▁angst	-9.88573
croo	-9.88579
▁monster	-9.88583
▁celebrate	-9.88593
▁sensual	-9.88632
▁appa	-9.88635
▁drown	-9.88642
ient	-9.88656
igan	-9.88657
▁tender	-9.88659
▁trite	-9.8867
▁slick	-9.88671
▁weakness	-9.88674
▁teenager	-9.88675
tched	-9.88736
▁revelation	-9.88761
▁pulp	-9.88794
▁nerve	-9.88801
▁shre	-9.88818
▁gritt	-9.88844
▁pale	-9.88855
▁crass	-9.88888
mentary	-9.88903
▁useless	-9.88905
▁overwr	-9.88908
barber	-9.88932
▁stir	-9.88956
▁gloss	-9.8899
max	-9.89018
laborat	-9.89018
▁content	-9.89024
▁artful	-9.89034
rising	-9.89035
▁traditional	-9.89039
▁passionate	-9.89049
ecc	-9.89069
▁witless	-9.89078
▁phone	-9.89113
▁alienat	-9.8915
▁carry	-9.89162
▁unfor	-9.89172
▁boo	-9.89195
▁ambition	-9.89221
▁par	-9.89243
▁ingen	-9.89252
lock	-9.89258
▁male	-9.89271
▁community	-9.89275
▁rent	-9.89293
▁ya	-9.89584
uous	-9.89617
matic	-9.89796
ral	-9.89805
brand	-9.89822
▁sheer	-9.89856
▁hu	-9.89906
▁sus	-9.90028
joint	-9.9008
▁disc	-9.90163
writ	-9.90276
▁prim	-9.90424
▁cra	-9.90482
earing	-9.90519
▁dreams	-9.9053
▁mac	-9.90575
▁smooth	-9.90589
lind	-9.90684
▁ball	-9.91088
▁difference	-9.91097
▁por	-9.91156
lam	-9.91195
▁poo	-9.91213
▁shooting	-9.91306
▁eat	-9.91381
▁discipline	-9.91413
▁pleasing	-9.91414
blown	-9.91443
▁sides	-9.91512
▁chang	-9.91663
▁cover	-9.91704
▁danc	-9.91709
lace	-9.91718
obble	-9.91841
▁gh	-9.91965
▁tom	-9.9202
▁pri	-9.92341
▁gay	-9.92462
▁tricks	-9.92593
▁bag	-9.92925
▁bree	-9.9296
▁bon	-9.92994
▁hau	-9.93012
▁handle	-9.93013
uring	-9.93179
▁stal	-9.93502
scu	-9.93506
▁row	-9.93596
lia	-9.93646
tty	-9.93721
au	-9.93743
oid	-9.93752
▁wind	-9.93792
▁paro	-9.93969
▁number	-9.94103
▁limit	-9.94193
heard	-9.94193
intention	-9.94221
▁include	-9.94244
pulsive	-9.9434
ody	-9.94466
▁vo	-9.94554
▁soc	-9.94658
inent	-9.94737
ched	-9.94794
▁appreciat	-9.95542
ga	-9.95559
▁interna	-9.9579
▁played	-9.96206
▁soon	-9.96243
▁inspire	-9.96649
▁chop	-9.96743
member	-9.96796
number	-9.96994
ov	-9.97052
ground	-9.97077
text	-9.97146
weight	-9.97163
girl	-9.97214
half	-9.97301
style	-9.97345
specti	-9.97891
▁lik	-9.97952
vas	-9.98118
tep	-9.98536
▁pun	-9.98842
▁passe	-9.99192
ndi	-9.99645
▁blow	-9.99806
eur	-9.99826
▁require	-9.99892
▁chin	-10.004
▁friend	-10.0041
▁gri	-10.006
▁chris	-10.0069
▁wilde	-10.0083
latter	-10.0086
▁talk	-10.0113
▁insult	-10.0115
gain	-10.0121
▁hope	-10.0143
ogg	-10.0147
hic	-10.0194
taking	-10.0194
▁tast	-10.0223
▁screenwrit	-10.0224
▁grin	-10.0241
▁swan	-10.0243
gen	-10.0245
row	-10.0246
▁tick	-10.026
▁sto	-10.0263
valu	-10.0266
▁marvel	-10.0269
▁observ	-10.0271
▁resonan	-10.0275
sistent	-10.028
▁collect	-10.0281
consequen	-10.0282
▁alternate	-10.0282
▁conflict	-10.0282
▁dickens	-10.0282
▁inevitabl	-10.0282
▁motivate	-10.0282
▁nostalgi	-10.0282
▁predecessor	-10.0282
▁schmaltz	-10.0282
▁scoop	-10.0282
▁similar	-10.0282
▁transcend	-10.0282
▁wondrous	-10.0282
▁device	-10.0282
▁inviting	-10.0282
▁melanchol	-10.0282
▁public	-10.0282
▁substanti	-10.0282
▁cruci	-10.0282
▁digital	-10.0282
▁jazz	-10.0282
▁percepti	-10.0282
▁sensibilit	-10.0282
▁warrior	-10.0282
▁milk	-10.0282
knack	-10.0282
▁arc	-10.0282
▁blend	-10.0282
▁perverse	-10.0282
▁inescapabl	-10.0283
▁cohesi	-10.0283
▁snow	-10.0283
▁english	-10.0283
▁audaci	-10.0283
▁expens	-10.0283
▁demons	-10.0283
▁enigma	-10.0283
▁foul	-10.0283
▁sudden	-10.0283
▁vague	-10.0283
▁brush	-10.0283
▁fault	-10.0283
▁window	-10.0283
penetra	-10.0283
▁contribution	-10.0283
▁receiv	-10.0284
▁luck	-10.0284
characterization	-10.0284
▁height	-10.0284
▁machine	-10.0285
opic	-10.0285
▁complain	-10.0285
glorifi	-10.0285
drunk	-10.0286
▁hugh	-10.0286
shift	-10.0286
▁indian	-10.0287
▁danger	-10.0288
▁crack	-10.0289
▁creature	-10.0289
▁curious	-10.0289
▁rapid	-10.029
▁glow	-10.029
logic	-10.0291
▁atmospheric	-10.0291
▁bomb	-10.0292
▁weak	-10.0292
claim	-10.0294
▁seren	-10.0294
▁came	-10.0295
▁weep	-10.0297
femini	-10.0298
▁ban	-10.0299
▁hype	-10.03
▁uninspir	-10.0301
▁instan	-10.0302
lond	-10.0302
▁arch	-10.0303
▁aimless	-10.0304
stein	-10.0304
erber	-10.0306
▁setting	-10.0306
phant	-10.0308
cale	-10.031
▁fake	-10.0312
▁poetic	-10.0316
▁sober	-10.0317
buster	-10.0318
conceiv	-10.0319
▁bow	-10.032
▁exceeding	-10.0323
▁soulless	-10.0325
▁objectiv	-10.0327
▁shakespeare	-10.0335
▁praise	-10.0335
▁embrace	-10.0336
▁thrown	-10.0336
▁gall	-10.0337
▁effortless	-10.034
nan	-10.0344
rude	-10.0346
▁pub	-10.0349
▁counter	-10.0351
▁precise	-10.0354
gem	-10.0357
▁mel	-10.036
▁build	-10.0361
▁grown	-10.0364
▁forgo	-10.0365
▁hole	-10.037
▁horribl	-10.0373
▁neo	-10.0377
laus	-10.0381
▁band	-10.0385
esque	-10.0398
▁hands	-10.0417
99	-10.0429
▁justify	-10.0446
▁infuse	-10.045
▁matur	-10.0452
▁talking	-10.0456
▁jolt	-10.0458
charge	-10.046
▁law	-10.0462
▁touche	-10.0463
tional	-10.0469
▁wash	-10.0472
rall	-10.0478
ooper	-10.0479
▁lip	-10.0482
▁leak	-10.0485
▁dare	-10.0485
▁tin	-10.052
▁leg	-10.0531
▁finger	-10.0536
▁sports	-10.0544
fide	-10.0547
responsib	-10.0581
▁unit	-10.0587
lab	-10.0598
parable	-10.0621
tri	-10.0621
▁patient	-10.0622
▁buck	-10.063
hrill	-10.0634
▁resolut	-10.0646
gent	-10.065
▁intermi	-10.0654
radic	-10.0664
wr	-10.0665
▁fate	-10.0676
▁sh	-10.0691
ump	-10.0699
lymp	-10.071
▁sche	-10.0737
▁brothers	-10.0757
▁hum	-10.0783
▁absurd	-10.0793
▁bother	-10.0794
▁mouth	-10.0815
▁lift	-10.0816
▁mi	-10.0824
▁reek	-10.0836
aged	-10.084
▁edg	-10.0852
▁ironic	-10.0872
alan	-10.0898
▁member	-10.0918
▁poe	-10.0972
▁friends	-10.0972
▁fairy	-10.0981
nder	-10.0986
▁conjure	-10.1016
▁bound	-10.1016
▁fre	-10.1031
ill	-10.1054
▁pointed	-10.1076
▁red	-10.1087
▁practice	-10.1097
▁dimension	-10.1119
ana	-10.1132
▁subt	-10.1133
▁surreal	-10.116
▁defi	-10.1182
itten	-10.121
later	-10.1229
▁tr	-10.1232
dul	-10.1247
▁scor	-10.1273
▁reli	-10.129
reek	-10.1303
▁hy	-10.1326
nick	-10.1347
mouth	-10.1355
lift	-10.1359
inspir	-10.1362
realize	-10.1374
length	-10.1377
camp	-10.1377
witt	-10.1381
discover	-10.1382
faith	-10.1382
quiet	-10.1388
video	-10.139
base	-10.1392
american	-10.1394
chang	-10.1394
flick	-10.1396
worth	-10.1396
opera	-10.1407
entity	-10.1412
hold	-10.1413
earth	-10.1413
fun	-10.1414
ago	-10.1415
fight	-10.1441
▁fla	-10.1518
rious	-10.1539
ade	-10.154
mu	-10.1561
▁becom	-10.1615
wed	-10.162
▁franc	-10.1621
▁hel	-10.1645
▁propo	-10.1659
tions	-10.1694
▁complexit	-10.1712
▁pleasur	-10.1713
wave	-10.172
▁insi	-10.1727
did	-10.175
press	-10.1803
port	-10.181
▁nu	-10.1813
▁integr	-10.1828
ifying	-10.1832
shap	-10.1833
igni	-10.1837
lov	-10.1838
ourne	-10.185
▁innu	-10.1851
▁winds	-10.1853
▁buil	-10.1873
ler	-10.1893
▁del	-10.191
▁atti	-10.1913
▁depend	-10.1921
speci	-10.1922
ttent	-10.1923
▁concer	-10.1925
overt	-10.1926
▁blo	-10.1929
▁atmospher	-10.1939
▁hide	-10.1945
▁narrat	-10.1946
▁radi	-10.1947
luster	-10.1947
▁compassion	-10.1947
definit	-10.1948
tain	-10.1948
▁disturb	-10.1949
caricature	-10.1949
fifteen	-10.1949
satisfact	-10.1949
▁adequate	-10.1949
▁arbitrar	-10.1949
▁astounding	-10.1949
▁bruckheimer	-10.1949
▁celebrit	-10.1949
▁collapse	-10.1949
▁deliberate	-10.1949
▁despair	-10.1949
▁dynamic	-10.1949
▁elbow	-10.1949
▁elizabeth	-10.1949
▁endeavor	-10.1949
▁ethnic	-10.1949
▁extravagan	-10.1949
▁ignor	-10.1949
▁incessant	-10.1949
▁inexplicabl	-10.1949
▁inject	-10.1949
▁instinct	-10.1949
▁introduc	-10.1949
▁obnoxious	-10.1949
▁phenomena	-10.1949
▁possibilit	-10.1949
▁recognize	-10.1949
▁surrender	-10.1949
▁unbearabl	-10.1949
▁abandon	-10.1949
▁aesthetic	-10.1949
▁paranoi	-10.1949
▁substance	-10.1949
▁rerun	-10.1949
▁subplot	-10.1949
▁folk	-10.1949
▁inherent	-10.1949
▁maddening	-10.1949
▁sneak	-10.1949
▁stink	-10.1949
▁sugar	-10.1949
▁arrest	-10.1949
▁kick	-10.1949
▁thousand	-10.1949
▁finish	-10.1949
▁multi	-10.1949
▁newcomer	-10.1949
▁horrifying	-10.1949
▁ransack	-10.1949
▁court	-10.1949
▁zero	-10.195
cheek	-10.195
▁spell	-10.195
▁clown	-10.195
▁cheer	-10.195
▁assault	-10.195
rhaps	-10.195
barrel	-10.195
▁stoop	-10.195
▁hypo	-10.195
▁visit	-10.195
▁clean	-10.1951
▁rig	-10.1951
▁flesh	-10.1951
▁location	-10.1951
▁merit	-10.1951
▁plod	-10.1951
▁appl	-10.1951
aught	-10.1951
▁tart	-10.1951
▁trifl	-10.1952
▁resist	-10.1952
▁african	-10.1952
▁translati	-10.1952
▁seams	-10.1952
▁split	-10.1952
▁rubb	-10.1952
no	-10.1952
▁depiction	-10.1953
endo	-10.1953
▁atrocious	-10.1953
▁preva	-10.1953
▁japan	-10.1953
▁romp	-10.1954
▁chur	-10.1954
expos	-10.1954
induce	-10.1954
▁accurate	-10.1954
▁redeem	-10.1954
▁mira	-10.1955
▁paul	-10.1955
competent	-10.1955
▁impersona	-10.1956
▁clueless	-10.1957
▁12	-10.1957
▁speed	-10.1957
▁eeri	-10.1957
▁card	-10.1959
▁box	-10.196
▁slic	-10.196
print	-10.1961
evolve	-10.1962
▁observation	-10.1962
▁slip	-10.1962
▁clock	-10.1967
▁insane	-10.1968
ilty	-10.1969
▁gasp	-10.1969
▁instance	-10.197
reserv	-10.1971
tray	-10.1973
▁setup	-10.1974
▁inhal	-10.1974
dependen	-10.1975
▁expectation	-10.198
▁whims	-10.198
▁boat	-10.1984
▁spite	-10.1986
nting	-10.1989
▁neat	-10.199
▁expression	-10.1991
▁house	-10.1991
quar	-10.1995
▁cellul	-10.2001
vall	-10.2005
iful	-10.2006
▁meat	-10.2006
mber	-10.2012
▁squeeze	-10.2012
▁confident	-10.2012
▁adrenalin	-10.2012
▁intellectual	-10.2013
vern	-10.2014
▁preachy	-10.2014
▁science	-10.2019
▁trace	-10.2019
board	-10.202
▁parad	-10.2021
atic	-10.2022
artificial	-10.2023
▁loosely	-10.2027
▁captivating	-10.2029
▁plane	-10.2034
▁rain	-10.2041
▁trapp	-10.2048
▁frida	-10.2052
▁mirac	-10.2054
▁intolera	-10.2054
▁dro	-10.2058
▁offend	-10.2065
flop	-10.2071
▁juic	-10.208
▁yu	-10.2081
▁charl	-10.2082
▁broke	-10.2087
plate	-10.209
▁reduce	-10.2099
▁pot	-10.2101
▁tub	-10.2113
▁ego	-10.2118
▁ske	-10.2121
▁tight	-10.2122
▁current	-10.2122
▁admit	-10.2124
▁profil	-10.2125
▁dish	-10.2132
▁package	-10.2133
irke	-10.2141
anta	-10.2152
nia	-10.2155
llar	-10.2164
alent	-10.2166
▁lou	-10.2172
ustin	-10.2181
▁jol	-10.2184
▁prob	-10.2187
cial	-10.2198
rade	-10.2209
▁stylistic	-10.2213
boiler	-10.2213
▁daw	-10.2214
▁ravi	-10.2224
▁gender	-10.2236
▁market	-10.2243
▁recover	-10.2244
▁wa	-10.2254
▁ideal	-10.2288
▁spice	-10.2289
▁bone	-10.2293
▁spin	-10.2311
▁hi	-10.2315
iety	-10.2329
ari	-10.2331
zy	-10.2336
▁satisfie	-10.2348
▁lee	-10.2351
▁erotic	-10.2376
cation	-10.2377
▁90-	-10.239
▁ooz	-10.2396
▁owe	-10.2408
oph	-10.2414
bust	-10.2434
▁han	-10.2437
log	-10.2446
▁layer	-10.2479
▁critical	-10.2484
ode	-10.2493
▁bond	-10.2495
bag	-10.2496
nne	-10.2497
utter	-10.2505
ety	-10.2506
▁icon	-10.2515
hip	-10.252
rvin	-10.2531
▁fa	-10.254
▁fal	-10.2567
stone	-10.2581
▁scen	-10.2583
▁heal	-10.2593
▁nick	-10.2601
▁inner	-10.261
ama	-10.2613
produc	-10.2618
chab	-10.2662
▁table	-10.2663
kle	-10.2677
born	-10.2678
unny	-10.2689
j	-10.2716
▁compari	-10.272
zen	-10.274
astic	-10.2743
▁amused	-10.2753
▁craftsm	-10.2764
▁miser	-10.2781
exit	-10.2794
▁capabl	-10.2798
five	-10.2805
note	-10.2811
obs	-10.2817
▁stereotype	-10.2834
oc	-10.2847
▁surfe	-10.2863
▁realiz	-10.2886
▁jon	-10.2941
▁heat	-10.295
dlin	-10.3005
▁cal	-10.3029
cious	-10.3033
▁integrat	-10.3036
▁noticeabl	-10.3054
gment	-10.3085
▁compar	-10.3087
ado	-10.3138
poster	-10.3204
nce	-10.3228
bit	-10.3232
▁sloppi	-10.3242
layer	-10.3248
▁grade	-10.3254
▁cli	-10.3281
ddie	-10.33
▁trick	-10.3322
▁brother	-10.3337
critical	-10.3347
friend	-10.3355
nonsens	-10.337
blood	-10.3377
sleep	-10.3378
night	-10.3379
important	-10.3388
familiar	-10.3392
world	-10.3395
interesting	-10.3396
human	-10.3402
turn	-10.3422
watch	-10.3427
▁miserabl	-10.3455
trip	-10.3455
▁lie	-10.3462
bi	-10.348
▁shine	-10.3484
▁tolera	-10.3492
▁happi	-10.3512
▁forgive	-10.3525
new	-10.3534
▁leav	-10.3539
loses	-10.3567
fan	-10.3569
imitation	-10.3625
▁boil	-10.3655
▁explo	-10.3662
will	-10.3671
▁stru	-10.3712
kind	-10.3714
distinct	-10.3723
▁significan	-10.373
rish	-10.3743
▁overwhelm	-10.3783
▁devastat	-10.3784
▁raci	-10.3803
▁dete	-10.3805
az	-10.3813
▁guilt	-10.3817
vill	-10.382
▁desperat	-10.3821
▁oo	-10.3836
▁goo	-10.3844
rust	-10.3844
▁hoot	-10.3848
▁basi	-10.3864
lot	-10.3872
mon	-10.3874
▁artific	-10.3876
▁intens	-10.3889
expected	-10.3913
▁sincer	-10.3913
▁clu	-10.3913
▁sentiment	-10.3923
▁gla	-10.3929
xploitati	-10.393
▁feat	-10.3933
wan	-10.3941
graphic	-10.3942
▁psycholog	-10.3946
▁splend	-10.3947
stitut	-10.3949
▁choreograph	-10.3949
▁establish	-10.3949
▁surround	-10.3949
▁unfortunate	-10.3949
associat	-10.3949
destroy	-10.3949
scription	-10.3949
▁assassin	-10.3949
▁author	-10.3949
▁chief	-10.3949
▁conversation	-10.3949
▁eviden	-10.3949
▁experiment	-10.3949
▁individual	-10.3949
▁italicize	-10.3949
▁mechanic	-10.3949
▁mountain	-10.3949
▁neighbor	-10.3949
▁obligat	-10.3949
▁obsessive	-10.3949
▁olivier	-10.3949
▁revenge	-10.3949
▁strength	-10.3949
▁turntablis	-10.3949
▁victim	-10.3949
corporate	-10.3949
▁companion	-10.3949
▁sanctimon	-10.3949
▁splash	-10.3949
▁stroke	-10.3949
▁academ	-10.3949
▁athlete	-10.3949
▁dishonest	-10.3949
▁drain	-10.3949
▁pathetic	-10.3949
▁lush	-10.3949
▁defeat	-10.3949
▁liberti	-10.3949
descend	-10.3949
▁lecture	-10.3949
▁legend	-10.3949
▁double	-10.3949
▁expert	-10.3949
▁unintentional	-10.3949
▁teeth	-10.3949
judgment	-10.3949
▁extra	-10.3949
▁hallmark	-10.3949
▁luna	-10.3949
▁pathos	-10.3949
▁tackl	-10.3949
▁tremendous	-10.3949
clut	-10.3949
▁bath	-10.3949
▁wreck	-10.3949
▁reign	-10.3949
mmed	-10.3949
▁technolog	-10.395
▁centur	-10.395
▁holm	-10.395
sophomor	-10.395
▁symbol	-10.395
▁lust	-10.395
▁lend	-10.395
▁extend	-10.395
fluence	-10.395
▁environment	-10.395
▁medium	-10.395
▁stifl	-10.395
▁wander	-10.395
emic	-10.395
▁clinic	-10.3951
▁million	-10.3951
▁spiral	-10.3951
▁pedest	-10.3952
▁rival	-10.3952
aggra	-10.3952
▁compassionate	-10.3952
▁undercut	-10.3952
▁poke	-10.3953
▁resent	-10.3953
▁mistake	-10.3953
▁fiction	-10.3953
▁jumble	-10.3953
▁shake	-10.3953
▁tread	-10.3953
▁exalt	-10.3954
▁uh	-10.3954
nourish	-10.3954
▁trope	-10.3955
dropping	-10.3955
▁center	-10.3955
▁trail	-10.3955
▁food	-10.3956
▁precious	-10.3956
▁cheat	-10.3956
agger	-10.3956
▁ethic	-10.3956
▁pax	-10.3956
▁budd	-10.3957
▁popular	-10.3957
▁send	-10.3957
▁generate	-10.3957
▁awaken	-10.3957
kilt	-10.3958
▁raunch	-10.3958
▁bubb	-10.3959
▁burst	-10.3959
▁fond	-10.396
▁showcase	-10.396
▁contrivance	-10.3961
meets	-10.3961
▁clash	-10.3962
erox	-10.3962
▁journalis	-10.3963
uf	-10.3963
▁toilet	-10.3964
▁reaction	-10.3966
▁scat	-10.3966
llusion	-10.3967
sica	-10.3967
▁zinger	-10.3967
▁bank	-10.3968
▁hyper	-10.3968
▁sooth	-10.397
▁idiotic	-10.3973
congr	-10.3973
▁crackle	-10.3973
▁foll	-10.3974
▁disappointment	-10.3975
▁mention	-10.3976
▁rapt	-10.398
▁lyric	-10.398
▁harmon	-10.398
▁tasteless	-10.398
▁mc	-10.398
▁tang	-10.398
▁ult	-10.3982
▁tap	-10.3983
▁restrain	-10.3985
▁glass	-10.3987
arant	-10.3987
▁mile	-10.3988
possess	-10.3989
▁updat	-10.3992
marine	-10.3993
ridd	-10.3993
▁cloud	-10.3993
▁mons	-10.3994
equiv	-10.3995
▁compromis	-10.3995
▁mental	-10.3996
▁lonel	-10.3996
beth	-10.3997
▁dozen	-10.3998
▁doze	-10.4
▁creation	-10.4004
itche	-10.4004
fix	-10.4004
▁bab	-10.4005
nstop	-10.4008
11	-10.4009
▁barry	-10.401
▁careful	-10.401
▁wil	-10.4012
▁cher	-10.4014
tress	-10.4016
▁doors	-10.4017
▁producer	-10.4017
▁alleg	-10.4022
▁daytime	-10.4026
▁numbing	-10.4027
▁jar	-10.4027
▁vampire	-10.4028
▁stomach	-10.4028
▁dip	-10.4028
▁thirt	-10.4028
unter	-10.4033
▁witnesse	-10.4033
▁woo	-10.4036
broil	-10.4037
▁nich	-10.4043
▁slee	-10.4046
ison	-10.4047
▁earn	-10.4047
▁page	-10.4048
▁cring	-10.405
diac	-10.4064
▁ele	-10.4066
▁cata	-10.4066
▁cult	-10.4069
nold	-10.4073
▁sac	-10.4098
▁serial	-10.4099
▁salt	-10.4103
▁mode	-10.4103
fic	-10.4106
elda	-10.4107
attan	-10.4111
▁literal	-10.4116
china	-10.4121
▁dispos	-10.4122
▁pin	-10.4127
▁cloth	-10.413
▁soar	-10.4135
▁carve	-10.4151
▁tried	-10.4151
▁statu	-10.416
rog	-10.4162
kier	-10.4164
▁shadow	-10.4165
▁enchant	-10.4165
review	-10.4165
▁enth	-10.4166
▁drum	-10.4167
▁sucker	-10.417
▁father	-10.4172
▁significant	-10.4174
▁nov	-10.4177
▁lower	-10.4178
▁distincti	-10.418
▁eng	-10.4191
▁irrev	-10.4207
▁cow	-10.4215
▁conn	-10.4221
rence	-10.4238
▁documentari	-10.4261
llow	-10.4264
ked	-10.427
gam	-10.4272
▁sud	-10.4272
▁admi	-10.4274
poo	-10.4283
▁understate	-10.4289
alian	-10.4292
aga	-10.4292
▁marked	-10.4302
▁repu	-10.4342
▁leon	-10.4366
▁loo	-10.4404
▁hok	-10.4424
▁scare	-10.4434
▁pu	-10.444
cu	-10.4443
▁coma	-10.4448
▁fran	-10.4453
▁bro	-10.4495
rth	-10.4508
ellen	-10.4521
erson	-10.4552
acher	-10.4562
▁bli	-10.4564
▁scari	-10.4564
▁pant	-10.4569
format	-10.4579
▁qu	-10.4596
▁painting	-10.4609
dren	-10.4613
▁paw	-10.4631
▁lit	-10.4671
xed	-10.4723
withstand	-10.4725
quand	-10.4732
▁dr	-10.4739
▁merc	-10.4776
eau	-10.4815
▁unrel	-10.4827
list	-10.4829
rian	-10.4889
dden	-10.4936
comprehensi	-10.4955
bodie	-10.5019
▁prevent	-10.5058
rtle	-10.5111
▁genero	-10.512
ware	-10.5126
▁due	-10.519
▁jac	-10.5191
mart	-10.5201
▁glu	-10.5202
▁stee	-10.5221
bak	-10.5254
empti	-10.5274
▁comprehen	-10.5291
00	-10.5298
▁sacrific	-10.5308
entist	-10.5313
vin	-10.5314
agi	-10.532
wo	-10.5342
▁gli	-10.5343
loqu	-10.5345
entional	-10.5385
predict	-10.5385
▁undo	-10.5429
put	-10.5431
hai	-10.5492
▁pur	-10.5504
▁perv	-10.5531
wer	-10.5564
cer	-10.5568
spoo	-10.5572
▁squa	-10.5574
▁clo	-10.5587
lity	-10.5615
umble	-10.5617
ipp	-10.5645
▁sensitivit	-10.5685
ini	-10.5706
▁struggl	-10.5746
aves	-10.5771
pro	-10.5786
heart	-10.5795
pleas	-10.5795
promising	-10.5818
cover	-10.5852
war	-10.5852
satisfie	-10.5855
ara	-10.5857
limit	-10.586
discipline	-10.5863
wind	-10.5865
buck	-10.587
flower	-10.5871
consistent	-10.5871
▁continu	-10.5872
front	-10.5872
sign	-10.5873
load	-10.5874
qui	-10.5874
authentic	-10.5876
week	-10.588
bond	-10.5882
happ	-10.5886
credit	-10.589
adventure	-10.589
fare	-10.589
satisfying	-10.5893
memor	-10.5894
gun	-10.5894
experience	-10.5895
power	-10.5895
spirit	-10.5895
look	-10.5898
bad	-10.5901
wood	-10.5902
piece	-10.5903
▁stretche	-10.5915
dramatic	-10.5915
road	-10.5927
op	-10.593
erotic	-10.5933
▁bin	-10.5944
culture	-10.5952
cast	-10.5955
cap	-10.5957
aunt	-10.5968
▁giv	-10.5974
▁uneas	-10.5995
offen	-10.6005
▁goofi	-10.6007
pleasing	-10.6043
▁stylist	-10.6067
▁har	-10.6076
▁disguis	-10.6095
▁cath	-10.6143
▁infu	-10.6166
form	-10.6169
▁auto	-10.6203
▁resembl	-10.6205
▁prime	-10.6208
▁atta	-10.6223
▁adventur	-10.6228
▁urgen	-10.6251
▁spo	-10.6259
▁kiss	-10.6271
▁horr	-10.6277
▁precis	-10.6317
sibl	-10.6326
▁hust	-10.634
ogue	-10.6343
▁shi	-10.6344
ighter	-10.6346
▁trap	-10.635
▁embrac	-10.6351
▁tun	-10.6359
avish	-10.638
omical	-10.6386
▁pul	-10.6387
▁israel	-10.6389
harg	-10.6394
▁cell	-10.6394
▁chic	-10.6409
acle	-10.6412
▁remin	-10.6412
ague	-10.6414
acks	-10.6414
▁equi	-10.6416
ustra	-10.6418
orrow	-10.642
▁organi	-10.6421
▁urge	-10.6423
▁revel	-10.6425
crew	-10.6426
eight	-10.6427
▁etc	-10.6428
ield	-10.6431
▁sprin	-10.6433
▁threat	-10.6439
▁supp	-10.6443
▁roug	-10.6446
hibit	-10.6446
▁deci	-10.6446
▁circ	-10.6447
ontaine	-10.6448
▁trans	-10.6449
▁unconv	-10.6449
▁exuberan	-10.6449
▁anticipat	-10.6449
▁reject	-10.6449
▁sublime	-10.6449
▁transparent	-10.6449
fabric	-10.6449
knuckle	-10.6449
▁articulate	-10.6449
▁chuckle	-10.6449
▁circumstan	-10.6449
▁computer	-10.6449
▁conspicuous	-10.6449
▁democrac	-10.6449
▁disgust	-10.6449
▁eccentric	-10.6449
▁economic	-10.6449
▁efficient	-10.6449
▁evok	-10.6449
▁exasperat	-10.6449
▁excruciating	-10.6449
▁fabulous	-10.6449
▁flavor	-10.6449
▁giggl	-10.6449
▁grotesque	-10.6449
▁guarantee	-10.6449
▁harangu	-10.6449
▁hundred	-10.6449
▁immediate	-10.6449
▁incarnation	-10.6449
▁interview	-10.6449
▁monument	-10.6449
▁obsession	-10.6449
▁optimis	-10.6449
▁orchestrat	-10.6449
▁sturdi	-10.6449
▁unmentionable	-10.6449
▁virulent	-10.6449
▁categor	-10.6449
▁distaste	-10.6449
▁junior	-10.6449
▁regret	-10.6449
▁robin	-10.6449
▁scooby	-10.6449
▁tempting	-10.6449
▁government	-10.6449
▁illustrat	-10.6449
▁insignifican	-10.6449
▁liberal	-10.6449
▁mourn	-10.6449
▁mumbo	-10.6449
▁pornograph	-10.6449
▁responsibilit	-10.6449
▁advance	-10.6449
▁dismiss	-10.6449
▁farcical	-10.6449
▁librar	-10.6449
▁morbid	-10.6449
▁procedur	-10.6449
reconcil	-10.6449
▁elevate	-10.6449
▁lobby	-10.6449
▁ancient	-10.6449
▁infantil	-10.6449
▁reassuring	-10.6449
▁expand	-10.6449
▁narcissis	-10.6449
precedent	-10.6449
▁demonstrate	-10.6449
▁wound	-10.6449
▁crum	-10.6449
▁error	-10.6449
▁scott	-10.6449
▁twinkl	-10.6449
▁feather	-10.6449
▁worrie	-10.6449
▁conceit	-10.6449
▁detach	-10.6449
▁german	-10.6449
▁echo	-10.6449
▁scathing	-10.6449
▁sword	-10.6449
▁puzzl	-10.6449
▁honor	-10.6449
▁minimal	-10.6449
▁crawl	-10.6449
accid	-10.645
▁aspire	-10.645
▁wrapp	-10.645
▁kenne	-10.645
▁miscalculat	-10.645
▁decided	-10.645
▁month	-10.645
▁knee	-10.645
▁advi	-10.645
▁prince	-10.645
mpire	-10.645
▁argentine	-10.645
▁argument	-10.6451
▁fragment	-10.6451
▁consol	-10.6451
▁damon	-10.6451
▁zipp	-10.6451
▁trem	-10.6451
▁consum	-10.6451
▁gestur	-10.6451
enden	-10.6451
▁department	-10.6452
▁bread	-10.6452
▁convey	-10.6452
▁demographic	-10.6452
▁debate	-10.6453
▁thread	-10.6453
▁auteu	-10.6453
▁hitler	-10.6453
▁limp	-10.6453
▁monoton	-10.6453
▁flail	-10.6454
▁lev	-10.6454
▁mush	-10.6454
▁arra	-10.6454
▁psycho	-10.6454
▁pipe	-10.6454
▁rambling	-10.6454
▁narc	-10.6454
▁fellow	-10.6455
▁addicti	-10.6455
▁jump	-10.6455
▁investigat	-10.6455
▁tatter	-10.6455
talker	-10.6455
▁border	-10.6456
▁devote	-10.6456
▁peek	-10.6456
mbling	-10.6456
▁contain	-10.6457
▁clamor	-10.6457
▁hook	-10.6457
▁silver	-10.6458
▁zeal	-10.6459
▁unknow	-10.6459
▁vary	-10.646
▁bluster	-10.646
come	-10.646
▁drip	-10.646
righteous	-10.6461
▁order	-10.6461
▁nail	-10.6462
▁innovation	-10.6462
▁blond	-10.6462
▁didactic	-10.6462
▁cameo	-10.6463
▁peak	-10.6463
▁impli	-10.6463
▁ferr	-10.6464
▁holly	-10.6464
endous	-10.6465
scape	-10.6465
▁shim	-10.6465
▁lur	-10.6466
▁fo	-10.6466
ution	-10.6466
xx	-10.6466
belie	-10.6467
▁cutting	-10.6467
▁uncom	-10.6469
holog	-10.647
▁deser	-10.6471
▁rewrit	-10.6471
▁soft	-10.6471
▁hideous	-10.6472
▁assume	-10.6473
▁hopeless	-10.6473
▁melan	-10.6473
▁marg	-10.6473
▁tend	-10.6474
▁peril	-10.6475
▁mug	-10.6476
▁avar	-10.6477
▁mod	-10.6477
▁menac	-10.6478
▁rough	-10.648
▁clam	-10.648
▁underscor	-10.6481
▁gul	-10.6483
▁torn	-10.6483
▁resonance	-10.6483
▁palm	-10.6483
▁plagu	-10.6483
▁screw	-10.6485
▁graceful	-10.6485
atric	-10.6486
▁sorrow	-10.6487
▁spring	-10.649
▁saddle	-10.6492
itz	-10.6497
define	-10.6497
▁sour	-10.6497
tail	-10.6501
▁crap	-10.6503
▁singer	-10.6503
▁dread	-10.6504
▁mir	-10.6509
ffic	-10.651
▁hur	-10.6511
▁fearless	-10.6511
orious	-10.6513
▁tree	-10.6514
rick	-10.6517
lunch	-10.652
▁flip	-10.652
▁savage	-10.652
▁mall	-10.6522
▁muddle	-10.6524
▁bur	-10.6528
▁irritating	-10.6529
▁sum	-10.6531
fig	-10.6531
▁hall	-10.6533
▁spike	-10.6535
▁pian	-10.6546
▁stan	-10.6547
▁grav	-10.6548
ijin	-10.655
amic	-10.655
jumb	-10.655
22	-10.6551
▁lane	-10.6552
▁burie	-10.6554
▁regi	-10.6556
mph	-10.6561
▁savor	-10.6565
rupt	-10.6569
▁hair	-10.6574
putting	-10.6582
▁schem	-10.6587
▁hamm	-10.6589
▁slu	-10.6596
awd	-10.6596
▁jer	-10.6597
▁choose	-10.6602
religio	-10.6606
digest	-10.6611
mask	-10.6612
▁clue	-10.6613
▁skid	-10.6617
▁piz	-10.6617
▁tickle	-10.6618
▁murk	-10.6626
chel	-10.6631
▁kissing	-10.6633
isco	-10.6636
irk	-10.6637
uster	-10.6649
▁brave	-10.6658
sack	-10.6665
▁characteristic	-10.6667
▁grind	-10.6674
▁todd	-10.6674
▁urgent	-10.668
riddle	-10.6686
▁mik	-10.6694
▁damaged	-10.6695
▁overb	-10.6711
▁flabb	-10.6714
▁repres	-10.6715
▁reminder	-10.6729
▁tit	-10.6732
thump	-10.6735
▁fir	-10.6738
genial	-10.677
▁ran	-10.6773
awk	-10.68
just	-10.6804
▁tooth	-10.6809
▁sim	-10.6824
ordinar	-10.6845
ken	-10.6863
▁cheapen	-10.6866
▁laughabl	-10.6868
▁pie	-10.6879
▁excu	-10.6896
▁eve	-10.6897
unk	-10.6899
yam	-10.6899
▁claus	-10.6901
▁rif	-10.693
▁wel	-10.6965
laud	-10.6965
▁stretch	-10.7014
▁crudit	-10.7014
▁plan	-10.7058
▁continue	-10.7063
ographical	-10.7065
ister	-10.7073
▁listen	-10.7084
▁amb	-10.713
▁admir	-10.7158
▁conde	-10.7164
▁helm	-10.7179
▁adher	-10.7189
leane	-10.72
▁east	-10.7221
spect	-10.7248
comb	-10.7274
▁shin	-10.7298
zai	-10.7299
mit	-10.7318
qua	-10.7323
▁loser	-10.7329
nny	-10.7353
roni	-10.7356
▁coll	-10.7378
allen	-10.7406
▁boom	-10.7414
▁vib	-10.7497
hump	-10.7515
▁fri	-10.7523
fil	-10.753
ritter	-10.755
rah	-10.7596
▁colli	-10.7603
▁chai	-10.7619
▁challenge	-10.7664
rudge	-10.7686
▁explore	-10.7694
▁dani	-10.7729
▁provoke	-10.7731
cc	-10.7743
▁impos	-10.775
cam	-10.7754
▁scienti	-10.7762
rom	-10.7796
▁fredd	-10.7873
lexi	-10.7898
▁bake	-10.7899
plom	-10.7975
▁practic	-10.8001
▁bruc	-10.8056
uce	-10.8182
lish	-10.8188
▁captur	-10.8299
provin	-10.8469
▁bru	-10.8508
▁drea	-10.8555
pez	-10.8595
▁prep	-10.8649
▁inju	-10.8662
▁invent	-10.8683
card	-10.8684
▁remark	-10.8688
▁tea	-10.871
icious	-10.8763
oursel	-10.8782
ja	-10.8783
ntage	-10.8904
▁dri	-10.8913
cut	-10.9014
finger	-10.9021
▁cla	-10.9027
mark	-10.9061
ffer	-10.9134
hard	-10.9139
ease	-10.9148
▁decade	-10.9152
hicken	-10.9169
determin	-10.9175
market	-10.919
rife	-10.9193
gender	-10.9199
foot	-10.9202
search	-10.9202
heav	-10.9206
▁smoo	-10.921
breath	-10.9213
forgettabl	-10.9215
▁sport	-10.9216
break	-10.9216
meaning	-10.9218
recover	-10.9219
▁clima	-10.922
concept	-10.9222
sentimental	-10.9223
bare	-10.9224
craft	-10.9224
walk	-10.9225
amus	-10.9228
pleasure	-10.9228
feeling	-10.9229
flu	-10.9229
family	-10.9231
through	-10.9233
decent	-10.9233
dress	-10.9235
well	-10.9236
comedy	-10.9247
film	-10.9255
bright	-10.926
▁eleg	-10.9275
save	-10.9289
inner	-10.9314
music	-10.9315
mov	-10.9321
solution	-10.9326
▁rac	-10.935
lution	-10.9352
udent	-10.9354
▁geni	-10.937
construct	-10.9389
ub	-10.9395
▁199	-10.9428
▁plac	-10.9433
▁join	-10.944
▁irre	-10.9442
driv	-10.948
reduc	-10.9496
loc	-10.9546
▁brav	-10.9558
fill	-10.9572
▁consisten	-10.9575
▁eloquen	-10.9576
▁harr	-10.958
nominat	-10.9596
wear	-10.9609
▁captivat	-10.961
▁astonish	-10.9617
▁refresh	-10.9621
▁cul	-10.9628
▁raf	-10.9629
plo	-10.9632
gger	-10.9633
▁stu	-10.9654
▁competi	-10.9661
▁quali	-10.967
▁vibran	-10.9671
▁loose	-10.9679
▁hug	-10.9684
▁conven	-10.9685
eeming	-10.9688
▁icono	-10.969
▁plast	-10.9695
umbing	-10.9695
▁fro	-10.9712
▁doug	-10.9713
urgeo	-10.9716
▁emb	-10.9729
difference	-10.9734
▁critic	-10.9739
itive	-10.9739
▁emphasi	-10.9742
addle	-10.9747
assum	-10.9754
▁pho	-10.9759
▁sensu	-10.976
moto	-10.976
▁phil	-10.9766
raft	-10.9768
▁roman	-10.9768
▁accura	-10.9772
ammer	-10.9773
velop	-10.9774
▁express	-10.9774
torio	-10.9775
▁curio	-10.9775
▁psych	-10.9775
▁suspen	-10.9775
▁permi	-10.9776
q	-10.9776
warming	-10.9776
▁teenage	-10.9777
ification	-10.9777
▁compos	-10.9777
▁popula	-10.9778
▁colum	-10.9779
ourishe	-10.9779
▁mono	-10.978
▁intellect	-10.9781
▁matte	-10.9782
▁techni	-10.9782
employ	-10.9782
fecta	-10.9782
inducing	-10.9782
progress	-10.9782
▁account	-10.9782
▁bewilder	-10.9782
▁conduct	-10.9782
▁contemplat	-10.9782
▁deprav	-10.9782
▁electr	-10.9782
▁gimmick	-10.9782
▁haphazard	-10.9782
▁hitchcock	-10.9782
▁infectious	-10.9782
▁ingredient	-10.9782
▁megaplex	-10.9782
▁meticulous	-10.9782
▁opportunis	-10.9782
▁opposite	-10.9782
▁principal	-10.9782
▁profundit	-10.9782
▁recognizabl	-10.9782
▁rejigger	-10.9782
▁resurrecti	-10.9782
▁sabotage	-10.9782
▁strict	-10.9782
▁stultifying	-10.9782
▁unapologetic	-10.9782
▁volume	-10.9782
grub	-10.9782
▁brazen	-10.9782
▁elicit	-10.9782
▁indisp	-10.9782
▁corrupt	-10.9782
▁europe	-10.9782
▁pepper	-10.9782
▁proficien	-10.9782
▁scrutin	-10.9782
▁tissue	-10.9782
▁groan	-10.9782
▁omni	-10.9782
▁bolster	-10.9782
▁marginal	-10.9782
▁pluck	-10.9782
▁pregnan	-10.9782
centric	-10.9782
▁leap	-10.9782
▁crystal	-10.9782
▁leather	-10.9782
▁limb	-10.9782
▁anonym	-10.9783
▁rampant	-10.9783
▁specific	-10.9783
▁terminal	-10.9783
prise	-10.9783
▁wistful	-10.9783
▁slash	-10.9783
▁astron	-10.9783
▁molest	-10.9783
▁compen	-10.9783
▁griffi	-10.9783
▁jealous	-10.9783
fasci	-10.9783
▁subtitle	-10.9783
▁amoral	-10.9783
▁schtick	-10.9783
▁waltz	-10.9783
▁amaze	-10.9783
▁illogic	-10.9783
▁paean	-10.9783
▁nicol	-10.9783
▁tendenc	-10.9783
▁drow	-10.9783
rgot	-10.9783
▁accuse	-10.9783
▁tailor	-10.9783
▁discern	-10.9783
▁publish	-10.9783
▁chord	-10.9783
▁pupp	-10.9783
▁telegra	-10.9783
▁surve	-10.9783
mercial	-10.9783
wanna	-10.9784
▁terrorist	-10.9784
▁hysteri	-10.9784
▁grasp	-10.9784
▁nurse	-10.9784
▁dramatiz	-10.9784
▁retro	-10.9784
▁pitiful	-10.9784
▁info	-10.9785
adorn	-10.9785
▁control	-10.9785
colat	-10.9785
trott	-10.9785
▁glamo	-10.9785
▁julia	-10.9785
▁yawn	-10.9785
▁napol	-10.9786
▁heavyweight	-10.9786
▁immatur	-10.9786
▁bartle	-10.9786
▁cloying	-10.9786
▁revers	-10.9786
ggie	-10.9786
timid	-10.9786
▁combusti	-10.9786
▁smash	-10.9787
▁stagger	-10.9787
▁reef	-10.9787
▁smok	-10.9787
▁engine	-10.9787
▁fumble	-10.9787
▁ventur	-10.9787
▁rigid	-10.9788
tute	-10.9788
oque	-10.9788
▁explode	-10.9789
▁splatter	-10.9789
▁range	-10.9789
▁quest	-10.9789
damm	-10.9789
drift	-10.979
▁attack	-10.979
▁claw	-10.979
▁garner	-10.979
▁punchline	-10.9791
▁disease	-10.9791
▁civil	-10.9791
▁collective	-10.9791
▁brook	-10.9792
▁ballistic	-10.9793
▁moth	-10.9794
▁revision	-10.9794
▁admitted	-10.9794
▁aisle	-10.9794
ulin	-10.9795
▁acknowledg	-10.9796
inflate	-10.9796
▁marri	-10.9796
▁ambi	-10.9797
▁greas	-10.9797
▁christian	-10.9797
▁threaten	-10.9797
▁veil	-10.9798
▁criticiz	-10.9798
▁borrow	-10.9798
logue	-10.9799
igate	-10.9799
▁tax	-10.9799
▁philip	-10.9799
▁resona	-10.9799
▁encourage	-10.98
▁seduc	-10.9801
▁intro	-10.9801
▁flopp	-10.9801
▁negat	-10.9801
▁punish	-10.9802
▁reci	-10.9803
▁specta	-10.9803
▁deny	-10.9803
▁shag	-10.9803
▁maze	-10.9804
▁cub	-10.9806
▁smear	-10.9807
▁invest	-10.9807
▁circle	-10.9807
orgas	-10.9808
ennes	-10.9809
▁distract	-10.9809
▁fourth	-10.9813
▁accompan	-10.9814
▁humili	-10.9814
plin	-10.9816
▁gray	-10.9818
russel	-10.9824
▁kur	-10.9827
▁decisive	-10.9827
▁rout	-10.9827
▁jock	-10.9831
▁harv	-10.9832
▁skillful	-10.9832
geri	-10.9834
hig	-10.9837
gnific	-10.9842
▁sneer	-10.9846
prem	-10.9846
▁lap	-10.9847
plete	-10.9847
▁tele	-10.9847
▁vig	-10.9849
▁enact	-10.9849
▁generation	-10.9854
ré	-10.9859
▁harris	-10.9859
▁preach	-10.9861
▁nav	-10.9866
frost	-10.9867
israeli	-10.9869
▁overco	-10.9871
ordan	-10.9871
▁civi	-10.9873
angel	-10.9878
▁idealis	-10.988
cenc	-10.988
▁slog	-10.9884
▁mom	-10.9886
dolph	-10.9886
▁esc	-10.9892
nau	-10.9894
▁cock	-10.9899
▁luci	-10.99
▁placi	-10.9906
▁serr	-10.9906
▁rape	-10.9909
bum	-10.9918
orize	-10.9935
llid	-10.994
▁basic	-10.9941
rk	-10.9941
▁veris	-10.995
▁soli	-10.9961
▁pb	-10.9961
▁adorabl	-10.9968
ierc	-10.9976
randa	-10.9988
gage	-10.9989
▁jell	-10.9992
▁butterf	-11.0011
hooting	-11.0012
▁slop	-11.0016
stine	-11.0026
stimulat	-11.0028
imps	-11.0037
numer	-11.0038
bio	-11.005
schw	-11.0051
▁seller	-11.0059
▁rolli	-11.006
mbie	-11.0062
hill	-11.0068
▁tunne	-11.0073
▁cran	-11.0091
▁undertak	-11.0095
▁bogg	-11.0097
▁flak	-11.01
fuel	-11.012
▁sna	-11.0122
liar	-11.0124
usp	-11.0141
▁incl	-11.017
enni	-11.0171
▁mib	-11.0185
▁machi	-11.0211
aden	-11.022
▁fighter	-11.0251
vating	-11.0263
porn	-11.0264
chae	-11.0266
mulle	-11.0269
▁unpa	-11.027
▁bil	-11.0272
ctor	-11.0296
▁ingenu	-11.0307
guil	-11.0352
swallo	-11.0422
hool	-11.0429
versi	-11.0439
maid	-11.0506
▁freu	-11.0519
roa	-11.0534
▁requir	-11.0578
sync	-11.0623
▁dragg	-11.0669
▁handi	-11.0721
ncent	-11.0753
jam	-11.0757
rmon	-11.0758
fred	-11.0794
truck	-11.081
napping	-11.0819
▁importan	-11.0843
lick	-11.0873
▁gap	-11.0883
bidde	-11.1004
▁perm	-11.1146
▁pai	-11.1146
producti	-11.1191
rope	-11.1248
▁fuse	-11.1475
pti	-11.1498
▁dub	-11.1535
effects	-11.1545
leak	-11.1574
▁stuffi	-11.1684
▁delin	-11.1727
▁entit	-11.1772
▁slapp	-11.1851
▁devo	-11.1879
▁presen	-11.1879
dard	-11.1954
▁existen	-11.1981
▁innovat	-11.206
▁surf	-11.2074
azi	-11.2123
▁conjur	-11.2174
aro	-11.2185
doles	-11.2198
awar	-11.222
lip	-11.2241
▁impuls	-11.2364
▁balanc	-11.2553
▁broo	-11.256
fensi	-11.2584
leash	-11.2615
▁ensu	-11.2791
▁import	-11.301
▁predic	-11.309
▁lazie	-11.3142
rash	-11.3186
inciden	-11.3211
appearing	-11.3295
▁shri	-11.3405
ooze	-11.3448
▁crud	-11.3478
▁collaborati	-11.3485
▁biograph	-11.3522
9	-11.3563
▁respon	-11.3618
mma	-11.3643
▁intima	-11.3653
reflecti	-11.3735
▁strang	-11.3759
excus	-11.3921
ordina	-11.3938
cultur	-11.408
read	-11.4082
lik	-11.4097
▁snap	-11.4145
matron	-11.4162
imagin	-11.4168
sensitivit	-11.4169
shadow	-11.4179
dispos	-11.4179
