<unk>	0
<s>	0
</s>	0
▁	-2.77657
s	-2.7992
▁.	-3.47862
,	-3.56142
▁the	-3.60453
▁a	-3.83491
▁and	-4.03712
▁of	-4.04506
-	-4.20034
ly	-4.31091
▁'	-4.32331
▁to	-4.3912
ing	-4.4192
y	-4.44134
t	-4.50225
▁is	-4.60152
ed	-4.72041
e	-4.80075
▁in	-4.81465
▁it	-4.86202
▁that	-4.87149
a	-4.93221
d	-5.0477
▁film	-5.25025
r	-5.31585
the	-5.32822
▁with	-5.33213
▁movie	-5.37296
▁but	-5.44699
▁be	-5.46083
▁for	-5.51118
it	-5.55329
l	-5.55545
▁as	-5.6253
▁an	-5.62671
▁on	-5.66291
n	-5.73033
▁its	-5.7613
▁n	-5.76538
▁you	-5.78175
▁thi	-5.80421
'	-5.82155
rb	-5.84476
er	-5.93821
▁not	-5.99763
al	-6.05306
i	-6.09251
an	-6.11024
▁by	-6.14598
▁about	-6.17316
▁are	-6.20469
▁has	-6.20831
▁-	-6.22379
▁--	-6.22655
▁more	-6.23135
▁like	-6.23939
▁one	-6.24068
o	-6.24306
es	-6.24611
▁so	-6.25983
▁than	-6.26065
▁from	-6.26886
le	-6.27794
have	-6.30474
▁all	-6.3175
if	-6.32233
▁...	-6.3268
▁his	-6.35456
in	-6.37602
c	-6.386
ch	-6.40455
m	-6.40677
▁at	-6.4073
on	-6.4231
re	-6.42826
▁`	-6.43299
ir	-6.46915
▁who	-6.48501
▁or	-6.48822
▁make	-6.50299
▁no	-6.52925
▁story	-6.57333
ve	-6.57341
b	-6.58689
▁out	-6.58742
ity	-6.58853
▁un	-6.60882
▁up	-6.62858
p	-6.63009
ce	-6.65196
able	-6.68082
▁i	-6.7135
▁most	-6.71357
`	-6.71809
▁too	-6.72424
▁into	-6.73126
▁good	-6.76035
ion	-6.76081
▁does	-6.76099
▁whi	-6.77045
▁some	-6.80171
▁will	-6.80489
one	-6.80894
▁any	-6.80938
u	-6.81257
▁can	-6.8465
thi	-6.85007
▁do	-6.85866
▁just	-6.87227
▁real	-6.88433
▁time	-6.88437
▁comedy	-6.88935
▁''	-6.8909
ness	-6.89339
en	-6.9031
▁much	-6.9102
f	-6.91638
k	-6.92949
.	-6.93253
▁he	-6.93313
se	-6.94758
▁en	-6.95115
▁see	-6.95182
▁man	-6.95855
▁what	-6.95954
out	-6.97297
▁way	-6.99196
▁characters	-7.00476
▁performance	-7.01611
age	-7.04114
ies	-7.04309
▁love	-7.04323
less	-7.04337
▁over	-7.04679
▁well	-7.04721
▁work	-7.04921
▁even	-7.0538
▁look	-7.07036
▁little	-7.08146
thing	-7.08617
ic	-7.09215
▁funny	-7.09438
▁get	-7.11891
▁your	-7.13042
g	-7.13345
▁every	-7.14517
ation	-7.14663
▁never	-7.1476
▁feel	-7.1528
▁may	-7.15795
▁p	-7.16713
very	-7.17568
▁we	-7.17602
▁us	-7.17715
w	-7.17933
▁life	-7.18651
▁go	-7.18889
ough	-7.20374
▁de	-7.20489
▁would	-7.21358
ry	-7.21821
▁been	-7.22245
th	-7.22315
▁c	-7.22416
ll	-7.23215
ther	-7.23427
▁....	-7.24856
▁bad	-7.25068
▁seem	-7.26355
or	-7.27653
▁was	-7.30008
▁director	-7.30071
▁there	-7.3047
▁through	-7.31516
▁other	-7.31617
▁new	-7.32398
▁ca	-7.32713
▁watch	-7.33319
▁best	-7.33666
▁thing	-7.33908
▁how	-7.34507
▁ra	-7.34732
▁come	-7.3515
man	-7.37217
▁her	-7.37301
▁?	-7.38798
ful	-7.39044
▁b	-7.39811
self	-7.40462
way	-7.40786
▁could	-7.40919
there	-7.41388
:	-7.43339
▁re	-7.43502
▁plot	-7.43555
▁made	-7.44302
what	-7.45427
▁action	-7.46558
▁drama	-7.46843
▁take	-7.47355
▁al	-7.48432
tic	-7.48829
ment	-7.48901
▁cast	-7.49714
▁something	-7.49764
z	-7.50242
▁long	-7.50305
▁when	-7.50654
is	-7.51086
▁should	-7.52671
▁heart	-7.52694
▁off	-7.53741
▁hard	-7.54493
ter	-7.5464
▁own	-7.55639
those	-7.56378
as	-7.56408
▁give	-7.56882
▁wo	-7.56936
ous	-7.5722
▁two	-7.57809
el	-7.58146
▁better	-7.58591
▁down	-7.59753
v	-7.59781
ting	-7.6079
us	-7.60916
▁end	-7.61401
▁character	-7.61558
▁people	-7.61773
at	-7.62862
▁first	-7.62936
▁me	-7.63401
other	-7.63429
un	-7.63551
▁show	-7.63591
▁great	-7.63618
most	-7.63895
h	-7.64233
ne	-7.64615
▁still	-7.6468
▁big	-7.65374
to	-7.65785
uch	-7.66672
no	-7.66678
ive	-7.66681
▁script	-7.66754
▁fun	-7.66831
▁moment	-7.67632
all	-7.67915
▁audience	-7.68349
and	-7.68396
▁picture	-7.68471
be	-7.69464
▁far	-7.69505
▁sense	-7.70219
▁g	-7.70348
cause	-7.71122
lso	-7.71833
▁might	-7.71996
il	-7.72701
▁ever	-7.7291
▁pre	-7.73232
▁being	-7.73858
im	-7.74042
▁them	-7.74749
for	-7.7479
but	-7.7527
ish	-7.75703
▁humor	-7.75856
ism	-7.76233
ra	-7.76395
▁laugh	-7.76566
▁find	-7.76589
▁kind	-7.76598
▁under	-7.76738
▁scene	-7.77527
▁want	-7.7757
up	-7.77986
tween	-7.78479
▁old	-7.78646
▁world	-7.78889
▁human	-7.78967
like	-7.78983
▁worth	-7.79397
▁charm	-7.80429
▁need	-7.80535
▁lot	-7.80903
▁here	-7.80947
▁lack	-7.81041
ro	-7.81324
▁point	-7.81619
▁both	-7.8203
▁few	-7.82411
though	-7.82421
ant	-7.83002
ge	-7.8442
ally	-7.84675
est	-7.85128
;	-7.85412
▁co	-7.85735
▁thriller	-7.8574
minutes	-7.85998
ur	-7.86222
ar	-7.86477
ard	-7.86517
▁often	-7.86731
▁again	-7.87486
ten	-7.88308
▁think	-7.8895
▁self	-7.88974
▁ye	-7.89024
▁turn	-7.89511
▁full	-7.89699
▁after	-7.89838
▁entertaining	-7.90001
▁live	-7.90076
ers	-7.90136
et	-7.90479
▁know	-7.90677
whi	-7.9068
quite	-7.90693
you	-7.90799
▁back	-7.90852
▁tale	-7.90879
▁were	-7.91039
men	-7.91118
▁keep	-7.91763
▁documentary	-7.91769
▁!	-7.91804
▁him	-7.91816
ck	-7.91936
ling	-7.93044
▁emotional	-7.93289
▁my	-7.93402
▁visual	-7.9341
▁screen	-7.93806
ist	-7.95563
▁art	-7.9589
ng	-7.96117
fore	-7.9662
▁hollywood	-7.96724
ul	-7.96844
▁original	-7.97034
▁ultimate	-7.97255
▁less	-7.97401
te	-7.98114
um	-8.00062
▁family	-8.00078
x	-8.00159
ent	-8.00309
▁had	-8.0122
▁bit	-8.01299
▁filmmaker	-8.01394
▁american	-8.01584
▁interesting	-8.01734
▁war	-8.01863
son	-8.02559
of	-8.02855
▁idea	-8.0287
▁high	-8.02892
▁dis	-8.03197
he	-8.03696
▁she	-8.03822
0	-8.0405
▁sp	-8.05295
▁star	-8.05488
▁romantic	-8.05821
▁k	-8.05822
director	-8.05968
▁.`	-8.06429
ate	-8.06655
▁fan	-8.07212
▁offer	-8.0732
▁right	-8.07376
▁hour	-8.07378
▁become	-8.07444
do	-8.07616
\/	-8.08369
▁piece	-8.08994
▁acting	-8.09214
▁subject	-8.09668
ren	-8.09717
▁young	-8.10039
▁year	-8.10071
▁material	-8.10984
espite	-8.10985
▁day	-8.11519
▁beautiful	-8.11994
cy	-8.12213
so	-8.12747
▁deep	-8.12821
la	-8.13465
▁dark	-8.13676
ary	-8.14041
id	-8.14296
▁dialogue	-8.15038
▁say	-8.15171
▁actors	-8.1556
with	-8.15987
me	-8.16701
co	-8.16734
▁flick	-8.16759
ious	-8.16982
not	-8.16984
ever	-8.17336
▁sweet	-8.17962
▁experience	-8.18071
▁part	-8.18223
we	-8.18341
▁child	-8.18353
by	-8.18769
▁set	-8.19102
▁h	-8.1913
▁fascinat	-8.19264
ud	-8.20283
▁place	-8.20299
▁wors	-8.20923
▁where	-8.21327
▁half	-8.21443
time	-8.21935
▁cinema	-8.22119
ie	-8.22172
sh	-8.22537
▁manage	-8.22538
▁our	-8.226
▁music	-8.23432
▁simpl	-8.23595
ble	-8.23665
▁matter	-8.23689
ag	-8.2396
▁leas	-8.24025
▁compelling	-8.24027
▁enjoy	-8.24175
▁making	-8.25084
▁problem	-8.25192
▁short	-8.25195
ily	-8.25515
▁surprising	-8.25925
mise	-8.25951
▁ma	-8.26065
▁con	-8.26146
▁comic	-8.26885
ian	-8.27145
▁tr	-8.27207
ine	-8.27952
▁pro	-8.2799
▁dull	-8.28327
go	-8.28524
even	-8.28564
▁care	-8.28676
▁leave	-8.28885
▁jo	-8.29177
▁last	-8.29356
▁same	-8.29885
▁mind	-8.29924
▁wh	-8.29935
▁direct	-8.30492
▁certain	-8.30571
▁near	-8.30698
▁m	-8.30988
bo	-8.31411
▁clever	-8.31493
▁style	-8.31531
▁special	-8.31599
day	-8.31732
▁light	-8.31811
em	-8.32524
▁feature	-8.32562
ty	-8.32748
▁play	-8.32789
▁years	-8.32805
▁actual	-8.33135
▁final	-8.33158
▁direction	-8.33254
▁mov	-8.33674
▁power	-8.33841
▁start	-8.34772
▁ro	-8.34927
▁sad	-8.35227
end	-8.36139
de	-8.36357
▁car	-8.36436
ke	-8.36455
ize	-8.36653
▁low	-8.36981
▁did	-8.37297
▁kids	-8.3755
na	-8.37756
▁rare	-8.37829
▁since	-8.38053
mer	-8.3808
▁fail	-8.3875
some	-8.39175
▁perfect	-8.39292
▁together	-8.3955
ia	-8.39646
▁strong	-8.39972
istic	-8.40216
▁interest	-8.40565
lin	-8.40726
▁though	-8.40919
▁whole	-8.41287
▁wild	-8.41328
▁energ	-8.41543
once	-8.41576
▁effect	-8.41712
▁melodrama	-8.41758
▁three	-8.41758
stead	-8.41759
▁talent	-8.41764
▁screenplay	-8.41777
▁prett	-8.41827
ance	-8.41887
▁viewer	-8.42054
▁sure	-8.42141
▁tell	-8.42142
▁j	-8.42366
▁put	-8.43055
▁genre	-8.43577
▁title	-8.4358
▁memor	-8.43609
ot	-8.43716
▁face	-8.4388
▁seri	-8.44085
▁histor	-8.4453
ated	-8.44576
▁video	-8.44613
▁sometime	-8.44632
▁ho	-8.44829
▁times	-8.45227
hing	-8.45413
ma	-8.46006
▁serious	-8.46165
▁works	-8.46328
ph	-8.46825
▁predictabl	-8.46865
ure	-8.46966
▁bi	-8.47035
▁effort	-8.47222
around	-8.47315
▁entertainment	-8.47328
▁pl	-8.47369
▁eye	-8.4738
▁los	-8.47797
▁sex	-8.4839
▁act	-8.48631
▁run	-8.48676
▁w	-8.4897
▁pe	-8.49052
pe	-8.49354
each	-8.49432
lo	-8.49765
▁sta	-8.50035
ig	-8.50902
▁da	-8.50915
▁guy	-8.51202
▁image	-8.51245
▁fall	-8.51331
▁narrative	-8.51406
▁smart	-8.51902
ca	-8.52163
▁familiar	-8.52199
▁mean	-8.52594
2	-8.53011
special	-8.53066
▁deliver	-8.53067
▁true	-8.5313
probabl	-8.53188
▁engaging	-8.53199
▁complete	-8.53201
▁prove	-8.53617
▁fine	-8.5372
▁spirit	-8.54478
▁fl	-8.54537
ical	-8.54619
mon	-8.54971
▁call	-8.55022
▁entire	-8.5524
▁flaw	-8.5524
▁lead	-8.55246
▁use	-8.55339
▁dramatic	-8.5551
min	-8.5582
▁bu	-8.55823
▁cinematic	-8.56086
▁rich	-8.5637
▁mo	-8.57066
easy	-8.57136
▁writer	-8.57272
▁attempt	-8.57323
▁quirk	-8.57323
▁odd	-8.57328
▁silly	-8.57338
▁twist	-8.57366
▁fair	-8.57377
▁message	-8.5741
▁head	-8.57513
▁home	-8.57517
cu	-8.57768
▁hit	-8.57801
▁done	-8.57838
▁v	-8.57956
▁hand	-8.58116
▁close	-8.58118
▁stud	-8.5838
▁coming	-8.58434
iness	-8.58571
▁create	-8.59249
▁portrait	-8.59451
▁fresh	-8.59452
▁line	-8.59471
▁theater	-8.5956
▁obvious	-8.5981
ither	-8.60082
▁sub	-8.60362
▁strange	-8.60371
▁stor	-8.60539
▁shot	-8.61039
▁exercise	-8.61625
▁particular	-8.61625
▁level	-8.61625
▁crime	-8.61643
▁flat	-8.6179
▁modern	-8.61994
musing	-8.62032
▁bor	-8.62179
▁boy	-8.625
▁cr	-8.62603
▁mess	-8.62639
off	-8.62912
▁stand	-8.63302
am	-8.63454
ab	-8.63531
▁teen	-8.63647
▁remain	-8.63847
▁romance	-8.63847
▁word	-8.63857
▁else	-8.63873
▁powerful	-8.63932
▁past	-8.63967
ho	-8.64001
▁warm	-8.64171
▁culture	-8.64374
▁trying	-8.64433
▁opera	-8.64497
mo	-8.64746
con	-8.64761
▁dead	-8.64834
ory	-8.65085
▁book	-8.65304
▁di	-8.65405
line	-8.65478
how	-8.65876
▁bring	-8.65917
▁suspense	-8.66119
▁honest	-8.6612
▁version	-8.66125
▁solid	-8.66175
▁must	-8.66176
▁reason	-8.66475
▁classic	-8.66576
▁side	-8.66835
hop	-8.67036
1	-8.67074
▁thought	-8.67667
▁late	-8.67833
▁com	-8.67993
▁cliche	-8.68004
▁pa	-8.68174
fer	-8.6838
▁horror	-8.68445
▁small	-8.68447
j	-8.68493
ged	-8.6862
▁clear	-8.68802
ial	-8.68853
▁clich	-8.68888
gra	-8.68965
▁formula	-8.68995
▁sea	-8.69243
▁count	-8.69456
minute	-8.69464
▁ending	-8.69864
tion	-8.70167
▁vi	-8.70481
▁19	-8.70813
▁relationship	-8.70826
▁sequel	-8.70826
▁surprise	-8.70826
▁quiet	-8.70828
▁treat	-8.70829
▁black	-8.70867
aid	-8.71466
▁nor	-8.71819
▁la	-8.72027
▁goe	-8.72096
▁mar	-8.72424
▁let	-8.72902
▁miss	-8.73101
▁ha	-8.73122
▁french	-8.73265
▁john	-8.73265
▁summer	-8.73274
▁happen	-8.73332
▁gag	-8.7341
▁slight	-8.73598
▁slow	-8.73617
▁ru	-8.73681
old	-8.73779
▁men	-8.73908
▁pop	-8.74228
▁feeling	-8.74317
▁believe	-8.7443
com	-8.75531
▁sequence	-8.75765
▁stuff	-8.75769
▁help	-8.75772
▁usual	-8.75773
▁open	-8.75844
▁br	-8.75913
▁debut	-8.75976
▁wit	-8.75976
▁moral	-8.7608
▁pleasure	-8.76251
▁remarkabl	-8.76359
ile	-8.76659
▁ex	-8.7675
▁mr	-8.76913
▁bar	-8.77056
▁fill	-8.7709
ence	-8.77369
▁actor	-8.77504
fi	-8.77546
▁tone	-8.77713
over	-8.781
▁project	-8.78329
▁myster	-8.78338
▁storytell	-8.78372
▁main	-8.78623
▁now	-8.79256
▁girl	-8.79369
where	-8.79967
wise	-8.80185
▁enjoyabl	-8.80366
▁plays	-8.80745
our	-8.80806
▁political	-8.80961
next	-8.80967
▁easi	-8.80969
om	-8.80972
▁death	-8.80982
▁game	-8.81023
▁rock	-8.81051
▁adventure	-8.81407
▁camera	-8.81422
mi	-8.81424
▁inter	-8.81509
▁intelligent	-8.81942
▁sh	-8.82764
just	-8.82945
▁kid	-8.83061
▁fact	-8.8309
ring	-8.83204
kin	-8.83456
▁fantas	-8.83591
too	-8.83617
uff	-8.83617
▁straight	-8.83663
▁result	-8.83664
▁situation	-8.83664
▁reveal	-8.83666
▁question	-8.83691
▁wonderful	-8.83719
▁sort	-8.83756
ock	-8.83806
▁mood	-8.83933
▁tru	-8.84135
ug	-8.8442
side	-8.84425
▁per	-8.84885
▁1	-8.85176
▁emotion	-8.85361
light	-8.85454
sive	-8.85888
▁detail	-8.86441
▁found	-8.86441
▁element	-8.86442
▁social	-8.86442
▁sentimental	-8.86442
▁middle	-8.86444
▁jack	-8.86477
▁dream	-8.86516
▁dumb	-8.86597
▁woman	-8.86676
▁li	-8.86678
▁ba	-8.86767
▁role	-8.8679
low	-8.86843
ven	-8.87262
ball	-8.87391
own	-8.87579
▁add	-8.87965
▁ga	-8.88129
art	-8.88183
ael	-8.88228
▁super	-8.8857
more	-8.88744
bi	-8.89108
ton	-8.89129
▁artist	-8.89215
▁already	-8.89299
▁beyond	-8.89299
▁left	-8.89299
char	-8.89328
▁ka	-8.89433
when	-8.89495
▁touch	-8.89551
▁nice	-8.8959
▁extreme	-8.89784
▁force	-8.89869
▁ja	-8.90032
ak	-8.9011
▁nei	-8.90157
▁along	-8.90334
▁dog	-8.90415
ney	-8.90446
▁break	-8.90719
▁pay	-8.9074
▁present	-8.90765
wi	-8.90891
fre	-8.91483
▁hold	-8.91971
funny	-8.92038
zing	-8.92067
▁quick	-8.92241
▁traged	-8.92242
▁sound	-8.92244
▁understand	-8.92255
land	-8.92263
▁recent	-8.92304
act	-8.92374
▁ride	-8.92393
▁taste	-8.92425
year	-8.92437
▁hilarious	-8.92547
▁deserve	-8.92563
▁mark	-8.92954
▁personal	-8.93312
▁complex	-8.93353
▁event	-8.93581
ought	-8.94085
▁intelligen	-8.94149
▁tv	-8.94303
▁par	-8.94957
▁grow	-8.94959
▁dur	-8.94979
▁expect	-8.95106
▁above	-8.95276
▁animation	-8.95287
▁painful	-8.95301
▁production	-8.95329
▁provide	-8.95368
▁mich	-8.95463
▁got	-8.95665
▁brilliant	-8.9567
▁wonder	-8.95724
▁rest	-8.95833
ru	-8.9602
▁adult	-8.96198
▁satisfying	-8.96233
ible	-8.96568
▁davi	-8.9673
▁o	-8.97387
▁clo	-8.97626
ap	-8.97946
▁passion	-8.98134
▁hero	-8.98242
mor	-8.98288
▁difficult	-8.98395
▁genuine	-8.98395
▁second	-8.98395
▁weird	-8.98412
▁bland	-8.98474
▁cold	-8.9851
▁2	-8.98603
▁tries	-8.98608
▁soap	-8.98645
has	-8.98743
▁soul	-8.98837
▁brit	-8.98934
itting	-8.99149
▁case	-8.99228
every	-8.99413
try	-8.99443
making	-8.99472
▁subtle	-8.99541
cent	-8.99562
▁deal	-8.99912
ver	-8.99935
▁runn	-9.0018
ade	-9.0023
▁suffer	-9.00242
5	-9.00427
corn	-9.0062
▁hope	-9.01008
gg	-9.01039
ung	-9.01066
▁capture	-9.01339
▁follow	-9.01621
▁impossibl	-9.01622
▁appear	-9.01642
▁water	-9.01663
▁jokes	-9.01682
▁whe	-9.01694
▁name	-9.01773
▁change	-9.01839
▁large	-9.01867
mp	-9.01931
screen	-9.02028
▁satir	-9.02054
writer	-9.02107
well	-9.02267
▁allow	-9.02389
▁mere	-9.02426
▁earnest	-9.02626
ut	-9.02636
▁cut	-9.02849
ash	-9.02872
that	-9.02881
port	-9.02948
ah	-9.02979
▁waste	-9.03029
▁touching	-9.0305
told	-9.03136
▁number	-9.03273
ga	-9.03285
key	-9.04314
▁ver	-9.04675
led	-9.04686
▁potential	-9.04954
▁actress	-9.04955
▁delightful	-9.05
▁thoughtful	-9.05047
ok	-9.05172
▁pass	-9.05286
▁intriguing	-9.05299
▁occasional	-9.05524
iv	-9.0555
▁terrific	-9.05564
war	-9.05577
▁contriv	-9.05727
play	-9.05772
▁du	-9.0608
▁reality	-9.06234
pt	-9.06644
▁blood	-9.06664
▁pac	-9.06839
▁fire	-9.0705
▁mis	-9.0713
▁comedi	-9.07404
▁ii	-9.07627
▁gri	-9.0806
▁thrill	-9.08109
▁four	-9.08331
▁approach	-9.08402
▁cheap	-9.08402
▁process	-9.08403
▁draw	-9.08406
▁awful	-9.08411
▁slap	-9.08486
▁lo	-9.08489
▁different	-9.0876
▁general	-9.08856
ni	-9.08926
▁concept	-9.08991
▁pretentious	-9.08993
▁psychological	-9.08999
▁examin	-9.09054
▁parent	-9.09264
movie	-9.09353
pro	-9.0939
ze	-9.09457
▁bla	-9.09539
▁writing	-9.09622
plo	-9.09763
▁edit	-9.10323
gi	-9.10357
que	-9.10559
▁hav	-9.10704
pping	-9.10775
▁violen	-9.10823
▁op	-9.11156
etic	-9.11403
▁theme	-9.11533
▁fi	-9.11551
▁fu	-9.1195
▁robert	-9.11974
▁cartoon	-9.11974
wrong	-9.11974
▁damn	-9.11975
▁sign	-9.11976
▁post	-9.11977
▁mild	-9.11978
▁credit	-9.11979
▁vision	-9.11985
▁pull	-9.12008
▁remind	-9.12018
▁standard	-9.12039
▁truth	-9.12071
▁manner	-9.12094
▁sci	-9.12268
▁simple	-9.12368
ham	-9.12555
▁heavy	-9.12919
rous	-9.13031
his	-9.13045
▁inside	-9.13125
▁view	-9.13151
▁writ	-9.13227
▁fast	-9.13287
work	-9.13296
▁tire	-9.13298
loud	-9.13373
▁bare	-9.13429
har	-9.13549
ski	-9.13868
▁joy	-9.14022
▁filmmak	-9.14052
die	-9.14274
▁craft	-9.14325
▁appeal	-9.14438
ner	-9.14572
op	-9.14774
ler	-9.14829
sky	-9.14875
▁ko	-9.15043
▁x	-9.15283
enty	-9.1536
▁amount	-9.15677
▁gorgeous	-9.15677
▁sustain	-9.15677
▁period	-9.15677
▁monster	-9.15678
▁york	-9.15678
▁equal	-9.15679
▁10	-9.15692
▁issue	-9.15698
ill	-9.15726
▁funnie	-9.15736
▁value	-9.15738
▁single	-9.15761
▁free	-9.15764
fel	-9.15804
▁effective	-9.16158
msel	-9.16258
▁succeed	-9.16313
fac	-9.16475
▁fight	-9.1657
▁none	-9.16776
▁throw	-9.16841
▁wind	-9.17188
ja	-9.17206
▁cap	-9.17233
my	-9.17337
par	-9.17362
eck	-9.17546
▁cross	-9.17732
ane	-9.17868
▁read	-9.17968
▁sha	-9.18048
ier	-9.18261
given	-9.18307
▁drag	-9.19371
▁win	-9.19374
▁imaginati	-9.19376
qu	-9.19419
▁insight	-9.1946
▁success	-9.1946
▁fear	-9.1948
▁engross	-9.19524
budget	-9.19524
▁tedious	-9.19525
▁stupid	-9.19528
hood	-9.19529
▁novel	-9.19541
▁historical	-9.19566
▁remember	-9.1957
▁promise	-9.1959
▁begin	-9.19694
saw	-9.19856
▁thorough	-9.20185
▁cho	-9.20304
▁form	-9.20524
▁mor	-9.20541
▁happ	-9.20607
▁date	-9.20833
▁consider	-9.20987
▁thin	-9.21015
▁pol	-9.21184
▁grand	-9.21313
lip	-9.21487
beat	-9.21518
room	-9.21784
lie	-9.21878
▁hell	-9.21997
▁house	-9.22049
▁produc	-9.22108
▁nature	-9.22111
▁mi	-9.22122
gent	-9.22159
▁shock	-9.22305
▁ben	-9.22456
▁cha	-9.22678
▁class	-9.22921
▁cute	-9.2312
mas	-9.23266
unfortunate	-9.23523
▁mediocr	-9.23524
▁recommend	-9.23524
conscious	-9.23524
▁attention	-9.23524
▁journey	-9.23524
▁sexual	-9.23525
▁sharp	-9.23528
▁magic	-9.23528
▁impressive	-9.23536
friend	-9.23538
▁term	-9.23541
▁exact	-9.23544
rate	-9.23656
▁punch	-9.23717
▁goof	-9.23791
bar	-9.23857
abilit	-9.2386
ese	-9.2387
▁wait	-9.23971
uous	-9.24126
▁disney	-9.24263
per	-9.24454
▁delivers	-9.24485
▁secret	-9.24487
▁gone	-9.24516
▁fra	-9.24715
▁cool	-9.24803
▁utter	-9.25566
cross	-9.25587
▁pal	-9.25591
▁air	-9.25892
▁fit	-9.26015
▁road	-9.26164
▁wa	-9.26179
▁hu	-9.26232
▁sit	-9.26436
▁pace	-9.26699
down	-9.26764
ick	-9.26803
▁spy	-9.27312
▁grace	-9.2764
▁ambitious	-9.2769
▁oscar	-9.2769
▁unsettl	-9.2769
▁welcome	-9.2769
▁excellen	-9.27693
▁execution	-9.27694
▁90	-9.27722
▁epic	-9.27724
▁huge	-9.27727
▁unexpected	-9.2774
▁plain	-9.2777
▁figure	-9.27872
▁franc	-9.27934
spect	-9.27936
▁possible	-9.28154
▁pure	-9.2816
fashioned	-9.28221
▁audiences	-9.28288
▁vivid	-9.28413
▁career	-9.28584
▁murder	-9.28704
lly	-9.29051
tory	-9.29218
▁natural	-9.29272
▁appealing	-9.2955
▁convincing	-9.29561
▁bra	-9.29864
unch	-9.2999
good	-9.30234
life	-9.30556
▁chill	-9.30879
▁serve	-9.31034
ect	-9.31193
der	-9.31568
cher	-9.31777
▁release	-9.32039
▁spark	-9.32039
▁craz	-9.32048
▁step	-9.32049
▁gentle	-9.32052
taking	-9.32054
▁remake	-9.32086
▁frame	-9.32093
▁wish	-9.32174
▁episode	-9.32211
▁refreshing	-9.32233
▁green	-9.32235
▁creative	-9.32355
▁ri	-9.32379
▁sever	-9.32379
▁school	-9.32502
▁walk	-9.32791
rk	-9.32908
▁scary	-9.33105
▁god	-9.33251
▁brain	-9.33271
han	-9.33493
▁top	-9.33547
boy	-9.33609
▁bull	-9.33686
▁master	-9.33889
▁stage	-9.33953
▁imagine	-9.33994
lan	-9.34585
ped	-9.34677
▁9	-9.34923
watch	-9.35021
▁sav	-9.35127
▁believ	-9.35191
▁combin	-9.35219
dition	-9.35225
▁roll	-9.35735
▁ab	-9.35852
ddy	-9.359
ram	-9.35961
pur	-9.36337
▁wear	-9.36452
live	-9.36467
▁exist	-9.36471
\	-9.36583
▁behind	-9.36584
▁creepy	-9.36584
▁major	-9.36584
▁supposed	-9.36584
▁quality	-9.36584
▁couple	-9.36584
▁depth	-9.36584
rhaps	-9.36586
▁beaut	-9.36589
▁impact	-9.36592
▁flash	-9.36605
rgh	-9.36633
▁delight	-9.3665
▁fish	-9.3666
▁ugly	-9.36735
▁wall	-9.3682
▁del	-9.3683
▁tear	-9.36835
▁emerge	-9.36935
mong	-9.36962
▁mother	-9.37068
▁skin	-9.3727
evil	-9.37286
▁adaptation	-9.37389
▁ask	-9.37421
▁bear	-9.37447
▁edge	-9.37547
▁terribl	-9.37972
wan	-9.37999
▁doubt	-9.38
▁heav	-9.3802
▁mc	-9.38324
▁wise	-9.38414
▁gay	-9.38694
▁red	-9.387
qui	-9.38767
▁pack	-9.38894
▁construct	-9.38953
ley	-9.39195
▁stay	-9.39277
▁inspir	-9.39551
zen	-9.39682
semble	-9.39781
pid	-9.39796
feel	-9.39993
log	-9.40005
drama	-9.40153
▁faith	-9.40237
made	-9.40277
hic	-9.40337
▁mix	-9.40448
▁fel	-9.40923
▁america	-9.41032
mber	-9.4121
▁involv	-9.41258
▁night	-9.41261
▁battle	-9.41345
▁female	-9.41345
▁target	-9.41345
▁routine	-9.41346
▁unique	-9.41346
field	-9.41348
▁previous	-9.41355
▁convention	-9.41356
▁determin	-9.41359
▁stylish	-9.41359
▁motion	-9.4139
▁score	-9.41394
▁gross	-9.41488
▁dragon	-9.41552
▁park	-9.41564
▁bitter	-9.41575
▁diver	-9.41593
▁gun	-9.41637
▁animated	-9.41637
▁reach	-9.41673
▁test	-9.41726
▁bore	-9.41782
cat	-9.41789
▁gre	-9.42083
take	-9.42084
▁app	-9.42163
▁explor	-9.423
▁mid	-9.4231
ward	-9.42382
▁dry	-9.42474
▁move	-9.42546
gree	-9.42726
lond	-9.42763
▁poignan	-9.42833
▁grant	-9.43139
▁scar	-9.43152
▁unti	-9.43475
▁hip	-9.43757
▁cop	-9.43765
ship	-9.43935
▁total	-9.44117
▁white	-9.44165
ow	-9.44331
▁list	-9.4447
▁fe	-9.44513
▁paint	-9.4453
gui	-9.44596
right	-9.44624
▁working	-9.44948
▁20	-9.45202
after	-9.45238
mark	-9.45268
▁seat	-9.45324
▁purpose	-9.45565
dom	-9.4559
gal	-9.4577
ging	-9.45792
▁favor	-9.4634
▁delicate	-9.46345
▁opportunit	-9.46345
▁sophisticat	-9.46345
provok	-9.46346
▁challeng	-9.46346
stream	-9.46346
▁future	-9.46346
▁speak	-9.46346
▁limit	-9.46347
▁finish	-9.46348
▁tension	-9.46348
▁masterpiece	-9.46349
▁winning	-9.4635
▁empt	-9.46351
▁includ	-9.46351
▁complicat	-9.46352
▁meditati	-9.46359
▁trick	-9.4638
▁money	-9.4639
▁trouble	-9.46412
▁steven	-9.46418
▁root	-9.46425
▁successful	-9.46428
▁match	-9.4647
did	-9.46487
dict	-9.46525
▁anti	-9.46532
▁drive	-9.46665
▁creat	-9.4669
▁decent	-9.46734
▁share	-9.46737
▁uneven	-9.46807
wn	-9.47083
▁crush	-9.47217
▁sympath	-9.47223
lam	-9.47268
▁song	-9.47301
hour	-9.47519
gy	-9.47524
▁important	-9.47564
▁200	-9.47569
▁hate	-9.47596
▁definite	-9.47912
▁scor	-9.48238
▁leg	-9.48496
zy	-9.48514
cted	-9.48569
▁urban	-9.48615
chi	-9.48668
iff	-9.48798
▁dig	-9.49398
▁tu	-9.49461
witch	-9.49476
▁hot	-9.49684
▁chan	-9.50016
▁fest	-9.50084
back	-9.50784
▁excit	-9.51482
▁twi	-9.51549
▁college	-9.51609
▁concern	-9.51609
▁conflict	-9.51609
▁contemporar	-9.51609
▁design	-9.51609
▁inventive	-9.51609
▁superficial	-9.51609
▁awkward	-9.51609
▁suggest	-9.51609
▁tragic	-9.51609
hearted	-9.51609
▁build	-9.51609
▁demand	-9.51614
▁eventual	-9.51614
▁space	-9.51618
▁deft	-9.5162
▁balance	-9.51628
▁crowd	-9.5163
▁south	-9.51646
pac	-9.51664
▁hack	-9.51683
▁reward	-9.51687
▁based	-9.51743
▁state	-9.51761
▁rise	-9.51944
▁respect	-9.52095
▁sincere	-9.52135
▁absolute	-9.52165
ino	-9.52254
tract	-9.52521
▁poet	-9.52589
▁law	-9.52741
lice	-9.52792
▁burn	-9.529
▁meaning	-9.52953
▁spielberg	-9.53263
▁fur	-9.53308
▁era	-9.53559
top	-9.53752
▁camp	-9.53762
▁non	-9.53915
may	-9.54101
▁kill	-9.54109
▁room	-9.54237
▁try	-9.5456
▁apart	-9.54684
▁trip	-9.54702
▁focus	-9.54753
▁pat	-9.54774
▁ju	-9.54867
phy	-9.5513
five	-9.55545
▁cont	-9.55795
brid	-9.55944
lock	-9.56187
school	-9.56571
▁skill	-9.56581
stick	-9.56642
sweet	-9.56673
ourse	-9.568
company	-9.57031
▁wood	-9.57125
▁chemi	-9.57132
sensitive	-9.57164
▁derivative	-9.57164
▁folk	-9.57164
▁pleasant	-9.57164
▁surviv	-9.57164
▁unusual	-9.57164
distinct	-9.57164
▁provocati	-9.57164
tribute	-9.57164
▁absorb	-9.57164
▁confus	-9.57164
▁frequent	-9.57164
▁univers	-9.57165
▁voice	-9.57165
▁freak	-9.57166
▁suck	-9.57166
▁marvel	-9.57166
▁stunt	-9.57167
▁business	-9.57167
▁week	-9.57173
▁bond	-9.57175
▁chees	-9.57175
▁drug	-9.57176
▁minor	-9.57177
▁sandler	-9.57177
▁japan	-9.5718
▁answer	-9.57182
▁alien	-9.57182
▁affa	-9.57187
▁forget	-9.57188
giving	-9.57192
▁generic	-9.57216
▁father	-9.57235
▁insightful	-9.57257
▁catch	-9.57283
▁weak	-9.57339
▁thanks	-9.57365
justice	-9.57377
tar	-9.57405
▁chase	-9.57495
▁screenwriter	-9.57531
▁desperate	-9.57581
▁lu	-9.57612
▁hole	-9.5783
atic	-9.57973
▁cultur	-9.57993
head	-9.58053
▁enter	-9.58097
▁unlike	-9.58284
▁ring	-9.58362
▁carrie	-9.58369
▁im	-9.58381
▁bro	-9.58394
tale	-9.58608
hem	-9.58808
▁doing	-9.58835
iro	-9.58886
eur	-9.58933
▁rip	-9.59256
▁aver	-9.59281
▁intention	-9.5945
▁blue	-9.596
▁girls	-9.59622
▁please	-9.59704
ki	-9.59803
cover	-9.59964
rid	-9.60623
▁abilit	-9.61113
tuck	-9.61195
handed	-9.61366
eath	-9.61418
pan	-9.61585
▁hy	-9.61738
▁mill	-9.61934
▁dre	-9.6201
▁ill	-9.62054
derbe	-9.62116
rat	-9.62771
style	-9.63022
bad	-9.63027
luc	-9.63031
▁achieve	-9.63042
▁accept	-9.63046
▁accomplish	-9.63046
▁glimpse	-9.63046
▁record	-9.63046
▁strain	-9.63046
▁structure	-9.63046
▁substance	-9.63046
▁undeniabl	-9.63046
dimension	-9.63047
▁consistent	-9.63047
▁guess	-9.63047
▁metaphor	-9.63047
▁virtual	-9.63047
▁learn	-9.63047
▁slopp	-9.63047
▁require	-9.63047
▁friendship	-9.63047
▁georg	-9.63048
▁spiritual	-9.63048
▁escape	-9.63048
▁sugar	-9.63051
crack	-9.63057
▁stock	-9.63057
▁queen	-9.63058
▁intimate	-9.63061
▁gift	-9.63062
▁rivet	-9.63065
▁group	-9.63066
look	-9.63082
▁desire	-9.63086
▁modest	-9.63091
langu	-9.63102
▁return	-9.63106
▁overcome	-9.63129
▁spot	-9.63152
▁frustrating	-9.63163
▁witt	-9.63176
will	-9.63181
both	-9.63187
▁excite	-9.63191
▁realize	-9.63239
▁setting	-9.63317
ama	-9.63328
▁glor	-9.63329
▁centr	-9.63398
ival	-9.63431
▁storyline	-9.63446
▁deni	-9.6349
▁intense	-9.63592
▁depressing	-9.63622
▁maintain	-9.63673
▁tom	-9.63696
▁christ	-9.63769
ping	-9.63805
earth	-9.63841
▁aim	-9.63853
ving	-9.6386
▁except	-9.63954
▁foot	-9.64081
▁front	-9.64085
arre	-9.64107
▁poorly	-9.64381
▁bod	-9.64431
say	-9.6444
▁fiction	-9.64495
▁frida	-9.6453
allen	-9.64643
▁toward	-9.64668
▁fa	-9.64792
▁color	-9.64881
▁william	-9.64911
▁avoid	-9.65182
▁viewing	-9.65182
bod	-9.65597
▁pain	-9.65748
fri	-9.65949
▁shin	-9.65972
▁ago	-9.65997
▁joke	-9.66001
mind	-9.66106
tical	-9.66286
hang	-9.66307
▁paul	-9.66339
▁beat	-9.66353
reek	-9.66546
▁save	-9.66589
▁necessar	-9.6659
rence	-9.66643
▁studio	-9.66694
fall	-9.66811
long	-9.6685
▁bre	-9.66956
▁inde	-9.6708
▁pan	-9.67087
▁relie	-9.67114
ife	-9.67131
▁cann	-9.6719
▁mal	-9.67307
▁member	-9.67382
exploit	-9.67411
▁struggle	-9.67461
▁express	-9.67642
▁shoot	-9.68037
▁poor	-9.68052
▁lose	-9.68162
▁vari	-9.683
▁suit	-9.68577
▁offen	-9.68643
▁portray	-9.69046
▁talk	-9.69047
▁weight	-9.69105
▁person	-9.69126
▁fat	-9.69172
▁atmospher	-9.69207
▁document	-9.69237
▁triumph	-9.69252
▁incredibl	-9.69296
▁predecessor	-9.69296
▁protagonist	-9.69296
▁rhythm	-9.69296
▁spectacle	-9.69296
▁strength	-9.69296
▁typical	-9.69296
▁victim	-9.69296
▁nichol	-9.69297
▁surface	-9.69297
strict	-9.69297
▁disguise	-9.69297
▁wedding	-9.69298
bound	-9.69298
▁support	-9.69298
▁extraordinar	-9.69298
▁amazing	-9.69299
dish	-9.693
▁choice	-9.69301
▁haunt	-9.69302
▁animal	-9.69303
▁martin	-9.69303
affirm	-9.69304
cut	-9.69308
ern	-9.69311
▁living	-9.69314
▁machine	-9.69327
▁annoy	-9.69331
▁photograph	-9.69337
▁price	-9.6934
▁sports	-9.69342
▁generation	-9.69343
▁type	-9.69343
▁shake	-9.69345
▁trash	-9.69347
▁broad	-9.69355
▁colorful	-9.69364
▁imax	-9.69365
▁equi	-9.69367
noth	-9.69375
▁basic	-9.69384
▁credib	-9.69388
▁compet	-9.69392
▁inspiration	-9.69411
night	-9.69416
▁mur	-9.69416
▁breath	-9.69444
▁comment	-9.6946
▁biz	-9.69482
drum	-9.69489
▁chance	-9.69515
▁pick	-9.69531
worth	-9.69592
make	-9.69874
▁service	-9.69966
two	-9.69995
▁manipulative	-9.69998
▁pun	-9.70105
alone	-9.70207
▁highly	-9.70338
▁develop	-9.70342
teen	-9.70344
▁shallow	-9.70428
▁involved	-9.70534
▁king	-9.70539
star	-9.70566
void	-9.70699
▁shape	-9.7074
▁endear	-9.70751
▁serv	-9.70834
▁apparent	-9.70843
▁frank	-9.70843
does	-9.70854
ught	-9.71043
▁tur	-9.71168
▁sum	-9.71214
form	-9.71237
nded	-9.71731
▁discover	-9.72106
▁sand	-9.72321
▁stop	-9.72344
uring	-9.72513
lib	-9.72672
iche	-9.7281
lia	-9.72894
press	-9.73154
▁boo	-9.73479
▁moo	-9.73556
mus	-9.73801
▁fare	-9.73846
ado	-9.73953
ide	-9.7411
stein	-9.74341
zo	-9.74342
▁sho	-9.74752
▁reg	-9.74768
▁mont	-9.75084
▁jon	-9.75139
pic	-9.75387
▁considerabl	-9.75428
ried	-9.75521
nic	-9.757
▁por	-9.75816
▁shame	-9.75929
▁famili	-9.75933
▁cinematograph	-9.75963
▁surround	-9.75963
▁recycl	-9.75963
▁ghost	-9.75963
▁spook	-9.75963
▁televis	-9.75963
▁travel	-9.75963
▁villain	-9.75963
▁sight	-9.75964
▁brutal	-9.75964
▁conclusion	-9.75964
▁idio	-9.75964
▁sketch	-9.75964
▁nuance	-9.75965
▁excess	-9.75966
▁revolution	-9.75966
▁engage	-9.75969
▁cynic	-9.75973
▁kev	-9.75977
▁represent	-9.75998
▁blend	-9.76
▁tiresome	-9.76007
▁impression	-9.76017
▁observation	-9.76022
▁trapp	-9.7603
▁forgettable	-9.76053
▁gang	-9.76058
▁bright	-9.76064
▁season	-9.76094
▁smile	-9.76096
▁attraction	-9.76098
▁bow	-9.761
▁report	-9.76107
onic	-9.76141
▁expectation	-9.76148
load	-9.76182
indulgent	-9.76322
▁greatest	-9.76326
▁killer	-9.76372
▁realistic	-9.76383
▁pian	-9.76388
▁hair	-9.76452
▁notice	-9.76475
▁guilty	-9.76516
▁performer	-9.76557
weight	-9.76596
wood	-9.76601
▁fatal	-9.76613
ache	-9.7668
▁kissing	-9.76708
ultimate	-9.76728
hand	-9.76746
▁ear	-9.76777
▁stick	-9.76777
▁endless	-9.7678
▁ice	-9.76798
turn	-9.76864
▁tough	-9.76872
hold	-9.76968
▁lame	-9.77006
▁ground	-9.77148
▁essential	-9.7715
read	-9.77278
▁rev	-9.77448
▁stu	-9.7753
▁seek	-9.77567
▁grie	-9.77609
rian	-9.77629
▁exploitati	-9.7772
core	-9.77762
elling	-9.7783
▁blade	-9.77892
▁mad	-9.77929
▁van	-9.78007
▁sleep	-9.78028
▁tap	-9.78066
ior	-9.78114
much	-9.78159
▁bal	-9.78375
▁adam	-9.7862
come	-9.78844
hill	-9.78918
hy	-9.78927
▁text	-9.79055
▁aspect	-9.79298
ella	-9.79311
ump	-9.79429
▁brow	-9.79452
▁overwr	-9.79493
▁length	-9.79538
▁jam	-9.79844
hen	-9.7994
▁hear	-9.80382
▁lie	-9.80683
...	-9.81195
▁inspire	-9.81505
igni	-9.81951
▁sara	-9.82154
tial	-9.82155
▁absurd	-9.82264
real	-9.82286
rio	-9.8241
gger	-9.82851
▁computer	-9.83106
spectacular	-9.83106
▁commercial	-9.83106
▁empath	-9.83106
▁public	-9.83106
▁transcend	-9.83106
▁admirabl	-9.83106
▁amateurish	-9.83106
▁appreciate	-9.83106
▁conviction	-9.83106
▁convince	-9.83106
▁improve	-9.83106
▁perspective	-9.83106
▁pretension	-9.83106
▁societ	-9.83106
▁soundtrack	-9.83106
▁stunning	-9.83106
▁constant	-9.83106
▁horribl	-9.83106
▁scream	-9.83106
▁encounter	-9.83106
▁intellectual	-9.83106
▁shadow	-9.83106
▁ponder	-9.83106
▁relative	-9.83106
▁arrive	-9.83107
▁industr	-9.83107
▁unintentional	-9.83107
enigma	-9.83108
▁damage	-9.83108
▁scratch	-9.83109
▁poke	-9.83112
▁sister	-9.83121
▁inept	-9.83127
▁layer	-9.83127
▁check	-9.83128
assured	-9.83142
▁settle	-9.83148
▁condition	-9.83152
▁push	-9.83161
▁center	-9.83161
▁wide	-9.83179
▁source	-9.83195
▁masterful	-9.83213
philosophical	-9.83254
mination	-9.83274
▁proper	-9.83433
▁patien	-9.83438
▁nowhere	-9.83559
produc	-9.83595
luster	-9.83597
nerv	-9.83631
▁land	-9.83633
content	-9.83665
▁mile	-9.83677
▁prop	-9.83701
▁mistake	-9.83713
▁spend	-9.83739
▁flai	-9.83749
▁imp	-9.83751
▁band	-9.83763
▁spin	-9.83775
ient	-9.83791
▁rent	-9.83854
▁lee	-9.83933
▁inte	-9.84129
▁pic	-9.84149
base	-9.84214
view	-9.84315
pri	-9.84322
▁musical	-9.84327
▁lesson	-9.84388
girl	-9.84442
▁generate	-9.8451
witt	-9.8451
high	-9.8462
▁indie	-9.84731
fin	-9.84737
about	-9.84792
▁sheer	-9.848
burst	-9.84986
▁laz	-9.85029
new	-9.85336
▁male	-9.85638
▁national	-9.85944
taken	-9.86016
lf	-9.86046
ries	-9.8665
ise	-9.86799
▁decades	-9.86917
lor	-9.86951
▁promising	-9.87436
▁wash	-9.87799
▁cost	-9.87974
writ	-9.88088
cri	-9.88319
▁plott	-9.88509
nce	-9.88997
▁cla	-9.89133
amal	-9.89378
▁bag	-9.89726
▁prim	-9.89751
hat	-9.89825
▁soon	-9.89858
▁party	-9.89869
▁labor	-9.89936
▁tradition	-9.90005
q	-9.90641
▁clar	-9.90652
anta	-9.90668
ette	-9.90684
execut	-9.90793
astonishing	-9.90798
▁identity	-9.90798
▁intrigue	-9.90798
▁irritating	-9.90798
▁overwhelm	-9.90798
▁strike	-9.90798
▁striking	-9.90798
▁visceral	-9.90798
▁vulgar	-9.90798
characterization	-9.90798
▁holiday	-9.90798
▁politics	-9.90798
▁vampire	-9.90798
▁courage	-9.90799
▁stretch	-9.90799
▁profound	-9.90799
▁barbers	-9.90799
▁sapp	-9.908
▁positive	-9.908
▁explosi	-9.90801
▁destin	-9.90801
blu	-9.90801
▁gangster	-9.90802
▁swim	-9.90802
▁snow	-9.90803
▁costume	-9.90805
▁ridiculous	-9.90805
▁steal	-9.90806
▁team	-9.90808
▁vital	-9.90812
▁behavio	-9.90812
▁ordina	-9.90821
possess	-9.90827
▁indian	-9.90827
▁paper	-9.90832
▁cloying	-9.90835
▁curious	-9.90843
▁theatre	-9.90852
▁excu	-9.90868
▁development	-9.90871
▁broke	-9.90872
idden	-9.90909
▁bog	-9.90918
▁retrea	-9.9092
▁community	-9.90923
▁disast	-9.90923
▁hopeful	-9.90956
▁innocen	-9.9098
▁fantastic	-9.91017
▁harv	-9.91026
▁linger	-9.91026
▁poetic	-9.91047
▁tender	-9.91055
sai	-9.91059
▁imaginative	-9.911
▁pile	-9.91101
▁describe	-9.91176
▁superb	-9.91186
▁affecting	-9.91187
▁comedic	-9.91238
▁uncom	-9.91239
▁wry	-9.91243
▁humorous	-9.91262
grade	-9.9129
▁raise	-9.91397
▁artistic	-9.91472
▁dia	-9.915
▁sick	-9.91598
▁raw	-9.91844
stand	-9.91967
ode	-9.91979
▁authentic	-9.92181
▁difference	-9.92181
▁bold	-9.92265
▁possibl	-9.9227
▁dy	-9.92294
▁mixed	-9.92358
▁talking	-9.9241
▁send	-9.92613
faith	-9.92642
predictabl	-9.9272
▁unfold	-9.92734
together	-9.92736
beautiful	-9.92748
▁exceptional	-9.9293
▁product	-9.92932
▁chilling	-9.93116
mill	-9.9312
▁sentiment	-9.93232
▁centur	-9.93294
▁shocking	-9.93325
hai	-9.935
natured	-9.93647
▁search	-9.93853
▁elegant	-9.93869
attan	-9.93893
▁gut	-9.93966
rek	-9.93979
risk	-9.9449
▁bother	-9.94629
▁brothers	-9.94936
ator	-9.95324
▁terri	-9.95829
lid	-9.95895
here	-9.95992
valent	-9.96767
chang	-9.97428
ncy	-9.97616
▁disappoint	-9.97802
▁entertain	-9.97853
ament	-9.98049
generat	-9.98106
far	-9.98132
▁charisma	-9.98272
▁critic	-9.98373
▁persona	-9.98653
▁affection	-9.98718
valu	-9.99071
▁stomach	-9.99132
appropriate	-9.99132
current	-9.99132
schneider	-9.99132
▁bottom	-9.99132
▁conversation	-9.99132
▁embarrass	-9.99132
▁incoheren	-9.99132
▁increas	-9.99132
▁landscape	-9.99132
▁nostalgi	-9.99132
▁outrageous	-9.99132
▁relentless	-9.99132
▁similar	-9.99132
▁technical	-9.99132
▁treasure	-9.99132
▁street	-9.99132
▁showcase	-9.99132
muddle	-9.99132
▁homage	-9.99132
▁loose	-9.99132
▁choose	-9.99133
▁meandering	-9.99133
▁channel	-9.99133
▁glass	-9.99133
▁pathetic	-9.99133
▁nonsens	-9.99133
▁distance	-9.99134
▁roger	-9.99134
▁digital	-9.99135
▁yarn	-9.99135
▁proceed	-9.99138
mouth	-9.99141
reign	-9.99142
▁convey	-9.99142
▁breathtaking	-9.99144
▁ironic	-9.99148
▁angst	-9.99148
▁moviegoer	-9.99153
▁resist	-9.99166
berg	-9.99179
alyze	-9.99188
▁common	-9.99209
▁achievement	-9.99216
▁kick	-9.99225
▁rush	-9.99243
▁dr	-9.99251
ington	-9.99255
▁stir	-9.99279
▁merit	-9.99288
▁angel	-9.99289
▁market	-9.99291
▁devastating	-9.99301
▁mention	-9.99302
▁logic	-9.9931
conceiv	-9.99327
▁third	-9.99354
▁dance	-9.9936
arrow	-9.99402
fan	-9.99402
▁decided	-9.99453
▁reno	-9.99454
orient	-9.99467
▁playful	-9.99487
▁earn	-9.99494
▁gem	-9.99496
▁came	-9.99552
▁collecti	-9.99595
▁gold	-9.99621
▁lyric	-9.99645
ooper	-9.99713
▁bite	-9.99838
▁qua	-10
▁dazzl	-10.0004
▁exhilarating	-10.0004
▁sink	-10.0015
▁raci	-10.0019
▁instan	-10.0029
upper	-10.0036
▁dare	-10.0051
▁zon	-10.0054
▁woo	-10.0066
▁science	-10.0068
▁regard	-10.0069
udic	-10.0078
▁early	-10.0085
place	-10.0086
narc	-10.0086
trap	-10.0086
wo	-10.0093
whe	-10.0096
rium	-10.0109
▁graphic	-10.012
esque	-10.0126
▁disappointing	-10.0134
▁eight	-10.0134
▁depend	-10.0141
humou	-10.0145
▁inner	-10.0148
caust	-10.0148
satisfie	-10.015
original	-10.0185
member	-10.0185
than	-10.0191
forward	-10.0209
▁jud	-10.0227
tom	-10.0229
▁player	-10.0273
ender	-10.0296
wer	-10.0299
fest	-10.03
▁dud	-10.0332
▁award	-10.0337
▁violent	-10.0348
start	-10.0371
▁ya	-10.0408
hur	-10.0424
▁played	-10.0445
▁mat	-10.0465
▁leav	-10.0473
orous	-10.0477
▁presen	-10.05
9	-10.0508
▁lou	-10.0537
part	-10.0558
▁vo	-10.0592
adolescent	-10.0605
range	-10.0606
eric	-10.0622
ection	-10.0649
▁defi	-10.0675
▁drea	-10.0697
▁fashion	-10.0705
▁chris	-10.0706
▁explore	-10.0735
▁perform	-10.0741
▁demonstrat	-10.0752
▁handl	-10.0769
▁compassion	-10.0777
skip	-10.0784
▁intens	-10.079
▁commun	-10.0807
▁observ	-10.0814
knowledge	-10.0815
▁cult	-10.0817
▁despair	-10.0822
▁specific	-10.0822
▁transform	-10.0822
shakespeare	-10.0822
vibrant	-10.0822
▁baffl	-10.0822
▁eccentric	-10.0822
▁eloquent	-10.0822
▁english	-10.0822
▁establish	-10.0822
▁example	-10.0822
▁food	-10.0822
▁mesmeriz	-10.0822
▁puzzl	-10.0822
▁repetitive	-10.0822
▁unpleasant	-10.0822
evoke	-10.0822
▁confiden	-10.0822
▁revenge	-10.0822
cheek	-10.0822
▁cruel	-10.0822
▁heartbreaking	-10.0822
▁caution	-10.0822
▁measure	-10.0822
▁clima	-10.0822
▁resolut	-10.0822
pleasing	-10.0822
daughter	-10.0822
foreign	-10.0822
▁teacher	-10.0822
▁literal	-10.0823
▁rank	-10.0823
▁cheer	-10.0823
▁clean	-10.0823
▁pinoc	-10.0823
▁accent	-10.0823
▁artificial	-10.0823
▁giant	-10.0823
▁banal	-10.0823
▁italian	-10.0824
control	-10.0824
▁fro	-10.0824
▁east	-10.0824
▁christian	-10.0827
▁sober	-10.0827
▁distract	-10.0828
▁crap	-10.0829
▁hook	-10.0829
▁luck	-10.083
▁square	-10.083
pretend	-10.083
▁romp	-10.083
angle	-10.0832
▁display	-10.0832
▁uninspir	-10.0832
▁tay	-10.0837
▁integr	-10.0837
▁silli	-10.0837
▁spring	-10.0838
hanks	-10.0839
▁nerve	-10.0842
board	-10.0847
▁trifl	-10.0847
▁barry	-10.0854
letis	-10.0858
▁crisp	-10.0858
aware	-10.086
▁realiz	-10.0861
meets	-10.0861
acious	-10.0866
▁personality	-10.087
lady	-10.0872
▁bigge	-10.0875
scot	-10.0876
▁outside	-10.0879
▁lane	-10.0887
▁gar	-10.0888
aver	-10.0902
▁elect	-10.0902
action	-10.0909
▁traditional	-10.0918
▁195	-10.0919
▁auto	-10.093
laborat	-10.0943
▁manh	-10.0945
▁wave	-10.0948
▁fam	-10.0955
▁psycho	-10.0961
▁primar	-10.0966
▁compos	-10.0976
passionate	-10.098
wai	-10.0981
last	-10.1018
▁phone	-10.1019
▁rat	-10.1034
▁factor	-10.1049
▁pla	-10.1049
bul	-10.1055
nick	-10.1066
▁owe	-10.1095
▁sag	-10.1119
▁continue	-10.1122
never	-10.1145
▁reading	-10.1146
lack	-10.1169
craft	-10.1172
road	-10.1173
house	-10.1177
meaning	-10.1179
spirit	-10.1182
from	-10.1188
book	-10.1189
comedy	-10.1192
ntage	-10.1196
perfect	-10.1198
▁gradua	-10.12
put	-10.1202
▁sac	-10.1216
hard	-10.1234
who	-10.1235
pete	-10.1245
00	-10.1249
▁stereotype	-10.1304
▁pu	-10.1311
lab	-10.1311
dispos	-10.1336
atch	-10.1349
▁forgive	-10.1378
▁chick	-10.1392
▁endur	-10.1432
var	-10.1434
▁dim	-10.1445
stopp	-10.1548
lac	-10.1551
▁div	-10.1558
▁fly	-10.1588
▁blow	-10.159
ripp	-10.1607
▁topic	-10.1612
gam	-10.1625
▁reasonabl	-10.1662
ovi	-10.1709
ular	-10.1746
▁tim	-10.1756
cia	-10.1764
▁slo	-10.1771
▁screenwrit	-10.1772
▁cro	-10.178
robin	-10.1799
▁connect	-10.181
▁curio	-10.1817
▁teenage	-10.1818
▁terror	-10.182
▁surreal	-10.1822
▁introduc	-10.1822
journalis	-10.1822
▁author	-10.1822
▁benefit	-10.1822
▁captivating	-10.1822
▁depiction	-10.1822
▁dickens	-10.1822
▁exquisite	-10.1822
▁forgotten	-10.1822
▁harmless	-10.1822
▁inexplicabl	-10.1822
▁intoxicating	-10.1822
▁obnoxious	-10.1822
▁professional	-10.1822
▁succumb	-10.1822
importance	-10.1822
▁assassin	-10.1822
▁experiment	-10.1822
▁tight	-10.1822
▁uncomfortabl	-10.1822
▁iranian	-10.1822
▁evocati	-10.1822
▁spoof	-10.1822
▁technolog	-10.1822
▁precious	-10.1822
▁double	-10.1822
▁fierce	-10.1822
▁junk	-10.1822
▁dirty	-10.1822
▁erotic	-10.1822
▁pulp	-10.1822
▁definiti	-10.1822
▁escapis	-10.1822
▁blank	-10.1822
▁obsession	-10.1823
▁commit	-10.1823
▁honor	-10.1823
▁prison	-10.1823
▁admit	-10.1823
flinch	-10.1823
▁six	-10.1823
▁spell	-10.1823
▁circu	-10.1823
▁bartle	-10.1823
▁beginning	-10.1823
▁background	-10.1823
enchant	-10.1824
▁infus	-10.1824
boast	-10.1824
▁lift	-10.1825
▁string	-10.1825
▁drown	-10.1825
▁dangerous	-10.1825
▁crass	-10.1825
▁ticket	-10.1826
▁sitcom	-10.1827
▁crude	-10.1827
▁justify	-10.1828
▁border	-10.1829
▁endeavor	-10.1831
▁office	-10.1832
eke	-10.1832
▁gritt	-10.1832
ogue	-10.1833
list	-10.1834
▁handsome	-10.1834
▁thematic	-10.1835
▁movement	-10.1835
▁holo	-10.1835
▁korea	-10.184
▁plane	-10.1841
▁aimless	-10.1841
consum	-10.1844
▁forceful	-10.1847
▁colli	-10.1851
spare	-10.1851
▁nast	-10.1855
▁ego	-10.1859
boat	-10.1864
▁preachy	-10.1868
claim	-10.1869
jerk	-10.187
▁parable	-10.1872
▁carry	-10.1873
▁dv	-10.1873
▁embrace	-10.1874
▁order	-10.1877
▁chao	-10.188
▁afr	-10.1885
▁rough	-10.1885
▁styli	-10.1903
▁terrif	-10.1906
▁eat	-10.1908
gio	-10.191
▁carve	-10.1926
cale	-10.1933
▁pair	-10.1951
limp	-10.1961
nold	-10.1962
▁jer	-10.1972
▁smarter	-10.1974
▁belly	-10.2005
wrenc	-10.2007
▁smi	-10.2023
orious	-10.2024
▁shooting	-10.2035
bang	-10.2042
tech	-10.2043
▁myth	-10.2052
▁jar	-10.2063
opic	-10.2066
putting	-10.2067
▁tin	-10.2072
▁race	-10.2073
mission	-10.2077
your	-10.2083
▁copy	-10.2088
blown	-10.209
fici	-10.2118
pass	-10.2131
▁web	-10.2136
suffer	-10.2177
mme	-10.2196
went	-10.2249
▁ideal	-10.2251
pity	-10.2273
necessar	-10.228
focus	-10.2282
promising	-10.2282
video	-10.2294
devo	-10.2299
simpl	-10.2301
▁admire	-10.2339
shot	-10.2344
▁anne	-10.2352
▁entr	-10.2369
ami	-10.237
fire	-10.237
▁alleg	-10.2398
▁lau	-10.2402
▁buy	-10.2438
▁attract	-10.2439
tv	-10.2448
▁youth	-10.2454
trip	-10.2463
▁clums	-10.247
sex	-10.2502
▁dose	-10.2543
often	-10.2546
▁hi	-10.2549
still	-10.2554
▁continu	-10.2575
▁smug	-10.2582
ffe	-10.2607
▁spen	-10.2658
aliz	-10.2736
obbl	-10.2745
born	-10.2746
▁poe	-10.2751
offer	-10.2765
ctic	-10.2774
▁phon	-10.2778
▁wil	-10.279
▁kiss	-10.2818
▁vin	-10.282
▁desperat	-10.2849
atur	-10.2863
▁becom	-10.2885
gon	-10.2893
▁pow	-10.2914
lusive	-10.2922
▁quest	-10.2924
▁psycholog	-10.2932
deliberate	-10.2933
▁melanchol	-10.2933
▁sensual	-10.2933
▁accurate	-10.2933
▁adequate	-10.2933
▁ambition	-10.2933
▁categor	-10.2933
▁chuckle	-10.2933
▁clue	-10.2933
▁elevate	-10.2933
▁enthusiasm	-10.2933
▁exhaust	-10.2933
▁fool	-10.2933
▁horrifying	-10.2933
▁husband	-10.2933
▁minimal	-10.2933
▁preposterous	-10.2933
▁reference	-10.2933
▁scenario	-10.2933
▁sensibilit	-10.2933
▁significan	-10.2933
▁squander	-10.2933
▁thousand	-10.2933
▁wannabe	-10.2933
▁inevitabl	-10.2933
▁ambigu	-10.2933
▁abandon	-10.2933
▁matinee	-10.2933
▁tongue	-10.2933
▁rendered	-10.2933
numbing	-10.2933
▁bomb	-10.2933
▁demographic	-10.2933
▁screw	-10.2933
▁mixture	-10.2933
▁fault	-10.2933
▁frightening	-10.2933
▁silence	-10.2933
▁chopp	-10.2933
▁gloss	-10.2933
▁safe	-10.2934
▁advi	-10.2934
▁police	-10.2934
▁51	-10.2934
▁slick	-10.2934
mpire	-10.2934
▁bleak	-10.2934
float	-10.2934
austin	-10.2934
penetra	-10.2934
▁train	-10.2934
▁finger	-10.2934
▁theatrical	-10.2935
▁buoy	-10.2935
▁immediate	-10.2935
▁whimsical	-10.2935
wacky	-10.2935
twenty	-10.2935
▁pedest	-10.2935
ghett	-10.2935
▁interview	-10.2936
false	-10.2936
▁resonan	-10.2936
▁window	-10.2936
▁surf	-10.2937
▁warning	-10.2937
▁winner	-10.2937
▁influence	-10.2938
▁compar	-10.2939
▁documentari	-10.2939
▁receiv	-10.2939
▁15	-10.2939
▁harris	-10.294
▁lump	-10.294
▁fanci	-10.294
▁zeal	-10.2941
ibal	-10.2941
▁mike	-10.2941
contain	-10.2941
▁fake	-10.2941
▁contrivance	-10.2942
omni	-10.2942
▁corner	-10.2943
▁claus	-10.2944
▁dysfunctional	-10.2944
wallow	-10.2945
▁beast	-10.2947
▁tux	-10.2948
▁drop	-10.2948
▁resonance	-10.2948
▁revelation	-10.2949
expected	-10.2951
▁lend	-10.2951
▁schm	-10.2954
▁redeem	-10.2957
prise	-10.2957
▁cutting	-10.2958
▁precise	-10.296
▁candy	-10.296
loving	-10.2962
firm	-10.2967
▁neo	-10.2967
▁mature	-10.2969
chines	-10.2969
▁snap	-10.2971
▁buff	-10.2971
▁amused	-10.2973
▁mode	-10.2974
▁bodi	-10.2975
▁portrayal	-10.298
▁careful	-10.2983
▁witness	-10.2985
▁dub	-10.2985
▁teenager	-10.2992
▁tend	-10.3001
▁disturbing	-10.3002
nner	-10.3003
wake	-10.3004
▁marri	-10.3005
▁laughter	-10.3005
borrow	-10.301
▁cris	-10.3015
▁hamm	-10.3017
▁insulting	-10.3018
▁belong	-10.3019
▁yu	-10.3022
itude	-10.3024
▁meat	-10.3028
▁evan	-10.3039
▁slip	-10.3049
▁replac	-10.3059
▁grown	-10.3061
dense	-10.3064
▁resemble	-10.3066
aza	-10.3081
sake	-10.3084
ght	-10.3084
▁mental	-10.3109
▁objectiv	-10.3109
amid	-10.3111
donn	-10.3121
▁larger	-10.3122
uf	-10.3132
▁west	-10.3134
▁accessib	-10.3136
bust	-10.315
▁severe	-10.3168
▁icon	-10.3174
▁bone	-10.3188
▁scr	-10.3204
▁seven	-10.3233
talker	-10.3243
expression	-10.3245
▁distinguish	-10.3287
ijin	-10.3293
▁smoo	-10.3298
posit	-10.3302
▁celebrate	-10.3315
ville	-10.3321
▁sour	-10.3322
▁199	-10.3335
older	-10.3363
hum	-10.3373
▁sell	-10.3375
maid	-10.3387
vern	-10.3452
near	-10.3458
▁daw	-10.3486
addle	-10.3495
wh	-10.3501
cann	-10.3508
hip	-10.3518
length	-10.3527
paul	-10.3532
▁decade	-10.3534
construct	-10.3535
direct	-10.3538
blood	-10.3539
number	-10.3539
familiar	-10.3543
half	-10.3545
american	-10.3546
visual	-10.3546
would	-10.3548
smart	-10.3549
break	-10.3558
sometime	-10.3564
surprising	-10.3566
offen	-10.3571
piece	-10.3571
human	-10.3573
▁brother	-10.3573
kill	-10.3594
cope	-10.3604
anger	-10.3608
▁reli	-10.3615
fill	-10.3619
comprehensi	-10.3655
ben	-10.3703
▁gore	-10.3709
gin	-10.3729
mel	-10.3752
▁dro	-10.3754
rare	-10.3787
▁smooth	-10.3798
▁starr	-10.3801
▁urgen	-10.3847
cue	-10.3859
wear	-10.3868
oldi	-10.387
loc	-10.3885
brav	-10.3887
xx	-10.3904
▁gener	-10.3911
▁pete	-10.392
▁extra	-10.3934
ilty	-10.3994
deserv	-10.4042
▁cell	-10.4045
▁reflect	-10.4047
▁depress	-10.4075
▁creativ	-10.4104
▁tast	-10.4108
▁collect	-10.4115
▁flow	-10.414
hallowe	-10.4179
taneous	-10.4179
▁narrat	-10.418
cipher	-10.4183
▁sensational	-10.4183
▁chabrol	-10.4183
▁conduct	-10.4183
▁contradict	-10.4183
▁dynamic	-10.4183
▁education	-10.4183
▁enormous	-10.4183
▁enthrall	-10.4183
▁guarantee	-10.4183
▁intricate	-10.4183
▁metropoli	-10.4183
▁peculiar	-10.4183
▁possibilit	-10.4183
▁praise	-10.4183
▁private	-10.4183
▁stilted	-10.4183
▁stumble	-10.4183
▁sudden	-10.4183
▁vietnam	-10.4183
▁academ	-10.4183
▁hallmark	-10.4183
▁repeated	-10.4183
▁unabashed	-10.4183
▁unimaginative	-10.4183
▁comparison	-10.4183
▁comfortabl	-10.4183
▁relevan	-10.4183
▁remote	-10.4183
▁tackl	-10.4183
▁casual	-10.4183
▁existential	-10.4183
▁threat	-10.4183
collapse	-10.4183
▁mechanic	-10.4183
▁dreadful	-10.4183
▁exotic	-10.4183
▁reduce	-10.4183
▁scatter	-10.4183
▁silver	-10.4183
▁physical	-10.4183
▁dismiss	-10.4183
trailer	-10.4184
translat	-10.4184
thumb	-10.4184
▁account	-10.4184
▁redundan	-10.4184
▁jew	-10.4184
▁literar	-10.4184
▁peek	-10.4184
▁irony	-10.4184
▁stylistic	-10.4184
hugh	-10.4184
▁western	-10.4184
raffi	-10.4185
▁box	-10.4185
empower	-10.4186
▁understate	-10.4186
▁shift	-10.4186
orrow	-10.4187
jacqu	-10.4187
joint	-10.4187
▁spite	-10.4187
▁alternate	-10.4187
▁mush	-10.4188
▁fellow	-10.4189
▁jolt	-10.4189
▁imitation	-10.4189
▁grab	-10.4189
▁creature	-10.4189
▁kiddie	-10.419
▁improbabl	-10.4191
eudo	-10.4191
▁gender	-10.4191
▁jump	-10.4191
▁payoff	-10.4192
merci	-10.4193
quent	-10.4194
▁neat	-10.4195
▁luna	-10.4196
▁partner	-10.4196
▁review	-10.4196
▁100	-10.4198
▁bullet	-10.4199
▁daring	-10.4199
▁connection	-10.4199
snip	-10.4201
▁shameless	-10.4201
▁mira	-10.4201
▁gro	-10.4203
▁murk	-10.4204
▁hype	-10.4204
▁raunch	-10.4206
▁insane	-10.4206
scooby	-10.4207
▁hann	-10.4209
▁juic	-10.4209
▁prefer	-10.4211
brook	-10.4215
▁jim	-10.4216
▁creation	-10.4216
▁revelat	-10.4218
▁stone	-10.4218
▁walt	-10.422
ganda	-10.4225
julie	-10.4226
▁torture	-10.423
▁extend	-10.4231
▁blast	-10.4233
▁slack	-10.4238
profil	-10.424
utter	-10.4245
▁effortless	-10.4249
▁bigger	-10.4261
enni	-10.4268
▁likabl	-10.4268
▁tho	-10.4281
▁ruin	-10.4287
ux	-10.4298
ickle	-10.431
▁cock	-10.4316
charismatic	-10.4317
truck	-10.4325
▁vap	-10.4334
▁absurdit	-10.4337
cap	-10.4354
▁parad	-10.4356
tchie	-10.4361
max	-10.4367
▁fate	-10.4379
▁garb	-10.438
▁unfor	-10.4394
leigh	-10.4396
ddle	-10.44
▁refus	-10.4405
▁grim	-10.4421
rvin	-10.4433
pool	-10.4452
responsib	-10.4463
can	-10.4466
▁fee	-10.4479
inent	-10.4502
lph	-10.4515
50	-10.4525
flop	-10.4546
▁bath	-10.4549
▁urge	-10.4563
▁tick	-10.4599
▁supp	-10.4602
▁assembl	-10.4604
china	-10.4623
ears	-10.4626
bber	-10.4626
wilder	-10.4647
witless	-10.4688
▁boom	-10.4697
▁varie	-10.4697
nette	-10.4717
llow	-10.4733
▁leon	-10.4744
▁mol	-10.4777
chou	-10.4781
▁mut	-10.4786
rara	-10.4875
inder	-10.4892
▁loneli	-10.4912
text	-10.4957
certain	-10.4957
joke	-10.4959
please	-10.496
inspir	-10.4961
imagine	-10.4964
urban	-10.4965
convincing	-10.4965
power	-10.497
hollywood	-10.4975
world	-10.4975
first	-10.4976
19	-10.4977
film	-10.4979
pack	-10.4979
discover	-10.4984
dead	-10.4987
wash	-10.499
brow	-10.4994
master	-10.5005
▁improvis	-10.5006
white	-10.5024
rich	-10.5027
▁complexit	-10.5058
▁haw	-10.5089
vention	-10.5117
heard	-10.5127
▁featur	-10.5127
latter	-10.5144
▁celebrat	-10.5144
strange	-10.5206
pola	-10.5241
▁pie	-10.5245
lash	-10.5352
count	-10.5353
▁refuse	-10.5362
▁soft	-10.5367
▁satiric	-10.5413
expos	-10.5447
ological	-10.5465
bear	-10.5488
▁guilt	-10.549
▁slee	-10.5546
▁arm	-10.5553
▁philosoph	-10.5581
▁decepti	-10.5594
▁impress	-10.5598
▁artific	-10.561
▁magnifi	-10.5612
▁redempti	-10.5612
excruciating	-10.5612
impeccabl	-10.5612
rodrigue	-10.5612
▁argue	-10.5612
▁argument	-10.5612
▁backdrop	-10.5612
▁blockbuster	-10.5612
▁club	-10.5612
▁complain	-10.5612
▁conspirac	-10.5612
▁controvers	-10.5612
▁explain	-10.5612
▁inconsisten	-10.5612
▁individual	-10.5612
▁instinct	-10.5612
▁irresistibl	-10.5612
▁jealous	-10.5612
▁obligat	-10.5612
▁squeeze	-10.5612
▁virtue	-10.5612
aggressive	-10.5612
league	-10.5612
▁convolut	-10.5612
▁employ	-10.5612
▁environment	-10.5612
▁inherent	-10.5612
▁intermittent	-10.5612
▁nightmare	-10.5612
▁solemn	-10.5612
▁transport	-10.5612
▁triangle	-10.5612
▁venture	-10.5612
corporate	-10.5612
▁fluid	-10.5612
▁paranoi	-10.5612
▁subculture	-10.5612
▁sweep	-10.5612
▁brief	-10.5612
▁drink	-10.5612
▁expens	-10.5612
▁marginal	-10.5612
▁african	-10.5612
▁hopkins	-10.5612
▁perverse	-10.5612
▁teeth	-10.5612
▁convenien	-10.5612
▁subplot	-10.5612
drunk	-10.5612
▁ingenious	-10.5612
▁random	-10.5612
▁stitch	-10.5612
▁recreat	-10.5612
▁spike	-10.5612
▁illuminat	-10.5612
▁alternative	-10.5612
concert	-10.5612
▁eviden	-10.5612
▁attitude	-10.5612
▁pathos	-10.5612
▁built	-10.5612
▁german	-10.5612
cisive	-10.5612
▁coheren	-10.5612
▁grasp	-10.5612
achron	-10.5613
resident	-10.5613
▁bridge	-10.5613
▁location	-10.5613
▁bank	-10.5613
▁consequence	-10.5613
▁tarant	-10.5613
▁ballistic	-10.5613
▁wound	-10.5613
▁unbearabl	-10.5613
▁liberati	-10.5613
▁confront	-10.5613
▁stink	-10.5613
impost	-10.5613
▁admitted	-10.5614
▁morning	-10.5614
▁derive	-10.5614
▁diversion	-10.5614
▁popular	-10.5615
▁grating	-10.5615
▁wrapp	-10.5615
▁frustration	-10.5615
▁cheat	-10.5615
▁trite	-10.5615
▁splash	-10.5616
▁verbal	-10.5616
▁arrest	-10.5616
▁yearning	-10.5617
servati	-10.5617
▁cohesi	-10.5618
▁rehash	-10.5618
▁innovati	-10.5618
▁hint	-10.5618
▁semi	-10.5618
▁religio	-10.5618
▁abuse	-10.5619
▁hide	-10.5619
▁lush	-10.562
▁21	-10.5622
▁debat	-10.5622
▁disappointment	-10.5623
▁swing	-10.5626
satisfact	-10.5626
progress	-10.5627
▁uncertain	-10.5628
▁jess	-10.5633
▁genial	-10.5634
▁recover	-10.5634
▁student	-10.5634
▁tele	-10.5635
▁rapid	-10.5635
▁dana	-10.5635
▁graceful	-10.5636
▁clash	-10.5638
dium	-10.5639
▁listen	-10.5649
▁dust	-10.5653
atric	-10.5655
▁substitute	-10.5656
▁rela	-10.5657
▁soulless	-10.5658
▁smok	-10.5666
▁trust	-10.5674
▁fizz	-10.5678
▁menac	-10.5684
▁strip	-10.5687
▁dope	-10.5708
▁hyper	-10.5715
demonstrate	-10.5726
▁roh	-10.573
bros	-10.5735
sumpt	-10.5736
▁harr	-10.5743
▁cub	-10.5743
rice	-10.5746
▁dani	-10.5748
lilo	-10.5753
▁reel	-10.5758
ympto	-10.5764
iac	-10.5792
igan	-10.5798
▁aching	-10.5799
nova	-10.5813
skillful	-10.5821
▁salt	-10.5835
blue	-10.5913
format	-10.5917
porn	-10.5921
▁sunda	-10.5922
▁provid	-10.5929
▁capabl	-10.5958
▁rollerb	-10.5977
▁dum	-10.5978
▁mass	-10.6
▁paradi	-10.6009
▁beach	-10.6009
brand	-10.6012
lik	-10.6021
bilit	-10.6042
▁essen	-10.6056
split	-10.6069
combine	-10.6077
evolve	-10.6153
kov	-10.6164
▁schw	-10.6183
▁emphasize	-10.6216
▁clumsi	-10.6251
helm	-10.6272
pulsive	-10.6274
rote	-10.6279
digre	-10.6317
jon	-10.6319
torn	-10.6355
▁arc	-10.6472
▁devi	-10.6503
▁heat	-10.6507
mov	-10.6522
talk	-10.6584
▁sacrific	-10.6587
intention	-10.6613
elegant	-10.6619
search	-10.662
national	-10.6624
cultur	-10.6626
adam	-10.6627
natural	-10.6632
cinematic	-10.6639
camp	-10.6642
deep	-10.6642
could	-10.6643
child	-10.6644
think	-10.6644
little	-10.6644
through	-10.6644
davi	-10.6645
present	-10.6653
heav	-10.6657
kids	-10.666
serious	-10.666
▁nai	-10.6689
eander	-10.6706
▁mam	-10.672
bring	-10.6764
▁duk	-10.677
grant	-10.678
true	-10.6783
▁gel	-10.6897
▁illustrate	-10.6995
▁psych	-10.7018
bodie	-10.7044
▁12	-10.7046
odge	-10.708
eeming	-10.7094
pop	-10.7108
earing	-10.7108
▁pleasur	-10.7116
▁eva	-10.7123
▁respectabl	-10.7143
ange	-10.7145
▁exception	-10.715
▁insult	-10.7151
ification	-10.7163
weave	-10.7191
▁unlik	-10.7211
▁decide	-10.7212
▁lust	-10.7212
▁uneas	-10.724
▁feat	-10.7242
tured	-10.7244
hekh	-10.7244
▁photo	-10.7267
alternat	-10.7273
▁intima	-10.7274
▁eleg	-10.7276
▁hilar	-10.7276
consequen	-10.7278
▁sanctimon	-10.7279
▁neighbor	-10.7279
australia	-10.7279
catholic	-10.7279
fabric	-10.7279
feardotcom	-10.7279
hibit	-10.7279
obstacle	-10.7279
sensitivit	-10.7279
▁aspiration	-10.7279
▁bruckheimer	-10.7279
▁calculat	-10.7279
▁chronicle	-10.7279
▁conjure	-10.7279
▁emphasis	-10.7279
▁exaggerat	-10.7279
▁extravaganza	-10.7279
▁flavor	-10.7279
▁fundamental	-10.7279
▁implausib	-10.7279
▁incident	-10.7279
▁inhabit	-10.7279
▁installment	-10.7279
▁motivation	-10.7279
▁philip	-10.7279
▁practical	-10.7279
▁practice	-10.7279
▁resource	-10.7279
▁schmaltz	-10.7279
▁skateboard	-10.7279
▁suspend	-10.7279
▁telegraph	-10.7279
▁tremendous	-10.7279
▁unbelievabl	-10.7279
schaef	-10.7279
▁ethnic	-10.7279
▁speculati	-10.7279
▁stroke	-10.7279
▁system	-10.7279
envelop	-10.7279
▁foul	-10.7279
▁jumble	-10.7279
▁kahlo	-10.7279
▁unfulfill	-10.7279
foster	-10.7279
▁attack	-10.7279
▁discern	-10.7279
▁immense	-10.7279
▁chief	-10.7279
▁cruci	-10.7279
▁lampoon	-10.7279
▁liberal	-10.7279
▁anguish	-10.7279
▁subtitle	-10.7279
▁concentrat	-10.7279
▁inject	-10.7279
▁expert	-10.7279
▁optimis	-10.7279
critiqu	-10.7279
▁smack	-10.7279
▁wicked	-10.7279
▁sneak	-10.7279
▁steam	-10.7279
crawl	-10.7279
▁siege	-10.7279
▁gravit	-10.7279
▁curve	-10.7279
▁silent	-10.7279
▁milk	-10.7279
▁flesh	-10.7279
▁recall	-10.7279
▁newcomer	-10.7279
▁burge	-10.7279
▁taut	-10.7279
▁address	-10.7279
▁regret	-10.7279
▁fulfill	-10.7279
expand	-10.728
▁banter	-10.728
▁chateau	-10.728
▁bracing	-10.728
▁independent	-10.728
▁danger	-10.728
belief	-10.728
fidel	-10.728
▁conceit	-10.728
▁vast	-10.728
▁holm	-10.728
▁tamb	-10.728
nourish	-10.728
▁literat	-10.728
▁zero	-10.728
▁court	-10.728
▁patholog	-10.728
▁dominate	-10.728
▁dedicat	-10.7281
▁slug	-10.7281
▁yawn	-10.7281
▁favorite	-10.7281
▁anchor	-10.7281
plete	-10.7281
▁fright	-10.7281
▁interpretation	-10.7281
▁lurid	-10.7281
▁height	-10.7281
▁jean	-10.7281
bogdan	-10.7281
epp	-10.7282
▁hollow	-10.7282
feather	-10.7283
▁weep	-10.7283
suffic	-10.7283
▁martial	-10.7283
hrill	-10.7284
print	-10.7284
▁exposit	-10.7285
▁populat	-10.7285
▁terrorist	-10.7285
▁fence	-10.7285
▁profan	-10.7286
▁loop	-10.7286
▁grind	-10.7286
▁legend	-10.7287
▁prophe	-10.7288
▁leap	-10.7288
▁rival	-10.7289
▁geni	-10.7289
▁auteu	-10.7289
awd	-10.729
etched	-10.7291
nicol	-10.7291
▁assume	-10.7292
▁unhapp	-10.7292
▁undercut	-10.7292
▁reput	-10.7292
▁reaction	-10.7293
ooze	-10.7293
▁dramatiz	-10.7294
▁device	-10.7295
▁heroine	-10.7296
russel	-10.7296
sync	-10.7297
▁hurt	-10.7297
▁intent	-10.7298
▁visit	-10.7299
▁floo	-10.7299
▁deception	-10.7299
▁eeri	-10.73
▁isolat	-10.73
pez	-10.7301
▁atmospheric	-10.7304
▁gear	-10.7304
▁hoot	-10.7304
versus	-10.7308
▁moth	-10.731
▁define	-10.731
initial	-10.7314
audacious	-10.7315
▁hunt	-10.7316
normal	-10.7318
wrote	-10.7318
▁fourth	-10.7319
▁savage	-10.7321
▁letter	-10.7323
▁fearless	-10.7323
▁update	-10.7328
▁nail	-10.7332
▁characteristic	-10.7334
▁whims	-10.7338
▁flower	-10.735
iffle	-10.7351
▁vein	-10.7353
▁jani	-10.7353
▁shout	-10.7361
▁ballo	-10.7362
▁vig	-10.739
▁informati	-10.7392
marine	-10.7395
glorifi	-10.7397
relate	-10.7402
flag	-10.7404
▁multiple	-10.7427
▁critical	-10.744
▁somebod	-10.7446
▁spice	-10.7446
reflection	-10.7467
▁expose	-10.7473
matte	-10.7474
▁bug	-10.7498
ateral	-10.7504
▁cellul	-10.751
▁tang	-10.752
guide	-10.752
big	-10.7521
▁sorr	-10.7555
withstand	-10.757
htick	-10.7571
▁veer	-10.7577
muc	-10.7609
plate	-10.7615
▁gall	-10.7634
rude	-10.7639
▁amiabl	-10.7646
assum	-10.7659
rising	-10.7725
▁captur	-10.7767
▁jagge	-10.7799
▁struggl	-10.7813
affected	-10.7825
feminis	-10.7851
depre	-10.7866
▁antho	-10.7888
▁prevent	-10.7907
spinn	-10.7935
▁stee	-10.7955
bake	-10.7958
canad	-10.7987
charli	-10.8051
▁attracti	-10.8135
▁exten	-10.8142
shap	-10.815
hash	-10.822
implicit	-10.825
rail	-10.8331
acco	-10.841
personal	-10.8441
laris	-10.8599
▁gib	-10.86
happ	-10.8617
throw	-10.8624
william	-10.8626
spielberg	-10.8628
definite	-10.8629
poignan	-10.863
doubt	-10.863
sentimental	-10.8633
cool	-10.8634
earnest	-10.8635
color	-10.8636
adult	-10.8636
feature	-10.864
fast	-10.864
fail	-10.8642
family	-10.8642
great	-10.8643
character	-10.8648
centur	-10.8651
consider	-10.8651
possibl	-10.8652
dependen	-10.872
▁poo	-10.8765
satisfying	-10.8771
▁respon	-10.883
voca	-10.8835
sav	-10.8899
nake	-10.8903
▁multi	-10.8942
▁object	-10.8956
nadi	-10.8984
trom	-10.9014
ographical	-10.9075
▁boil	-10.9094
▁disturb	-10.915
indulgen	-10.9164
▁animat	-10.9188
driv	-10.9189
rader	-10.9196
coli	-10.9201
▁destructi	-10.9214
▁revel	-10.922
▁amuse	-10.9223
izzle	-10.9229
▁affl	-10.9239
▁scoo	-10.9245
▁decen	-10.9256
▁adapt	-10.9271
▁excel	-10.9278
▁appreciati	-10.9279
▁contemplati	-10.9279
confession	-10.9279
pyrotechnic	-10.9279
▁argentine	-10.9279
▁aristocra	-10.9279
▁astounding	-10.9279
▁circumstan	-10.9279
▁claustrophobi	-10.9279
▁clunk	-10.9279
▁columbi	-10.9279
▁compensate	-10.9279
▁disquieting	-10.9279
▁distaste	-10.9279
▁elizabeth	-10.9279
▁europe	-10.9279
▁extravagant	-10.9279
▁flourish	-10.9279
▁giggle	-10.9279
▁gimmick	-10.9279
▁innuendo	-10.9279
▁irrelevan	-10.9279
▁obscure	-10.9279
▁occur	-10.9279
▁perceptive	-10.9279
▁punctuat	-10.9279
▁rambling	-10.9279
▁recognize	-10.9279
▁refugee	-10.9279
▁seductive	-10.9279
▁separate	-10.9279
▁solution	-10.9279
▁suffocat	-10.9279
▁surrender	-10.9279
▁technique	-10.9279
▁unblinking	-10.9279
▁advance	-10.9279
▁alexand	-10.9279
▁athlete	-10.9279
▁bettany	-10.9279
▁companion	-10.9279
▁condescen	-10.9279
▁exuberan	-10.9279
▁incessant	-10.9279
▁oppressive	-10.9279
▁repetitio	-10.9279
▁sublime	-10.9279
▁supreme	-10.9279
▁sword	-10.9279
▁valiant	-10.9279
▁widow	-10.9279
▁wondrous	-10.9279
▁narcissis	-10.9279
▁collaborati	-10.9279
▁fragment	-10.9279
adrenalin	-10.9279
▁celebrity	-10.9279
▁didactic	-10.9279
▁inescapabl	-10.9279
▁repell	-10.9279
holofcen	-10.9279
▁miracle	-10.9279
▁testimon	-10.9279
▁farcical	-10.9279
vulnerab	-10.9279
▁mexic	-10.9279
▁bounc	-10.9279
▁prince	-10.9279
▁warrior	-10.9279
▁tatter	-10.9279
▁accident	-10.9279
▁aesthetic	-10.9279
▁discuss	-10.9279
▁protect	-10.9279
▁concoct	-10.9279
▁enhance	-10.9279
▁fuzz	-10.9279
▁ancient	-10.9279
▁jazz	-10.9279
▁detach	-10.9279
▁pursu	-10.9279
▁reunion	-10.9279
▁sociolog	-10.9279
knack	-10.9279
vili	-10.9279
jeff	-10.9279
lavish	-10.9279
pposed	-10.9279
trospective	-10.9279
▁blatant	-10.9279
▁insecur	-10.9279
▁glum	-10.9279
▁sickening	-10.9279
▁sweat	-10.9279
delusion	-10.9279
induce	-10.9279
pepper	-10.9279
▁consol	-10.9279
▁reject	-10.9279
▁blind	-10.9279
▁resort	-10.9279
▁charles	-10.9279
▁round	-10.9279
▁command	-10.928
▁tax	-10.928
▁monoton	-10.928
▁health	-10.928
▁impulse	-10.928
▁goose	-10.928
▁creepi	-10.928
▁harsh	-10.928
▁worry	-10.928
▁manifest	-10.928
▁schem	-10.928
▁stoop	-10.928
▁thread	-10.928
▁retro	-10.928
▁chord	-10.9281
poon	-10.9281
▁trace	-10.9281
▁demented	-10.9281
▁misfire	-10.9281
▁flims	-10.9282
▁burr	-10.9282
▁flashback	-10.9283
pulse	-10.9283
▁padd	-10.9283
▁implie	-10.9283
rowd	-10.9284
shatter	-10.9284
▁fleeting	-10.9284
▁invest	-10.9284
▁demons	-10.9284
persua	-10.9284
▁pander	-10.9284
▁department	-10.9285
▁info	-10.9285
▁staggering	-10.9285
▁spontane	-10.9286
▁squa	-10.9286
▁intact	-10.9286
▁merge	-10.9286
▁trope	-10.9286
▁indicati	-10.9286
▁hideous	-10.9287
radical	-10.9287
▁antoni	-10.9287
▁confin	-10.9289
▁addict	-10.9289
litter	-10.9289
▁ivan	-10.9289
▁julia	-10.9289
▁chops	-10.9289
▁lark	-10.929
▁crash	-10.9292
▁coast	-10.9292
▁heft	-10.9292
imated	-10.9293
▁depart	-10.9294
▁triumphant	-10.9294
▁undermine	-10.9294
▁toilet	-10.9295
inister	-10.9295
▁50-	-10.9295
humor	-10.9296
enha	-10.9297
▁reci	-10.93
▁peak	-10.93
terminal	-10.9302
▁tread	-10.9303
▁hotel	-10.9304
▁fredd	-10.9305
▁bruc	-10.9305
▁selecti	-10.9308
llusion	-10.9308
▁pink	-10.9308
teau	-10.9309
▁chest	-10.9311
tolerable	-10.9312
marshal	-10.9314
▁trot	-10.9314
tunne	-10.9315
▁crave	-10.9316
▁lull	-10.9316
▁basi	-10.9318
▁spade	-10.9319
▁bump	-10.9321
▁rework	-10.9323
▁statu	-10.9324
ourne	-10.9326
▁melt	-10.9328
▁accompan	-10.9332
▁laid	-10.9335
schni	-10.934
claud	-10.9344
loft	-10.9346
▁seren	-10.935
▁fade	-10.9364
symbolic	-10.9371
xploitati	-10.9374
lude	-10.9394
affectionate	-10.9395
lute	-10.9403
sophi	-10.9407
maze	-10.9416
▁carpe	-10.9421
▁restrain	-10.9422
▁seld	-10.9446
boiler	-10.9472
▁impersona	-10.9472
▁pai	-10.9497
imps	-10.9523
▁mul	-10.9531
▁suitabl	-10.9538
▁zha	-10.9589
button	-10.9685
▁subtl	-10.9776
laughabl	-10.9788
▁perv	-10.9851
izard	-10.9851
vid	-10.9852
platter	-10.9893
▁derri	-10.9943
inks	-10.9955
mugg	-10.9981
beck	-10.9986
undli	-11.0052
sacrifice	-11.0193
▁marqu	-11.0207
▁scarie	-11.0214
▁stereotyp	-11.0466
rope	-11.0485
awk	-11.0496
blade	-11.05
▁extensi	-11.054
eight	-11.0667
▁compulsi	-11.0668
▁vain	-11.0706
▁affect	-11.0841
99	-11.0895
vie	-11.0908
▁tolera	-11.0921
▁femini	-11.0953
▁uncle	-11.0954
▁passabl	-11.0957
graphic	-11.1115
unfold	-11.112
frank	-11.1125
fiction	-11.1127
apparent	-11.1127
sleep	-11.1128
important	-11.113
burn	-11.113
murder	-11.1133
brain	-11.1133
secret	-11.1133
contriv	-11.1135
provide	-11.1135
large	-11.1136
fight	-11.1138
formula	-11.1139
compelling	-11.1142
flick	-11.1142
should	-11.1142
filmmaker	-11.1143
entertaining	-11.1143
thriller	-11.1143
opera	-11.1147
parent	-11.1153
remarkabl	-11.1153
point	-11.1172
jam	-11.1258
pole	-11.1279
wind	-11.1291
undan	-11.1291
ppers	-11.1464
▁resembl	-11.1506
vious	-11.1512
vinci	-11.1555
ipped	-11.1559
▁emb	-11.1566
later	-11.1575
frida	-11.1584
▁ravi	-11.1586
▁weigh	-11.1616
▁refresh	-11.1655
▁symbol	-11.1661
figur	-11.1663
▁organ	-11.1676
▁steve	-11.1748
entional	-11.1753
chiev	-11.1757
▁manipulati	-11.1764
ontaine	-11.1767
▁imitat	-11.1772
scribe	-11.1774
obsess	-11.1778
trayal	-11.1778
accid	-11.1778
▁intellect	-11.1779
▁misanthrop	-11.1779
clutch	-11.1779
▁democra	-11.1779
▁kafka	-11.1779
▁participat	-11.1779
caricature	-11.1779
congratulat	-11.1779
discipline	-11.1779
efficient	-11.1779
inducing	-11.1779
meticulous	-11.1779
palestinian	-11.1779
scription	-11.1779
zhuang	-11.1779
▁advertise	-11.1779
▁anticipat	-11.1779
▁associate	-11.1779
▁automatic	-11.1779
▁bollywood	-11.1779
▁capitalize	-11.1779
▁curmudgeon	-11.1779
▁decision	-11.1779
▁deprav	-11.1779
▁dishonest	-11.1779
▁disintegrat	-11.1779
▁dutiful	-11.1779
▁explanation	-11.1779
▁explode	-11.1779
▁fabulous	-11.1779
▁griffith	-11.1779
▁histrionic	-11.1779
▁homosexual	-11.1779
▁hospital	-11.1779
▁hundred	-11.1779
▁hypocri	-11.1779
▁infectious	-11.1779
▁infuriating	-11.1779
▁ingredient	-11.1779
▁inquisitive	-11.1779
▁margarita	-11.1779
▁miscalculat	-11.1779
▁misogyn	-11.1779
▁mountain	-11.1779
▁napoleon	-11.1779
▁olivier	-11.1779
▁participant	-11.1779
▁principal	-11.1779
▁proficient	-11.1779
▁raucous	-11.1779
▁recognizabl	-11.1779
▁resurrect	-11.1779
▁signpost	-11.1779
▁tempting	-11.1779
▁thornberry	-11.1779
▁thrust	-11.1779
▁transparent	-11.1779
▁unforgettabl	-11.1779
▁virtuos	-11.1779
▁zipp	-11.1779
▁acquire	-11.1779
▁architect	-11.1779
▁assault	-11.1779
▁champion	-11.1779
▁choreograph	-11.1779
▁contempt	-11.1779
▁immatur	-11.1779
▁instruct	-11.1779
▁pitiful	-11.1779
▁tissue	-11.1779
▁triviali	-11.1779
▁tumult	-11.1779
▁unrelenting	-11.1779
captivate	-11.1779
▁abundant	-11.1779
▁counterpart	-11.1779
▁infinite	-11.1779
▁strateg	-11.1779
▁arbitrar	-11.1779
▁stifling	-11.1779
destroy	-11.1779
piercing	-11.1779
▁afford	-11.1779
▁buzz	-11.1779
▁crystal	-11.1779
▁insistent	-11.1779
burden	-11.1779
▁liberti	-11.1779
▁seduce	-11.1779
▁wistful	-11.1779
▁responsibilit	-11.1779
▁updating	-11.1779
▁plumb	-11.1779
▁rebellio	-11.1779
▁retain	-11.1779
▁grandios	-11.1779
▁simpson	-11.1779
▁elicit	-11.1779
▁infantil	-11.1779
▁panoram	-11.1779
▁rigid	-11.1779
▁strand	-11.1779
▁church	-11.1779
▁pluck	-11.1779
▁enlighten	-11.1779
▁lecture	-11.1779
▁inviting	-11.1779
israeli	-11.1779
▁conquer	-11.1779
▁slasher	-11.1779
dropping	-11.1779
▁dollar	-11.1779
▁footnote	-11.1779
▁obsessive	-11.1779
▁shrug	-11.1779
▁vacu	-11.1779
▁eisen	-11.1779
hungry	-11.1779
amura	-11.1779
▁fond	-11.1779
▁leather	-11.1779
▁commend	-11.1779
▁investigat	-11.1779
dominant	-11.1779
▁attach	-11.1779
▁session	-11.1779
▁unconv	-11.1779
▁drain	-11.1779
▁flame	-11.1779
demeano	-11.1779
esteem	-11.1779
▁neglect	-11.1779
▁tendenc	-11.1779
▁wander	-11.178
procedur	-11.178
▁tinsel	-11.178
▁skewe	-11.178
▁sermon	-11.178
▁humili	-11.178
▁awaken	-11.1781
conceptual	-11.1781
▁belgi	-11.1781
▁retool	-11.1781
▁travail	-11.1781
gratu	-11.1781
▁label	-11.1781
▁horse	-11.1781
▁corp	-11.1781
▁slipper	-11.1781
▁pose	-11.1782
▁lynch	-11.1782
qualif	-11.1782
▁immers	-11.1782
umentary	-11.1783
▁subtext	-11.1783
▁locale	-11.1783
▁scrap	-11.1784
quaint	-11.1784
▁ardent	-11.1784
epis	-11.1784
▁lovabl	-11.1784
▁archiv	-11.1785
▁glee	-11.1785
▁stew	-11.1785
medical	-11.1785
stray	-11.1785
rebra	-11.1785
▁flori	-11.1786
▁michell	-11.1786
▁preach	-11.1786
▁drab	-11.1787
▁invite	-11.1787
▁nutt	-11.1788
mulle	-11.1788
▁adorabl	-11.1788
▁resent	-11.1788
▁impart	-11.1789
ubert	-11.179
▁barri	-11.1791
innoc	-11.1791
▁ethic	-11.1794
▁flee	-11.1794
▁discour	-11.1795
▁latin	-11.1799
▁gasp	-11.18
▁acknowledg	-11.1802
▁uh	-11.1803
maggi	-11.1803
hitchcockian	-11.1805
reserve	-11.1807
colat	-11.1809
▁inquir	-11.1818
▁miserabl	-11.1818
vating	-11.1822
▁physi	-11.183
fluent	-11.183
kilte	-11.1834
tape	-11.1837
stagger	-11.1839
▁tame	-11.1839
▁vau	-11.1839
ordan	-11.185
▁tree	-11.1859
destructive	-11.1862
▁finch	-11.1862
timid	-11.189
congr	-11.1895
▁resona	-11.1919
aybu	-11.1938
▁schu	-11.1959
prepare	-11.1967
louis	-11.1973
▁degrad	-11.1978
dogma	-11.1994
duck	-11.2029
▁biograph	-11.2045
▁radia	-11.2063
insufferabl	-11.2094
▁playwri	-11.2108
ortho	-11.2115
quart	-11.2246
▁repres	-11.2263
garde	-11.2322
▁adolescen	-11.2455
heroic	-11.2474
hicken	-11.3051
oxic	-11.3357
rospect	-11.3434
▁lonel	-11.3526
egian	-11.3528
▁evolv	-11.3859
▁theori	-11.3922
▁emerg	-11.4072
laugh	-11.4134
▁liza	-11.424
involv	-11.4452
science	-11.4453
regard	-11.4454
ground	-11.4455
authentic	-11.4456
difference	-11.4456
violent	-11.4456
exceptional	-11.4456
▁access	-11.4459
front	-11.4459
examin	-11.4459
essential	-11.4459
?	-11.9485
!	-12.9522
/	-13.1986
