<unk>	0
<s>	0
</s>	0
▁	-2.56264
s	-2.76021
t	-3.17251
e	-3.41022
▁a	-3.79522
▁the	-3.87899
d	-4.0962
,	-4.10813
ing	-4.13369
a	-4.21201
y	-4.24966
▁and	-4.33685
o	-4.37579
▁of	-4.41605
p	-4.50424
-	-4.52572
n	-4.54346
m	-4.55869
ly	-4.58486
c	-4.60452
i	-4.61688
▁.	-4.68366
▁to	-4.69061
ed	-4.75232
er	-4.79654
g	-4.84996
▁'	-4.86998
▁in	-4.8851
ar	-4.95744
u	-4.99021
b	-5.02323
r	-5.06619
v	-5.20447
in	-5.22028
▁is	-5.22969
▁f	-5.24836
▁tha	-5.2668
al	-5.2715
le	-5.28204
k	-5.28997
re	-5.29542
l	-5.30583
w	-5.33017
▁it	-5.34184
or	-5.34512
h	-5.36528
f	-5.45434
it	-5.47746
ch	-5.51781
on	-5.54113
ri	-5.55238
es	-5.55847
▁be	-5.58039
en	-5.60041
▁w	-5.62217
▁with	-5.62601
ion	-5.64816
▁de	-5.6693
▁re	-5.67605
▁c	-5.71953
▁for	-5.73938
ic	-5.73945
ent	-5.75685
▁an	-5.77889
an	-5.78342
li	-5.7939
ur	-5.80698
▁film	-5.82437
▁st	-5.85967
▁movie	-5.86211
ra	-5.91485
is	-5.93059
ce	-5.94776
th	-5.96624
at	-5.98544
il	-5.99318
ir	-5.999
▁so	-6.00212
▁thi	-6.02044
▁its	-6.02782
ve	-6.0605
ne	-6.06234
▁as	-6.06745
ll	-6.06952
'	-6.07619
▁n	-6.08511
ter	-6.15188
▁b	-6.1573
ck	-6.16688
ro	-6.18981
id	-6.20415
▁on	-6.20677
▁you	-6.20818
▁g	-6.20971
us	-6.21091
ive	-6.22984
▁un	-6.2299
▁ma	-6.29174
▁do	-6.33193
▁but	-6.339
▁tr	-6.34039
un	-6.3422
▁ho	-6.34636
▁con	-6.35098
▁p	-6.36916
▁com	-6.37915
ate	-6.38019
z	-6.4111
lo	-6.41317
▁no	-6.41877
and	-6.42089
el	-6.4221
ity	-6.42424
age	-6.44362
im	-6.46628
▁pa	-6.4667
la	-6.46948
ul	-6.47123
ful	-6.48143
tic	-6.5125
▁more	-6.51775
end	-6.51795
ation	-6.52004
ant	-6.52621
▁one	-6.53585
▁ex	-6.54537
▁by	-6.55701
me	-6.56123
able	-6.56984
bout	-6.58153
pe	-6.58885
▁like	-6.6034
▁me	-6.60796
if	-6.61679
▁than	-6.62905
▁not	-6.63324
ng	-6.64464
less	-6.65172
▁po	-6.66835
▁has	-6.68817
▁sa	-6.70735
▁from	-6.72713
▁he	-6.72881
▁mi	-6.73462
▁who	-6.7453
lu	-6.74647
▁br	-6.7511
ure	-6.75396
▁his	-6.7612
▁`	-6.76762
▁are	-6.77839
▁all	-6.78258
▁character	-6.79508
▁out	-6.79569
▁mo	-6.79682
ness	-6.79888
▁good	-6.80312
ment	-6.80492
thing	-6.80622
▁sp	-6.81856
▁story	-6.85166
▁pro	-6.8611
have	-6.87914
▁make	-6.88608
▁la	-6.88795
ical	-6.89177
▁pre	-6.89233
▁real	-6.89434
low	-6.89656
▁we	-6.89754
ies	-6.89883
all	-6.90134
▁ca	-6.90178
act	-6.902
▁whi	-6.9031
ho	-6.90597
▁most	-6.91184
um	-6.91365
ol	-6.93181
▁some	-6.93674
ha	-6.94267
ous	-6.94883
▁co	-6.95351
other	-6.95541
▁man	-6.95812
▁over	-6.9617
▁or	-6.97788
om	-6.98037
..	-6.98432
▁into	-6.98919
x	-6.99091
▁go	-6.99285
▁en	-6.9995
ver	-7.00156
▁time	-7.01615
ough	-7.02743
ry	-7.03147
ish	-7.03472
▁vi	-7.04804
ther	-7.0558
ial	-7.05938
▁lo	-7.06473
▁work	-7.07314
▁ro	-7.08359
ff	-7.08736
▁up	-7.09135
▁too	-7.11072
▁j	-7.11325
▁even	-7.11557
▁dis	-7.11782
fi	-7.1207
▁off	-7.12933
ious	-7.14737
▁bo	-7.15265
▁sc	-7.15483
▁any	-7.15814
ak	-7.16982
▁well	-7.17423
old	-7.17783
▁di	-7.18227
▁just	-7.18807
out	-7.19862
▁ra	-7.20656
▁your	-7.21155
qui	-7.21739
ud	-7.23554
self	-7.23757
ph	-7.23819
▁dr	-7.23967
▁fl	-7.24198
ance	-7.24727
▁will	-7.25423
▁funny	-7.26637
▁bad	-7.27384
▁car	-7.27627
gu	-7.28493
`	-7.28596
▁see	-7.28804
▁feel	-7.29215
▁comedy	-7.29846
▁much	-7.30115
)	-7.3046
▁jo	-7.30481
ick	-7.31299
que	-7.32489
▁sha	-7.32979
▁performance	-7.33772
light	-7.35129
▁life	-7.35136
▁way	-7.36235
▁lea	-7.36829
▁little	-7.37197
very	-7.37403
▁can	-7.37411
▁love	-7.37452
▁par	-7.377
▁what	-7.37938
▁her	-7.38391
▁da	-7.39792
uch	-7.40766
▁every	-7.41083
(	-7.41468
▁per	-7.42211
director	-7.44799
▁best	-7.45521
▁was	-7.45945
▁ki	-7.46038
up	-7.46692
▁cha	-7.47321
▁sw	-7.48498
▁been	-7.48752
ash	-7.50095
com	-7.52505
▁watch	-7.53028
▁heart	-7.53086
1	-7.53839
▁drama	-7.53839
▁bu	-7.53989
0	-7.54665
▁look	-7.54693
▁great	-7.56354
▁ba	-7.56741
mon	-7.57145
▁through	-7.57187
▁plot	-7.57224
j	-7.60045
▁seem	-7.62117
▁humor	-7.63332
▁get	-7.64057
▁never	-7.64293
▁fun	-7.6451
.	-7.64986
▁entertain	-7.65155
▁gra	-7.65209
▁new	-7.65436
▁my	-7.65675
▁ru	-7.66695
▁interest	-7.6796
ence	-7.68405
something	-7.69255
▁cinema	-7.72814
▁action	-7.72883
ign	-7.73551
writ	-7.73863
▁sense	-7.74835
▁year	-7.74882
▁human	-7.75848
▁under	-7.77989
right	-7.78972
ian	-7.79435
▁audience	-7.80034
▁would	-7.80384
▁imp	-7.82126
▁down	-7.8222
▁direct	-7.82739
▁worth	-7.83308
▁sub	-7.83348
▁bla	-7.83376
▁made	-7.83628
▁hard	-7.84418
▁take	-7.84487
ade	-7.855
▁two	-7.85581
▁long	-7.859
▁people	-7.86666
▁creat	-7.86893
▁actor	-7.87925
ould	-7.88079
▁mar	-7.89563
way	-7.90152
▁play	-7.90172
▁big	-7.90208
▁va	-7.90486
port	-7.90615
day	-7.90746
▁screen	-7.9135
view	-7.91729
▁mu	-7.91992
▁though	-7.92602
cause	-7.92608
▁laugh	-7.9377
press	-7.94096
▁cast	-7.94579
▁better	-7.95121
▁intelligen	-7.9752
▁first	-7.97531
▁back	-7.9789
ible	-7.97992
▁charm	-7.98821
pleas	-7.98845
▁emotional	-7.99022
▁both	-7.99298
▁ever	-7.994
▁filmmak	-8.00109
ward	-8.00292
▁give	-8.00315
minute	-8.01418
qua	-8.01495
:	-8.04101
▁when	-8.04124
time	-8.04426
special	-8.05472
▁should	-8.05474
▁show	-8.06868
▁become	-8.06907
▁hu	-8.08331
ize	-8.09127
▁high	-8.09697
▁still	-8.09731
▁find	-8.09864
▁moment	-8.10123
mber	-8.10769
2	-8.11146
▁visual	-8.11147
▁scene	-8.11273
▁dialog	-8.14113
▁kind	-8.14156
▁had	-8.16098
▁beautiful	-8.18725
9	-8.18725
▁world	-8.18726
lso	-8.18888
▁live	-8.19232
▁she	-8.1963
▁hollywood	-8.20313
▁script	-8.20313
▁might	-8.21926
▁compelling	-8.23565
▁documentary	-8.23565
▁family	-8.23565
▁original	-8.23565
▁romantic	-8.23565
▁keep	-8.23567
▁smart	-8.23577
▁histor	-8.23664
▁point	-8.23678
▁music	-8.23847
▁picture	-8.25232
▁clever	-8.2524
round	-8.25263
those	-8.25294
▁few	-8.25583
▁wors	-8.25682
most	-8.2623
▁fascinat	-8.26927
perfect	-8.26927
▁half	-8.2693
▁sea	-8.2755
▁ultimate	-8.30405
▁know	-8.30405
▁spirit	-8.30411
mise	-8.3055
▁idea	-8.30663
▁full	-8.31421
▁talent	-8.32214
▁sex	-8.32251
tween	-8.34021
▁super	-8.34025
▁turn	-8.34055
▁fail	-8.34096
ook	-8.35538
produc	-8.3587
inspir	-8.35926
▁master	-8.35988
▁put	-8.36181
▁him	-8.38001
▁american	-8.39671
▁gener	-8.39716
▁believ	-8.4164
cultur	-8.41666
▁energ	-8.41669
▁after	-8.41749
▁seri	-8.41809
▁imaginati	-8.43631
▁simpl	-8.43649
where	-8.43664
▁effort	-8.45673
/	-8.47756
▁effect	-8.49883
;	-8.52057
▁experience	-8.52057
▁genre	-8.52085
▁complex	-8.5428
predictabl	-8.5428
▁enjoy	-8.54725
▁subject	-8.56552
▁since	-8.58939
▁classic	-8.61259
▁grow	-8.61274
▁animat	-8.61962
▁insight	-8.63698
▁surprising	-8.63698
▁suspense	-8.63698
▁again	-8.63706
▁enjoyabl	-8.65699
▁wonderful	-8.66198
▁horror	-8.66198
▁intrigu	-8.66198
▁fresh	-8.66203
▁cliche	-8.66203
▁place	-8.66206
▁surprise	-8.68762
▁summer	-8.68762
truct	-8.68764
▁child	-8.6877
▁cliché	-8.71393
▁satisfying	-8.71393
▁screenplay	-8.71393
▁feature	-8.71394
▁cheap	-8.71395
▁twist	-8.71395
▁appeal	-8.71395
▁creep	-8.71398
▁short	-8.71399
▁deliver	-8.71496
▁actual	-8.74098
▁complete	-8.76874
▁engaging	-8.76874
▁narrative	-8.76874
▁quirk	-8.76875
probabl	-8.77016
▁certain	-8.79731
▁strong	-8.79738
▁color	-8.79769
▁strange	-8.82673
stead	-8.82704
▁already	-8.85703
▁sequence	-8.85703
▁affect	-8.85703
▁modern	-8.85704
▁french	-8.85704
▁powerful	-8.88828
▁impossibl	-8.88828
▁problem	-8.88828
▁expect	-8.88828
▁refresh	-8.92053
▁frustrat	-8.92053
▁happen	-8.92053
▁success	-8.92053
▁differen	-8.92054
convinc	-8.92067
▁emotion	-8.94811
▁remarkabl	-8.95387
▁achieve	-8.95387
necessar	-8.95387
▁formula	-8.95388
▁sentimental	-8.98835
é	-9.73539
q	-10.6048
