<unk>	0
<s>	0
</s>	0
s	-2.93272
.	-3.64209
▁the	-3.75883
,	-3.87041
▁to	-4.1447
▁a	-4.18884
▁in	-4.33858
▁of	-4.37243
▁	-4.37268
-	-4.59144
ed	-4.70652
ing	-4.72919
▁and	-4.73483
▁on	-4.9182
▁for	-5.04455
d	-5.0956
▁#39;	-5.16802
t	-5.24756
)	-5.25101
▁(	-5.25167
▁-	-5.29213
e	-5.38281
er	-5.41787
;	-5.48721
n	-5.5158
'	-5.54345
y	-5.54947
p	-5.64732
▁that	-5.64789
▁The	-5.65321
r	-5.70339
▁A	-5.73035
b	-5.73738
▁with	-5.74342
▁at	-5.82198
S	-5.87887
▁is	-5.89664
▁its	-5.93568
c	-5.93792
ly	-5.94071
al	-5.94214
▁as	-5.95561
▁said	-5.9644
▁S	-5.98032
a	-5.99595
▁by	-6.00128
▁has	-6.02143
re	-6.03482
&	-6.03919
o	-6.04084
:	-6.04837
A	-6.0729
▁it	-6.08327
in	-6.1004
m	-6.10402
▁from	-6.12518
▁an	-6.16373
lt	-6.19155
w	-6.19654
es	-6.24569
\	-6.25343
▁his	-6.28077
le	-6.2913
▁be	-6.29414
i	-6.30156
▁F	-6.3058
▁will	-6.31114
▁was	-6.31608
en	-6.32816
gt	-6.36357
▁US	-6.37546
Reuters	-6.39478
C	-6.4044
▁B	-6.40885
g	-6.41971
▁after	-6.42279
ri	-6.44025
▁C	-6.45149
an	-6.46098
ur	-6.46196
or	-6.4623
▁over	-6.47277
ers	-6.48559
k	-6.51819
▁new	-6.52202
l	-6.52233
▁U	-6.54991
f	-6.55102
▁have	-6.55686
▁re	-6.56687
ar	-6.5716
on	-6.59392
u	-6.60945
it	-6.62173
th	-6.63387
▁their	-6.64007
/	-6.64232
▁P	-6.65412
▁p	-6.66328
▁he	-6.66442
▁quot	-6.66842
▁H	-6.66895
N	-6.67049
▁G	-6.68137
O	-6.69448
P	-6.69603
il	-6.7065
ic	-6.70857
▁are	-6.71513
▁T	-6.71828
▁up	-6.73386
▁f	-6.73687
ation	-6.73973
AP	-6.74917
M	-6.76413
▁first	-6.77157
B	-6.78133
el	-6.78251
▁W	-6.78796
T	-6.79854
▁two	-6.80568
▁c	-6.82174
▁out	-6.83998
ro	-6.8441
D	-6.85211
▁b	-6.85406
id	-6.88784
I	-6.89175
2	-6.895
st	-6.89537
▁K	-6.90162
▁more	-6.90181
▁AP	-6.90391
▁M	-6.9065
ch	-6.90871
ra	-6.91098
ter	-6.91582
▁but	-6.91829
ent	-6.92389
li	-6.92391
▁--	-6.93255
▁New	-6.9336
▁Monday	-6.94175
ion	-6.94393
E	-6.9504
▁Wednesday	-6.95477
at	-6.96137
▁Tuesday	-6.9626
5	-6.9757
▁Thursday	-6.98154
▁company	-6.98952
am	-6.99833
▁this	-6.99922
▁Inc	-7.00514
x	-7.00888
▁D	-7.01404
ment	-7.01648
▁In	-7.018
L	-7.01834
▁N	-7.02005
com	-7.02829
▁not	-7.04041
▁Friday	-7.04324
et	-7.04754
se	-7.06879
h	-7.08984
ol	-7.09495
▁year	-7.09521
▁against	-7.1007
▁de	-7.10337
▁one	-7.10432
;/	-7.11383
G	-7.11408
▁Iraq	-7.1151
▁who	-7.12413
▁into	-7.12898
▁last	-7.14101
▁than	-7.15163
▁Co	-7.15296
6	-7.15805
▁E	-7.15828
▁yesterday	-7.16269
▁L	-7.16352
▁about	-7.17021
ce	-7.18126
4	-7.18582
▁Microsoft	-7.18687
▁were	-7.19595
▁O	-7.19614
▁Re	-7.19844
ir	-7.20823
▁I	-7.21188
z	-7.21574
1	-7.21718
?	-7.21916
▁million	-7.21935
un	-7.2256
▁St	-7.23701
lo	-7.24544
▁st	-7.25686
▁been	-7.25886
3	-7.25891
est	-7.25984
▁R	-7.26001
▁week	-7.26813
▁win	-7.27329
0	-7.27623
▁3	-7.28151
H	-7.29413
▁Corp	-7.29745
▁&	-7.30124
▁had	-7.30174
ul	-7.31117
▁three	-7.31311
im	-7.33025
▁t	-7.33055
us	-7.33116
um	-7.33176
▁world	-7.3336
ta	-7.34798
▁they	-7.34961
▁back	-7.35424
7	-7.35691
tion	-7.36167
▁Sunday	-7.36502
▁United	-7.36758
age	-7.37024
is	-7.3733
8	-7.37483
able	-7.37534
v	-7.37901
=	-7.37979
ate	-7.38449
▁would	-7.3871
▁team	-7.38735
U	-7.39242
ive	-7.39658
as	-7.39732
▁oil	-7.40285
▁time	-7.40286
▁1	-7.40636
ll	-7.41185
ist	-7.41373
ies	-7.41528
▁could	-7.41553
▁h	-7.41631
▁government	-7.43059
▁second	-7.43755
vi	-7.44085
▁or	-7.44089
ve	-7.44299
la	-7.44691
▁which	-7.44897
▁market	-7.45364
▁e	-7.45895
▁people	-7.47356
▁g	-7.47724
F	-7.48386
▁today	-7.48398
ut	-7.49164
▁2	-7.49667
up	-7.49937
▁President	-7.50016
▁un	-7.50053
▁off	-7.50542
▁Reuters	-7.5074
▁game	-7.51233
man	-7.5205
▁J	-7.52211
▁No	-7.52611
ant	-7.52748
▁percent	-7.52972
▁years	-7.53177
▁De	-7.53204
▁season	-7.53423
▁NEW	-7.53782
9	-7.53802
ia	-7.53867
ad	-7.53896
▁prices	-7.54073
lu	-7.54167
▁when	-7.54484
me	-7.54859
▁night	-7.55522
▁next	-7.55584
▁Saturday	-7.56175
om	-7.5635
ver	-7.56801
▁4	-7.57299
ge	-7.57589
na	-7.57748
▁says	-7.57877
▁all	-7.57884
▁con	-7.58933
co	-7.58984
▁China	-7.59289
to	-7.59348
▁third	-7.60005
R	-7.60085
te	-7.60273
op	-7.60457
▁end	-7.61832
▁so	-7.62198
ting	-7.62356
ma	-7.62707
ho	-7.62951
▁7	-7.62954
ure	-7.6323
son	-7.63239
de	-7.63438
▁r	-7.63521
▁World	-7.63681
"	-7.63726
▁YORK	-7.63934
▁other	-7.63987
▁Ro	-7.64449
▁record	-7.6455
▁Ma	-7.65377
▁may	-7.65607
▁software	-7.65794
▁ex	-7.66196
and	-7.66282
▁American	-7.66324
ity	-7.66858
▁high	-7.67211
▁Bush	-7.67288
mp	-7.67299
▁deal	-7.67526
ie	-7.67604
▁10	-7.67672
ry	-7.68471
▁Internet	-7.68556
▁w	-7.68666
▁some	-7.68917
▁set	-7.68954
▁can	-7.69654
▁home	-7.7032
▁6	-7.70406
ne	-7.70466
W	-7.70608
V	-7.70852
ca	-7.71169
▁2004	-7.71756
▁billion	-7.71967
▁V	-7.71992
▁down	-7.72325
ru	-7.72972
▁announced	-7.73392
▁no	-7.73692
▁Mo	-7.73711
ap	-7.74439
▁5	-7.74506
ag	-7.74812
ine	-7.7484
▁group	-7.75744
mo	-7.76214
▁take	-7.77709
K	-7.78464
end	-7.7849
▁security	-7.78711
ance	-7.78866
▁It	-7.78939
year	-7.79563
▁An	-7.79584
▁four	-7.79999
▁sp	-7.80108
▁most	-7.80189
▁Be	-7.80259
="	-7.80528
ig	-7.8099
ill	-7.81299
▁day	-7.8175
ot	-7.81751
▁do	-7.82553
▁target	-7.8265
all	-7.82764
▁profit	-7.82812
▁make	-7.82865
▁under	-7.82963
ha	-7.83568
▁European	-7.83739
...	-7.84064
▁top	-7.84404
▁victory	-7.85162
▁To	-7.85405
▁killed	-7.85883
per	-7.86031
ian	-7.86066
ke	-7.86294
▁hit	-7.86994
▁Mar	-7.87252
ud	-7.87451
▁report	-7.87539
ack	-7.87806
▁open	-7.88258
00	-7.88378
▁v	-7.88837
▁lead	-7.88997
▁reported	-7.89331
one	-7.89734
sh	-7.89925
▁Se	-7.89937
▁sales	-7.90044
no	-7.90181
out	-7.90182
pe	-7.90302
▁Ra	-7.90589
ell	-7.90713
▁part	-7.90894
▁officials	-7.91348
▁Iraqi	-7.91568
der	-7.91625
▁Cup	-7.91671
ling	-7.91788
▁play	-7.9212
▁business	-7.9213
Y	-7.92206
▁La	-7.92207
▁get	-7.92298
▁head	-7.92713
ard	-7.92989
▁cut	-7.93041
▁start	-7.93138
▁help	-7.93278
▁Oil	-7.93465
ick	-7.93652
led	-7.93701
va	-7.9388
▁country	-7.9423
ty	-7.94526
ee	-7.9455
▁"	-7.94739
▁pro	-7.94878
▁India	-7.95489
▁d	-7.95581
▁Red	-7.95807
ton	-7.95878
▁just	-7.96556
▁Minister	-7.97298
▁maker	-7.97468
▁before	-7.97522
▁month	-7.97582
▁British	-7.97972
mi	-7.98066
▁Olympic	-7.98122
▁co	-7.98234
min	-7.98243
▁long	-7.98249
▁won	-7.98303
ated	-7.98614
▁buy	-7.98954
▁plans	-7.99471
ti	-7.99739
▁York	-7.99982
▁Japan	-8.00172
▁Palestinian	-8.00173
ow	-8.00372
▁final	-8.00536
▁San	-8.00773
▁He	-8.00795
▁Al	-8.01166
ish	-8.0127
▁car	-8.01395
▁phone	-8.01726
▁Me	-8.01985
▁19	-8.02144
▁system	-8.02189
;...	-8.02315
▁you	-8.02422
AFP	-8.02761
ect	-8.02802
▁Google	-8.02818
▁computer	-8.03055
"&	-8.0321
▁state	-8.03395
▁leader	-8.03473
▁States	-8.03755
▁show	-8.03815
▁former	-8.04058
▁war	-8.04086
ide	-8.04396
▁pre	-8.05219
▁South	-8.05333
ni	-8.05361
ip	-8.05381
▁IBM	-8.05737
▁For	-8.05876
▁\$1	-8.05928
old	-8.06337
tic	-8.06455
info	-8.06536
▁bid	-8.06623
▁Sp	-8.06759
our	-8.06788
▁quarter	-8.06821
ite	-8.07107
ight	-8.07169
▁see	-8.07248
ary	-8.07526
ac	-8.07763
po	-8.08018
▁five	-8.0827
▁major	-8.08368
▁Pa	-8.08411
▁technology	-8.08493
hi	-8.08568
▁least	-8.08715
▁made	-8.08838
▁Web	-8.08867
ial	-8.08951
▁Le	-8.09327
▁move	-8.09395
▁face	-8.10028
▁Bo	-8.10157
▁man	-8.1022
▁With	-8.10322
▁offer	-8.10337
▁ma	-8.10955
▁run	-8.10978
▁coach	-8.1119
ring	-8.11429
▁giant	-8.115
Quote	-8.11684
ber	-8.11734
▁service	-8.11788
ating	-8.12044
▁pay	-8.1206
port	-8.1234
▁between	-8.12493
▁Con	-8.12551
▁work	-8.12621
▁sh	-8.12686
▁8	-8.1271
▁chief	-8.12841
▁way	-8.13037
▁her	-8.13231
▁largest	-8.13283
ence	-8.13411
ted	-8.13945
▁during	-8.14174
ach	-8.14359
▁what	-8.1451
://	-8.14603
htt	-8.14693
go	-8.14909
▁through	-8.15043
▁Open	-8.15045
ab	-8.15099
▁firm	-8.15133
▁companies	-8.154
▁if	-8.15528
ak	-8.16011
▁Ha	-8.16119
▁according	-8.16304
▁test	-8.16476
▁9	-8.16541
▁Li	-8.16573
▁dis	-8.17015
▁say	-8.17363
▁talks	-8.17489
und	-8.17718
▁search	-8.17797
ck	-8.17975
▁plan	-8.18385
ww	-8.18667
▁another	-8.18671
ft	-8.1869
-1	-8.18727
▁Game	-8.18975
▁close	-8.19317
▁per	-8.19321
ten	-8.19618
▁attack	-8.19699
▁Ex	-8.19797
▁UN	-8.20059
ay	-8.2008
▁free	-8.20126
▁court	-8.20868
▁League	-8.20959
▁Jo	-8.2105
▁six	-8.21649
▁expected	-8.21653
ticker	-8.21713
▁return	-8.21784
ice	-8.21941
▁executive	-8.21956
▁police	-8.22148
▁now	-8.22305
ped	-8.22344
▁com	-8.22384
em	-8.22583
ear	-8.22599
REF	-8.22703
▁John	-8.22764
▁official	-8.22934
▁left	-8.23111
based	-8.23128
▁beat	-8.23488
euters	-8.24003
quick	-8.24191
▁Australia	-8.24364
▁Do	-8.24479
▁North	-8.24665
▁20	-8.24715
▁Group	-8.24715
▁Sa	-8.24867
ger	-8.25233
iv	-8.25455
investor	-8.25564
tor	-8.25607
▁Bank	-8.25753
▁right	-8.25811
▁Pro	-8.25956
ning	-8.25961
▁After	-8.26001
ven	-8.261
▁since	-8.26247
▁Israeli	-8.26266
di	-8.26397
▁Ar	-8.26731
tra	-8.26822
▁Prime	-8.26847
▁Iran	-8.27102
▁AFP	-8.27121
▁dollar	-8.27237
full	-8.27659
▁still	-8.27765
▁Up	-8.27896
▁while	-8.27955
▁Ca	-8.28205
▁mo	-8.28312
▁music	-8.28571
▁International	-8.28616
▁rival	-8.28873
he	-8.29027
▁early	-8.29337
▁industry	-8.29435
▁strong	-8.29464
▁bomb	-8.2953
▁him	-8.29545
▁Intel	-8.29548
lan	-8.29743
▁found	-8.29782
▁election	-8.29907
,000	-8.29963
▁Mi	-8.30145
▁Apple	-8.30365
AN	-8.30411
▁11	-8.3044
ally	-8.30883
▁State	-8.30995
ster	-8.31029
red	-8.31087
be	-8.31111
▁Network	-8.31674
▁put	-8.3171
▁Sox	-8.31972
ang	-8.32001
▁program	-8.3204
▁Po	-8.32162
que	-8.323
▁agreed	-8.32309
way	-8.32415
Full	-8.32421
asp	-8.32454
bo	-8.32668
▁amp	-8.32725
▁go	-8.32866
▁comp	-8.3297
▁military	-8.32995
▁support	-8.33155
▁Win	-8.33519
▁Oracle	-8.33637
ator	-8.33916
stocks	-8.34292
▁use	-8.34466
▁line	-8.34478
▁being	-8.34705
mer	-8.34906
▁l	-8.3514
▁Sun	-8.35282
▁them	-8.35474
rac	-8.3552
quarter	-8.35662
▁trade	-8.35794
quote	-8.35843
ub	-8.36127
▁like	-8.36268
▁So	-8.36332
▁growth	-8.36333
▁nation	-8.36385
▁di	-8.36687
day	-8.36814
▁PC	-8.36817
▁nuclear	-8.37074
cl	-8.37262
▁Ho	-8.37265
▁because	-8.37296
ner	-8.3736
▁Th	-8.37396
▁Russia	-8.37402
▁even	-8.37508
ors	-8.3755
▁bank	-8.37593
▁'	-8.37739
lin	-8.37799
king	-8.37827
j	-8.38176
▁drug	-8.3819
▁demand	-8.38304
▁England	-8.38359
▁mobile	-8.38359
▁me	-8.38486
unt	-8.38527
▁Windows	-8.3864
▁want	-8.3875
▁12	-8.38827
▁...	-8.38907
▁president	-8.38947
ai	-8.39557
▁Vi	-8.39663
▁network	-8.39948
che	-8.39965
ous	-8.4014
ical	-8.40225
ging	-8.40421
▁space	-8.4048
▁online	-8.40627
▁come	-8.40736
da	-8.40865
▁National	-8.40923
▁Car	-8.41115
ER	-8.41221
▁Y	-8.41366
▁Russian	-8.41389
▁chip	-8.41677
ba	-8.41848
ug	-8.41932
io	-8.42144
time	-8.42218
▁round	-8.42218
▁months	-8.4228
▁hand	-8.42616
▁big	-8.42636
▁including	-8.42667
▁But	-8.42673
▁near	-8.42901
▁WASHINGTON	-8.43433
▁West	-8.435
back	-8.43507
▁By	-8.43619
▁fall	-8.43662
▁contract	-8.43729
▁At	-8.44148
▁stock	-8.44223
▁release	-8.44368
▁number	-8.44384
▁Europe	-8.44536
▁ago	-8.44574
▁Washington	-8.44743
ake	-8.44785
▁remain	-8.44804
▁look	-8.45084
▁should	-8.45284
▁only	-8.45494
▁latest	-8.45811
▁earnings	-8.46023
▁days	-8.46041
▁Wal	-8.46181
han	-8.46332
▁po	-8.46623
▁higher	-8.46931
▁seven	-8.47418
▁keep	-8.47539
Sports	-8.476
▁any	-8.47684
▁Air	-8.47709
▁key	-8.47856
▁Gaza	-8.47916
mail	-8.47948
▁city	-8.47979
▁loss	-8.48198
▁Baghdad	-8.48281
▁Research	-8.48281
▁released	-8.48298
▁rose	-8.48372
▁price	-8.48412
ward	-8.48418
AR	-8.48423
▁biggest	-8.48571
▁many	-8.48822
▁need	-8.49059
line	-8.49218
▁players	-8.49407
▁data	-8.4947
▁France	-8.49532
air	-8.49575
▁public	-8.49594
ough	-8.49671
▁site	-8.49701
▁al	-8.49799
▁mis	-8.49986
▁points	-8.50048
ens	-8.50143
▁much	-8.50143
▁Ba	-8.50167
AL	-8.50299
ron	-8.50318
▁services	-8.50371
J	-8.50379
▁peace	-8.50416
▁EU	-8.50528
▁power	-8.50532
vo	-8.5061
▁PeopleSoft	-8.50797
▁vote	-8.51163
▁change	-8.51308
▁Pakistan	-8.51371
▁future	-8.51563
▁\$2	-8.51627
▁region	-8.51757
▁2005	-8.5181
▁fell	-8.51831
▁consumer	-8.51949
▁dead	-8.52154
▁share	-8.52168
ook	-8.52419
▁Stocks	-8.5255
▁j	-8.52675
▁Boston	-8.52793
ions	-8.52797
▁UK	-8.52963
▁troops	-8.52985
▁15	-8.53055
▁sign	-8.53126
▁give	-8.53356
▁War	-8.53807
act	-8.53904
wa	-8.54093
▁allow	-8.54277
▁title	-8.54428
▁gold	-8.54722
▁users	-8.54921
less	-8.55121
▁shares	-8.5521
gen	-8.55369
▁America	-8.55407
ries	-8.55644
land	-8.55664
oo	-8.55694
log	-8.55761
▁held	-8.56026
oc	-8.56063
▁past	-8.56073
▁French	-8.56092
▁again	-8.56166
lay	-8.56328
▁low	-8.56345
▁international	-8.56901
off	-8.5701
▁Israel	-8.5701
▁Australian	-8.57177
▁Su	-8.57248
▁rise	-8.57262
▁half	-8.57294
▁Linux	-8.57307
▁LONDON	-8.57375
▁fourth	-8.57458
ph	-8.57521
▁Two	-8.57787
▁Sh	-8.57794
▁Ta	-8.57816
▁Ga	-8.57884
▁Ru	-8.58037
▁Security	-8.58058
▁Press	-8.58107
▁rebel	-8.58144
ping	-8.58235
▁Union	-8.58454
ON	-8.58565
▁economy	-8.59021
tt	-8.5905
▁good	-8.59184
IN	-8.59207
▁gain	-8.59234
▁minister	-8.59303
▁men	-8.59498
▁Wall	-8.59565
▁Ad	-8.59614
▁ahead	-8.59618
▁launch	-8.59778
gu	-8.59828
▁On	-8.59883
ble	-8.60177
▁where	-8.60317
par	-8.60544
▁stocks	-8.60573
au	-8.60694
tro	-8.60864
▁Bill	-8.61174
▁step	-8.6146
▁Kerry	-8.61579
▁place	-8.616
▁how	-8.61655
▁economic	-8.61754
▁hostage	-8.61786
▁Street	-8.61826
▁Un	-8.62155
▁boost	-8.62182
▁champion	-8.6245
▁case	-8.62478
▁18	-8.62569
▁we	-8.62739
▁news	-8.62919
ga	-8.62957
▁match	-8.63116
▁May	-8.63176
▁presidential	-8.63226
▁video	-8.63258
▁version	-8.63258
ash	-8.63292
▁federal	-8.63474
▁lower	-8.63634
▁NASA	-8.63691
ful	-8.63743
low	-8.63885
▁One	-8.64172
▁forces	-8.6438
ship	-8.64535
if	-8.6458
iz	-8.64655
▁Court	-8.6501
▁manager	-8.65225
fi	-8.65398
ran	-8.65768
mon	-8.65802
▁battle	-8.65816
▁games	-8.65862
▁sell	-8.65885
lic	-8.6597
▁order	-8.66203
▁fight	-8.66253
▁race	-8.6631
▁Indian	-8.66408
▁El	-8.66414
▁took	-8.66668
▁Arafat	-8.66706
▁your	-8.66713
ham	-8.67178
▁campaign	-8.6723
ile	-8.67316
over	-8.67338
▁Report	-8.6736
▁Florida	-8.6738
▁Over	-8.67385
AS	-8.6762
▁Darfur	-8.67832
▁30	-8.67835
ef	-8.67943
ious	-8.68095
the	-8.68397
ct	-8.68446
▁killing	-8.68484
▁nearly	-8.68552
▁death	-8.68594
fer	-8.6862
▁investors	-8.68623
▁late	-8.68821
▁called	-8.69039
▁interest	-8.69053
▁job	-8.69124
▁series	-8.69127
▁Korea	-8.69249
▁City	-8.69341
▁eight	-8.69549
▁turn	-8.69569
▁find	-8.69594
▁Q	-8.69666
▁14	-8.69862
▁ban	-8.70091
▁used	-8.70129
bit	-8.70191
light	-8.70206
ire	-8.70245
▁source	-8.70406
row	-8.70526
▁global	-8.70588
od	-8.70667
▁agreement	-8.70711
ff	-8.70919
ley	-8.70967
▁store	-8.70967
▁visit	-8.71133
do	-8.71285
▁short	-8.71372
▁Mc	-8.71434
▁Japanese	-8.71526
side	-8.71541
▁around	-8.71606
OR	-8.71611
ex	-8.71625
▁Los	-8.71649
▁cha	-8.71765
▁fund	-8.7181
▁own	-8.71875
▁there	-8.71904
▁Lo	-8.7195
ned	-8.72097
▁16	-8.72208
▁Mu	-8.72229
con	-8.72255
▁meeting	-8.72593
▁reports	-8.72595
▁anti	-8.72661
▁Yankees	-8.72689
qui	-8.7294
▁star	-8.72965
▁Ch	-8.73042
▁jobs	-8.73185
▁la	-8.73255
▁Britain	-8.73262
▁strike	-8.73327
▁Plan	-8.73482
▁More	-8.73657
▁te	-8.73836
▁Sha	-8.74034
▁post	-8.74034
▁workers	-8.74147
▁Says	-8.742
▁Is	-8.74214
▁October	-8.74223
br	-8.74251
form	-8.74317
▁September	-8.74384
▁Canadian	-8.74526
tri	-8.74601
▁develop	-8.74614
ath	-8.74701
▁Federal	-8.74707
▁Gu	-8.74726
▁increase	-8.74741
▁13	-8.74884
ny	-8.74902
▁Profit	-8.75194
maker	-8.75274
▁call	-8.75319
▁Di	-8.75462
▁might	-8.75525
▁Go	-8.7575
▁despite	-8.75846
ual	-8.75875
ave	-8.75881
▁she	-8.75922
▁Service	-8.75928
EN	-8.75995
▁push	-8.7617
▁school	-8.76338
▁small	-8.76338
▁Commission	-8.76667
▁life	-8.76834
▁Na	-8.76852
▁hold	-8.76881
ized	-8.77137
▁appear	-8.77348
▁17	-8.77531
men	-8.77537
▁also	-8.77599
▁All	-8.77638
▁pass	-8.77893
▁slow	-8.77906
▁\$4	-8.78163
▁decision	-8.78331
▁California	-8.78498
ade	-8.78512
▁research	-8.78574
▁Hurricane	-8.78582
ative	-8.78598
▁Sony	-8.7862
▁following	-8.78628
ities	-8.78706
ness	-8.7873
▁trial	-8.78757
point	-8.78831
▁both	-8.7884
for	-8.78966
▁continue	-8.78981
rate	-8.79132
▁leading	-8.79156
50	-8.79304
ov	-8.79311
▁Sudan	-8.79343
dy	-8.79532
▁side	-8.79728
▁capital	-8.79852
▁tax	-8.79943
▁Out	-8.79965
▁TV	-8.80131
▁cent	-8.80192
ric	-8.80329
▁become	-8.8046
▁attacks	-8.80612
▁reach	-8.80687
▁trans	-8.80721
▁national	-8.80733
▁Man	-8.80919
eg	-8.81077
east	-8.81191
▁Computer	-8.8131
▁best	-8.81484
▁weeks	-8.81485
▁unit	-8.81553
▁en	-8.81556
▁player	-8.81722
lit	-8.8195
ists	-8.82297
▁medal	-8.82451
▁goal	-8.82539
▁far	-8.8281
Q	-8.82817
ord	-8.83177
▁football	-8.83228
▁customers	-8.83291
▁join	-8.8342
▁list	-8.83664
▁issue	-8.83797
▁News	-8.83881
run	-8.83938
▁shot	-8.84024
▁stop	-8.84128
ever	-8.84199
▁Canada	-8.84291
▁due	-8.84582
ize	-8.849
▁Har	-8.84909
field	-8.85035
▁Kill	-8.85121
▁file	-8.85205
▁wireless	-8.85455
by	-8.85612
▁well	-8.85775
▁forecast	-8.85816
▁recent	-8.85873
▁products	-8.85885
▁fire	-8.8603
▁drive	-8.86035
ES	-8.86047
har	-8.86225
▁November	-8.86359
▁financial	-8.8645
▁political	-8.8645
lar	-8.86482
fa	-8.86524
▁media	-8.86657
▁such	-8.86672
▁law	-8.86696
▁away	-8.86696
▁SAN	-8.86904
head	-8.86916
▁Nov	-8.87122
▁CEO	-8.87273
down	-8.87323
▁East	-8.87395
▁We	-8.87454
▁Ri	-8.87454
▁question	-8.87456
of	-8.87492
▁Bar	-8.87551
▁foreign	-8.8764
▁Hu	-8.87686
▁Michael	-8.87732
▁begin	-8.87799
▁Time	-8.87801
▁Test	-8.88104
ink	-8.8812
▁fear	-8.88238
▁hard	-8.88265
▁control	-8.88717
are	-8.8874
▁here	-8.88768
uck	-8.88822
▁scored	-8.8887
▁25	-8.89025
▁digital	-8.8903
mate	-8.89035
elect	-8.89086
▁told	-8.89393
▁operation	-8.89404
▁air	-8.8969
▁met	-8.89737
ier	-8.89764
▁charges	-8.89847
▁cell	-8.89894
▁n	-8.89919
ka	-8.89951
ung	-8.89955
▁main	-8.89991
▁problem	-8.90251
cent	-8.90316
▁pull	-8.90359
▁rule	-8.90489
ue	-8.90598
▁Price	-8.90731
▁Shares	-8.90837
▁And	-8.90946
▁Williams	-8.91104
▁Profile	-8.912
▁Wi	-8.9127
▁form	-8.91292
▁several	-8.91295
▁straight	-8.91295
▁Post	-8.913
▁leaders	-8.91469
▁whether	-8.91486
▁pitch	-8.91651
▁General	-8.9167
▁Tri	-8.91749
▁double	-8.91775
▁Cha	-8.91789
▁without	-8.92096
▁du	-8.92123
▁Texas	-8.92447
▁Chinese	-8.92544
▁break	-8.92787
▁consider	-8.92836
▁Space	-8.92864
▁clear	-8.92934
▁Series	-8.93182
▁High	-8.93194
▁cost	-8.93353
▁results	-8.93386
▁Championship	-8.93515
serv	-8.93524
arm	-8.93783
ah	-8.93827
▁weekend	-8.93935
▁drop	-8.93994
▁IT	-8.94007
▁saying	-8.94047
▁little	-8.94103
▁few	-8.94111
▁August	-8.94202
ki	-8.9427
▁This	-8.94291
▁Dis	-8.94341
▁Quote	-8.94373
▁bring	-8.94386
▁large	-8.94395
▁threat	-8.94685
▁Net	-8.94697
▁German	-8.94709
▁Wireless	-8.94891
▁full	-8.9506
▁Top	-8.95213
US	-8.95264
▁Mac	-8.95466
▁device	-8.95488
▁making	-8.95544
▁Germany	-8.95573
▁provide	-8.95652
▁across	-8.95686
▁Gold	-8.95702
rn	-8.95709
▁airline	-8.95725
▁arm	-8.95754
▁winning	-8.95948
▁House	-8.96009
▁Search	-8.96087
▁rest	-8.9622
▁\$3	-8.96286
▁Afghan	-8.96387
▁fuel	-8.96391
▁better	-8.96397
▁launched	-8.96582
▁agency	-8.96589
▁great	-8.96591
▁women	-8.96891
round	-8.96978
▁action	-8.97001
▁costs	-8.97034
▁lost	-8.97102
▁union	-8.97363
▁100	-8.97377
▁offering	-8.97602
▁term	-8.97802
▁retailer	-8.97827
▁act	-8.97837
▁Afghanistan	-8.97905
eat	-8.98066
her	-8.98101
net	-8.9811
▁land	-8.98111
▁server	-8.98146
▁running	-8.98181
▁let	-8.98208
▁Am	-8.98213
▁stand	-8.98296
▁br	-8.98558
nch	-8.98637
▁Pe	-8.98783
ev	-8.98954
▁history	-8.99036
▁quarterly	-8.99087
▁\$5	-8.9926
▁Dec	-8.99343
▁name	-8.99356
▁Fla	-8.99375
▁Not	-8.99432
▁meet	-8.9945
uc	-8.99452
▁board	-8.99514
▁application	-8.9955
▁Oct	-8.99562
▁send	-8.99584
▁using	-8.99927
▁Chief	-9.0007
▁wide	-9.00308
▁count	-9.00403
▁iPod	-9.00697
▁taking	-9.00701
▁health	-9.00701
▁defeat	-9.00802
▁real	-9.0082
▁Per	-9.00868
▁Yahoo	-9.00907
TO	-9.00915
▁hope	-9.00985
▁0	-9.01013
▁gra	-9.01091
riv	-9.01102
▁mid	-9.01163
▁revenue	-9.01223
▁Will	-9.01224
ock	-9.01604
▁Or	-9.01708
▁likely	-9.01731
▁Du	-9.01901
▁management	-9.02177
ler	-9.023
▁judge	-9.02496
▁same	-9.02554
▁fans	-9.02577
▁rate	-9.02597
▁Bay	-9.02614
▁24	-9.02641
▁attempt	-9.02711
▁poll	-9.02761
pro	-9.02779
▁Department	-9.02817
▁Big	-9.02827
▁Ed	-9.02896
▁warned	-9.03088
0,000	-9.03216
▁David	-9.03247
▁21	-9.033
▁television	-9.03354
▁extend	-9.03359
▁elections	-9.03448
▁barrel	-9.03463
▁disc	-9.03487
▁field	-9.0354
The	-9.03609
ism	-9.03854
ise	-9.03941
▁London	-9.04002
▁believe	-9.04004
\\	-9.04092
▁jump	-9.04114
▁sa	-9.04136
▁flight	-9.04278
▁add	-9.04282
▁less	-9.04625
▁lawsuit	-9.04655
▁morning	-9.04655
▁accused	-9.05076
▁access	-9.05206
▁event	-9.05373
final	-9.054
▁cap	-9.05405
ky	-9.05431
ace	-9.05484
▁touchdown	-9.05532
▁among	-9.05538
▁Pi	-9.0559
ze	-9.05844
▁Pre	-9.05877
▁Ne	-9.05977
▁operating	-9.06305
▁create	-9.06349
▁tie	-9.0638
▁Deal	-9.06519
▁NFL	-9.06528
▁:	-9.06692
▁Can	-9.06716
▁prison	-9.06751
▁ship	-9.06795
▁Africa	-9.06801
▁improve	-9.06861
▁hopes	-9.06885
▁University	-9.06973
▁200	-9.0704
10	-9.07089
▁got	-9.07278
▁Paul	-9.07302
▁did	-9.07436
▁Former	-9.0749
▁showed	-9.07598
▁office	-9.07683
ory	-9.0771
mark	-9.07831
▁club	-9.07873
▁posted	-9.07905
▁Nations	-9.07925
▁regulator	-9.07983
▁behind	-9.08209
▁toward	-9.08234
▁settle	-9.08275
▁When	-9.08325
AM	-9.08336
▁amid	-9.08392
▁Rise	-9.08415
▁Inter	-9.08465
▁possible	-9.08662
part	-9.08697
▁Jones	-9.08909
▁chance	-9.09009
▁human	-9.09233
▁Athens	-9.09233
▁African	-9.09294
▁euro	-9.09349
ept	-9.0942
▁violence	-9.0946
▁Spain	-9.09577
TA	-9.09592
▁Che	-9.09721
fu	-9.09851
▁focus	-9.0992
▁expand	-9.0992
ney	-9.09972
ified	-9.10064
▁cash	-9.10212
mar	-9.10343
▁expect	-9.10398
▁trading	-9.10496
▁Lu	-9.105
▁train	-9.10505
▁sub	-9.10524
▁Muslim	-9.10612
▁information	-9.10614
ko	-9.10679
▁delay	-9.10746
▁don	-9.10795
ari	-9.10876
▁Sales	-9.10997
▁kill	-9.11041
▁going	-9.11106
iff	-9.1116
▁Brazil	-9.11193
▁Back	-9.1122
source	-9.11248
lie	-9.11379
▁crude	-9.11543
▁Je	-9.1158
▁senior	-9.11777
▁lift	-9.11781
▁challenge	-9.11894
▁study	-9.11895
▁defend	-9.11898
▁came	-9.11922
▁takeover	-9.11959
▁began	-9.11971
▁Get	-9.11979
▁claim	-9.12022
▁militants	-9.12063
q	-9.12182
▁rates	-9.12202
cur	-9.12219
▁Blair	-9.12365
▁Online	-9.124
▁led	-9.12422
▁Chicago	-9.12482
▁injured	-9.12483
▁product	-9.12551
use	-9.12564
▁Tra	-9.12596
gan	-9.12671
▁Houston	-9.12719
▁Giants	-9.12955
▁Ltd	-9.13096
▁Sen	-9.13175
▁almost	-9.13193
▁stake	-9.13272
▁crash	-9.13312
hy	-9.13322
▁inning	-9.13359
▁Fall	-9.13532
▁bankruptcy	-9.1355
▁First	-9.13552
▁popular	-9.13669
▁Da	-9.13711
▁app	-9.13823
▁defense	-9.13908
uk	-9.13915
ray	-9.13952
▁scientists	-9.14317
ju	-9.14364
▁performance	-9.14388
▁leave	-9.14391
▁heart	-9.14402
▁You	-9.14495
▁Champions	-9.14508
▁appeal	-9.1451
▁every	-9.14514
▁card	-9.14713
▁nine	-9.14955
▁blast	-9.14992
▁claims	-9.14999
▁level	-9.15047
▁area	-9.15062
▁signed	-9.151
▁seek	-9.15134
▁Down	-9.15251
▁career	-9.15274
RE	-9.15441
▁those	-9.15478
ix	-9.15558
▁Tiger	-9.15728
▁Secretary	-9.15842
▁alleged	-9.15843
▁AT	-9.16106
▁process	-9.16155
▁gas	-9.16185
▁energy	-9.16209
lam	-9.16313
▁Green	-9.16583
▁complete	-9.16586
▁mark	-9.16615
▁Ju	-9.16697
ient	-9.16715
▁fact	-9.16894
RA	-9.17128
▁Va	-9.17278
▁finish	-9.17318
▁Cut	-9.17327
▁Sept	-9.17356
▁soldiers	-9.17388
▁Business	-9.17441
hold	-9.17453
▁helped	-9.17457
▁Mon	-9.17515
▁acquire	-9.17565
▁Brown	-9.17567
▁soon	-9.17729
▁Home	-9.17755
▁risk	-9.17818
▁production	-9.18167
▁decline	-9.18314
▁storm	-9.18316
▁Bomb	-9.18324
▁earlier	-9.18438
▁Italian	-9.18438
▁died	-9.18536
▁Wood	-9.18565
▁Tech	-9.18694
ible	-9.18705
van	-9.18735
press	-9.18748
▁ten	-9.18787
▁northern	-9.18815
▁must	-9.1893
▁party	-9.18933
▁Motor	-9.18934
ib	-9.19132
▁know	-9.19176
▁project	-9.19192
▁director	-9.19304
▁Buy	-9.19315
▁protest	-9.19321
▁Airways	-9.19321
▁league	-9.19571
ability	-9.19572
▁weak	-9.19587
▁money	-9.196
▁bill	-9.19899
qua	-9.19906
▁old	-9.20077
▁imp	-9.20082
IA	-9.20171
▁southern	-9.20208
season	-9.20248
▁ran	-9.20274
▁yet	-9.2038
▁deliver	-9.20462
uff	-9.20506
gue	-9.20509
▁ATHENS	-9.2059
▁Sharon	-9.20753
▁ended	-9.20831
▁net	-9.20865
▁Hit	-9.20918
▁conference	-9.20974
▁ever	-9.20986
▁Port	-9.2099
▁sport	-9.21047
▁enter	-9.21131
▁sale	-9.21183
▁NBA	-9.21363
▁legal	-9.21487
▁Three	-9.21492
▁Im	-9.21593
▁force	-9.21709
▁George	-9.21748
▁general	-9.21748
▁draw	-9.21791
rick	-9.21963
RI	-9.21981
▁Reserve	-9.22008
EL	-9.22062
▁personal	-9.22073
▁already	-9.22137
▁Louis	-9.22268
▁center	-9.22366
▁opening	-9.22373
▁investment	-9.22433
▁Asia	-9.22487
▁Pat	-9.22567
▁engine	-9.22601
▁Arab	-9.22614
▁corporate	-9.22658
▁publish	-9.22658
▁private	-9.22658
AT	-9.227
▁Nigeria	-9.22789
▁Bu	-9.22844
▁local	-9.2292
▁watch	-9.22921
▁decade	-9.22921
▁If	-9.22959
▁Miss	-9.22991
▁point	-9.23
▁outside	-9.2301
▁warning	-9.23019
▁bar	-9.23218
▁Grand	-9.2332
▁Association	-9.23445
Update	-9.23522
▁gave	-9.23536
▁50	-9.23588
box	-9.23642
▁stay	-9.23665
▁plea	-9.23729
▁countries	-9.23733
▁pressure	-9.23893
rich	-9.23923
▁quarterback	-9.24044
▁hours	-9.24116
▁FRANCISCO	-9.24371
type	-9.24495
▁effort	-9.24548
▁Arsenal	-9.24637
raw	-9.24704
ush	-9.24728
▁pick	-9.24729
▁End	-9.24738
▁#151;	-9.24771
▁track	-9.24773
▁current	-9.24904
▁Real	-9.24966
▁withdraw	-9.2504
zz	-9.25134
▁Communications	-9.25172
ify	-9.25273
gre	-9.25305
▁fast	-9.25306
▁Mark	-9.25382
▁success	-9.25408
▁enough	-9.25477
▁owner	-9.25538
▁TOKYO	-9.25574
▁trying	-9.25609
▁Tokyo	-9.25709
▁Software	-9.25979
▁Ivan	-9.26067
▁Council	-9.26114
▁Take	-9.26138
▁yards	-9.26156
ption	-9.26356
▁resign	-9.26504
▁desktop	-9.2652
new	-9.2654
▁position	-9.26656
▁include	-9.26657
▁Cisco	-9.26657
▁officer	-9.26664
▁electronic	-9.26792
▁Update	-9.26852
▁efforts	-9.26883
▁growing	-9.26943
IR	-9.26946
▁Earth	-9.27066
▁Airlines	-9.27067
▁Trade	-9.27121
▁Bro	-9.27167
▁White	-9.27202
▁Dell	-9.27217
▁link	-9.27255
▁ready	-9.27256
CP	-9.27323
ett	-9.27606
▁THE	-9.27616
▁concerns	-9.27719
ute	-9.27732
▁competition	-9.2775
▁spot	-9.278
ending	-9.27807
▁Systems	-9.2793
▁aimed	-9.27986
▁members	-9.27994
▁holiday	-9.28025
▁sea	-9.28031
ike	-9.28075
than	-9.28193
ular	-9.28206
▁reveal	-9.28304
▁until	-9.28309
▁Sch	-9.28313
▁Rock	-9.2841
print	-9.2858
▁bat	-9.28611
▁opposition	-9.28717
▁arrested	-9.28743
cor	-9.28778
▁23	-9.28891
-0	-9.28953
▁leg	-9.28966
▁travel	-9.28995
▁Power	-9.29001
Qu	-9.29078
▁feature	-9.29134
▁Black	-9.29135
▁reached	-9.29209
FONT	-9.29274
▁Some	-9.29297
▁weapons	-9.29553
80	-9.29847
pping	-9.29934
▁advance	-9.29974
▁From	-9.29982
▁22	-9.30044
▁suffer	-9.30115
▁live	-9.30126
▁Yasser	-9.30255
▁charged	-9.30274
▁rally	-9.30401
▁Manchester	-9.30537
▁Dollar	-9.30679
▁base	-9.30777
▁my	-9.30795
under	-9.30803
▁authorities	-9.30828
▁championship	-9.31282
▁Army	-9.31328
▁mu	-9.31334
▁block	-9.31345
▁DVD	-9.3139
▁water	-9.314
▁taken	-9.3151
cess	-9.31528
▁central	-9.31534
▁Davis	-9.31536
LE	-9.31542
▁failed	-9.31608
▁Asian	-9.3161
▁investigation	-9.31675
cat	-9.31703
▁each	-9.31739
▁continued	-9.31855
▁analysts	-9.31857
▁house	-9.31877
ja	-9.31958
▁previous	-9.31961
▁score	-9.31982
▁calls	-9.32016
▁Lead	-9.32032
▁Tour	-9.32335
▁Miami	-9.32393
▁host	-9.3247
game	-9.32681
▁fresh	-9.32682
▁annual	-9.32827
IC	-9.32859
▁expert	-9.32971
kin	-9.33032
▁build	-9.33046
▁provider	-9.33165
▁update	-9.33196
▁raise	-9.33229
▁suggest	-9.3326
▁emb	-9.33314
▁Madrid	-9.33405
▁trouble	-9.33405
▁special	-9.33417
▁terrorist	-9.33552
▁Music	-9.3357
▁Steve	-9.33642
gra	-9.33667
▁talk	-9.33676
▁finally	-9.33683
▁dispute	-9.33697
▁spending	-9.33742
▁further	-9.33842
▁thousands	-9.33842
▁road	-9.33851
▁candidate	-9.33989
▁auto	-9.33991
▁download	-9.34016
▁export	-9.34148
▁Vo	-9.34194
Mart	-9.34416
▁starting	-9.34459
▁within	-9.34479
▁PM	-9.34482
▁policy	-9.34576
▁single	-9.34614
▁station	-9.34677
▁Pay	-9.34737
▁thing	-9.34894
▁raised	-9.34904
▁filed	-9.35011
▁charge	-9.35041
▁scr	-9.35114
▁size	-9.35124
▁BAGHDAD	-9.35166
▁Francisco	-9.35166
IL	-9.35172
▁Office	-9.35258
▁Center	-9.35327
▁Market	-9.35419
▁replace	-9.35561
▁mean	-9.35564
-3	-9.35644
▁Stock	-9.35671
lon	-9.35754
▁Team	-9.35765
dict	-9.3581
▁retire	-9.35921
▁Stadium	-9.36058
▁eye	-9.36115
▁gun	-9.36248
▁ground	-9.36293
▁2006	-9.36313
▁family	-9.36357
▁Drug	-9.36359
▁seen	-9.36476
▁Bowl	-9.3651
▁movie	-9.36512
▁roll	-9.36529
▁Park	-9.36666
▁Comm	-9.36748
post	-9.36759
ware	-9.36787
▁crisis	-9.36808
▁injury	-9.36808
▁Calif	-9.36809
▁En	-9.36951
▁potential	-9.36958
▁Shi	-9.37004
▁ruling	-9.37116
▁probe	-9.37144
▁27	-9.37225
▁hospital	-9.3726
EC	-9.37264
▁Bre	-9.37382
▁designed	-9.37506
▁think	-9.37566
▁That	-9.37662
▁surge	-9.37669
▁Now	-9.37687
▁direct	-9.37732
▁concern	-9.37749
ING	-9.37761
▁Off	-9.37951
MS	-9.37982
▁once	-9.37985
lain	-9.38159
▁Work	-9.3818
▁figure	-9.38324
▁Store	-9.38394
▁speed	-9.38421
▁fraud	-9.38784
▁light	-9.38868
▁Tom	-9.38896
▁chairman	-9.38937
▁Record	-9.38938
▁Coast	-9.38944
pec	-9.38984
▁looking	-9.3905
▁development	-9.39107
▁went	-9.39154
▁book	-9.39195
▁Exchange	-9.39245
▁survey	-9.39245
▁ski	-9.39293
▁agree	-9.39341
▁prepare	-9.39452
▁Nokia	-9.39555
▁Gra	-9.39623
▁prime	-9.39713
▁Blue	-9.39875
▁retail	-9.40139
rum	-9.40152
view	-9.40207
▁Bur	-9.40239
▁getting	-9.40249
CBS	-9.4027
▁sent	-9.40301
RO	-9.40443
uch	-9.40497
▁plant	-9.40497
▁coming	-9.40564
▁plane	-9.40586
▁qua	-9.40619
▁insurance	-9.40643
month	-9.40769
▁supply	-9.40956
▁children	-9.40956
▁Italy	-9.40966
take	-9.4097
vic	-9.41111
99	-9.4127
lock	-9.41373
▁Make	-9.41399
▁Ryder	-9.41903
▁check	-9.42061
right	-9.4212
▁fo	-9.42227
▁rout	-9.42238
▁Singh	-9.42242
▁never	-9.4226
▁powerful	-9.42264
▁sold	-9.42313
▁town	-9.42357
▁Police	-9.42379
▁Andre	-9.42453
▁Ka	-9.42495
▁promise	-9.42543
▁28	-9.42852
▁Talks	-9.42857
▁stage	-9.4288
▁announce	-9.42953
▁discuss	-9.43022
▁Boeing	-9.43032
▁debt	-9.43034
▁super	-9.4318
▁Delta	-9.43181
ford	-9.43277
▁press	-9.43462
▁semi	-9.43535
30	-9.43576
▁Astros	-9.43661
state	-9.43664
▁practice	-9.4382
oke	-9.43826
▁arrive	-9.43829
▁Paris	-9.43869
▁broke	-9.44009
▁read	-9.44024
▁working	-9.44212
▁Data	-9.44255
▁bombing	-9.44339
▁Angeles	-9.44346
▁playoff	-9.44393
▁Play	-9.4446
▁illegal	-9.44468
▁Tony	-9.44566
▁Em	-9.44619
▁Dutch	-9.44632
▁Day	-9.44702
▁Ireland	-9.44794
▁quit	-9.44913
▁fired	-9.44939
▁Cla	-9.44942
▁radio	-9.44958
▁businesses	-9.44992
▁Force	-9.44998
▁heavy	-9.4512
▁reduce	-9.45121
▁fighting	-9.45277
▁carrier	-9.45455
▁camp	-9.45458
▁planned	-9.45521
sign	-9.45571
▁available	-9.45611
▁expectations	-9.4562
▁Comp	-9.45722
▁bus	-9.45803
▁Four	-9.45813
▁Congress	-9.45893
▁army	-9.46087
▁selling	-9.46104
▁UPDATE	-9.46106
▁Near	-9.46133
▁Free	-9.46138
▁mission	-9.46253
▁Islamic	-9.46271
▁accept	-9.46271
▁benefit	-9.46271
▁Ben	-9.4634
▁standard	-9.46496
▁tech	-9.46588
▁Taiwan	-9.46602
▁wait	-9.46613
▁division	-9.46625
▁Year	-9.46681
▁baseball	-9.46769
▁Johnson	-9.46793
▁color	-9.46969
▁result	-9.47157
▁south	-9.47268
▁Yukos	-9.47269
▁explosion	-9.47269
▁merger	-9.4727
generation	-9.4727
▁building	-9.47292
▁estimate	-9.47436
▁Mobile	-9.47436
▁Set	-9.47531
action	-9.47569
▁decided	-9.47628
▁receive	-9.47666
MW	-9.47714
▁save	-9.47925
▁image	-9.47946
▁winner	-9.4803
Fi	-9.48177
▁known	-9.48261
▁Seattle	-9.48276
▁Football	-9.48445
▁multi	-9.48455
▁processor	-9.48562
▁ball	-9.48588
▁worth	-9.48615
▁suit	-9.48631
▁try	-9.48675
▁missing	-9.48741
▁Sprint	-9.48931
▁named	-9.48943
▁art	-9.49019
▁strength	-9.49124
▁above	-9.49127
▁Disney	-9.49144
▁browser	-9.49294
TI	-9.49352
▁terror	-9.49361
▁approved	-9.49416
flat	-9.49442
▁body	-9.49467
▁confirmed	-9.49604
▁Election	-9.49636
▁Putin	-9.49638
▁avoid	-9.4964
▁unveiled	-9.4967
▁\$50	-9.49774
▁outlook	-9.49807
▁asked	-9.49877
ose	-9.49955
▁Foreign	-9.5015
▁damage	-9.5015
▁suicide	-9.50322
▁film	-9.50327
▁Haiti	-9.50524
▁rocket	-9.5057
▁26	-9.50744
▁clash	-9.50842
▁jail	-9.50844
▁bird	-9.51027
▁guard	-9.51189
vision	-9.5123
▁Kashmir	-9.51361
▁captain	-9.51361
▁HP	-9.51375
▁insurgent	-9.51535
▁proposal	-9.51535
▁blow	-9.51625
▁AMD	-9.51892
ranked	-9.51921
▁member	-9.51998
▁rising	-9.52077
▁statement	-9.52112
▁Republican	-9.52129
IE	-9.52213
▁tournament	-9.52235
▁fine	-9.52269
▁Angel	-9.52377
▁Launch	-9.52413
▁option	-9.5242
▁tough	-9.5246
▁2003	-9.52523
▁lose	-9.52592
▁role	-9.52627
▁debate	-9.52774
▁Mike	-9.52845
aught	-9.52944
▁front	-9.5312
▁Fallujah	-9.53164
IM	-9.53186
▁December	-9.53294
▁My	-9.53442
▁suspected	-9.53455
▁view	-9.53456
▁secret	-9.53472
▁credit	-9.53473
▁pilot	-9.53473
▁employees	-9.53653
ED	-9.53811
▁protect	-9.54074
▁later	-9.54149
▁Abu	-9.54174
▁debut	-9.54188
▁Food	-9.5419
▁Just	-9.54194
▁militant	-9.54466
▁virus	-9.54545
▁kick	-9.54554
▁trip	-9.54715
▁Global	-9.54724
▁Minnesota	-9.54724
▁acquisition	-9.54724
▁shareholder	-9.54725
▁She	-9.54804
▁Indonesia	-9.55051
▁40	-9.55116
▁AL	-9.55149
▁Count	-9.55205
▁operator	-9.55266
▁Strip	-9.55319
win	-9.55415
▁Leader	-9.55422
▁Call	-9.55582
▁Greece	-9.55628
▁newspaper	-9.5581
▁NHL	-9.55811
▁claimed	-9.55934
▁Aug	-9.55964
▁closer	-9.56022
AND	-9.56093
▁increased	-9.56098
▁bad	-9.5613
ana	-9.56234
▁administration	-9.56541
▁equipment	-9.56541
▁predict	-9.56581
▁turned	-9.56681
▁Player	-9.56693
▁north	-9.56726
▁message	-9.56909
▁Law	-9.56914
▁Korean	-9.56939
range	-9.57045
▁settlement	-9.57055
▁urged	-9.57093
▁giving	-9.57094
▁Charge	-9.5713
▁spokesman	-9.57277
▁Detroit	-9.57277
▁rain	-9.57327
▁content	-9.57483
ong	-9.57496
▁App	-9.57503
▁losses	-9.57564
▁given	-9.57658
▁added	-9.57714
▁Super	-9.57956
▁blood	-9.58019
▁extra	-9.5802
▁His	-9.58061
washington	-9.58205
ville	-9.58214
▁along	-9.58317
▁Titan	-9.58395
▁moved	-9.58497
▁Field	-9.58578
▁flu	-9.58592
board	-9.58593
lk	-9.58717
▁Tele	-9.58833
▁edge	-9.5884
▁tight	-9.58897
▁ease	-9.58974
▁Democratic	-9.59048
▁received	-9.59072
▁tell	-9.59132
helve	-9.59159
▁condition	-9.59329
▁staff	-9.5933
▁struggle	-9.59518
▁Atlanta	-9.59518
▁write	-9.59635
▁Ford	-9.59766
▁winter	-9.59801
▁Vote	-9.59833
▁Consumer	-9.59897
▁Virginia	-9.59955
▁row	-9.60031
11	-9.60102
▁producer	-9.60165
strong	-9.60175
cover	-9.60227
▁Chelsea	-9.60276
▁deficit	-9.60277
▁Major	-9.60277
▁Labor	-9.6028
▁Cap	-9.60315
▁July	-9.6032
▁Server	-9.60476
tech	-9.60508
▁sue	-9.60512
▁model	-9.60853
related	-9.60941
duct	-9.61136
▁researchers	-9.6125
▁shut	-9.61287
▁\$10	-9.61316
▁didn	-9.61346
za	-9.61404
▁employ	-9.61422
▁scandal	-9.61425
IT	-9.61511
▁Howard	-9.61533
jo	-9.61551
Nasdaq	-9.61617
▁Cardinals	-9.61617
▁wounded	-9.61617
▁terrorism	-9.61631
high	-9.61731
▁hurricane	-9.6181
▁crowd	-9.61812
▁Part	-9.61813
dom	-9.61832
▁ID	-9.61836
▁lock	-9.61841
▁code	-9.62004
▁Technology	-9.62004
Quarter	-9.62004
itch	-9.6202
istic	-9.62038
▁forward	-9.62059
▁threaten	-9.62083
well	-9.62084
▁rebound	-9.62091
▁young	-9.62213
weight	-9.62258
▁does	-9.62367
house	-9.6241
▁Dan	-9.62451
▁thought	-9.62468
▁joint	-9.62558
▁Act	-9.62558
▁commercial	-9.62586
▁surprise	-9.62586
▁shoot	-9.62591
▁follow	-9.62675
gged	-9.62711
▁fix	-9.62782
▁storage	-9.62782
▁holding	-9.62948
▁design	-9.62954
▁offensive	-9.62977
▁food	-9.63003
▁carry	-9.63023
▁Offer	-9.6307
▁January	-9.63172
▁Najaf	-9.63172
▁Crude	-9.63173
▁total	-9.63352
aving	-9.63362
NewsFactor	-9.63368
▁Karzai	-9.63368
▁Spanish	-9.63369
ealand	-9.6338
▁cleric	-9.63566
▁fifth	-9.63762
▁Attack	-9.63763
▁q	-9.63949
▁Company	-9.6396
ET	-9.63965
▁serious	-9.64157
▁finance	-9.64272
▁word	-9.64464
20	-9.64511
▁Toronto	-9.64553
▁streak	-9.64554
▁Line	-9.64555
ium	-9.64617
erry	-9.64639
▁account	-9.6466
▁fail	-9.64812
▁How	-9.64845
▁CHICAGO	-9.64951
▁homer	-9.65051
▁Baseball	-9.6515
▁Powell	-9.65177
▁partner	-9.65311
▁Low	-9.65313
▁huge	-9.65352
▁losing	-9.65357
▁cover	-9.65485
▁basketball	-9.65551
▁average	-9.65559
▁Nextel	-9.65631
▁Start	-9.6569
▁sex	-9.6574
▁Scientists	-9.65752
▁Supreme	-9.65752
▁missile	-9.65755
▁wild	-9.65761
▁initial	-9.65761
▁Beijing	-9.66154
▁secure	-9.66155
▁woman	-9.66156
▁evidence	-9.66356
▁purchase	-9.66356
▁minutes	-9.66407
▁proposed	-9.66559
▁patent	-9.66561
tica	-9.66632
▁Middle	-9.66762
▁Turkey	-9.66762
▁non	-9.66872
ntin	-9.66874
phone	-9.66875
▁Hollywood	-9.66965
▁increasing	-9.66965
▁Senate	-9.6708
▁machine	-9.67169
▁border	-9.67171
long	-9.67386
▁rock	-9.67393
▁SEC	-9.67532
▁throw	-9.67582
▁Anti	-9.67694
▁chain	-9.67753
▁Electronic	-9.67782
▁vehicle	-9.67782
▁hurt	-9.678
▁hot	-9.67961
▁driver	-9.68131
▁Mexico	-9.68193
▁review	-9.6859
▁Philippine	-9.68606
▁Health	-9.68608
▁class	-9.68609
▁boss	-9.68632
▁vow	-9.68807
▁Stewart	-9.68813
▁Show	-9.68917
▁moon	-9.68977
▁whose	-9.68986
▁Media	-9.69036
▁Warner	-9.69103
▁ruled	-9.69115
▁Philadelphia	-9.69228
▁Fund	-9.69235
▁broker	-9.69422
▁victim	-9.69437
▁die	-9.69475
▁murder	-9.69646
▁walk	-9.69657
▁forced	-9.701
▁earn	-9.70319
▁island	-9.70319
▁accounting	-9.70371
ease	-9.70397
ounce	-9.70485
▁apparent	-9.70485
▁successful	-9.70536
▁35	-9.70554
▁deep	-9.70607
▁leaving	-9.70699
▁Chip	-9.70786
▁Carolina	-9.70907
▁western	-9.70908
Qaeda	-9.70908
▁recall	-9.70911
lor	-9.71009
▁reform	-9.71074
▁kidnapped	-9.71119
▁limit	-9.7112
▁friend	-9.71121
▁doesn	-9.71133
ency	-9.71145
▁commission	-9.71147
▁hundreds	-9.71332
▁became	-9.71332
▁suspended	-9.71362
expected	-9.71525
▁Ukraine	-9.71544
▁course	-9.71547
▁What	-9.7155
Sadr	-9.71554
▁pain	-9.71852
▁hole	-9.71912
▁\$8	-9.71971
▁Masters	-9.71985
▁Cuba	-9.72054
foot	-9.72058
▁threatened	-9.72116
stitution	-9.72185
▁witness	-9.72186
▁Roger	-9.72195
▁unveil	-9.72357
▁favor	-9.724
▁Patriots	-9.724
▁approach	-9.724
▁Bonds	-9.72402
▁James	-9.72402
▁29	-9.72427
mission	-9.72428
▁having	-9.72465
▁dropped	-9.72466
▁arrest	-9.72574
▁medical	-9.72616
▁Martin	-9.72636
Canadian	-9.72666
▁upgrade	-9.72704
▁pace	-9.72713
▁Irish	-9.72833
▁slip	-9.72903
▁Alex	-9.72936
▁though	-9.72967
▁moment	-9.7301
▁rejected	-9.73029
▁iTunes	-9.73046
▁reason	-9.73052
▁grow	-9.73056
▁Jets	-9.73365
▁Egypt	-9.73441
▁Party	-9.73477
▁parliament	-9.7348
▁value	-9.73482
▁seeking	-9.73678
▁mine	-9.73855
▁spam	-9.73877
▁represent	-9.73915
▁Found	-9.73928
▁Seek	-9.73936
place	-9.74012
▁vendor	-9.74135
▁developer	-9.74144
▁interim	-9.74149
▁Firefox	-9.74352
▁sector	-9.74353
▁safety	-9.74607
▁tap	-9.74633
ridge	-9.74639
▁soccer	-9.75012
▁supplies	-9.75012
▁MP	-9.75018
▁conflict	-9.75232
▁miles	-9.75235
▁LOS	-9.75237
▁range	-9.75268
▁very	-9.75292
▁rush	-9.75324
▁Despite	-9.75454
▁Eagles	-9.75454
▁summer	-9.75454
▁Million	-9.75455
▁Sign	-9.75467
▁Beat	-9.75553
lthough	-9.75705
▁\$7	-9.75898
▁Saudi	-9.75898
▁internet	-9.75901
▁Look	-9.75933
▁Defense	-9.7612
▁capture	-9.76122
▁Conference	-9.76344
▁Michigan	-9.76344
▁confidence	-9.76344
UN	-9.76451
▁Case	-9.76458
▁web	-9.76514
▁camera	-9.76536
▁Ohio	-9.76569
stand	-9.76594
▁Merck	-9.76656
yard	-9.76764
get	-9.76784
▁dozen	-9.76794
▁screen	-9.76794
core	-9.76851
▁ANGELES	-9.77016
▁climb	-9.77016
▁violat	-9.77019
▁MSN	-9.77025
▁sentence	-9.7706
▁doubt	-9.77243
▁street	-9.77244
▁6-4	-9.77248
▁AOL	-9.77248
▁arch	-9.77278
▁engineer	-9.77341
▁Central	-9.77467
▁brought	-9.77467
▁measure	-9.77467
▁Christmas	-9.77693
▁Greek	-9.77693
▁document	-9.77693
▁enterprise	-9.77693
▁striker	-9.77736
▁halt	-9.7776
▁Syria	-9.77925
▁feel	-9.77944
▁Peace	-9.77949
▁Thailand	-9.78147
▁31	-9.78243
fire	-9.78301
▁recently	-9.7836
work	-9.78497
▁Tim	-9.78536
▁Last	-9.78598
▁Hold	-9.786
▁Pakistani	-9.78603
▁satellite	-9.78832
▁Official	-9.78832
▁kept	-9.78836
▁resume	-9.78864
▁Jeff	-9.78867
▁goes	-9.789
▁pound	-9.78945
gate	-9.79042
▁student	-9.79062
▁reject	-9.7931
#6	-9.79399
▁Higher	-9.79422
▁Government	-9.79522
▁Agency	-9.79523
▁crack	-9.79526
▁introduc	-9.79553
▁consecutive	-9.79753
▁Ariel	-9.79765
▁suspect	-9.79776
▁care	-9.79793
▁environment	-9.79984
▁slightly	-9.79985
▁Radio	-9.79986
▁aircraft	-9.79995
▁prove	-9.80053
▁tonight	-9.80255
▁lawyer	-9.80468
▁Prix	-9.80686
▁Star	-9.80699
▁citing	-9.80708
▁Enron	-9.80717
▁cause	-9.80771
▁brand	-9.808
▁hotel	-9.80813
sharing	-9.80844
▁guilty	-9.80916
▁Engine	-9.80916
▁passenger	-9.80916
▁Hamas	-9.80932
▁raid	-9.80943
▁flood	-9.8115
▁sharply	-9.81157
▁Royal	-9.81159
style	-9.81205
▁display	-9.81385
▁Rebel	-9.81392
TON	-9.81641
▁scheduled	-9.81842
▁parent	-9.81863
▁produce	-9.81995
▁safe	-9.82034
▁Venezuela	-9.82092
▁immediate	-9.82329
▁pension	-9.82331
▁below	-9.82474
▁issued	-9.82536
▁Advance	-9.82567
▁labor	-9.82569
▁Week	-9.8257
load	-9.82824
erif	-9.82853
▁Chris	-9.82864
▁Fight	-9.82904
▁Executive	-9.83043
▁Cubs	-9.83081
stroke	-9.83097
▁Novell	-9.8314
verdan	-9.8328
▁Securities	-9.83283
▁himself	-9.83283
▁Classic	-9.83284
▁Help	-9.83306
ization	-9.83425
▁Jose	-9.83441
▁Phone	-9.83524
▁Study	-9.83525
▁important	-9.83571
▁Of	-9.83576
66666	-9.83763
="-2"	-9.83763
▁certain	-9.83763
▁platform	-9.83763
▁assault	-9.83763
▁Ivory	-9.83763
▁poor	-9.83933
▁knock	-9.84004
▁sanctions	-9.84004
▁command	-9.84018
▁Good	-9.84067
arial	-9.84198
▁Coach	-9.84203
▁memory	-9.84246
▁threw	-9.84246
▁afternoon	-9.84247
▁Georgia	-9.84488
▁Photo	-9.84489
▁Whil	-9.84583
200	-9.84591
▁diplomat	-9.8473
▁pledge	-9.84732
▁Dead	-9.84796
▁highest	-9.8488
itting	-9.84933
▁Vioxx	-9.84974
▁mortgage	-9.84974
▁hostile	-9.85005
▁broadband	-9.85218
▁manufacturer	-9.85284
▁inflation	-9.85464
▁Democrat	-9.85583
▁Formula	-9.85707
▁Richard	-9.85707
▁Airbus	-9.85708
▁request	-9.85708
▁hunt	-9.85748
▁voters	-9.85776
▁signal	-9.85836
▁custom	-9.86023
▁Marsh	-9.86106
▁Don	-9.86133
▁effect	-9.86138
▁saw	-9.86191
▁Target	-9.86446
▁Step	-9.86472
▁Drop	-9.86476
▁negotiations	-9.86694
▁sweep	-9.86694
▁Oakland	-9.86694
▁Fire	-9.86787
NYSE	-9.86942
▁Arizona	-9.86942
▁Musharraf	-9.86942
▁caused	-9.87098
▁Move	-9.87099
▁Arm	-9.87137
ification	-9.87157
▁Financial	-9.8719
▁resident	-9.87191
▁Federer	-9.87191
▁danger	-9.87192
▁jet	-9.87295
▁Head	-9.87311
▁Dolphins	-9.8744
▁Nintendo	-9.8744
▁Southern	-9.87451
▁spacecraft	-9.87456
▁400	-9.87574
▁Singapore	-9.8769
▁cricket	-9.8769
▁struck	-9.87691
▁prevent	-9.87701
▁OK	-9.87805
▁wave	-9.87842
▁TORONTO	-9.8794
▁significant	-9.87941
▁flaw	-9.87943
▁deploy	-9.88007
▁Jan	-9.88026
Pacific	-9.88192
▁uranium	-9.88192
▁Justice	-9.88232
▁Cost	-9.88573
▁Again	-9.88688
▁OPEC	-9.88696
▁session	-9.88696
▁weather	-9.88696
▁broad	-9.88698
▁panel	-9.88701
▁emerge	-9.88701
▁catch	-9.88702
▁wi	-9.88712
▁abuse	-9.88724
▁Trans	-9.8877
held	-9.88854
▁planning	-9.8886
▁built	-9.88949
▁different	-9.88949
▁together	-9.8895
▁period	-9.8895
▁IPO	-9.88952
▁Lower	-9.89253
▁recover	-9.89278
▁blame	-9.89364
▁collect	-9.89458
▁Scott	-9.89458
▁protection	-9.89618
▁#36;1	-9.89713
▁Nikkei	-9.89713
▁exchange	-9.89713
▁package	-9.89713
▁Video	-9.89714
▁Smith	-9.89715
▁itself	-9.89722
▁Expos	-9.89722
75	-9.89791
▁planet	-9.89791
▁civil	-9.89931
▁criminal	-9.89968
▁Cingular	-9.89971
▁easy	-9.89972
▁Robert	-9.89976
▁remov	-9.90032
▁controversial	-9.90225
▁worst	-9.90228
▁spark	-9.90232
▁lot	-9.90286
hill	-9.90337
meter	-9.90405
▁Kansas	-9.90482
▁interview	-9.90484
▁auction	-9.90484
▁sharp	-9.90485
▁Northern	-9.90491
largest	-9.90529
▁Peter	-9.90531
▁Saddam	-9.9074
▁Malaysia	-9.9074
▁Micro	-9.90762
▁song	-9.90863
▁Indonesian	-9.91047
▁Earnings	-9.91257
half	-9.91321
▁announcement	-9.91404
▁broadcast	-9.91517
▁Jay	-9.91581
graph	-9.91689
▁shopping	-9.91778
▁launches	-9.91819
▁format	-9.91858
▁Final	-9.91925
▁Mount	-9.92026
▁doctor	-9.9204
▁About	-9.92047
▁airport	-9.92131
▁Cell	-9.9217
▁Dame	-9.92172
▁Militant	-9.923
▁strategy	-9.923
▁Kong	-9.92455
▁Rangers	-9.92563
▁dismiss	-9.92563
minute	-9.92566
▁49	-9.92774
▁Cleveland	-9.92826
▁Bell	-9.92834
▁golf	-9.92842
▁Auto	-9.92914
▁exec	-9.92935
▁introduced	-9.93055
▁Chairman	-9.9309
▁gather	-9.93091
▁patch	-9.93096
▁Notre	-9.93178
ology	-9.93226
▁Moscow	-9.93354
▁Dallas	-9.93355
▁massive	-9.93355
▁black	-9.93356
▁Face	-9.93432
▁Under	-9.93504
▁Energy	-9.93619
▁knee	-9.9362
▁worries	-9.9362
▁impact	-9.93661
▁progress	-9.93886
▁Bryant	-9.93886
week	-9.93975
▁import	-9.94108
▁Celtic	-9.94153
▁Strike	-9.94155
▁spent	-9.94175
▁Division	-9.94178
▁attend	-9.94236
▁College	-9.94419
▁approval	-9.94419
▁Judge	-9.9442
▁Blast	-9.94425
▁Fannie	-9.94687
▁Liverpool	-9.94687
▁Verizon	-9.94687
▁telephone	-9.94687
▁Jim	-9.94688
▁Utah	-9.94691
▁learn	-9.94691
▁coast	-9.94695
where	-9.94723
▁recovery	-9.94824
▁defi	-9.9493
▁Develop	-9.94956
▁college	-9.94956
▁prosecutor	-9.94956
▁lack	-9.95006
▁Desktop	-9.95226
▁surgery	-9.95311
▁2000	-9.95332
▁Bangladesh	-9.95496
▁blue	-9.95504
▁beginning	-9.95584
▁passes	-9.95668
▁Palm	-9.95674
▁Vladimir	-9.95767
▁domestic	-9.95767
▁probably	-9.95767
▁why	-9.95877
▁warns	-9.95911
▁treat	-9.95995
▁critical	-9.96039
▁Jason	-9.96041
▁historic	-9.96047
▁Old	-9.96064
▁Long	-9.96169
▁welcome	-9.96312
▁civilian	-9.96352
▁Euro	-9.9657
▁Amazon	-9.96585
▁positive	-9.96585
▁Dodgers	-9.96585
▁venture	-9.96859
▁Turn	-9.96948
▁author	-9.97118
▁English	-9.97133
▁organization	-9.97133
▁Growth	-9.97134
▁pair	-9.97153
break	-9.97275
▁Frank	-9.9741
▁Annan	-9.97416
▁Club	-9.97692
▁deadline	-9.97775
speed	-9.97948
▁matter	-9.97978
▁filing	-9.97993
▁shock	-9.9804
▁Microsystems	-9.9824
▁Retail	-9.98241
▁shift	-9.98242
▁yen	-9.98424
▁Technologies	-9.98518
▁solution	-9.98519
▁something	-9.9853
▁advertising	-9.98798
▁picture	-9.98798
▁province	-9.98798
Packard	-9.98799
▁Western	-9.98808
▁Firm	-9.98811
▁Six	-9.98842
▁Hong	-9.99005
▁person	-9.99009
▁Hostage	-9.99078
▁wrong	-9.99078
▁plot	-9.99092
▁Hewlett	-9.99359
▁Mozilla	-9.99359
member	-9.99523
▁64	-9.9956
▁Board	-9.99608
▁relief	-9.99642
▁hoping	-9.9965
▁crew	-9.99652
▁Samsung	-9.99923
▁earthquake	-9.99923
▁refugee	-9.99923
▁green	-9.99934
▁Storm	-9.99937
▁Island	-10.0001
market	-10.0005
▁Virgin	-10.0012
bury	-10.0016
▁File	-10.0036
dependent	-10.0049
▁collapse	-10.0049
▁fiscal	-10.0049
▁worm	-10.0049
▁require	-10.005
▁Agree	-10.0052
▁upset	-10.0064
▁soldier	-10.0064
▁Jackson	-10.0078
▁Find	-10.0085
▁common	-10.0089
gainst	-10.0094
▁Next	-10.0095
▁decide	-10.0102
▁discovered	-10.0106
▁grand	-10.0107
▁Colin	-10.012
▁Matt	-10.0128
▁Java	-10.0135
▁Express	-10.0141
▁Death	-10.0154
▁voice	-10.0164
▁cross	-10.0164
▁Settle	-10.0165
▁treatment	-10.0173
▁Probe	-10.0187
▁Premier	-10.0191
▁Greenspan	-10.0192
▁Prince	-10.0192
▁Sudanese	-10.0193
▁output	-10.0193
▁offense	-10.0193
▁prompt	-10.0194
trust	-10.0197
(	-10.0213
▁opponent	-10.0221
▁clinch	-10.0221
▁cool	-10.0232
▁2002	-10.0248
▁date	-10.0249
▁Explorer	-10.025
▁struggling	-10.025
▁worldwide	-10.025
▁facing	-10.0251
▁disease	-10.0254
▁tried	-10.0257
▁Still	-10.0259
▁2-0	-10.0263
▁Industry	-10.0279
▁Treasury	-10.0279
▁exploded	-10.0279
▁Toshiba	-10.0308
▁intelligence	-10.0308
▁addition	-10.0308
▁Lanka	-10.0309
▁Hamm	-10.0314
▁bull	-10.0319
▁Hewitt	-10.0338
▁Terror	-10.0338
▁budget	-10.0338
▁prospect	-10.0338
▁Saturn	-10.034
born	-10.035
▁Release	-10.0367
▁Corporation	-10.0367
▁Gulf	-10.0367
▁disrupt	-10.0368
▁dominate	-10.0368
grade	-10.037
▁present	-10.0371
▁Percent	-10.0371
▁Manning	-10.0378
▁Pittsburgh	-10.0396
▁Another	-10.0396
▁Bull	-10.0415
▁Congo	-10.0417
▁moving	-10.0426
▁Prize	-10.0426
▁paid	-10.0427
▁6-3	-10.0436
▁serve	-10.0454
▁Oklahoma	-10.0455
▁\$6	-10.0455
▁address	-10.0456
▁River	-10.0457
wood	-10.0459
media	-10.0462
▁adopt	-10.0469
▁Seven	-10.0477
▁photo	-10.0485
▁militia	-10.0485
▁traffic	-10.0485
▁watchdog	-10.0485
▁cancel	-10.0501
imbabwe	-10.0515
▁Roddick	-10.0515
▁Braves	-10.0515
▁Close	-10.052
▁Shiite	-10.0521
\$1	-10.054
▁Colorado	-10.0545
▁happen	-10.0545
▁dream	-10.0545
▁Owen	-10.0546
▁Digital	-10.0575
▁journalist	-10.0575
▁flag	-10.058
▁June	-10.0617
▁connection	-10.0622
▁2001	-10.0625
sembl	-10.0629
million	-10.0632
▁Threat	-10.0635
▁Nepal	-10.0635
▁Eye	-10.0653
▁truck	-10.0665
▁oust	-10.067
▁Baltimore	-10.0695
▁allegations	-10.0695
▁veteran	-10.0695
▁sound	-10.0698
▁Challenge	-10.0726
▁MOSCOW	-10.0726
▁PARIS	-10.0726
▁Product	-10.073
▁hearing	-10.073
▁Outlook	-10.0756
▁twice	-10.0756
▁Keep	-10.0757
▁reserve	-10.0762
▁weigh	-10.0769
▁stem	-10.0775
▁NASCAR	-10.0787
▁Tennessee	-10.0787
▁monitor	-10.0787
▁Diego	-10.0787
▁Falluja	-10.0809
burg	-10.0816
▁themselves	-10.0817
▁draft	-10.0818
▁girl	-10.0818
▁Poll	-10.0836
▁conduct	-10.0856
▁Gene	-10.0871
▁Colombia	-10.0879
▁resolution	-10.0879
▁Philip	-10.0882
▁becoming	-10.0883
▁Trophy	-10.091
▁raising	-10.091
▁client	-10.091
▁rare	-10.0911
lecommunications	-10.0941
▁community	-10.0941
▁spread	-10.0941
▁prize	-10.0945
▁species	-10.0946
▁switch	-10.0972
ploy	-10.0973
▁answer	-10.0973
▁expansion	-10.1004
▁industrial	-10.1004
▁qualifying	-10.1004
▁idea	-10.1007
▁rescue	-10.1008
▁Chile	-10.1011
▁traders	-10.1014
▁Charles	-10.1035
▁assets	-10.1037
▁income	-10.1055
▁Investors	-10.1069
▁Allawi	-10.1098
▁Associates	-10.1098
▁Swiss	-10.1098
▁website	-10.1098
▁schedule	-10.11
▁summit	-10.113
▁Second	-10.113
▁tackle	-10.1162
▁Could	-10.1162
▁6-2	-10.1162
TODAY	-10.1193
▁instead	-10.1193
▁brief	-10.1193
▁Martha	-10.1194
▁grew	-10.1194
▁Return	-10.12
▁regular	-10.1225
▁Before	-10.1225
▁install	-10.1227
▁Egyptian	-10.1231
▁confirm	-10.1231
town	-10.1236
▁patient	-10.1257
▁tennis	-10.1258
▁Holdings	-10.1264
bound	-10.1265
▁Chart	-10.1269
▁Bears	-10.1271
▁slam	-10.1275
▁tomorrow	-10.1289
▁smart	-10.129
▁Pacers	-10.129
▁story	-10.1312
▁Ministry	-10.1322
▁Organization	-10.1322
▁defensive	-10.1322
▁Golf	-10.1322
▁Key	-10.1326
▁1,000	-10.1328
▁fastest	-10.1339
▁familiar	-10.1354
▁Redskins	-10.1354
▁climate	-10.1354
▁School	-10.1354
▁voting	-10.1355
▁Change	-10.1356
▁Enterprise	-10.1386
▁Nortel	-10.1386
▁celebrate	-10.1386
▁middle	-10.1387
empt	-10.1402
▁System	-10.1409
▁love	-10.1417
SPACE	-10.1419
▁Committee	-10.1419
▁currency	-10.1419
▁Satellite	-10.1452
▁ninth	-10.1452
Valley	-10.1454
▁Associated	-10.1484
▁Donald	-10.1485
▁Expect	-10.1485
▁PGA	-10.1485
▁Twins	-10.1486
▁antitrust	-10.1486
▁unexpected	-10.1493
▁1-0	-10.15
#	-10.1502
▁crucial	-10.1517
▁Watch	-10.1518
▁Beckham	-10.155
▁separate	-10.155
▁Jordan	-10.155
▁affect	-10.1551
▁Victor	-10.1551
spyware	-10.1552
▁detain	-10.1552
▁handheld	-10.1553
▁invest	-10.1559
▁demonstrat	-10.1583
▁Source	-10.1584
▁handset	-10.1586
attered	-10.1626
▁entire	-10.1651
▁Gates	-10.1663
hood	-10.1679
▁closing	-10.1684
▁Link	-10.1712
▁manufacturing	-10.1751
▁Schilling	-10.1751
▁ranking	-10.1757
▁3-0	-10.1769
▁enrichment	-10.1784
▁explosive	-10.1784
▁slash	-10.1785
▁Wrap	-10.1787
▁partnership	-10.1787
▁Brad	-10.1793
▁failure	-10.1793
▁Safe	-10.1797
craft	-10.1818
▁Austria	-10.1818
▁Hussein	-10.1818
▁Craig	-10.1819
▁bought	-10.1819
▁effective	-10.1827
democracy	-10.1852
▁copyright	-10.1852
▁science	-10.1852
▁determine	-10.1852
▁index	-10.1857
▁ballot	-10.1861
▁hike	-10.1868
▁Urge	-10.1868
active	-10.1869
▁shuttle	-10.1887
▁denied	-10.1887
▁warming	-10.1888
▁quickly	-10.1889
▁dramatic	-10.1921
▁Martinez	-10.1921
▁Hamid	-10.1921
▁Ravens	-10.1922
▁Barry	-10.1939
▁People	-10.1955
▁difficult	-10.1955
▁Standard	-10.1955
▁material	-10.1955
▁relative	-10.1955
▁Rooney	-10.1955
▁SBC	-10.1956
▁\$9	-10.199
▁maintain	-10.199
▁disaster	-10.199
▁Great	-10.1991
,500	-10.1992
▁nothing	-10.1993
▁thanks	-10.2006
▁Nuclear	-10.2024
▁resolve	-10.2024
▁Cricket	-10.2024
Ticker	-10.2025
▁kid	-10.2032
▁Hope	-10.2032
finance	-10.2039
▁Cassini	-10.2059
▁eastern	-10.2059
MSFT	-10.2059
▁loan	-10.2063
ologist	-10.2066
▁Scotland	-10.2094
▁Pedro	-10.2097
▁speak	-10.2129
▁cancer	-10.2131
▁Raise	-10.215
▁Phelps	-10.2164
▁choice	-10.2164
▁Kevin	-10.2164
▁flash	-10.2164
▁Guard	-10.218
▁JERUSALEM	-10.2199
▁mixed	-10.2199
▁Chechen	-10.2199
html	-10.2199
▁computing	-10.2235
▁minor	-10.2237
▁Bigley	-10.224
▁boy	-10.224
▁Vodafone	-10.227
▁professional	-10.227
▁preparing	-10.227
▁Attorney	-10.2305
▁BEIJING	-10.2305
▁emergency	-10.2305
▁involved	-10.2305
▁bodies	-10.2305
▁Libya	-10.2307
▁Laden	-10.2307
terror	-10.2327
▁Argentina	-10.2341
▁Taliban	-10.2341
▁Turkish	-10.2341
▁speech	-10.2341
▁remote	-10.2341
▁Strong	-10.2341
▁cast	-10.2349
▁approve	-10.2351
▁Phil	-10.2367
ripped	-10.2375
▁priority	-10.2377
▁supercomputer	-10.2377
▁virtual	-10.2377
▁child	-10.2413
▁Newcastle	-10.2413
▁eliminat	-10.2413
▁solid	-10.2414
▁select	-10.2438
▁coalition	-10.2449
▁upcoming	-10.2452
▁Administration	-10.2485
▁advantage	-10.2485
▁communication	-10.2485
▁license	-10.2485
▁Lewis	-10.2485
▁Accord	-10.2522
▁Jaguar	-10.2522
▁Nobel	-10.2522
▁impose	-10.2526
▁Penn	-10.254
▁astronaut	-10.2558
▁experiment	-10.2558
▁response	-10.2558
▁sought	-10.2558
▁compete	-10.2567
▁activities	-10.2595
▁#14	-10.2595
▁database	-10.2595
▁eBay	-10.2595
▁text	-10.2595
▁begun	-10.2596
▁Soccer	-10.2631
▁studio	-10.2632
▁Motorola	-10.2632
▁strain	-10.2632
▁always	-10.2632
turn	-10.2633
▁Carlos	-10.2634
▁Citigroup	-10.2668
▁Economic	-10.2668
▁Morgan	-10.2668
▁century	-10.2669
▁analyst	-10.2695
▁experience	-10.2705
▁kind	-10.2709
▁grant	-10.2711
▁competitor	-10.2743
▁establish	-10.2743
▁notebook	-10.2743
▁Troops	-10.2743
▁speculation	-10.2743
▁await	-10.2771
▁Anaheim	-10.278
▁confident	-10.278
▁helicopter	-10.278
▁situation	-10.278
▁CITY	-10.278
▁wife	-10.278
▁Auburn	-10.2817
▁Montreal	-10.2817
▁mutual	-10.2817
▁Tampa	-10.2817
▁bowl	-10.2819
▁mind	-10.2825
▁Wenger	-10.2855
▁contain	-10.2855
▁Third	-10.2855
▁Boost	-10.2856
▁admitted	-10.2858
anticipated	-10.2893
▁Journal	-10.2893
▁Science	-10.2893
▁narrow	-10.2893
▁snap	-10.2899
▁Merc	-10.2921
▁Battle	-10.2931
▁steel	-10.2932
▁Opera	-10.2947
▁tank	-10.2969
▁clean	-10.297
awaited	-10.2979
▁living	-10.3007
▁Thousand	-10.3045
▁Capital	-10.3045
▁ticket	-10.3045
▁Premiership	-10.3047
▁magazine	-10.3084
▁observ	-10.3084
▁extension	-10.3084
▁rookie	-10.3084
▁Young	-10.3084
▁embassy	-10.3122
▁natural	-10.3122
▁stadium	-10.3122
▁quiet	-10.3123
▁Break	-10.3138
▁defence	-10.3161
▁alliance	-10.3161
▁paper	-10.3163
▁individual	-10.32
▁similar	-10.32
▁destroy	-10.32
▁perfect	-10.32
▁Kenya	-10.32
▁boom	-10.3201
▁Republic	-10.3224
▁Cincinnati	-10.3239
▁Forecast	-10.3239
▁Hockey	-10.3239
▁Myanmar	-10.3239
▁Tehran	-10.3239
▁cooperat	-10.3239
▁Miller	-10.324
▁mini	-10.3264
▁Adobe	-10.3278
▁hardware	-10.3282
▁spec	-10.3287
Point	-10.3298
▁entertainment	-10.3317
▁unbeaten	-10.3317
▁Support	-10.3318
▁investigating	-10.3357
▁radical	-10.3357
▁white	-10.3357
▁attention	-10.3357
▁Athletic	-10.3397
▁Suspect	-10.3397
▁Kodak	-10.3397
▁overnight	-10.3397
▁Build	-10.3397
▁insurer	-10.3403
▁Sharapova	-10.3437
▁Vietnam	-10.3437
▁Wayne	-10.3437
▁renewed	-10.3437
Star	-10.3441
▁recommend	-10.3477
▁Kmart	-10.3477
▁zone	-10.3478
▁KABUL	-10.3517
▁Jewish	-10.3517
▁beyond	-10.3517
▁Brian	-10.3519
▁Sears	-10.3536
arqawi	-10.3557
▁disappointing	-10.3557
▁qualifier	-10.3557
▁Kobe	-10.3557
▁Women	-10.3557
power	-10.3558
billion	-10.3595
▁abandon	-10.3598
▁scoring	-10.3598
▁amount	-10.3598
▁Lebanon	-10.3638
▁suspension	-10.3638
▁Jeanne	-10.3638
▁combine	-10.3639
▁Jacques	-10.3679
▁continuing	-10.3679
▁survive	-10.3679
▁Briton	-10.3679
▁Edwards	-10.3679
▁attract	-10.3679
▁Spitzer	-10.372
▁Agassi	-10.3761
▁rallied	-10.3761
▁rather	-10.3761
▁Denver	-10.3762
▁Begin	-10.3762
match	-10.3762
▁Symantec	-10.3802
▁Vijay	-10.3802
▁nationwide	-10.3802
▁village	-10.3803
▁Larry	-10.3803
▁tiny	-10.3805
▁repeat	-10.3806
▁Entertainment	-10.3844
▁Pfizer	-10.3844
▁Gordon	-10.3844
▁Mariners	-10.3844
▁contest	-10.3845
▁succeed	-10.3886
▁Barcelona	-10.3886
▁citizen	-10.3886
▁instant	-10.3889
▁Thomas	-10.3927
▁attorney	-10.3927
▁explor	-10.3928
▁suspend	-10.3963
▁franchise	-10.3969
▁technical	-10.3969
▁Pistons	-10.397
▁telecom	-10.397
▁escape	-10.397
▁Wild	-10.3974
▁Indianapolis	-10.4012
▁violent	-10.4012
▁capacity	-10.4012
▁connect	-10.403
▁restructuring	-10.4054
▁stretch	-10.4054
▁technologies	-10.4054
▁Rwanda	-10.4054
Money	-10.4074
▁Halliburton	-10.4097
▁surface	-10.4097
▁trigger	-10.4097
▁brother	-10.4097
▁Pervez	-10.4097
▁retain	-10.4097
▁promote	-10.4099
▁initiative	-10.4139
▁drove	-10.4139
▁FCC	-10.4141
mouth	-10.4144
▁specific	-10.4145
▁favour	-10.4182
▁NCAA	-10.4182
▁cheap	-10.4183
▁combat	-10.4187
▁desert	-10.4187
▁agencies	-10.4225
▁criticism	-10.4225
▁semiconductor	-10.4225
▁separatist	-10.4225
▁drink	-10.4225
▁robot	-10.4225
▁cyber	-10.4226
▁Genesis	-10.4226
▁Water	-10.423
▁Economy	-10.4269
▁Management	-10.4269
▁postpone	-10.4269
▁Claims	-10.427
▁BBC	-10.427
Forbes	-10.4296
▁preliminary	-10.4312
▁enjoy	-10.4312
▁Unveil	-10.4312
▁poised	-10.4313
▁bond	-10.4315
InfoWorld	-10.4356
▁VoIP	-10.4356
▁Romania	-10.436
▁respect	-10.44
▁Kabul	-10.44
▁Plea	-10.4402
▁alert	-10.4407
claim	-10.4411
▁SINGAPORE	-10.4444
▁involving	-10.4444
▁explain	-10.4444
▁Arctic	-10.4444
▁fees	-10.4455
▁Longhorn	-10.4488
▁neighbor	-10.4488
Korea	-10.4497
EMBER	-10.4532
▁Garcia	-10.4532
▁unlikely	-10.4532
▁condemn	-10.4532
▁original	-10.4532
▁Chirac	-10.4532
▁squad	-10.4532
▁indicate	-10.4534
known	-10.4542
Soft	-10.4545
▁Typhoon	-10.4577
▁Commerce	-10.4577
▁corner	-10.4577
▁Fox	-10.4578
▁Clear	-10.4579
dollar	-10.4587
▁Trojan	-10.4622
▁property	-10.4622
▁surround	-10.4622
▁Extend	-10.4622
▁jury	-10.4623
▁march	-10.4623
▁wrap	-10.463
▁SpaceShipOne	-10.4667
▁anniversary	-10.4667
Qaida	-10.4667
▁April	-10.4667
▁Program	-10.4667
▁bolster	-10.4667
▁Protest	-10.4668
▁Plc	-10.4669
▁Short	-10.4714
▁erupt	-10.4715
▁Curt	-10.4728
▁announcing	-10.4758
▁convention	-10.4758
▁Soldier	-10.4758
▁Ryan	-10.476
▁soaring	-10.476
Shell	-10.4769
▁Tennis	-10.4803
▁supplier	-10.4803
▁Bobby	-10.4803
▁Serena	-10.4803
▁creating	-10.4804
▁Cyber	-10.4804
▁Demand	-10.4804
▁Issue	-10.4805
▁Alitalia	-10.4849
▁Jersey	-10.4849
▁Massachusetts	-10.4849
▁Summary	-10.4849
▁Toyota	-10.4849
▁accident	-10.4849
▁inquiry	-10.4849
▁Daily	-10.485
▁Henman	-10.485
Neal	-10.4869
▁convicted	-10.4895
▁securities	-10.4895
▁investigate	-10.4895
▁Arrest	-10.4896
▁Weigh	-10.4898
▁admit	-10.494
▁surprising	-10.4941
▁uncertain	-10.4941
▁improving	-10.4942
▁either	-10.4942
▁Smart	-10.4944
▁Brand	-10.4945
build	-10.4957
▁Kyoto	-10.4988
▁possibly	-10.4988
▁injuring	-10.4988
▁status	-10.4988
▁Delhi	-10.4988
▁usual	-10.4989
▁worse	-10.4994
distance	-10.5004
▁Illinois	-10.5035
▁integrate	-10.5035
▁Future	-10.5035
▁Rival	-10.5035
▁Marlins	-10.5036
▁trail	-10.5037
▁Half	-10.5037
▁Investment	-10.5082
▁Treasuries	-10.5082
▁plunge	-10.5082
▁Maryland	-10.5082
▁birth	-10.5082
▁insisted	-10.5083
▁Cowboys	-10.5129
▁Jakarta	-10.5129
▁SYDNEY	-10.5129
▁reflect	-10.5129
▁respond	-10.5129
▁department	-10.5129
▁Announce	-10.5129
▁relations	-10.5129
▁Manager	-10.5129
cycle	-10.5133
▁tree	-10.5144
▁Caribbean	-10.5176
▁ESPN	-10.5176
▁Netherlands	-10.5176
▁UEFA	-10.5176
▁driving	-10.5176
▁trend	-10.5177
▁father	-10.5177
▁atomic	-10.5177
▁ensure	-10.518
▁Slip	-10.5189
▁hockey	-10.5224
▁legislation	-10.5224
▁crush	-10.5224
▁regard	-10.5224
▁Ferguson	-10.5272
▁McLennan	-10.5272
▁committee	-10.5272
▁Small	-10.5274
profile	-10.5278
MacCentral	-10.532
▁Hollinger	-10.532
▁achieve	-10.532
▁opportunity	-10.532
▁Public	-10.532
▁Reject	-10.532
disclosed	-10.5321
▁Labour	-10.5368
▁crown	-10.5369
▁Vikings	-10.5369
▁activist	-10.5417
▁everything	-10.5417
▁label	-10.5417
frame	-10.5435
▁construction	-10.5465
▁Knicks	-10.5465
▁Early	-10.5467
▁Surge	-10.5468
▁swap	-10.5471
▁bottom	-10.5514
▁Lehman	-10.5515
▁Credit	-10.5515
▁Hassan	-10.5515
▁BRUSSELS	-10.5564
▁alternative	-10.5564
▁vaccine	-10.5564
▁Navy	-10.5564
Halo	-10.5589
▁Basketball	-10.5613
▁messaging	-10.5613
▁pipeline	-10.5613
▁steady	-10.5613
▁praise	-10.5613
▁Devil	-10.5614
▁photograph	-10.5614
▁mosque	-10.5615
▁Campaign	-10.5663
▁identity	-10.5663
▁#36;2	-10.5713
▁Mauresmo	-10.5713
▁subscribers	-10.5713
▁frustrat	-10.5713
▁injuries	-10.5713
▁brawl	-10.5713
▁scene	-10.5713
▁sudden	-10.5763
▁Kazaa	-10.5763
▁Clemens	-10.5763
▁Sweden	-10.5763
▁console	-10.5763
▁Edition	-10.5763
▁Adrian	-10.5764
▁detect	-10.5764
▁ankle	-10.5766
level	-10.5795
▁DoCoMo	-10.5814
▁aggressive	-10.5814
▁triumph	-10.5814
▁Antonio	-10.5814
▁Holiday	-10.5814
▁anything	-10.5815
▁marathon	-10.5864
▁population	-10.5864
▁recruit	-10.5864
▁steroid	-10.5864
▁Chavez	-10.5865
▁Social	-10.5865
▁Deutsch	-10.5865
▁Appeal	-10.5865
▁housing	-10.5865
▁knew	-10.5865
▁guide	-10.5865
▁Columbia	-10.5916
▁channel	-10.5916
▁governor	-10.5916
ibility	-10.5916
▁bargain	-10.5916
▁Osama	-10.5916
▁Travel	-10.5916
▁DNA	-10.5917
▁Defend	-10.5917
▁Embassy	-10.5967
▁Glazer	-10.5967
▁ceremony	-10.5967
▁politician	-10.5967
▁Orleans	-10.5967
trapped	-10.5967
▁lawmakers	-10.5967
▁Siemens	-10.6018
▁competitive	-10.6018
▁mountain	-10.6018
▁subject	-10.6018
▁Insurance	-10.6018
▁Raptors	-10.6018
▁register	-10.6018
▁Solaris	-10.6018
▁pioneer	-10.6018
▁scam	-10.6019
Cola	-10.6032
▁HOUSTON	-10.607
▁sustain	-10.607
▁implement	-10.607
▁Title	-10.6071
▁Match	-10.6072
▁BlackBerry	-10.6122
▁Cambodia	-10.6122
▁OTTAWA	-10.6122
▁incident	-10.6122
▁Charley	-10.6122
▁fierce	-10.6122
escu	-10.613
Trust	-10.6137
▁Gartner	-10.6175
▁corruption	-10.6175
▁Contract	-10.6175
▁Manmohan	-10.6175
▁Companies	-10.6175
▁Staff	-10.6175
▁cannot	-10.6175
▁chose	-10.6179
▁PlayStation	-10.6227
▁gymnast	-10.6227
▁Convention	-10.6227
▁capsule	-10.6227
▁Double	-10.6227
▁worry	-10.6227
▁organize	-10.6227
▁Sharp	-10.6232
▁Electric	-10.628
▁Insurgent	-10.628
▁Schumacher	-10.628
▁athlete	-10.628
▁Clinton	-10.628
▁resort	-10.628
▁examin	-10.6285
EAD	-10.632
▁Hamilton	-10.6333
▁critics	-10.6333
▁easier	-10.6333
▁enhance	-10.6333
▁Control	-10.6333
▁Expand	-10.6334
▁Helens	-10.6334
▁modest	-10.6334
▁mother	-10.6335
▁BOSTON	-10.6387
▁Netscape	-10.6387
▁Pentagon	-10.6387
▁expense	-10.6387
▁Concern	-10.6387
▁tentative	-10.6387
▁Follow	-10.6387
▁Thatcher	-10.6387
▁contact	-10.6387
▁Question	-10.6441
▁Seahawks	-10.6441
▁described	-10.6441
▁exploit	-10.6441
▁function	-10.6441
▁infrastructure	-10.6441
▁inventories	-10.6441
▁kidnappers	-10.6441
▁responsible	-10.6441
▁causing	-10.6441
▁internal	-10.6441
▁shrine	-10.6441
▁task	-10.6441
▁Parliament	-10.6495
▁distribution	-10.6495
▁iMac	-10.6495
▁possibility	-10.6495
▁providing	-10.6495
▁Orlando	-10.6495
▁Violence	-10.6495
▁cloud	-10.6495
▁proceed	-10.6496
▁COL	-10.6496
▁Heart	-10.65
▁Villa	-10.6533
▁DELHI	-10.6549
▁Institute	-10.6549
▁SPORTS	-10.6549
▁laptop	-10.6549
▁obtain	-10.6549
▁subsidiary	-10.6549
▁Guinea	-10.6549
▁equal	-10.6549
▁Safin	-10.655
▁severe	-10.6554
▁Semiconductor	-10.6604
▁Universal	-10.6604
▁encourage	-10.6604
▁guerrilla	-10.6604
▁margin	-10.6604
▁Harmony	-10.6604
▁Ballmer	-10.6604
▁sentiment	-10.6604
▁daily	-10.6604
▁convoy	-10.6604
▁spirit	-10.6604
▁Finance	-10.6604
▁Henry	-10.6604
▁Sirius	-10.6659
▁education	-10.6659
▁graphics	-10.6659
▁Lycos	-10.6659
▁Aussie	-10.6659
▁Ready	-10.6659
▁Albert	-10.6664
security	-10.67
VILLE	-10.6714
▁Hospital	-10.6714
▁Sydney	-10.6714
▁cabinet	-10.6714
▁language	-10.6714
▁Picture	-10.6714
▁Itanium	-10.6714
▁Eisner	-10.6714
▁tumble	-10.6714
▁famous	-10.6714
▁overhaul	-10.6714
▁Raiders	-10.6714
▁overseas	-10.6714
▁honor	-10.6715
world	-10.6756
▁Abbey	-10.6769
▁Military	-10.6769
▁Revenue	-10.6769
▁casino	-10.6769
▁silver	-10.677
▁breath	-10.677
▁Cooper	-10.6771
▁horse	-10.6771
▁Anthony	-10.6825
▁Rumsfeld	-10.6825
▁happy	-10.6825
▁Director	-10.6825
▁emerging	-10.6825
▁Czech	-10.6825
▁Multi	-10.6835
▁referendum	-10.6881
▁Supply	-10.6881
▁criticiz	-10.6881
▁perhaps	-10.6881
▁Chechnya	-10.6938
▁Kremlin	-10.6938
▁Project	-10.6938
▁collaborat	-10.6938
▁error	-10.6938
American	-10.6984
Jazeera	-10.6995
▁Cabinet	-10.6995
▁District	-10.6995
▁Protocol	-10.6995
▁Wizards	-10.6995
▁territory	-10.6995
▁complex	-10.6995
▁Daniel	-10.6995
▁Cavaliers	-10.7052
▁Margaret	-10.7052
▁Defeat	-10.7052
▁siege	-10.7052
▁micro	-10.7052
▁spammers	-10.7052
▁dark	-10.7052
▁repair	-10.7052
▁deputy	-10.7109
▁outsourcing	-10.7109
▁simple	-10.7109
▁Vegas	-10.7109
▁Abbas	-10.7109
▁invasion	-10.7109
▁component	-10.7109
▁adult	-10.7111
▁Retire	-10.7112
▁acknowledg	-10.7167
▁Davenport	-10.7167
▁Radcliffe	-10.7167
▁worried	-10.7167
▁bronze	-10.7225
▁revive	-10.7226
▁adapt	-10.7227
▁regime	-10.7244
▁McDonald	-10.7284
▁ONLINE	-10.7284
▁accusing	-10.7284
▁politics	-10.7284
▁relationship	-10.7284
▁Approve	-10.7284
▁Pentium	-10.7284
▁Hundred	-10.7284
▁envoy	-10.7284
▁operate	-10.7284
▁Honda	-10.7284
▁restrict	-10.7285
▁ATLANTA	-10.7343
▁RFID	-10.7343
▁UNITED	-10.7343
▁dividend	-10.7343
▁Trafford	-10.7343
▁oppose	-10.7343
▁gift	-10.7343
▁ISLAMABAD	-10.7402
▁SEATTLE	-10.7402
▁strategic	-10.7402
▁Broncos	-10.7402
▁Suicide	-10.7402
▁Pension	-10.7402
▁Memphis	-10.7461
▁financing	-10.7461
▁Continue	-10.7461
producing	-10.7461
▁multiple	-10.7462
controlled	-10.7483
▁unprecedented	-10.7521
▁Ferrari	-10.7521
▁CRM	-10.7522
▁supposed	-10.7581
▁Connecticut	-10.7581
▁regulation	-10.7581
▁Little	-10.7581
▁Lawsuit	-10.7642
▁SEOUL	-10.7642
▁controversy	-10.7642
▁scientific	-10.7642
▁Everton	-10.7642
▁copies	-10.7643
WORLD	-10.7703
▁VIENNA	-10.7703
▁penalty	-10.7703
▁loyal	-10.7703
▁Gateway	-10.7703
▁Shanghai	-10.7764
▁Swedish	-10.7764
▁Phillies	-10.7765
▁Bosnia	-10.7766
▁Murdoch	-10.7826
▁difference	-10.7826
▁responsibility	-10.7826
▁sluggish	-10.7826
▁university	-10.7826
▁volume	-10.7826
▁Lleyton	-10.7826
▁normal	-10.7826
▁Alliance	-10.7826
▁Buffalo	-10.7888
▁Eriksson	-10.7888
▁clothing	-10.7888
▁facility	-10.7888
▁families	-10.7888
▁PalmOne	-10.7888
▁sponsor	-10.7888
▁retreat	-10.7888
▁Napster	-10.7888
▁Iowa	-10.7889
▁Kenneth	-10.7951
▁district	-10.7951
▁especially	-10.7951
▁influence	-10.7951
▁object	-10.7951
▁Norway	-10.7951
▁premier	-10.7951
▁scientist	-10.7988
▁Broadband	-10.8014
▁#36;4	-10.8014
▁landslide	-10.8014
▁negotiator	-10.8014
▁policies	-10.8014
▁religious	-10.8014
▁Christian	-10.8014
▁concession	-10.8014
▁Phoenix	-10.8077
▁boycott	-10.8077
▁capabilities	-10.8077
▁column	-10.8077
▁shoppers	-10.8077
▁Survey	-10.8077
▁equity	-10.8077
▁wreck	-10.8077
▁Thanksgiving	-10.8141
▁female	-10.8141
▁optimistic	-10.8141
▁Kuwait	-10.8205
▁Panthers	-10.8205
▁Veritas	-10.8205
▁revolution	-10.8205
▁athletic	-10.8205
▁branch	-10.8205
inhua	-10.8269
▁Diamondbacks	-10.8269
▁Pinochet	-10.8269
▁typhoon	-10.8269
▁widespread	-10.8269
▁Results	-10.8269
▁liquid	-10.8269
▁gasoline	-10.8269
▁fashion	-10.8269
▁modern	-10.8269
General	-10.8275
▁Juventus	-10.8334
▁Wisconsin	-10.8334
▁Hughes	-10.8399
▁chemical	-10.8399
▁exercise	-10.8399
▁compensation	-10.84
ORCL	-10.84
▁cruise	-10.84
▁engag	-10.8406
▁bankrupt	-10.8465
▁Investigat	-10.8465
▁February	-10.8465
▁Governor	-10.8531
▁Jamaica	-10.8531
▁Milosevic	-10.8531
▁RealNetworks	-10.8531
▁genetic	-10.8531
PSFT	-10.8531
▁hurdle	-10.8531
▁Studio	-10.8532
rtheastern	-10.8532
▁#36;5	-10.8598
▁TiVo	-10.8598
▁distribute	-10.8598
▁easily	-10.8598
▁mortar	-10.8598
▁plenty	-10.8598
▁victories	-10.8598
▁sample	-10.8598
▁Environment	-10.8665
▁Orioles	-10.8665
▁submarine	-10.8665
▁Taylor	-10.8665
▁dominant	-10.8665
definition	-10.8665
▁editor	-10.8666
▁overwhelm	-10.8733
▁restaurant	-10.8733
▁coordinat	-10.8733
▁Munich	-10.8733
▁Increase	-10.8733
▁Equato	-10.8734
▁Yankee	-10.8747
▁Kennedy	-10.8801
▁Mississippi	-10.8801
▁utility	-10.8801
▁argument	-10.8801
▁promising	-10.8801
▁Branson	-10.8801
▁Authority	-10.8869
▁Guantanamo	-10.8869
▁Lebanese	-10.8869
▁Switzerland	-10.8869
▁pursue	-10.8869
▁unusual	-10.8869
▁Blockbuster	-10.8938
▁NATIONS	-10.8938
▁assassination	-10.8938
▁Climb	-10.8938
$	-12.4827
