<unk>	0
<s>	0
</s>	0
s	-3.08791
▁the	-3.38992
▁,	-3.4988
▁a	-3.53799
▁and	-3.76272
▁of	-3.86842
▁to	-4.19259
▁.	-4.21628
-	-4.22216
▁'	-4.31021
▁	-4.37451
▁is	-4.59704
▁in	-4.63273
ing	-4.69721
t	-4.70077
▁that	-4.70732
▁it	-4.75074
ly	-4.75102
d	-5.00702
ed	-5.06215
e	-5.08059
▁with	-5.0863
▁an	-5.24667
y	-5.27471
▁film	-5.29399
▁as	-5.30006
▁for	-5.34063
▁movie	-5.41483
▁its	-5.47853
▁this	-5.54284
▁be	-5.61391
m	-5.64051
r	-5.65544
i	-5.67308
er	-5.6874
a	-5.69931
▁you	-5.72791
o	-5.73932
▁n	-5.73938
▁but	-5.74973
▁on	-5.79631
p	-5.82088
'	-5.88269
n	-5.91061
▁by	-5.94222
▁one	-5.9698
▁so	-5.9753
▁more	-5.99991
▁not	-6.00001
c	-6.01128
▁--	-6.01304
▁than	-6.05872
g	-6.08817
▁like	-6.11352
▁has	-6.11593
▁his	-6.12257
▁from	-6.13257
▁about	-6.13474
▁at	-6.14115
▁are	-6.16126
▁or	-6.16215
▁all	-6.18086
al	-6.18449
es	-6.21498
u	-6.22251
▁have	-6.24321
l	-6.25731
▁most	-6.27848
ch	-6.28941
ir	-6.30998
▁who	-6.32972
in	-6.34975
▁good	-6.35695
b	-6.36511
re	-6.36568
▁out	-6.38022
h	-6.40163
▁story	-6.42127
k	-6.43608
▁i	-6.4385
▁too	-6.46296
f	-6.46935
▁...	-6.47055
▁into	-6.47839
an	-6.47855
▁no	-6.49734
w	-6.51696
▁up	-6.51733
or	-6.53903
en	-6.5559
se	-6.55913
▁s	-6.58217
▁re	-6.58673
ness	-6.58951
▁)	-6.59185
ve	-6.63779
▁funny	-6.65102
▁characters	-6.65183
▁can	-6.65711
▁time	-6.6603
▁even	-6.66359
▁comedy	-6.67598
▁(	-6.68517
▁just	-6.69366
▁do	-6.69448
▁p	-6.70812
▁if	-6.71281
▁well	-6.71387
▁will	-6.71736
▁way	-6.72622
ar	-6.73274
▁he	-6.73728
▁some	-6.74265
▁what	-6.74581
▁bad	-6.74816
▁does	-6.75003
▁much	-6.7629
▁`	-6.78707
▁your	-6.79162
▁un	-6.8021
ion	-6.809
▁over	-6.8221
▁love	-6.82487
▁little	-6.83894
le	-6.8395
on	-6.84821
▁whi	-6.85417
▁``	-6.85426
▁life	-6.86215
out	-6.86232
▁work	-6.86265
▁very	-6.87323
ic	-6.88283
▁feel	-6.88799
v	-6.90148
il	-6.90581
▁''	-6.90678
it	-6.92449
▁make	-6.92743
▁b	-6.92926
ent	-6.93043
ra	-6.93338
▁best	-6.93597
ll	-6.96157
▁us	-6.98793
▁any	-6.99287
▁been	-6.99296
▁de	-6.99832
el	-7.01489
▁we	-7.0255
th	-7.03199
▁f	-7.04242
▁enough	-7.05383
less	-7.05574
▁new	-7.06744
.	-7.06982
▁look	-7.07395
at	-7.07972
▁director	-7.09042
ity	-7.11559
▁humor	-7.12017
▁seem	-7.12264
able	-7.12291
▁action	-7.12527
▁was	-7.12772
▁only	-7.136
▁c	-7.13899
▁never	-7.14581
▁there	-7.14611
ro	-7.15086
▁something	-7.15286
▁great	-7.1584
▁makes	-7.16788
▁go	-7.17158
▁through	-7.17283
▁her	-7.18394
ne	-7.18593
ation	-7.20112
▁plot	-7.20459
▁get	-7.22049
▁g	-7.22382
id	-7.22495
▁d	-7.22849
age	-7.23
st	-7.23047
▁made	-7.23503
▁would	-7.23979
▁own	-7.2463
▁take	-7.25039
▁see	-7.26654
▁other	-7.2711
▁two	-7.28348
▁many	-7.28617
▁self	-7.28628
▁hard	-7.28653
▁drama	-7.28701
▁how	-7.29313
▁ca	-7.29483
▁sense	-7.29653
▁really	-7.30046
▁long	-7.30234
▁fun	-7.30575
▁heart	-7.31211
▁character	-7.32185
la	-7.32305
ter	-7.33049
▁performances	-7.33399
▁down	-7.33884
▁off	-7.3442
ry	-7.34728
▁cast	-7.34876
▁audience	-7.35166
▁every	-7.35409
▁could	-7.35667
▁real	-7.36003
▁better	-7.36954
z	-7.37037
▁such	-7.38253
▁give	-7.38362
▁people	-7.3995
as	-7.40511
▁old	-7.40641
▁they	-7.41002
▁when	-7.41329
to	-7.42041
▁first	-7.42066
▁movies	-7.42613
is	-7.42624
▁me	-7.42783
▁ever	-7.42937
▁should	-7.44426
▁nothing	-7.44633
▁both	-7.44784
▁human	-7.45814
▁entertaining	-7.46191
▁being	-7.46701
▁may	-7.48446
▁often	-7.48538
▁script	-7.49529
▁still	-7.49529
▁performance	-7.50284
▁world	-7.50468
▁acting	-7.50548
▁far	-7.52865
est	-7.53112
▁kind	-7.53812
um	-7.54094
ce	-7.5431
us	-7.54959
▁v	-7.56017
▁screen	-7.56364
▁:	-7.5669
▁big	-7.56691
▁star	-7.56731
▁while	-7.57585
▁interesting	-7.5777
▁find	-7.58051
▁because	-7.58277
▁also	-7.58972
▁end	-7.62007
▁another	-7.62717
ant	-7.62945
▁sweet	-7.62957
▁hollywood	-7.63678
man	-7.63693
ous	-7.63996
▁co	-7.64006
▁watch	-7.65373
▁keep	-7.65381
▁few	-7.65628
ish	-7.6588
▁those	-7.67114
▁less	-7.67194
ful	-7.67202
▁thriller	-7.67246
▁dialogue	-7.67364
▁under	-7.67619
▁minutes	-7.67643
ist	-7.67684
ies	-7.67694
me	-7.67821
▁my	-7.6841
▁visual	-7.68518
▁high	-7.68773
ie	-7.6899
▁ma	-7.68995
ally	-7.70564
▁piece	-7.70672
x	-7.7141
ling	-7.71462
te	-7.71885
▁m	-7.72444
tic	-7.72644
▁art	-7.73056
▁romantic	-7.73293
▁tale	-7.73375
▁might	-7.73559
▁compelling	-7.73882
▁after	-7.741
▁man	-7.74261
po	-7.74428
up	-7.74516
▁them	-7.74554
▁family	-7.7463
▁back	-7.75382
▁bit	-7.75616
▁know	-7.76041
▁picture	-7.76131
▁cinema	-7.76487
▁year	-7.76552
▁care	-7.77004
▁want	-7.77401
and	-7.77448
ng	-7.77703
ers	-7.77851
▁dull	-7.77963
▁clever	-7.78197
ul	-7.78509
▁films	-7.7947
▁moments	-7.79579
▁st	-7.79827
▁need	-7.79925
▁again	-7.80085
▁had	-7.80441
▁actors	-7.80675
▁rather	-7.80735
▁li	-7.81094
ard	-7.81343
▁worth	-7.81377
▁lot	-7.82401
▁smart	-7.82714
▁almost	-7.82758
▁show	-7.82952
▁material	-7.8305
ate	-7.83081
▁full	-7.83771
▁part	-7.83888
co	-7.8433
▁r	-7.84603
▁young	-7.84854
▁documentary	-7.85128
▁watching	-7.85331
▁point	-7.85334
▁seen	-7.85909
▁right	-7.86239
▁our	-7.86386
all	-7.8662
▁low	-7.86705
▁idea	-7.87136
▁itself	-7.87238
em	-7.87295
▁original	-7.8746
ac	-7.88045
▁before	-7.88158
▁american	-7.88214
▁flick	-7.88226
the	-7.88437
▁emotional	-7.8856
▁were	-7.88579
▁w	-7.88656
▁she	-7.88674
▁pro	-7.88695
ism	-7.89105
▁h	-7.89599
be	-7.89891
▁quite	-7.90023
▁enjoy	-7.90256
▁direction	-7.90385
▁experience	-7.90653
▁come	-7.91585
of	-7.92358
▁wo	-7.92405
▁charm	-7.92541
▁fascinating	-7.92567
▁dark	-7.92567
▁t	-7.92673
▁moving	-7.9289
▁place	-7.93114
▁subject	-7.93204
▁comic	-7.93625
▁bu	-7.93917
▁light	-7.93979
▁ha	-7.94183
▁between	-7.9419
ated	-7.94368
/	-7.94518
▁set	-7.95231
▁wit	-7.95659
▁things	-7.95896
▁la	-7.95922
▁here	-7.96067
▁car	-7.96207
▁comes	-7.96239
▁scenes	-7.96527
pe	-7.96673
▁rich	-7.97181
▁theater	-7.97937
▁e	-7.98085
▁war	-7.981
▁ta	-7.98968
▁yet	-7.99226
▁k	-7.99237
▁style	-7.99347
0	-7.99481
▁;	-7.9957
▁dis	-7.99638
▁special	-7.99916
▁music	-8.00056
old	-8.00072
▁leave	-8.00476
ance	-8.00476
▁sp	-8.00637
▁con	-8.0203
▁sh	-8.02228
▁where	-8.02375
▁ultimately	-8.02619
▁ex	-8.03105
▁spirit	-8.03235
▁works	-8.03304
ian	-8.03774
end	-8.03939
▁going	-8.0403
▁bo	-8.04066
▁half	-8.04318
▁feature	-8.04733
un	-8.04793
▁making	-8.04902
▁anything	-8.05624
▁o	-8.05702
▁kids	-8.05911
▁why	-8.06249
▁worst	-8.06359
▁fine	-8.06396
▁play	-8.06682
▁strong	-8.06728
▁di	-8.06915
▁le	-8.07106
▁pre	-8.07107
▁cinematic	-8.07161
▁sad	-8.0718
▁thing	-8.07547
▁manage	-8.07577
▁enjoyable	-8.07944
ver	-8.08205
▁j	-8.08214
▁genre	-8.08224
▁least	-8.08225
▁short	-8.08227
▁power	-8.08283
▁years	-8.08427
▁effort	-8.08601
▁run	-8.08792
▁beautiful	-8.09641
▁face	-8.09747
▁laughs	-8.09871
▁ho	-8.10037
▁entertainment	-8.10125
▁history	-8.10896
▁though	-8.11232
▁sometimes	-8.11288
▁ch	-8.11522
▁mind	-8.11531
lu	-8.11566
▁summer	-8.11673
▁powerful	-8.11721
▁ro	-8.12154
▁laugh	-8.1218
▁intelligent	-8.12849
▁engaging	-8.13244
▁turn	-8.13364
▁mo	-8.13587
▁honest	-8.1404
▁solid	-8.14041
▁mi	-8.1462
if	-8.14873
▁together	-8.14973
▁away	-8.15116
▁think	-8.15639
▁put	-8.1577
▁flat	-8.16058
▁fresh	-8.16325
▁him	-8.16465
rate	-8.16576
▁same	-8.16875
ring	-8.17044
▁say	-8.17709
▁head	-8.18086
▁intelligence	-8.18113
▁three	-8.18114
▁narrative	-8.18948
▁amusing	-8.19369
▁dramatic	-8.20328
▁women	-8.2064
▁energy	-8.21067
▁once	-8.21306
▁screenplay	-8.21507
▁did	-8.22479
▁classic	-8.22552
▁video	-8.22662
▁surprisingly	-8.22817
time	-8.22842
▁hand	-8.22844
▁bar	-8.23054
▁charming	-8.2315
▁actually	-8.23344
▁last	-8.23379
ary	-8.23437
▁na	-8.23536
▁wild	-8.23553
ner	-8.23899
▁ra	-8.24179
ut	-8.24205
▁level	-8.24553
▁call	-8.24944
▁whole	-8.25275
▁perfect	-8.25362
mo	-8.25443
▁anyone	-8.25447
▁im	-8.25852
▁times	-8.25891
▁small	-8.26344
▁satisfying	-8.26395
▁pleasure	-8.26403
▁filmmaking	-8.26796
▁true	-8.26798
▁mean	-8.26826
▁talent	-8.27528
do	-8.27642
▁attempt	-8.28165
▁romance	-8.28165
off	-8.28316
ake	-8.28477
▁feeling	-8.28598
▁pretty	-8.28626
▁dumb	-8.2909
▁1	-8.29224
▁silly	-8.29561
▁around	-8.30138
▁dr	-8.30371
▁title	-8.30499
▁opera	-8.3097
▁stuff	-8.31437
▁shot	-8.31442
▁girl	-8.31649
he	-8.32148
ty	-8.32209
▁simply	-8.32392
▁create	-8.32655
▁hilarious	-8.32872
▁horror	-8.32872
▁sure	-8.33022
dy	-8.33395
▁done	-8.33628
ia	-8.33651
▁predictable	-8.33841
▁truly	-8.3433
tive	-8.3515
▁modern	-8.35311
▁day	-8.35693
▁portrait	-8.35806
led	-8.35939
▁sw	-8.36038
▁prove	-8.36146
minute	-8.36247
▁act	-8.36248
ick	-8.3637
▁tone	-8.36373
▁deeply	-8.36397
▁goes	-8.36545
▁project	-8.36804
▁past	-8.36913
▁moral	-8.36995
▁offers	-8.37039
istic	-8.37181
▁19	-8.37819
▁trying	-8.37821
fi	-8.3783
ek	-8.37965
ma	-8.3801
ably	-8.38063
▁always	-8.38319
▁slow	-8.38377
▁cl	-8.38626
▁interest	-8.3886
▁live	-8.39069
▁rare	-8.39222
▁complex	-8.39342
▁sequel	-8.39424
▁fans	-8.39468
▁actor	-8.39601
▁line	-8.39623
▁ja	-8.39961
▁premise	-8.40375
▁since	-8.4072
▁lead	-8.40758
▁artist	-8.40824
▁quirky	-8.40896
▁culture	-8.40901
ious	-8.40959
▁beautifully	-8.41559
▁writer	-8.41665
▁matter	-8.42006
▁suspense	-8.42428
▁adventure	-8.4254
▁becomes	-8.42574
▁men	-8.42659
ble	-8.42668
▁ga	-8.42818
ical	-8.43126
ial	-8.43339
▁obvious	-8.43542
▁familiar	-8.43731
▁lack	-8.44043
▁cheap	-8.4408
▁du	-8.44512
▁form	-8.44608
▁-	-8.44714
▁side	-8.44726
▁dream	-8.44735
▁hit	-8.45487
▁series	-8.45712
▁effects	-8.4606
▁filmmakers	-8.46123
▁mess	-8.46244
▁probably	-8.4626
▁hold	-8.46324
ho	-8.46352
ler	-8.46537
▁dead	-8.46563
▁happen	-8.46812
▁children	-8.46812
▁everyone	-8.46815
▁coming	-8.4683
▁touching	-8.46953
com	-8.47344
our	-8.48311
▁understand	-8.48488
▁vi	-8.48557
▁exercise	-8.49621
▁remarkable	-8.49621
▁study	-8.49631
▁lo	-8.49681
▁wonderful	-8.49935
▁especially	-8.50193
▁imagination	-8.50193
▁must	-8.50313
cu	-8.50358
▁tv	-8.5043
▁hours	-8.50681
▁middle	-8.50768
▁help	-8.50775
▁cha	-8.51089
1	-8.51216
▁hour	-8.51323
▁gorgeous	-8.51345
▁pa	-8.51394
▁boring	-8.51404
▁serious	-8.5164
▁easy	-8.51927
▁everything	-8.51929
▁stand	-8.51981
▁filmmaker	-8.52071
▁tr	-8.52286
▁bland	-8.52595
son	-8.52789
▁instead	-8.531
for	-8.53177
▁reason	-8.53441
▁black	-8.53692
▁fu	-8.53707
nce	-8.54019
▁already	-8.54287
espite	-8.54287
▁intriguing	-8.54885
▁add	-8.55638
▁role	-8.55661
▁hero	-8.55979
▁cold	-8.56242
▁ideas	-8.56348
▁none	-8.56395
▁10	-8.566
▁rock	-8.56705
▁simple	-8.56705
▁message	-8.56785
▁fr	-8.56862
▁thought	-8.56863
▁let	-8.57027
fer	-8.57165
ure	-8.57292
▁brilliant	-8.57317
▁recent	-8.57319
▁problem	-8.57934
▁terrific	-8.57934
▁thoughtful	-8.57983
▁slight	-8.5806
▁storytelling	-8.58556
lin	-8.59384
ized	-8.59648
▁become	-8.59696
▁french	-8.5981
▁stories	-8.5981
▁present	-8.59818
▁camera	-8.59842
bo	-8.60141
▁odd	-8.60215
each	-8.60227
▁second	-8.60442
▁read	-8.60476
itting	-8.6061
▁late	-8.60666
▁sc	-8.61058
▁gentle	-8.6108
▁pop	-8.61095
▁ear	-8.61159
▁written	-8.61608
▁memorable	-8.6172
▁images	-8.61725
▁weird	-8.61731
▁tu	-8.61817
▁nor	-8.6186
lie	-8.61973
day	-8.62076
▁ending	-8.62279
▁inside	-8.62324
▁sub	-8.62362
▁crime	-8.62366
▁fill	-8.62395
▁sex	-8.6251
▁seat	-8.62516
▁pay	-8.62957
▁historical	-8.63015
▁open	-8.63016
▁left	-8.63017
til	-8.63096
▁game	-8.63241
▁insight	-8.63622
▁utter	-8.6367
▁sea	-8.63692
▁woman	-8.6377
▁inter	-8.63923
act	-8.63928
▁visually	-8.63941
da	-8.64111
▁completely	-8.64183
▁death	-8.64329
▁mor	-8.64545
▁believe	-8.64781
▁beauty	-8.64989
▁stupid	-8.64989
ung	-8.65519
▁melodrama	-8.6561
▁fear	-8.65659
▁mood	-8.65663
▁per	-8.65664
▁talented	-8.65936
▁mu	-8.66262
▁wonder	-8.66299
▁beyond	-8.66327
▁ride	-8.6633
having	-8.66468
▁cliché	-8.66521
ped	-8.66661
▁jokes	-8.67571
▁impressive	-8.67683
▁grand	-8.67683
▁above	-8.67687
▁par	-8.67905
▁2	-8.67942
▁emotionally	-8.68244
▁bring	-8.68245
▁amount	-8.68367
▁skill	-8.68408
▁passion	-8.68418
▁jo	-8.68425
nearly	-8.68731
▁ru	-8.68752
▁ugly	-8.69066
▁credit	-8.69187
▁mark	-8.69188
▁fails	-8.69333
▁mr	-8.69357
▁tell	-8.6954
▁himself	-8.69751
▁change	-8.69777
▁l	-8.69836
▁drag	-8.69904
▁welcome	-8.70451
▁allow	-8.70857
▁directed	-8.71062
▁tear	-8.71161
▁home	-8.71255
▁cliches	-8.71482
▁teen	-8.71798
▁warm	-8.7182
▁delight	-8.71888
▁book	-8.72034
▁dog	-8.72087
▁boy	-8.7214
▁social	-8.72579
▁huge	-8.7258
▁soap	-8.72594
▁viewer	-8.72647
ton	-8.72743
▁cop	-8.72794
▁br	-8.72849
fashioned	-8.72868
▁thin	-8.72977
▁impossible	-8.73298
▁suffer	-8.73298
▁awful	-8.7331
▁four	-8.73408
▁sever	-8.73408
▁concept	-8.73542
ball	-8.7361
▁touch	-8.73647
▁different	-8.74023
▁found	-8.74023
▁psychological	-8.74023
▁debut	-8.74023
land	-8.74035
▁easily	-8.74198
2	-8.74217
▁deliver	-8.7423
▁deep	-8.74288
▁wh	-8.74379
▁audiences	-8.74573
right	-8.74856
ible	-8.75183
▁direct	-8.75331
▁contrived	-8.75488
▁excellent	-8.75488
▁oscar	-8.75488
▁writing	-8.75488
▁pull	-8.75494
▁shame	-8.75535
▁cool	-8.75552
▁hope	-8.75681
qui	-8.75778
▁thrill	-8.75836
▁political	-8.76229
▁promise	-8.76229
▁tired	-8.76235
▁else	-8.76242
▁question	-8.76255
▁sort	-8.76294
ize	-8.76431
▁likely	-8.76433
▁success	-8.76928
▁otherwise	-8.76975
▁animation	-8.76975
▁version	-8.76975
▁unique	-8.76985
▁waste	-8.77059
▁fairly	-8.77507
▁recommend	-8.77727
▁comedies	-8.77727
▁moment	-8.77775
▁taste	-8.7849
▁vision	-8.78491
▁warmth	-8.78579
▁close	-8.78829
▁then	-8.78867
▁inventive	-8.79248
▁personal	-8.79478
▁particularly	-8.7962
▁certainly	-8.79694
▁sit	-8.79906
▁violence	-8.80017
▁wrong	-8.80017
▁eyes	-8.801
▁appealing	-8.80114
▁sha	-8.80118
j	-8.80328
▁kid	-8.80362
▁view	-8.80657
▁formula	-8.80689
▁genuine	-8.80701
▁vivid	-8.80792
▁sharp	-8.80795
▁lost	-8.80941
year	-8.81113
▁delightful	-8.81538
▁themselves	-8.81573
▁tedious	-8.81574
▁natural	-8.81576
▁actress	-8.81576
screen	-8.81891
▁hu	-8.82161
▁now	-8.82303
▁fact	-8.82322
▁either	-8.82361
▁imagine	-8.82361
▁purpose	-8.82361
▁thoroughly	-8.82361
▁name	-8.8253
▁sci	-8.82553
▁step	-8.82627
▁viewers	-8.82674
izing	-8.8304
▁final	-8.83095
▁grace	-8.83107
▁water	-8.83157
▁start	-8.83275
▁provide	-8.8338
▁lacks	-8.83462
▁near	-8.83556
tri	-8.83861
▁master	-8.83918
▁creative	-8.83955
▁brain	-8.83956
▁wait	-8.83958
▁barely	-8.83965
▁got	-8.8403
▁sustain	-8.84219
▁sequences	-8.84546
▁soul	-8.84579
▁appeal	-8.84659
hearted	-8.84761
▁treat	-8.84766
▁nice	-8.84786
▁manner	-8.8485
▁creepy	-8.84908
line	-8.85302
▁creat	-8.85385
▁subtle	-8.85566
▁ambitious	-8.85574
▁quality	-8.85574
▁gags	-8.85589
▁fight	-8.85599
▁pace	-8.85786
▁important	-8.85853
▁surprising	-8.86351
▁unexpected	-8.86393
▁winning	-8.86396
▁worse	-8.86396
▁top	-8.86537
▁ill	-8.86702
▁pass	-8.86777
▁pe	-8.86845
▁decent	-8.87221
▁john	-8.87284
▁mar	-8.87565
ney	-8.87899
▁along	-8.88034
▁delicate	-8.88053
▁engrossing	-8.88053
▁next	-8.88053
▁respect	-8.88053
▁running	-8.88059
▁turns	-8.88267
▁ti	-8.88341
▁deal	-8.88621
▁fantasy	-8.88894
▁shoot	-8.88894
▁walk	-8.8898
▁pure	-8.89102
▁plays	-8.89104
▁seeing	-8.8926
director	-8.89328
▁adults	-8.89475
ral	-8.89624
▁pretentious	-8.89741
▁straight	-8.89741
▁throw	-8.89741
▁score	-8.89752
▁shows	-8.90087
▁looks	-8.90104
▁surprise	-8.90342
▁strange	-8.90586
▁major	-8.90596
▁expect	-8.90736
▁z	-8.90988
▁career	-8.91095
▁worthy	-8.91254
▁rip	-8.91441
▁sign	-8.91458
▁follow	-8.91458
▁tragedy	-8.91458
▁fall	-8.91592
▁clichés	-8.92076
▁convincing	-8.92327
▁michael	-8.92327
▁value	-8.92327
▁monster	-8.92327
▁road	-8.92332
▁nature	-8.92524
▁entirely	-8.92883
▁cute	-8.93048
▁class	-8.93064
▁attention	-8.93205
▁production	-8.93279
▁working	-8.93309
movie	-8.93712
▁eye	-8.94007
▁perfectly	-8.9404
▁approach	-8.9409
▁episode	-8.9409
▁truth	-8.9409
▁stylish	-8.94108
▁wise	-8.94112
▁gre	-8.9413
▁standard	-8.94153
▁ste	-8.94444
▁lives	-8.94839
▁scene	-8.94869
▁crowd	-8.94982
▁journey	-8.94982
▁unsettling	-8.94982
▁period	-8.94982
▁usual	-8.95013
▁90	-8.95014
▁unfunny	-8.95037
▁painful	-8.95047
▁heavy	-8.95138
▁job	-8.95207
▁al	-8.95557
mon	-8.95782
▁tragic	-8.95883
▁cla	-8.95965
▁try	-8.96019
oli	-8.96211
▁remains	-8.96551
▁ph	-8.9658
▁cut	-8.96731
▁figure	-8.96792
▁future	-8.96793
▁intense	-8.96793
▁epic	-8.96793
▁blood	-8.97056
like	-8.97257
by	-8.97379
▁grow	-8.97455
▁neither	-8.9771
▁rhythm	-8.9771
▁depth	-8.97712
▁shallow	-8.97754
▁remember	-8.97755
▁pat	-8.97843
light	-8.97957
▁super	-8.98466
key	-8.98494
▁satire	-8.98636
▁mystery	-8.98636
▁successful	-8.98694
kin	-8.98732
ug	-8.98791
gi	-8.99045
▁rest	-8.99169
long	-8.99308
▁edge	-8.99415
▁difficult	-8.9957
▁believable	-8.99604
▁clear	-8.99644
▁win	-8.99712
▁use	-8.99986
▁reality	-8.99995
▁dry	-9.00053
▁joy	-9.0022
ley	-9.00365
▁spiritual	-9.00516
▁hip	-9.00517
▁tension	-9.00518
▁sentimental	-9.01211
q	-9.01282
▁effective	-9.01466
▁insult	-9.01468
▁tries	-9.01553
▁able	-9.01705
▁elements	-9.019
▁fire	-9.0207
ange	-9.02072
▁lacking	-9.02123
▁9	-9.02137
▁cent	-9.02193
▁drive	-9.02473
▁paint	-9.02752
▁move	-9.02811
▁bla	-9.02815
work	-9.03113
▁poorly	-9.03187
▁th	-9.03323
▁masterpiece	-9.03399
▁provocative	-9.03399
▁colorful	-9.0344
▁considerable	-9.03462
▁cho	-9.03623
top	-9.03943
ky	-9.03952
ward	-9.04355
▁adaptation	-9.04379
▁smile	-9.04379
▁robert	-9.04379
▁affection	-9.04397
▁chance	-9.04539
▁reach	-9.04605
▁highly	-9.04783
▁scary	-9.04906
▁cinematography	-9.05369
▁endearing	-9.05369
▁hackneyed	-9.05369
▁sensitive	-9.05369
▁structure	-9.05369
▁york	-9.05369
▁motion	-9.05371
▁stage	-9.0564
▁watchable	-9.05699
▁spy	-9.05824
hop	-9.06071
▁earnest	-9.0623
é	-9.06369
▁virtu	-9.06369
▁couple	-9.0637
▁stay	-9.06375
▁parents	-9.06376
▁disney	-9.06413
▁getting	-9.06421
▁exact	-9.06421
▁appear	-9.06564
▁storyline	-9.06576
▁greatest	-9.06749
▁gone	-9.06886
▁situations	-9.07012
▁qu	-9.07092
▁superficial	-9.07379
▁includ	-9.07379
▁potential	-9.07391
▁single	-9.07395
▁frame	-9.07402
▁finally	-9.07464
▁suck	-9.07534
▁break	-9.07713
ities	-9.07795
▁loud	-9.07857
▁sn	-9.07891
▁remind	-9.08285
az	-9.08285
conscious	-9.08398
▁depressing	-9.08399
▁pleasant	-9.08399
▁animated	-9.08401
over	-9.08417
▁witty	-9.08491
▁falls	-9.08558
▁endless	-9.08777
▁detail	-9.08786
▁scar	-9.09189
▁night	-9.09264
▁possible	-9.0943
▁reveal	-9.0957
▁ends	-9.09575
▁quiet	-9.096
▁hole	-9.0972
though	-9.10273
▁elegant	-9.10472
▁frustrating	-9.10472
▁burn	-9.10475
▁hell	-9.10507
▁money	-9.1051
▁flaws	-9.10856
▁pictures	-9.10963
▁fast	-9.11193
▁throughout	-9.11205
▁themes	-9.11227
▁magic	-9.11318
cross	-9.1132
▁ke	-9.11452
▁secret	-9.11525
▁overcome	-9.11527
▁sexual	-9.11528
▁relationships	-9.11903
▁wear	-9.12244
▁mid	-9.12557
▁forget	-9.12588
▁female	-9.12589
▁insightful	-9.12665
▁wish	-9.12744
▁examination	-9.12788
▁emotions	-9.12874
▁20	-9.12968
mong	-9.12983
▁given	-9.13036
▁toward	-9.13157
▁carrie	-9.13446
▁express	-9.13663
▁apparent	-9.13664
▁emerge	-9.13664
▁imaginative	-9.13664
▁deft	-9.13675
▁cross	-9.13879
▁days	-9.13898
▁mindless	-9.13904
▁fan	-9.13933
▁pointless	-9.13976
▁hot	-9.13996
▁defi	-9.14132
▁lame	-9.14246
riv	-9.1426
way	-9.14267
▁uses	-9.14325
▁school	-9.14352
▁wood	-9.14445
▁color	-9.14705
▁spielberg	-9.14751
▁ridiculous	-9.14756
▁alien	-9.14765
▁delivers	-9.14781
▁balance	-9.14808
▁number	-9.15435
power	-9.15695
▁date	-9.15706
▁absurd	-9.15767
▁favor	-9.15849
▁awkward	-9.1585
▁definitely	-9.1585
▁execution	-9.1585
▁intimate	-9.1585
▁sketch	-9.1585
▁avoid	-9.1585
▁target	-9.1585
ether	-9.15872
▁minor	-9.1594
▁complete	-9.16091
▁poor	-9.16103
▁share	-9.16257
during	-9.1648
what	-9.16819
down	-9.1682
▁ensemble	-9.16961
▁intrigue	-9.16961
▁triumph	-9.16961
▁cartoon	-9.16961
▁steven	-9.16971
▁playful	-9.171
side	-9.17148
life	-9.17652
▁force	-9.17943
▁except	-9.18082
▁struggle	-9.18084
▁memory	-9.18085
▁gross	-9.18086
▁plain	-9.18086
▁mild	-9.18091
▁pacing	-9.18093
▁trick	-9.18133
▁urban	-9.1827
▁person	-9.18302
▁roll	-9.18392
▁captures	-9.18596
▁doing	-9.18695
▁mix	-9.18704
▁suit	-9.18802
▁sand	-9.18869
▁x	-9.18923
ami	-9.1898
▁process	-9.19018
ability	-9.19114
▁exciting	-9.19221
▁supposed	-9.19221
▁release	-9.19221
▁paper	-9.19223
▁novel	-9.19226
▁blue	-9.19234
▁trip	-9.19253
ship	-9.1926
vin	-9.19287
▁entertain	-9.19456
ught	-9.19518
▁told	-9.19561
▁twists	-9.19649
cur	-9.19706
▁forced	-9.19992
▁friend	-9.20301
▁astonishing	-9.2037
▁critic	-9.2037
▁striking	-9.2037
▁trouble	-9.2037
▁uneven	-9.2037
▁result	-9.2037
▁brutal	-9.20371
▁goofy	-9.20372
▁pri	-9.20381
▁ability	-9.20478
taking	-9.20498
▁ten	-9.20534
▁deserves	-9.20568
▁gut	-9.20586
▁offer	-9.2092
eck	-9.20969
▁pain	-9.21451
▁jack	-9.21509
▁mediocre	-9.21533
▁amazing	-9.21533
▁remake	-9.21534
▁apart	-9.21543
▁free	-9.2155
▁pack	-9.21701
▁thinking	-9.21822
▁hate	-9.22343
▁room	-9.22352
▁return	-9.22404
▁sexy	-9.22457
▁document	-9.22682
▁transcend	-9.22709
▁contemporary	-9.22709
▁heartfelt	-9.22709
▁tiresome	-9.22709
▁tribute	-9.22709
▁someone	-9.2272
▁occasionally	-9.23068
▁humanity	-9.23194
▁conviction	-9.239
▁damage	-9.239
▁generic	-9.239
▁plenty	-9.239
▁worthwhile	-9.239
▁chilling	-9.239
▁evil	-9.239
▁living	-9.23904
▁sandler	-9.23925
▁manipulative	-9.23939
▁stale	-9.23943
▁case	-9.23966
▁cultural	-9.24123
▁equally	-9.24347
▁loss	-9.24368
▁twisted	-9.24471
▁main	-9.24723
made	-9.25066
▁authentic	-9.25105
▁conclusion	-9.25105
▁funnier	-9.25105
▁observation	-9.25105
▁sophisticated	-9.25105
▁felt	-9.25112
▁failure	-9.25122
▁large	-9.25142
▁nicely	-9.25192
▁core	-9.25211
▁bright	-9.25274
▁superb	-9.25329
▁surprises	-9.25464
▁sun	-9.25465
▁fair	-9.25465
▁sincere	-9.25518
▁fit	-9.25622
▁events	-9.25654
▁ages	-9.25694
▁ago	-9.2575
▁ii	-9.25855
▁fully	-9.26048
▁painfully	-9.26285
▁accept	-9.26324
▁offensive	-9.26324
▁stunning	-9.26324
▁terrible	-9.26324
▁aspect	-9.26324
▁decade	-9.26324
▁mother	-9.26326
▁term	-9.26355
▁indie	-9.26358
▁shock	-9.2664
▁words	-9.26644
▁telling	-9.26707
▁today	-9.26787
mill	-9.26921
▁crafted	-9.27059
▁starts	-9.27427
▁please	-9.27445
▁spark	-9.27513
▁seek	-9.27515
▁poetry	-9.27559
▁remarkably	-9.27559
▁voice	-9.27559
▁punch	-9.2756
▁amateurish	-9.27567
▁marvelous	-9.2758
bound	-9.27597
▁thanks	-9.2774
arious	-9.2785
▁ultimate	-9.2794
▁fish	-9.28
▁situation	-9.2801
ept	-9.28054
▁consider	-9.28182
▁inept	-9.28566
▁devoid	-9.28809
▁sleep	-9.28809
▁battle	-9.28809
▁continu	-9.28809
▁clarity	-9.28809
▁weak	-9.28814
▁breathtaking	-9.28817
▁lovely	-9.2884
▁masterful	-9.28882
▁modest	-9.28889
▁grat	-9.28962
▁inspiring	-9.29189
▁brings	-9.29686
▁draw	-9.2981
earth	-9.29908
rio	-9.29947
▁fare	-9.30045
▁desperate	-9.30075
▁doubt	-9.30075
▁escape	-9.30075
▁meandering	-9.30075
▁justice	-9.30085
▁studio	-9.30087
▁realistic	-9.30239
▁green	-9.30303
▁park	-9.30376
▁acted	-9.30455
▁talk	-9.30463
atur	-9.30536
▁playing	-9.30585
tle	-9.30655
▁sound	-9.30661
▁guy	-9.30662
▁die	-9.30801
▁party	-9.31058
▁non	-9.31238
▁company	-9.31357
▁energetic	-9.31357
▁strike	-9.31357
▁achievement	-9.31357
▁issues	-9.31359
▁engage	-9.31391
action	-9.31622
▁refreshing	-9.31782
▁sick	-9.31856
nder	-9.32156
▁rarely	-9.32257
▁weight	-9.32452
▁slo	-9.32473
▁product	-9.32544
▁clearly	-9.32557
▁count	-9.32603
▁achieve	-9.32655
▁funniest	-9.32655
▁heartwarming	-9.32655
▁eva	-9.32736
▁front	-9.32884
▁guilty	-9.32894
▁extreme	-9.33098
▁house	-9.33142
▁sounds	-9.33371
▁ju	-9.33787
▁crisp	-9.33971
▁empty	-9.33971
▁extraordinary	-9.33971
▁festival	-9.33971
▁positive	-9.33971
▁routine	-9.33971
▁scream	-9.33971
▁substance	-9.33971
▁impact	-9.33971
▁sloppy	-9.33972
▁strain	-9.33972
▁strangely	-9.33987
▁country	-9.34038
some	-9.34114
▁genuinely	-9.34126
▁realism	-9.34248
ever	-9.34395
▁quick	-9.34461
▁fail	-9.34757
9	-9.35036
▁dim	-9.35295
▁cruel	-9.35304
▁chemistry	-9.35305
▁concern	-9.35305
▁derivative	-9.35305
▁maintain	-9.35305
▁meditation	-9.35305
▁previous	-9.35305
▁yourself	-9.35305
▁frank	-9.35305
▁yarn	-9.35306
▁root	-9.35315
▁rush	-9.35321
▁casting	-9.35328
good	-9.35389
▁unlike	-9.35468
national	-9.35548
▁twist	-9.35563
▁flo	-9.36138
▁wasted	-9.36554
▁inspiration	-9.36656
▁annoying	-9.36656
▁commercial	-9.36656
▁gripping	-9.36656
▁politics	-9.36656
▁alone	-9.36658
▁load	-9.36661
▁state	-9.36859
▁viewing	-9.36898
▁originality	-9.37023
▁entire	-9.37155
▁law	-9.37273
▁shape	-9.37487
▁award	-9.37925
▁gay	-9.37932
▁universal	-9.38026
▁brother	-9.38027
▁child	-9.38027
▁logic	-9.38037
indulgent	-9.38037
▁kiss	-9.38041
▁bore	-9.38052
▁screenwriter	-9.38053
▁rank	-9.38132
▁catch	-9.38228
▁deni	-9.38236
▁match	-9.38296
▁length	-9.38514
▁skin	-9.38707
▁wonderfully	-9.38745
▁disappointing	-9.38767
▁guys	-9.38782
▁begins	-9.38987
▁word	-9.39065
▁devastating	-9.39415
▁excitement	-9.39415
▁glimpse	-9.39415
▁poetic	-9.39415
▁behind	-9.39415
▁convince	-9.39415
▁answer	-9.39419
▁merely	-9.39426
▁save	-9.39426
▁layer	-9.39431
▁twice	-9.39436
▁attraction	-9.39482
tuck	-9.39554
head	-9.39624
▁week	-9.39673
uddle	-9.39733
lia	-9.39735
▁serve	-9.40167
▁deserve	-9.402
▁america	-9.40557
▁computer	-9.40823
provoking	-9.40823
▁promising	-9.40823
▁slapstick	-9.40823
▁unnecessary	-9.40823
▁unusual	-9.40823
▁movement	-9.40824
▁tender	-9.40827
fest	-9.40833
▁bro	-9.4094
▁sheer	-9.4095
▁flawed	-9.41096
▁absolutely	-9.41153
▁interested	-9.41182
grade	-9.41186
handed	-9.41323
▁cost	-9.41483
thin	-9.41521
▁detailed	-9.41712
minded	-9.41717
▁extremely	-9.41767
▁pic	-9.422
▁murder	-9.42252
▁popcorn	-9.42252
▁record	-9.42252
▁sappy	-9.42252
▁villain	-9.42252
▁essential	-9.42252
▁courage	-9.42252
▁pathetic	-9.42252
▁grant	-9.42254
▁push	-9.42254
▁friendship	-9.42264
▁british	-9.42289
▁stop	-9.42541
▁band	-9.42825
▁bother	-9.4289
▁fashion	-9.43113
▁taken	-9.43148
▁ya	-9.43565
▁ground	-9.43701
▁horrible	-9.43701
▁metaphor	-9.43701
▁protagonist	-9.43701
▁spectacle	-9.43701
▁typical	-9.43701
▁japan	-9.43702
▁sink	-9.43707
▁camp	-9.43712
▁succeeds	-9.43809
rence	-9.43829
▁prim	-9.44071
▁served	-9.44392
uit	-9.44501
▁pur	-9.4467
▁cat	-9.4467
▁wind	-9.4475
▁usually	-9.45126
possibly	-9.45172
▁embrace	-9.45172
▁incredibly	-9.45172
▁mesmerizing	-9.45172
▁opportunity	-9.45172
▁spectacular	-9.45172
▁technical	-9.45172
▁disaster	-9.45172
▁treatment	-9.45172
▁dreary	-9.45173
▁alive	-9.45173
▁labor	-9.45173
▁exceptional	-9.45175
▁performers	-9.45208
▁drug	-9.45216
▁impression	-9.45236
rim	-9.45402
clas	-9.45436
dimensional	-9.45442
▁certain	-9.45793
▁raci	-9.45963
▁city	-9.46041
▁chan	-9.46281
▁offering	-9.46435
▁breath	-9.46654
▁represent	-9.46664
▁street	-9.46664
▁transform	-9.46664
▁eventual	-9.46665
▁comedic	-9.46668
▁proper	-9.46669
▁pile	-9.46684
▁source	-9.46707
▁post	-9.46719
▁suspenseful	-9.46797
night	-9.46906
▁frequently	-9.46909
aggr	-9.47019
▁forgettable	-9.47288
▁seriously	-9.4741
edge	-9.47593
▁refreshingly	-9.47678
looking	-9.47851
▁kill	-9.47853
▁absorbing	-9.48179
▁riveting	-9.48179
▁sensual	-9.48179
▁suggest	-9.48179
▁stock	-9.48179
▁brown	-9.4818
▁freak	-9.4818
▁south	-9.48191
▁resist	-9.48219
▁sitcom	-9.48222
▁fat	-9.48327
▁beat	-9.48337
budget	-9.4844
written	-9.48447
▁delivery	-9.49234
natured	-9.49391
ude	-9.49518
▁bottom	-9.49718
▁dazzling	-9.49718
▁exquisite	-9.49718
▁franchise	-9.49718
▁identity	-9.49718
▁predecessor	-9.49718
▁business	-9.49718
▁build	-9.49721
▁crap	-9.49721
▁choice	-9.49723
▁forgive	-9.49724
▁bond	-9.49735
▁conventional	-9.49826
drama	-9.50014
average	-9.50222
▁fiction	-9.50247
▁oddly	-9.50296
▁rap	-9.50353
▁general	-9.50405
▁awe	-9.50907
▁idio	-9.51234
▁wal	-9.51279
▁2002	-9.5128
▁college	-9.5128
▁condition	-9.5128
▁crush	-9.5128
▁david	-9.5128
▁profound	-9.5128
▁repetitive	-9.5128
▁unimaginative	-9.5128
▁measure	-9.5128
▁development	-9.5128
▁editing	-9.51281
▁lazy	-9.51282
field	-9.51283
▁false	-9.51285
▁check	-9.51324
▁based	-9.51641
rge	-9.51646
▁bold	-9.51751
star	-9.51791
▁pick	-9.51854
▁allen	-9.52113
▁damn	-9.52223
town	-9.52821
suspect	-9.52867
▁complicated	-9.52867
▁obnoxious	-9.52867
▁stomach	-9.52867
▁violent	-9.52867
▁vulgar	-9.52867
▁bullock	-9.52868
▁torture	-9.52868
▁animal	-9.52868
▁group	-9.52868
▁nuance	-9.5287
▁space	-9.52871
▁speak	-9.52876
▁rise	-9.52885
▁belly	-9.52983
▁kick	-9.52988
▁stick	-9.53024
▁devi	-9.53029
ale	-9.53103
▁maybe	-9.53171
back	-9.53217
▁grown	-9.53331
zo	-9.53374
▁pair	-9.53395
▁raw	-9.53448
▁chase	-9.53467
▁damned	-9.53516
▁lesson	-9.53594
saw	-9.53759
▁joke	-9.5378
▁undeniabl	-9.53878
rade	-9.54045
▁portray	-9.54272
▁tough	-9.54311
▁admirable	-9.5448
▁behavior	-9.5448
▁conflict	-9.5448
▁ignor	-9.5448
▁ludicrous	-9.5448
▁sight	-9.5448
▁unpleasant	-9.5448
▁listless	-9.54481
▁wicked	-9.54481
▁smug	-9.54482
▁cause	-9.54487
▁spot	-9.54504
▁trash	-9.54512
▁desire	-9.54519
▁gang	-9.54599
▁raise	-9.54601
fil	-9.54732
▁fake	-9.54789
▁spin	-9.5523
▁shocking	-9.55696
▁king	-9.55849
▁folk	-9.5612
▁murphy	-9.5612
▁scratch	-9.5612
▁strength	-9.5612
▁disguise	-9.5612
control	-9.56121
▁excess	-9.56121
▁ponder	-9.56121
▁lousy	-9.56121
▁banal	-9.56124
▁nasty	-9.56127
▁pitch	-9.56136
▁frida	-9.56142
▁adam	-9.5615
fused	-9.56182
▁ski	-9.5619
perfect	-9.56516
▁remain	-9.56559
▁sequence	-9.5656
▁web	-9.56686
ven	-9.57265
▁bizarre	-9.57786
▁compassion	-9.57786
▁distinguish	-9.57786
▁eloquent	-9.57786
▁glory	-9.57786
▁grief	-9.57786
▁mainstream	-9.57786
▁poignant	-9.57786
▁service	-9.57786
▁splendid	-9.57786
▁vibrant	-9.57786
▁wannabe	-9.57786
▁excuse	-9.57787
▁georg	-9.57787
▁science	-9.57787
▁pretend	-9.57788
▁loose	-9.57788
▁zone	-9.57789
▁insane	-9.57794
▁philosophical	-9.57796
▁east	-9.57815
▁winner	-9.5784
▁totally	-9.57879
▁sentimentality	-9.57932
▁fatal	-9.58044
▁tap	-9.58221
▁adult	-9.58319
▁humorous	-9.58366
▁row	-9.58454
▁disappoint	-9.5857
▁stu	-9.58605
▁inspired	-9.58749
▁miss	-9.58761
▁quickly	-9.58892
▁slap	-9.59094
▁faith	-9.59434
ugh	-9.59462
ograph	-9.59463
▁tradition	-9.59471
▁cheesy	-9.59481
▁crack	-9.59481
▁enormous	-9.59481
▁evocative	-9.59481
▁intricate	-9.59481
▁overwhelm	-9.59481
▁perspective	-9.59481
▁photograph	-9.59481
▁simul	-9.59481
▁victim	-9.59481
▁visceral	-9.59481
▁relative	-9.59482
▁superior	-9.59482
▁wide	-9.59484
▁merit	-9.59487
▁chris	-9.59514
▁linger	-9.59537
▁hopeful	-9.59591
rought	-9.5971
▁wry	-9.59824
▁happy	-9.59955
scale	-9.60008
▁bli	-9.60127
done	-9.60334
▁mixed	-9.60455
▁effect	-9.60558
▁charisma	-9.6116
▁appreciate	-9.61205
▁beneath	-9.61205
▁creativity	-9.61205
▁forgotten	-9.61205
▁machine	-9.61205
▁relentless	-9.61205
▁food	-9.61206
▁surface	-9.61206
▁learn	-9.61207
▁content	-9.6121
▁grin	-9.61225
▁members	-9.61243
▁constant	-9.61256
▁subtlety	-9.61269
hour	-9.61308
▁gold	-9.61599
▁gifted	-9.61651
▁aim	-9.61653
going	-9.61797
▁exploit	-9.61823
gui	-9.61866
▁soon	-9.619
▁persona	-9.61943
pressed	-9.62293
▁largely	-9.62461
▁revealing	-9.62729
▁sum	-9.62731
▁artificial	-9.62884
mber	-9.62924
▁broad	-9.62952
esque	-9.6296
▁digital	-9.6296
▁haunting	-9.6296
▁involving	-9.6296
▁irritating	-9.6296
▁sacrific	-9.6296
▁similar	-9.6296
▁intended	-9.6296
▁crude	-9.6296
▁father	-9.62961
▁beginning	-9.62961
▁channel	-9.62961
▁flair	-9.62961
▁stunt	-9.62964
▁five	-9.62972
▁blend	-9.62977
▁season	-9.63026
lond	-9.63058
▁discover	-9.63126
▁designed	-9.63276
gain	-9.63612
▁rent	-9.63657
▁particular	-9.63875
▁cor	-9.64063
▁realize	-9.64593
ego	-9.64601
▁confusing	-9.64746
▁drown	-9.64746
▁exhilarating	-9.64746
▁intensity	-9.64746
▁retread	-9.64746
▁assured	-9.64746
▁william	-9.64747
▁convey	-9.64749
▁mention	-9.6475
ified	-9.64765
▁community	-9.64824
▁delightfully	-9.64945
▁accomplished	-9.65055
▁dare	-9.65063
▁laughter	-9.65065
room	-9.65208
video	-9.65294
wood	-9.65295
place	-9.65301
▁pet	-9.65597
spirited	-9.65795
▁develop	-9.66325
▁jam	-9.66381
eyed	-9.66532
▁growing	-9.66543
▁public	-9.66564
▁challenging	-9.66564
▁combine	-9.66564
▁determine	-9.66564
▁fantastic	-9.66564
▁frustration	-9.66564
▁glorious	-9.66564
▁holiday	-9.66564
▁professional	-9.66564
▁stereotypes	-9.66564
characterization	-9.66564
▁accent	-9.66564
▁teacher	-9.66565
▁distance	-9.66566
▁kiddie	-9.66566
▁stretch	-9.66567
▁trite	-9.66568
▁gangster	-9.66568
▁giant	-9.6657
▁hype	-9.66579
▁exploration	-9.6659
▁indian	-9.66598
▁jackson	-9.66602
▁setting	-9.6661
▁describe	-9.66634
▁enter	-9.66694
▁expectation	-9.66725
▁min	-9.66745
▁brit	-9.66771
▁formulaic	-9.66809
▁consistently	-9.66846
▁cliche	-9.66891
funny	-9.67036
▁cliched	-9.67227
▁mel	-9.67373
za	-9.6748
▁capture	-9.67574
▁generally	-9.67593
▁white	-9.67797
▁budget	-9.68097
▁quietly	-9.68115
▁affair	-9.68416
▁elevate	-9.68416
▁endeavor	-9.68416
▁plodding	-9.68416
▁soundtrack	-9.68416
▁flavor	-9.68416
▁team	-9.68416
▁precious	-9.68416
▁imax	-9.68416
▁queen	-9.68417
▁accessible	-9.68422
▁phone	-9.68437
▁price	-9.68504
▁office	-9.68557
▁affecting	-9.68704
▁bears	-9.6874
went	-9.68757
▁farce	-9.68914
style	-9.69141
▁bow	-9.69181
▁rad	-9.69617
▁commun	-9.7022
▁text	-9.703
▁buoyant	-9.70302
▁crazy	-9.70302
▁frightening	-9.70302
▁industry	-9.70302
▁television	-9.70302
▁unconvincing	-9.70302
▁urge	-9.70303
▁favorite	-9.70304
▁shake	-9.70465
▁steal	-9.70771
bill	-9.70929
▁bored	-9.71261
▁missing	-9.71348
▁hair	-9.71369
▁relationship	-9.71536
▁inspire	-9.71558
aking	-9.71621
ache	-9.72054
▁captivating	-9.72225
▁clumsy	-9.72225
▁further	-9.72225
▁horrifying	-9.72225
▁inevitabl	-9.72225
▁pretension	-9.72225
▁surround	-9.72225
▁vague	-9.72225
▁vehicle	-9.72225
▁washington	-9.72225
▁addition	-9.72226
▁distract	-9.72226
▁junk	-9.72226
▁lush	-9.72226
▁rewarding	-9.72228
▁thematic	-9.72235
lock	-9.7226
▁display	-9.7226
▁niro	-9.72271
▁loses	-9.72283
▁sell	-9.72302
▁aimless	-9.72323
▁tick	-9.72433
▁string	-9.72466
born	-9.72475
changing	-9.72478
▁came	-9.72676
▁flashy	-9.72731
▁spent	-9.72776
▁lived	-9.72803
▁upon	-9.72968
▁explore	-9.7357
▁talking	-9.73615
▁flash	-9.73673
▁improve	-9.74186
▁confident	-9.74186
▁empathy	-9.74186
▁focus	-9.74186
▁gradually	-9.74186
▁increas	-9.74186
▁intoxicating	-9.74186
▁multi	-9.74186
▁necessary	-9.74186
▁sensational	-9.74186
▁significant	-9.74186
▁succumb	-9.74186
▁travel	-9.74186
▁unabashed	-9.74186
▁report	-9.74186
▁curious	-9.74187
▁heaven	-9.74187
▁wedding	-9.74187
▁finish	-9.74187
▁require	-9.74188
▁ticket	-9.74192
▁type	-9.74218
▁lust	-9.74219
▁nerve	-9.74219
00	-9.74223
▁plotting	-9.74291
▁body	-9.74338
▁endure	-9.7435
▁blade	-9.74352
▁attractive	-9.74429
▁notice	-9.74461
play	-9.74819
school	-9.74913
▁pale	-9.74939
▁sla	-9.74963
▁luck	-9.74964
▁era	-9.75161
tched	-9.75217
▁emotion	-9.75399
▁auto	-9.75578
▁delicious	-9.76186
▁enthusiasm	-9.76186
▁graphic	-9.76186
▁incoherent	-9.76186
▁moviegoers	-9.76186
▁slice	-9.76186
▁unfocused	-9.76186
▁unpredictable	-9.76186
▁uplifting	-9.76186
▁slip	-9.76186
▁heartbreaking	-9.76186
▁receiv	-9.76186
▁lump	-9.76187
▁wife	-9.76187
▁mayhem	-9.76188
▁third	-9.76189
▁crass	-9.76189
▁icon	-9.76221
▁wholly	-9.76251
▁passionate	-9.76308
ronic	-9.76485
▁drawn	-9.76612
said	-9.76775
▁eat	-9.76835
▁undeniable	-9.76939
well	-9.76979
▁generate	-9.77019
▁anti	-9.77082
▁expected	-9.7771
▁christmas	-9.78227
▁example	-9.78227
▁outrageous	-9.78227
▁outstanding	-9.78227
▁preachy	-9.78227
▁recycle	-9.78227
▁cloying	-9.78227
▁exploitative	-9.78227
▁offbeat	-9.78227
▁slack	-9.78227
▁resembl	-9.78228
▁jolt	-9.78232
▁poem	-9.78234
▁traditional	-9.78239
cheek	-9.78284
raft	-9.78296
▁forceful	-9.78316
▁however	-9.78335
▁joyous	-9.78336
▁melodramatic	-9.78367
▁smarter	-9.78541
▁supporting	-9.78562
nny	-9.78592
▁cover	-9.78683
enni	-9.78744
tiny	-9.79049
▁gar	-9.79144
erry	-9.79672
fire	-9.79859
▁comfort	-9.80228
▁topic	-9.8023
▁jar	-9.80237
▁cult	-9.80297
innocence	-9.8031
▁choppy	-9.8031
▁disgust	-9.8031
▁grandeur	-9.8031
▁peculiar	-9.8031
▁sympathy	-9.8031
▁technolog	-9.8031
▁terror	-9.8031
▁treasure	-9.8031
▁introduc	-9.8031
▁lyrical	-9.80311
▁somehow	-9.80311
▁blank	-9.80311
▁mature	-9.80312
▁decide	-9.80312
▁pulp	-9.80313
▁spite	-9.80315
▁grab	-9.80318
ogue	-9.80321
jerk	-9.80379
▁demonstrate	-9.80434
▁portrayal	-9.8058
▁bitter	-9.80857
▁sour	-9.81018
▁pleasing	-9.81032
crafted	-9.81166
▁musical	-9.8158
cam	-9.81616
▁revenge	-9.82438
▁ambition	-9.82438
▁atmosphere	-9.82438
▁blockbuster	-9.82438
▁fierce	-9.82438
▁generation	-9.82438
▁landscape	-9.82438
▁soderbergh	-9.82438
▁trademark	-9.82438
▁vapid	-9.82438
executed	-9.82438
▁nowhere	-9.82438
▁thousand	-9.82438
▁remote	-9.82438
▁genial	-9.82438
▁edited	-9.82439
▁seagal	-9.8244
▁niche	-9.8244
▁foul	-9.8244
▁revelatory	-9.82441
▁handsome	-9.82481
▁lady	-9.82621
▁personality	-9.82671
mission	-9.82681
▁relie	-9.82818
▁skip	-9.82822
▁factor	-9.82841
▁produce	-9.82934
▁artistic	-9.83311
weight	-9.8335
▁male	-9.83433
▁fli	-9.83511
▁fate	-9.83956
blown	-9.84333
discovery	-9.84406
▁succeed	-9.84449
exploitation	-9.84554
▁abandon	-9.84612
▁accurate	-9.84612
▁encounter	-9.84612
▁smooth	-9.84612
▁stoop	-9.84612
▁theatrical	-9.84612
▁unlikable	-9.84612
▁unoriginal	-9.84612
▁inherent	-9.84612
▁murky	-9.84612
▁random	-9.84612
▁simplistic	-9.84612
▁sneak	-9.84612
▁vampire	-9.84612
▁resonant	-9.84612
▁dirty	-9.84613
▁rendered	-9.84614
▁admire	-9.84614
▁search	-9.84614
▁bigger	-9.84619
▁teenagers	-9.84623
▁collection	-9.84635
aware	-9.84647
▁guns	-9.84693
▁bang	-9.847
▁dud	-9.84719
▁graceful	-9.84742
▁spring	-9.84822
produced	-9.84873
▁yes	-9.84888
▁blow	-9.84894
▁market	-9.84956
▁killer	-9.85102
▁bone	-9.85138
▁dust	-9.85177
▁larger	-9.85231
▁believ	-9.85232
▁styl	-9.85288
stein	-9.85418
▁missed	-9.8546
gging	-9.85879
▁realized	-9.8588
▁ran	-9.86167
fun	-9.86502
▁bittersweet	-9.86834
▁experiment	-9.86834
▁ordinary	-9.86834
▁poignancy	-9.86834
▁rehash	-9.86834
▁revolution	-9.86834
▁somewhere	-9.86834
▁uncomfortabl	-9.86834
▁snow	-9.86835
nonsense	-9.86835
paced	-9.86836
▁arrive	-9.86837
▁bunch	-9.86839
▁sugar	-9.86839
giving	-9.8684
▁lift	-9.86846
▁daring	-9.86855
intellectual	-9.86883
▁charismatic	-9.86893
▁sober	-9.86906
▁absurdity	-9.87003
▁amused	-9.8713
▁test	-9.87383
▁witless	-9.87423
▁gem	-9.87428
▁lar	-9.8748
▁freshness	-9.87602
▁leav	-9.87717
▁constructed	-9.87806
▁paul	-9.87932
▁pok	-9.88162
▁construct	-9.8846
▁sentiment	-9.889
▁attract	-9.88995
tantly	-9.89039
▁surf	-9.89107
▁combination	-9.89107
▁despair	-9.89107
▁proceedings	-9.89107
▁square	-9.89107
▁territory	-9.89107
conceive	-9.89107
▁shadow	-9.89107
taneous	-9.89107
witted	-9.89107
▁dismiss	-9.89107
▁thumb	-9.89107
▁mixture	-9.89107
▁footage	-9.89108
▁korea	-9.8911
▁dvd	-9.89118
▁italian	-9.89119
▁cheer	-9.89122
century	-9.89123
▁neat	-9.89157
▁angst	-9.89159
▁essen	-9.89167
▁translat	-9.89172
shift	-9.892
gun	-9.89262
sca	-9.89301
▁involved	-9.89316
▁touches	-9.89832
limited	-9.90474
▁equal	-9.9056
▁dish	-9.91287
▁astounding	-9.91432
▁dignity	-9.91432
▁immediate	-9.91432
▁recognize	-9.91432
▁splash	-9.91432
▁spooky	-9.91432
▁knowledge	-9.91433
▁teeth	-9.91433
▁tongue	-9.91433
▁meaningful	-9.91435
▁regard	-9.91435
▁commentary	-9.91443
▁wave	-9.91446
▁clueless	-9.91489
▁settle	-9.91537
▁whatever	-9.91646
▁fra	-9.91696
plo	-9.91736
▁race	-9.9178
▁glu	-9.92101
▁temp	-9.92183
▁faster	-9.9219
▁path	-9.92215
▁deeper	-9.92528
dead	-9.92538
upper	-9.92846
affirming	-9.92962
▁beach	-9.93042
▁perform	-9.93722
▁adventurous	-9.93813
▁fanciful	-9.93813
▁fluff	-9.93813
▁immensely	-9.93813
▁knock	-9.93813
▁magnificent	-9.93813
▁unforced	-9.93813
▁wondrous	-9.93813
▁nightmare	-9.93814
▁perverse	-9.93814
▁stirring	-9.93814
▁exotic	-9.93814
▁wander	-9.93816
▁capable	-9.93817
▁pomp	-9.93817
▁jim	-9.93821
▁moore	-9.93822
▁timing	-9.93823
ooper	-9.93833
▁visit	-9.93834
▁ryan	-9.93846
▁rough	-9.93858
▁depiction	-9.93858
atory	-9.93916
▁soulful	-9.93956
▁angel	-9.93968
▁soulless	-9.94076
bad	-9.95063
▁luc	-9.95313
gged	-9.95366
cute	-9.95588
known	-9.95751
entist	-9.95849
notch	-9.95939
▁vital	-9.9618
cisive	-9.96252
satisfied	-9.96252
▁alternate	-9.96252
▁collapse	-9.96252
▁committed	-9.96252
▁contrivance	-9.96252
▁patience	-9.96252
▁polished	-9.96252
▁harrowing	-9.96253
▁literary	-9.96253
▁mistake	-9.96253
daughter	-9.96253
▁spoof	-9.96254
▁spider	-9.96254
▁basic	-9.96255
▁brave	-9.9626
▁clean	-9.9626
▁bag	-9.96269
▁cutting	-9.96275
▁cheat	-9.96341
▁comfortable	-9.96349
▁lend	-9.96404
▁shapeless	-9.96407
assive	-9.96423
▁losing	-9.9643
loving	-9.96458
▁colli	-9.96476
▁spend	-9.96482
▁box	-9.96556
▁dragon	-9.96638
▁mode	-9.96713
▁magical	-9.96741
▁laughable	-9.96763
▁outside	-9.9681
▁wow	-9.97435
nted	-9.97651
imat	-9.97802
▁sche	-9.97921
▁gift	-9.98111
ellen	-9.98328
▁african	-9.98752
▁alternative	-9.98752
▁appalling	-9.98752
▁credible	-9.98752
▁dickens	-9.98752
▁excruciating	-9.98752
▁existential	-9.98752
▁hallmark	-9.98752
▁instinct	-9.98752
▁nomination	-9.98752
▁resourceful	-9.98752
▁scorsese	-9.98752
▁squander	-9.98752
▁sympathetic	-9.98752
▁uncompromising	-9.98752
▁unfortunately	-9.98752
▁nichol	-9.98752
▁psycho	-9.98752
▁popular	-9.98753
▁imitation	-9.98753
▁conceit	-9.98753
▁common	-9.98754
▁homage	-9.98754
▁monty	-9.98754
▁eager	-9.98755
▁undercut	-9.98755
▁martin	-9.98757
▁boast	-9.98759
alyze	-9.98763
▁hoot	-9.98771
▁faithful	-9.98822
▁connection	-9.98856
▁broom	-9.98898
▁startling	-9.98906
▁relief	-9.98934
chingly	-9.99069
▁carry	-9.99259
ngle	-9.99344
porn	-9.99376
▁intermi	-9.99563
▁sadness	-9.99697
▁impress	-9.99787
▁enthusiastic	-9.99862
jones	-9.99888
view	-10.0002
rash	-10.001
▁flow	-10.0101
▁husband	-10.0132
wrenching	-10.0132
▁establish	-10.0132
▁gritty	-10.0132
▁happiness	-10.0132
▁strict	-10.0132
▁degree	-10.0132
▁flimsy	-10.0132
▁whimsical	-10.0132
▁police	-10.0132
▁celebration	-10.0132
▁presence	-10.0132
▁broken	-10.0132
▁window	-10.0132
▁slick	-10.0132
▁fix	-10.0132
▁extra	-10.0134
▁cell	-10.0135
▁lurid	-10.0136
eddie	-10.0136
▁uninspired	-10.0137
▁revelation	-10.0137
▁sparkling	-10.0141
▁eeri	-10.0149
▁flower	-10.0191
▁surreal	-10.0194
▁wall	-10.0301
▁franc	-10.0323
opping	-10.0355
▁feat	-10.0393
▁celeb	-10.0395
▁distinct	-10.0395
dependent	-10.0395
▁aplomb	-10.0395
▁assassin	-10.0395
▁barbershop	-10.0395
▁companion	-10.0395
▁cynical	-10.0395
▁escapism	-10.0395
▁fool	-10.0395
▁maudlin	-10.0395
▁precise	-10.0395
▁tremendous	-10.0395
▁english	-10.0395
ghetto	-10.0395
▁imagery	-10.0395
▁warrior	-10.0395
▁erotic	-10.0395
▁fluid	-10.0395
▁biggest	-10.0395
▁corny	-10.0395
▁extend	-10.0395
▁toilet	-10.0395
enchant	-10.0395
▁hastily	-10.0395
▁drop	-10.0396
▁morning	-10.0396
biograph	-10.0398
eudo	-10.04
▁creature	-10.0401
▁belt	-10.0411
▁scenery	-10.0414
▁ironic	-10.0417
▁stone	-10.0421
▁blast	-10.0426
▁earnestness	-10.0432
99	-10.0455
tress	-10.0461
▁leaden	-10.0468
▁salt	-10.0474
▁begin	-10.048
writer	-10.0533
world	-10.0538
loud	-10.054
frai	-10.0567
packed	-10.0626
▁doze	-10.0639
▁connect	-10.0654
▁potent	-10.0662
▁appropriate	-10.0665
▁benigni	-10.0665
▁cohesive	-10.0665
▁convenient	-10.0665
▁cruci	-10.0665
▁dangerous	-10.0665
▁intentions	-10.0665
▁irresistible	-10.0665
▁juvenile	-10.0665
▁mysterious	-10.0665
▁nostalgi	-10.0665
▁references	-10.0665
▁sublime	-10.0665
▁sudden	-10.0665
▁terribly	-10.0665
▁terrifying	-10.0665
▁testament	-10.0665
▁unfaithful	-10.0665
▁variety	-10.0665
▁expert	-10.0665
▁ingenious	-10.0665
▁safe	-10.0665
▁border	-10.0665
▁overwrought	-10.0665
▁psyche	-10.0665
▁disappointment	-10.0665
▁nevertheless	-10.0665
▁screw	-10.0665
▁expressive	-10.0665
▁glass	-10.0665
▁mouth	-10.0665
▁chilly	-10.0666
▁swim	-10.0666
▁spell	-10.0666
▁burie	-10.0666
▁verve	-10.0667
▁reflect	-10.0667
▁dreadful	-10.0667
▁store	-10.0669
▁hugh	-10.0672
yam	-10.0674
▁deception	-10.0676
▁rapid	-10.0679
▁artful	-10.0714
▁eng	-10.0715
▁lane	-10.0737
▁charmless	-10.0739
▁reasonabl	-10.0782
half	-10.0817
▁hust	-10.0844
producer	-10.0845
handled	-10.0853
▁tight	-10.089
▁guilt	-10.0892
▁creep	-10.0892
▁decepti	-10.0932
▁bab	-10.0939
shakespeare	-10.0943
▁adolescent	-10.0943
▁clumsily	-10.0943
▁difference	-10.0943
▁dubbed	-10.0943
▁dynamic	-10.0943
▁eccentric	-10.0943
▁exceedingly	-10.0943
▁integrity	-10.0943
▁psychology	-10.0943
▁quirks	-10.0943
▁silliness	-10.0943
▁splendor	-10.0943
▁surrender	-10.0943
▁trailer	-10.0943
▁below	-10.0943
▁reduce	-10.0943
▁comparison	-10.0943
▁raunch	-10.0943
▁ghost	-10.0943
▁spike	-10.0943
▁newcomer	-10.0943
▁moviemaking	-10.0943
▁roger	-10.0943
▁narrat	-10.0944
▁warning	-10.0945
▁ode	-10.0946
▁chick	-10.0961
turned	-10.0965
ridden	-10.0973
▁dozen	-10.0978
number	-10.1101
girl	-10.1103
▁occasional	-10.1141
hai	-10.1148
▁tackl	-10.1163
firing	-10.1222
▁trans	-10.1224
▁marvel	-10.1225
▁environment	-10.1229
oriented	-10.1229
▁attitude	-10.1229
▁coherent	-10.1229
▁distasteful	-10.1229
▁diversion	-10.1229
▁efficien	-10.1229
▁embarrassment	-10.1229
▁hopkins	-10.1229
▁locations	-10.1229
▁screenwriting	-10.1229
▁sensitivit	-10.1229
▁straightforward	-10.1229
caricature	-10.1229
▁demanding	-10.1229
▁showcase	-10.1229
▁vietnam	-10.1229
▁inviting	-10.1229
▁private	-10.1229
▁feces	-10.1229
▁wallace	-10.1229
▁chaotic	-10.1229
▁phony	-10.1229
▁honor	-10.1229
induce	-10.1229
▁rising	-10.1229
▁spare	-10.123
▁proud	-10.123
▁tasty	-10.123
▁gently	-10.123
▁uncomm	-10.1236
wear	-10.1237
member	-10.1237
▁opt	-10.1237
▁halfway	-10.1237
▁plotted	-10.124
cite	-10.1242
pleaser	-10.1255
developed	-10.1266
▁smok	-10.1332
sophomoric	-10.1381
letting	-10.1466
▁base	-10.1472
loser	-10.1488
▁convention	-10.1502
▁account	-10.1523
▁benefit	-10.1523
▁childhood	-10.1523
▁chuckle	-10.1523
▁comprehen	-10.1523
▁equivalent	-10.1523
▁explosion	-10.1523
▁incessant	-10.1523
▁inexplicabl	-10.1523
▁polanski	-10.1523
▁praise	-10.1523
▁saccharine	-10.1523
▁savor	-10.1523
▁shrewd	-10.1523
▁smack	-10.1523
▁society	-10.1523
▁flesh	-10.1523
▁regret	-10.1523
▁soggy	-10.1523
▁christian	-10.1523
▁indeed	-10.1523
▁seven	-10.1523
serving	-10.1523
▁cram	-10.1523
foot	-10.1524
▁limp	-10.1524
teau	-10.1525
▁aspire	-10.1525
▁stylistic	-10.1526
▁speed	-10.1527
▁expos	-10.1527
ternal	-10.1533
▁dying	-10.154
▁order	-10.1543
▁useless	-10.1552
▁teenage	-10.1552
▁swoo	-10.1553
nova	-10.1562
erbal	-10.1654
forgettable	-10.1699
▁unintentional	-10.1727
meaning	-10.1764
▁compar	-10.1826
▁academ	-10.1826
▁adequate	-10.1826
▁ambiguous	-10.1826
▁artifice	-10.1826
▁background	-10.1826
▁capacity	-10.1826
▁chinese	-10.1826
▁enigma	-10.1826
▁expense	-10.1826
▁generous	-10.1826
▁guarantee	-10.1826
▁hitchcock	-10.1826
▁incompetent	-10.1826
▁inhabit	-10.1826
▁innovation	-10.1826
▁iranian	-10.1826
▁lackluster	-10.1826
▁marginal	-10.1826
▁miracle	-10.1826
▁nonsensical	-10.1826
▁perhaps	-10.1826
▁relevant	-10.1826
▁substantial	-10.1826
▁tragedies	-10.1826
▁unflinching	-10.1826
▁collective	-10.1826
▁dawn	-10.1826
▁cheese	-10.1826
▁stroke	-10.1826
▁martha	-10.1826
▁whimsy	-10.1826
▁behold	-10.1826
▁cock	-10.1828
▁rewards	-10.1828
parody	-10.1829
profile	-10.183
▁held	-10.183
▁personalities	-10.183
▁uncanny	-10.1831
▁quest	-10.1832
▁idiotic	-10.1835
▁vitality	-10.1836
▁finger	-10.1838
▁mental	-10.1841
button	-10.1846
tently	-10.1846
numbingly	-10.1848
▁arch	-10.1883
▁admit	-10.1919
▁element	-10.1996
idden	-10.2106
▁import	-10.2133
▁argentin	-10.2138
▁conjure	-10.2138
▁deliberate	-10.2138
▁fantasies	-10.2138
▁fuzzy	-10.2138
▁insipid	-10.2138
▁intimacy	-10.2138
▁locales	-10.2138
▁marriage	-10.2138
▁sarandon	-10.2138
▁scenario	-10.2138
▁slapdash	-10.2138
▁sluggish	-10.2138
▁sumptuous	-10.2138
▁uncertain	-10.2138
▁elect	-10.2138
▁myself	-10.2138
▁trappings	-10.2138
education	-10.2138
▁garbage	-10.2138
▁resonance	-10.2138
▁knew	-10.2138
▁bracing	-10.2138
▁misery	-10.2138
▁choose	-10.2138
▁barrel	-10.2139
▁built	-10.2139
▁possibilities	-10.2141
▁interview	-10.2141
▁subtly	-10.2142
▁redeem	-10.2143
▁invest	-10.2144
▁corner	-10.2144
▁destination	-10.2146
▁gasp	-10.2146
ville	-10.2147
▁rude	-10.215
▁11	-10.2152
▁kline	-10.2153
▁harv	-10.2155
claim	-10.216
▁makers	-10.218
wai	-10.2184
sync	-10.221
voca	-10.2223
▁limit	-10.2269
ozen	-10.2455
envelop	-10.2461
mpulsive	-10.2461
▁adrenalin	-10.2461
▁aesthetic	-10.2461
▁atrocious	-10.2461
▁borrow	-10.2461
▁breakthrough	-10.2461
▁breezy	-10.2461
▁bridge	-10.2461
▁celluloid	-10.2461
▁chabrol	-10.2461
▁complain	-10.2461
▁complications	-10.2461
▁context	-10.2461
▁contribution	-10.2461
▁current	-10.2461
▁dysfunctional	-10.2461
▁elaborate	-10.2461
▁embarrassed	-10.2461
▁employ	-10.2461
▁encouraging	-10.2461
▁familial	-10.2461
▁famous	-10.2461
▁holocaust	-10.2461
▁illustrat	-10.2461
▁improbable	-10.2461
▁pleasurable	-10.2461
▁preposterous	-10.2461
▁refusal	-10.2461
▁stereotypical	-10.2461
▁subculture	-10.2461
▁supremely	-10.2461
▁buffs	-10.2461
▁contain	-10.2461
▁lopez	-10.2461
▁mechanic	-10.2461
▁daily	-10.2461
▁irony	-10.2461
azzle	-10.2461
▁distinctive	-10.2461
▁martial	-10.2461
▁problematic	-10.2461
▁likable	-10.2461
▁celebrates	-10.2461
▁prevent	-10.2461
▁sincerity	-10.2461
▁wound	-10.2461
▁edgy	-10.2461
▁costume	-10.2461
▁hack	-10.2461
▁court	-10.2461
▁bomb	-10.2461
▁confront	-10.2462
▁gear	-10.2462
wreck	-10.2462
▁literal	-10.2463
▁clinic	-10.2464
▁weep	-10.2465
▁bubb	-10.2472
putting	-10.2474
abby	-10.2489
▁destin	-10.2507
▁tour	-10.2517
affected	-10.2587
▁flaw	-10.2607
calm	-10.2664
turning	-10.2668
▁provid	-10.2699
▁actual	-10.2707
▁numb	-10.2709
▁pow	-10.2752
▁charge	-10.2784
▁revel	-10.279
destructive	-10.2794
▁desperation	-10.2794
▁diverting	-10.2794
▁evolve	-10.2794
▁fellow	-10.2794
▁gyllenhaal	-10.2794
▁hybrid	-10.2794
▁incoherence	-10.2794
▁inconsequential	-10.2794
▁infidelity	-10.2794
▁junior	-10.2794
▁obsession	-10.2794
▁planet	-10.2794
▁redundant	-10.2794
▁reminiscent	-10.2794
▁resolutely	-10.2794
▁responsible	-10.2794
▁satirical	-10.2794
▁savvy	-10.2794
▁exposition	-10.2794
▁fabric	-10.2794
▁compos	-10.2794
▁trifle	-10.2794
▁harsh	-10.2794
▁giddy	-10.2794
▁assembl	-10.2794
▁hokum	-10.2794
▁invention	-10.2794
▁arrest	-10.2794
▁replaced	-10.2794
▁pathology	-10.2794
dropping	-10.2794
▁harry	-10.2794
▁german	-10.2795
▁kong	-10.2795
▁zero	-10.2795
▁boom	-10.2795
▁trees	-10.2796
▁bump	-10.2796
▁altogether	-10.2796
▁yearning	-10.2797
ourselves	-10.2798
▁romp	-10.2798
switch	-10.28
▁beast	-10.2804
charged	-10.2809
marine	-10.2812
fication	-10.2812
▁brand	-10.2815
▁owe	-10.2852
paid	-10.2941
house	-10.3013
print	-10.3038
▁atmospheric	-10.3139
▁competent	-10.3139
▁criminal	-10.3139
▁department	-10.3139
▁existence	-10.3139
▁fabulous	-10.3139
▁hollow	-10.3139
▁impeccable	-10.3139
▁inject	-10.3139
▁jealous	-10.3139
▁rambling	-10.3139
▁savage	-10.3139
▁scattered	-10.3139
▁triangle	-10.3139
▁unfulfilling	-10.3139
▁examine	-10.3139
▁smash	-10.3139
▁ballot	-10.3139
▁concentrat	-10.3139
▁predictably	-10.3139
▁immatur	-10.3139
progress	-10.3139
▁downbeat	-10.3139
▁intolerable	-10.3139
▁hunter	-10.3139
donna	-10.3139
▁brush	-10.3139
▁insistent	-10.3139
▁gender	-10.3139
▁fragment	-10.3139
▁jump	-10.3139
▁hide	-10.3139
▁enduring	-10.314
▁holm	-10.314
▁uncle	-10.314
▁shining	-10.3141
▁chord	-10.3141
▁mike	-10.3141
▁trace	-10.3143
▁noise	-10.3143
laden	-10.316
length	-10.3369
familiar	-10.3369
▁easi	-10.3409
two	-10.3416
▁design	-10.3432
owing	-10.3464
balanced	-10.3477
▁clue	-10.3489
▁cobbled	-10.3496
▁discern	-10.3496
▁enterprise	-10.3496
▁hundred	-10.3496
▁implausible	-10.3496
▁necessarily	-10.3496
▁obscure	-10.3496
▁perceptive	-10.3496
▁satisfies	-10.3496
▁schmaltz	-10.3496
▁sorvino	-10.3496
▁witherspoon	-10.3496
▁brooding	-10.3496
▁crawl	-10.3496
▁dishonest	-10.3496
▁fulfill	-10.3496
▁stilted	-10.3496
▁demented	-10.3496
▁saving	-10.3496
▁venture	-10.3496
▁divine	-10.3496
▁pianist	-10.3496
▁rollicking	-10.3496
▁mythic	-10.3496
▁vanity	-10.3496
▁trust	-10.3497
▁hook	-10.3497
▁justify	-10.3497
▁heroine	-10.3497
▁six	-10.3497
▁abuse	-10.3498
▁trapped	-10.3498
▁pill	-10.3498
▁defen	-10.3501
▁tried	-10.3501
▁legal	-10.3502
▁chops	-10.3503
▁uh	-10.3509
ooling	-10.351
▁ensu	-10.3511
▁spice	-10.3542
ightened	-10.3592
deserved	-10.3595
▁split	-10.3598
▁affirm	-10.3629
lopp	-10.3664
bbing	-10.3691
pleasing	-10.3739
fiction	-10.3739
concept	-10.3739
omical	-10.3772
▁absolute	-10.3779
▁jagge	-10.378
▁dimension	-10.3798
▁accomplish	-10.3802
▁infuse	-10.3804
improvised	-10.3866
league	-10.3866
▁argument	-10.3866
▁athlete	-10.3866
▁conservative	-10.3866
▁curiosity	-10.3866
▁disposable	-10.3866
▁elegance	-10.3866
▁equilibrium	-10.3866
▁evelyn	-10.3866
▁incongruous	-10.3866
▁inescapabl	-10.3866
▁maddening	-10.3866
▁malaise	-10.3866
▁manufactured	-10.3866
▁metropoli	-10.3866
▁obligatory	-10.3866
▁practice	-10.3866
▁primarily	-10.3866
▁provoke	-10.3866
▁recipe	-10.3866
▁recovery	-10.3866
▁replete	-10.3866
▁stinker	-10.3866
▁eight	-10.3866
▁poverty	-10.3866
▁tepid	-10.3866
▁reckless	-10.3866
▁anybody	-10.3867
▁mushy	-10.3867
▁innovative	-10.3867
▁postcard	-10.3867
▁chief	-10.3867
▁threat	-10.3867
mpire	-10.3867
▁double	-10.3867
ullets	-10.3867
▁deadpan	-10.3867
▁club	-10.3867
▁sickening	-10.3867
▁enjoyment	-10.3867
▁fancy	-10.3867
▁urgent	-10.3867
▁sword	-10.3867
▁rival	-10.3867
▁peak	-10.3868
fisted	-10.3869
▁broadway	-10.3869
▁caper	-10.3869
▁helm	-10.387
▁reign	-10.387
▁prison	-10.3874
▁meet	-10.3877
ncent	-10.3878
▁soft	-10.388
▁derive	-10.3887
▁blatant	-10.3901
turb	-10.3915
▁twi	-10.3922
▁charl	-10.3931
wash	-10.3981
bio	-10.402
considered	-10.4032
▁merc	-10.4098
together	-10.4122
important	-10.4124
break	-10.4127
eeming	-10.4172
hallow	-10.4232
▁clown	-10.4251
▁conspirac	-10.4251
▁dawson	-10.4251
▁ethnic	-10.4251
▁evident	-10.4251
▁fascinate	-10.4251
▁impersonal	-10.4251
▁inconsistent	-10.4251
▁individual	-10.4251
▁languorous	-10.4251
▁loneliness	-10.4251
▁machismo	-10.4251
▁memories	-10.4251
▁misogyny	-10.4251
▁observant	-10.4251
▁pantheon	-10.4251
▁participant	-10.4251
▁pertinent	-10.4251
▁redemption	-10.4251
▁reject	-10.4251
▁reputation	-10.4251
▁separate	-10.4251
▁shenanigans	-10.4251
▁stream	-10.4251
▁transparent	-10.4251
▁unsentimental	-10.4251
▁integrat	-10.4251
utionary	-10.4251
▁anguish	-10.4251
▁somebody	-10.4251
▁hideously	-10.4251
▁stiff	-10.4251
▁esther	-10.4251
▁mexic	-10.4251
physical	-10.4251
▁patient	-10.4251
▁student	-10.4251
▁boredom	-10.4251
▁groan	-10.4251
▁ruined	-10.4252
▁ease	-10.4252
▁invite	-10.4252
procedur	-10.4253
▁musicians	-10.4253
▁normal	-10.4261
▁bogs	-10.4262
▁debate	-10.4262
withstand	-10.4279
cession	-10.4322
scient	-10.4354
addle	-10.443
▁manipulati	-10.4638
▁philosoph	-10.4649
▁trap	-10.465
inducing	-10.4651
▁arbitrar	-10.4651
▁baffling	-10.4651
▁conspicuous	-10.4651
▁credibility	-10.4651
▁emphasis	-10.4651
▁emptiness	-10.4651
▁enhance	-10.4651
▁evoke	-10.4651
▁families	-10.4651
▁fiennes	-10.4651
▁fragile	-10.4651
▁gimmick	-10.4651
▁grotesque	-10.4651
▁ingredient	-10.4651
▁ravishing	-10.4651
▁traffic	-10.4651
▁underbelly	-10.4651
▁wrapped	-10.4651
feminist	-10.4651
▁concert	-10.4651
▁system	-10.4651
▁vintage	-10.4651
▁paradi	-10.4651
▁dahmer	-10.4651
▁panache	-10.4651
▁album	-10.4651
▁understated	-10.4651
▁pungent	-10.4651
▁scope	-10.4651
▁misfire	-10.4651
▁static	-10.4651
▁seduc	-10.4652
▁piano	-10.4652
▁shines	-10.4652
▁textbook	-10.4652
▁milk	-10.4652
▁rerun	-10.4652
▁suppl	-10.4652
▁acclaim	-10.4652
▁carol	-10.4652
igate	-10.4652
▁hurt	-10.4653
▁demons	-10.4653
▁becoming	-10.4654
▁pathos	-10.4654
▁anchor	-10.4656
▁whiny	-10.4657
▁smear	-10.4658
▁burst	-10.4663
kno	-10.4684
aki	-10.4815
▁matt	-10.4835
emper	-10.4936
inspiring	-10.494
joke	-10.494
invent	-10.4975
▁lur	-10.5065
glorified	-10.5068
incomprehensible	-10.5068
▁attack	-10.5068
▁authority	-10.5068
▁backdrop	-10.5068
▁bruckheimer	-10.5068
▁capturing	-10.5068
▁claustrophobic	-10.5068
▁climactic	-10.5068
▁clothes	-10.5068
▁concoction	-10.5068
▁consequence	-10.5068
▁contradictory	-10.5068
▁devote	-10.5068
▁discipline	-10.5068
▁elizabeth	-10.5068
▁exaggerated	-10.5068
▁extravagant	-10.5068
▁flamboyant	-10.5068
▁flourishes	-10.5068
▁illuminating	-10.5068
▁kahlo	-10.5068
▁liberating	-10.5068
▁medium	-10.5068
▁negative	-10.5068
▁obsessive	-10.5068
▁organic	-10.5068
▁sensibilities	-10.5068
▁snipes	-10.5068
▁squeeze	-10.5068
▁subversive	-10.5068
▁uninteresting	-10.5068
▁untalented	-10.5068
▁hypnotic	-10.5068
▁objective	-10.5068
▁pokemon	-10.5068
▁quarter	-10.5068
flowing	-10.5068
▁status	-10.5068
▁trope	-10.5068
▁sisters	-10.5068
▁snap	-10.5068
▁susan	-10.5068
▁loop	-10.5068
▁admitted	-10.5069
▁meaningless	-10.5069
▁mcdo	-10.5069
▁assume	-10.507
▁gib	-10.507
toric	-10.5073
hmer	-10.5076
▁vol	-10.5078
baked	-10.5086
gment	-10.5086
▁jell	-10.5099
▁palm	-10.5136
lapping	-10.5231
blood	-10.5375
ological	-10.5502
▁accident	-10.5503
▁bombastic	-10.5503
▁compromise	-10.5503
▁conversation	-10.5503
▁disjointed	-10.5503
▁elbow	-10.5503
▁fizz	-10.5503
▁hedonistic	-10.5503
▁hilarity	-10.5503
▁horribly	-10.5503
▁incredible	-10.5503
▁informative	-10.5503
▁innocent	-10.5503
▁journalist	-10.5503
▁kaufman	-10.5503
▁kinetic	-10.5503
▁lunacy	-10.5503
▁narcissism	-10.5503
▁opaque	-10.5503
▁pepper	-10.5503
▁pitfalls	-10.5503
▁possess	-10.5503
▁sensibility	-10.5503
▁shrill	-10.5503
▁simone	-10.5503
▁stagger	-10.5503
▁subplots	-10.5503
▁subtext	-10.5503
▁survival	-10.5503
▁tomorrow	-10.5503
▁unconventional	-10.5503
▁unnerving	-10.5503
▁unsympathetic	-10.5503
▁valiant	-10.5503
▁woefully	-10.5503
wattage	-10.5503
▁audacious	-10.5503
▁matinee	-10.5503
▁ralph	-10.5503
▁documentaries	-10.5503
▁europe	-10.5503
▁transport	-10.5503
▁nobody	-10.5503
▁casual	-10.5503
▁glaring	-10.5503
▁outtakes	-10.5503
▁repeated	-10.5503
▁kwan	-10.5503
delusion	-10.5503
▁bounc	-10.5503
▁audi	-10.5503
esteem	-10.5503
▁consciousness	-10.5503
▁hill	-10.5503
▁latter	-10.5503
aziness	-10.5504
▁jew	-10.5504
▁reviews	-10.5504
▁assault	-10.5504
▁stifl	-10.5504
▁retro	-10.5506
▁bath	-10.5507
▁sara	-10.5508
timid	-10.5511
▁ethic	-10.5512
▁bruc	-10.5514
ittered	-10.5527
▁noticeabl	-10.5539
▁shoe	-10.5549
▁derri	-10.5549
▁dramatiz	-10.5552
▁featur	-10.5701
happy	-10.5829
human	-10.5831
eign	-10.5953
▁access	-10.5956
▁leather	-10.5957
deprecating	-10.5957
uffa	-10.5957
▁alabama	-10.5957
▁atlantic	-10.5957
▁category	-10.5957
▁circumstances	-10.5957
▁clockstoppers	-10.5957
▁conduct	-10.5957
▁confidence	-10.5957
▁corrupt	-10.5957
▁disquieting	-10.5957
▁emphasize	-10.5957
▁exterior	-10.5957
▁flaccid	-10.5957
▁harris	-10.5957
▁impenetrable	-10.5957
▁indifference	-10.5957
▁infectious	-10.5957
▁influence	-10.5957
▁innuendo	-10.5957
▁insomnia	-10.5957
▁jordan	-10.5957
▁minimalist	-10.5957
▁paranoia	-10.5957
▁practical	-10.5957
▁precision	-10.5957
▁rigor	-10.5957
▁rumination	-10.5957
▁schneider	-10.5957
▁schwarzenegger	-10.5957
▁shoddy	-10.5957
▁significance	-10.5957
▁simplicity	-10.5957
▁solutions	-10.5957
▁unrelenting	-10.5957
▁unrewarding	-10.5957
▁valuable	-10.5957
▁bleak	-10.5957
▁economic	-10.5957
▁fault	-10.5957
▁qualities	-10.5957
section	-10.5957
▁composition	-10.5957
▁feathers	-10.5957
▁scoop	-10.5957
▁grasp	-10.5957
▁jumble	-10.5957
▁leaky	-10.5957
▁mountain	-10.5957
▁improvement	-10.5957
▁juliet	-10.5957
predict	-10.5957
▁mourn	-10.5957
▁nifty	-10.5957
▁farcical	-10.5957
▁western	-10.5957
manhood	-10.5957
▁wallop	-10.5957
▁indig	-10.5957
▁ooz	-10.5957
▁damon	-10.5957
▁michel	-10.5957
▁tarant	-10.5957
▁attach	-10.5958
▁glossy	-10.5958
hammer	-10.5958
▁alluring	-10.5958
▁china	-10.5958
▁distant	-10.5958
▁jona	-10.5958
jumbo	-10.5959
▁avary	-10.596
▁rubb	-10.5962
uttering	-10.5963
xistent	-10.597
▁suitabl	-10.6195
effect	-10.6305
hong	-10.6333
▁demonstrat	-10.6405
▁quirki	-10.6433
▁robust	-10.6433
fifteen	-10.6433
vulnerable	-10.6433
▁abstract	-10.6433
▁ambiguit	-10.6433
▁bluster	-10.6433
▁brilliance	-10.6433
▁brooklyn	-10.6433
▁calculat	-10.6433
▁controversy	-10.6433
▁davis	-10.6433
▁demographic	-10.6433
▁disregard	-10.6433
▁drunken	-10.6433
▁encompass	-10.6433
▁extraordinarily	-10.6433
▁gravity	-10.6433
▁jaglom	-10.6433
▁liberation	-10.6433
▁manhattan	-10.6433
▁meditative	-10.6433
▁monotonous	-10.6433
▁nonjudgmental	-10.6433
▁plagu	-10.6433
▁principal	-10.6433
▁profane	-10.6433
▁puerile	-10.6433
▁refugees	-10.6433
▁revision	-10.6433
▁substitute	-10.6433
▁technique	-10.6433
▁unassuming	-10.6433
▁lobby	-10.6433
▁ancient	-10.6433
▁slim	-10.6433
▁baggage	-10.6433
▁duvall	-10.6433
▁librar	-10.6433
▁interminable	-10.6433
▁spears	-10.6433
▁literate	-10.6433
▁spiff	-10.6433
▁diverse	-10.6433
▁italicize	-10.6433
▁radiant	-10.6433
▁juicy	-10.6433
▁plung	-10.6434
▁comedian	-10.6434
▁sermon	-10.6434
▁turf	-10.6434
▁amiable	-10.6434
▁limitations	-10.6434
▁recall	-10.6434
▁media	-10.6434
▁steam	-10.6434
▁loyal	-10.6434
▁bank	-10.6434
▁tank	-10.6434
▁month	-10.6434
▁undermin	-10.6435
▁leap	-10.6435
▁wallet	-10.6435
▁stitch	-10.6436
▁juice	-10.6442
flop	-10.6528
intentionally	-10.6591
awake	-10.6696
around	-10.6806
game	-10.6808
▁amuse	-10.6867
describ	-10.6914
embracing	-10.6933
renowned	-10.6933
▁accumulate	-10.6933
▁articulate	-10.6933
▁cerebral	-10.6933
▁challenge	-10.6933
▁condescending	-10.6933
▁crummy	-10.6933
▁heights	-10.6933
▁histrionic	-10.6933
▁improvisation	-10.6933
▁irrelevant	-10.6933
▁knack	-10.6933
▁lecture	-10.6933
▁legacy	-10.6933
▁meticulous	-10.6933
▁neighborhood	-10.6933
▁overbearing	-10.6933
▁overexposed	-10.6933
▁penetrating	-10.6933
▁piercing	-10.6933
▁reassuring	-10.6933
▁sinister	-10.6933
▁specimen	-10.6933
▁spontaneity	-10.6933
▁unapologetic	-10.6933
▁undoubtedly	-10.6933
▁unimaginable	-10.6933
▁unmentionable	-10.6933
achieving	-10.6933
▁uneasy	-10.6933
▁zipp	-10.6933
righteousness	-10.6933
▁signpost	-10.6933
▁lofty	-10.6933
▁celebrated	-10.6933
▁secondhand	-10.6933
torium	-10.6933
▁alleged	-10.6933
▁scenic	-10.6933
▁expand	-10.6933
▁uneventful	-10.6933
▁ballistic	-10.6934
▁silver	-10.6934
▁dragonfly	-10.6934
▁punk	-10.6934
▁mount	-10.6934
▁scrap	-10.6936
▁terminal	-10.6936
statement	-10.6937
▁protect	-10.6937
fluent	-10.6938
▁kur	-10.6945
▁tack	-10.7058
▁explor	-10.7087
book	-10.7332
▁frequent	-10.7372
sucker	-10.7377
▁bogg	-10.7379
▁intellect	-10.7448
obstacles	-10.746
▁brawn	-10.746
▁breadth	-10.746
▁chicago	-10.746
▁churn	-10.746
▁coffee	-10.746
▁contrast	-10.746
▁crudup	-10.746
▁cylinders	-10.746
▁definitive	-10.746
▁detached	-10.746
▁griev	-10.746
▁harmless	-10.746
▁impart	-10.746
▁laudable	-10.746
▁loathsome	-10.746
▁mediocrity	-10.746
▁misguided	-10.746
▁monstrous	-10.746
▁nijinsky	-10.746
▁overcooked	-10.746
▁philip	-10.746
▁pitiful	-10.746
▁program	-10.746
▁sabotage	-10.746
▁scrooge	-10.746
▁shriek	-10.746
▁sisterhood	-10.746
▁struggling	-10.746
▁subtitles	-10.746
▁supernatural	-10.746
▁warfare	-10.746
▁wisdom	-10.746
▁bilked	-10.746
▁elicit	-10.746
▁hewitt	-10.746
▁kitchen	-10.746
▁miscalculat	-10.746
▁sleeve	-10.746
inoche	-10.746
▁miserable	-10.746
▁excited	-10.746
▁retain	-10.746
▁thirty	-10.746
▁wilson	-10.746
▁didactic	-10.746
▁lunch	-10.746
▁twink	-10.746
▁cleav	-10.746
▁schlock	-10.746
▁rouge	-10.746
puff	-10.746
▁round	-10.746
▁address	-10.746
▁sack	-10.746
▁sweat	-10.746
▁contest	-10.746
▁apply	-10.7461
▁indicati	-10.7471
duck	-10.7476
llusion	-10.7485
friendly	-10.7487
fortun	-10.7764
trospective	-10.7791
abbi	-10.7802
inspired	-10.7876
rried	-10.7878
white	-10.7888
flick	-10.7888
appearing	-10.7905
▁support	-10.7923
▁consistent	-10.7928
garde	-10.8007
▁dread	-10.801
ology	-10.8015
▁dialog	-10.8015
▁object	-10.8015
dependence	-10.8015
girlfriend	-10.8015
▁associat	-10.8015
▁awakening	-10.8015
▁biopic	-10.8015
▁blaxploitation	-10.8015
▁camouflag	-10.8015
▁circuit	-10.8015
▁daniel	-10.8015
▁disintegrat	-10.8015
▁dutiful	-10.8015
▁elsewhere	-10.8015
▁encourage	-10.8015
▁explode	-10.8015
▁flailing	-10.8015
▁fundamental	-10.8015
▁generosity	-10.8015
▁impulse	-10.8015
▁inoffensive	-10.8015
▁inquisitive	-10.8015
▁invaluable	-10.8015
▁irreparable	-10.8015
▁lunatic	-10.8015
▁megaplex	-10.8015
▁melancholy	-10.8015
▁mundane	-10.8015
▁plympton	-10.8015
▁porridge	-10.8015
▁prejudice	-10.8015
▁puzzle	-10.8015
▁puzzling	-10.8015
▁ramsay	-10.8015
▁relaxed	-10.8015
▁sanctimonious	-10.8015
▁sloppily	-10.8015
▁sportsmen	-10.8015
▁travail	-10.8015
▁turgid	-10.8015
▁universe	-10.8015
▁ironies	-10.8015
▁reliable	-10.8015
▁command	-10.8015
▁excels	-10.8015
▁predictability	-10.8015
▁solemn	-10.8015
masculine	-10.8015
▁allegory	-10.8015
▁disturbing	-10.8015
▁freedom	-10.8015
▁lapses	-10.8015
▁astute	-10.8015
▁flashbacks	-10.8015
▁restrain	-10.8015
▁weaknesses	-10.8015
▁freddy	-10.8015
▁accuse	-10.8015
▁sprightly	-10.8015
▁duration	-10.8015
▁siege	-10.8015
▁hawk	-10.8016
▁canvas	-10.8016
▁grave	-10.8016
▁clamor	-10.8016
▁underscor	-10.8016
▁fade	-10.8016
▁conceptual	-10.8016
asleep	-10.8017
▁adher	-10.8018
▁consume	-10.8019
indulgence	-10.8052
opher	-10.8058
arrow	-10.8059
▁affect	-10.8273
generated	-10.8358
dream	-10.8476
compelling	-10.8477
▁depict	-10.8592
▁comment	-10.8601
▁thread	-10.8603
bopper	-10.8603
intentioned	-10.8603
▁affleck	-10.8603
▁audacity	-10.8603
▁baffled	-10.8603
▁champion	-10.8603
▁church	-10.8603
▁collaborat	-10.8603
▁conquer	-10.8603
▁cranky	-10.8603
▁crisis	-10.8603
▁delectable	-10.8603
▁devolves	-10.8603
▁echoes	-10.8603
▁executive	-10.8603
▁extravaganza	-10.8603
▁haphazard	-10.8603
▁inimitable	-10.8603
▁installment	-10.8603
▁journalism	-10.8603
▁kapur	-10.8603
▁motivation	-10.8603
▁oppressive	-10.8603
▁palpable	-10.8603
▁pedigree	-10.8603
▁proficient	-10.8603
▁prospect	-10.8603
▁recycling	-10.8603
▁rediscover	-10.8603
▁sardonic	-10.8603
▁soldiers	-10.8603
▁squad	-10.8603
▁symbolic	-10.8603
▁unblinking	-10.8603
▁unleashe	-10.8603
▁urine	-10.8603
▁variation	-10.8603
▁yesterday	-10.8603
▁contempt	-10.8603
▁humming	-10.8603
▁insecure	-10.8603
▁paxton	-10.8603
▁truck	-10.8603
congratulat	-10.8603
▁isolation	-10.8603
▁rotten	-10.8603
advised	-10.8603
▁craven	-10.8603
▁feast	-10.8603
▁illogic	-10.8603
▁amusement	-10.8603
▁boobs	-10.8603
▁accomplishment	-10.8603
▁extensi	-10.8603
▁lavish	-10.8603
▁brisk	-10.8603
▁creepiness	-10.8603
limina	-10.8604
▁palette	-10.8604
▁volume	-10.8604
▁pearl	-10.8604
▁bogus	-10.8604
oscope	-10.8604
▁kenne	-10.8604
consuming	-10.8605
iversity	-10.8605
gloss	-10.9228
▁sturdi	-10.9228
basement	-10.9228
disput	-10.9228
struck	-10.9228
▁afternoon	-10.9228
▁australia	-10.9228
▁backmasking	-10.9228
▁consolation	-10.9228
▁crippled	-10.9228
▁cumbersome	-10.9228
▁decision	-10.9228
▁depraved	-10.9228
▁enlightening	-10.9228
▁fascination	-10.9228
▁genius	-10.9228
▁glow	-10.9228
▁government	-10.9228
▁inadequate	-10.9228
▁inappropriate	-10.9228
▁inauthentic	-10.9228
▁insensitivity	-10.9228
▁irresistibly	-10.9228
▁kafka	-10.9228
▁majestic	-10.9228
▁melancholic	-10.9228
▁mysteries	-10.9228
▁olivier	-10.9228
▁pedestrian	-10.9228
▁pollution	-10.9228
▁predicament	-10.9228
▁reluctant	-10.9228
▁research	-10.9228
▁ritchie	-10.9228
▁sentence	-10.9228
▁serenity	-10.9228
▁simmer	-10.9228
▁soufflé	-10.9228
▁sudsy	-10.9228
▁survive	-10.9228
▁tabloid	-10.9228
▁thrust	-10.9228
▁unbearably	-10.9228
▁undercurrent	-10.9228
▁unmemorable	-10.9228
▁unsatisfying	-10.9228
▁unwatchable	-10.9228
▁videotape	-10.9228
▁virulent	-10.9228
▁widow	-10.9228
▁bewilder	-10.9228
▁clunky	-10.9228
▁communicate	-10.9228
▁function	-10.9228
▁grisly	-10.9228
▁hallucin	-10.9228
▁punctuat	-10.9228
▁scathing	-10.9228
▁sessions	-10.9228
▁spontaneous	-10.9228
▁tattered	-10.9228
bodied	-10.9228
▁merchant	-10.9228
▁stinks	-10.9228
▁pastiche	-10.9228
rudge	-10.9228
▁curves	-10.9228
▁dubious	-10.9228
▁wrestl	-10.9228
▁beguiling	-10.9228
▁burger	-10.9228
▁resonate	-10.9228
species	-10.9228
▁mumbo	-10.9228
▁ordeal	-10.9228
▁enticing	-10.9228
▁pandering	-10.9228
▁levity	-10.9229
burden	-10.9229
▁sociolog	-10.9229
sophi	-10.9229
hatred	-10.923
clutch	-10.923
drift	-10.9241
spinning	-10.9273
defined	-10.9282
▁degrad	-10.9511
▁realiz	-10.9628
proof	-10.9658
canny	-10.9753
credit	-10.9767
character	-10.9767
cultural	-10.9768
examination	-10.9768
,	-10.9769
▁indulge	-10.9845
▁possibilit	-10.989
reflection	-10.989
▁plumme	-10.9895
advertis	-10.9895
critique	-10.9895
pounding	-10.9895
pressible	-10.9895
▁abundant	-10.9895
▁applies	-10.9895
▁bollywood	-10.9895
▁calibrated	-10.9895
▁cardboard	-10.9895
▁circle	-10.9895
▁climax	-10.9895
▁cohesion	-10.9895
▁enervating	-10.9895
▁episodic	-10.9895
▁evoking	-10.9895
▁exasperating	-10.9895
▁exuberant	-10.9895
▁fontaine	-10.9895
▁giggle	-10.9895
▁griffith	-10.9895
▁hampered	-10.9895
▁hypocritical	-10.9895
▁insignificance	-10.9895
▁institution	-10.9895
▁interpretation	-10.9895
▁misanthropic	-10.9895
▁nebrida	-10.9895
▁nourishing	-10.9895
▁opposite	-10.9895
▁optimistic	-10.9895
▁pervasive	-10.9895
▁retaliation	-10.9895
▁rigid	-10.9895
▁rodrigue	-10.9895
▁sanctimony	-10.9895
▁scruffy	-10.9895
▁smoochy	-10.9895
▁suffocating	-10.9895
▁tawdry	-10.9895
▁telegraph	-10.9895
▁thornberry	-10.9895
▁ugliness	-10.9895
▁unbearable	-10.9895
▁undergrad	-10.9895
▁beloved	-10.9895
▁canadian	-10.9895
▁disease	-10.9895
▁fondness	-10.9895
▁schaef	-10.9895
▁smirk	-10.9895
▁freud	-10.9895
▁tread	-10.9895
▁throat	-10.9895
▁updating	-10.9895
▁buzz	-10.9895
nominated	-10.9895
precedent	-10.9895
▁imbue	-10.9895
▁trembl	-10.9896
eparation	-10.9897
▁spade	-10.9899
jective	-10.9915
wildlife	-11.0081
front	-11.0479
heavy	-11.0482
▁involve	-11.0542
▁amateur	-11.0605
destroying	-11.0609
drenched	-11.0609
glorification	-11.0609
nurture	-11.0609
pyrotechnic	-11.0609
reconcil	-11.0609
riddled	-11.0609
▁abomination	-11.0609
▁aftertaste	-11.0609
▁amorality	-11.0609
▁anticipated	-11.0609
▁aplenty	-11.0609
▁barrymore	-11.0609
▁betrayal	-11.0609
▁bloated	-11.0609
▁bogdanovich	-11.0609
▁chekhov	-11.0609
▁choreographed	-11.0609
▁cinderella	-11.0609
▁collateral	-11.0609
▁combusti	-11.0609
▁competition	-11.0609
▁counterpart	-11.0609
▁delinquent	-11.0609
▁departure	-11.0609
▁desiccated	-11.0609
▁detract	-11.0609
▁dilemma	-11.0609
▁diplomacy	-11.0609
▁drowsy	-11.0609
▁educates	-11.0609
▁enforce	-11.0609
▁equation	-11.0609
▁gloom	-11.0609
▁impersonation	-11.0609
▁inadvertent	-11.0609
▁infomercial	-11.0609
▁kosashvili	-11.0609
▁lumbering	-11.0609
▁odyssey	-11.0609
▁pinocchio	-11.0609
▁potshots	-11.0609
▁propaganda	-11.0609
▁ransack	-11.0609
▁redundancy	-11.0609
▁resolution	-11.0609
▁restrictive	-11.0609
▁rugrats	-11.0609
▁satisfactory	-11.0609
▁shaggy	-11.0609
▁sibling	-11.0609
▁speculation	-11.0609
▁spellbinding	-11.0609
▁squirm	-11.0609
▁suspend	-11.0609
▁testimony	-11.0609
▁titular	-11.0609
▁unamusing	-11.0609
▁unconditional	-11.0609
▁unpretentious	-11.0609
▁wendigo	-11.0609
▁whodunit	-11.0609
▁ethereal	-11.0609
▁glib	-11.0609
▁twaddle	-11.0609
annibal	-11.0609
promotion	-11.0609
▁brazen	-11.0609
▁skewe	-11.0609
▁stoked	-11.0609
▁whimper	-11.0609
▁globe	-11.0609
compens	-11.0609
shattering	-11.0609
▁humbl	-11.062
▁enabl	-11.0751
exploiti	-11.112
▁weigh	-11.1168
urban	-11.1168
sequel	-11.1251
▁satisfy	-11.1287
ique	-11.1367
simpl	-11.1376
conclusive	-11.1379
plicate	-11.1379
▁acknowledg	-11.1379
▁anachronistic	-11.1379
▁apparatus	-11.1379
▁bankrupt	-11.1379
▁basketball	-11.1379
▁bielinsky	-11.1379
▁blurry	-11.1379
▁boisterous	-11.1379
▁boozy	-11.1379
▁bumbling	-11.1379
▁california	-11.1379
▁captain	-11.1379
▁cathartic	-11.1379
▁cheesiest	-11.1379
▁chopsocky	-11.1379
▁civic	-11.1379
▁codswallop	-11.1379
▁complacency	-11.1379
▁condensed	-11.1379
▁confession	-11.1379
▁conspirator	-11.1379
▁corniest	-11.1379
;	-12.4073
:	-12.4074
(	-12.4075
)	-12.4076
`	-12.4077
