<unk>	0
<s>	0
</s>	0
▁?	-2.77507
t	-2.91938
s	-3.06988
▁the	-3.11483
▁Wha	-3.29408
▁is	-3.93196
▁of	-4.0157
▁	-4.05816
y	-4.17907
▁a	-4.19369
▁in	-4.213
ed	-4.63137
▁'	-4.63306
e	-4.64211
▁How	-4.71545
d	-4.7176
▁Wh	-4.81245
▁to	-4.86912
▁was	-4.87533
▁Who	-5.01287
▁,	-5.01331
ing	-5.05079
.	-5.10083
▁for	-5.21786
▁are	-5.24633
▁`	-5.29976
n	-5.32658
and	-5.34918
`	-5.35447
▁''	-5.36728
▁does	-5.39475
▁did	-5.39841
▁man	-5.44022
▁on	-5.47524
en	-5.47942
▁do	-5.48026
-	-5.48192
m	-5.51244
▁name	-5.66108
ere	-5.67195
er	-5.69977
▁I	-5.75063
▁be	-5.76972
a	-5.82782
▁an	-5.91888
▁can	-5.99333
al	-6.01389
▁you	-6.04083
▁first	-6.0691
o	-6.07594
ion	-6.11685
es	-6.16505
S	-6.19737
at	-6.20091
▁U	-6.2304
ly	-6.23088
▁The	-6.24389
▁countr	-6.2471
▁C	-6.2637
ich	-6.27809
▁ha	-6.28469
re	-6.30519
▁fro	-6.32076
r	-6.42577
th	-6.4281
or	-6.44182
▁by	-6.45908
▁S	-6.46525
▁with	-6.47328
▁wh	-6.47746
▁most	-6.48221
▁what	-6.4848
▁m	-6.48532
▁tha	-6.49475
▁w	-6.51096
▁A	-6.52125
▁world	-6.54382
▁have	-6.56161
▁T	-6.56617
in	-6.60068
▁it	-6.66626
▁city	-6.69206
le	-6.70222
on	-6.70424
▁pe	-6.71803
an	-6.7329
▁mean	-6.74046
▁year	-6.74095
▁.	-6.77158
k	-6.79454
i	-6.79584
▁Name	-6.83312
ies	-6.8616
▁state	-6.86612
▁get	-6.87031
ic	-6.87891
opl	-6.88495
▁were	-6.89372
▁find	-6.90019
▁F	-6.90234
▁American	-6.92558
▁called	-6.92787
▁In	-6.94854
▁play	-6.95585
▁his	-6.96092
est	-6.96139
▁large	-6.98441
▁B	-6.99398
▁N	-6.99691
▁D	-7.03503
uch	-7.07669
▁as	-7.0861
▁G	-7.08682
▁fear	-7.11859
▁two	-7.11862
l	-7.12045
▁word	-7.12109
ity	-7.12289
▁use	-7.12438
us	-7.13552
▁make	-7.14268
▁who	-7.15536
▁long	-7.16372
▁mad	-7.16464
ir	-7.16862
▁L	-7.17964
twee	-7.19345
f	-7.19387
▁th	-7.22704
um	-7.22955
▁f	-7.23408
el	-7.23519
V	-7.24001
:	-7.24078
▁know	-7.24353
▁P	-7.24552
▁color	-7.25748
▁origin	-7.31269
▁film	-7.32557
ary	-7.32729
▁time	-7.33023
▁its	-7.34551
ry	-7.36035
▁some	-7.36263
9	-7.37431
▁M	-7.37942
▁game	-7.38111
▁War	-7.38607
to	-7.38742
▁he	-7.38844
▁W	-7.39439
▁kind	-7.39902
▁E	-7.40496
▁O	-7.40673
age	-7.4089
▁live	-7.41455
▁R	-7.41727
▁movie	-7.41867
ball	-7.41987
man	-7.4248
3	-7.43444
ch	-7.43695
▁take	-7.43809
▁famous	-7.43873
▁New	-7.45763
ut	-7.46491
▁up	-7.46539
ia	-7.46833
▁out	-7.47187
▁best	-7.47212
▁c	-7.47291
▁or	-7.47695
company	-7.4776
▁book	-7.47922
p	-7.48672
▁invent	-7.4945
▁one	-7.50245
▁World	-7.52036
▁President	-7.52036
▁stand	-7.52145
b	-7.52217
▁go	-7.52629
ish	-7.5352
▁all	-7.53778
ce	-7.53952
h	-7.54945
son	-7.56305
ie	-7.56405
w	-7.56489
▁come	-7.57016
▁president	-7.59244
5	-7.59945
▁John	-7.62555
▁number	-7.63412
▁term	-7.63419
▁base	-7.64208
u	-7.64314
▁b	-7.65053
▁call	-7.65053
if	-7.65228
ould	-7.65919
2	-7.66082
▁not	-7.66264
as	-7.6764
▁work	-7.68644
g	-7.69337
▁J	-7.6936
ive	-7.69779
rote	-7.70547
out	-7.70635
▁di	-7.71298
▁America	-7.73055
▁sport	-7.73562
▁die	-7.73604
▁old	-7.73822
▁star	-7.74158
is	-7.76835
▁form	-7.7686
ve	-7.77078
land	-7.78007
▁character	-7.78544
▁English	-7.7905
▁South	-7.79065
▁won	-7.79492
1	-7.80658
▁war	-7.80727
c	-7.81129
▁show	-7.8119
▁us	-7.81263
ese	-7.8158
▁difference	-7.81916
▁animal	-7.81965
▁196	-7.81978
▁team	-7.81994
▁day	-7.82457
▁K	-7.82699
how	-7.83229
▁co	-7.83324
▁Uni	-7.83413
C	-7.84185
▁home	-7.84825
▁after	-7.84828
▁last	-7.84882
▁Mar	-7.85089
▁sing	-7.86174
ation	-7.86594
▁du	-7.86611
ment	-7.86897
▁ab	-7.87661
▁novel	-7.87859
▁act	-7.87869
▁song	-7.87916
ine	-7.89022
▁de	-7.90745
▁198	-7.90972
▁four	-7.91009
▁kill	-7.91066
▁so	-7.91148
▁my	-7.9116
ian	-7.91232
7	-7.91255
ur	-7.91361
▁p	-7.91448
▁dog	-7.91507
8	-7.91976
format	-7.92927
nia	-7.93555
ress	-7.93714
▁follow	-7.94206
▁State	-7.94282
▁born	-7.94297
▁highest	-7.94349
▁Re	-7.94354
▁say	-7.94867
▁Cal	-7.95581
L	-7.97403
▁language	-7.97539
▁letter	-7.97641
ter	-7.97926
▁me	-7.98132
▁cause	-7.98285
▁2	-7.9849
▁part	-7.98592
▁Le	-7.99226
▁Mo	-7.9932
▁found	-8.00387
ring	-8.00523
▁feature	-8.00991
▁school	-8.01023
▁title	-8.01087
▁199	-8.01175
▁car	-8.01346
▁197	-8.01474
one	-8.01485
▁sai	-8.01687
4	-8.01855
A	-8.02237
P	-8.02401
▁Lo	-8.03173
ice	-8.04294
▁common	-8.04351
▁three	-8.04573
▁like	-8.04663
▁mile	-8.04779
▁type	-8.04829
▁actor	-8.04841
▁re	-8.04885
ance	-8.05025
▁populat	-8.05121
om	-8.05244
rage	-8.05699
ar	-8.06078
rough	-8.06125
by	-8.06162
▁ba	-8.06453
▁group	-8.08265
▁capital	-8.08266
▁product	-8.08273
▁space	-8.08283
▁drink	-8.08297
▁food	-8.08302
▁ave	-8.08477
each	-8.08525
▁H	-8.08579
▁become	-8.08592
▁Christ	-8.08965
ite	-8.09128
way	-8.10171
z	-8.10747
▁abo	-8.10886
your	-8.11447
▁produce	-8.11973
▁river	-8.1211
▁second	-8.12113
▁contain	-8.12114
▁mountain	-8.12118
▁child	-8.1215
▁over	-8.12359
▁con	-8.12581
▁top	-8.13094
▁US	-8.13494
▁bod	-8.1361
▁1	-8.14088
ll	-8.15039
oney	-8.15759
▁locat	-8.15863
ster	-8.16088
▁Japan	-8.16108
▁York	-8.1611
▁claim	-8.16111
▁black	-8.16113
▁d	-8.16146
▁will	-8.16207
▁water	-8.16377
ifor	-8.16379
▁win	-8.16489
ra	-8.16888
▁King	-8.1703
▁Al	-8.17791
co	-8.17894
op	-8.18316
ne	-8.20003
▁portray	-8.20275
▁German	-8.20276
▁popular	-8.20277
▁computer	-8.20281
▁should	-8.20311
raft	-8.20453
lin	-8.20498
▁no	-8.20794
▁end	-8.21198
▁NN	-8.21201
▁mor	-8.2141
▁Ca	-8.21456
▁e	-8.2165
que	-8.2238
▁To	-8.22498
il	-8.2252
▁than	-8.22745
sis	-8.23091
▁sea	-8.23134
ers	-8.23607
▁Indian	-8.24403
▁start	-8.24537
ure	-8.24542
▁Jack	-8.24625
▁happen	-8.24634
▁new	-8.24635
▁college	-8.24637
▁Day	-8.24683
ield	-8.24779
▁power	-8.2483
▁music	-8.25317
ler	-8.25636
▁card	-8.25792
▁own	-8.261
▁her	-8.2656
ley	-8.27455
▁run	-8.28405
▁see	-8.28465
ous	-8.28885
▁wom	-8.29077
▁major	-8.29168
▁Brit	-8.29176
▁comic	-8.2919
▁histor	-8.29196
▁good	-8.2922
▁Russian	-8.29274
▁195	-8.29313
▁hand	-8.29348
▁longest	-8.29516
▁cost	-8.29583
x	-8.29959
▁player	-8.31211
▁way	-8.31379
▁island	-8.32613
ber	-8.3265
id	-8.329
ren	-8.33396
6	-8.33408
▁differen	-8.33875
▁abbreviat	-8.3393
▁address	-8.33938
▁Africa	-8.3395
▁Internet	-8.33956
▁North	-8.33964
▁begin	-8.33993
▁human	-8.33993
▁office	-8.34007
▁date	-8.34014
▁ball	-8.3414
▁leader	-8.34225
▁West	-8.34265
▁soft	-8.34427
▁Charle	-8.35418
▁V	-8.35915
▁5	-8.36023
R	-8.36236
▁Th	-8.37046
▁Si	-8.37202
▁fe	-8.37771
ile	-8.37999
▁pro	-8.3814
▁San	-8.38518
▁paint	-8.38864
▁French	-8.3893
ition	-8.38957
▁fame	-8.39006
▁sp	-8.39131
▁193	-8.3942
▁Chin	-8.39508
▁men	-8.3985
▁Hi	-8.39913
▁Rand	-8.40258
▁mini	-8.40744
tic	-8.4101
ant	-8.41026
ox	-8.41036
ible	-8.41055
ther	-8.41368
▁ga	-8.41821
came	-8.42351
▁Co	-8.43286
go	-8.435
▁birth	-8.43535
round	-8.43976
own	-8.44033
▁person	-8.44095
▁nickname	-8.44193
▁system	-8.44193
▁William	-8.44194
▁Olympic	-8.44195
▁business	-8.44195
▁sign	-8.44205
▁air	-8.44305
▁five	-8.44368
▁write	-8.44665
▁Sp	-8.44791
cy	-8.44802
▁Gre	-8.44842
▁Jam	-8.4493
▁eat	-8.45039
▁hit	-8.45096
▁real	-8.45201
▁plant	-8.45431
ral	-8.45735
▁boa	-8.46225
ame	-8.46345
▁St	-8.46417
▁Bo	-8.46442
▁creat	-8.47207
▁le	-8.47828
ro	-8.4822
▁buil	-8.48457
ism	-8.486
rate	-8.48687
▁Ha	-8.4959
ational	-8.49679
▁chemical	-8.49749
▁disease	-8.49749
▁Angel	-8.4975
▁tree	-8.49769
▁month	-8.49804
▁Park	-8.49841
able	-8.499
ow	-8.49972
▁place	-8.50246
▁v	-8.50275
ence	-8.50421
▁ship	-8.50516
▁fee	-8.50803
▁Ke	-8.50987
oman	-8.51446
▁inter	-8.51946
gan	-8.52137
M	-8.52419
▁un	-8.52566
▁3	-8.5299
▁sh	-8.53583
▁El	-8.53778
▁original	-8.53789
em	-8.54252
ose	-8.5432
ck	-8.54396
▁II	-8.54647
ner	-8.54755
ix	-8.54857
▁give	-8.55166
▁Va	-8.5534
▁appear	-8.55597
▁serve	-8.55618
▁cartoon	-8.55632
▁travel	-8.55648
▁Island	-8.55665
▁tall	-8.55715
v	-8.55724
▁Ear	-8.55734
▁George	-8.55841
▁16	-8.55883
ett	-8.561
▁under	-8.56268
▁prim	-8.5643
▁line	-8.57145
▁fath	-8.57428
▁On	-8.57973
▁Man	-8.58186
line	-8.58649
up	-8.5972
0	-8.60273
▁age	-8.60729
▁La	-8.61216
mas	-8.61227
ndon	-8.61232
ong	-8.61623
▁Engl	-8.61828
▁Sea	-8.61876
▁Kennedy	-8.61882
▁great	-8.61882
▁percent	-8.61885
▁lawyer	-8.61887
▁tube	-8.61892
▁record	-8.61895
▁battle	-8.61902
▁citi	-8.61933
▁defin	-8.61952
▁seven	-8.61963
▁love	-8.61987
▁eye	-8.62006
▁life	-8.62186
ague	-8.62214
ean	-8.62282
▁194	-8.63651
ill	-8.63811
side	-8.63833
▁cal	-8.63993
ri	-8.64248
ught	-8.64933
ain	-8.65185
ana	-8.65477
ace	-8.65694
der	-8.66182
ton	-8.66221
▁br	-8.66743
▁far	-8.66837
come	-8.66885
▁De	-8.67058
▁area	-8.67222
▁Ol	-8.67602
ning	-8.67811
lock	-8.67944
▁high	-8.68401
ca	-8.68516
▁house	-8.68519
▁Washington	-8.68548
▁televis	-8.68548
▁Spanish	-8.68548
▁blood	-8.68548
▁golf	-8.68553
▁other	-8.68562
▁marri	-8.68567
ful	-8.6859
▁Super	-8.68596
▁Univers	-8.68597
▁hole	-8.68608
▁European	-8.68634
▁Pope	-8.68655
▁create	-8.68656
▁fire	-8.68709
▁biggest	-8.68742
▁son	-8.69032
▁6	-8.69155
it	-8.69791
▁fun	-8.69874
▁may	-8.70007
▁May	-8.70115
▁g	-8.70444
▁Ben	-8.70512
▁Con	-8.70622
▁we	-8.71056
▁No	-8.71376
▁Ma	-8.7141
ent	-8.7186
O	-8.71943
ig	-8.72116
ka	-8.72265
▁member	-8.72364
▁Di	-8.72406
ap	-8.72484
com	-8.72619
ake	-8.73304
▁pa	-8.73532
os	-8.73631
F	-8.73869
fore	-8.7428
male	-8.74283
▁My	-8.74625
▁starr	-8.74738
ide	-8.74866
ma	-8.74961
ette	-8.75337
▁newspaper	-8.75691
▁design	-8.75691
▁ocean	-8.75691
▁univers	-8.75693
▁girl	-8.75771
▁turn	-8.75772
self	-8.75773
ical	-8.75822
▁but	-8.75856
▁stop	-8.75863
un	-8.75956
▁main	-8.76009
▁sub	-8.76044
▁building	-8.76142
iver	-8.7629
▁head	-8.76309
▁exp	-8.76327
ittle	-8.76426
sh	-8.76431
▁Bill	-8.76451
▁Gree	-8.76512
▁hair	-8.76652
▁fly	-8.76685
▁horse	-8.77262
stone	-8.77478
▁seri	-8.77534
▁Do	-8.78068
T	-8.78294
thing	-8.78364
▁bo	-8.78502
▁red	-8.78519
▁los	-8.78735
▁Pa	-8.7914
ern	-8.79206
▁hel	-8.80821
ist	-8.80983
all	-8.8126
mer	-8.81327
▁Pol	-8.81446
G	-8.81602
irport	-8.81761
za	-8.81896
mail	-8.81927
ver	-8.81976
hi	-8.82051
ueen	-8.8211
ember	-8.82244
▁writ	-8.82531
▁ever	-8.82796
ux	-8.82928
▁ten	-8.83017
ction	-8.83069
▁lead	-8.83078
ire	-8.83139
▁10	-8.83188
ovie	-8.83313
rculo	-8.83383
▁flag	-8.83383
▁introduce	-8.83383
▁Vietnam	-8.83383
▁Bowl	-8.83383
▁element	-8.83384
▁Oscar	-8.83384
▁website	-8.83384
▁general	-8.83395
▁soldier	-8.83396
▁tell	-8.83427
▁Rock	-8.8344
▁size	-8.83449
nother	-8.83466
▁continent	-8.83469
▁code	-8.83476
▁grow	-8.83553
▁Roman	-8.83554
▁wear	-8.83629
▁wor	-8.83659
▁cover	-8.83695
▁Star	-8.83724
▁fast	-8.83771
▁originate	-8.83777
ial	-8.83799
▁weigh	-8.83809
▁right	-8.83825
▁down	-8.83842
▁back	-8.83949
ze	-8.84036
▁God	-8.84066
▁n	-8.84102
ok	-8.84105
▁192	-8.84134
sts	-8.8422
rs	-8.84374
▁law	-8.84457
▁board	-8.84514
▁189	-8.8471
ate	-8.84804
▁once	-8.85024
time	-8.85678
▁Asia	-8.8569
di	-8.85891
part	-8.86084
▁box	-8.86131
▁race	-8.86143
▁ear	-8.8643
▁strip	-8.86509
▁Ed	-8.87221
war	-8.87247
▁Bea	-8.87295
▁All	-8.87381
▁store	-8.88146
ris	-8.88326
▁sa	-8.88666
▁Nation	-8.88818
▁ca	-8.89146
▁Be	-8.89192
▁Ru	-8.89447
cer	-8.89567
▁pre	-8.89663
NN	-8.89924
ol	-8.89928
ak	-8.90055
▁Li	-8.90108
▁pr	-8.9012
gar	-8.90632
ang	-8.90634
▁Mu	-8.90988
ple	-8.91025
mon	-8.91183
▁list	-8.91305
▁Dick	-8.91348
ippi	-8.91716
▁department	-8.91717
▁author	-8.91717
▁Frank	-8.91717
▁Richard	-8.91718
▁look	-8.91726
▁egg	-8.91731
▁assassinate	-8.91732
asket	-8.91733
▁football	-8.91736
▁rock	-8.91742
▁tax	-8.91754
▁sex	-8.91765
ntuck	-8.91768
▁million	-8.9177
▁rule	-8.91804
▁bird	-8.91811
▁need	-8.91813
▁center	-8.91856
▁Steven	-8.91869
▁director	-8.9187
▁big	-8.91872
▁face	-8.91898
▁role	-8.92102
▁Jud	-8.92105
▁beer	-8.92207
▁Missi	-8.92489
▁Canad	-8.92564
▁Mad	-8.92867
▁Ab	-8.92939
ight	-8.93063
▁national	-8.93135
▁Ho	-8.93148
▁Mr	-8.93315
▁king	-8.93481
▁every	-8.93492
moon	-8.93613
ixo	-8.93722
▁Hu	-8.93783
▁dea	-8.93827
▁Ste	-8.93828
▁7	-8.93984
act	-8.94098
ham	-8.94505
▁Big	-8.94938
nie	-8.95518
na	-8.9552
ness	-8.95889
ator	-8.95969
▁Cart	-8.96791
la	-8.96941
no	-8.97013
range	-8.97048
▁She	-8.97867
▁ro	-8.97898
wn	-8.97901
▁land	-8.98083
ny	-8.98136
▁ma	-8.98167
ual	-8.99067
ci	-8.99545
ky	-8.99549
han	-8.99912
ward	-9.0003
▁gold	-9.00382
▁direct	-9.00395
▁Ni	-9.00591
▁Massac	-9.00807
▁Australia	-9.00807
▁magazine	-9.00807
▁border	-9.00808
▁Mexic	-9.00809
▁week	-9.00809
▁Prince	-9.00809
▁Prize	-9.00813
▁represent	-9.00816
▁never	-9.0083
▁shot	-9.00831
▁Peter	-9.00854
▁Tex	-9.00867
▁him	-9.0094
▁six	-9.00949
▁compani	-9.00951
▁now	-9.00968
▁litera	-9.01003
▁earth	-9.01006
▁Intern	-9.01013
▁Lake	-9.01017
▁cold	-9.01018
ad	-9.0105
▁site	-9.01056
▁Bible	-9.0106
urse	-9.01316
▁fo	-9.0156
▁mo	-9.01583
he	-9.01616
▁spoke	-9.01667
use	-9.01819
eral	-9.02047
▁watch	-9.02081
▁15	-9.02128
▁comedi	-9.02173
▁ask	-9.02301
les	-9.02318
▁Hous	-9.02342
▁close	-9.02439
▁tri	-9.02759
ven	-9.02791
▁band	-9.0286
▁deal	-9.03335
▁sun	-9.03435
▁gla	-9.03491
D	-9.0361
▁Jo	-9.03898
berg	-9.03966
▁care	-9.0424
▁h	-9.04274
ov	-9.04335
▁cha	-9.04372
ound	-9.04545
▁Mag	-9.04604
▁wine	-9.04632
▁arm	-9.04672
ld	-9.0468
▁poet	-9.04839
▁Dr	-9.05117
▁Mac	-9.05295
ade	-9.05304
▁Tri	-9.05321
▁Ch	-9.05451
king	-9.05649
▁point	-9.0568
▁8	-9.06338
per	-9.06924
▁Me	-9.07235
▁sal	-9.07552
zi	-9.07553
▁Ta	-9.07664
dy	-9.08238
aine	-9.08315
oo	-9.08384
gas	-9.08469
▁Red	-9.08811
ail	-9.09266
ger	-9.09329
▁Miss	-9.09603
▁Du	-9.09913
▁An	-9.10102
▁thing	-9.10233
▁elect	-9.10659
▁Europe	-9.10681
▁symbol	-9.10793
▁Bridge	-9.10807
▁drug	-9.10807
▁machine	-9.10807
▁occur	-9.10807
▁publish	-9.10808
▁receive	-9.10808
▁consider	-9.10808
▁Wood	-9.10808
▁discover	-9.10809
▁screen	-9.10809
▁Columb	-9.10809
▁detect	-9.10809
▁north	-9.1081
▁affect	-9.10815
onopol	-9.10815
▁left	-9.10816
▁student	-9.10819
▁Horse	-9.10821
▁full	-9.10836
▁open	-9.10844
▁flight	-9.10856
▁organization	-9.10865
▁radio	-9.10868
▁visit	-9.10869
▁web	-9.10898
▁station	-9.109
▁auto	-9.10902
▁11	-9.10924
▁paper	-9.10936
▁Flor	-9.1095
▁fastest	-9.10959
▁Jim	-9.10987
▁Mc	-9.11049
▁trial	-9.11094
▁friend	-9.11108
▁bowl	-9.11122
ubbe	-9.11134
mbi	-9.11136
tter	-9.11335
▁rain	-9.11376
▁rec	-9.11392
day	-9.11424
▁rest	-9.11536
▁Ro	-9.1171
▁current	-9.11737
▁Ham	-9.11782
▁light	-9.11949
▁art	-9.12102
iddle	-9.12131
▁sell	-9.12181
▁question	-9.123
▁read	-9.12304
▁Ne	-9.12399
hus	-9.1244
▁Lat	-9.12445
00	-9.12498
▁Com	-9.12523
▁bar	-9.12552
de	-9.12838
road	-9.12885
▁Count	-9.12972
▁pai	-9.13061
▁Bab	-9.13091
▁Ven	-9.13238
▁Ga	-9.13299
ize	-9.13638
ps	-9.13761
▁side	-9.13947
▁boy	-9.14022
ge	-9.14118
▁Go	-9.14167
▁Ka	-9.14173
▁19	-9.14386
und	-9.14666
▁Los	-9.1467
▁often	-9.14708
▁Franc	-9.14709
ula	-9.14814
key	-9.14958
▁bi	-9.15354
▁speci	-9.15503
ture	-9.15802
▁build	-9.15985
sey	-9.16013
▁per	-9.16171
DS	-9.16346
▁Lu	-9.16356
▁opera	-9.16402
▁stor	-9.1673
mp	-9.16775
ul	-9.17031
▁Hol	-9.1711
▁Sa	-9.17187
ference	-9.17264
awa	-9.1765
▁l	-9.17865
▁en	-9.18026
ttle	-9.18216
aws	-9.18392
▁Ba	-9.18779
▁Fe	-9.18978
ife	-9.19108
▁4	-9.19219
ud	-9.19275
atch	-9.19527
den	-9.19901
H	-9.20061
ise	-9.20103
cause	-9.2015
most	-9.20208
▁medic	-9.2026
▁Spa	-9.20383
▁pi	-9.20467
▁East	-9.20742
▁bottle	-9.20805
avor	-9.20876
▁Sal	-9.20894
atcher	-9.21113
ches	-9.2118
▁engine	-9.21511
▁Des	-9.21584
ju	-9.21717
▁nation	-9.2187
search	-9.21878
outh	-9.21908
▁effect	-9.21918
▁Chicago	-9.21919
▁astronaut	-9.21919
▁daughter	-9.21919
▁nuclear	-9.21919
▁commercial	-9.21919
▁small	-9.21919
▁instrument	-9.21919
▁occup	-9.21919
▁Yankee	-9.2192
▁cloth	-9.21921
▁Good	-9.21922
▁Mount	-9.21923
▁cowboy	-9.21924
▁buri	-9.21926
▁program	-9.21926
▁Korea	-9.21932
▁oil	-9.21947
▁Scot	-9.21953
▁mother	-9.21953
▁near	-9.21958
▁event	-9.21983
▁rich	-9.21988
▁develop	-9.21996
ard	-9.22001
▁join	-9.22018
▁Night	-9.22047
▁sound	-9.22063
▁21	-9.22071
▁Davi	-9.22076
▁Mauri	-9.22083
▁market	-9.22088
▁organ	-9.22097
▁Ala	-9.22102
▁gree	-9.22118
▁You	-9.22152
▁pig	-9.22171
▁bone	-9.22174
▁allow	-9.2234
ough	-9.22344
ression	-9.2241
▁Hen	-9.22491
▁plane	-9.22509
▁producer	-9.22544
▁hero	-9.22692
▁fish	-9.22696
▁Louis	-9.22819
▁natur	-9.22823
gate	-9.22997
be	-9.2311
rvey	-9.23121
sburg	-9.23123
▁fu	-9.23182
▁include	-9.2325
▁Luc	-9.23271
I	-9.23377
▁centur	-9.23384
ran	-9.2351
▁Mil	-9.23555
▁writer	-9.23569
yard	-9.23603
ennis	-9.23785
▁18	-9.23793
▁Ki	-9.23863
▁Dan	-9.23954
ida	-9.24051
nce	-9.24121
▁And	-9.24311
van	-9.24736
val	-9.24886
▁must	-9.25109
long	-9.25261
▁male	-9.25428
E	-9.25856
N	-9.2589
▁non	-9.26112
▁Jer	-9.2631
rad	-9.26336
pe	-9.26339
▁force	-9.26719
▁Sin	-9.26721
▁Au	-9.27111
▁liv	-9.27841
▁Wind	-9.27989
gy	-9.28151
▁lives	-9.28154
ank	-9.28169
▁Ku	-9.28201
▁Marv	-9.28357
▁count	-9.28679
rk	-9.28732
▁sc	-9.28765
▁ver	-9.28794
ska	-9.28869
▁ac	-9.2887
▁bra	-9.29031
hoo	-9.2906
▁Mary	-9.2919
▁manufacture	-9.2925
ah	-9.294
▁su	-9.29923
▁Su	-9.29969
ff	-9.30334
▁He	-9.30538
▁ge	-9.31083
ulf	-9.31429
▁Per	-9.31617
▁Pe	-9.31895
abilit	-9.32294
▁put	-9.32565
board	-9.32583
▁Ei	-9.33402
▁Win	-9.33532
ivil	-9.34408
▁snow	-9.34408
▁Shakespeare	-9.34419
▁Simpson	-9.34419
▁bridge	-9.34419
▁husband	-9.34419
▁purpose	-9.34419
▁religion	-9.34419
▁celebrat	-9.34419
▁murder	-9.34419
▁Congress	-9.34419
▁Micro	-9.34419
▁Wonder	-9.34419
▁cigar	-9.34419
▁correct	-9.34419
▁secret	-9.34419
▁temperature	-9.34419
▁keep	-9.3442
▁attend	-9.3442
▁headquarter	-9.34421
▁telephone	-9.34421
▁Jew	-9.34421
▁diamond	-9.34421
▁milk	-9.34422
▁buy	-9.34423
▁video	-9.34423
▁McCa	-9.34423
▁patent	-9.34423
▁Brown	-9.34426
▁believe	-9.34429
▁Water	-9.3443
▁electric	-9.3443
▁super	-9.34432
▁taste	-9.34432
hur	-9.34433
▁Roger	-9.34435
▁short	-9.34441
wood	-9.34446
▁Italian	-9.34447
ub	-9.34449
▁VH	-9.3445
▁measure	-9.34455
▁lake	-9.34456
▁famil	-9.34463
▁blue	-9.34464
▁acid	-9.34468
▁profession	-9.34468
▁police	-9.34477
▁appearance	-9.34494
▁artist	-9.34504
▁set	-9.34512
▁chair	-9.3453
▁Wall	-9.34536
▁control	-9.3456
▁successful	-9.34569
▁chicken	-9.3457
▁Gene	-9.34571
▁square	-9.34575
▁sleep	-9.34582
tude	-9.34584
mount	-9.34586
▁government	-9.34587
lso	-9.34589
ury	-9.34612
▁pitcher	-9.34618
▁season	-9.34622
▁Game	-9.34659
▁infectio	-9.34659
obel	-9.34678
▁file	-9.34745
onna	-9.34775
▁stock	-9.34813
▁Dar	-9.34814
▁Gate	-9.3482
▁swimm	-9.34889
national	-9.34892
▁Sam	-9.34927
▁free	-9.34938
cil	-9.35065
▁Ray	-9.35127
▁Bear	-9.35186
level	-9.35209
▁Cast	-9.3526
▁From	-9.35288
▁hold	-9.35314
▁Law	-9.35323
▁single	-9.35338
▁Pro	-9.35488
▁mag	-9.35621
▁mark	-9.35631
▁cross	-9.35642
▁she	-9.35765
▁dam	-9.35819
▁try	-9.35821
▁Jane	-9.35827
▁17	-9.36004
▁Mi	-9.36042
eum	-9.36072
▁birthda	-9.36198
▁spen	-9.36204
▁Time	-9.36269
ribb	-9.36392
▁cat	-9.36444
▁classic	-9.36664
▁st	-9.36689
▁characters	-9.36729
▁award	-9.36735
▁13	-9.36735
▁Die	-9.36902
▁cere	-9.36956
▁Bon	-9.37121
▁Thom	-9.3714
eneral	-9.37522
went	-9.37645
ale	-9.37712
ect	-9.37715
▁Roo	-9.38201
im	-9.38308
aron	-9.38415
aw	-9.3849
imes	-9.38564
▁rea	-9.38623
▁coc	-9.38702
ship	-9.3897
otto	-9.38972
▁coloni	-9.39121
▁advertise	-9.39533
▁drive	-9.39814
▁Pi	-9.39959
▁sett	-9.40429
▁putt	-9.40443
erlin	-9.40549
itch	-9.40868
▁Ber	-9.41212
ush	-9.41598
▁mar	-9.4177
▁Gor	-9.4236
▁se	-9.42457
▁hav	-9.42621
▁Ir	-9.42626
▁que	-9.42685
uman	-9.43323
▁ex	-9.44032
ican	-9.44072
B	-9.44501
itzer	-9.44524
ink	-9.44677
▁bill	-9.44785
mum	-9.44867
▁Wil	-9.44967
vin	-9.4497
▁Na	-9.45015
▁Am	-9.45136
▁Gold	-9.45164
ald	-9.45908
'	-9.45947
sell	-9.45959
▁Las	-9.45989
ety	-9.46196
▁mak	-9.46221
ick	-9.46726
▁Bu	-9.46768
▁Ex	-9.46805
year	-9.46997
ever	-9.47084
▁Sta	-9.4723
know	-9.47362
▁Tw	-9.47364
uel	-9.47545
▁India	-9.48407
▁treat	-9.48671
▁alphabet	-9.48685
▁Virgin	-9.48704
▁album	-9.48704
▁attack	-9.48704
▁degree	-9.48704
▁elephant	-9.48704
▁equal	-9.48704
▁perform	-9.48704
▁submarine	-9.48704
▁lyric	-9.48704
▁weapon	-9.48704
▁Michael	-9.48704
▁caffein	-9.48705
▁credit	-9.48705
▁Street	-9.48705
▁collect	-9.48705
▁automobile	-9.48705
▁surf	-9.48706
▁desert	-9.48709
▁release	-9.4871
▁just	-9.48711
▁erupt	-9.48716
▁sister	-9.48719
▁champion	-9.48723
▁kid	-9.48724
▁chance	-9.48726
▁cream	-9.48731
▁score	-9.48743
▁Black	-9.48749
▁finger	-9.48754
▁least	-9.48762
▁emp	-9.48764
▁historical	-9.48765
▁creature	-9.48784
▁Four	-9.48815
▁Stone	-9.48863
▁Bob	-9.48869
▁remove	-9.48874
▁Hill	-9.48874
▁enter	-9.48875
▁vac	-9.48889
▁train	-9.48894
▁pop	-9.48896
ath	-9.48902
▁elev	-9.48923
▁complete	-9.48924
lue	-9.48943
aptain	-9.48946
iente	-9.4901
angle	-9.49021
gation	-9.49039
▁election	-9.49053
▁AI	-9.49077
ckle	-9.49143
▁lo	-9.49329
▁host	-9.49341
ombo	-9.4935
▁wings	-9.49351
▁dai	-9.49355
our	-9.49389
▁000	-9.49475
▁Rom	-9.49481
ho	-9.4949
▁Cost	-9.49491
▁Dicken	-9.495
olic	-9.49502
▁page	-9.49505
▁pound	-9.4952
▁beach	-9.49545
▁Batt	-9.49677
▁Live	-9.49736
pin	-9.49955
ascal	-9.49973
cope	-9.50047
▁walk	-9.50061
▁post	-9.50079
phone	-9.501
▁white	-9.50117
▁test	-9.50129
lon	-9.50204
lway	-9.50268
▁meter	-9.50457
▁Cent	-9.50495
▁low	-9.50649
▁Gu	-9.50873
▁tra	-9.50908
law	-9.50915
▁sil	-9.50929
▁Green	-9.51083
evel	-9.51092
ather	-9.51187
▁la	-9.51335
▁Don	-9.51384
▁off	-9.51702
▁20	-9.5188
▁Pan	-9.52031
▁vote	-9.52044
▁Jul	-9.52202
▁pla	-9.52224
▁Pelle	-9.52297
▁Mel	-9.52456
une	-9.52467
alo	-9.52983
▁0	-9.53054
kin	-9.53195
▁Art	-9.53566
ologi	-9.53635
▁medicin	-9.54015
net	-9.54024
grin	-9.5436
bert	-9.54456
oc	-9.54517
▁came	-9.54617
▁cont	-9.54939
▁Un	-9.55065
ological	-9.55067
phen	-9.55218
▁Po	-9.55391
io	-9.55425
men	-9.55832
rel	-9.56197
▁points	-9.56702
ration	-9.56863
dict	-9.57233
tern	-9.57248
▁sin	-9.57328
ga	-9.5751
▁li	-9.57613
hen	-9.57714
bo	-9.57798
▁Bas	-9.57942
gi	-9.58093
dle	-9.58249
▁Sc	-9.58249
▁touch	-9.58363
peak	-9.58505
▁sta	-9.58618
▁Francis	-9.59632
▁Colo	-9.597
▁Mut	-9.59786
▁Charl	-9.60025
mitte	-9.60194
old	-9.60326
▁inspir	-9.6039
ag	-9.60796
▁For	-9.61068
ffe	-9.61148
win	-9.61251
▁nin	-9.61424
min	-9.61571
▁Will	-9.61743
▁Fred	-9.61765
chola	-9.61867
light	-9.62193
▁dead	-9.62303
▁po	-9.62448
ped	-9.62748
▁qui	-9.6286
▁q	-9.62907
lly	-9.63165
foot	-9.63363
K	-9.63446
▁Lin	-9.6354
W	-9.6359
row	-9.63678
soft	-9.63715
▁Spi	-9.63801
port	-9.6392
▁poe	-9.63923
▁Car	-9.63994
centur	-9.64159
under	-9.64188
▁Ve	-9.64213
rush	-9.64291
ota	-9.64323
uppe	-9.64405
ou	-9.64477
led	-9.64522
▁i	-9.6472
ama	-9.6478
anger	-9.64838
mis	-9.64888
▁leg	-9.64975
▁jo	-9.65048
▁medi	-9.65213
arge	-9.65253
ecurit	-9.65275
ollege	-9.65324
view	-9.65326
▁bull	-9.65331
▁corp	-9.65348
vesti	-9.65356
▁airplane	-9.65371
▁celebrit	-9.65371
▁chocolate	-9.65371
▁example	-9.65371
▁fruit	-9.65371
▁mammal	-9.65371
▁Robin	-9.65371
▁object	-9.65371
▁surround	-9.65371
▁transplant	-9.65371
▁Phil	-9.65371
▁adult	-9.65372
▁condition	-9.65375
▁Soci	-9.65376
▁cloud	-9.65377
▁Titan	-9.65377
▁Ocean	-9.6538
▁perfect	-9.6538
▁Islam	-9.65381
▁typical	-9.65382
▁young	-9.65384
▁southern	-9.65385
▁Robert	-9.65387
▁Nazi	-9.65387
▁court	-9.65388
▁Merc	-9.6539
▁clean	-9.65391
▁exist	-9.65396
▁Paul	-9.65398
bra	-9.65399
▁Penn	-9.65399
▁voice	-9.65404
▁Year	-9.65407
▁double	-9.65408
▁expectan	-9.65411
▁breed	-9.65412
▁Wolf	-9.65415
▁pull	-9.65423
▁1940	-9.65424
account	-9.65428
▁Cross	-9.65445
▁price	-9.6545
▁civil	-9.65457
▁speak	-9.65467
▁hard	-9.65468
▁danc	-9.65472
▁mode	-9.65477
ford	-9.6548
▁Justi	-9.65487
▁1980	-9.65487
▁1960	-9.65493
public	-9.65497
▁Dec	-9.655
onym	-9.65512
tatistic	-9.65525
roop	-9.65536
▁sold	-9.6554
▁Bull	-9.65556
▁winner	-9.65558
▁bomb	-9.65569
▁coach	-9.65569
▁twin	-9.65576
▁dollar	-9.65578
▁order	-9.65586
ling	-9.65647
▁Hump	-9.65659
▁Senat	-9.65672
▁Award	-9.65684
▁Holly	-9.65735
▁help	-9.65799
▁Sh	-9.65881
▁counter	-9.65899
▁mix	-9.65903
▁mon	-9.65911
▁serv	-9.65926
▁official	-9.65927
ffin	-9.65972
▁hock	-9.66008
▁roll	-9.66022
rren	-9.6604
▁rum	-9.66078
▁Pas	-9.66102
▁Ital	-9.66126
▁deb	-9.66136
▁Jon	-9.66238
▁raise	-9.66251
▁pregnanc	-9.66278
▁hour	-9.6631
ell	-9.66363
▁Janu	-9.66407
▁ti	-9.66445
uart	-9.66446
▁commonly	-9.66447
▁Ford	-9.66468
▁flower	-9.66471
▁reach	-9.66512
▁burn	-9.66616
▁Victoria	-9.66639
▁provide	-9.66763
▁12	-9.66808
minute	-9.66822
ney	-9.66901
wait	-9.67062
▁gain	-9.67083
▁9	-9.67275
▁compos	-9.67347
▁declare	-9.67479
▁Poe	-9.67546
even	-9.67626
eep	-9.67638
lite	-9.67682
▁bear	-9.67803
▁brothers	-9.67829
▁anima	-9.67838
▁Gar	-9.67988
bas	-9.68067
▁hur	-9.68083
▁suit	-9.68321
rian	-9.68326
lace	-9.68335
▁ski	-9.68415
▁pan	-9.68672
▁road	-9.68672
▁heart	-9.68715
▁dist	-9.68748
vo	-9.68917
ina	-9.68972
tlan	-9.69009
zza	-9.69205
▁range	-9.69231
blen	-9.6924
▁airport	-9.69259
▁Mont	-9.69279
uke	-9.69457
cent	-9.69595
hip	-9.69821
▁god	-9.69859
ni	-9.70113
▁hot	-9.7045
▁theme	-9.70463
▁sna	-9.70488
▁191	-9.70733
trum	-9.70844
▁Boy	-9.71136
▁Ko	-9.71257
▁Ern	-9.71259
ged	-9.7128
▁conc	-9.71348
II	-9.71434
▁Johnn	-9.71538
▁Fort	-9.71582
▁glo	-9.71598
▁determine	-9.71719
sian	-9.72183
ims	-9.72248
▁bee	-9.72464
▁Medi	-9.7258
tract	-9.73217
▁trip	-9.73244
▁Pit	-9.73376
lo	-9.734
▁But	-9.73441
ker	-9.7355
▁Miche	-9.73639
▁Mor	-9.73762
▁late	-9.73966
▁Fal	-9.74158
▁Garr	-9.74212
nned	-9.74339
▁cl	-9.7436
▁members	-9.74431
aver	-9.74555
ries	-9.74695
▁pu	-9.74706
▁operat	-9.74733
▁Col	-9.74774
ki	-9.74921
▁beat	-9.74997
ada	-9.75238
▁Nin	-9.75311
▁Cor	-9.75324
▁Vi	-9.75578
▁pol	-9.75591
▁Marti	-9.75784
▁salt	-9.76103
▁Fl	-9.76178
▁arch	-9.76196
▁ring	-9.7625
ica	-9.76399
ston	-9.76509
unt	-9.76882
hel	-9.77331
▁Hav	-9.77446
▁refer	-9.77513
▁na	-9.77575
▁o	-9.77946
aspar	-9.77968
U	-9.77999
gen	-9.7804
▁Ar	-9.78094
▁sha	-9.781
▁process	-9.78281
ext	-9.78573
▁Tr	-9.78599
iz	-9.78711
▁Mari	-9.79037
12	-9.79247
▁vo	-9.79551
▁stra	-9.79659
nswers	-9.79729
ax	-9.79787
▁Beat	-9.79828
▁Home	-9.79842
▁ph	-9.79917
dberg	-9.80011
meter	-9.80154
▁Come	-9.80391
▁sen	-9.80729
again	-9.80773
lor	-9.80863
▁ho	-9.80959
ride	-9.80993
▁Peac	-9.81002
urant	-9.81163
ini	-9.81188
east	-9.81274
roy	-9.81355
maker	-9.81832
ph	-9.82017
less	-9.82745
▁ne	-9.82896
erge	-9.82935
▁mus	-9.82977
iro	-9.83112
▁Dea	-9.83263
ita	-9.83264
▁Associat	-9.83382
▁Cla	-9.8341
change	-9.83424
mark	-9.83437
walk	-9.83498
▁fr	-9.83518
cross	-9.83555
J	-9.83577
▁cook	-9.83664
amble	-9.84085
▁Edi	-9.84127
nel	-9.84167
uck	-9.84219
embe	-9.8435
▁Bar	-9.84409
▁command	-9.84546
derate	-9.8472
fac	-9.84867
▁Russia	-9.84874
▁execut	-9.8508
still	-9.8515
▁Confe	-9.85203
igg	-9.85247
▁fin	-9.85283
▁Can	-9.85299
ureau	-9.8531
▁govern	-9.85331
▁multi	-9.85351
▁dep	-9.85352
aja	-9.85357
▁Brazil	-9.85371
▁Lincoln	-9.85371
▁Philippine	-9.85371
▁Scarlet	-9.85371
▁appoint	-9.85371
▁broadcast	-9.85371
▁communi	-9.85371
▁exercise	-9.85371
▁hamburger	-9.85371
▁material	-9.85371
▁monarch	-9.85371
▁purchase	-9.85371
pproximate	-9.85371
▁Academy	-9.85371
▁Israel	-9.85371
▁flavor	-9.85371
▁hydro	-9.85371
▁return	-9.85371
▁Andrew	-9.85371
▁figure	-9.85371
▁IBM	-9.85371
▁micro	-9.85371
▁teaspoon	-9.85371
▁vegetable	-9.85372
▁equivalen	-9.85372
▁church	-9.85372
▁Hungar	-9.85372
▁Hawaii	-9.85372
▁display	-9.85373
▁learn	-9.85374
▁coast	-9.85374
▁Helen	-9.85375
▁native	-9.85375
nstein	-9.85375
▁adopt	-9.85375
▁involve	-9.85378
▁prophe	-9.85379
▁assassination	-9.85379
▁label	-9.85379
▁normal	-9.85381
▁prevent	-9.85381
▁Way	-9.85383
▁project	-9.85385
vict	-9.85389
▁idea	-9.85391
▁hunt	-9.85392
▁Brother	-9.85393
▁seiz	-9.85393
▁exact	-9.85394
▁citizen	-9.85397
▁broke	-9.85398
▁education	-9.85398
▁sweet	-9.85398
▁root	-9.85403
▁export	-9.85409
▁Chap	-9.8541
▁equi	-9.8541
rbor	-9.85411
▁Hawk	-9.85415
▁speed	-9.85417
▁camera	-9.85419
▁Enter	-9.85421
▁Mountain	-9.85431
▁Independen	-9.85433
▁proper	-9.85436
▁Evere	-9.85442
▁widely	-9.85444
▁Roll	-9.85445
▁grace	-9.85446
▁attraction	-9.85454
▁cell	-9.85458
▁187	-9.8546
▁flow	-9.85466
▁batter	-9.85468
▁Buff	-9.8547
▁floor	-9.8547
▁Canadian	-9.85473
▁Shir	-9.85478
▁Pho	-9.8549
▁eight	-9.85493
▁bank	-9.85494
▁1990	-9.85496
▁standard	-9.85499
tura	-9.85503
▁vice	-9.85516
▁tip	-9.85516
▁chee	-9.8552
▁Master	-9.85521
▁south	-9.85524
▁doctor	-9.8553
▁chess	-9.85545
graph	-9.85545
place	-9.85552
▁Life	-9.85556
▁Web	-9.85562
▁contest	-9.85575
▁fight	-9.85583
▁dar	-9.85598
▁crimin	-9.85616
▁picture	-9.85617
▁Camp	-9.85618
▁Pul	-9.85625
kes	-9.85639
▁safe	-9.85645
▁fail	-9.85646
▁cup	-9.8565
▁lady	-9.85655
▁bug	-9.85663
▁stole	-9.85673
▁variet	-9.85683
▁Bel	-9.85685
boy	-9.85695
▁sperm	-9.85727
▁25	-9.8574
▁Stein	-9.85756
unch	-9.8576
▁case	-9.85769
▁hearing	-9.85793
▁Vinc	-9.85797
ock	-9.85802
cter	-9.85828
etho	-9.85871
▁Ross	-9.85887
▁flie	-9.85926
▁contrac	-9.85945
▁direction	-9.85946
▁Johnson	-9.85967
▁heavi	-9.86016
▁apple	-9.86046
▁street	-9.86071
▁Hear	-9.86076
▁value	-9.86081
▁Grand	-9.86109
▁poli	-9.8612
syl	-9.86241
▁better	-9.86304
▁fur	-9.86306
zen	-9.86324
▁offer	-9.86327
▁Sw	-9.86373
▁legal	-9.86394
▁pen	-9.86403
▁Ya	-9.86481
▁night	-9.86517
▁wall	-9.86522
▁CD	-9.86527
reign	-9.8658
▁rail	-9.86606
▁Powe	-9.86628
kep	-9.86663
▁clock	-9.86692
▁location	-9.86719
elo	-9.8672
▁Barr	-9.86765
▁domesticat	-9.86777
lip	-9.86833
▁earn	-9.86844
▁Stan	-9.8685
▁tail	-9.86895
fect	-9.86923
the	-9.86952
▁heli	-9.86989
▁Bur	-9.87004
bache	-9.87061
▁tourist	-9.87064
▁answers	-9.87178
▁importan	-9.87212
▁donat	-9.87243
▁inventor	-9.87266
▁change	-9.87372
▁Carolin	-9.87377
▁carrie	-9.87477
▁painter	-9.87572
▁save	-9.87836
▁add	-9.87856
▁port	-9.87885
mond	-9.87929
▁Del	-9.8799
▁Here	-9.88135
bod	-9.8827
▁Hoo	-9.88423
▁Indi	-9.88594
lang	-9.89062
▁sl	-9.89096
▁Fi	-9.89147
bow	-9.89228
rust	-9.8926
ac	-9.89264
ache	-9.89348
▁trade	-9.89363
cker	-9.89421
leave	-9.89518
pper	-9.8964
▁techni	-9.89837
▁188	-9.9007
▁toll	-9.90114
arry	-9.90119
ash	-9.90148
tille	-9.90546
ept	-9.90663
og	-9.90724
▁less	-9.90829
▁Love	-9.91046
▁fir	-9.9109
▁Act	-9.9121
do	-9.9127
fi	-9.91601
stic	-9.92083
▁Tu	-9.925
▁Ou	-9.92532
top	-9.92623
▁Med	-9.92852
ener	-9.92904
tru	-9.93105
low	-9.93124
▁Sher	-9.93216
mate	-9.93387
nburg	-9.93485
▁Par	-9.93488
lit	-9.9369
gal	-9.93751
▁round	-9.93773
▁Alle	-9.93826
▁14	-9.94217
potl	-9.94374
▁Hall	-9.94623
▁net	-9.94853
erson	-9.95012
gust	-9.9513
gh	-9.95172
▁Scr	-9.95192
▁ve	-9.95316
eph	-9.95353
▁plan	-9.95511
ier	-9.95522
La	-9.95645
ature	-9.95675
▁edit	-9.95813
ble	-9.95896
ex	-9.95949
vers	-9.9606
ug	-9.96356
think	-9.96536
▁com	-9.96608
▁fi	-9.96744
▁Fre	-9.96765
oon	-9.96768
lk	-9.97234
▁Val	-9.97301
▁Edm	-9.97481
▁cu	-9.97507
cord	-9.9765
red	-9.97974
▁Nor	-9.98222
iana	-9.98235
▁Jos	-9.98373
▁Cap	-9.98525
arma	-9.98664
rig	-9.99188
▁peni	-9.99284
gin	-9.99657
▁Nat	-9.99752
▁Stal	-9.99771
▁stripe	-10.0004
▁Pal	-10.0015
ind	-10.0033
ivia	-10.0039
▁Part	-10.0041
▁div	-10.0042
▁Poo	-10.0054
esse	-10.0061
▁Nev	-10.0063
▁Cath	-10.0073
app	-10.0073
▁Has	-10.0093
eming	-10.0095
ious	-10.0095
mad	-10.0102
▁rac	-10.0119
nner	-10.0121
▁spec	-10.0129
▁Mich	-10.0171
▁Mus	-10.0171
vi	-10.0177
▁Ge	-10.0194
ement	-10.0196
ification	-10.0211
ron	-10.0217
▁Wars	-10.0224
mmer	-10.023
▁reac	-10.0235
ations	-10.024
pher	-10.0255
▁tru	-10.0261
lan	-10.0289
▁mu	-10.0297
ulliv	-10.0311
iff	-10.0401
▁gro	-10.0417
con	-10.044
gua	-10.0454
▁gra	-10.0465
▁Citi	-10.0474
dam	-10.0482
gg	-10.0483
▁En	-10.0488
▁ill	-10.0498
qui	-10.0499
▁Bro	-10.0501
nna	-10.0502
▁DT	-10.0505
▁Coun	-10.0517
avy	-10.0553
▁rid	-10.0608
▁tw	-10.061
▁acr	-10.0645
▁clos	-10.0655
ompany	-10.0697
▁Er	-10.07
tivity	-10.0722
▁presiden	-10.0777
▁sod	-10.081
▁cry	-10.0826
▁dia	-10.0829
compa	-10.083
Y	-10.0834
employ	-10.0836
▁Mon	-10.0839
odor	-10.0839
room	-10.0848
suit	-10.0851
dom	-10.0857
house	-10.0858
back	-10.0859
play	-10.0861
water	-10.0861
work	-10.0868
▁class	-10.0873
head	-10.0873
star	-10.0878
▁somet	-10.0893
burn	-10.0894
▁Pic	-10.0899
ebru	-10.09
live	-10.0908
mor	-10.0916
▁pregnan	-10.0928
swal	-10.0935
word	-10.0939
▁Georg	-10.094
▁Emp	-10.0955
28	-10.0963
cats	-10.0966
eather	-10.0969
eller	-10.097
bble	-10.0971
▁imp	-10.0978
tab	-10.0993
▁Sun	-10.0996
▁24	-10.1014
ssociate	-10.1017
eppe	-10.1019
efine	-10.1025
▁vari	-10.103
source	-10.1035
▁success	-10.1036
▁revol	-10.1037
▁Anglican	-10.1037
▁Secret	-10.1037
▁ambassador	-10.1037
▁attempt	-10.1037
▁climb	-10.1037
▁holiday	-10.1037
▁lobster	-10.1037
▁perpetual	-10.1037
▁sculpt	-10.1037
▁separate	-10.1037
▁surrender	-10.1037
▁tournament	-10.1037
▁cabinet	-10.1037
▁device	-10.1037
▁Dwarf	-10.1037
▁School	-10.1037
▁bibliograph	-10.1037
▁contemp	-10.1037
▁Church	-10.1037
▁calculat	-10.1037
▁alternat	-10.1037
▁tradition	-10.1037
▁equat	-10.1037
▁Silver	-10.1037
▁hijack	-10.1037
▁factor	-10.1037
▁remain	-10.1037
▁photograph	-10.1037
▁odds	-10.1037
▁guitar	-10.1037
▁regard	-10.1037
▁suprem	-10.1037
▁relations	-10.1037
▁Bomb	-10.1037
▁method	-10.1037
▁practic	-10.1037
▁regula	-10.1037
▁territor	-10.1037
▁volcano	-10.1037
▁half	-10.1038
▁fresh	-10.1038
▁support	-10.1038
▁kiss	-10.1038
▁Play	-10.1038
▁trademark	-10.1038
▁distinct	-10.1038
▁identi	-10.1038
▁librar	-10.1038
▁pronounce	-10.1038
▁respon	-10.1039
cific	-10.1039
▁shape	-10.1039
▁Brook	-10.1039
▁requirement	-10.1039
prise	-10.1039
▁third	-10.1039
▁mission	-10.1039
▁Amazon	-10.104
▁print	-10.104
▁magnet	-10.104
▁High	-10.104
▁wild	-10.104
▁Apri	-10.104
▁piano	-10.104
▁stamp	-10.104
▁dream	-10.1041
▁policy	-10.1041
▁alphabetical	-10.1041
molog	-10.1041
▁gradua	-10.1041
▁motion	-10.1042
▁movement	-10.1042
▁slave	-10.1042
▁monster	-10.1043
▁viol	-10.1043
▁gallon	-10.1043
▁info	-10.1044
▁talk	-10.1044
▁legend	-10.1044
kha	-10.1044
▁econom	-10.1044
▁98	-10.1045
▁Fami	-10.1045
▁treatment	-10.1045
▁deep	-10.1045
▁data	-10.1046
▁steal	-10.1046
▁crop	-10.1046
▁job	-10.1047
▁disk	-10.1047
▁gli	-10.1047
▁shoe	-10.1048
▁sailor	-10.1048
▁Butter	-10.1049
▁faci	-10.1049
▁importer	-10.105
stellat	-10.105
▁len	-10.1051
▁lips	-10.1051
▁actual	-10.1052
▁Winter	-10.1052
ilit	-10.1053
▁camp	-10.1053
▁steam	-10.1053
stair	-10.1054
acula	-10.1055
▁imag	-10.1057
adio	-10.1057
▁NB	-10.1057
▁airline	-10.1057
heck	-10.1058
uvi	-10.106
▁stage	-10.1062
▁explorer	-10.1062
lati	-10.1062
▁cho	-10.1062
▁break	-10.1063
▁Silen	-10.1063
▁agent	-10.1064
▁Shelle	-10.1064
▁restore	-10.1065
itive	-10.1065
teau	-10.1065
▁becom	-10.1065
▁social	-10.1066
augh	-10.1066
▁Marx	-10.1066
▁1956	-10.1067
▁layer	-10.1069
▁length	-10.1069
▁architect	-10.1069
▁limit	-10.107
olf	-10.107
▁draft	-10.1071
▁fiction	-10.1071
▁conver	-10.1071
▁possess	-10.1071
▁cable	-10.1072
▁prob	-10.1072
ord	-10.1072
▁corporat	-10.1073
▁club	-10.1074
mont	-10.1074
▁witch	-10.1075
▁stick	-10.1075
▁Cob	-10.1077
▁describe	-10.1078
▁HI	-10.1078
step	-10.1081
▁22	-10.1082
▁Stra	-10.1083
▁match	-10.1084
eriod	-10.1084
▁generat	-10.1085
▁amend	-10.1085
▁tour	-10.1088
▁Depre	-10.109
▁cap	-10.1094
▁Rid	-10.1096
▁park	-10.1099
▁compare	-10.11
▁Rose	-10.1101
▁verse	-10.1102
hold	-10.1102
▁yell	-10.1103
▁move	-10.1105
▁regi	-10.1105
▁Marco	-10.1105
▁quick	-10.111
▁Field	-10.1111
ruple	-10.1114
▁terroris	-10.1115
▁Huss	-10.1118
▁established	-10.1118
▁insur	-10.1119
▁manufacturer	-10.1121
▁soci	-10.1123
▁western	-10.1126
▁wave	-10.1126
▁Yo	-10.113
ann	-10.1132
mperor	-10.1132
▁Pur	-10.1132
▁mine	-10.1132
nold	-10.1133
▁engineer	-10.1136
▁Side	-10.1137
▁share	-10.1138
▁opposit	-10.1139
iving	-10.1148
▁Harri	-10.1152
▁fall	-10.1157
▁log	-10.1158
▁Doody	-10.1159
▁want	-10.116
▁era	-10.1161
▁protect	-10.1161
▁blin	-10.1164
adia	-10.1165
▁pass	-10.1168
▁span	-10.1169
quai	-10.1176
▁Dead	-10.1176
▁Leon	-10.1181
▁lun	-10.1182
▁personal	-10.1185
▁Som	-10.1189
▁position	-10.119
▁cock	-10.1194
▁Youn	-10.1201
▁athlete	-10.1203
▁Stor	-10.1212
can	-10.1214
loy	-10.1226
▁Trac	-10.123
▁Sho	-10.1233
▁employ	-10.124
eci	-10.1244
ally	-10.125
▁Far	-10.1251
▁Mau	-10.1254
EE	-10.126
▁Ye	-10.127
▁well	-10.1276
olog	-10.13
▁storm	-10.1302
rack	-10.1303
▁cent	-10.1306
▁spa	-10.1315
▁beh	-10.132
▁east	-10.1331
▁cur	-10.1333
▁Easter	-10.1336
wif	-10.1339
naut	-10.134
tick	-10.1346
cin	-10.1348
▁Up	-10.1349
▁past	-10.1353
▁row	-10.1355
▁foot	-10.136
mato	-10.1384
▁moder	-10.1388
▁activ	-10.1388
▁1-	-10.1392
ouri	-10.1399
▁Orl	-10.14
▁shall	-10.1407
▁moral	-10.1417
vil	-10.1429
▁Son	-10.1429
▁dial	-10.1431
▁fan	-10.1452
▁struc	-10.1459
▁Chile	-10.1472
▁manag	-10.148
ipe	-10.1485
ola	-10.1491
▁Tur	-10.1497
▁Wild	-10.1505
ddam	-10.1509
▁tee	-10.1516
vel	-10.1519
▁Yal	-10.1532
▁giv	-10.1535
▁Kan	-10.1538
stead	-10.1541
gain	-10.1543
▁key	-10.1546
lot	-10.1553
▁neuro	-10.1556
▁Mill	-10.1566
eacher	-10.1573
dry	-10.1603
▁hate	-10.1603
▁Bre	-10.1613
umpt	-10.1615
cred	-10.1624
SI	-10.1632
las	-10.1633
TM	-10.1645
hy	-10.1649
▁Cub	-10.1661
▁Bell	-10.1692
▁Trista	-10.1705
▁spin	-10.1713
▁Rubb	-10.1718
▁Poke	-10.1724
42	-10.1727
▁Oh	-10.1732
oral	-10.1736
psy	-10.1738
usual	-10.1749
wok	-10.1779
▁Ban	-10.1788
well	-10.182
lux	-10.182
-2	-10.183
▁Kar	-10.1836
▁Cour	-10.1841
▁mail	-10.1855
▁Gr	-10.186
▁deadl	-10.1879
▁bl	-10.1901
llo	-10.1923
▁min	-10.1924
▁Ver	-10.1926
vine	-10.1927
▁sto	-10.1953
▁Ali	-10.1957
▁sent	-10.1964
nstitute	-10.1969
▁Tut	-10.2038
▁commit	-10.2042
▁Pres	-10.2042
bur	-10.2054
▁Dam	-10.2067
lar	-10.2072
▁Bay	-10.2081
▁promote	-10.209
ute	-10.2107
▁etc	-10.2117
▁Dre	-10.2136
▁pie	-10.2149
▁Pu	-10.2196
ndrom	-10.2208
▁cau	-10.2212
▁sale	-10.223
rap	-10.2261
ebras	-10.2265
zo	-10.2271
bec	-10.2281
ymo	-10.2285
cher	-10.2311
tah	-10.2321
non	-10.2363
▁Fra	-10.2363
amp	-10.239
cut	-10.2408
▁Moo	-10.2419
ival	-10.2427
pping	-10.2432
▁bal	-10.2441
car	-10.2468
avi	-10.2484
▁ove	-10.2488
▁Clar	-10.2499
thal	-10.2511
ssion	-10.2512
▁laun	-10.2525
▁Y	-10.2558
▁cats	-10.2571
▁ext	-10.2578
▁Alexand	-10.2581
sort	-10.2587
of	-10.2629
▁Mos	-10.2658
right	-10.2665
lab	-10.2694
ool	-10.2696
▁Cra	-10.2744
ode	-10.2745
tail	-10.275
ev	-10.2822
lli	-10.2834
▁Kh	-10.285
▁Or	-10.2854
over	-10.2855
indow	-10.2856
▁typ	-10.2859
her	-10.2891
▁tr	-10.2897
▁forest	-10.29
ez	-10.29
pment	-10.2924
ophob	-10.293
▁ru	-10.2931
lass	-10.297
▁Moor	-10.2983
arro	-10.2995
agan	-10.3028
▁lie	-10.3064
▁advertis	-10.3101
minist	-10.3134
ensive	-10.3136
ender	-10.3157
base	-10.318
▁Ric	-10.3202
liver	-10.3211
55	-10.3212
▁Jes	-10.3221
▁door	-10.3245
mmon	-10.3302
ears	-10.3303
rail	-10.3305
▁Vo	-10.3309
cus	-10.331
ban	-10.3343
zone	-10.3358
01	-10.3374
▁Marc	-10.3397
▁Kon	-10.3402
dew	-10.3406
oby	-10.3421
imate	-10.3435
▁hi	-10.3464
ebb	-10.3469
▁Fat	-10.3469
read	-10.3523
▁Ame	-10.3532
game	-10.3556
anyon	-10.3585
▁Bat	-10.3588
earl	-10.3598
▁horses	-10.3612
▁tie	-10.3638
▁penn	-10.3643
hor	-10.3644
don	-10.3649
▁Inc	-10.3651
cop	-10.3669
▁Chris	-10.3682
▁Sha	-10.3689
▁neur	-10.3698
▁Har	-10.3713
▁Ra	-10.3734
omen	-10.3743
▁leav	-10.3763
position	-10.3768
ayer	-10.3775
hol	-10.3787
▁Bla	-10.3788
▁hear	-10.3791
rctic	-10.3803
▁stee	-10.3822
▁Doo	-10.3851
polis	-10.3853
▁brother	-10.3859
▁184	-10.3874
fit	-10.3877
▁rat	-10.3883
▁Bor	-10.3888
▁Arch	-10.3909
aro	-10.3912
nail	-10.3918
▁Joe	-10.392
▁declar	-10.3926
▁includ	-10.3936
ving	-10.3937
▁poll	-10.3949
▁Barb	-10.3957
boat	-10.397
oli	-10.3976
bell	-10.3987
▁Hug	-10.4001
▁bus	-10.4039
▁tea	-10.406
oco	-10.4064
▁Tenn	-10.4069
fan	-10.408
▁Cru	-10.408
32	-10.4085
▁mid	-10.4089
▁Victor	-10.41
shop	-10.413
reme	-10.4143
cycl	-10.415
oul	-10.4157
biograph	-10.4162
▁Pl	-10.4164
arrier	-10.4165
wide	-10.417
storm	-10.4177
white	-10.4182
▁rai	-10.4189
Har	-10.419
president	-10.4193
famous	-10.4194
writer	-10.4194
power	-10.4197
book	-10.4197
▁revolution	-10.4198
crea	-10.42
clock	-10.4203
pound	-10.4207
hour	-10.4207
▁Bol	-10.4223
life	-10.4227
▁seque	-10.4233
▁gran	-10.4261
late	-10.4265
ivate	-10.4283
produc	-10.4289
▁quart	-10.429
▁Hone	-10.4294
▁establish	-10.4305
uff	-10.4306
▁soc	-10.4313
ndment	-10.4334
▁digit	-10.4342
umb	-10.4351
wor	-10.4351
ocrat	-10.4352
▁pitch	-10.4353
▁jer	-10.4356
hre	-10.436
▁circ	-10.4362
onstitut	-10.4363
omputer	-10.4365
endar	-10.4367
nivers	-10.4367
▁suppo	-10.437
ducation	-10.437
conscious	-10.437
▁Egypt	-10.437
▁Indonesia	-10.437
▁Representative	-10.437
▁announce	-10.437
▁appropriate	-10.437
▁experience	-10.437
▁geographic	-10.437
▁inaugurat	-10.437
▁jean	-10.437
▁mosquito	-10.437
▁rabbit	-10.437
▁recogni	-10.437
▁relative	-10.437
▁silversmith	-10.437
▁surname	-10.437
▁translation	-10.437
▁zodiac	-10.437
▁Rhode	-10.437
▁categor	-10.437
▁cricket	-10.437
▁pyramid	-10.437
▁recommend	-10.437
▁recruit	-10.437
▁teenager	-10.437
7-18	-10.437
▁Taiwan	-10.437
▁certain	-10.437
▁competit	-10.437
▁inject	-10.437
▁numeral	-10.437
▁premier	-10.437
▁select	-10.437
▁synonym	-10.437
▁Chief	-10.437
▁Lawrence	-10.437
▁muscle	-10.437
▁poison	-10.437
▁observ	-10.437
▁result	-10.437
▁destroy	-10.437
▁kidnap	-10.437
▁vessel	-10.437
▁chef	-10.437
commod	-10.437
▁contribut	-10.437
▁critic	-10.437
ustria	-10.437
▁chief	-10.437
▁pressure	-10.437
▁comedienne	-10.4371
▁uniform	-10.4371
▁problem	-10.4371
▁martini	-10.4371
Jacque	-10.4371
▁Glob	-10.4371
▁drag	-10.4371
▁Jeff	-10.4371
▁article	-10.4371
ehicle	-10.4371
▁wrestl	-10.4371
▁Disney	-10.4371
▁repli	-10.4371
▁chrom	-10.4371
▁thrille	-10.4371
oodpecker	-10.4371
▁draw	-10.4371
▁juice	-10.4371
▁cousin	-10.4371
▁translate	-10.4371
▁agree	-10.4371
▁honor	-10.4371
▁Argentin	-10.4371
▁Yellow	-10.4371
▁apartment	-10.4371
▁labor	-10.4371
▁drill	-10.4371
▁access	-10.4371
▁zero	-10.4371
▁Every	-10.4371
▁frequen	-10.4371
▁stud	-10.4371
▁combat	-10.4371
▁ripe	-10.4371
▁genetic	-10.4371
▁entire	-10.4371
commerc	-10.4371
▁millen	-10.4371
▁Fair	-10.4371
▁health	-10.4372
▁villain	-10.4372
▁flo	-10.4372
▁district	-10.4372
▁borrow	-10.4372
▁specific	-10.4372
▁Command	-10.4372
▁ethn	-10.4372
▁Grape	-10.4372
dependen	-10.4372
▁Minne	-10.4372
▁shoot	-10.4373
▁repea	-10.4373
▁extension	-10.4373
tagon	-10.4373
▁tornado	-10.4373
olo	-10.4373
▁luck	-10.4373
▁whisk	-10.4373
▁consist	-10.4373
▁Century	-10.4373
▁fatal	-10.4373
▁peanut	-10.4373
▁Napoleon	-10.4374
▁Mormon	-10.4374
▁Marshal	-10.4374
▁easi	-10.4374
▁employee	-10.4374
▁Prew	-10.4375
▁coastline	-10.4375
▁silver	-10.4375
▁adventur	-10.4375
▁Brand	-10.4375
rifi	-10.4375
▁Baker	-10.4375
▁Drink	-10.4375
▁bond	-10.4375
▁boost	-10.4375
▁grader	-10.4375
▁pearl	-10.4375
mia	-10.4375
▁register	-10.4376
▁rare	-10.4376
▁tribe	-10.4376
▁resource	-10.4376
▁detail	-10.4377
▁Smo	-10.4377
▁impos	-10.4377
▁Stock	-10.4377
▁swap	-10.4377
▁relate	-10.4377
ravel	-10.4378
▁Jung	-10.4378
millimeter	-10.4378
▁emperor	-10.4378
▁VB	-10.4379
▁pilot	-10.4379
▁circum	-10.4379
▁Back	-10.4379
▁Thank	-10.4379
▁snor	-10.438
▁suffer	-10.438
▁Sicil	-10.438
▁spell	-10.438
▁satel	-10.438
▁186	-10.438
▁scale	-10.4381
▁copie	-10.4381
▁fract	-10.4381
▁snake	-10.4381
▁iron	-10.4381
DR	-10.4382
▁Temp	-10.4382
▁86	-10.4382
▁Period	-10.4382
▁177	-10.4383
▁crab	-10.4383
▁Hank	-10.4383
▁virtu	-10.4383
emper	-10.4384
▁tele	-10.4384
▁rank	-10.4384
▁service	-10.4385
▁Living	-10.4385
▁Chance	-10.4385
▁feud	-10.4385
▁Coca	-10.4386
▁development	-10.4386
evard	-10.4387
▁Romantic	-10.4387
▁blow	-10.4387
▁scien	-10.4388
▁Lago	-10.4388
▁captain	-10.4388
care	-10.4389
ization	-10.439
capita	-10.439
▁185	-10.4391
▁Herm	-10.4391
▁highway	-10.4391
▁analys	-10.4391
▁securit	-10.4391
▁admit	-10.4394
▁lap	-10.4395
▁invade	-10.4395
▁boil	-10.4396
▁Force	-10.4397
▁cro	-10.4397
▁costume	-10.4398
▁Maid	-10.4399
▁partner	-10.44
▁digital	-10.44
▁couple	-10.44
▁camel	-10.4401
▁Forest	-10.4401
▁slow	-10.4401
▁gymnast	-10.4402
▁Cree	-10.4402
▁spice	-10.4403
▁liber	-10.4404
▁Rail	-10.4405
▁31	-10.4405
▁Corp	-10.4407
▁Crown	-10.4407
CR	-10.4407
▁bog	-10.4408
rican	-10.441
▁ancient	-10.4411
▁Gour	-10.4412
▁chronicle	-10.4413
▁jack	-10.4418
▁habit	-10.4418
▁float	-10.4418
▁disc	-10.4419
▁Race	-10.4421
▁issue	-10.4422
▁Clara	-10.4423
▁stain	-10.4423
▁cool	-10.4423
▁compa	-10.4426
▁poss	-10.4427
▁operation	-10.4429
present	-10.443
nitz	-10.4431
night	-10.4432
▁skat	-10.4436
▁yo	-10.4436
isco	-10.4439
efell	-10.4439
▁nar	-10.444
▁Lew	-10.4444
▁Mona	-10.4445
▁Stage	-10.4449
▁Bag	-10.445
▁Herb	-10.4451
▁statu	-10.4452
▁Ball	-10.4453
uild	-10.4453
▁scar	-10.4454
▁Advent	-10.4454
hooli	-10.4454
▁23	-10.4455
▁table	-10.4455
▁chick	-10.4458
▁divide	-10.446
▁Arm	-10.4463
▁Sky	-10.4463
▁pine	-10.4464
▁stre	-10.4464
abel	-10.447
▁cran	-10.447
▁rear	-10.447
▁link	-10.4471
▁carry	-10.4472
levi	-10.4473
▁agenc	-10.4476
▁lice	-10.4476
▁special	-10.4479
▁12-	-10.4479
▁Arca	-10.4485
mc	-10.449
▁Rena	-10.4491
▁divi	-10.4491
▁Post	-10.4493
igan	-10.4494
▁pick	-10.4497
▁Gett	-10.4497
▁rent	-10.45
axim	-10.4502
▁strong	-10.4502
▁Brad	-10.4507
pirac	-10.4509
gur	-10.4517
parent	-10.4524
▁verm	-10.4526
▁styl	-10.453
▁80	-10.4537
hook	-10.4539
▁thank	-10.454
▁hik	-10.4544
▁revolutionar	-10.4546
▁rub	-10.4547
▁slo	-10.455
▁epic	-10.4555
▁Hor	-10.4555
▁front	-10.4556
▁guy	-10.4557
▁Brun	-10.4557
▁Young	-10.456
▁journalis	-10.4563
ument	-10.4565
▁15-	-10.4577
▁Kath	-10.4577
▁Berg	-10.4579
ream	-10.4579
▁golden	-10.4579
▁mass	-10.458
▁nest	-10.4581
▁biograph	-10.4586
▁Clin	-10.4589
eu	-10.4594
stol	-10.4594
▁Hea	-10.4598
▁liner	-10.4599
sabl	-10.4604
▁7-	-10.4604
▁beside	-10.461
000	-10.4614
▁coin	-10.4615
itz	-10.4624
irl	-10.4627
▁cow	-10.463
▁Tol	-10.4633
unda	-10.4637
▁anti	-10.4638
▁Rona	-10.4643
▁haz	-10.4646
▁Cop	-10.4648
▁trag	-10.4661
▁Gil	-10.4665
▁odor	-10.4671
ncy	-10.4673
▁syr	-10.4673
grade	-10.4681
▁grav	-10.4685
▁room	-10.4689
lack	-10.4694
ifth	-10.4695
orce	-10.4696
▁cra	-10.4698
▁push	-10.4706
▁cookie	-10.4711
▁worm	-10.4745
iano	-10.4747
▁mess	-10.4751
rath	-10.4754
▁Mid	-10.4764
▁fle	-10.4771
▁Carol	-10.4771
ustra	-10.4781
▁gest	-10.4797
▁chin	-10.4802
ung	-10.4802
ocke	-10.4804
illion	-10.4807
▁Pr	-10.4828
▁Yu	-10.483
▁swa	-10.4833
atra	-10.4833
▁Apo	-10.484
amic	-10.4847
har	-10.4856
▁fine	-10.4859
die	-10.4867
▁carp	-10.488
cal	-10.4899
rab	-10.4912
rror	-10.4914
hower	-10.4917
▁bene	-10.4917
▁Case	-10.4918
lic	-10.4921
▁goal	-10.4925
▁WW	-10.4929
▁178	-10.4933
lick	-10.494
▁prote	-10.4946
▁Archi	-10.4951
ign	-10.4957
▁Abb	-10.4967
▁Dood	-10.4993
▁Vie	-10.4993
oz	-10.5008
inner	-10.5019
▁nominat	-10.5019
▁busi	-10.5024
alter	-10.5032
▁abilit	-10.5038
▁Jol	-10.504
enem	-10.5042
▁Hand	-10.5046
▁sens	-10.5059
▁sy	-10.5061
▁Mack	-10.5066
▁Rubi	-10.5069
illing	-10.5073
▁Cam	-10.5073
▁Seri	-10.5074
▁ran	-10.5088
▁Ice	-10.51
winn	-10.5102
kov	-10.5123
arr	-10.5124
▁gu	-10.5131
gian	-10.5161
gri	-10.5161
▁Commun	-10.5165
▁founder	-10.5165
▁Any	-10.5232
▁183	-10.5243
vail	-10.5249
LO	-10.5253
ove	-10.527
rom	-10.5286
▁Harr	-10.5298
ody	-10.5314
irst	-10.5334
▁gui	-10.5367
penetra	-10.5399
▁efficien	-10.5403
ower	-10.5429
▁pot	-10.5431
▁resi	-10.5431
mphi	-10.5475
ump	-10.5488
▁Homer	-10.5501
rave	-10.5509
▁para	-10.552
icker	-10.5537
pelle	-10.5575
▁dip	-10.5581
▁Nine	-10.5587
▁heat	-10.5597
Right	-10.5602
kness	-10.5604
▁bad	-10.5611
atur	-10.5613
ourne	-10.5628
▁gar	-10.566
raz	-10.5664
▁chi	-10.5671
gram	-10.5681
▁Oc	-10.5688
▁Belg	-10.5695
▁inning	-10.5696
hree	-10.5727
▁oz	-10.5728
list	-10.5747
▁plea	-10.5749
▁condo	-10.5759
itcom	-10.5761
mpo	-10.5781
processor	-10.5791
merge	-10.582
nne	-10.5827
kla	-10.5859
skim	-10.5896
▁Fer	-10.5954
rain	-10.597
kland	-10.5998
cation	-10.6006
▁Cin	-10.6018
▁dec	-10.6023
iel	-10.6038
▁Bern	-10.6077
oxy	-10.6084
NA	-10.609
▁barbe	-10.6119
▁Fin	-10.6123
ophy	-10.615
oes	-10.6161
auti	-10.6235
state	-10.6238
▁Ju	-10.6258
▁Bra	-10.629
hell	-10.6312
aid	-10.6313
ille	-10.6328
lam	-10.6379
▁ticke	-10.6381
▁vis	-10.6397
▁Hust	-10.6438
▁45	-10.65
▁Boo	-10.6512
▁There	-10.6518
nad	-10.6527
▁wash	-10.6531
▁Alexandr	-10.6546
lanc	-10.6556
▁Mala	-10.6576
ammy	-10.658
▁Tru	-10.6604
roof	-10.6612
▁scienti	-10.6627
issa	-10.664
▁Matt	-10.6642
log	-10.6646
mmy	-10.6666
▁vocal	-10.6687
▁bell	-10.6711
▁farthe	-10.6712
ith	-10.6718
▁Cou	-10.6762
ophe	-10.6776
nak	-10.6787
scientist	-10.679
▁tend	-10.6821
▁Gi	-10.6891
▁Barn	-10.6903
fr	-10.6904
achi	-10.6922
burg	-10.694
cast	-10.7007
▁Cro	-10.707
▁Free	-10.7095
▁Beet	-10.7122
Kin	-10.7123
▁exc	-10.7136
▁brow	-10.7137
mil	-10.7138
▁Lite	-10.714
bar	-10.7213
▁myth	-10.7225
lum	-10.7286
else	-10.7292
asting	-10.7309
lax	-10.7352
unk	-10.7358
ami	-10.737
aster	-10.7386
▁Dow	-10.7505
arian	-10.7519
▁colon	-10.7524
RA	-10.7528
▁Gra	-10.7541
▁Sup	-10.7546
76	-10.7549
▁Pep	-10.7554
▁deca	-10.7562
gio	-10.7578
call	-10.7604
erra	-10.7652
▁Lou	-10.7657
▁rati	-10.7671
ament	-10.7688
nsion	-10.7711
▁meta	-10.7745
tionist	-10.7765
▁da	-10.7766
host	-10.7774
900	-10.7795
▁Den	-10.7796
▁Pri	-10.7859
prop	-10.7881
▁fel	-10.7881
IO	-10.7883
▁Gul	-10.7972
lone	-10.7983
mare	-10.7983
comb	-10.799
80	-10.8035
par	-10.807
▁hyper	-10.8128
ebu	-10.8138
▁si	-10.8139
roll	-10.8158
here	-10.8168
▁Communi	-10.8194
ube	-10.8238
umber	-10.8243
warm	-10.8269
homa	-10.8296
fic	-10.8301
▁Pea	-10.8339
lush	-10.8365
bul	-10.8382
99	-10.8383
▁Rub	-10.8413
nosaur	-10.8419
corde	-10.8444
llow	-10.8477
▁Bud	-10.8478
itor	-10.8509
hat	-10.8533
▁Chil	-10.8535
▁Barba	-10.8541
▁WWI	-10.8547
▁construct	-10.8568
lowe	-10.8592
lector	-10.8658
ifica	-10.8671
▁plu	-10.8678
▁Pin	-10.8696
kon	-10.8715
owel	-10.8716
▁ref	-10.8725
▁defe	-10.8774
wai	-10.8775
ligh	-10.8801
nois	-10.8808
15	-10.882
▁curren	-10.8834
▁par	-10.8846
▁emb	-10.8854
▁Govern	-10.8855
▁Jan	-10.8872
iva	-10.8925
▁blo	-10.8939
rite	-10.8939
▁constitut	-10.8959
▁provi	-10.8964
minut	-10.8964
▁domestic	-10.8971
▁Eric	-10.8978
eason	-10.898
audi	-10.8983
▁athlet	-10.9009
drin	-10.9018
ropo	-10.9022
gue	-10.9057
▁epi	-10.9078
▁fai	-10.9079
lphi	-10.9084
upp	-10.9091
▁Hon	-10.9091
▁Bru	-10.9094
87	-10.9099
▁kn	-10.9103
▁Ap	-10.911
▁mee	-10.9112
ike	-10.9114
avian	-10.9115
flow	-10.9122
▁Fro	-10.9129
ote	-10.9135
q	-10.9139
cultur	-10.914
▁swim	-10.9146
▁journal	-10.9149
164	-10.9151
▁Bil	-10.9152
▁valu	-10.9167
western	-10.9172
wave	-10.9173
ficial	-10.9179
street	-10.9179
clos	-10.9181
heart	-10.9183
friend	-10.9188
gra	-10.9189
team	-10.9189
spect	-10.919
bound	-10.9191
biggest	-10.9191
highest	-10.9194
▁Tim	-10.9195
▁cla	-10.9195
American	-10.9196
?	-10.9197
weigh	-10.9199
glo	-10.9199
world	-10.9199
▁cult	-10.92
count	-10.92
wall	-10.9201
force	-10.9202
like	-10.9204
bear	-10.9205
fast	-10.9207
easure	-10.9207
CD	-10.9211
bowl	-10.9215
▁terror	-10.9218
▁Pre	-10.9223
nimal	-10.9232
▁Manch	-10.9234
apple	-10.9236
▁stron	-10.9239
serve	-10.924
hari	-10.9241
large	-10.9242
worm	-10.9249
door	-10.9251
▁ec	-10.9251
fall	-10.9253
born	-10.9254
tatue	-10.9266
title	-10.9274
struct	-10.9275
▁horo	-10.9276
acle	-10.9277
37	-10.9282
▁comple	-10.9284
pro	-10.9289
▁prison	-10.9289
▁Iraq	-10.9296
flower	-10.9298
▁chronic	-10.9301
▁Stev	-10.9304
▁Scien	-10.9311
▁Ja	-10.9316
▁kil	-10.9318
▁dropp	-10.9323
▁explor	-10.9324
cow	-10.9325
ublic	-10.9329
▁ob	-10.9329
▁terr	-10.9338
letter	-10.9341
▁pregna	-10.9345
azz	-10.9346
▁profess	-10.9347
ountain	-10.9348
▁radi	-10.9348
▁jud	-10.935
rdan	-10.9355
▁inva	-10.9356
olph	-10.9358
BI	-10.9359
pilo	-10.936
cul	-10.936
osmo	-10.9365
econd	-10.9365
▁milli	-10.9365
oldier	-10.9365
▁require	-10.9366
roject	-10.9366
agina	-10.9367
Man	-10.9367
onnecti	-10.9369
ndividual	-10.9369
▁Iv	-10.937
▁cuc	-10.937
cident	-10.937
▁Bourbon	-10.937
▁attorney	-10.937
▁Elizabeth	-10.937
▁Kindergar	-10.937
▁astronom	-10.937
▁quot	-10.937
cript	-10.937
ija	-10.937
jar	-10.937
paghetti	-10.937
▁Aztec	-10.937
▁Blackhawk	-10.937
▁Budweis	-10.937
▁Principle	-10.937
▁adjo	-10.937
▁affair	-10.937
▁commission	-10.937
▁distinguish	-10.937
▁earthquake	-10.937
▁ejaculat	-10.937
▁electronic	-10.937
▁environment	-10.937
▁experiment	-10.937
▁imprison	-10.937
▁ingredient	-10.937
▁jealous	-10.937
▁necessar	-10.937
▁neighbor	-10.937
▁opponent	-10.937
▁ostrich	-10.937
▁overlook	-10.937
▁pomegranate	-10.937
▁rhyme	-10.937
▁transistor	-10.937
▁vitamin	-10.937
▁clitori	-10.937
▁disappear	-10.937
▁improve	-10.937
▁motorcycle	-10.937
▁Chronic	-10.937
▁Muslim	-10.937
▁Square	-10.937
▁bubble	-10.937
▁hydroelectric	-10.937
▁particular	-10.937
▁philosoph	-10.937
▁refuge	-10.937
▁stroke	-10.937
▁textile	-10.937
▁yacht	-10.937
ynthesi	-10.937
▁Physic	-10.937
▁Robb	-10.937
▁Scooby	-10.937
▁burglar	-10.937
▁compile	-10.937
▁correspond	-10.937
▁cullion	-10.937
▁permanent	-10.937
▁sneez	-10.937
▁Frankenstein	-10.937
▁blonde	-10.937
▁mathematic	-10.937
▁merchan	-10.937
▁Ukrain	-10.937
▁boycott	-10.937
▁shadow	-10.937
▁Eagle	-10.9371
▁Crime	-10.9371
▁Inuit	-10.9371
▁reput	-10.9371
▁Bavaria	-10.9371
▁Rhine	-10.9371
▁symptom	-10.9371
▁witness	-10.9371
elestial	-10.9371
▁Sleep	-10.9371
▁exclusive	-10.9371
▁distribut	-10.9371
▁sparkl	-10.9371
▁Prussia	-10.9371
▁Raider	-10.9371
▁Smith	-10.9371
▁appli	-10.9371
▁sprout	-10.9371
▁suppl	-10.9371
▁simple	-10.9371
evolution	-10.9371
▁Ozz	-10.9371
▁resident	-10.9371
ahua	-10.9371
▁alleged	-10.9371
▁intestine	-10.9371
▁dimension	-10.9371
▁clear	-10.9371
▁oyster	-10.9371
▁initial	-10.9371
▁crew	-10.9371
uku	-10.9371
▁tumbl	-10.9371
▁wreak	-10.9371
▁circulat	-10.9371
atisfact	-10.9371
▁flood	-10.9371
▁succeed	-10.9371
▁explosi	-10.9371
▁reuni	-10.9371
▁victim	-10.9371
escribe	-10.9371
compete	-10.9371
▁entertain	-10.9371
▁suburb	-10.9371
▁weakness	-10.9371
▁volley	-10.9371
▁Sparta	-10.9371
▁seafar	-10.9371
▁transport	-10.9371
▁nutri	-10.9371
▁Merri	-10.9371
▁Econo	-10.9371
▁brew	-10.9371
▁Terr	-10.9371
▁plague	-10.9371
▁fasci	-10.9371
▁extend	-10.9371
▁industrial	-10.9372
▁victor	-10.9372
▁Sabr	-10.9372
▁accept	-10.9372
▁compound	-10.9372
▁NAS	-10.9372
▁Snow	-10.9372
▁individual	-10.9372
▁accident	-10.9372
▁kick	-10.9372
▁extinct	-10.9372
▁castle	-10.9372
▁combin	-10.9372
▁gangster	-10.9372
clair	-10.9372
▁Swamp	-10.9372
▁assign	-10.9372
orbit	-10.9372
vapor	-10.9372
▁comprise	-10.9372
▁gambl	-10.9372
▁slee	-10.9372
▁psori	-10.9372
▁achievement	-10.9372
▁conceiv	-10.9372
▁Bernard	-10.9372
nesbur	-10.9372
▁knight	-10.9373
▁Superbowl	-10.9373
escap	-10.9373
elieve	-10.9373
▁approach	-10.9373
▁marble	-10.9373
▁marvel	-10.9373
ortrait	-10.9373
▁session	-10.9373
▁lime	-10.9373
▁crown	-10.9373
▁palm	-10.9373
▁slim	-10.9374
▁quant	-10.9374
opyright	-10.9374
▁advis	-10.9374
▁studio	-10.9374
chemi	-10.9374
▁reviv	-10.9374
▁ridge	-10.9374
▁stinger	-10.9374
▁Plain	-10.9374
valier	-10.9374
▁Maj	-10.9374
▁shark	-10.9374
▁folk	-10.9375
▁recharge	-10.9375
furt	-10.9375
▁phila	-10.9375
▁indicat	-10.9375
▁Front	-10.9376
▁flat	-10.9376
▁snowboard	-10.9376
▁profit	-10.9376
▁economist	-10.9376
▁coup	-10.9376
▁fossil	-10.9376
▁colla	-10.9376
▁multiple	-10.9376
▁foreign	-10.9376
▁Antoni	-10.9377
lectric	-10.9377
▁Kenya	-10.9377
mechani	-10.9377
rupt	-10.9377
etrograd	-10.9377
▁Trans	-10.9378
▁predict	-10.9378
▁Santos	-10.9378
▁survivor	-10.9378
▁delegat	-10.9378
▁Fonta	-10.9378
uzz	-10.9379
▁Terrifi	-10.9379
▁retire	-10.9379
▁Hermit	-10.9379
▁Domin	-10.9379
▁symbolize	-10.9379
▁shore	-10.9379
▁Challenge	-10.938
▁Pudd	-10.938
▁Spider	-10.938
▁Artist	-10.938
▁dumb	-10.9381
▁126	-10.9382
▁Murd	-10.9382
wreck	-10.9382
▁promis	-10.9382
martial	-10.9382
▁rug	-10.9382
▁dime	-10.9382
▁attract	-10.9383
SIC	-10.9383
▁principle	-10.9383
▁colli	-10.9383
▁railway	-10.9384
▁Wayne	-10.9384
syllab	-10.9385
▁copper	-10.9385
duct	-10.9385
▁trans	-10.9385
▁Gran	-10.9386
zym	-10.9386
▁review	-10.9387
wealth	-10.9387
▁charc	-10.9387
▁report	-10.9387
role	-10.9388
trici	-10.9388
▁Egg	-10.9389
▁bureau	-10.9389
▁recess	-10.9389
▁46	-10.9389
pag	-10.939
▁Funk	-10.939
▁Norman	-10.9392
▁Suz	-10.9392
▁conju	-10.9392
▁Circ	-10.9392
▁tooth	-10.9392
▁Iberia	-10.9393
udio	-10.9393
▁oxid	-10.9394
▁jerk	-10.9394
▁bullet	-10.9395
chlor	-10.9395
TR	-10.9395
charge	-10.9395
▁hump	-10.9396
lis	-10.9396
▁Jell	-10.9396
▁Research	-10.9397
▁Wiz	-10.9397
▁treasur	-10.9397
▁button	-10.9398
▁joke	-10.9398
istan	-10.9398
▁Punch	-10.9399
DA	-10.9399
▁48	-10.9399
▁Sara	-10.9399
▁noun	-10.9401
▁corn	-10.9401
▁Pamp	-10.9402
▁march	-10.9402
▁Well	-10.9402
mpling	-10.9402
▁fool	-10.9402
seek	-10.9402
▁condi	-10.9403
▁boun	-10.9403
icket	-10.9403
▁Rio	-10.9404
▁string	-10.9404
▁hostage	-10.9404
▁...	-10.9404
▁Socrat	-10.9404
▁Crow	-10.9406
▁Letter	-10.9406
Ele	-10.9407
▁feather	-10.9407
▁swea	-10.9407
peration	-10.9408
▁Music	-10.9409
lub	-10.9409
▁stri	-10.9409
▁cash	-10.941
▁pain	-10.941
ordina	-10.9411
▁Lyn	-10.9412
▁quali	-10.9412
▁Stri	-10.9412
pist	-10.9412
phos	-10.9413
▁Goldf	-10.9413
▁cuck	-10.9414
mbo	-10.9416
▁Wheel	-10.9417
▁Hans	-10.9417
▁hum	-10.9418
▁rob	-10.9419
▁Duck	-10.9421
▁judge	-10.9422
▁dispos	-10.9422
▁Spring	-10.9423
▁throw	-10.9423
risto	-10.9423
▁hive	-10.9423
garet	-10.9424
▁chop	-10.9424
▁Rosann	-10.9425
▁melt	-10.9425
▁pul	-10.9425
▁injur	-10.9426
▁breath	-10.9426
▁Even	-10.9428
▁arti	-10.9429
▁qua	-10.943
▁silk	-10.9431
mming	-10.9431
▁Jenn	-10.9431
▁26	-10.9431
▁brake	-10.9432
▁Liz	-10.9432
▁Dennis	-10.9432
▁Malt	-10.9434
flict	-10.9438
delicate	-10.9438
▁ult	-10.9439
stock	-10.9442
▁maid	-10.9442
▁physical	-10.9443
▁Light	-10.9444
▁Iraqi	-10.9446
▁Wake	-10.9446
▁35	-10.9446
elicit	-10.9447
▁poor	-10.9448
▁Daws	-10.9449
endu	-10.945
continu	-10.9451
ES	-10.9451
▁prisoner	-10.9453
▁corner	-10.9453
▁dropping	-10.9454
imli	-10.9455
▁PO	-10.9455
▁execution	-10.9456
▁drunk	-10.9456
▁alcohol	-10.9456
▁powder	-10.9456
iploma	-10.9456
▁consecutive	-10.9456
▁solve	-10.9456
▁flog	-10.9456
▁Kra	-10.9457
▁capture	-10.9459
▁connect	-10.946
▁Exc	-10.9461
▁settle	-10.9461
▁haunt	-10.9462
▁Finn	-10.9464
▁scene	-10.9465
▁gall	-10.9466
▁Profess	-10.9466
▁vir	-10.9466
omper	-10.9466
▁zoo	-10.9467
msel	-10.9467
0-	-10.9468
▁Dub	-10.947
▁Newton	-10.9471
▁fifth	-10.9472
▁refus	-10.9474
domina	-10.9475
entist	-10.9475
▁scr	-10.9476
▁JP	-10.9479
▁proce	-10.948
riz	-10.948
▁Steve	-10.9484
fish	-10.9485
▁tap	-10.9488
gression	-10.9488
▁fix	-10.949
▁Hond	-10.9493
▁24-	-10.9496
▁Row	-10.9498
▁col	-10.9498
▁Poc	-10.9503
AA	-10.9506
▁Kil	-10.9507
▁billion	-10.9508
matic	-10.951
▁Shut	-10.951
astic	-10.9517
▁Pop	-10.9518
▁Twin	-10.9519
uce	-10.952
▁Badge	-10.9521
▁Tour	-10.9522
▁Oil	-10.9524
▁Thur	-10.9524
▁Swi	-10.9525
▁uni	-10.9528
ular	-10.9529
aud	-10.953
ulle	-10.9533
▁Ark	-10.9534
cock	-10.9534
▁nitr	-10.9541
▁bron	-10.9542
▁tur	-10.9543
▁spray	-10.9543
SD	-10.9548
In	-10.9549
page	-10.9551
▁Fire	-10.9556
cci	-10.9557
▁handic	-10.9559
gne	-10.9562
▁shel	-10.9562
▁Know	-10.9563
appa	-10.9564
ww	-10.9568
▁mall	-10.9577
eanut	-10.9578
anna	-10.958
AFT	-10.9585
▁CT	-10.9587
▁surge	-10.9591
▁Eye	-10.9592
minate	-10.9592
▁quarter	-10.9593
▁dangl	-10.9593
▁IN	-10.9594
▁belong	-10.9594
▁Jay	-10.9598
bla	-10.9598
istic	-10.9599
▁Manche	-10.9602
▁Low	-10.9604
nker	-10.9605
alyps	-10.9607
replace	-10.9611
oob	-10.9614
▁commander	-10.9615
▁Pel	-10.9617
▁Peg	-10.9623
rmal	-10.9623
▁mist	-10.9625
▁hep	-10.9627
▁glob	-10.9627
▁needle	-10.9631
▁bul	-10.9634
▁lion	-10.9635
▁100	-10.9643
dwell	-10.9645
▁math	-10.9647
▁rise	-10.9647
▁tera	-10.9651
▁tile	-10.9654
brick	-10.9656
alogue	-10.9659
▁conservation	-10.9667
oslav	-10.9669
▁fair	-10.9669
ymn	-10.9674
▁zip	-10.9679
▁Mission	-10.9681
▁colo	-10.9682
them	-10.9683
▁Dori	-10.9689
▁Gif	-10.9691
▁Pack	-10.9693
▁mind	-10.9694
ebellion	-10.9695
olphin	-10.9696
▁Bis	-10.9701
hett	-10.9705
▁Page	-10.9705
▁Dw	-10.9706
▁Hard	-10.9707
enger	-10.9719
▁grand	-10.972
rpo	-10.9724
▁Make	-10.9741
▁Rice	-10.9745
▁cycl	-10.9748
▁Shei	-10.975
▁Loui	-10.9766
mell	-10.9768
ogen	-10.9773
▁bound	-10.9779
person	-10.978
abet	-10.979
▁Honey	-10.9792
▁cam	-10.9798
▁penny	-10.9799
▁exper	-10.98
alia	-10.9801
▁cultur	-10.9802
▁Nicol	-10.981
▁counting	-10.9818
▁constitute	-10.9825
▁housew	-10.983
▁Journ	-10.9833
▁Krem	-10.9835
lette	-10.9841
Ne	-10.9845
igm	-10.9847
▁hor	-10.9849
▁Fil	-10.9855
gel	-10.9856
ifle	-10.9857
nue	-10.9868
defens	-10.9869
▁godd	-10.9872
▁Grim	-10.9881
▁geni	-10.9886
▁Pia	-10.9887
▁cher	-10.989
▁Bloo	-10.9909
▁peas	-10.9915
▁tab	-10.9924
▁wide	-10.9925
SP	-10.9931
▁deci	-10.9934
ruise	-10.9951
▁Gla	-10.9966
▁Gua	-10.9967
▁Indiana	-10.9968
▁Favo	-10.9969
▁frog	-10.9975
ogis	-10.9983
▁Moto	-10.9984
▁mov	-10.9995
mile	-11.0011
▁Cole	-11.0013
▁crack	-11.0014
▁seve	-11.002
▁Associate	-11.0021
vide	-11.0036
▁bottled	-11.0039
▁rou	-11.0048
▁Mino	-11.0052
undre	-11.0055
▁cub	-11.0063
▁bott	-11.0068
▁Arabia	-11.0071
▁darn	-11.0077
ctor	-11.0077
▁listen	-11.0091
pion	-11.0093
▁sense	-11.0098
▁Nik	-11.0109
▁Wink	-11.0114
iagra	-11.0119
▁Use	-11.0132
▁Bad	-11.0133
dise	-11.0133
▁poly	-11.0142
▁Mode	-11.015
▁lay	-11.0152
rypt	-11.0153
▁Sunda	-11.0154
▁Hend	-11.0167
▁Idi	-11.0169
quenc	-11.0176
▁Blo	-11.0181
▁Af	-11.0192
apital	-11.0198
▁Gl	-11.0201
▁enli	-11.0209
lugg	-11.0211
eud	-11.0229
Rit	-11.0232
▁Toot	-11.0244
construction	-11.0245
▁Rich	-11.0248
▁Tyl	-11.0249
gator	-11.0269
▁doll	-11.0272
surge	-11.0279
▁Madd	-11.028
rise	-11.0282
oper	-11.0302
llig	-11.0302
mbass	-11.0315
sets	-11.0316
▁App	-11.0319
▁invention	-11.0326
▁advan	-11.0335
ermit	-11.0353
▁Ches	-11.0358
▁poke	-11.0378
▁Leo	-11.0381
▁feel	-11.0387
▁ante	-11.0405
osaurus	-11.0419
icorn	-11.0467
▁psycholog	-11.0472
▁Kno	-11.0473
weet	-11.0474
▁Gard	-11.0518
laugh	-11.0519
bac	-11.0523
▁wi	-11.0526
▁Bend	-11.0536
▁orga	-11.0536
▁heav	-11.0554
▁Nam	-11.057
deo	-11.0573
▁acre	-11.0594
43	-11.0606
answer	-11.0612
eedle	-11.0639
▁accompan	-11.0641
▁Lau	-11.0643
▁brea	-11.0661
▁touris	-11.0675
▁Cher	-11.068
74	-11.0727
▁spra	-11.0748
▁vill	-11.075
▁shou	-11.0774
ervice	-11.0783
▁hyperte	-11.0818
rante	-11.0829
▁steep	-11.0854
▁menu	-11.0898
▁embl	-11.0912
▁runn	-11.0933
▁lend	-11.0938
▁Buda	-11.0966
illi	-11.0967
▁farm	-11.0969
runn	-11.1009
▁Goldi	-11.1009
▁sku	-11.1075
▁Barbar	-11.1077
rgent	-11.1083
kle	-11.1113
▁scho	-11.1125
69	-11.116
oyage	-11.1178
pox	-11.1195
▁Lock	-11.1207
zer	-11.1218
lies	-11.1262
▁toppl	-11.1283
hacker	-11.1326
lley	-11.1327
rbon	-11.1332
▁Shar	-11.1338
nea	-11.1347
onos	-11.1348
ugu	-11.1355
▁inspiration	-11.1369
▁relie	-11.1382
billi	-11.1408
MO	-11.1441
▁shower	-11.1479
▁marr	-11.1519
ugg	-11.1538
ffi	-11.1555
hal	-11.1558
quil	-11.1575
ab	-11.1645
▁Eli	-11.1646
▁Fredd	-11.1678
sterda	-11.1721
ulos	-11.1756
▁Fur	-11.1819
▁Hum	-11.1827
wick	-11.1827
ratio	-11.1843
j	-13.2082
,	-13.2083
